{
  "version": "1.0",
  "truncation": null,
  "padding": null,
  "added_tokens": [
    {
      "id": 0,
      "content": "[PAD]",
      "single_word": false,
      "lstrip": false,
      "rstrip": false,
      "normalized": false,
      "special": true
    },
    {
      "id": 1,
      "content": "[UNK]",
      "single_word": false,
      "lstrip": false,
      "rstrip": false,
      "normalized": false,
      "special": true
    },
    {
      "id": 2,
      "content": "[CLS]",
      "single_word": false,
      "lstrip": false,
      "rstrip": false,
      "normalized": false,
      "special": true
    },
    {
      "id": 3,
      "content": "[SEP]",
      "single_word": false,
      "lstrip": false,
      "rstrip": false,
      "normalized": false,
      "special": true
    },
    {
      "id": 4,
      "content": "[MASK]",
      "single_word": false,
      "lstrip": false,
      "rstrip": false,
      "normalized": false,
      "special": true
    }
  ],
  "normalizer": null,
  "pre_tokenizer": {
    "type": "ByteLevel",
    "add_prefix_space": true,
    "trim_offsets": true,
    "use_regex": true
  },
  "post_processor": null,
  "decoder": null,
  "model": {
    "type": "BPE",
    "dropout": null,
    "unk_token": null,
    "continuing_subword_prefix": null,
    "end_of_word_suffix": null,
    "fuse_unk": false,
    "byte_fallback": false,
    "ignore_merges": false,
    "vocab": {
      "[PAD]": 0,
      "[UNK]": 1,
      "[CLS]": 2,
      "[SEP]": 3,
      "[MASK]": 4,
      "!": 5,
      "\"": 6,
      "#": 7,
      "$": 8,
      "%": 9,
      "&": 10,
      "'": 11,
      "(": 12,
      ")": 13,
      "*": 14,
      "+": 15,
      ",": 16,
      "-": 17,
      ".": 18,
      "/": 19,
      "0": 20,
      "1": 21,
      "2": 22,
      "3": 23,
      "4": 24,
      "5": 25,
      "6": 26,
      "7": 27,
      "8": 28,
      "9": 29,
      ":": 30,
      ";": 31,
      "<": 32,
      "=": 33,
      ">": 34,
      "?": 35,
      "@": 36,
      "A": 37,
      "B": 38,
      "C": 39,
      "D": 40,
      "E": 41,
      "F": 42,
      "G": 43,
      "H": 44,
      "I": 45,
      "J": 46,
      "K": 47,
      "L": 48,
      "M": 49,
      "N": 50,
      "O": 51,
      "P": 52,
      "Q": 53,
      "R": 54,
      "S": 55,
      "T": 56,
      "U": 57,
      "V": 58,
      "W": 59,
      "X": 60,
      "Y": 61,
      "Z": 62,
      "[": 63,
      "\\": 64,
      "]": 65,
      "^": 66,
      "_": 67,
      "`": 68,
      "a": 69,
      "b": 70,
      "c": 71,
      "d": 72,
      "e": 73,
      "f": 74,
      "g": 75,
      "h": 76,
      "i": 77,
      "j": 78,
      "k": 79,
      "l": 80,
      "m": 81,
      "n": 82,
      "o": 83,
      "p": 84,
      "q": 85,
      "r": 86,
      "s": 87,
      "t": 88,
      "u": 89,
      "v": 90,
      "w": 91,
      "x": 92,
      "y": 93,
      "z": 94,
      "{": 95,
      "|": 96,
      "}": 97,
      "~": 98,
      "¡": 99,
      "¢": 100,
      "£": 101,
      "¤": 102,
      "¥": 103,
      "¦": 104,
      "§": 105,
      "¨": 106,
      "©": 107,
      "ª": 108,
      "«": 109,
      "¬": 110,
      "®": 111,
      "¯": 112,
      "°": 113,
      "±": 114,
      "²": 115,
      "³": 116,
      "´": 117,
      "µ": 118,
      "¶": 119,
      "·": 120,
      "¸": 121,
      "¹": 122,
      "º": 123,
      "»": 124,
      "¼": 125,
      "½": 126,
      "¾": 127,
      "¿": 128,
      "Â": 129,
      "Ã": 130,
      "Ä": 131,
      "Å": 132,
      "Æ": 133,
      "Ç": 134,
      "È": 135,
      "É": 136,
      "Ê": 137,
      "Ë": 138,
      "Ì": 139,
      "Í": 140,
      "Î": 141,
      "Ï": 142,
      "Ð": 143,
      "Ñ": 144,
      "Ò": 145,
      "Ó": 146,
      "Ô": 147,
      "Õ": 148,
      "Ö": 149,
      "×": 150,
      "Ø": 151,
      "Ù": 152,
      "Ú": 153,
      "Û": 154,
      "Ü": 155,
      "Ý": 156,
      "Þ": 157,
      "ß": 158,
      "à": 159,
      "á": 160,
      "â": 161,
      "ã": 162,
      "ä": 163,
      "å": 164,
      "æ": 165,
      "ç": 166,
      "è": 167,
      "é": 168,
      "ê": 169,
      "ë": 170,
      "ì": 171,
      "í": 172,
      "î": 173,
      "ï": 174,
      "ð": 175,
      "ó": 176,
      "ô": 177,
      "Ā": 178,
      "ā": 179,
      "Ă": 180,
      "ă": 181,
      "Ą": 182,
      "ą": 183,
      "Ć": 184,
      "ć": 185,
      "Ĉ": 186,
      "Ċ": 187,
      "Ď": 188,
      "ď": 189,
      "Đ": 190,
      "đ": 191,
      "Ē": 192,
      "ē": 193,
      "Ĕ": 194,
      "ĕ": 195,
      "Ė": 196,
      "ė": 197,
      "Ę": 198,
      "ę": 199,
      "Ě": 200,
      "ě": 201,
      "Ġ": 202,
      "ġ": 203,
      "Ģ": 204,
      "ģ": 205,
      "Ĥ": 206,
      "ĥ": 207,
      "Ħ": 208,
      "ħ": 209,
      "Ĩ": 210,
      "ĩ": 211,
      "Ī": 212,
      "ī": 213,
      "Ĭ": 214,
      "ĭ": 215,
      "Į": 216,
      "į": 217,
      "İ": 218,
      "ı": 219,
      "Ĳ": 220,
      "ĳ": 221,
      "Ĵ": 222,
      "ĵ": 223,
      "Ķ": 224,
      "ķ": 225,
      "ĸ": 226,
      "Ĺ": 227,
      "ĺ": 228,
      "Ļ": 229,
      "ļ": 230,
      "Ľ": 231,
      "ľ": 232,
      "Ŀ": 233,
      "ŀ": 234,
      "Ł": 235,
      "ł": 236,
      "Ń": 237,
      "ĠÐ": 238,
      "Ð°": 239,
      "Ðµ": 240,
      "Ð¸": 241,
      "Ð¾": 242,
      "ÑĢ": 243,
      "Ð½": 244,
      "Ñģ": 245,
      "ÑĤ": 246,
      "Ñĥ": 247,
      "Ð¾Ð": 248,
      "Ġs": 249,
      "je": 250,
      "Ñĺ": 251,
      "Ġp": 252,
      "Ð°Ð": 253,
      "na": 254,
      "Ġi": 255,
      "ra": 256,
      "ÐµÐ": 257,
      "Ð¸Ð": 258,
      "ni": 259,
      "ko": 260,
      "no": 261,
      "Ġd": 262,
      "st": 263,
      "re": 264,
      "Ġo": 265,
      "ĠÑģ": 266,
      "ĠÐ¿": 267,
      "Ġu": 268,
      "ja": 269,
      "va": 270,
      "li": 271,
      "ne": 272,
      "ĠÐ¸": 273,
      "Ð¸Ñ": 274,
      "Äį": 275,
      "Ðº": 276,
      "ri": 277,
      "ma": 278,
      "ti": 279,
      "ka": 280,
      "Å¡": 281,
      "Ð»": 282,
      "Ð°Ñ": 283,
      "ta": 284,
      "Ġpo": 285,
      "ÑģÑĤ": 286,
      "la": 287,
      "ro": 288,
      "Ð²": 289,
      "Ġna": 290,
      "ÑĺÐµ": 291,
      "Ġje": 292,
      "te": 293,
      "ĠÐ¾": 294,
      "za": 295,
      "ĠÐ½": 296,
      "ve": 297,
      "ĠÑĥ": 298,
      "ci": 299,
      "ĠÐº": 300,
      "ĠÐ´": 301,
      "vo": 302,
      "me": 303,
      "Ġko": 304,
      "vi": 305,
      "Äĩ": 306,
      "ÐµÐ½": 307,
      "ju": 308,
      "to": 309,
      "Ð°Ð½": 310,
      "ĠÐ¿ÑĢ": 311,
      "Å¾": 312,
      "Ġda": 313,
      "Ð¾Ð²": 314,
      "ÐµÑ": 315,
      "Ġb": 316,
      "Ð´": 317,
      "mo": 318,
      "ji": 319,
      "Ġza": 320,
      "ĠÑ": 321,
      "lo": 322,
      "le": 323,
      "di": 324,
      "Ð¿": 325,
      "Ð¾Ð¼": 326,
      "Ġa": 327,
      "Ġse": 328,
      "Ð°Ð²": 329,
      "âĢ": 330,
      "da": 331,
      "Ð¸Ð¼": 332,
      "Ð¾Ð³": 333,
      "nje": 334,
      "Ġ(": 335,
      "Ð¾ÑĢ": 336,
      "Ð¸Ð½": 337,
      "Ð¸Ñĺ": 338,
      "Ð¼": 339,
      "Ġsa": 340,
      "Ð¾Ñĺ": 341,
      "ÐµÐ´": 342,
      "Ġod": 343,
      "ĠÑĺÐµ": 344,
      "ĠÐ·": 345,
      "Ð°ÑĤ": 346,
      "Ð°Ð»": 347,
      "Ð¾Ð´": 348,
      "ĠÑĤ": 349,
      "Ġ1": 350,
      "ÑģÐº": 351,
      "ĠÐ¼": 352,
      "ru": 353,
      "Ð½Ð¾": 354,
      "sti": 355,
      "Ġg": 356,
      "Ð°ÑĢ": 357,
      "Ġne": 358,
      "ĠÑĢ": 359,
      "de": 360,
      "ÐµÑĢ": 361,
      "Ð±": 362,
      "Ð·": 363,
      "ki": 364,
      "Ġdo": 365,
      "ĠÐ²": 366,
      "nja": 367,
      "Ð¸Ðº": 368,
      "mi": 369,
      "Ġka": 370,
      "Ð¸ÑĤ": 371,
      "Ð¸Ñħ": 372,
      "Ð°Ðº": 373,
      "Ġsu": 374,
      "Ð°Ñļ": 375,
      "Ð¾Ñ": 376,
      "Ð°Ñĺ": 377,
      "sta": 378,
      "Ð¸Ð²": 379,
      "ku": 380,
      "Ġpro": 381,
      "Ð°Ð´": 382,
      "Ð¾Ð½": 383,
      "Ġra": 384,
      "ÐµÑĤ": 385,
      "ÐµÐ¼": 386,
      "ĠÐ±": 387,
      "Ġpre": 388,
      "zi": 389,
      "Ġ2": 390,
      "Ġiz": 391,
      "ke": 392,
      "ce": 393,
      "Ð³": 394,
      "nu": 395,
      "ĠÐ½Ð°": 396,
      "Äĳ": 397,
      "ĠâĢ": 398,
      "tu": 399,
      "po": 400,
      "Ġpri": 401,
      "si": 402,
      "ĠS": 403,
      "Ġmo": 404,
      "ÑĥÑ": 405,
      "ĠÐ¾Ð´": 406,
      "Ð°Ð·": 407,
      "ĠÐ°": 408,
      "ĠÑģÐµ": 409,
      "Ġbi": 410,
      "Ð¸ÑĺÐµ": 411,
      "ĠÐ³": 412,
      "Ð¸Ñĩ": 413,
      "go": 414,
      "ÐµÐº": 415,
      "bi": 416,
      "Äĩe": 417,
      "ÐµÐ»": 418,
      "ga": 419,
      "Äįi": 420,
      "Ð¸Ð»": 421,
      "Ġre": 422,
      "Ð¾Ð»": 423,
      "sa": 424,
      "Ġt": 425,
      "Ð°Ð¼": 426,
      "nih": 427,
      "se": 428,
      "ĠÐ´Ð°": 429,
      "Ġe": 430,
      "Ð¸ÑĨ": 431,
      "Äįe": 432,
      "lu": 433,
      "Å¾e": 434,
      "Ġf": 435,
      "Ð°ÑĨ": 436,
      "Ġk": 437,
      "ca": 438,
      "ĠÐ¿Ð¾": 439,
      "Ġz": 440,
      "ĠÑģÑĥ": 441,
      "ĪÑĤ": 442,
      "ĠÐ¸Ð·": 443,
      "pa": 444,
      "nog": 445,
      "Ġve": 446,
      "ÑĻ": 447,
      "ba": 448,
      "ĠÑģÑĤ": 449,
      "Ġme": 450,
      "Ġde": 451,
      "00": 452,
      "Ġto": 453,
      "ÑĨ": 454,
      "du": 455,
      "Ġ,": 456,
      "ĠP": 457,
      "Ð¸ÑĢ": 458,
      "Ġte": 459,
      "Ġni": 460,
      "Ð¸Ñģ": 461,
      "pi": 462,
      "Ġkoji": 463,
      "Äįa": 464,
      "ĠÅ¡": 465,
      "or": 466,
      "Ġv": 467,
      "pe": 468,
      "Ð°Ñĩ": 469,
      "cija": 470,
      "lja": 471,
      "lje": 472,
      "ĠÐ·Ð°": 473,
      "cije": 474,
      "Ð¸Ð·": 475,
      "Å¾i": 476,
      "nom": 477,
      "Ð½Ðµ": 478,
      "Ġin": 479,
      "sto": 480,
      "Ð°Ð¾": 481,
      "..": 482,
      "Ð¾Ðº": 483,
      "be": 484,
      "ĠÐºÐ¾Ñĺ": 485,
      "Å¡e": 486,
      "ski": 487,
      "ĠM": 488,
      "Ð¸Ð¼Ð°": 489,
      "ÐµÐ·": 490,
      "ÐµÐ²": 491,
      "ĠÑĺ": 492,
      "Ð¸ÑĺÐ°": 493,
      "ĠÐ¡": 494,
      "gu": 495,
      "tra": 496,
      "nosti": 497,
      "ÑĢÑĥ": 498,
      "sko": 499,
      "Ġma": 500,
      "Ġ.": 501,
      "ĠB": 502,
      "do": 503,
      "ĠÑģÐ²": 504,
      "Ð½Ð¾ÑģÑĤ": 505,
      "ÐµÑļ": 506,
      ").": 507,
      "bo": 508,
      "ÐµÐ³": 509,
      "''": 510,
      "Äĩi": 511,
      "Ð¾Ð±": 512,
      "nim": 513,
      "Ð¸ÑģÑĤ": 514,
      "gi": 515,
      "Ð¶": 516,
      "Ġraz": 517,
      "su": 518,
      "Ġ19": 519,
      "Ġpa": 520,
      "red": 521,
      "Ð°ÑļÐ°": 522,
      "mu": 523,
      "Ġta": 524,
      "nji": 525,
      "Ġvi": 526,
      "Ð°ÑļÐµ": 527,
      "Äĳe": 528,
      "Ġgo": 529,
      "ĠâĢŀ": 530,
      "Ġob": 531,
      "ĠÑģÐ°": 532,
      "Ð½Ð°": 533,
      "Å¾a": 534,
      "gra": 535,
      "ĠÐ¾Ð±": 536,
      "ze": 537,
      "so": 538,
      "Ð¾ÑĤ": 539,
      "Ġsta": 540,
      "ho": 541,
      "Ġkao": 542,
      "nju": 543,
      "Ð¾Ð¿": 544,
      "Ð°Ñģ": 545,
      "ĠA": 546,
      "Äĩa": 547,
      "tiv": 548,
      "ĠK": 549,
      "ĠÑĦ": 550,
      "ĠÉ": 551,
      "Ð½Ð¸": 552,
      "lju": 553,
      "ĠÐ»": 554,
      "ĠD": 555,
      "ÐµÑĽ": 556,
      "ste": 557,
      "Ñļ": 558,
      "jo": 559,
      "ÐµÑģ": 560,
      "ÑĥÑĤ": 561,
      "ĠN": 562,
      "ĠÑĩ": 563,
      "Ð¸Ð½Ðµ": 564,
      "fi": 565,
      "Ð½Ð¾Ð³": 566,
      "ĠI": 567,
      "Ð¸ÑĩÐº": 568,
      "Ġ20": 569,
      "ÑģÐ»": 570,
      "ĠÐµ": 571,
      "Ġsi": 572,
      "ge": 573,
      "Ð¾ÑģÑĤ": 574,
      "ĠR": 575,
      "Ð¸ÑĽ": 576,
      "nost": 577,
      "âĢľ": 578,
      "zu": 579,
      "Ġmi": 580,
      "Ġ3": 581,
      "ĠÐŁ": 582,
      "pu": 583,
      "Ġh": 584,
      "),": 585,
      "nt": 586,
      "Ġli": 587,
      "ÑĥÑĢ": 588,
      "ĠV": 589,
      "Ġdi": 590,
      "Ð»Ð¸": 591,
      "Ð½Ð¸Ñħ": 592,
      "vr": 593,
      "Ġsve": 594,
      "ÐµÑĴ": 595,
      "vu": 596,
      "Éļ": 597,
      "Ġdru": 598,
      "Ġpra": 599,
      "Ġili": 600,
      "zo": 601,
      "ĠT": 602,
      "Å¡a": 603,
      "ĠÑĤÑĢ": 604,
      "vanje": 605,
      "ÑĢÐµÐ´": 606,
      "Ð¸ÑĪ": 607,
      "Ð¸ÐºÐ°": 608,
      "Ð¾Ð·": 609,
      "ĠÐľ": 610,
      "Ġima": 611,
      "Ġis": 612,
      "ĠâĢĵ": 613,
      "sno": 614,
      "Ġva": 615,
      "ĠÑĢÐ°Ð·": 616,
      "ÐµÐ½ÑĤ": 617,
      "ÑĥÐ»": 618,
      "Ð°ÑĺÑĥ": 619,
      "ĠÐĳ": 620,
      "ĠÐļ": 621,
      "ske": 622,
      "ĠÅ¡to": 623,
      "Ġkoje": 624,
      "nta": 625,
      "ĠÐºÐ°Ð¾": 626,
      "lj": 627,
      "Ġ-": 628,
      "lji": 629,
      "Ġpred": 630,
      "Ñĩ": 631,
      "Ġgodi": 632,
      "vanja": 633,
      "Ġno": 634,
      "stav": 635,
      "ÑĥÑĩ": 636,
      "ĠÐ¸Ð½": 637,
      "ÐŁ": 638,
      "Å¡i": 639,
      "Ð°Ð¿": 640,
      "Ġpos": 641,
      "Ð¸Ð¾": 642,
      "ÐµÐ±": 643,
      "Ð½Ð¾ÑģÑĤÐ¸": 644,
      "Ð°Ð¶": 645,
      "ÐµÑģÑĤ": 646,
      "Ġm": 647,
      "ÑĢÐ°Ð½": 648,
      "ĠC": 649,
      "kom": 650,
      "Ð°Ð¼Ð°": 651,
      "ĠÐºÐ¾ÑĺÐ¸": 652,
      "ĠÄĩe": 653,
      "ÐµÐ¿": 654,
      "ĠÑģÐ»": 655,
      "ĠÐºÑĢ": 656,
      "Äĳu": 657,
      "Ð°Ð³": 658,
      "ÐµÐ½Ð°": 659,
      "ÑĥÐ¿": 660,
      "Ġzna": 661,
      "ÑĪ": 662,
      "ĠÑļ": 663,
      "ÑĥÑĽ": 664,
      "Ġ4": 665,
      "ÑģÐ¿": 666,
      "Ð°Ð²ÑĻ": 667,
      "Ġus": 668,
      "Ð¾ÑĺÐµ": 669,
      "ÑģÑĤÐ²": 670,
      "É¢": 671,
      "Ġvo": 672,
      "Ð¡": 673,
      "ĠE": 674,
      "ÉŁ": 675,
      "ĠÐ³Ð¾Ð´": 676,
      "Ð¾Ð¶": 677,
      "ĠO": 678,
      "stu": 679,
      "nika": 680,
      "Ġnaj": 681,
      "Ð¸Ð´": 682,
      "ĠÐ¿ÑĢÐµÐ´": 683,
      "Ġ201": 684,
      "Ð¾ÑĪ": 685,
      "ÑĥÐ´": 686,
      "Ġst": 687,
      "ĠÐ¾Ð²": 688,
      "nti": 689,
      "Ð¾Ñģ": 690,
      "Ġpe": 691,
      "Ġsvo": 692,
      "ar": 693,
      "cio": 694,
      "pre": 695,
      "ĠÑĨ": 696,
      "ĠÐ¸Ð¼": 697,
      "Ð¸ÑĺÐ¸": 698,
      "Ġtre": 699,
      "Ð¿ÑĢ": 700,
      "ÑģÐºÐµ": 701,
      "Ġpod": 702,
      "ĠG": 703,
      "ĠU": 704,
      "É¨": 705,
      "Ð¸Ð½Ð°": 706,
      "Ñħ": 707,
      "Ġja": 708,
      "Ð°ÑĪ": 709,
      "ĠÐ¿Ð¾Ð´": 710,
      "Ġ200": 711,
      "ÑĥÐ½": 712,
      "ĠÐ½Ðµ": 713,
      "Ð°Ð´Ð°": 714,
      "fe": 715,
      "on": 716,
      "Ġ5": 717,
      "ĠSr": 718,
      "ĠÐ¾Ñģ": 719,
      "ĠL": 720,
      "ÑĥÐ¼": 721,
      "Ġkon": 722,
      "Ð¸ÑĤÐ¸": 723,
      "Ġbo": 724,
      "Åł": 725,
      "Ġodno": 726,
      "Ð£": 727,
      "rÅ¾a": 728,
      "Ð¸Ð¾Ð½": 729,
      "Äįu": 730,
      "Ġpot": 731,
      "Ðŀ": 732,
      "Ġpu": 733,
      "ĠÐ¸ÑģÑĤ": 734,
      "Na": 735,
      "ÐĿ": 736,
      "reme": 737,
      "ÑģÐºÐ¸": 738,
      "ÑĦ": 739,
      "pra": 740,
      "Ð°Ð½Ð°": 741,
      "ĠÐĿ": 742,
      "Ð°Ð²Ð°": 743,
      "ska": 744,
      "Ð¸Ð¿": 745,
      "ÐµÐºÑĤ": 746,
      "Ġnije": 747,
      "Ġbe": 748,
      "Ð½Ð¾Ð¼": 749,
      "ĠÐĶ": 750,
      "Ð½Ð¸Ð¼": 751,
      "ĠÑĪÑĤ": 752,
      "Ð°Ð±": 753,
      "ĠH": 754,
      "Ġjed": 755,
      "ran": 756,
      "ĠÐ¿Ð¾ÑģÑĤ": 757,
      "ĠÑĺÐµÐ´": 758,
      "ĠÐºÐ¾Ð½": 759,
      "rija": 760,
      "Äįki": 761,
      "Ð½Ð¾Ñģ": 762,
      "he": 763,
      "Ð¸Ð³": 764,
      "Ð°ÐºÐ¾": 765,
      "ĠmoÅ¾e": 766,
      "cu": 767,
      "Ġgra": 768,
      "ĠÐĲ": 769,
      "nal": 770,
      "Ð¾Ð²Ð°": 771,
      "Ġ\"": 772,
      "Ġkoja": 773,
      "Ġkori": 774,
      "ĠÐ¶": 775,
      "ÐµÐ½Ðµ": 776,
      "ÑĢÑĥÐ³": 777,
      "liko": 778,
      "Ġce": 779,
      "Ġsamo": 780,
      "Po": 781,
      "ĠSrbi": 782,
      "dni": 783,
      "Za": 784,
      "ĠÐł": 785,
      "Ð²ÑĢ": 786,
      "ÐºÐ°": 787,
      "ciju": 788,
      "an": 789,
      "ÑĢÐ¶": 790,
      "Ð¾ÑĨ": 791,
      "Ġpi": 792,
      "Ġmogu": 793,
      "Ð¸ÑĺÑĥ": 794,
      "Ġti": 795,
      "Ġali": 796,
      "stra": 797,
      "Ð¸Ð»Ð°": 798,
      "Ġ''": 799,
      "ĠJ": 800,
      "govo": 801,
      "Ð¾Ñĩ": 802,
      "Ġku": 803,
      "ĠÐĴ": 804,
      "Ð°ÑĨÐ¸ÑĺÐµ": 805,
      "Ġnje": 806,
      "sni": 807,
      "skog": 808,
      "20": 809,
      "Ġstra": 810,
      "ĠF": 811,
      "Ġfi": 812,
      "kto": 813,
      "zna": 814,
      "ter": 815,
      "ÑĢÐ°Ñ": 816,
      "ÐµÑļÐ°": 817,
      "Ġovo": 818,
      ".,": 819,
      "noj": 820,
      "Ð°ÑĤÐ¸": 821,
      "ÐµÑĩ": 822,
      "viÄĩ": 823,
      "ÐµÑĪ": 824,
      "ÑĢÐ°Ð´": 825,
      "ÑģÐºÐ¾Ð³": 826,
      "ĠÐ³Ð¾Ð´Ð¸Ð½Ðµ": 827,
      "ĠÐ²ÑĢ": 828,
      "ĠÐ¢": 829,
      "Ġc": 830,
      "Å¡ta": 831,
      "Ġ6": 832,
      "Ð¾ÑĻ": 833,
      "ÑĥÑĺÐµ": 834,
      "Ðĺ": 835,
      "Ð¾ÑĢÐ°": 836,
      "ÐĲ": 837,
      "ĠÑħ": 838,
      "al": 839,
      "ĠÐ¸Ð»Ð¸": 840,
      "Ð¢": 841,
      "É¨É": 842,
      "Ġle": 843,
      "âĢĿ": 844,
      "Ðļ": 845,
      "Ð°Ð»Ð°": 846,
      "skih": 847,
      "ĠÐ±ÑĢ": 848,
      "Ð°ÑĤÐ°": 849,
      "ÉļÉ": 850,
      "Ġbu": 851,
      "ĠÐ¿Ð¾ÑĤ": 852,
      "ÐµÐ¼Ð°": 853,
      "ÐµÑĻ": 854,
      "ha": 855,
      "lika": 856,
      "Ð¸ÑĨÐ°": 857,
      "ĠÄįi": 858,
      "Ġnji": 859,
      "ĠÑĪÑĤÐ¾": 860,
      "nd": 861,
      "Å¡ti": 862,
      "Ð½Ñĥ": 863,
      "Ġpla": 864,
      "Ġkom": 865,
      "ĠÐ·Ð½": 866,
      "ÑĤÐµÑĢ": 867,
      "Ġbro": 868,
      "ng": 869,
      "Ð°ÑģÑĤ": 870,
      "ĠÄįe": 871,
      "vih": 872,
      "ĠÐºÐ¾ÑĺÐµ": 873,
      "É¢É": 874,
      "ĠÐ´Ð¾": 875,
      "ÑĥÑĺ": 876,
      "bra": 877,
      "zvo": 878,
      "ĠÐºÐ¾Ð¼": 879,
      "ÑĽ": 880,
      "ÑĥÐ¶": 881,
      "stva": 882,
      "ÐµÑļÐµ": 883,
      "ĠÐ¾Ð¿": 884,
      "bu": 885,
      "Äĳa": 886,
      "ÑĥÐº": 887,
      "19": 888,
      "stvo": 889,
      "ĠÐ¾Ðº": 890,
      "Ġ0": 891,
      "hi": 892,
      "ÐµÐ»Ð°": 893,
      "Ġba": 894,
      "vima": 895,
      "Ġdu": 896,
      "ĠÐŀ": 897,
      "Ġgodine": 898,
      "ĠÑģÐ¼": 899,
      "Ġak": 900,
      "ĠÑģÐ°Ð¼": 901,
      "tno": 902,
      "ÑģÐºÐ°": 903,
      "lek": 904,
      "ÑĥÐ±": 905,
      "ĠÐ¾Ð´Ð½Ð¾Ñģ": 906,
      "ĠÐ´ÑĢÑĥÐ³": 907,
      "ĠÐ£": 908,
      "for": 909,
      "Ġkako": 910,
      "ÐµÐ½Ð¸": 911,
      "Ġpr": 912,
      "Ġtako": 913,
      "....": 914,
      "kon": 915,
      "Ġfa": 916,
      "ĠÐĺ": 917,
      "Ð¾ÑĢÐ¼": 918,
      "ĠÑĢÐ°Ð´": 919,
      "Ġproce": 920,
      "ÑĥÐ·": 921,
      "Ġslu": 922,
      "ĠÅł": 923,
      "ÑĥÐ»ÑĤ": 924,
      "ĠÑĪ": 925,
      "Ð²Ð°": 926,
      "ĠÅ¾i": 927,
      "Ġvr": 928,
      "vlja": 929,
      "ÐµÐ¶": 930,
      "ÐĶ": 931,
      "ĠÐĵ": 932,
      "nije": 933,
      "Ġor": 934,
      "ĠÑģÐ¿": 935,
      "Ġprime": 936,
      "dno": 937,
      "ĠÐºÐ¾ÑĢ": 938,
      "ĠÐ¿Ð¾Ð»": 939,
      "Ġuz": 940,
      "Ġmu": 941,
      "Ð°ÑļÑĥ": 942,
      "nda": 943,
      "ĠÐ½Ð°Ñĺ": 944,
      "ÐµÐ½Ð¾": 945,
      "Ġci": 946,
      "Äĩu": 947,
      "Ð½Ð¾Ð²": 948,
      "Ġ7": 949,
      "Ġkod": 950,
      "ÑģÐºÐ¸Ñħ": 951,
      "Ð¸ÑĨÐµ": 952,
      "ÉŁÉ": 953,
      "ako": 954,
      "pro": 955,
      "gle": 956,
      "Ð¸ÐºÐµ": 957,
      "Ġsva": 958,
      "stavlja": 959,
      "Å¡te": 960,
      "Ġro": 961,
      "Ð¸ÑĨÐ¸": 962,
      "Ð°ÑĨÐ¸ÑĺÐ°": 963,
      "ĠÐ¼Ð¾Ð³": 964,
      "Ġdana": 965,
      "Ð¾Ð²Ð¸ÑĽ": 966,
      "ÄĨ": 967,
      "Ð¾ÑĴ": 968,
      "ĠMi": 969,
      "jom": 970,
      "raju": 971,
      "nali": 972,
      "menta": 973,
      "rije": 974,
      "Ġlju": 975,
      "Ġbio": 976,
      "Ġvred": 977,
      "Ðľ": 978,
      "ĠÐĪ": 979,
      "ĠviÅ¡e": 980,
      "Ġso": 981,
      "ĠÐ±Ð¸": 982,
      "Ġlo": 983,
      "Ġtu": 984,
      "Ġot": 985,
      "Ġrazli": 986,
      "ĠÄį": 987,
      "ÂŃ": 988,
      "Ðł": 989,
      "ĠÐ°Ðº": 990,
      "Ġsam": 991,
      "Ġ18": 992,
      "ÐµÑĤÐ°": 993,
      "Ġvreme": 994,
      "Ġpoli": 995,
      "ĠÐ¿Ð¾Ð²": 996,
      "Ð¸ÑĪÑĤ": 997,
      "ÐµÑĨ": 998,
      "Ġosno": 999,
      "Ġze": 1000,
      "Ġop": 1001,
      "ÐºÐµ": 1002,
      "gla": 1003,
      "Ð°Ð»Ð¸": 1004,
      "er": 1005,
      "vim": 1006,
      "kla": 1007,
      "Å¡t": 1008,
      "Ġbiti": 1009,
      "ciji": 1010,
      "Ġorga": 1011,
      "ĠÐºÐ¾ÑĺÐ°": 1012,
      "kog": 1013,
      "Ġga": 1014,
      "ĠÐ¿ÑĢÐ°Ð²": 1015,
      "ĠPo": 1016,
      "ĠÐ¿ÑĢÐ¸Ð¼": 1017,
      "vali": 1018,
      "Ð°ÑĻ": 1019,
      "rt": 1020,
      "Ġpove": 1021,
      "Ð³Ð¾Ð²": 1022,
      "Ġspo": 1023,
      "eo": 1024,
      "Ð¸Ð»Ð¸": 1025,
      "ĠÑĢÐ°Ð·Ð»": 1026,
      "njem": 1027,
      "Äįno": 1028,
      "Ð°Ð»Ð¸Ð·": 1029,
      "Ġ8": 1030,
      "rom": 1031,
      "kaza": 1032,
      "Ġizme": 1033,
      "Ġproi": 1034,
      "ÑĥÐ³": 1035,
      "om": 1036,
      "ÐµÑĺ": 1037,
      "klju": 1038,
      "Ð°ÑĢÐ°": 1039,
      "vni": 1040,
      "Äįaj": 1041,
      "Ġkada": 1042,
      "Ġtra": 1043,
      "ksi": 1044,
      "Ġjo": 1045,
      "vaju": 1046,
      "Ġ10": 1047,
      "ĠÐ¿Ð¾Ñģ": 1048,
      "Ð°ÐºÐ¾Ð½": 1049,
      "Ġposto": 1050,
      "dan": 1051,
      "ĠÐ·Ð½Ð°Ñĩ": 1052,
      "Ð°ÑĤÐ¸Ð²": 1053,
      "Äī": 1054,
      "ĠÐ¼Ð¾Ð¶": 1055,
      "ĠÅ¾e": 1056,
      "Ġtreba": 1057,
      "rak": 1058,
      "Ġdobi": 1059,
      "tni": 1060,
      "un": 1061,
      "ĠÑĥÐº": 1062,
      "ĠÐ¿Ð¾ÑģÐ»": 1063,
      "Å¡Äĩe": 1064,
      "Ġsiste": 1065,
      "skom": 1066,
      "...": 1067,
      "Ð¸Ð½Ð¸": 1068,
      "ÑĢÐ°Ð¶": 1069,
      "ÑĢÐ°": 1070,
      "lta": 1071,
      "Ġgru": 1072,
      "ĠÐ²ÐµÑĽ": 1073,
      "rio": 1074,
      "tim": 1075,
      "Ġ199": 1076,
      "hva": 1077,
      "kup": 1078,
      "ÐµÑĴÑĥ": 1079,
      "pri": 1080,
      "Ð»Ð°Ð½": 1081,
      "Ġau": 1082,
      "ĠÑĥÑĩ": 1083,
      "in": 1084,
      "kre": 1085,
      "Ð¸ÑĪÐµ": 1086,
      "Ð¾Ð²Ðµ": 1087,
      "Ġla": 1088,
      "Ġkri": 1089,
      "ÐµÑĦ": 1090,
      "ĠÐķ": 1091,
      "ĠÑĥÑĤ": 1092,
      "Ġbez": 1093,
      "ÑĢÐµÐ±": 1094,
      "vno": 1095,
      "ĠÐĹ": 1096,
      "Ð¸ÑĺÐ°Ð»": 1097,
      "cima": 1098,
      "Ġek": 1099,
      "ĠÐ³Ð»": 1100,
      "Äįke": 1101,
      "ÑĢÐ±": 1102,
      "sku": 1103,
      "Ð¸Ñļ": 1104,
      "ĠÐ¿Ð¾ÑĢ": 1105,
      "bog": 1106,
      "Ġoba": 1107,
      "Ġposle": 1108,
      "ĠÐ¿Ð¾Ðº": 1109,
      "ĠÐ´ÑĢ": 1110,
      "tro": 1111,
      "Ð¸Ð»Ð¾": 1112,
      "Ġjer": 1113,
      "Ð½Ð¸ÐºÐ°": 1114,
      "ĠÐ°Ð½": 1115,
      "Ġradi": 1116,
      "Ġproizvo": 1117,
      "ÄĮ": 1118,
      "Ġinte": 1119,
      "Ġ9": 1120,
      "Ġodre": 1121,
      "__": 1122,
      "ĠÐ¥": 1123,
      "Ġova": 1124,
      "spo": 1125,
      "lne": 1126,
      "ÑģÑĤÐ°Ð²": 1127,
      "Ð°Ð½ÑĤ": 1128,
      "ÑģÐºÐ¾Ð¼": 1129,
      "Ð¾Ð³Ð°": 1130,
      "Ġnjiho": 1131,
      "«É": 1132,
      "ĠÐĽ": 1133,
      "ÐµÐ½ÑĨ": 1134,
      "Ð¸ÑĦ": 1135,
      "ĠZ": 1136,
      "10": 1137,
      "Ð½Ð¸Ðº": 1138,
      "Ġbilo": 1139,
      "ĠÐ½ÐµÐº": 1140,
      "ĠÅ¾ivo": 1141,
      "Å£": 1142,
      "Ð°ÐºÐ°": 1143,
      "Ġosta": 1144,
      "lazi": 1145,
      "Ð´Ðµ": 1146,
      "teri": 1147,
      "Ð¸ÑĻ": 1148,
      "Ð¾ÑģÐ»": 1149,
      "ĠMa": 1150,
      "dra": 1151,
      "ÑĪÑĤ": 1152,
      "ver": 1153,
      "Ġsma": 1154,
      "tri": 1155,
      "lni": 1156,
      "ĠÑĥÐ·": 1157,
      "ÑĢÐµÑĴ": 1158,
      "Ġgla": 1159,
      "Ð¾Ð²Ð°Ð½": 1160,
      "Ġsad": 1161,
      "ĠÐ½Ð¸ÑĺÐµ": 1162,
      "ĠÐ¾ÑĢ": 1163,
      "Ġru": 1164,
      "loÅ¡": 1165,
      "Ð°ÑĺÐ°": 1166,
      "vom": 1167,
      "Ġste": 1168,
      "Ð¾Ð²Ð¸": 1169,
      "Ġdrugi": 1170,
      "ble": 1171,
      "skim": 1172,
      "ĠÐ¸ÑģÐ¿": 1173,
      "Ġuti": 1174,
      "ÑĥÑĪ": 1175,
      "ĠÐ´Ð¾Ðº": 1176,
      "ĠÐ¼Ð¾Ð¶Ðµ": 1177,
      "ĠÐ¿Ð¾Ñĺ": 1178,
      "Ġal": 1179,
      "van": 1180,
      "ÑĥÑĺÑĥ": 1181,
      "ĠÐ´Ð¾Ð±": 1182,
      "ĠÐ´ÐµÐ»": 1183,
      "Ð½Ð¾Ñĺ": 1184,
      "Ġbroj": 1185,
      "Ġhi": 1186,
      "spe": 1187,
      "Ġvla": 1188,
      "zulta": 1189,
      "ĠKo": 1190,
      "ÐĴ": 1191,
      "ÑĥÑĽÐ¸": 1192,
      "Ġpotre": 1193,
      "Ġveli": 1194,
      "sle": 1195,
      "Éª": 1196,
      "ÑĢÐ¿": 1197,
      "Å¡to": 1198,
      "gova": 1199,
      "ĠÐµÐº": 1200,
      "ĠRe": 1201,
      "lan": 1202,
      "ĠÐŁÑĢ": 1203,
      "Ġobra": 1204,
      "Ð»Ð°Ð´": 1205,
      "forma": 1206,
      "ÑĢÐ°Ð·": 1207,
      "mena": 1208,
      "Ġisto": 1209,
      "ÑĥÑģ": 1210,
      "Ġorgani": 1211,
      "âĢĵ": 1212,
      "Ġdok": 1213,
      "nica": 1214,
      "ven": 1215,
      "ĠNa": 1216,
      "ĠÑĽ": 1217,
      "ĠveÄĩ": 1218,
      "ÐµÐ½Ð¸Ñħ": 1219,
      "ĠÑĤÐ¾": 1220,
      "ĠÑļÐµÐ³": 1221,
      "ÐŁÑĢ": 1222,
      "Ġispi": 1223,
      "Ð²Ð¾Ñĺ": 1224,
      "ĠnaÄįi": 1225,
      "ĠÑģÐº": 1226,
      "Ġistra": 1227,
      "vlje": 1228,
      "Ġpose": 1229,
      "ÑĥÑĪÑĤ": 1230,
      "ĠÐ¾ÑģÐ½Ð¾Ð²": 1231,
      "Ġpita": 1232,
      "tre": 1233,
      "ĠÑģÐ²Ð¾Ñĺ": 1234,
      "Ġfor": 1235,
      "teta": 1236,
      "Ġzem": 1237,
      "ĠuÄįe": 1238,
      "tom": 1239,
      "Ð¸Ð¾Ð½Ð°Ð»": 1240,
      "Ð¸Ð±": 1241,
      "Ð²Ð¾ÑĢ": 1242,
      "Ġstru": 1243,
      "lno": 1244,
      "Ġsmo": 1245,
      "koliko": 1246,
      "ĠâĢľ": 1247,
      "bli": 1248,
      "ÐĹ": 1249,
      "ÑĻÑĥÑĩ": 1250,
      "ĠSa": 1251,
      "rod": 1252,
      "nzi": 1253,
      "vog": 1254,
      "ÐµÑĢÐ¸": 1255,
      "Äįne": 1256,
      "ĠSrbije": 1257,
      "Ġzbog": 1258,
      "Ġgodina": 1259,
      "Ð²Ðµ": 1260,
      "ĠÐ¶Ð¸Ð²": 1261,
      "ĠÐ¤": 1262,
      "ĠÐ¾ÑĤ": 1263,
      "tor": 1264,
      "Ġpoda": 1265,
      "000": 1266,
      "ĠÐ°Ð»Ð¸": 1267,
      "ĠdrÅ¾a": 1268,
      "cional": 1269,
      "Ġanali": 1270,
      "nima": 1271,
      "ĠÐ±ÑĢÐ¾Ñĺ": 1272,
      "Ġide": 1273,
      "ktu": 1274,
      "ĠÑģÑĤÑĢÐ°Ð½": 1275,
      "Ġsto": 1276,
      "ĠÐ¾Ð±Ð»": 1277,
      "ÉŃ": 1278,
      "ĠÑĥÐ¿": 1279,
      "ÑģÑĤÐ°Ð²ÑĻ": 1280,
      "ner": 1281,
      "Ġge": 1282,
      "Ð¾Ð´Ð°": 1283,
      "stup": 1284,
      "ĠÐ¸Ð·Ð¼": 1285,
      "Ġprema": 1286,
      "Ġmode": 1287,
      "Êģ": 1288,
      "ĠÐ¿ÑĢÐ¾ÑĨ": 1289,
      "Ġoko": 1290,
      "tak": 1291,
      "tet": 1292,
      "Ġstva": 1293,
      "ĠZa": 1294,
      "kra": 1295,
      "ĠÑģÐ°Ð¼Ð¾": 1296,
      "Ġkre": 1297,
      "ĠizmeÄĳu": 1298,
      "ĠÑļÐ¸Ñħ": 1299,
      "Ð°Ñħ": 1300,
      "stru": 1301,
      "op": 1302,
      "Ġ15": 1303,
      "Ġslo": 1304,
      "Ġkra": 1305,
      "Ġvrednosti": 1306,
      "ĠÐ¿Ð¾Ð·": 1307,
      "Ġnema": 1308,
      "ĠÐ¡ÑĢÐ±": 1309,
      "Ġrad": 1310,
      "ranje": 1311,
      "eogra": 1312,
      "vro": 1313,
      "Ġof": 1314,
      "Ka": 1315,
      "12": 1316,
      "Ne": 1317,
      "Ð¸Ð²Ð°ÑļÐ°": 1318,
      "Ð¾ÑĦ": 1319,
      "Ġpoliti": 1320,
      "voj": 1321,
      "kti": 1322,
      "ÑĢÑĥÐ¿": 1323,
      "ĠznaÄįaj": 1324,
      "Ġok": 1325,
      "Ð°ÑĴ": 1326,
      "Ð°Ð½Ð´": 1327,
      "ÐµÑħ": 1328,
      "Ġstu": 1329,
      "ÐºÑĥ": 1330,
      "ĠÐ±Ð¸Ð¾": 1331,
      "ÐµÐºÑģ": 1332,
      "Ð°Ð½Ð¸": 1333,
      "rÅ¾i": 1334,
      "ÑĢÐ¶Ð°Ð²": 1335,
      "ÑģÐºÐ¸Ð¼": 1336,
      "âĢľ,": 1337,
      "ĠÐ¿Ð°ÑĢ": 1338,
      "Ð¾ÑģÑĤÐ¸": 1339,
      "vede": 1340,
      "Ð¸Ð½Ñĥ": 1341,
      "Ðķ": 1342,
      "vodi": 1343,
      "ÑĥÑģÑĤ": 1344,
      "Ġposlo": 1345,
      "joj": 1346,
      "en": 1347,
      "Ġupo": 1348,
      "nici": 1349,
      "Ġobja": 1350,
      "log": 1351,
      "ÑĤÐ¸Ð²": 1352,
      "fika": 1353,
      "Ġodnosno": 1354,
      "Ð³Ð»": 1355,
      "ÐµÐ½Ñĥ": 1356,
      "unk": 1357,
      "vati": 1358,
      "Ġ:": 1359,
      "Ġrezulta": 1360,
      "ĠÐ¿ÑĢÐ²": 1361,
      "pisa": 1362,
      "niji": 1363,
      "Ġpret": 1364,
      "rta": 1365,
      "ÐµÐ¾": 1366,
      "ĠrazliÄįi": 1367,
      "bno": 1368,
      "11": 1369,
      "Ðĳ": 1370,
      "Ġ12": 1371,
      "vanju": 1372,
      "ÑĤÑĢ": 1373,
      "Ð°Ð»Ð¾": 1374,
      "ĠÐ½Ð°ÑĢ": 1375,
      "slo": 1376,
      "ÑĢÑĪ": 1377,
      "ĠmeÄĳu": 1378,
      "Ġauto": 1379,
      "Ð°Ð½Ð¸Ð·": 1380,
      "Ġjedi": 1381,
      "ÐµÑĪÑĤ": 1382,
      "pera": 1383,
      "ĠÑĤÐµ": 1384,
      "ÑĴ": 1385,
      "Ġaktiv": 1386,
      "Ð¸ÑģÑĤÐ¸ÑĩÐº": 1387,
      "Ġmora": 1388,
      "ĠÑĤÐ°Ðº": 1389,
      "Ġon": 1390,
      "kri": 1391,
      "ren": 1392,
      "jem": 1393,
      "ĠÐ¾ÑĢÐ³": 1394,
      "ĠÐ½Ð¾Ð²": 1395,
      "Ġtri": 1396,
      "ĠÐºÐ¾Ð´": 1397,
      "ak": 1398,
      "Ġand": 1399,
      "juÄĩi": 1400,
      "Ġuslo": 1401,
      "ĠÐ²ÐµÐ»": 1402,
      "Ð¸Ð¶": 1403,
      "tne": 1404,
      "ÑļÐµ": 1405,
      "ĠÑĺÐµÐ·": 1406,
      "ĠÐ¿ÑĢÐ¾": 1407,
      "nte": 1408,
      "rti": 1409,
      "Ġako": 1410,
      "Ð°Ð½Ðµ": 1411,
      "ĠistraÅ¾i": 1412,
      "ĠÐ²ÑĢÐµÐ¼": 1413,
      "Ð»ÐµÐ¼": 1414,
      "bro": 1415,
      "sli": 1416,
      "skoj": 1417,
      "Ġpredstavlja": 1418,
      "Ð²Ð°ÑĢ": 1419,
      "Å¾u": 1420,
      "Äįka": 1421,
      "nija": 1422,
      "sla": 1423,
      "ĠÐ½Ð°Ñĩ": 1424,
      "Ġproble": 1425,
      "Ġnasta": 1426,
      "Ġbila": 1427,
      "ĠÑģÑĢÐµÐ´": 1428,
      "vne": 1429,
      "Ð½Ð¸ÑĩÐº": 1430,
      "Ġnivo": 1431,
      "jedi": 1432,
      "Ġim": 1433,
      "Ġsr": 1434,
      "govor": 1435,
      "Ġizra": 1436,
      "ÐºÑĨ": 1437,
      "tvr": 1438,
      "Ġnisu": 1439,
      "ÑĢÐµÐ¼": 1440,
      "Ð¸ÐºÑĥ": 1441,
      "kao": 1442,
      "Ġupra": 1443,
      "ĠÐ½Ð°Ð¿": 1444,
      "Ko": 1445,
      "ntro": 1446,
      "Ġfunk": 1447,
      "ĠNe": 1448,
      "ÐºÐ¾": 1449,
      "logi": 1450,
      "ĠjoÅ¡": 1451,
      "Ġljudi": 1452,
      "ĠÐ·Ð°Ð¿": 1453,
      "lija": 1454,
      "ĠÐ¿Ð¾Ð¼": 1455,
      "ĠdruÅ¡t": 1456,
      "ĠBeogra": 1457,
      "Ġki": 1458,
      "ĠÑģÐ¸ÑģÑĤ": 1459,
      "Ġsred": 1460,
      "ĠÐ²ÑĢÐµÐ´": 1461,
      "kazu": 1462,
      "ch": 1463,
      "Ġobe": 1464,
      "ÐµÐ½Ð¾Ð³": 1465,
      "tion": 1466,
      "ÐµÐ½Ð¾Ð¼": 1467,
      "Ð°ÑĽ": 1468,
      "ĠÐ¸Ð·Ð¼ÐµÑĴÑĥ": 1469,
      "Ġtoga": 1470,
      "nice": 1471,
      "Ġinter": 1472,
      "nsi": 1473,
      "ĠÑĥÑģÐ»": 1474,
      "kova": 1475,
      "fo": 1476,
      "Ġove": 1477,
      "pla": 1478,
      "ĠÑģÑĤÑĢ": 1479,
      "Ð¸Ð²Ð¾": 1480,
      "18": 1481,
      "tar": 1482,
      "nosi": 1483,
      "Ð¾Ð»Ð¾ÑĪ": 1484,
      "ranja": 1485,
      "Ð¾ÑĽ": 1486,
      "ĠÑĥÐ½": 1487,
      "ÑģÐºÑĥ": 1488,
      "Ġnakon": 1489,
      "É§": 1490,
      "Ġpomo": 1491,
      "ĠÐ¼Ð¾Ð´": 1492,
      "man": 1493,
      "dom": 1494,
      "Ġri": 1495,
      "Sa": 1496,
      "ÐµÐ¾Ð³": 1497,
      "ntra": 1498,
      "ĠÐ¸ÑģÑĤÑĢÐ°Ð¶": 1499,
      "15": 1500,
      "Äĳi": 1501,
      "13": 1502,
      "Ġbr": 1503,
      "ÐµÐ²Ð°": 1504,
      "ÑģÑĤÐ²Ð°": 1505,
      "Ð°Ð·Ð¸": 1506,
      "ÑģÑĤÐ²Ð¾": 1507,
      "Ġprome": 1508,
      "ĠÐ¸Ð·Ð²": 1509,
      "ĠnaÄįin": 1510,
      "redi": 1511,
      "stve": 1512,
      "ĠsluÄįa": 1513,
      "liza": 1514,
      "Ð²Ð°ÑĤ": 1515,
      "ĠÄįa": 1516,
      "Ġju": 1517,
      "ĠBo": 1518,
      "ĠÐ¾Ð±Ñĺ": 1519,
      "rno": 1520,
      "Ġdva": 1521,
      "lom": 1522,
      "vrÅ¡i": 1523,
      "14": 1524,
      "Ġspe": 1525,
      "ĠÐºÐ°ÑĢ": 1526,
      "Me": 1527,
      "Ð¸ÐºÐ¾": 1528,
      "ltu": 1529,
      "Ġstrane": 1530,
      "rima": 1531,
      "ĠÃ": 1532,
      "Ġdoda": 1533,
      "ÐµÐºÐ°": 1534,
      "Ġpozi": 1535,
      "ÑĢÐ°ÑĦ": 1536,
      "Ġ13": 1537,
      "ĠÐ¿ÑĢÐµÐ´ÑģÑĤÐ°Ð²ÑĻ": 1538,
      "ĠÑģÑĢÐ¿": 1539,
      "Ġovog": 1540,
      "Ð´Ð°": 1541,
      "Ġ14": 1542,
      "Ð¸ÑĢÐ°": 1543,
      "ĠpoÄįe": 1544,
      "Ġimaju": 1545,
      "ĠÐ³ÑĢÑĥÐ¿": 1546,
      "Äįni": 1547,
      "Ġoso": 1548,
      "To": 1549,
      "Ġiza": 1550,
      "Ð»Ð°": 1551,
      "Ġ)": 1552,
      "ĠÐ·ÐµÐ¼": 1553,
      "ĠÑĢÐµÑĩ": 1554,
      "ĠÐ¾Ð´ÑĢÐµÑĴ": 1555,
      "Ð°Ð½Ñģ": 1556,
      "ÐĪ": 1557,
      "ÑģÐºÐ¾Ñĺ": 1558,
      "Ġgde": 1559,
      "ÑģÐºÐ¾": 1560,
      "Ġfo": 1561,
      "Ġsli": 1562,
      "ĠÐ¸Ð½ÑĤÐµÑĢ": 1563,
      "Ð°ÑĤÑĢ": 1564,
      "dne": 1565,
      "ĠÑĻ": 1566,
      "ĠÐ¼ÐµÑĤ": 1567,
      "Ġjedan": 1568,
      "lnih": 1569,
      "........": 1570,
      "ĠÐ¶Ð¸Ð²Ð¾ÑĤ": 1571,
      "roz": 1572,
      "Ġodlu": 1573,
      "Ġutica": 1574,
      "Ġteh": 1575,
      "ĠÐ¿ÑĢÐµÐ¼Ð°": 1576,
      "terija": 1577,
      "Ð»Ð°Ñģ": 1578,
      "Ð°Ð»Ðµ": 1579,
      "ĠÐ½Ð°Ð²": 1580,
      "Ġkonce": 1581,
      "Ġuve": 1582,
      "ĠRa": 1583,
      "gre": 1584,
      "âĢĻ": 1585,
      "Ġodnosu": 1586,
      "ÑĢÐ°ÑĴ": 1587,
      "ĠÐ·Ð½Ð°ÑĩÐ°Ñĺ": 1588,
      "ĠÐ¿ÑĢÐµÑĤ": 1589,
      "ĠÑĽÐµ": 1590,
      "Da": 1591,
      "Ġ198": 1592,
      "Ð°ÑļÐµÐ¼": 1593,
      "ĠÑĥÐ¼": 1594,
      "ĠÐ±ÐµÐ·": 1595,
      "ÑĢÐ°Ð²": 1596,
      "ĠÐ¿ÑĥÑĤ": 1597,
      "Ð¸ÑĤÐµÑĤ": 1598,
      "kta": 1599,
      "vreme": 1600,
      "Ð°ÑĪÑĤ": 1601,
      "rova": 1602,
      "Ġ17": 1603,
      "ĠÐºÐ¾Ð¼Ð¿": 1604,
      "rs": 1605,
      "ĠÑĢÐµÐ·": 1606,
      "ĠÐºÐ°ÐºÐ¾": 1607,
      "ĠÑĤÐµÑĢ": 1608,
      "Ð³ÑĢ": 1609,
      "Ðĵ": 1610,
      "Ġho": 1611,
      "ndar": 1612,
      "Ġkoristi": 1613,
      "ĠÑģÐ²Ðµ": 1614,
      "Ġzaje": 1615,
      "ĠÐ´ÑĢÑĥÑĪÑĤ": 1616,
      "co": 1617,
      "Ġnego": 1618,
      "ĠIn": 1619,
      "Ġtran": 1620,
      "Ġtokom": 1621,
      "Ġosnovu": 1622,
      "Ð°ÐºÑĤ": 1623,
      "Äįkih": 1624,
      "ĠÐ¿Ð¾Ñĩ": 1625,
      "Pre": 1626,
      "ÐµÑĢÐ°": 1627,
      "Ġbude": 1628,
      "Ġmedi": 1629,
      "nata": 1630,
      "Ġ/": 1631,
      "pada": 1632,
      "el": 1633,
      "ÐºÐ¸": 1634,
      "vio": 1635,
      "Å½": 1636,
      "Å¡u": 1637,
      "ĠÄįla": 1638,
      "Ð»Ð¾": 1639,
      "ĠÅ¡ta": 1640,
      "ĠÐ¿ÑĢÐµ": 1641,
      "200": 1642,
      "Ð¸ÑģÑĥ": 1643,
      "ĠÐ¾ÑģÑĤ": 1644,
      "ĠÐ·Ð°Ð²": 1645,
      "ĠW": 1646,
      "oj": 1647,
      "Ġpoja": 1648,
      "Ġperio": 1649,
      "16": 1650,
      "kih": 1651,
      "Ð¸Ð²Ð°ÑļÐµ": 1652,
      "ĠKa": 1653,
      "Ġobave": 1654,
      "ĠÐ³ÑĢ": 1655,
      "tih": 1656,
      "ur": 1657,
      "fa": 1658,
      "ÐºÐ¾Ð»": 1659,
      "volj": 1660,
      "Ð¸Ð²Ð°": 1661,
      "Ġ16": 1662,
      "ĠMe": 1663,
      "Ð¼Ð°": 1664,
      "ĠÐ²ÐµÐ·": 1665,
      "ĠÐ¿Ð¾Ð½": 1666,
      "Ġorganiza": 1667,
      "gleda": 1668,
      "Ġzdra": 1669,
      "ĠÐ½ÐµÐ¿": 1670,
      "ÐµÑĽÐ¸": 1671,
      "Ġsme": 1672,
      "Ð¾Ð²Ð¸Ð¼Ð°": 1673,
      "rek": 1674,
      "nski": 1675,
      "Ġsvoje": 1676,
      "Ð°ÑĨÐ¸ÑĺÑĥ": 1677,
      "ĠÐ¿Ð¾Ð»Ð¸ÑĤ": 1678,
      "ĠÐ¡ÑĤ": 1679,
      "ĠÐ¿Ð»": 1680,
      "Äįko": 1681,
      "Ġposta": 1682,
      "ĠzaÅ¡ti": 1683,
      "Ġnad": 1684,
      "ĠÐ¾Ð´Ð³Ð¾Ð²": 1685,
      "Ġkojima": 1686,
      "tera": 1687,
      "Äįkog": 1688,
      "Ð°Ð½Ð¾Ð²": 1689,
      "ĠÐ²Ð¸ÑĪÐµ": 1690,
      "ĠÐ°ÑĢ": 1691,
      "Ð¸Ð·Ð²": 1692,
      "Ġmeto": 1693,
      "Ð¾Ð´Ð¸": 1694,
      "ĠÑĥÐ»": 1695,
      "ktor": 1696,
      "vnog": 1697,
      "Ġzah": 1698,
      "ĠpoveÄĩa": 1699,
      "Ð¾Ð´Ðµ": 1700,
      "AN": 1701,
      "ĠodreÄĳe": 1702,
      "nera": 1703,
      "meri": 1704,
      "Ġisti": 1705,
      "vnih": 1706,
      "ĠÐ·Ð±": 1707,
      "ĠÑĥÐ²": 1708,
      "Do": 1709,
      "ĠÐ¿ÑĢÐ¾Ð¼": 1710,
      "Ġeko": 1711,
      "Ġizvo": 1712,
      "ĠÐ¸Ð¼Ð°": 1713,
      "Ġih": 1714,
      "rodi": 1715,
      "stupa": 1716,
      "Ġsle": 1717,
      "ĠÐºÐ°Ð´Ð°": 1718,
      "17": 1719,
      "Ġkarak": 1720,
      "ĠÑļÐµÐ³Ð¾Ð²": 1721,
      "ĠÐ¿ÑĢÐ¾ÑĤ": 1722,
      "Äįnih": 1723,
      "Ġloka": 1724,
      "ĠÐºÐ¾Ð»": 1725,
      "ĠÐ¾Ð½": 1726,
      "ĠÐ²Ð¸Ð´": 1727,
      "nova": 1728,
      "ÑĨÐ¸": 1729,
      "ĠÑģÐ²ÐµÑĤ": 1730,
      "Å¡ko": 1731,
      "II": 1732,
      "Ġpara": 1733,
      "ĠÐ¾ÑĢÐ³Ð°Ð½Ð¸Ð·": 1734,
      "ĠÑģÐ»ÑĥÑĩ": 1735,
      "ĠÑĦÐ¾ÑĢÐ¼": 1736,
      "Ð²Ð¾": 1737,
      "ĠÐ¦": 1738,
      "Ġkoju": 1739,
      "mina": 1740,
      "ĠÑĤÐ¾Ðº": 1741,
      "ncija": 1742,
      "ĠÐ±Ð¸Ð»Ð¾": 1743,
      "Ð¾ÑĢÐ¸": 1744,
      "ĠÐ¿Ð¸ÑĤ": 1745,
      "ĠÑĢÐ°Ð·Ð²Ð¾Ñĺ": 1746,
      "ÑĥÑĨ": 1747,
      "Ð¸ÑĩÐ¸ÑĤ": 1748,
      "22": 1749,
      "nik": 1750,
      "Ġgovo": 1751,
      "lna": 1752,
      "lnog": 1753,
      "ĠÐ°ÑĥÑĤ": 1754,
      "Ð¾ÑĴÐµ": 1755,
      "ĠPa": 1756,
      "Ġpopu": 1757,
      "rati": 1758,
      "ĠNo": 1759,
      "Re": 1760,
      "ĠÐ¿Ð¾Ð³": 1761,
      "Ġkontro": 1762,
      "Ġtak": 1763,
      "Ġdruge": 1764,
      "ĠÐºÑļ": 1765,
      "dio": 1766,
      "âĢľ.": 1767,
      "ĠÐ¿ÑĢÐ¾ÑģÑĤ": 1768,
      "Ġtek": 1769,
      "ĠÑĥÐ¿ÑĢ": 1770,
      "Ġkvali": 1771,
      "ĠÐ½Ð°Ð»": 1772,
      "Ġw": 1773,
      "taka": 1774,
      "ĠÐ¾Ð´Ð»": 1775,
      "Ġinforma": 1776,
      "rne": 1777,
      "ĠÐ¨": 1778,
      "Ð½Ð¸ÑĺÐµ": 1779,
      "Ġtome": 1780,
      "ÑĥÑħ": 1781,
      "Ġsada": 1782,
      "ĠÐ´ÑĢÐ¶Ð°Ð²": 1783,
      "zova": 1784,
      "ĠÑĤÐ¾Ð¼": 1785,
      "Ġnjego": 1786,
      "Ð¾Ð»Ð¾Ð³": 1787,
      "ĠÐ·ÐµÐ¼ÑĻ": 1788,
      "Ġproje": 1789,
      "Ġdr": 1790,
      "ĠÐ±Ð¸Ð»Ð°": 1791,
      "\",": 1792,
      "dite": 1793,
      "ĠVa": 1794,
      "Ġzapo": 1795,
      "Ġhe": 1796,
      "Å¡nje": 1797,
      "kim": 1798,
      "ÐµÑģÑĤÐ¾": 1799,
      "Ġpredu": 1800,
      "Ġbole": 1801,
      "Ð¸ÑĩÐ½Ð¾": 1802,
      "ÑħÐ¾Ð´": 1803,
      "Ġzahte": 1804,
      "nci": 1805,
      "Ġkroz": 1806,
      "Ġsti": 1807,
      "ÐĿÐ°": 1808,
      "mogu": 1809,
      "th": 1810,
      "Ð°Ð½Ð¾": 1811,
      "Ġregi": 1812,
      "Ġdeo": 1813,
      "Pro": 1814,
      "Ð°Ð²Ð°ÑļÐµ": 1815,
      "oma": 1816,
      "ĠveÄĩi": 1817,
      "ÐµÑļÑĥ": 1818,
      "fini": 1819,
      "âĢŀ": 1820,
      "Ġdrugo": 1821,
      "Ġsna": 1822,
      "ÑĦÐ¾ÑĢÐ¼": 1823,
      "Ġuspe": 1824,
      "bri": 1825,
      "Ġpreko": 1826,
      "Ð°ÑĪÑļ": 1827,
      "rva": 1828,
      "tka": 1829,
      "ĠSrbiji": 1830,
      "rni": 1831,
      "Ġsvi": 1832,
      "ĠEvro": 1833,
      "ĠÑĢÐ°Ð·Ð»Ð¸ÑĩÐ¸ÑĤ": 1834,
      "ĠÐ·Ð°Ð´": 1835,
      "ona": 1836,
      "ĠkoriÅ¡Äĩe": 1837,
      "ĠÐ¿ÑĢÐ¾ÑĨÐµÑģ": 1838,
      "Ġsistema": 1839,
      "Ð¸ÑĺÐ¾Ð¼": 1840,
      "godi": 1841,
      "ĠDe": 1842,
      "ĠÐºÐ¾ÑĢÐ¸ÑģÑĤ": 1843,
      "Ð¸ÑĺÐ°Ð¼Ð°": 1844,
      "ĠÐ¿ÑĢÐ¸Ð¿": 1845,
      "Ġtaj": 1846,
      "Ġjedna": 1847,
      "dna": 1848,
      "Ġprotiv": 1849,
      "nske": 1850,
      "ĠÑĤÑĢÐµÐ±": 1851,
      "Ð²Ð°Ð»": 1852,
      "Äįna": 1853,
      "Ġkultu": 1854,
      "Ġet": 1855,
      "stri": 1856,
      "Ġpokaza": 1857,
      "Ġthe": 1858,
      "Ġzako": 1859,
      "ĠÐ¿ÑĢÐ¾Ð¸Ð·Ð²": 1860,
      "Ta": 1861,
      "ĠÎ": 1862,
      "cijama": 1863,
      "ĠÐ¼Ð¾Ð³Ñĥ": 1864,
      "Ġtro": 1865,
      "Ġ30": 1866,
      "ĠÐ±Ð¸ÑĤÐ¸": 1867,
      "Ġbudu": 1868,
      "Ð¾Ð½Ð¾Ð¼": 1869,
      "ÑĢÑĥÐº": 1870,
      "ĠÑģÐ°Ð´": 1871,
      "ÑĢÐµÑĤ": 1872,
      "kro": 1873,
      "vnom": 1874,
      "Ð°ÐºÑĤÐµÑĢ": 1875,
      "Ġsrp": 1876,
      "ÐµÐ½Ð¸Ð¼": 1877,
      "ÐµÐ¾Ð³ÑĢÐ°Ð´": 1878,
      "Ġviso": 1879,
      "Ġpojedi": 1880,
      "stitu": 1881,
      "Ġprogra": 1882,
      "Ð¸Ð»Ðµ": 1883,
      "ment": 1884,
      "Ġnau": 1885,
      "ÑĥÐ»ÑĤÑĥÑĢ": 1886,
      "ĠÑĤÐ°ÐºÐ¾": 1887,
      "Ġnas": 1888,
      "ĠÅ¡i": 1889,
      "ĠÑĨÑĢ": 1890,
      "ĠÐ¾Ð´Ð½Ð¾ÑģÐ½Ð¾": 1891,
      "Ġgu": 1892,
      "ĠRu": 1893,
      "Ġjezi": 1894,
      "Ð»ÐµÐ´": 1895,
      "Ġsla": 1896,
      "Ġovom": 1897,
      "Ġdanas": 1898,
      "novi": 1899,
      "ĠÐ½Ð°Ð´": 1900,
      "Ġona": 1901,
      "ï¿": 1902,
      "RA": 1903,
      "ĠÐ±ÑĥÐ´": 1904,
      "ĠÂ": 1905,
      "ï¿½": 1906,
      "Ġn": 1907,
      "ĠÑĥÑģÐ¿": 1908,
      "ÐµÐºÑģÑĤ": 1909,
      "tiva": 1910,
      "Ġpravi": 1911,
      "nansi": 1912,
      "Ġmno": 1913,
      "Ð°ÑĺÐµÐ´": 1914,
      "ĠsadrÅ¾a": 1915,
      "ĠÐ´Ð¾Ð¼": 1916,
      "star": 1917,
      "Ð¸ÑĤÐµÑĤÐ°": 1918,
      "Ġsvet": 1919,
      "ĠÐ¼Ð¾Ð³ÑĥÑĽ": 1920,
      "Ð»Ðµ": 1921,
      "ĠÐ¿Ð¾ÑģÑĤÐ¾Ñĺ": 1922,
      "ĠÐ°ÐºÑĤÐ¸Ð²": 1923,
      "Ġutvr": 1924,
      "Ġzavi": 1925,
      "Ġmaterija": 1926,
      "____": 1927,
      "Ġelek": 1928,
      "Mo": 1929,
      "ĠÑĢÐ°Ñģ": 1930,
      "ÑĥÐ½ÐºÑĨ": 1931,
      "Ð¸ÑĦÐ¸Ðº": 1932,
      "il": 1933,
      "ktiv": 1934,
      "stvu": 1935,
      "met": 1936,
      "ĠÐ°Ð½Ð°Ð»Ð¸Ð·": 1937,
      "50": 1938,
      "ĠÐ½Ð°ÑģÑĤ": 1939,
      "ĠÐ¿Ð¾ÑĤÑĢÐµÐ±": 1940,
      "ÑĤÐ°": 1941,
      "ĠÐ¿ÑĢÐ¸Ðº": 1942,
      "ĠÅ¡ko": 1943,
      "Ġkla": 1944,
      "ĠÑĻÑĥÐ´": 1945,
      "Ra": 1946,
      "vao": 1947,
      "Tako": 1948,
      "ĠÑģÑĤÑĢÐ°Ð½Ðµ": 1949,
      "ÐµÐ»Ð¸": 1950,
      "ĠÐ¿ÑĢÐ¸Ð»": 1951,
      "sne": 1952,
      "ÐºÐ¾Ð¼": 1953,
      "rani": 1954,
      "Ġpore": 1955,
      "Pri": 1956,
      "ĠÑĺÐµÑĢ": 1957,
      "ĠÑĢÐµÐ·ÑĥÐ»ÑĤ": 1958,
      "ĠÑģÑĤÐ²Ð°ÑĢ": 1959,
      "ĠNi": 1960,
      "Ġos": 1961,
      "Ġsvoji": 1962,
      "ĠÐ½ÐµÐ³": 1963,
      "tima": 1964,
      "vla": 1965,
      "rad": 1966,
      "Ġpravo": 1967,
      "Ġpostoji": 1968,
      "Ġ197": 1969,
      "matra": 1970,
      "ĠBa": 1971,
      "ĠÑģÐ²Ð°Ðº": 1972,
      "ĠÉ©": 1973,
      "ĠÐ¿Ð¾Ð¿": 1974,
      "vija": 1975,
      "Ð°Ð»Ð½Ðµ": 1976,
      "21": 1977,
      "Ġdve": 1978,
      "cijom": 1979,
      "plo": 1980,
      "Ð¾Ð²Ð°ÑļÐ°": 1981,
      "rma": 1982,
      "Ġokvi": 1983,
      "klo": 1984,
      "ĠÑĢÐµÐ³": 1985,
      "tio": 1986,
      "ÑĢÑĥÐ¶": 1987,
      "Ð²ÐµÑĤ": 1988,
      "Ġobla": 1989,
      "'',": 1990,
      "ĠÑĢÐµ": 1991,
      "ĠÑĨÐ¸ÑĻ": 1992,
      "Ð°Ð²Ð°ÑļÐ°": 1993,
      "Ð°ÑĺÐµ": 1994,
      "Ð°ÑģÑĤÐ¸": 1995,
      "ĠÐ¸ÑģÐ¿Ð¸ÑĤ": 1996,
      "ST": 1997,
      "Ġprisu": 1998,
      "tori": 1999,
      "ĠÐ½Ð°ÑĩÐ¸Ð½": 2000,
      "Ð¸ÑĪÑĽ": 2001,
      "Ġsmatra": 2002,
      "ÑĻÐ¸Ð²": 2003,
      "Ġuklju": 2004,
      "ÐĽ": 2005,
      "ÐµÐ½Ð·": 2006,
      "Ð¾Ð½Ð°": 2007,
      "ĠÑģÐ°Ð²": 2008,
      "ĠTa": 2009,
      "ĠÐ¿ÐµÑĢÐ¸": 2010,
      "Ð½Ð¸ÑĨÐ¸": 2011,
      "Ð²ÑĢÐ¾Ð¿": 2012,
      "Ġdelo": 2013,
      "Ġskla": 2014,
      "Ġstudi": 2015,
      "tna": 2016,
      "jske": 2017,
      "ĠÐ³Ð¾Ð²": 2018,
      "dova": 2019,
      "Ġproizvod": 2020,
      "loga": 2021,
      "ĠÐ¿Ð°": 2022,
      "ĠÑļÐ¸ÑħÐ¾Ð²": 2023,
      "tua": 2024,
      "vina": 2025,
      "sije": 2026,
      "vre": 2027,
      "Ġener": 2028,
      "Äįuna": 2029,
      "Ð°ÑĤÐµÑĢ": 2030,
      "ĠÐ·Ð°ÑĺÐµÐ´": 2031,
      "Ġovaj": 2032,
      "ove": 2033,
      "Ġmeta": 2034,
      "ÑĨÐ°": 2035,
      "vna": 2036,
      "uze": 2037,
      "ĠMo": 2038,
      "ĠÐ½Ð°Ñģ": 2039,
      "Ġupotre": 2040,
      "Mi": 2041,
      "zima": 2042,
      "ĠÐ³ÑĢÐ°Ð´": 2043,
      "Ġoni": 2044,
      "ĠÄĮ": 2045,
      "Ġprili": 2046,
      "Ġkarakteri": 2047,
      "vesti": 2048,
      "ĠX": 2049,
      "ĠÑĦÑĥÐ½ÐºÑĨ": 2050,
      "Ġnam": 2051,
      "Ġ11": 2052,
      "Ġfe": 2053,
      "Ġbili": 2054,
      "ĠÑĥÑĤÐ¸ÑĨ": 2055,
      "ĠDa": 2056,
      "Ġkli": 2057,
      "Ġodgova": 2058,
      "ĠÐ²ÐµÑĢ": 2059,
      "ĠÐ½Ð°ÑģÑĤÐ°Ð²": 2060,
      "Ð°ÑĺÑĥÑĽÐ¸": 2061,
      "Ð°ÑĢÐ¾Ð´": 2062,
      "ĠGo": 2063,
      "Ġdela": 2064,
      "Ġzajedni": 2065,
      "Ġfinansi": 2066,
      "Ġobzi": 2067,
      "ĠÑĩÐ»Ð°Ð½": 2068,
      "Ġdefini": 2069,
      "Ġmnogo": 2070,
      "ĠPro": 2071,
      "ÐµÐ¼Ñĥ": 2072,
      "Ð°ÐºÑģ": 2073,
      "ĠÐ¿Ð¾ÑģÐµÐ±": 2074,
      "ĠkaÅ¾e": 2075,
      "ĠÐ´ÐµÑĨ": 2076,
      "Ġdobro": 2077,
      "Ġnepo": 2078,
      "Ġpreduze": 2079,
      "Ġosi": 2080,
      "Ð¸ÑĩÐºÐ¸": 2081,
      "zbe": 2082,
      "Ġsvih": 2083,
      "âĢ¦": 2084,
      "rvi": 2085,
      "«É¬": 2086,
      "Ġsvoj": 2087,
      "ĠÐºÑĥÐ»ÑĤÑĥÑĢ": 2088,
      "Ġprava": 2089,
      "rna": 2090,
      "men": 2091,
      "Ġknji": 2092,
      "Ð½Ð°Ñĩ": 2093,
      "Ð¾ÑĤÑĢÐµÐ±": 2094,
      "Ġnajve": 2095,
      "ĠÐ·Ð°ÑĤ": 2096,
      "ĠPe": 2097,
      "ĠÐ½Ð¸Ð²Ð¾": 2098,
      "Ð¼ÐµÑĢ": 2099,
      "ĠâĢĶ": 2100,
      "bora": 2101,
      "ÑĢÑĤ": 2102,
      "publi": 2103,
      "vra": 2104,
      "ĠmoguÄĩ": 2105,
      "Äįnog": 2106,
      "ĠÑĺÐ°Ð²": 2107,
      "ĠÑĪÐºÐ¾Ð»": 2108,
      "ĠÑĥÑģ": 2109,
      "pita": 2110,
      "Ova": 2111,
      "kata": 2112,
      "Ð°ÑĨÐ¸ÑĺÐ¸": 2113,
      "ĠÐºÐ°ÑĢÐ°ÐºÑĤÐµÑĢ": 2114,
      "Ġose": 2115,
      "Ð¾Ð»Ð¸ÐºÐ¾": 2116,
      "mati": 2117,
      "Ġobje": 2118,
      "ĠÑģÐ¿ÑĢ": 2119,
      "ĠÐ¿Ð¾ÐºÐ°Ð·": 2120,
      "Ġstruktu": 2121,
      "Ġper": 2122,
      "ĠÐ½Ð°ÑĺÐ²": 2123,
      "vani": 2124,
      "Ġrekao": 2125,
      "ÐµÑĽÐµ": 2126,
      "ĠVe": 2127,
      "ĠÐĳÐµÐ¾Ð³ÑĢÐ°Ð´": 2128,
      "ĠÑģÐ°Ð´ÑĢÐ¶": 2129,
      "ĠÐ·Ð°ÐºÐ¾Ð½": 2130,
      "Ġostva": 2131,
      "Ð°Ð½Ñĥ": 2132,
      "ĠÐ³Ð¾Ð´Ð¸Ð½Ð°": 2133,
      "ĠÐ¿ÑĢÐ¸Ð²": 2134,
      "Ġvode": 2135,
      "Ġsar": 2136,
      "stava": 2137,
      "Ġprija": 2138,
      "Ð¾Ð¿ÑĢ": 2139,
      "30": 2140,
      "ĠVi": 2141,
      "Ð¸ÑĩÐºÐµ": 2142,
      "ĠÐ¿ÑĢÐ¾Ð±": 2143,
      "Ġrada": 2144,
      "ÑĢÑĥÐºÑĤ": 2145,
      "kcije": 2146,
      "Ġjedno": 2147,
      "Äĳenje": 2148,
      "ĠÐ¸Ð½Ð´": 2149,
      "Ġmese": 2150,
      "Ġono": 2151,
      "ÄĲ": 2152,
      "ĠVu": 2153,
      "Ġnu": 2154,
      "Ð°ÑĨÐ¸Ð¾Ð½": 2155,
      "viÅ¡e": 2156,
      "Ġar": 2157,
      "Ġtr": 2158,
      "Ġdalje": 2159,
      "Ġkomp": 2160,
      "Ġaktivnosti": 2161,
      "ktora": 2162,
      "Ni": 2163,
      "jski": 2164,
      "ljivo": 2165,
      "25": 2166,
      "Ġporodi": 2167,
      "Ġrazvo": 2168,
      "Ġprote": 2169,
      "meta": 2170,
      "tem": 2171,
      "ĠÐ·Ð±Ð¾Ð³": 2172,
      "Ġkad": 2173,
      "Ð°ÑĨÐ°": 2174,
      "Ġdece": 2175,
      "rane": 2176,
      "RE": 2177,
      "Ġad": 2178,
      "mije": 2179,
      "Å¡ka": 2180,
      "bor": 2181,
      "ali": 2182,
      "Ġslede": 2183,
      "Ġkomenta": 2184,
      "Ġ24": 2185,
      "Ġ25": 2186,
      "Ġveoma": 2187,
      "ĠÐ²ÐµÐ»Ð¸Ðº": 2188,
      "Ð¸ÑĤÑĥ": 2189,
      "Ð½ÑĤ": 2190,
      "ĠÐ·Ð°ÑĪÑĤ": 2191,
      "laze": 2192,
      "Od": 2193,
      "ÐµÐ²Ð¸ÑĽ": 2194,
      "Ġmere": 2195,
      "snosti": 2196,
      "ĠÐ¿Ð»Ð°Ð½": 2197,
      "ĠÐ´ÐµÑĦ": 2198,
      "Ð¸Ð¼Ðµ": 2199,
      "Ġ194": 2200,
      "ÑĥÐ±Ð»": 2201,
      "ĠÐ¸Ð´": 2202,
      "Ġprosto": 2203,
      "nce": 2204,
      "ÑĨÑĥ": 2205,
      "slu": 2206,
      "ĠÐ¿ÑĢÐµÐº": 2207,
      "ĠÅ¡e": 2208,
      "nama": 2209,
      "ĠsluÄįaju": 2210,
      "Ġtrenu": 2211,
      "vrÅ¡e": 2212,
      "Ð¾Ñħ": 2213,
      "vala": 2214,
      "um": 2215,
      "ÑĢÐ°ÑĤ": 2216,
      "Ð¾Ð²Ð°ÑļÐµ": 2217,
      "ĠÐ¿ÑĢÐ¾Ð³": 2218,
      "ladi": 2219,
      "stavlje": 2220,
      "âĢĿ,": 2221,
      "NI": 2222,
      "Ġpretho": 2223,
      "Ð°ÑĨÐ¸Ð¾Ð½Ð°Ð»": 2224,
      "Ġkompa": 2225,
      "razu": 2226,
      "vanjem": 2227,
      "tisti": 2228,
      "Ġanti": 2229,
      "ĠDo": 2230,
      "ĠÐ°Ð»": 2231,
      "ĠÐ²Ð¾Ñĺ": 2232,
      "Ġspre": 2233,
      "ĠÐ´ÐµÐ»Ð°": 2234,
      "ĠÑģÑĤÐ°ÑĢ": 2235,
      "ĠÐ¿Ð¾ÑĺÐµÐ´": 2236,
      "com": 2237,
      "tora": 2238,
      "cioni": 2239,
      ".-": 2240,
      "Ġdobije": 2241,
      "Ð¸ÑĩÐµ": 2242,
      "Ġpar": 2243,
      "menu": 2244,
      "Ġpotpu": 2245,
      "tnih": 2246,
      "Ġpodataka": 2247,
      "ĠÐºÐ¾ÑĺÐ¸Ð¼Ð°": 2248,
      "nistar": 2249,
      "ĠÐ³Ð°": 2250,
      "us": 2251,
      "Ð¸ÑĪÑĤÐ°": 2252,
      "noviÄĩ": 2253,
      "ÑĢÐ°Ð¼": 2254,
      "Ġpacije": 2255,
      "Ð¾Ð´Ñĥ": 2256,
      "vije": 2257,
      "Ġ&": 2258,
      "ÑļÐ°": 2259,
      "mer": 2260,
      "Ġefe": 2261,
      "ĠÐ´ÑĢÑĥÑĪÑĤÐ²": 2262,
      "Ð¾ÑĢÑĥ": 2263,
      "Ġomogu": 2264,
      "ĠÐ²Ð»": 2265,
      "Å¡nji": 2266,
      "ÐµÑĤÐ¸": 2267,
      "ĠÐ¾ÑģÐ½Ð¾Ð²Ñĥ": 2268,
      "kva": 2269,
      "ĠÐ¿ÑĢÐ¸ÑĢ": 2270,
      "sio": 2271,
      "Ġca": 2272,
      "tan": 2273,
      "ĠnaÅ¡e": 2274,
      "sedni": 2275,
      ");": 2276,
      "janje": 2277,
      "Ġsitua": 2278,
      "Ġobu": 2279,
      "Ġobi": 2280,
      "Ġpote": 2281,
      "koviÄĩ": 2282,
      "Ð¸ÑģÐ»": 2283,
      "Ġigra": 2284,
      "tku": 2285,
      "kle": 2286,
      "Ð¾Ð²Ð¾ÑĻ": 2287,
      "É¬": 2288,
      "Ġnekoliko": 2289,
      "ĠÐ²ÑĢÐµÐ´Ð½Ð¾ÑģÑĤÐ¸": 2290,
      "ÐµÐ½ÑĥÑĤ": 2291,
      "Ġtim": 2292,
      "ÐµÐ¼Ð¾": 2293,
      "Ġodgovor": 2294,
      "Ġpozna": 2295,
      "Ġpona": 2296,
      "ĠÑģÑĤÐ°Ð½Ð¾Ð²": 2297,
      "ĠÄįu": 2298,
      "Ã©": 2299,
      "ĠÐ¼ÐµÑĴ": 2300,
      "zni": 2301,
      "Ð°Ð²Ðµ": 2302,
      "tt": 2303,
      "ÐµÑĤÑĢ": 2304,
      "ĠÐ¸ÑģÐº": 2305,
      "lih": 2306,
      "Ġnika": 2307,
      "ĠÐ·Ð°Ñħ": 2308,
      "Ġuslu": 2309,
      "ĠÐ´Ð²Ð°": 2310,
      "ĠÑĤÐ¾Ð³Ð°": 2311,
      "ĠpovrÅ¡i": 2312,
      "lim": 2313,
      "NA": 2314,
      "Ġdija": 2315,
      "ĠÉ¢": 2316,
      "Ð²Ð¸": 2317,
      "ĠÑģÐ½": 2318,
      "Ġuvek": 2319,
      "Ġsredi": 2320,
      "Ġgrupe": 2321,
      "Ġispita": 2322,
      "Ġputa": 2323,
      "bela": 2324,
      "zma": 2325,
      "Ġvide": 2326,
      "Ġrizi": 2327,
      "Ġput": 2328,
      "ĠÐºÐ¾Ð½ÑĨ": 2329,
      "Ġslobo": 2330,
      "snika": 2331,
      "Ġneko": 2332,
      "Ġukup": 2333,
      "vore": 2334,
      "ĠÐ¸Ð½ÑĤ": 2335,
      "ÐµÐ¼Ð±": 2336,
      "Ma": 2337,
      "Ġpostoje": 2338,
      "ĠÐ½Ð¸": 2339,
      "kazuje": 2340,
      "njima": 2341,
      "Ġzaklju": 2342,
      "Ġtele": 2343,
      "23": 2344,
      "nskog": 2345,
      "kat": 2346,
      "Ð²ÑĢÑĴ": 2347,
      "Ð¸Ð½Ð³": 2348,
      "sao": 2349,
      "ĠDi": 2350,
      "Ð²Ð¸ÑĢ": 2351,
      "ĠÑĺÐµÐ´Ð¸Ð½": 2352,
      "rana": 2353,
      "24": 2354,
      "Ġformi": 2355,
      "ĠtakoÄĳe": 2356,
      "ĠneÅ¡to": 2357,
      "Ð°Ð»Ð½Ð¾": 2358,
      "ÐµÐ³Ð°": 2359,
      "qu": 2360,
      "ww": 2361,
      "ĠÐ³Ð´Ðµ": 2362,
      "Ġ196": 2363,
      "tivno": 2364,
      "Äįan": 2365,
      "ĠreÅ¡e": 2366,
      "Ġkoncentra": 2367,
      "ĠÐºÐ¾Ð½ÑĤ": 2368,
      "Ġunu": 2369,
      "ÑĺÐµÐ´": 2370,
      "Ġnalazi": 2371,
      "ĠÐ²Ð¸Ñģ": 2372,
      "Ġraspo": 2373,
      "Ġonda": 2374,
      "Ġkojoj": 2375,
      "sija": 2376,
      "ĠÐ¾Ð´Ð½Ð¾ÑģÑĥ": 2377,
      "ĠÐ¸Ð·Ð´": 2378,
      "jte": 2379,
      "Ġap": 2380,
      "ĠÐ¾Ð¿ÑĪÑĤ": 2381,
      "Ìģ": 2382,
      "ĠÐ½Ð¸ÑģÑĥ": 2383,
      "Ġele": 2384,
      "lacije": 2385,
      "Ëĩ": 2386,
      "ĠÑģÑĥÐ´": 2387,
      "JE": 2388,
      "Ġspro": 2389,
      "ĠÐ§": 2390,
      "Ġvrednost": 2391,
      "ĠLa": 2392,
      "ĠRepubli": 2393,
      "vine": 2394,
      "bar": 2395,
      "sna": 2396,
      "ĠJu": 2397,
      "ĠÑĺÐµÐ´Ð°Ð½": 2398,
      "ĠÐ½Ð°ÐºÐ¾Ð½": 2399,
      "Å¡tu": 2400,
      "ĠÐ¼Ð¾ÑĢ": 2401,
      "Ð¾Ð¼Ð°": 2402,
      "Å¾no": 2403,
      "Ġtem": 2404,
      "ĠÐ¿ÑĢÐ°Ð²Ð°": 2405,
      "ĠÐ¸Ð·Ð±": 2406,
      "Ġtom": 2407,
      "vred": 2408,
      "ĠPri": 2409,
      "gije": 2410,
      "gli": 2411,
      "grad": 2412,
      "ÑĢÐ¾": 2413,
      "ĠtrÅ¾i": 2414,
      "ĠÑĤÐ¾ÐºÐ¾Ð¼": 2415,
      "Ġoblasti": 2416,
      "laga": 2417,
      "Ð¾ÑĢÐ¸Ñĺ": 2418,
      "Je": 2419,
      "sob": 2420,
      "ĠÐ½Ð°Ð·": 2421,
      "ÐµÐ½ÑĤÑĢ": 2422,
      "OV": 2423,
      "Ġan": 2424,
      "ĠBi": 2425,
      "ĠÐ½Ð°Ð¼": 2426,
      "AD": 2427,
      "ĠÐ¸Ð½ÑģÑĤ": 2428,
      "ĠÐµÐ½": 2429,
      "viti": 2430,
      "ĠdruÅ¡tve": 2431,
      "Ġpru": 2432,
      "Ġneza": 2433,
      "hvata": 2434,
      "Å¾be": 2435,
      "ĠLi": 2436,
      "ĠÐ¿ÑĢÐ¸": 2437,
      "bil": 2438,
      "ĠÑĤÑĥÑĢ": 2439,
      "Ð²Ð°Ñĺ": 2440,
      "Ð¤": 2441,
      "ĠÐ¿Ð¸Ñģ": 2442,
      "ĠÐºÑĢÐ¾Ð·": 2443,
      "ĠSe": 2444,
      "RI": 2445,
      "Ð¸ÑĨÑĥ": 2446,
      "Ġobrazo": 2447,
      "Ð¾Ð²Ð¾": 2448,
      "ĠodrÅ¾a": 2449,
      "ĠÐ²ÑĢÑģÑĤ": 2450,
      "ĠÐ·Ð°Ðº": 2451,
      "sam": 2452,
      "Ð°Ð½Ð¸Ñħ": 2453,
      "ĠÐºÐ»": 2454,
      "Ġmalo": 2455,
      "ÑĨÐ¸ÑĺÐµ": 2456,
      "Ġneu": 2457,
      "Ġmre": 2458,
      "Ġprikaza": 2459,
      "Ġkarakteristi": 2460,
      "tivne": 2461,
      "Ġsmi": 2462,
      "Äĳenja": 2463,
      "JA": 2464,
      "ĠBe": 2465,
      "lar": 2466,
      "ĠTe": 2467,
      "gao": 2468,
      "Ġ50": 2469,
      "ĠÐ¿ÑĢÐ¸ÑģÑĤ": 2470,
      "ĠJo": 2471,
      "ĠistraÅ¾ivanja": 2472,
      "Ġ=": 2473,
      "ĠÑģÑĤÑĥÐ´": 2474,
      "Ð»ÐµÐºÑģ": 2475,
      "nde": 2476,
      "ÑĢÑĥÐºÑĤÑĥÑĢ": 2477,
      "ĠÐºÑĢÐ¸Ð²": 2478,
      "Ð°ÑĩÐ°": 2479,
      "ĠÑĤÑĢÐµÐ±Ð°": 2480,
      "Ġobezbe": 2481,
      "nskih": 2482,
      "line": 2483,
      "ĠÑĺÐ¾ÑĪ": 2484,
      "Ð²ÑĢÑĪ": 2485,
      "mp": 2486,
      "ÑĥÑĤÐ¸Ð¼": 2487,
      "ndi": 2488,
      "mini": 2489,
      "Ð¸ÐºÐ¾Ð¼": 2490,
      "Ð°Ð·Ðµ": 2491,
      "ĠÐ´ÑĢÑĥÐ³Ðµ": 2492,
      "Ġkomu": 2493,
      "Ġeks": 2494,
      "ĠÐ²ÑĢÐµÐ¼Ðµ": 2495,
      "Ġprepo": 2496,
      "ĠÐ¿ÑĢÐµÐ²": 2497,
      "Ako": 2498,
      "Ġintere": 2499,
      "Ġskladu": 2500,
      "mom": 2501,
      "Ġobli": 2502,
      "Äįenja": 2503,
      "Ġispo": 2504,
      "Ve": 2505,
      "ÑĥÐ²": 2506,
      "Ġfil": 2507,
      "ĠÐ¾ÐºÐ¾": 2508,
      "Ã¨": 2509,
      "Ġcr": 2510,
      "ty": 2511,
      "Ġzemlji": 2512,
      "Ġnaro": 2513,
      "vet": 2514,
      "Ð°ÑĢÐ´": 2515,
      "Ð°Ð²ÑĻÐ°": 2516,
      "Ð¸ÑĤÐ°": 2517,
      "ĠÐ½Ð°ÑĪ": 2518,
      "Ð°ÑĩÐº": 2519,
      "ĠJa": 2520,
      "ĠÐ¾Ñĩ": 2521,
      "Ð¾Ð¿Ð¸Ñģ": 2522,
      "Ġpokre": 2523,
      "Ġdrugih": 2524,
      "Ġneka": 2525,
      "ĠÐ¿Ð¾ÑĤÐ¿": 2526,
      "jan": 2527,
      "Ġnajbo": 2528,
      "Ð¾ÑĢÐµ": 2529,
      "Ð¸ÑĤÐµÑĻ": 2530,
      "Ġelektro": 2531,
      "ÐµÐºÑĤÐ¸Ð²": 2532,
      "kuje": 2533,
      "ĠÐ¿ÑĢÐµÐ´ÑģÑĤÐ°Ð²ÑĻÐ°": 2534,
      "ĠÐµÑĦ": 2535,
      "ĠÑĥÐ¿Ð¾ÑĤÑĢÐµÐ±": 2536,
      "ĠÐ¾ÐºÐ²Ð¸ÑĢ": 2537,
      "tnog": 2538,
      "Ġvas": 2539,
      "Ġsistem": 2540,
      "Ġproda": 2541,
      "Ġrazvoj": 2542,
      "ĠÐ³ÑĢÐ°ÑĴ": 2543,
      "ĠÐ´ÐµÑĦÐ¸Ð½": 2544,
      "Ãł": 2545,
      "ĠÐ¿Ð¾ÑģÐ»ÐµÐ´": 2546,
      "Ġfizi": 2547,
      "es": 2548,
      "kcija": 2549,
      "risti": 2550,
      "Ġizve": 2551,
      "ĠÐľÐ¸Ð»": 2552,
      "Ġstatisti": 2553,
      "Ð¸ÑģÐº": 2554,
      "ĠÐ¿Ð¾ÑģÑĤÑĥÐ¿": 2555,
      "MeÄĳu": 2556,
      "ĠÐ¿ÐµÑĢ": 2557,
      "Ġnjih": 2558,
      "ÑĽÐµ": 2559,
      "ĠÐ¿ÑĢÐ¸ÐºÐ°Ð·": 2560,
      "Ġizda": 2561,
      "lije": 2562,
      "ÑĥÐ¶Ð±": 2563,
      "nos": 2564,
      "ĠÐ¼Ð°ÑĤÐµÑĢ": 2565,
      "Ġokviru": 2566,
      "janja": 2567,
      "ĠÐ¡ÑĢÐ±Ð¸ÑĺÐµ": 2568,
      "peratu": 2569,
      "Iz": 2570,
      "Ð¾Ð»Ð°": 2571,
      "ÑģÑĤÐ²Ð°ÑĢ": 2572,
      "pad": 2573,
      "ĠÐ¼Ð½Ð¾Ð³": 2574,
      "Ġâ": 2575,
      "Äĳuje": 2576,
      "ĠÑĢÐµÐ´": 2577,
      "ĠÑģÐ¸ÑģÑĤÐµÐ¼": 2578,
      "Ġdina": 2579,
      "Ġvremena": 2580,
      "Ð°ÑĤÐµÐ³": 2581,
      "sor": 2582,
      "Ġstandar": 2583,
      "ĠÐ´ÐµÑĤ": 2584,
      "ÐµÑĽÐ°": 2585,
      "ÐµÑĢÑĤ": 2586,
      "ĠÐ»Ð¾Ðº": 2587,
      "Ġkoli": 2588,
      "ĠÐ´ÐµÐ¾": 2589,
      "Ġdoma": 2590,
      "AT": 2591,
      "diti": 2592,
      "dru": 2593,
      "Ð½Ð°ÑĤ": 2594,
      "Ð¾Ð³ÑĢÐ°ÑĦ": 2595,
      "ĠÑģÑĤÐ°ÑĤ": 2596,
      "lnim": 2597,
      "Ð°Ð²Ð°ÑĺÑĥ": 2598,
      "ĠneÄĩe": 2599,
      "ĠÑĦÐ¸Ð»": 2600,
      "Ð°Ð¼Ð¾": 2601,
      "Ġidenti": 2602,
      "Ġvarija": 2603,
      "ÉŃÉ": 2604,
      "risa": 2605,
      "ĠÑģÐ²Ð¾ÑĺÐµ": 2606,
      "ĠÐºÐ¾": 2607,
      "jskih": 2608,
      "ĠoÄįe": 2609,
      "Ġgrupa": 2610,
      "Ġure": 2611,
      "ĠÐ°ÑĢÑħ": 2612,
      "ĠÐ½ÐµÐ´": 2613,
      "ÑĥÐ³Ð¾ÑģÐ»": 2614,
      "Ð¾ÑĪÑĤ": 2615,
      "ĠÑĢÐµÑĪ": 2616,
      "Ġpolo": 2617,
      "Äįkim": 2618,
      "Ġume": 2619,
      "liti": 2620,
      "Ġmanje": 2621,
      "ĠÐ¾Ð²Ð¾Ð³": 2622,
      "Ġtrans": 2623,
      "ĠÐ¾Ð¼": 2624,
      "Ð¸ÑĨÐ¸ÑĺÐµ": 2625,
      "Ġone": 2626,
      "Ġposled": 2627,
      "ina": 2628,
      "ĠÐ¾Ð²Ð¾Ð¼": 2629,
      "Ġ100": 2630,
      "ĠÐºÐ²Ð°Ð»": 2631,
      "Ġname": 2632,
      "pak": 2633,
      "tke": 2634,
      "ĠÐ¡Ð»": 2635,
      "vez": 2636,
      "od": 2637,
      "ĠÐµÐºÑģÐ¿": 2638,
      "Ã¡": 2639,
      "ĠÑĤÑĢÐ¸": 2640,
      "Ð¾ÑĢÑĤ": 2641,
      "ĠÐ¾Ð²Ðµ": 2642,
      "ĠÐ¿Ð¾ÑĺÐµÐ´Ð¸Ð½": 2643,
      "per": 2644,
      "ĠÑĪÐ¸ÑĢ": 2645,
      "pr": 2646,
      "Ġ23": 2647,
      "Ġveza": 2648,
      "ĠÐ¾Ð±ÑĢÐ°Ð·": 2649,
      "Ã¥": 2650,
      "ĠÐ¼ÐµÑĴÑĥ": 2651,
      "ĠÐ¼Ñĥ": 2652,
      "ĠÐ¸ÑģÑĤÑĢÐ°Ð¶Ð¸Ð²Ð°ÑļÐ°": 2653,
      "Ġisku": 2654,
      "Ġovih": 2655,
      "ÑĮ": 2656,
      "Ġï": 2657,
      "kraji": 2658,
      "vana": 2659,
      "Ġteo": 2660,
      "Ġsocija": 2661,
      "ĠÐľÐ°ÑĢ": 2662,
      "Ġras": 2663,
      "Ġupravlja": 2664,
      "ĠÐ¸Ð¼Ð°ÑĺÑĥ": 2665,
      "ĠÐ¿ÑĢÐ¾ÑĤÐ¸Ð²": 2666,
      "Ġprvi": 2667,
      "Ġnavede": 2668,
      "ĠÐ±Ð»": 2669,
      "Ð¸Ð³ÑĥÑĢ": 2670,
      "ĠÐ¿Ð¾Ð±": 2671,
      "Ġzaposle": 2672,
      "nad": 2673,
      "Ġdete": 2674,
      "Äįkom": 2675,
      "ĠÑĤÐµÐ¼": 2676,
      "hu": 2677,
      "ĠÐ¾ÑģÐ¾Ð±": 2678,
      "snost": 2679,
      "grani": 2680,
      "ÐµÐ¿ÑĤ": 2681,
      "ÑĥÐ½Ð°ÑĢÐ¾Ð´": 2682,
      "ĠÄįak": 2683,
      "Ġvoj": 2684,
      "ĠÐ²ÐµÐºÐ°": 2685,
      "Å¡ava": 2686,
      "ÐºÑĢ": 2687,
      "Ġusta": 2688,
      "ĠÑĤÐ¸Ð¿": 2689,
      "Ð°Ð»Ð½Ð¸": 2690,
      "Å£e": 2691,
      "bre": 2692,
      "ÐµÑĢÐ·": 2693,
      "ÄĬ": 2694,
      "ĠMar": 2695,
      "Ġtemperatu": 2696,
      "ĠÐ²Ð°Ð¶": 2697,
      "Å¡nja": 2698,
      "Ġvam": 2699,
      "ĠÄįita": 2700,
      "ĠÑĢÐµÐ»": 2701,
      "Ġpotvr": 2702,
      "Ð°ÑĨÐ¸": 2703,
      "ÐµÐ½ÐµÑĢ": 2704,
      "Ġsmanje": 2705,
      "ÐµÐ»Ð¾": 2706,
      "Ð¸ÑĨÐ¸Ð¼Ð°": 2707,
      "ÑĥÐºÐ°": 2708,
      "ĠSi": 2709,
      "ĠÑĦÐ¸Ð½": 2710,
      "ĠÐ¼ÐµÑĢ": 2711,
      "Ġneki": 2712,
      "Ġuo": 2713,
      "ĠÑĤÐµÑħ": 2714,
      "loÅ¾e": 2715,
      "ks": 2716,
      "Ð¾Ð²ÐµÐ½": 2717,
      "Äįnim": 2718,
      "Ġkise": 2719,
      "Ġuzor": 2720,
      "kul": 2721,
      "ĠÑģÐ¸Ð½": 2722,
      "Ġposti": 2723,
      "ĠÐ±Ð¸Ð»Ð¸": 2724,
      "vde": 2725,
      "ĠLe": 2726,
      "smo": 2727,
      "ĠÐ½ÐµÐ¼": 2728,
      "ĠÑĥÑĩÐµÐ½": 2729,
      "Ð¸ÑĤÐµÑĢ": 2730,
      "ĠÐ¿ÑĢÐ¸Ð¼ÐµÑĢ": 2731,
      "pred": 2732,
      "Äĩih": 2733,
      "Pa": 2734,
      "ĠOd": 2735,
      "Ð¸ÑĺÑĥÐ¼": 2736,
      "niza": 2737,
      "Ð½Ð¸ÑĪÑĤ": 2738,
      "ÑĢÐ°ÑĽ": 2739,
      "ĠÐ¾Ð´Ð±": 2740,
      "lnom": 2741,
      "Ð°Ð»Ð½Ð¾Ð³": 2742,
      "Ð¸Ð¶ÐµÐ²": 2743,
      "Ð¸ÑĤÐ¸Ð²": 2744,
      "Ġnedo": 2745,
      "ĠÐ´Ð°Ð½": 2746,
      "gen": 2747,
      "ĠÐºÐ¾Ð½ÑĤÑĢ": 2748,
      "Ġ2011": 2749,
      "Ġdelu": 2750,
      "ĠÐ¿Ð¾ÑĩÐµÑĤ": 2751,
      "ĠÐ¾ÑģÑĤÐ²Ð°ÑĢ": 2752,
      "ĠÐ½Ð°Ð³": 2753,
      "ĠÐ¿Ð¾Ð´Ð°ÑĤ": 2754,
      "ĠPre": 2755,
      "Äįnosti": 2756,
      "ĠÑĤÐ°ÐºÐ¾ÑĴÐµ": 2757,
      "26": 2758,
      "ss": 2759,
      "vnim": 2760,
      "Ġsko": 2761,
      "ÐºÐ¾Ð²Ð¸ÑĽ": 2762,
      "Ġpoveza": 2763,
      "niver": 2764,
      "Ġizo": 2765,
      "Ġnjegovo": 2766,
      "Ð¸ÑĽÐ°": 2767,
      "ÑĥÑģÑĤÑĢ": 2768,
      "Ð°Ð²ÐµÐ·": 2769,
      "Ġsvim": 2770,
      "Ġdruga": 2771,
      "ĠÐķÐ²ÑĢÐ¾Ð¿": 2772,
      "Ġkoliko": 2773,
      "ÑļÐ¸": 2774,
      "gne": 2775,
      "ĠSrbija": 2776,
      "leksa": 2777,
      "ÑĨÐ¸Ð¿": 2778,
      "sova": 2779,
      "ĠÐ¿ÑĢÐµÐ¿": 2780,
      "Ġvezi": 2781,
      "vod": 2782,
      "kav": 2783,
      "ÑļÑĥ": 2784,
      "riji": 2785,
      "Ġposebno": 2786,
      "Ð¸ÑĩÐ½Ðµ": 2787,
      "ume": 2788,
      "Ġtehno": 2789,
      "ĠÑĢÐ°Ð·Ð²": 2790,
      "ĠÑģÐ¾ÑĨ": 2791,
      "uz": 2792,
      "Ġoce": 2793,
      "lima": 2794,
      "Ġha": 2795,
      "Ð¾Ð³ÑĥÑĽ": 2796,
      "Ð¸ÑĩÐºÐ¸Ñħ": 2797,
      "govora": 2798,
      "som": 2799,
      "</": 2800,
      "Ġvidi": 2801,
      "Ġsup": 2802,
      "Ġkr": 2803,
      "Äįku": 2804,
      "ĠgraÄĳa": 2805,
      "sima": 2806,
      "ĠBu": 2807,
      "ÐµÐ¿ÑĥÐ±Ð»": 2808,
      "ðĿ": 2809,
      "Ġkompo": 2810,
      "Ġ2012": 2811,
      "ÐµÐ»Ðµ": 2812,
      "ĠÐµÐºÐ¾Ð½Ð¾Ð¼": 2813,
      "Ġneop": 2814,
      "Ġ2010": 2815,
      "ÐµÐ½Ð´": 2816,
      "Ġ21": 2817,
      "Ġban": 2818,
      "Ġjednom": 2819,
      "Å£i": 2820,
      "ĠÐ³Ð»Ð°Ð²": 2821,
      "Ġpono": 2822,
      "Ġpodr": 2823,
      "ÐµÑģÑĤÐ¸": 2824,
      "Ġekonom": 2825,
      "ĠÐºÐ¾ÑĺÑĥ": 2826,
      "Ġdopri": 2827,
      "tin": 2828,
      "Ġindu": 2829,
      "Äĩem": 2830,
      "Ġsaj": 2831,
      "Ġposledi": 2832,
      "ÑĥÐ¿ÑĻ": 2833,
      "ĠÑĥÐ¼ÐµÑĤ": 2834,
      "kar": 2835,
      "ĠÐ¸Ð·Ð²ÑĢÑĪ": 2836,
      "Ġstepe": 2837,
      "zije": 2838,
      "ĠÐ¼ÐµÐ´": 2839,
      "ĠÐ¸Ð½ÑĦÐ¾ÑĢÐ¼": 2840,
      "obra": 2841,
      "Ġgre": 2842,
      "kazuju": 2843,
      "ĠKi": 2844,
      "Ġmnog": 2845,
      "199": 2846,
      "Ġprodu": 2847,
      "Ġsvako": 2848,
      "\".": 2849,
      "ĠÑĨÑĢÐº": 2850,
      "Slika": 2851,
      "Ġopre": 2852,
      "Ġpitanje": 2853,
      "ĠÐ²Ð°ÑĢ": 2854,
      "ĠÐµÐ»": 2855,
      "ĠÐ¼ÐµÑģÑĤ": 2856,
      "ĠÐ´ÑĥÐ¶": 2857,
      "ĠÐļÑĢ": 2858,
      "Ð¸ÑĢÐ°ÑļÐµ": 2859,
      "ĠÉ¨": 2860,
      "menti": 2861,
      "Ġpoku": 2862,
      "ĠuÄįi": 2863,
      "ÄįiÄĩ": 2864,
      "ĠÑĥÐ´": 2865,
      "riti": 2866,
      "NO": 2867,
      "ĠÐ´Ð¾Ð´": 2868,
      "ĠÐ¿ÐµÑģ": 2869,
      "Ð±ÐµÐ´": 2870,
      "lina": 2871,
      "De": 2872,
      "ĠÑĤÐµÐºÑģÑĤ": 2873,
      "Ġzi": 2874,
      "Ġneopho": 2875,
      "Ġindi": 2876,
      "ĠÐºÐ¾Ð½ÑģÑĤ": 2877,
      "grafi": 2878,
      "Ġime": 2879,
      "Ġlica": 2880,
      "ĠÐ¿Ð¾ÑĻ": 2881,
      "ĠÑĩÐµÑĤ": 2882,
      "ĠÐ°Ð´": 2883,
      "É¢Êģ": 2884,
      "Ġulo": 2885,
      "ĠÐ·Ð°ÑħÑĤ": 2886,
      "Ġsvega": 2887,
      "ĠÑĥÐºÑĻÑĥÑĩ": 2888,
      "mat": 2889,
      "Ġplani": 2890,
      "cifi": 2891,
      "ĠÑģÐ»ÐµÐ´": 2892,
      "Kako": 2893,
      "laz": 2894,
      "ĠÐµÐ»ÐµÐ¼": 2895,
      "Ġodgovaraju": 2896,
      "27": 2897,
      "ĠÑĤÐ¾Ð¼Ðµ": 2898,
      "Ð½ÑĥÑĤ": 2899,
      "Ġmili": 2900,
      "bina": 2901,
      "ĠÑģÐ¸ÑģÑĤÐµÐ¼Ð°": 2902,
      "Éľ": 2903,
      "stro": 2904,
      "ĠponaÅ¡a": 2905,
      "Ð¾ÑĢÐµÐ´": 2906,
      "Ġpostup": 2907,
      "Ð¼Ð¸Ð½": 2908,
      "Ð½Ð¸ÑĨÐµ": 2909,
      "Ð¸ÑĤÐµ": 2910,
      "Ð¸ÑģÑĤÐ°": 2911,
      "ĠÄĲ": 2912,
      "ÐµÐ»ÐµÐ¶": 2913,
      "Ġefika": 2914,
      "Ġdvo": 2915,
      "Ġkar": 2916,
      "Ð°ÑĤÐµ": 2917,
      "ÑģÐ°": 2918,
      "vac": 2919,
      "Ġkva": 2920,
      "Ġnapo": 2921,
      "ĠÐ·Ð°Ð±": 2922,
      "Ð¸ÑĩÐºÐ¾Ð³": 2923,
      "29": 2924,
      "Ġ28": 2925,
      "Ġkoriste": 2926,
      "Ġgrad": 2927,
      "ĠBeograd": 2928,
      "Ġsub": 2929,
      "ĠÐºÑļÐ¸Ð¶ÐµÐ²": 2930,
      "ĠJe": 2931,
      "ĠÅ¾ivot": 2932,
      "Å¡ke": 2933,
      "Äĳena": 2934,
      "Ġnacional": 2935,
      "ĠÑĢÐ°ÑģÐ¿": 2936,
      "MeÄĳutim": 2937,
      "Ġobo": 2938,
      "ĠÐ¿ÑĢÐ¸ÑģÑĤÑĥÐ¿": 2939,
      "ĠÐ¿ÑĢÐµÐ´ÑĥÐ·": 2940,
      "Ġ2013": 2941,
      "nka": 2942,
      "LI": 2943,
      "Ġkore": 2944,
      "Å¡ao": 2945,
      "ĠBeogradu": 2946,
      "Ġnove": 2947,
      "ÐµÑļÐµÐ¼": 2948,
      "Ġura": 2949,
      "ĠÐ·Ð°ÐºÑĻÑĥÑĩ": 2950,
      "Ġrea": 2951,
      "Ð°Ð»Ð½Ð¸Ñħ": 2952,
      "Ġ2014": 2953,
      "Ġdoku": 2954,
      "Ð¸ÑĪÑĻ": 2955,
      "Ġpromene": 2956,
      "Ð¥": 2957,
      "28": 2958,
      "ĠEU": 2959,
      "snije": 2960,
      "jskog": 2961,
      "Ġpotencija": 2962,
      "ĠÄįesto": 2963,
      "Ġzdrav": 2964,
      "kve": 2965,
      "ĠÐ¿ÑĢÐ¾ÑĦ": 2966,
      "stor": 2967,
      "dro": 2968,
      "ÑĢÐµ": 2969,
      "drÅ¾a": 2970,
      "Bi": 2971,
      "ĠÐ´Ð¾Ð»": 2972,
      "Ġ27": 2973,
      "ĠÐ¿Ð¾Ð²ÐµÐ·": 2974,
      "Naj": 2975,
      "Ð¾ÑĢÐ¸ÑĺÐµ": 2976,
      "Å¡Äĩu": 2977,
      "Ġpotrebno": 2978,
      "ĠÑĢÐ°Ð´Ð°": 2979,
      "Ð¼ÐµÑĤ": 2980,
      "Ġuna": 2981,
      "ljenja": 2982,
      "glo": 2983,
      "rke": 2984,
      "Äĩeg": 2985,
      "lago": 2986,
      "Ġprofe": 2987,
      "ĠreÄįi": 2988,
      "kovi": 2989,
      "ĠÐ¾Ð·": 2990,
      "Ġ26": 2991,
      "ÑĢÐ¾Ð½": 2992,
      "ÐµÐ½Ð°ÑĤÐ°": 2993,
      "Ġkojih": 2994,
      "Ġ40": 2995,
      "ksa": 2996,
      "ÑĢÐ°Ð½Ð¸Ñĩ": 2997,
      "Ð°ÑĤÑĥÑĢ": 2998,
      "ÐµÑĢÐ³": 2999,
      "Ġ2008": 3000,
      "ĠÑģÐ°ÑĢ": 3001,
      "Ġsvojim": 3002,
      "Äĳen": 3003,
      "RO": 3004,
      "ĠÐºÐ¾ÑĢÐ¸ÑĪÑĽ": 3005,
      "Ð°ÑĤÐ½Ð¾": 3006,
      "son": 3007,
      "Ġkome": 3008,
      "Ð¦": 3009,
      "Ġvodi": 3010,
      "ĠÐ¿ÑĢÐ¾Ñĺ": 3011,
      "ÑĥÑĺÑĥÑĽÐ¸": 3012,
      "Ð²ÑĢÐ´": 3013,
      "ĠTo": 3014,
      "is": 3015,
      "Ġsvoju": 3016,
      "ĠÐ½ÐµÐ³Ð¾": 3017,
      "ĠraÄįuna": 3018,
      "gnu": 3019,
      "Ġ2009": 3020,
      "Ġreak": 3021,
      "ĠÑģÑĤÑĢÑĥÐºÑĤÑĥÑĢ": 3022,
      "ljo": 3023,
      "ĠRo": 3024,
      "ĠÑĨÐµÐ»": 3025,
      "ber": 3026,
      ".\"": 3027,
      "Ġopera": 3028,
      "narod": 3029,
      "................": 3030,
      "Ġsigu": 3031,
      "gled": 3032,
      "Ġter": 3033,
      "Ġmisli": 3034,
      "Ġvrsta": 3035,
      "Êĥ": 3036,
      "lisa": 3037,
      "feren": 3038,
      "Äįenje": 3039,
      "ĠÅ½": 3040,
      "ĠÐ´Ð¸Ñģ": 3041,
      "zom": 3042,
      "ĠÑĥÑģÑĤ": 3043,
      "Ġtvr": 3044,
      "Ġposla": 3045,
      "ĠÐ¼ÑĥÐ·": 3046,
      "Ġinstitu": 3047,
      "Ġlu": 3048,
      "ĠÐ½ÐµÐ·": 3049,
      "bije": 3050,
      "ĠÐ¿Ð¾ÑģÑĤÐ¾ÑĺÐ¸": 3051,
      "Ġdis": 3052,
      "Ġtrebalo": 3053,
      "Ġprimer": 3054,
      "ĠÐ¾Ð±Ð·": 3055,
      "Ġsarad": 3056,
      "ĠÐ¸Ð·Ð³": 3057,
      "vila": 3058,
      "ĠÐ±Ð¾ÑĢ": 3059,
      "ĠÑĢÐµÐº": 3060,
      "Ġoda": 3061,
      "05": 3062,
      "Å¡lo": 3063,
      "im": 3064,
      "lac": 3065,
      "ÐµÑģÐµÑĤ": 3066,
      "Ġperiodu": 3067,
      "Ġbra": 3068,
      "Ð°Ð½Ð¸Ð¼": 3069,
      "Ġproblem": 3070,
      "net": 3071,
      "CI": 3072,
      "ĠznaÄįajno": 3073,
      "Ġneke": 3074,
      "ĠÐ¼Ð°ÑĢ": 3075,
      "ĠSta": 3076,
      "ĠÉ§": 3077,
      "Ġbroja": 3078,
      "kama": 3079,
      "Ġjeste": 3080,
      "Ġnivou": 3081,
      "Ġbli": 3082,
      "ĠÉŃ": 3083,
      "kt": 3084,
      "Ð¸Ð¼Ð¾": 3085,
      "ĠÑĥÐ±": 3086,
      "ly": 3087,
      "Ð¡ÑĤ": 3088,
      "ĠÐ½Ð°ÑĨÐ¸Ð¾Ð½Ð°Ð»": 3089,
      "ĠÐ»Ð¸": 3090,
      "Ġbolesti": 3091,
      "Ġmikro": 3092,
      "ĠÐ¿ÑĢÐ¸Ð½": 3093,
      "ĠmoguÄĩe": 3094,
      "lacija": 3095,
      "ĠÐ´Ð²Ðµ": 3096,
      "Ġnastav": 3097,
      "ns": 3098,
      "Ð¸ÑĢÐ°ÑļÐ°": 3099,
      "Ġizja": 3100,
      "Ġdozvo": 3101,
      "Ġtehni": 3102,
      "Å¾da": 3103,
      "ĠÑģÐ»ÑĥÑĩÐ°Ñĺ": 3104,
      "ĠHa": 3105,
      "Ð¼Ð°ÑĤ": 3106,
      "Ġzado": 3107,
      "ĠÐ´ÑĢÐ¶": 3108,
      "MA": 3109,
      "ĠÐ¸Ð·Ð»": 3110,
      "Ġmesto": 3111,
      "tivni": 3112,
      "Ġprose": 3113,
      "Ġbezbe": 3114,
      "ĠÐ¿Ð¾ÑĢÐ¾Ð´": 3115,
      "Ġdolazi": 3116,
      "Ġpripre": 3117,
      "Kada": 3118,
      "ĠÐºÐ°Ð¿": 3119,
      "ĠÐ¾Ð´Ð³Ð¾Ð²Ð¾ÑĢ": 3120,
      "titi": 3121,
      "ĠÐ¿ÑĢÐ¾Ð´": 3122,
      "rovatno": 3123,
      "ÑĨÐ¸ÑĺÐ°": 3124,
      "Ð¼Ðµ": 3125,
      "ĠÐ´Ð°ÑĻ": 3126,
      "ĠÐ½Ð°Ð²ÐµÐ´": 3127,
      "ÑĥÐºÐµ": 3128,
      "ple": 3129,
      "Äįine": 3130,
      "zija": 3131,
      "ry": 3132,
      "ĠÐ¿ÑĢÐ¾Ð¸Ð·Ð²Ð¾Ð´": 3133,
      "ĠÐ¼Ð¸Ð½": 3134,
      "Ġnazi": 3135,
      "renja": 3136,
      "ĠrazliÄįitih": 3137,
      "ĠÐ¿Ð¾Ð¼Ð¾ÑĽ": 3138,
      "Ð°ÑĦ": 3139,
      "Ġug": 3140,
      "ĠÑģÑĤÐ°Ð²": 3141,
      "Ġpogo": 3142,
      "ĠÄįini": 3143,
      "Ð¾Ð»Ð¾ÑĪÐº": 3144,
      "//": 3145,
      "ĠÑĥÐºÐ°Ð·": 3146,
      "ÐĺÐ·": 3147,
      "ĠÑĥÐ½ÑĥÑĤ": 3148,
      "sednik": 3149,
      "cep": 3150,
      "menata": 3151,
      "Ġ195": 3152,
      "Ð³Ð»ÐµÐ´": 3153,
      "Äĳeno": 3154,
      "ĠznaÄįi": 3155,
      "ĠÉŀ": 3156,
      "Ja": 3157,
      "ĠÑĦÐ°ÐºÑĤ": 3158,
      "njuje": 3159,
      "ĠÑĢÐ°ÑĤ": 3160,
      "Ġograni": 3161,
      "Ġzemlje": 3162,
      "Ġgenera": 3163,
      "nska": 3164,
      "ĠÐ²Ð»Ð°Ð´": 3165,
      "ÑģÑĤÐ²Ñĥ": 3166,
      "ĠÅ¾ivota": 3167,
      "ĠÐ°Ð¿": 3168,
      "Ð¸Ð½Ð¾Ð¼": 3169,
      "Ġukoliko": 3170,
      "Ġtada": 3171,
      "Ġekspe": 3172,
      "Ġveliki": 3173,
      "ĠÑĤÐ¸Ð¼": 3174,
      "ĠÐ´Ð¾ÑģÑĤ": 3175,
      "ĠÄįlana": 3176,
      "zora": 3177,
      "ime": 3178,
      "É¤": 3179,
      "ol": 3180,
      "Ð¼ÐµÐ½ÑĤ": 3181,
      "TakoÄĳe": 3182,
      "Te": 3183,
      "ĠÐ¿ÑĢÐ¾Ð±Ð»ÐµÐ¼": 3184,
      "voljno": 3185,
      "ĠÐ·Ð°Ñģ": 3186,
      "Vi": 3187,
      "Ð°Ð¶Ðµ": 3188,
      "Ð¸ÑģÑĤÑĢ": 3189,
      "Ġprocesa": 3190,
      "Ð¡Ð»": 3191,
      "Ġuticaj": 3192,
      "35": 3193,
      "ĠÐĸ": 3194,
      "Ġsre": 3195,
      "ĠÐ¾ÐºÐ²Ð¸ÑĢÑĥ": 3196,
      ".âĢľ": 3197,
      "Ġstvari": 3198,
      "Ġmesta": 3199,
      "tvo": 3200,
      "tivnih": 3201,
      "Ð½Ð¸ÑĨÐ°": 3202,
      "jeva": 3203,
      "metri": 3204,
      "ĠÐºÐ°ÑĢÐ°ÐºÑĤÐµÑĢÐ¸ÑģÑĤ": 3205,
      "laza": 3206,
      "Ġdrugim": 3207,
      "Ð°Ð»Ð½Ð°": 3208,
      "ĠÄįove": 3209,
      "Ġjednog": 3210,
      "39": 3211,
      "Ð²Ð°Ð½": 3212,
      "ÐµÑĴÑĥÑĤÐ¸Ð¼": 3213,
      "ÉŁÉ§": 3214,
      "Ġnede": 3215,
      "ĠÐ·Ð°Ð²Ð¸Ñģ": 3216,
      "Ġfoto": 3217,
      "ĠÉ¤": 3218,
      "Äįnom": 3219,
      "40": 3220,
      "ĠÑĥÐ³Ð¾Ð²": 3221,
      "Ð°ÑĩÑĥÐ½": 3222,
      "lnu": 3223,
      "snik": 3224,
      "ĠÐ¿Ð¾Ð²ÐµÑĽ": 3225,
      "ĠÐºÐ°Ñģ": 3226,
      "mpa": 3227,
      "Ġvra": 3228,
      "Ġgle": 3229,
      "Ġpodru": 3230,
      "uma": 3231,
      "Ġvrste": 3232,
      "Ġradu": 3233,
      "mor": 3234,
      "Ġposmatra": 3235,
      "Ġ22": 3236,
      "Ġprilikom": 3237,
      "Ð¸ÑĩÐ½Ð¾Ð³": 3238,
      "ĠAl": 3239,
      "der": 3240,
      "ĠÑģÐ»ÑĥÑĩÐ°ÑĺÑĥ": 3241,
      "ud": 3242,
      "38": 3243,
      "Ġosigu": 3244,
      "vode": 3245,
      "Ġproizvoda": 3246,
      "Ġljud": 3247,
      "tiri": 3248,
      "Äįina": 3249,
      "ttp": 3250,
      "Ġ2015": 3251,
      "kli": 3252,
      "ĠÐ²Ð¾Ð´": 3253,
      "ĠopÅ¡ti": 3254,
      "ĠÐ°ÐºÐ¾": 3255,
      "âĢĿ.": 3256,
      "ĠÐ¼ÐµÑĴÑĥÐ½Ð°ÑĢÐ¾Ð´": 3257,
      "Ġsud": 3258,
      "Ġstrate": 3259,
      "rvat": 3260,
      "Ð¿ÐµÑĢ": 3261,
      "ĠÐ±Ð¾Ð»": 3262,
      "ÑĪÐ¸": 3263,
      "dija": 3264,
      "ĠÐ¸Ñħ": 3265,
      "ÑĽÑĥ": 3266,
      "ÑĢÑĥÑĩ": 3267,
      "ÉļÉ§": 3268,
      "tog": 3269,
      "Ð¸ÑĴ": 3270,
      "Ð»Ð°ÑĪ": 3271,
      "Ġuda": 3272,
      "vca": 3273,
      "Ð¾ÑĢÐ¸ÑĺÐ°": 3274,
      "Ð¾Ñļ": 3275,
      "://": 3276,
      "Ġ...": 3277,
      "Ġmodela": 3278,
      "ĠnaÅ¡": 3279,
      "pske": 3280,
      "Ġdugo": 3281,
      "É«É": 3282,
      "SK": 3283,
      "vremeno": 3284,
      "ĠÐ´Ð¾Ð³": 3285,
      "che": 3286,
      "ĠÐı": 3287,
      ".)": 3288,
      "Ġ2007": 3289,
      "Ġstano": 3290,
      "ÑĺÐ°": 3291,
      "ÑĥÑĴ": 3292,
      "Ġuslovima": 3293,
      "Ġgovori": 3294,
      "ĠÐ¼Ð¾ÑĤ": 3295,
      "Ġpitanju": 3296,
      "Äįkoj": 3297,
      "ĠÐ¿ÑĢÐ¸Ñħ": 3298,
      "Ð¸ÑĢÐµÐºÑĤ": 3299,
      "ĠÑĩÐ¾Ð²": 3300,
      "Ġpriti": 3301,
      "ĠÐ´Ð¾Ð²": 3302,
      "Ġponu": 3303,
      "Ġnega": 3304,
      "Ġista": 3305,
      "ÑĢÐ°Ð³": 3306,
      "Ġpotro": 3307,
      "vlju": 3308,
      "ĠÐ¾Ð±Ð»Ð°ÑģÑĤÐ¸": 3309,
      "É¥": 3310,
      "lite": 3311,
      "Ġam": 3312,
      "ĠÐ²Ð¸ÑģÐ¾Ðº": 3313,
      "Ġproces": 3314,
      "ĠvaÅ¾": 3315,
      "gaÄĳa": 3316,
      "ĠÐ½Ð°ÑĥÑĩ": 3317,
      "ĠÐ³ÑĢÑĥÐ¿Ðµ": 3318,
      "Ġvrlo": 3319,
      "Ġpode": 3320,
      "ĠÑĤÐ°Ñĺ": 3321,
      "Ġkola": 3322,
      "Ġ29": 3323,
      "san": 3324,
      "ĠÑģÐ»Ð¾Ð±": 3325,
      "Ġpored": 3326,
      "Ð¼Ð°Ð½": 3327,
      "Ġvozi": 3328,
      "ÐµÐ½Ð¾ÑģÑĤÐ¸": 3329,
      "ĠÐ·Ð°Ð¼": 3330,
      "ĠII": 3331,
      "ĠÄĩelija": 3332,
      "Ġpredvi": 3333,
      "Ġmeha": 3334,
      "Ġiznosi": 3335,
      "ĠÐ¿ÑĢÐµÐºÐ¾": 3336,
      "Ð¸ÑĪÑĤÐµ": 3337,
      "ĠÐ¾Ð½Ð°": 3338,
      "É¨Éľ": 3339,
      "tere": 3340,
      "Ġ2006": 3341,
      "Ġispiti": 3342,
      "Ġrazvoja": 3343,
      "Äįnu": 3344,
      "Ġinvesti": 3345,
      "Prema": 3346,
      "ĠÐ´Ð²": 3347,
      "Ġsm": 3348,
      "ĠÑģÐ¿ÐµÑĨ": 3349,
      "Ð½Ð¸Ñĺ": 3350,
      "Ġdirek": 3351,
      "ĠÐµÐ¿": 3352,
      "ÐµÑĪÑĽÐµ": 3353,
      "Î±": 3354,
      "ĠznaÄįa": 3355,
      "Ð°ÑĩÐºÐµ": 3356,
      "ĠÐ¿Ð¾ÑģÑĤÐ¾ÑĺÐµ": 3357,
      "ĠÄįinje": 3358,
      "ĠÐ¸ÑģÑĤÑĢÐ°Ð¶Ð¸Ð²": 3359,
      "Ġkate": 3360,
      "ÐµÐ½ÑĨÐ¸ÑĺÐµ": 3361,
      "Ġzada": 3362,
      "Ġbolje": 3363,
      "Ġneo": 3364,
      "Ġspecifi": 3365,
      "Ð´ÑĢ": 3366,
      "ĠÐ¼Ð¾Ð´ÐµÐ»": 3367,
      "ban": 3368,
      "ĠÑĢÐ°Ð´Ð¸": 3369,
      "ĠÑĥÑĤÐ¸ÑĨÐ°Ñĺ": 3370,
      "Ġrazume": 3371,
      "Ġtera": 3372,
      "Ġ+": 3373,
      "ĠÑĥÐºÑĥÐ¿": 3374,
      "TE": 3375,
      "ĠÐ¾Ð²Ð°Ñĺ": 3376,
      "Ġporu": 3377,
      "Ġspa": 3378,
      "Ġokru": 3379,
      "ĠÐłÐµÐ¿ÑĥÐ±Ð»": 3380,
      "bru": 3381,
      "ĠSo": 3382,
      "Ġanalizi": 3383,
      "Ġnorma": 3384,
      "razume": 3385,
      "ĠÐĤ": 3386,
      "Ð°ÑĢÐ¸": 3387,
      "ts": 3388,
      "ÐµÐ²ÐµÑĢ": 3389,
      "Ġnapra": 3390,
      "voje": 3391,
      "Ð°Ð²Ð¸": 3392,
      "mera": 3393,
      "ĠDu": 3394,
      "ĠÐ³ÑĢÐ°Ð½": 3395,
      "Ġcilje": 3396,
      "ÑĢÐµÑģ": 3397,
      "tko": 3398,
      "Äįiti": 3399,
      "ÃŃ": 3400,
      "ĠRepublike": 3401,
      "ĠÐºÐ¾ÑĺÐ¾Ñĺ": 3402,
      "36": 3403,
      "neti": 3404,
      "Ð¸ÑļÐµÐ½": 3405,
      "ĠÐµÑĤ": 3406,
      "Ġ%": 3407,
      "telj": 3408,
      "**": 3409,
      "ĠÐ½Ð°ÑģÐ»": 3410,
      "mima": 3411,
      "ĠÐºÐ¾Ð½ÑĤÑĢÐ¾Ð»": 3412,
      "TA": 3413,
      "ĠÐ¦ÑĢ": 3414,
      "ĠÐ½Ð°ÑĢÐ¾Ð´": 3415,
      "ljenje": 3416,
      "Ð½Ð¾ÑĪ": 3417,
      "Ġrela": 3418,
      "ĠÐºÐ»Ð°Ñģ": 3419,
      "ĠpomoÄĩ": 3420,
      "niti": 3421,
      "tus": 3422,
      "Ġzato": 3423,
      "Ð¸ÑĩÐ½Ð¸Ñħ": 3424,
      "Ġcentra": 3425,
      "NE": 3426,
      "Ġpromena": 3427,
      "LA": 3428,
      "Ġplo": 3429,
      "Ġisklju": 3430,
      "ÑģÐµÐ´": 3431,
      "Ġosoba": 3432,
      "Ġpora": 3433,
      "Ġinf": 3434,
      "manje": 3435,
      "aj": 3436,
      "Ð¸ÑĺÑģÐºÐµ": 3437,
      "ÐµÐ¾Ð¼Ð°": 3438,
      "Ð¸ÑĩÐºÐ°": 3439,
      "Ġrodite": 3440,
      "ĠÐ¾Ð´ÑĢÐµÐ´": 3441,
      ".âĢŀ": 3442,
      "Ġevro": 3443,
      "On": 3444,
      "Ġgubi": 3445,
      "Ð¸ÑĺÑģÐºÐ¸": 3446,
      "Ġsami": 3447,
      "ĠÐ·Ð°Ð²ÑĢÑĪ": 3448,
      "Ġtru": 3449,
      "34": 3450,
      "jum": 3451,
      "Ġpsi": 3452,
      "dje": 3453,
      "ĠÐ¸Ð´ÐµÐ½ÑĤ": 3454,
      "ĠÑģÐ¼Ð¾": 3455,
      "ĠukljuÄįu": 3456,
      "ĠÐ¿Ð°ÑĢÑĤ": 3457,
      "ĠÐºÐ¾Ð¼ÑĥÐ½": 3458,
      "Ġputem": 3459,
      "Ġdan": 3460,
      "Ð°ÑĺÑĥÑĽ": 3461,
      "No": 3462,
      "Ġozna": 3463,
      "ĠÑģÐ¸Ð¼": 3464,
      "Ð°Ð½Ð¾Ð³": 3465,
      "Ġkrivi": 3466,
      "Ġbri": 3467,
      "Å¡tva": 3468,
      "Kao": 3469,
      "Ġuspo": 3470,
      "ĠÐ¿ÑĢÐµÑĤÑħÐ¾Ð´": 3471,
      "pisu": 3472,
      "voji": 3473,
      "Éŀ": 3474,
      "Ali": 3475,
      "ĠÐ¸Ð³ÑĢ": 3476,
      "prav": 3477,
      "dnih": 3478,
      "ÐµÐºÑĤÐ°": 3479,
      "ĠÐ¸ÑģÐ¿Ð¸ÑĤÐ°Ð½": 3480,
      "ĠÐĿÐ°": 3481,
      "cama": 3482,
      "ĠÐºÐ¾Ð½Ðº": 3483,
      "ĠoseÄĩa": 3484,
      "ÐŀÐ´": 3485,
      "zuje": 3486,
      "ĠÑħÑĢ": 3487,
      "ul": 3488,
      "ĠÐ¡ÑĢÐ±Ð¸ÑĺÐ¸": 3489,
      "Ovo": 3490,
      "37": 3491,
      "zbi": 3492,
      "Ġsave": 3493,
      "ĠÑģÑĢ": 3494,
      "Ð°Ð·Ð°": 3495,
      "Ġvlasti": 3496,
      "ĠÐ¾Ð³": 3497,
      "ĠÑĺÐµÐ·Ð¸ÐºÐ°": 3498,
      "Ġregu": 3499,
      "Ġbrzi": 3500,
      "Ġposeb": 3501,
      "Ġ2016": 3502,
      "pis": 3503,
      "Ð¸Ð²ÐµÑĢÐ·": 3504,
      "ĠPO": 3505,
      "rent": 3506,
      "leÅ¾": 3507,
      "Ġdobija": 3508,
      "iz": 3509,
      "Ġsposob": 3510,
      "ĠÐ¿Ð¾ÑģÐµÐ±Ð½Ð¾": 3511,
      "Ġkojim": 3512,
      "Å¾enje": 3513,
      "Ġkraju": 3514,
      "Å¡lja": 3515,
      "ÑģÑĤÐ°Ð²Ð°": 3516,
      "ĠÐ½ÐµÑģ": 3517,
      "Ġprima": 3518,
      "logije": 3519,
      "Ġglu": 3520,
      "ĠÄįemu": 3521,
      "jima": 3522,
      "nak": 3523,
      "ðĿĳ": 3524,
      "Ġpitanja": 3525,
      "Ð¨": 3526,
      "Ġugla": 3527,
      "njih": 3528,
      "ÑģÑĤÑĢ": 3529,
      "rao": 3530,
      "ÐµÑĻÐ°": 3531,
      "Ġizuze": 3532,
      "lici": 3533,
      "ĠÐ¡Ð²ÐµÑĤ": 3534,
      "ĠSu": 3535,
      "Ġmaj": 3536,
      "ĠÐ¸Ð½ÑĤÐµÑĢÐµÑģ": 3537,
      "ĠÉ©Éª": 3538,
      "ĠÐ¾Ð¿Ð¸Ñģ": 3539,
      "ĠÐ²ÑĢÐµÐ´Ð½Ð¾ÑģÑĤ": 3540,
      "Ġzdravstve": 3541,
      "Äīe": 3542,
      "ĠÐ½Ð°Ð»Ð°Ð·Ð¸": 3543,
      "Ġminu": 3544,
      "Ġtog": 3545,
      "TI": 3546,
      "vili": 3547,
      "bom": 3548,
      "ĠÐ´ÑĢÑĥÐ³Ð¸Ñħ": 3549,
      "ĠÐ¿Ð¾ÐºÑĢ": 3550,
      "Ð¾Ð³Ñĥ": 3551,
      "Ð§": 3552,
      "ĠÑģÐ¾ÑĨÐ¸ÑĺÐ°Ð»": 3553,
      "Ġ2005": 3554,
      "ft": 3555,
      "renje": 3556,
      "Ġsmislu": 3557,
      "Ð¸ÑĤÐ¾": 3558,
      "Ġpriro": 3559,
      "Ġbor": 3560,
      "ĠÐ¿ÑĢÐ²Ð¸": 3561,
      "Ġmodel": 3562,
      "tivna": 3563,
      "zdu": 3564,
      "ĠÐ¸Ð´Ðµ": 3565,
      "Ð°ÑĻÐ°": 3566,
      "):": 3567,
      "ĠÑĦÐ¸Ð½Ð°Ð½Ñģ": 3568,
      "mana": 3569,
      "ĠÐ¿ÑĢÐ¾ÑĪ": 3570,
      "ĠÐ¿Ð¾Ð´Ð°ÑĤÐ°ÐºÐ°": 3571,
      "ĠÐ¿Ð¾Ð²ÑĢÑĪ": 3572,
      "Ġprove": 3573,
      "Ġovoj": 3574,
      "ÑĥÐ»Ð°": 3575,
      "________": 3576,
      "ĠmoÅ¾ete": 3577,
      "bio": 3578,
      "ĠÐ°ÐºÑĤÐ¸Ð²Ð½Ð¾ÑģÑĤÐ¸": 3579,
      "Ġsvaki": 3580,
      "tova": 3581,
      "Ġcilj": 3582,
      "ĠÑģÐ²Ð¸Ñħ": 3583,
      "ĠÐ²ÐµÐ¾Ð¼Ð°": 3584,
      "Ġ60": 3585,
      "Ġnavodi": 3586,
      "lova": 3587,
      "ĠÑĢÐ°Ð·Ð¼": 3588,
      "Ġstav": 3589,
      "opÅ¡te": 3590,
      "Ġpodrazume": 3591,
      "ĠizveÅ¡ta": 3592,
      "Ġispu": 3593,
      "ĠÐ°Ð½ÑĤ": 3594,
      "ĠÑģÐ¸ÑĤÑĥ": 3595,
      "Ġ?": 3596,
      "formi": 3597,
      "Ġnovi": 3598,
      "dam": 3599,
      "ĠpodruÄį": 3600,
      "ĠÐºÐ°": 3601,
      "ĠÐĳÑĢ": 3602,
      "ĠÅ¡a": 3603,
      "Ñĭ": 3604,
      "Ġovim": 3605,
      "ĠÑģÑĥÐ±": 3606,
      "Ġproblema": 3607,
      "Ġpet": 3608,
      "logija": 3609,
      "Ġodnosi": 3610,
      "Ð¾ÑĺÐ¸": 3611,
      "ĠÐ¾Ð±Ð°Ð²ÐµÐ·": 3612,
      "Sve": 3613,
      "ĠÐµÐ¼": 3614,
      "kte": 3615,
      "ĠÐ¿ÑĢÐ¾ÑģÑĤÐ¾ÑĢ": 3616,
      "ĠÐ¸Ð½ÑģÑĤÐ¸ÑĤ": 3617,
      "Ġzara": 3618,
      "Ð¸ÑļÐµ": 3619,
      "ÐĹÐ°": 3620,
      "jska": 3621,
      "Ã®": 3622,
      "Ð¸ÑĢÐ¾Ð¼": 3623,
      "ck": 3624,
      "ĠÑĥÑĤÐ²ÑĢÑĴ": 3625,
      "led": 3626,
      "ĠÑĢÐ°ÑģÑĤ": 3627,
      "ÑŁ": 3628,
      "ĠÑģÐ¼Ð°Ñļ": 3629,
      "sed": 3630,
      "Ġsebe": 3631,
      "Å¾an": 3632,
      "Ġpobe": 3633,
      "Ġ2000": 3634,
      "rali": 3635,
      "ĠÐ½ÐµÐºÐ¾Ð»Ð¸ÐºÐ¾": 3636,
      "Ġtj": 3637,
      "Ġepi": 3638,
      "Ġimati": 3639,
      "Ġprona": 3640,
      "Ġpojedina": 3641,
      "ksida": 3642,
      "ĠÑĢÐ¾Ð´": 3643,
      "ĠÐ³ÐµÐ½ÐµÑĢ": 3644,
      "kna": 3645,
      "lin": 3646,
      "Äĳivanje": 3647,
      "ĠÑĥÐ¿ÑĢÐ°Ð²": 3648,
      "Äĩim": 3649,
      "Ġkomunika": 3650,
      "ĠÐ´Ð°Ð½Ð°": 3651,
      "60": 3652,
      "ĠÐ¿ÐµÑĢÐ¸Ð¾Ð´Ñĥ": 3653,
      "Ġrazliku": 3654,
      "ĠÄįetiri": 3655,
      "Ġzahteva": 3656,
      "ĠÐ¿Ð¾Ð´ÑĢÑĥÑĩ": 3657,
      "ĠdogaÄĳa": 3658,
      "set": 3659,
      "Ġeksperi": 3660,
      "Ġkatego": 3661,
      "ĠdrÅ¾ave": 3662,
      "âĢĶ": 3663,
      "ÐµÑĤÐµ": 3664,
      "Ġdefinisa": 3665,
      "ili": 3666,
      "ĠÐºÑĢÐ°Ñĺ": 3667,
      "vje": 3668,
      "Ġopa": 3669,
      "ut": 3670,
      "Ð½Ð¸ÑĺÐ¸": 3671,
      "ĠÑģÐ½Ð°Ð³": 3672,
      "ÑĤÑĥ": 3673,
      "dnosti": 3674,
      "Ð¸ÑĨÐ°Ð¼Ð°": 3675,
      "tivi": 3676,
      "ĠÑĢÐµÐ¿": 3677,
      "Ð¾ÑĢÐ´": 3678,
      "ĠÐŀÐ´": 3679,
      "ĠÐ¿ÑĢÐ°Ð²Ð¾": 3680,
      "ranju": 3681,
      "Ġzakona": 3682,
      "ÐµÐ½Ð¾ÑģÑĤ": 3683,
      "ĠpruÅ¾a": 3684,
      "Ġupu": 3685,
      "ĠmoguÄĩnost": 3686,
      "Ð¾ÑģÐ¾Ð±": 3687,
      "ĠÐ¿ÑĢÐ¾Ñģ": 3688,
      "ĠÐ´ÑĢÐ¶Ð°Ð²Ðµ": 3689,
      "Ġmaterijala": 3690,
      "Ġpostupa": 3691,
      "ĠÑģÐµÐ´": 3692,
      "Ġklasi": 3693,
      "Ġrazlika": 3694,
      "ĠpoÅ¡to": 3695,
      "Ġmeri": 3696,
      "Ġsvetu": 3697,
      "ĠÐĺÐ·": 3698,
      "Ġimao": 3699,
      "loÅ¡ki": 3700,
      "Ð¸ÑĩÐ½Ð°": 3701,
      "ĠÐ²Ð°ÑĢÐ¸Ñĺ": 3702,
      "ljeni": 3703,
      "tovo": 3704,
      "33": 3705,
      "Å¡enje": 3706,
      "ĠÑĢÑĥÐº": 3707,
      "tnosti": 3708,
      "ĠdrÅ¾ava": 3709,
      "ĠAleksa": 3710,
      "ĠTi": 3711,
      "nio": 3712,
      "Ġkompone": 3713,
      "Ġnjima": 3714,
      "Ġrastvo": 3715,
      "Ġobzirom": 3716,
      "Ġotkri": 3717,
      "ĠÐ¿ÑĢÐµÐ´ÑģÑĤÐ°Ð²": 3718,
      "Ð°Ð¼Ð¿": 3719,
      "Ð¸ÑĩÐ½Ð¸": 3720,
      "vlji": 3721,
      "Ġ<": 3722,
      "dina": 3723,
      "Ð¼Ñĥ": 3724,
      "pravo": 3725,
      "Ġteri": 3726,
      "Ġveliko": 3727,
      "ĠÑģÐ»ÑĥÐ¶Ð±": 3728,
      "Ð¸Ð¼Ð¸Ð½": 3729,
      "zor": 3730,
      "Ġdire": 3731,
      "ĠÑĻÑĥÐ´Ð¸": 3732,
      "Ġvan": 3733,
      "dnog": 3734,
      "Ġpriva": 3735,
      "Ġbile": 3736,
      "stan": 3737,
      "Ġpola": 3738,
      "Ġzlo": 3739,
      "Ġmuzi": 3740,
      "Ġpacijenata": 3741,
      "ler": 3742,
      "ĠpriÄįa": 3743,
      "Ġverovatno": 3744,
      "ĠÉ«É": 3745,
      "ĠÉ«": 3746,
      "ĠNA": 3747,
      "Ð²Ñĥ": 3748,
      "ĠÑĤÐµÑģÑĤ": 3749,
      "ĠÐ´ÑĥÐ³": 3750,
      "ĠpreduzeÄĩa": 3751,
      "Ġmiliona": 3752,
      "ĠÐ¾Ð¼Ð¾Ð³ÑĥÑĽ": 3753,
      "ĠÐ´ÑĢÑĥÐ³Ð¸": 3754,
      "ĠnaÅ¡i": 3755,
      "ÑĥÐ½Ð°": 3756,
      "ĠÐ°Ð²": 3757,
      "ĠÑģÐºÑĥÐ¿": 3758,
      "Ġkru": 3759,
      "bija": 3760,
      "Ġzatim": 3761,
      "Ġlice": 3762,
      "Ġanalize": 3763,
      "ksima": 3764,
      "ĠÐ¥ÑĢ": 3765,
      "ĠÐĺÑģÑĤ": 3766,
      "Äİ": 3767,
      "In": 3768,
      "den": 3769,
      "ĠÑĩÐµÑģÑĤÐ¾": 3770,
      "spi": 3771,
      "É¢É¦": 3772,
      "Ġsvom": 3773,
      "Ġodgovo": 3774,
      "ĠÑĩÐ¸ÑļÐµÐ½": 3775,
      "bili": 3776,
      "Ġzemlja": 3777,
      "Ġtoku": 3778,
      "ĠpaÅ¾": 3779,
      "Ġ2017": 3780,
      "ster": 3781,
      "Ġpotpuno": 3782,
      "Ġsig": 3783,
      "Ġ2004": 3784,
      "gija": 3785,
      "ĠÑĢÐµÑĩÐ¸": 3786,
      "Ġgleda": 3787,
      "ĠÑģÐ¿ÑĢÐ¾Ð²": 3788,
      "ĠVla": 3789,
      "ĠCa": 3790,
      "Äįava": 3791,
      "ĠÐ¶Ð¸Ð²Ð¾ÑĤÐ°": 3792,
      "Ġispitiva": 3793,
      "Ġpisa": 3794,
      "VI": 3795,
      "45": 3796,
      "ĠmiÅ¡": 3797,
      "rena": 3798,
      "Ġobavlja": 3799,
      "Ð¸Ð½Ð°Ð¼Ð°": 3800,
      "ĠÐ³Ð¾Ð²Ð¾ÑĢ": 3801,
      "Ġver": 3802,
      "ĠÑģÑĤÐ°Ð½Ð´": 3803,
      "Ġjedne": 3804,
      "ĠÑĢÐ°Ð·Ð²Ð¾ÑĺÐ°": 3805,
      "ĠÐ½Ð¾Ñģ": 3806,
      "Ġstr": 3807,
      "ĠFe": 3808,
      "tnom": 3809,
      "Ġmestu": 3810,
      "Ġpotreb": 3811,
      "Ġdemo": 3812,
      "nicu": 3813,
      "Ð°Ð±Ð¸Ð»": 3814,
      "ĠÅ¾ele": 3815,
      "Ġrezultati": 3816,
      "dnici": 3817,
      "Ð¸ÑĢÐ¸": 3818,
      "ĠÐ¾Ð±ÐµÐ·": 3819,
      "Ġjav": 3820,
      "ĠÐ»ÐµÐºÑģ": 3821,
      "Ġusluga": 3822,
      "ĠÐ¿ÑĢÐ°ÐºÑģ": 3823,
      "dili": 3824,
      "ÄįeÅ¡Äĩe": 3825,
      "ĠÐĲÐ½": 3826,
      "ÉļÉľ": 3827,
      "ĠÐĪÑĥÐ³Ð¾ÑģÐ»": 3828,
      "80": 3829,
      "Äīi": 3830,
      "tual": 3831,
      "Ġsaobra": 3832,
      "tica": 3833,
      "Tabela": 3834,
      "Ð¸ÑģÑĤÐ¸ÑĩÐºÐ¸": 3835,
      "Ġdone": 3836,
      "Ġunutra": 3837,
      "ĠÐ¼Ð°Ð»": 3838,
      "min": 3839,
      "mir": 3840,
      "Ð¸ÑĺÐ°ÑĤ": 3841,
      "tek": 3842,
      "ĠÐ¾Ð´ÑĢÐ¶": 3843,
      "Ġklju": 3844,
      "Ð°Ð»Ð½Ð¾Ð¼": 3845,
      "ljopri": 3846,
      "Ġprostor": 3847,
      "ravno": 3848,
      "tivnog": 3849,
      "Ġekstra": 3850,
      "Ð°Ð½Ð¸ÑĺÐµ": 3851,
      "Ġnjega": 3852,
      "ĠÑĤÑĢÐ¶": 3853,
      "Ġiako": 3854,
      "Ġode": 3855,
      "ÑĢÐ°Ð½ÑĨÑĥ": 3856,
      "ÑĺÑĥ": 3857,
      "ÐµÐ½ÑĤÐ°": 3858,
      "Äįio": 3859,
      "riju": 3860,
      "jemo": 3861,
      "nomi": 3862,
      "Ġkriti": 3863,
      "Ð¾Ð²Ð°Ð½Ð°": 3864,
      "ĠMinistar": 3865,
      "tnim": 3866,
      "sre": 3867,
      "bolj": 3868,
      "Ġkonku": 3869,
      "Ġnovo": 3870,
      "Ġmla": 3871,
      "Å¾enja": 3872,
      "ĠÑĤÑĢÐ°Ð´": 3873,
      "Ġstude": 3874,
      "Ġvazdu": 3875,
      "Ġanaliza": 3876,
      "stoji": 3877,
      "ĠAu": 3878,
      "ĠÑģÐ¼Ð°ÑĤÑĢ": 3879,
      "ÑĥÑģÐ°": 3880,
      "snih": 3881,
      "Ġovde": 3882,
      "tnu": 3883,
      "Ð±Ðµ": 3884,
      "Ð°Ð±ÐµÐ»Ð°": 3885,
      "ĠÐĲÐ»": 3886,
      "Ð¸ÑĺÑģÐºÐ¸Ñħ": 3887,
      "Ġevra": 3888,
      "ĠÐ´Ð¸ÑĢÐµÐºÑĤ": 3889,
      "rve": 3890,
      "Ð¸ÑĺÐ°Ð½": 3891,
      "Ð¸ÑĢÐ°ÑĺÑĥ": 3892,
      "ĠÑģÐ°Ð²ÑĢÐµÐ¼": 3893,
      "Ġimali": 3894,
      "ĠKu": 3895,
      "Ġrezultata": 3896,
      "ĠÐ¿ÑĢÐµÐ´Ð»": 3897,
      "Ġskup": 3898,
      "ĠÐ¢ÑĢ": 3899,
      "Ð»Ð°ÑĤ": 3900,
      "ĠÐ¿Ð¾Ð³Ð»ÐµÐ´": 3901,
      "Ġco": 3902,
      "ĠÑĥÐ³Ð»": 3903,
      "Ð¸Ð´Ð°": 3904,
      "ĠÑģÐ¼Ð¸ÑģÐ»": 3905,
      "tetu": 3906,
      "Ġodra": 3907,
      "ĠÐ¾Ð½Ð¸": 3908,
      "ĠÐĵÑĢ": 3909,
      "ĠpokuÅ¡a": 3910,
      "Ġparti": 3911,
      "ciona": 3912,
      "ĠÐºÑļÐ¸Ð³": 3913,
      "ĠÑĦÐ¸Ð·": 3914,
      "Ġpotrebe": 3915,
      "ĠmeÄĳunarod": 3916,
      "%)": 3917,
      "ĠreÄį": 3918,
      "bele": 3919,
      "Di": 3920,
      "ĠÏ": 3921,
      "ris": 3922,
      "Ġprvo": 3923,
      "Ġjasno": 3924,
      "Ġodnosa": 3925,
      "ĠNema": 3926,
      "ĠÐ²Ð¸ÑĪ": 3927,
      "Î½": 3928,
      "ĠÐłÐ°Ð´": 3929,
      "ĠÐ¿Ð¾ÑĢÐµÐ´": 3930,
      "ĠÐ¼ÐµÑģÑĤÐ¾": 3931,
      "ĠÑĢÐ°ÑĤÐ°": 3932,
      "Ġopo": 3933,
      "ĠGa": 3934,
      "Ã±": 3935,
      "Ġx": 3936,
      "Ġuzro": 3937,
      "Ġ2018": 3938,
      "br": 3939,
      "SA": 3940,
      "OD": 3941,
      "Ġdinara": 3942,
      "Ġsvr": 3943,
      "ÑĢÐ°Ð½Ðµ": 3944,
      "stica": 3945,
      "ĠÑĥÐ¿ÑĢÐ°Ð²ÑĻ": 3946,
      "lus": 3947,
      "48": 3948,
      "ĠÐ¿Ð¾Ð½Ð°ÑĪ": 3949,
      "Ġfakul": 3950,
      "Ð¸Ð¾Ð½Ð°": 3951,
      "ÐµÐ·Ð°": 3952,
      "Ġsvaka": 3953,
      "Ġvlada": 3954,
      "Ĥ·": 3955,
      "ĠÑģÐ°ÑĢÐ°Ð´": 3956,
      "ĠÐ½ÐµÐ¿ÑĢ": 3957,
      "Ġodsto": 3958,
      "Ġnarod": 3959,
      "niverzi": 3960,
      "ĠÐļÐ°ÑĢ": 3961,
      "KA": 3962,
      "ĠmoguÄĩnosti": 3963,
      "Ð¸ÑĤÐ¾ÑĢ": 3964,
      "ĠÐ±ÑĥÐ´Ðµ": 3965,
      "ĠCo": 3966,
      "Ukoliko": 3967,
      "ÐµÐ»Ñĥ": 3968,
      "Ġsveta": 3969,
      "Ġtret": 3970,
      "ĠÑģÑĤÐµÐ¿": 3971,
      "ĠâĢ¢": 3972,
      "Ġkonta": 3973,
      "uro": 3974,
      "Äĩenja": 3975,
      "ÐµÐ²Ðµ": 3976,
      "ÑģÑĤÐµ": 3977,
      "ĠÑĢÐµÑĦ": 3978,
      "ton": 3979,
      "ÑĤÐ°Ð»": 3980,
      "Ð¾Ð²Ð°Ð¾": 3981,
      "Ð¢Ð°Ðº": 3982,
      "Ġupravo": 3983,
      "ranih": 3984,
      "Ġpretpo": 3985,
      "ĠÐ¿Ð¾ÑģÐ»Ðµ": 3986,
      "lama": 3987,
      "ĠÐ³Ð»Ð°Ñģ": 3988,
      "Ġ2002": 3989,
      "Ġkapita": 3990,
      "É¨Êģ": 3991,
      "Ġpredstav": 3992,
      "rama": 3993,
      "Ġ2003": 3994,
      "Ġmetoda": 3995,
      "ĠÅ¾": 3996,
      "Ġdeta": 3997,
      "rnih": 3998,
      "ĠÐ¾ÑģÐ»": 3999,
      "Ġkvaliteta": 4000,
      "ĠÑĩÐ¸ÑĤ": 4001,
      "gh": 4002,
      "Ġmenja": 4003,
      "Ð¸Ð·Ð¼Ð°": 4004,
      "ĠÐ¿Ð¾ÑĤÐ¿Ñĥ": 4005,
      "Ġprihva": 4006,
      "ĠÑĥÑĩÐµÑģÑĤ": 4007,
      "É¨É¦": 4008,
      "ĠÐ¿ÑĢÐµÐ´Ð²": 4009,
      "kvi": 4010,
      "Ġterapi": 4011,
      "Ð¾ÐºÐ°": 4012,
      "ĠÐ¼ÑĢ": 4013,
      "Ġstre": 4014,
      "Ð°Ð²Ð½Ð¾Ð¼": 4015,
      "dovi": 4016,
      "menzi": 4017,
      "it": 4018,
      "Ġdosta": 4019,
      "Ġgrada": 4020,
      "Ġnasi": 4021,
      "ÑĥÑļ": 4022,
      "ĠmoÅ¾da": 4023,
      "ll": 4024,
      "nin": 4025,
      "ĠzaÅ¡tite": 4026,
      "ĠÑĢÐ¸Ð·": 4027,
      "Ġispitanika": 4028,
      "ĠÐ´Ð¾Ð¼Ð°ÑĽ": 4029,
      "Ð¿Ð¾ÑģÑĤ": 4030,
      "Ġpobolj": 4031,
      "%,": 4032,
      "ME": 4033,
      "ĠÐ¼Ð¾ÑĢÐ°": 4034,
      "ÐµÐ¼Ð±ÑĢÐ°": 4035,
      "Ġ;": 4036,
      "ĠâĢĺ": 4037,
      "ĠsadrÅ¾i": 4038,
      "Å¡enja": 4039,
      "ĠÐ¿Ð¸ÑĤÐ°ÑļÐµ": 4040,
      "Ġregio": 4041,
      "Ġnared": 4042,
      "ĠÐ¾Ð²Ð¸Ñħ": 4043,
      "ĠÐ±ÐµÐ·Ð±ÐµÐ´": 4044,
      "ĠAmeri": 4045,
      "ĠÐ´ÐµÑĦÐ¸Ð½Ð¸Ñģ": 4046,
      "Ġovu": 4047,
      "Ġkorisni": 4048,
      "Ġotvore": 4049,
      "Ð°ÑĤÐ¾ÑĢ": 4050,
      "ĠnajviÅ¡e": 4051,
      "terna": 4052,
      "ĠÑģÐ¼Ð¸ÑģÐ»Ñĥ": 4053,
      "Äĳeni": 4054,
      "ĠÐ´ÐµÐ²": 4055,
      "ĠÐ¸Ð·Ð½Ð¾Ñģ": 4056,
      "ÑĢÐ°Ð·ÑĥÐ¼": 4057,
      "para": 4058,
      "Ġemi": 4059,
      "Ð°ÑĨÐ¸ÑĺÐ°Ð¼Ð°": 4060,
      "ÐµÐºÐ°ÑĤÐ°": 4061,
      "rnog": 4062,
      "É¨ÉĿ": 4063,
      "cione": 4064,
      "nose": 4065,
      "ĠÑĨÐ°ÑĢ": 4066,
      "Ġkvalitet": 4067,
      "Ġnezavi": 4068,
      "ram": 4069,
      "ĠÐĺÐ½": 4070,
      "Ġprizna": 4071,
      "ĠÐºÐ¾Ð¼Ðµ": 4072,
      "Ġpristup": 4073,
      "Bo": 4074,
      "ĠsaobraÄĩa": 4075,
      "70": 4076,
      "Ġtradi": 4077,
      "lnosti": 4078,
      "*''": 4079,
      "ĠIz": 4080,
      "ĠÑĢÐ¾Ð¼": 4081,
      "ÐµÐ²Ð¸": 4082,
      "zacije": 4083,
      "Nakon": 4084,
      "ĠÐļÐ¾Ð½": 4085,
      "ĠÑģÐµÑĢ": 4086,
      "ĠJugo": 4087,
      "ĠÑĢÐ°Ð·ÑĥÐ¼": 4088,
      "Ġuglavnom": 4089,
      "ĠÐµÐ»ÐµÐºÑĤ": 4090,
      "kaz": 4091,
      "Ġhttp": 4092,
      "Ġjedin": 4093,
      "ĠÐºÐ¾ÑĢÐ¸ÑģÑĤÐ¸": 4094,
      "Ġsop": 4095,
      "sak": 4096,
      "ĠÐ½ÐµÐ¼Ð°": 4097,
      "Ġradio": 4098,
      "ĠÐ½Ð°Ð·Ð¸Ð²": 4099,
      "tive": 4100,
      "Ġsebi": 4101,
      "ĠÐ¿ÑĢÐ¾Ð³ÑĢÐ°Ð¼": 4102,
      "ĠduÅ¾i": 4103,
      "Ð¸Ð²ÑĻ": 4104,
      "Ġveka": 4105,
      "ĠZako": 4106,
      "Ð»Ð¸Ðº": 4107,
      "Ð¸ÑĩÑĥ": 4108,
      "Ð¾Ð»Ð¸ÑĤ": 4109,
      "Ġnovih": 4110,
      "roma": 4111,
      "Ġodnos": 4112,
      "ÐµÐ½ÑĤÐ°ÑĢ": 4113,
      "vrede": 4114,
      "ĠvrÅ¡i": 4115,
      "ĠÐ¿Ð¾ÑĪÑĤ": 4116,
      "Ġpart": 4117,
      "Ġkolo": 4118,
      "Ð¾Ð½Ðµ": 4119,
      "Äĳenju": 4120,
      "Å¡ku": 4121,
      "ĠÑģÑĤÐ°Ð½Ð¾Ð²Ð½Ð¸ÑĪÑĤ": 4122,
      "Sta": 4123,
      "Ð¸ÑĤÐµÐºÑĤ": 4124,
      "ĠÑĤÐµÑħÐ½": 4125,
      "Ġredo": 4126,
      "ksu": 4127,
      "ĠÑģÐºÐ»Ð°Ð´": 4128,
      "Ġrazlike": 4129,
      "Ð°ÑļÐ¸Ð¼Ð°": 4130,
      "Ð¸ÑĪÑĥ": 4131,
      "kiva": 4132,
      "Äĳuju": 4133,
      "ĠÐ¼Ð¾Ð½": 4134,
      "Ġkasnije": 4135,
      "Ġgrupi": 4136,
      "ĠÐºÑĢÐ¸ÑĤ": 4137,
      "Ð°ÑĩÐ¸": 4138,
      "Ġpredstavljaju": 4139,
      "Ġdovoljno": 4140,
      "ÐµÐºÐ°ÑĤ": 4141,
      "Ġ35": 4142,
      "nove": 4143,
      "lica": 4144,
      "dima": 4145,
      "Ġintenzi": 4146,
      "rka": 4147,
      "ĠÐ¡ÐĲ": 4148,
      "slov": 4149,
      "ĠrazliÄįite": 4150,
      "Ã³": 4151,
      "ĠstatistiÄįki": 4152,
      "Ġenergije": 4153,
      "ĠuspeÅ¡": 4154,
      "len": 4155,
      "bav": 4156,
      "movi": 4157,
      "lti": 4158,
      "metara": 4159,
      "ĠÐ±ÑĢÐ·": 4160,
      "ĠomoguÄĩa": 4161,
      "ĠÑģÐ°Ð³": 4162,
      "Ġmanji": 4163,
      "Dru": 4164,
      "ĠÐ²ÑĢÐµÐ¼ÐµÐ½Ð°": 4165,
      "fu": 4166,
      "ĠÐ¾Ð³ÑĢÐ°Ð½Ð¸Ñĩ": 4167,
      "Ð¸ÑĨÐ¸ÑĺÐ°": 4168,
      "ĠÐ½ÐµÐ¾Ð¿": 4169,
      "loba": 4170,
      "tkom": 4171,
      "Ġen": 4172,
      "ĠÐ´ÐµÐ»Ñĥ": 4173,
      "ĠRi": 4174,
      "ĠÐ´Ð¾Ð¿ÑĢ": 4175,
      "ĠY": 4176,
      "Ġpoput": 4177,
      "ÐľÐµÑĴÑĥÑĤÐ¸Ð¼": 4178,
      "Ð¿Ð°Ðº": 4179,
      "ĠÐºÑĥÑĽ": 4180,
      "ĠDra": 4181,
      "Ġjezika": 4182,
      "ÐµÐºÑĥ": 4183,
      "gledu": 4184,
      "Ġpoljopri": 4185,
      "lata": 4186,
      "ĠÑĢÐ°Ð·Ð»Ð¸ÑĩÐ¸ÑĤÐ¸Ñħ": 4187,
      "ĠÐ¿ÑĢÐ¸Ð¿Ð°Ð´": 4188,
      "Ġjavlja": 4189,
      "ĠâĢĿ": 4190,
      "ĠsluÄįaj": 4191,
      "ĠÐ½Ð°ÑĺÐ±": 4192,
      "ficije": 4193,
      "rancu": 4194,
      "Ġhemi": 4195,
      "Ġsadr": 4196,
      "ĠÐ¸Ð¼ÐµÐ½": 4197,
      "Ġinformacije": 4198,
      "ÑĥÐ»Ð°ÑĢ": 4199,
      "Î¿": 4200,
      "Ġprofi": 4201,
      "ÐµÑĺÐ°": 4202,
      "Ð¿ÑĢÐ°Ð²": 4203,
      "blje": 4204,
      "rac": 4205,
      "ĠHo": 4206,
      "31": 4207,
      "ĠÐ¿Ð¾Ð´ÑĢÐ°Ð·ÑĥÐ¼": 4208,
      "ĠÐ¸Ð·ÑĢÐ°Ð·": 4209,
      "ÑĨÐµ": 4210,
      "Ġdise": 4211,
      "nala": 4212,
      "Ġniti": 4213,
      "Å¾io": 4214,
      "ĠÑĢÐµÐ°Ð»Ð¸Ð·": 4215,
      "Ġodnose": 4216,
      "ĠÐ¿ÐµÑĤ": 4217,
      "ÐµÐ½ÑĨÐ¸ÑĺÐ°": 4218,
      "ĠÑģÐ²Ð¾ÑĺÐ¸Ð¼": 4219,
      "Ġredu": 4220,
      "KO": 4221,
      "ÐµÐ½ÑĨÐ¸ÑĺÐ°Ð»": 4222,
      "Ġpolu": 4223,
      "ĠbiÄĩe": 4224,
      "ÐµÐ³Ð¾Ð²": 4225,
      "Ġnjihove": 4226,
      "Ovaj": 4227,
      "ÑĤÐ¾ÑĢ": 4228,
      "ĠÑģÐµÐ±": 4229,
      "!!": 4230,
      "rem": 4231,
      "Ġizd": 4232,
      "Ġoslo": 4233,
      "ÐµÐ½Ð¾Ñĺ": 4234,
      "Ġgodinu": 4235,
      "ĠÄįega": 4236,
      "Pred": 4237,
      "Ġ2001": 4238,
      "ÐµÑĢÑĨ": 4239,
      "nskom": 4240,
      "zne": 4241,
      "Ġameri": 4242,
      "Ġprirod": 4243,
      "ruka": 4244,
      "rita": 4245,
      "ĠÑĤÐ°Ñĩ": 4246,
      "Ġizbo": 4247,
      "Ġsopstve": 4248,
      "Ġcilju": 4249,
      "ĠÐ»Ð¸ÑĨÐ°": 4250,
      "ĠizvrÅ¡e": 4251,
      "Ġnovina": 4252,
      "Pored": 4253,
      "ĠteÅ¡ko": 4254,
      "Ġ2020": 4255,
      "Ġmoraju": 4256,
      "ĠÅ¾ena": 4257,
      "vite": 4258,
      "Ġvidu": 4259,
      "ĠistraÅ¾iva": 4260,
      "jskim": 4261,
      "Äįito": 4262,
      "ĠmoÅ¾emo": 4263,
      "Ġstudija": 4264,
      "ĠUkraji": 4265,
      "Ġprinci": 4266,
      "ÑĨÐ¸Ð¼Ð°": 4267,
      "ĠÐ¿ÑĢÐ¾ÑĦÐµÑģ": 4268,
      "nosa": 4269,
      "dnom": 4270,
      "ĠÐºÐ¾ÑĺÐ¸Ñħ": 4271,
      "ĠFa": 4272,
      "Ġbazi": 4273,
      "ĠÐ¼Ð°Ñĺ": 4274,
      "ĠVoj": 4275,
      "LE": 4276,
      "Iako": 4277,
      "ĠSAD": 4278,
      "Ġmedici": 4279,
      "wa": 4280,
      "kr": 4281,
      "bla": 4282,
      "Ġr": 4283,
      "ÉŁÉŀ": 4284,
      "ĠÐ¿ÑĢÐµÑģ": 4285,
      "ĠÐ¼Ð°Ñģ": 4286,
      "Å¡li": 4287,
      "Ð°ÑĨÐ¸ÑĺÐ¾Ð¼": 4288,
      "Ġbilj": 4289,
      "we": 4290,
      "Äįnost": 4291,
      "ngle": 4292,
      "Ġjoj": 4293,
      "Ġit": 4294,
      "Ġmogao": 4295,
      "ĠKra": 4296,
      "ĠÐ¼Ð¾Ð´ÐµÐ»Ð°": 4297,
      "Ġobjavlje": 4298,
      "ĠÐĪÑĥÐ³Ð¾ÑģÐ»Ð°Ð²": 4299,
      "nat": 4300,
      "Ġizbor": 4301,
      "Ġzajedno": 4302,
      "lizacije": 4303,
      "44": 4304,
      "Ð¸ÑĩÐ°ÑĢ": 4305,
      "É¢É§": 4306,
      "Ġodbra": 4307,
      "Ð¸ÑĺÑģÐºÐ¾Ð³": 4308,
      "ĠÑĺÐ°Ñģ": 4309,
      "Ġfaktora": 4310,
      "ĠÐ¼ÐµÑģ": 4311,
      "chi": 4312,
      "ĠÐºÑĥÐ¿": 4313,
      "É¨Éª": 4314,
      "Ġreal": 4315,
      "Ġorganizacije": 4316,
      "Ġkojem": 4317,
      "Ð¸ÑĢÐ°Ð½": 4318,
      "ÐµÐ²Ð¸Ð¼Ð°": 4319,
      "ÐµÐ³ÑĢ": 4320,
      "Ima": 4321,
      "Ð°ÑŁ": 4322,
      "Ð¸ÑĤÑĢ": 4323,
      "ĠÐ¸Ñģ": 4324,
      "Ġjednu": 4325,
      "ena": 4326,
      "01": 4327,
      "É©": 4328,
      "paci": 4329,
      "Ġslika": 4330,
      "Ð²Ð¾ÑĺÐµ": 4331,
      "ĠÐ¾ÑĨ": 4332,
      "Ġzapa": 4333,
      "veo": 4334,
      "ĠÐµÐ½ÐµÑĢÐ³": 4335,
      "ĠÐ¡ÑĢÐ¿": 4336,
      "ĠÐ´ÑĢÑĥÐ³Ð¸Ð¼": 4337,
      "Ġizne": 4338,
      "ĠniÅ¡ta": 4339,
      "Ð°Ð»Ð½Ð¸Ð¼": 4340,
      "ÑĢÑħ": 4341,
      "ĠÐ´Ð°ÑĤ": 4342,
      "Ġpodrazumeva": 4343,
      "ĠÐ½Ð¸Ð²Ð¾Ñĥ": 4344,
      "Ġnedosta": 4345,
      "Ġum": 4346,
      "Ġope": 4347,
      "njenja": 4348,
      "Ġkraj": 4349,
      "ĠLu": 4350,
      "Ġunapre": 4351,
      "lnoj": 4352,
      "Ġusled": 4353,
      "32": 4354,
      "Ġkoncep": 4355,
      "Ð¾Ð·Ð½": 4356,
      "ĠÐ¾Ð´Ð³Ð¾Ð²Ð°ÑĢ": 4357,
      "ĠÐºÐ°ÑĤÐµÐ³": 4358,
      "ĠÐ¸Ð·Ð²Ð¾ÑĢ": 4359,
      "Ġmladi": 4360,
      "Ġprograma": 4361,
      "ĠÐºÐ°Ð·": 4362,
      "Ġpreda": 4363,
      "ĠÐ¾ÑĤÐ²Ð¾ÑĢ": 4364,
      "ÐµÑĪÑĤÐ¾": 4365,
      "stima": 4366,
      "ĠÐ¿Ð¾Ð»Ð¾Ð¶": 4367,
      "Ġsvog": 4368,
      "Ð¸ÑĩÐ½Ð¾ÑģÑĤÐ¸": 4369,
      "ÑĥÑĢÑĥ": 4370,
      "ĠÐ¾Ð±ÑĥÑħ": 4371,
      "ĠÐ¾Ð±Ð»Ð¸Ðº": 4372,
      "ĠÐ±Ð¾Ð³": 4373,
      "Ġnivoa": 4374,
      "ĠÐ¾ÐºÐ¾Ð»": 4375,
      "Ġrazloga": 4376,
      "ĠsadrÅ¾aj": 4377,
      "Ð¸ÑģÐ°": 4378,
      "Äĳene": 4379,
      "Si": 4380,
      "Ġ2019": 4381,
      "ÑĢÐ°Ð´Ð°": 4382,
      "ĠÄįlan": 4383,
      "ĠrazliÄįitim": 4384,
      "lost": 4385,
      "ĠÑģÐ¿Ð¾ÑĢ": 4386,
      "198": 4387,
      "Ġklu": 4388,
      "ĠsadrÅ¾aja": 4389,
      "ĠÐ¾ÑĤÐ¿": 4390,
      "Ġdaje": 4391,
      "ĠÐĳÐµÐ¾Ð³ÑĢÐ°Ð´Ñĥ": 4392,
      "ĠÑĤÐµÐ¶": 4393,
      "Å¡tine": 4394,
      "ĠÐ¿ÑĢÑĥÐ¶": 4395,
      "ĠÐ´Ð¾Ð¿ÑĢÐ¸Ð½": 4396,
      "zaj": 4397,
      "Sva": 4398,
      "ĠZA": 4399,
      "ĠÐºÐ°ÑģÐ½Ð¸ÑĺÐµ": 4400,
      "ĠÑģÐ²ÐµÐ³Ð°": 4401,
      "ĠÑĥÐ·ÑĢ": 4402,
      "tru": 4403,
      "Ð°ÑĢÑħ": 4404,
      "ĠÐ½Ð¾ÑĢÐ¼": 4405,
      "Ð¾Ð²Ð¾Ð¼": 4406,
      "Ġuvo": 4407,
      "zam": 4408,
      "ĠÑģÐµÐº": 4409,
      "Ð¾ÑĻÐµ": 4410,
      "ĠÑģÐ²Ð¾ÑĺÑĥ": 4411,
      "Se": 4412,
      "Ð½ÐµÐ²": 4413,
      "ĠÐ³ÑĢÑĥÐ¿Ð°": 4414,
      "Ġstanja": 4415,
      "Äįeno": 4416,
      "Ġzakon": 4417,
      "ĠÐ³Ð»Ð°Ð³": 4418,
      "mbra": 4419,
      "Ġpodaci": 4420,
      "Ġ31": 4421,
      "kuplja": 4422,
      "ÑĢÐ¾ÑĪ": 4423,
      "ĠÐĿÐ¸Ðº": 4424,
      "Ġpsiho": 4425,
      "OR": 4426,
      "kula": 4427,
      "Ġstaro": 4428,
      "ÑĺÐµÑĤ": 4429,
      "ĠÐ¸Ð·ÑĢÐ°Ð¶": 4430,
      "ĠÐ¿ÑĢÐ¾Ð²": 4431,
      "Ġpripada": 4432,
      "Ġstvar": 4433,
      "ĠÐ¿ÑĢÐ¸ÑĢÐ¾Ð´": 4434,
      "Ġpredsednik": 4435,
      "Ġipak": 4436,
      "ĠÐ¼Ð°Ñļ": 4437,
      "ĠÑģÐµÐ¼": 4438,
      "Ġdne": 4439,
      "Ð¸ÑģÐ°Ð¾": 4440,
      "dÅ¾e": 4441,
      "75": 4442,
      "Ġisko": 4443,
      "ĠSte": 4444,
      "Ð¸ÑĩÐºÐ¸Ð¼": 4445,
      "zno": 4446,
      "Ġspecija": 4447,
      "ĠÐ´Ð¸ÑģÐº": 4448,
      "kupa": 4449,
      "Ġrezultat": 4450,
      "Ġodli": 4451,
      "Ġnalaze": 4452,
      "Ġosim": 4453,
      "Ð¸ÐºÐ°Ñģ": 4454,
      "ĠÐĴÐµÐ»": 4455,
      "ture": 4456,
      "ĠHe": 4457,
      "Ð¢Ð¾": 4458,
      "Ð°ÑĤÐ¸Ð²Ð½Ð¾": 4459,
      "ĠÐ°ÑĥÑĤÐ¾ÑĢ": 4460,
      "ĠÄĩemo": 4461,
      "ĠoÅ¡te": 4462,
      "tina": 4463,
      "Ġzahva": 4464,
      "Ġsce": 4465,
      "Ġaspe": 4466,
      "Ð¾Ð»Ð¾Ð³Ð¸ÑĺÐµ": 4467,
      "nijih": 4468,
      "nskim": 4469,
      "ĠÐ´Ð¾ÑĪ": 4470,
      "Ġuni": 4471,
      "Ġkreta": 4472,
      "vnu": 4473,
      "Ð°Ð´Ðµ": 4474,
      "Ġkonsta": 4475,
      "ĠÑĤÑĥÐ¼": 4476,
      "gom": 4477,
      "Ð¾Ð½Ð¸": 4478,
      "Ġzavisi": 4479,
      "ĠÐ¿ÑĢÐ¾ÑĨÐµÑģÐ°": 4480,
      "Ġulogu": 4481,
      "ĠÐ¿Ñģ": 4482,
      "stribu": 4483,
      "ĠÐ´ÐµÐ¼": 4484,
      "ĠÐ´Ð¾Ð³Ð°ÑĴ": 4485,
      "Ġizgrad": 4486,
      "Ġprepozna": 4487,
      "ĠÑĩÐ°Ñģ": 4488,
      "sur": 4489,
      "ĠGra": 4490,
      "Ġtoliko": 4491,
      "ĠÐ¿ÑĢÐ¸Ð½ÑĨÐ¸Ð¿": 4492,
      "ĠoÄįi": 4493,
      "fikova": 4494,
      "49": 4495,
      "ĠdruÅ¡tva": 4496,
      "ĠÐºÐ¾Ð½ÑĤÐµÐºÑģÑĤ": 4497,
      "Ġviru": 4498,
      "Ġzavisnosti": 4499,
      "Ġbih": 4500,
      "ĠplaÄĩa": 4501,
      "ĠÑĢÐ°Ð´Ñĥ": 4502,
      "ĠÑģÐ¿Ð¾ÑģÐ¾Ð±": 4503,
      "www": 4504,
      "laca": 4505,
      "ĠÐ·Ð²": 4506,
      "Ġuticaja": 4507,
      "ĠÐ¾ÑģÑĤÐ°Ð»": 4508,
      "ĠÐ°ÑĢÑħÐ¸ÑĤÐµÐºÑĤ": 4509,
      "Äįar": 4510,
      "ld": 4511,
      "bama": 4512,
      "Ġmole": 4513,
      "Ġposao": 4514,
      "AR": 4515,
      "Ġodred": 4516,
      "ĠÐ¿ÑĢÐ¸Ð·": 4517,
      "Ġ[": 4518,
      "ĠpoboljÅ¡a": 4519,
      "Ġinformacija": 4520,
      "ĠPu": 4521,
      "dila": 4522,
      "ista": 4523,
      "ÐµÐ·ÐµÐ½ÑĤ": 4524,
      "ĠduÅ¾": 4525,
      "Ġznanja": 4526,
      "ĠÑģÐ¼ÑĢÑĤ": 4527,
      "Ð¾Ð¿ÑĪÑĤ": 4528,
      "ĠÐ¾Ð´Ð½Ð¾ÑģÐ°": 4529,
      "Ġrade": 4530,
      "Ba": 4531,
      "ÐµÑĤÑĥ": 4532,
      "Ð°ÑĢÑĤ": 4533,
      "ÑģÑĥ": 4534,
      "É¨Éŀ": 4535,
      "Be": 4536,
      "IV": 4537,
      "godine": 4538,
      "ĠÐĿÐµÐ¼": 4539,
      "juma": 4540,
      "ĠÑĺÐµÐ´Ð½Ð¾Ð³": 4541,
      "rona": 4542,
      "ĠÑħÐ¸Ð¿": 4543,
      "Ġrata": 4544,
      "ĠÐ½ÐµÐ¾Ð¿ÑħÐ¾Ð´": 4545,
      "ĠÐ±Ð¸Ð»Ðµ": 4546,
      "Ġvrati": 4547,
      "Ġnagla": 4548,
      "ĠÐºÐ¾ÑĢÐ¸Ñģ": 4549,
      "Ġodu": 4550,
      "mpi": 4551,
      "Ġjednostav": 4552,
      "ĠÐ¿ÑĢÐµÐ½": 4553,
      "ĠÑĥÐ²ÐµÐº": 4554,
      "Ð¾Ð²Ð¸ÑĽÐ°": 4555,
      "ĠÐ¾Ð½Ðµ": 4556,
      "Ġfotografi": 4557,
      "loÅ¡ke": 4558,
      "Ġrekla": 4559,
      "ĠÐ¿Ð¾ÐºÑĥÑĪ": 4560,
      "Ġsubje": 4561,
      "Ġdiserta": 4562,
      "rala": 4563,
      "ÑĢÐ°Ð´Ðµ": 4564,
      "ÑĥÑĪÐº": 4565,
      "ĠPra": 4566,
      "Ġvisi": 4567,
      "Ġiste": 4568,
      "zenta": 4569,
      "ĠThe": 4570,
      "ĠÐ¿Ð¾ÑģÑĤÐ°Ð²ÑĻ": 4571,
      "ĠÑĤÐµÐ»": 4572,
      "ĠÐ´Ð°ÑĻÐµ": 4573,
      "ĠÑĥÐ·Ð¾ÑĢ": 4574,
      "viÄĩa": 4575,
      "Ġposledica": 4576,
      "Ġtih": 4577,
      "ĪĴ": 4578,
      "vale": 4579,
      "ĠÑģÐ¼Ð°ÑĤ": 4580,
      "ĠÐ¿ÑĢÐ¸Ñģ": 4581,
      "ÉļÉ¬": 4582,
      "Ġsazna": 4583,
      "Ð¾Ð½Ñĥ": 4584,
      "njen": 4585,
      "ĠÑĩÐ°Ðº": 4586,
      "Ġ45": 4587,
      "Ġostvari": 4588,
      "ĠÐ²ÐµÐ·Ð¸": 4589,
      "oni": 4590,
      "lini": 4591,
      "Ġpropisa": 4592,
      "rin": 4593,
      "zultati": 4594,
      "vcu": 4595,
      "Ġsavreme": 4596,
      "Ġodma": 4597,
      "Ġproto": 4598,
      "por": 4599,
      "ĠÑģÐ²Ð¸Ð¼": 4600,
      "65": 4601,
      "Ã°": 4602,
      "ÐĬ": 4603,
      "bine": 4604,
      "Ġporta": 4605,
      "ĠpoÄįi": 4606,
      "Ġponovo": 4607,
      "gita": 4608,
      "ĠÐ¿ÑĢÐ¸Ð»Ð¸ÐºÐ¾Ð¼": 4609,
      "gar": 4610,
      "ĠnajÄįeÅ¡Äĩe": 4611,
      "ĠÑĩÐµÐ¼Ñĥ": 4612,
      "ĠÐ¸Ð½ÑģÑĤÐ¸ÑĤÑĥÑĨ": 4613,
      "vid": 4614,
      "Ġkontek": 4615,
      "Ġkata": 4616,
      "nicija": 4617,
      "Ġzema": 4618,
      "Ġstanje": 4619,
      "ljena": 4620,
      "Ġsredine": 4621,
      "grada": 4622,
      "ĠÐ±ÑĢÐ¾ÑĺÐ°": 4623,
      "ĠnadleÅ¾": 4624,
      "kazi": 4625,
      "ĠÐ¿ÑĢÐ¸Ð²ÑĢÐµÐ´": 4626,
      "Ð¾ÐºÑģ": 4627,
      "ÑĢÑĥÐºÑĨ": 4628,
      "Ġunutar": 4629,
      "Ġtipa": 4630,
      "rina": 4631,
      "Le": 4632,
      "Ġkriteri": 4633,
      "ĠÑĤÐµÑĪ": 4634,
      "ÑĥÐ·ÐµÑĤ": 4635,
      "Ġkonstru": 4636,
      "SI": 4637,
      "Ġmarke": 4638,
      "Ġozbi": 4639,
      "Va": 4640,
      "Ġpomenu": 4641,
      "ĠÑĤÑĢÐ°Ð½Ñģ": 4642,
      "Ġy": 4643,
      "ĠÐ´Ð¾Ð±Ð¸ÑĺÐµ": 4644,
      "ĠÑĢÐµÐ·ÑĥÐ»ÑĤÐ°ÑĤ": 4645,
      "Ġsara": 4646,
      "stom": 4647,
      "Ġnajbolje": 4648,
      "ĠÐ¸ÑģÐ¿Ð¸ÑĤÐ°Ð½Ð¸ÐºÐ°": 4649,
      "ÑĥÑĤÐ°": 4650,
      "kci": 4651,
      "Ð°Ð²Ð¸Ñģ": 4652,
      "Ġaktivnost": 4653,
      "ĠRS": 4654,
      "ÑĥÐ¼Ð°": 4655,
      "ÑĤÐµ": 4656,
      "Ð¸ÑĩÐ°Ð½": 4657,
      "ĠPar": 4658,
      "á½": 4659,
      "ÐµÑĢÐµ": 4660,
      "ĠÐ¾Ð´Ð½Ð¾ÑģÐ¸": 4661,
      "ĠÐ¼Ð¸": 4662,
      "Ġonih": 4663,
      "ĠÐ¾Ð·Ð½Ð°Ñĩ": 4664,
      "ĠÐºÐ°Ð´": 4665,
      "beli": 4666,
      "ĠÐ´ÑĢÐ¶Ð°Ð²Ð°": 4667,
      "ĠÅ¾a": 4668,
      "vaja": 4669,
      "ted": 4670,
      "Ñı": 4671,
      "Tre": 4672,
      "Ġprogram": 4673,
      "ĠpoloÅ¾a": 4674,
      "ĠZe": 4675,
      "Ġinterak": 4676,
      "ĠreÅ¡enja": 4677,
      "Ġ!": 4678,
      "ljen": 4679,
      "ÐĿÐ°Ñĺ": 4680,
      "Ġizbe": 4681,
      "ĠÐ¸Ð½ÑĦ": 4682,
      "ÐµÐ½Ð¸ÐºÐ°": 4683,
      "ĠPi": 4684,
      "ĠÐ¾Ð²Ð°": 4685,
      "ĠÐ¿Ð¸ÑĤÐ°ÑļÐ°": 4686,
      "Ġcelo": 4687,
      "É¢É¬": 4688,
      "ÑĢÐ°ÑĻ": 4689,
      "Ð¸ÑģÑĤÐ°ÑĢ": 4690,
      "Ð¾Ð·Ð²": 4691,
      "Jo": 4692,
      "dije": 4693,
      "ĠÐ¿ÑĢÐµÐ´Ð¼ÐµÑĤ": 4694,
      "ĠÑģÑħ": 4695,
      "Å¡Äĩa": 4696,
      "ljno": 4697,
      "Ġkapaci": 4698,
      "ĠÐ¾Ð½Ð¾": 4699,
      "Ġranije": 4700,
      "ĠÐ¸Ð·Ð°Ð·": 4701,
      "ÉļÉ¥": 4702,
      "Ð¸Ð·Ð°Ð¼": 4703,
      "ĠÑĺÐµÐ´Ð½Ð°": 4704,
      "ĠÑĥÑĩÐµÐ½Ð¸ÐºÐ°": 4705,
      "ĠÑĨÐµÐ½ÑĤÑĢ": 4706,
      "ĠÐ´Ð°Ð½Ð°Ñģ": 4707,
      "sen": 4708,
      "Ġministar": 4709,
      "Ġpostavlja": 4710,
      "ĠÐ¾Ð´Ð»ÑĥÑĩ": 4711,
      "stvom": 4712,
      "ĠÑĺÐµÐ´Ð½Ð¾Ð¼": 4713,
      "alka": 4714,
      "ÐµÐ½ÑĤÐ¸": 4715,
      "Ġperiod": 4716,
      "ĠFi": 4717,
      "Ġpoma": 4718,
      "volja": 4719,
      "graf": 4720,
      "ĠÑģÑĢÐµÐ´Ñļ": 4721,
      "46": 4722,
      "Ġposve": 4723,
      "ÑĩÐµÑĪÑĽÐµ": 4724,
      "90": 4725,
      "Ġizgleda": 4726,
      "Ġmnogi": 4727,
      "Ġnisam": 4728,
      "Ġnase": 4729,
      "get": 4730,
      "ÊĦ": 4731,
      "Ð¸ÑģÑĤÐ¸ÑĩÐºÐµ": 4732,
      "Ġsezo": 4733,
      "Ġforma": 4734,
      "ĠÐ¿ÑĢÐ²ÐµÐ½": 4735,
      "Ð¸Ð²ÑĢÐµÐ´": 4736,
      "ĠNiko": 4737,
      "Ġrizika": 4738,
      "ĠÐ´Ð¾Ð½": 4739,
      "Ġ80": 4740,
      "ĠÐ°ÑģÐ¿": 4741,
      "ĠÐ·Ð°Ð¿Ð¾ÑģÐ»": 4742,
      "ĠÑĥÐ³": 4743,
      "Ġkulture": 4744,
      "liÄĩ": 4745,
      "ĠÑģÑĥÐ±Ñĺ": 4746,
      "sim": 4747,
      "Ð´ÑĢÐ°Ð²": 4748,
      "ĠÐ¸Ð·Ð½": 4749,
      "lice": 4750,
      "ĠÐ·Ð°Ð´Ð°ÑĤ": 4751,
      "ĠsluÅ¾be": 4752,
      "nike": 4753,
      "Ð¸Ð½ÑģÐºÐ¸": 4754,
      "ĠÐ·Ð°ÑĤÐ¸Ð¼": 4755,
      "mora": 4756,
      "cionih": 4757,
      "ĠÐ·ÐµÐ¼ÑĻÐµ": 4758,
      "Ġformu": 4759,
      "ĠÑĤÑĺ": 4760,
      "ĠÐ¼ÐµÑĤÐ¾Ð´": 4761,
      "ĠveÄĩa": 4762,
      "Ġniko": 4763,
      "Ġskoro": 4764,
      "ĠÐ¼Ð¾Ð³ÑĥÑĽÐµ": 4765,
      "Ġdostup": 4766,
      "Ġkoncentracije": 4767,
      "Ġblo": 4768,
      "ĠÐĬ": 4769,
      "ĠÐ¿ÑĢÐ¸Ð´": 4770,
      "VE": 4771,
      "Ġprevo": 4772,
      "Ð¾ÑĺÐ°": 4773,
      "loÅ¡kih": 4774,
      "telji": 4775,
      "govi": 4776,
      "Ð°ÑĩÐºÐ¸": 4777,
      "47": 4778,
      "ĠÐ¼Ð»Ð°Ð´": 4779,
      "ĠJugosla": 4780,
      "rano": 4781,
      "CA": 4782,
      "MI": 4783,
      "ĠÑĺÐµÑģÑĤÐµ": 4784,
      "sional": 4785,
      "Ð°Ð²Ð½Ð¾": 4786,
      "ĠLo": 4787,
      "Ġmetode": 4788,
      "Ġhidro": 4789,
      "ĠÐ¿ÑĢÐ¸Ð¼ÐµÑļ": 4790,
      "gram": 4791,
      "Ð¾Ð´Ð¸Ð½Ðµ": 4792,
      "ĠiskljuÄįi": 4793,
      "Ð°ÐºÑĥÐ»ÑĤ": 4794,
      "ĠÄįiji": 4795,
      "udba": 4796,
      "The": 4797,
      "Ġzame": 4798,
      "Äįena": 4799,
      "Ġarhi": 4800,
      "math": 4801,
      "vidu": 4802,
      "Go": 4803,
      "Ð¸ÑĺÐ°Ð»Ð°": 4804,
      "Ġemo": 4805,
      "Ġ70": 4806,
      "Ð°Ð²Ð°ÑļÑĥ": 4807,
      "SE": 4808,
      "dekva": 4809,
      "sve": 4810,
      "ĠÐ¼Ð°ÑļÐµ": 4811,
      "Ð¸ÐºÐ»": 4812,
      "Ð°ÑĤÐ¸Ð²Ð½Ðµ": 4813,
      "Ġfeno": 4814,
      "ĠveÄĩe": 4815,
      "ĠÐ¾Ð¿ÐµÑĢ": 4816,
      "Ġsasta": 4817,
      "ĠÐ¾ÑģÐ½": 4818,
      "boli": 4819,
      "eficije": 4820,
      "Ã¢": 4821,
      "Ġlako": 4822,
      "Ð¾ÐºÐ¾Ð¼": 4823,
      "Ġosobe": 4824,
      "ĠÑĤÑĢÐµÐ½ÑĥÑĤ": 4825,
      "Ð¼Ð¾": 4826,
      "Ġkompanije": 4827,
      "Ð°Ð·Ð´": 4828,
      "Ġinstru": 4829,
      "ĠÐ¾Ð±ÑĺÐ°Ð²ÑĻ": 4830,
      "les": 4831,
      "Ð¾Ð»Ð¾ÑĪÐºÐ¸": 4832,
      "ĠraÄįu": 4833,
      "Å¡tvo": 4834,
      "ĠHrvat": 4835,
      "ĠÑĤÑĢÐ°Ð´Ð¸ÑĨ": 4836,
      "ÑĢÐµÐ¼ÐµÐ½Ð¾": 4837,
      "Kod": 4838,
      "Ġistori": 4839,
      "ĠÐ¼Ð¾Ð³ÑĥÑĽÐ½Ð¾ÑģÑĤ": 4840,
      "Ġukazuje": 4841,
      "ĠÐ¿ÑĥÑĤÐ°": 4842,
      "Ð¾Ð»Ð¾Ð³Ð¸ÑĺÐ°": 4843,
      "vori": 4844,
      "Ġevrop": 4845,
      "Ġdoba": 4846,
      "Ġpokazuje": 4847,
      "pote": 4848,
      "Ġprakti": 4849,
      "rea": 4850,
      "Ġstavo": 4851,
      "Ġ1999": 4852,
      "Ġpodatke": 4853,
      "É«É¤": 4854,
      "Ġprimene": 4855,
      "Ġsvojih": 4856,
      "Ġzemalja": 4857,
      "ĠÑĽÐµÐ»": 4858,
      "ĠÐ¾Ð¿ÑĤ": 4859,
      "Ġkole": 4860,
      "ĠÑĥÑģÐ¿Ð¾ÑģÑĤ": 4861,
      "klu": 4862,
      "ĠÐ¼Ð¸Ð»": 4863,
      "ĠÑģÐ°ÑģÑĤ": 4864,
      "pti": 4865,
      "Ġopisa": 4866,
      "laÅ¾e": 4867,
      "DE": 4868,
      "ĠÐ¿ÑĢÐ¾Ð¼ÐµÐ½Ðµ": 4869,
      "ĠÐ¼Ð¸ÑĪÑĻ": 4870,
      "Ð²Ð¸Ð¼": 4871,
      "ĠÐ¿Ð¾Ð·Ð½Ð°ÑĤ": 4872,
      "Ð°ÐºÐ»Ðµ": 4873,
      "Pe": 4874,
      "Ð½Ð¸ÑĨÐ¸Ð¼Ð°": 4875,
      "Ġnjegove": 4876,
      "Ġzabra": 4877,
      "vÅ¡i": 4878,
      "ĠÐ·Ð°ÑģÑĤ": 4879,
      "ĠÐ¿Ð¾Ð·Ð¸ÑĤÐ¸Ð²": 4880,
      "Ġteme": 4881,
      "ĠÐ¿Ð¾ÑģÐ»Ð¾Ð²": 4882,
      "ĠmuÅ¡ka": 4883,
      "Ġreda": 4884,
      "ĠÑģÐºÐ»Ð°Ð´Ñĥ": 4885,
      "ĠÊģ": 4886,
      "ĠÐ½ÐµÑĪÑĤÐ¾": 4887,
      "ÐĮ": 4888,
      "Ġj": 4889,
      "Ġnjegov": 4890,
      "Ġmogli": 4891,
      "Ġrazvija": 4892,
      "Ġvozila": 4893,
      "Ġdimenzi": 4894,
      "ĠÑĥÐ½ÑĥÑĤÑĢ": 4895,
      "Ġat": 4896,
      "ĠÐ¿ÑĢÐ¾ÑĺÐµÐºÑĤ": 4897,
      "ĠÑĥÑĩÐµÑģÑĤÐ²": 4898,
      "ĠVuÄįiÄĩ": 4899,
      "Ġ90": 4900,
      "ĠÐ¼Ð°ÑĤÐµÑĢÐ¸ÑĺÐ°Ð»": 4901,
      "naÄįe": 4902,
      "Ġpogledu": 4903,
      "ĠÐ²ÐµÐ»Ð¸ÐºÐ¸": 4904,
      "ara": 4905,
      "ĠÐ¾ÑĤÐºÑĢ": 4906,
      "Ġmehani": 4907,
      "É¢É¯": 4908,
      "Ġprostora": 4909,
      "Ð¾Ð½Ð´": 4910,
      "ĠÑĥÐ¾Ñĩ": 4911,
      "Ġdra": 4912,
      "vaj": 4913,
      "Ġtela": 4914,
      "ĠÐ²Ð»Ð°ÑģÑĤÐ¸": 4915,
      "55": 4916,
      "njena": 4917,
      "ĠÑģÐ¿ÐµÑĨÐ¸ÑĦ": 4918,
      "Ġuzima": 4919,
      "Ġstanovni": 4920,
      "Ġmali": 4921,
      "Ġgodini": 4922,
      "Ð¾Ð²Ð°Ð½Ð¸": 4923,
      "Ġpodi": 4924,
      "leko": 4925,
      "Ġcm": 4926,
      "sme": 4927,
      "rava": 4928,
      "Ġsredstava": 4929,
      "Ġpotom": 4930,
      "ĠÐ´ÑĢÑĥÑĪÑĤÐ²Ð°": 4931,
      "Li": 4932,
      "Ð¸ÑĩÐºÐ¾Ð¼": 4933,
      "Ġminuta": 4934,
      "Ġboga": 4935,
      "Ġprivred": 4936,
      "ÐŀÑģ": 4937,
      "ĠÐ¿ÑĢÐ¾Ð¿": 4938,
      "ĠÐ¿ÑĢÐ¾Ð¿Ð¸Ñģ": 4939,
      "Ġvoda": 4940,
      "NK": 4941,
      "Ġtrenutku": 4942,
      "Ġtamo": 4943,
      "É¡": 4944,
      "Ġitd": 4945,
      "Ġimala": 4946,
      "ĠÑĤÑĢÐ³Ð¾Ð²": 4947,
      "67": 4948,
      "Ġdrugog": 4949,
      "Ġsum": 4950,
      "Ġtesti": 4951,
      "Ð¸Ð²Ð°ÑļÑĥ": 4952,
      "Ġpreva": 4953,
      "Ġsupro": 4954,
      "ĠâĢĻ": 4955,
      "Ġcent": 4956,
      "ĠÑĢÐµÐ²": 4957,
      "Ð°ÑĩÐºÐ°": 4958,
      "Ð¼Ð°ÑĤÑĢ": 4959,
      "Ġvelike": 4960,
      "ĠÐ¸Ð·ÑĢ": 4961,
      "Ġmaksima": 4962,
      "ntar": 4963,
      "dnost": 4964,
      "VA": 4965,
      "Ġdovodi": 4966,
      "ruje": 4967,
      "Ð°Ð²Ð¸Ð¾": 4968,
      "Ð¸ÑĩÐºÐ¾": 4969,
      "Ġkona": 4970,
      "Ġdrugom": 4971,
      "Ġmm": 4972,
      "miÅ¡lja": 4973,
      "sanje": 4974,
      "ĠÑĺÐµÐ·Ð¸ÐºÑĥ": 4975,
      "Ġ'": 4976,
      "Ġsinte": 4977,
      "Ġreci": 4978,
      "Ð»Ð°ÑĴ": 4979,
      "ĠÐ²Ð¸Ð´Ñĥ": 4980,
      "Ġtime": 4981,
      "ÐĺÑģÑĤ": 4982,
      "Äĩenje": 4983,
      "ĠÑģÐ²Ð¾Ð¼": 4984,
      "ĠGe": 4985,
      "sred": 4986,
      "ĠAr": 4987,
      "njuju": 4988,
      "ĠÐ½Ð¸Ð·": 4989,
      "ĠÑģÐ¼Ð°ÑĤÑĢÐ°": 4990,
      "Ġvest": 4991,
      "ÑĢÐ¸": 4992,
      "ĠÑĺÐµÐ´Ð½Ðµ": 4993,
      "ĠÑģÑĤÐ°Ð½Ð´Ð°ÑĢÐ´": 4994,
      "ĠÐ»Ð¸Ðº": 4995,
      "ĠÑģÑĥÐ¿": 4996,
      "nke": 4997,
      "ĠMilo": 4998,
      "Ġpokazuju": 4999,
      "ĠÐ½Ð¸Ðº": 5000,
      "tlji": 5001,
      "snog": 5002,
      "SP": 5003,
      "nicama": 5004,
      "kciju": 5005,
      "ĠÉ¡": 5006,
      "ĠÐŀÑģ": 5007,
      "Ġsvakog": 5008,
      "ph": 5009,
      "Ġ190": 5010,
      "Zbog": 5011,
      "Ð¸ÑĤÐ°Ð½": 5012,
      "Ġstrana": 5013,
      "Äįen": 5014,
      "Ġruko": 5015,
      "Ġproizvodnje": 5016,
      "sis": 5017,
      "ĠÐ¼ÑĢÐµÐ¶": 5018,
      "ĠÐ·Ð½Ð°ÑĩÐ°ÑĺÐ½Ð¾": 5019,
      "--": 5020,
      "Ġsredstva": 5021,
      "Ġpreporu": 5022,
      "Ġdokumenta": 5023,
      "ĠSlo": 5024,
      "Ġke": 5025,
      "ĠproÅ¡": 5026,
      "pusti": 5027,
      "ĠÑĤÑĢÐ°Ð½": 5028,
      "ĠÑĩÐ¸Ð½Ð¸": 5029,
      "ĠKoso": 5030,
      "ĠÉ¬": 5031,
      "Ġcena": 5032,
      "ĠÅ¾eli": 5033,
      "Ġmeseci": 5034,
      "Äįeni": 5035,
      "Ġnosi": 5036,
      "Ð¼Ð¸": 5037,
      "Ġfunkcije": 5038,
      "ĠzaÅ¡titu": 5039,
      "Ġ*": 5040,
      "Ġgloba": 5041,
      "Ġzvani": 5042,
      "ĠÐ¾ÐºÑĢÑĥÐ¶": 5043,
      "Ð°Ð´Ñĥ": 5044,
      "Ġpristupa": 5045,
      "Ð±Ð¸": 5046,
      "Ð°Ð½Ð¾Ð¼": 5047,
      "ĠÑĤÑĢÐ°Ñĺ": 5048,
      "Ġmera": 5049,
      "Ġnjihovog": 5050,
      "Äįuje": 5051,
      "jevima": 5052,
      "ĠÑĥÐ³Ð»Ð°Ð²Ð½Ð¾Ð¼": 5053,
      "Ġkomentara": 5054,
      "ĠÐ¿Ð°ÑĢÐ°Ð¼": 5055,
      "Ġeksperimenta": 5056,
      "ĠÐ¸Ð½Ð²": 5057,
      "ĠÐ´Ð¾ÐºÑĥÐ¼": 5058,
      "ĠÐ¸Ð·Ð²ÐµÑĪÑĤ": 5059,
      "ĠKon": 5060,
      "ĠtroÅ¡ko": 5061,
      "Ð²Ð°ÑĤÐ°": 5062,
      "Ð¾Ð²Ð¾Ð³": 5063,
      "ĠvaÅ¡e": 5064,
      "Ð¾Ð½ÑĤ": 5065,
      "veta": 5066,
      "Å¾o": 5067,
      "ÊĤ": 5068,
      "ĠÑĢÑĥ": 5069,
      "Å¾ila": 5070,
      "Ġmg": 5071,
      "78": 5072,
      "Ð¾ÑĽÐ¸": 5073,
      "ĠÐłÐµÐ¿ÑĥÐ±Ð»Ð¸ÐºÐµ": 5074,
      "ĠÐ¶ÐµÐ½": 5075,
      "ĠÐµÑĦÐ¸ÐºÐ°Ñģ": 5076,
      "Ð¸ÑĩÐ½Ð¸Ð¼": 5077,
      "ĠbaÅ¡": 5078,
      "Ġgod": 5079,
      "Ã«": 5080,
      "Ð¾Ð´Ð°Ð²": 5081,
      "Ġdej": 5082,
      "Ġresur": 5083,
      "dera": 5084,
      "dar": 5085,
      "Ð¸ÑĪÑĤÑĥ": 5086,
      "ĠÄįetvr": 5087,
      "ĠÐºÐ°Ð½": 5088,
      "Ġstudije": 5089,
      "misli": 5090,
      "roj": 5091,
      "Ġprisustvo": 5092,
      "ĠÐ¸ÑģÑĤÐ¾ÑĢÐ¸Ñĺ": 5093,
      "Ð½Ð¸ÐºÑĥ": 5094,
      "Ġpreci": 5095,
      "ser": 5096,
      "ĠÑĺÐµÐ·Ð¸Ðº": 5097,
      "Ð¾Ð²Ð°ÑĤÐ¸": 5098,
      "ĠÐ¡Ð¿": 5099,
      "lazak": 5100,
      "Ð¾ÑĨÐ°": 5101,
      "68": 5102,
      "ĠÐ´Ð¸ÑģÐµÑĢÑĤ": 5103,
      "ÐŁÑĢÐµÐ¼Ð°": 5104,
      "ĠÐºÐ¾Ð¼ÑĥÐ½Ð¸Ðº": 5105,
      "ĠnaroÄįito": 5106,
      "ÑĥÐ³Ð°ÑĢ": 5107,
      "ĠÑģÐ¿Ð¾ÑĻ": 5108,
      "ĠÐĲÐ»ÐµÐºÑģ": 5109,
      "ĠÐ²ÑĢÑĪ": 5110,
      "Ð½Ð°Ðº": 5111,
      "vane": 5112,
      "ktori": 5113,
      "Ġkompanija": 5114,
      "ĠÐ¿Ð¸ÑĤÐ°ÑļÑĥ": 5115,
      "niju": 5116,
      "ÐµÑĢÐ¸Ð¼": 5117,
      "ntno": 5118,
      "ĠpomoÄĩi": 5119,
      "%.": 5120,
      "ljene": 5121,
      "ĠÅ¾ivoti": 5122,
      "zuju": 5123,
      "zem": 5124,
      "bilnost": 5125,
      "ĠmoÄĩi": 5126,
      "Ġosu": 5127,
      "Ġmenad": 5128,
      "ces": 5129,
      "ĠÑĦÐ¸Ð»Ð¼": 5130,
      "Ð°Ð½ÐºÐ°": 5131,
      "rba": 5132,
      "Ġlitera": 5133,
      "Ð¾Ð¿ÑĢÐ¸Ð²ÑĢÐµÐ´": 5134,
      "Ġsvojoj": 5135,
      "ĠÑĩÐµÑĤÐ¸ÑĢÐ¸": 5136,
      "Ipak": 5137,
      "ĠÐ°Ð¼": 5138,
      "ĠÐµÐ²ÑĢÐ¾Ð¿": 5139,
      "ĠÐ¿ÑĢÐµÑĤÐ¿Ð¾ÑģÑĤ": 5140,
      "ĠutiÄįe": 5141,
      "ĠÐ¿ÑĢÐµÐ´Ð²Ð¸ÑĴ": 5142,
      "Å£a": 5143,
      "struktu": 5144,
      "Ġnakna": 5145,
      "Ð¸Ð±Ð»Ð¸": 5146,
      "ĠÐ·Ð°ÑĺÐµÐ´Ð½Ð¸ÑĩÐº": 5147,
      "ÉŁÉª": 5148,
      "Å¾en": 5149,
      "Ð°Ð½Ð³": 5150,
      "gan": 5151,
      "pom": 5152,
      "Ġveze": 5153,
      "snu": 5154,
      "Ð¾ÑĴÐµÑļÐµ": 5155,
      "Ġfunkcioni": 5156,
      "ĠÐ´ÐµÑģ": 5157,
      "Ġgotovo": 5158,
      "ÐµÐ·ÑĥÐ»ÑĤ": 5159,
      "ĠÑĥÑģÐ»ÑĥÐ³": 5160,
      "Ġmani": 5161,
      "ĠFo": 5162,
      "ÑĢÑģ": 5163,
      "ĠÐ²ÑĢÑģÑĤÐ°": 5164,
      "ĠÐºÐ¾ÑĺÐ¸Ð¼": 5165,
      "ĠÑĩÐ¸Ð½": 5166,
      "Ġzau": 5167,
      "Ð°ÑģÐ¿": 5168,
      "ÉļÊĥ": 5169,
      "Ð°Ð½Ð¾Ð²Ð¸ÑĽ": 5170,
      "ĠÑĤÑĢÐµÐ±Ð°Ð»Ð¾": 5171,
      "Ġumet": 5172,
      "41": 5173,
      "jskom": 5174,
      "Ġstanju": 5175,
      "ĠureÄĳa": 5176,
      "ĠÐĹÐ°ÐºÐ¾Ð½": 5177,
      "58": 5178,
      "ÐļÐ°Ð¾": 5179,
      "ĠdrugaÄįi": 5180,
      "Ġsvakom": 5181,
      "ÉĽ": 5182,
      "ĠÐ²ÑĢÑģÑĤÐµ": 5183,
      "Ġnekim": 5184,
      "ĠPred": 5185,
      "ine": 5186,
      "ĠdomaÄĩi": 5187,
      "reni": 5188,
      "Ġimamo": 5189,
      "99": 5190,
      "ÑĢÐ°Ñĺ": 5191,
      "Ð¸Ð´Ñĥ": 5192,
      "ĠÐºÑĢÐ°ÑĺÑĥ": 5193,
      "Ġrazvije": 5194,
      "Ð¾Ð³Ðµ": 5195,
      "cionog": 5196,
      "grade": 5197,
      "tili": 5198,
      "DI": 5199,
      "ĠÐ¼Ð¾ÑĤÐ¸Ð²": 5200,
      "ĠzadrÅ¾a": 5201,
      "Ġnekog": 5202,
      "ĠÐ¸Ð½ÑĤÐµÐ³ÑĢ": 5203,
      "tuje": 5204,
      "ĠÐ¸Ð¼Ð°Ð¾": 5205,
      "Ġkomi": 5206,
      "tes": 5207,
      "Ġvisoko": 5208,
      "gno": 5209,
      "mje": 5210,
      "Ġkoga": 5211,
      "eng": 5212,
      "ĠÐ¼ÐµÑģÑĤÐ°": 5213,
      "kuju": 5214,
      "Ġsklo": 5215,
      "Ġusluge": 5216,
      "Ġnikada": 5217,
      "PS": 5218,
      "ĠÐºÐ²": 5219,
      "Nije": 5220,
      "neta": 5221,
      "Ð¢Ð°ÐºÐ¾ÑĴÐµ": 5222,
      "Ġpone": 5223,
      "Ġ2021": 5224,
      "ĠÐ¼ÐµÑĢÐ¸": 5225,
      "ĠSve": 5226,
      "Ġkonkre": 5227,
      "Äįak": 5228,
      "ÑĥÐ´Ð°": 5229,
      "ten": 5230,
      "fici": 5231,
      "Å¡iÄĩ": 5232,
      "ĠÐĴÐ¾Ñĺ": 5233,
      "Ġkupo": 5234,
      "Ġkredi": 5235,
      "ĠÐºÑĥÐ»ÑĤÑĥÑĢÐµ": 5236,
      "sci": 5237,
      "ÑĢÐ°Ñļ": 5238,
      "Ð¸ÑĺÐµÐ¼": 5239,
      "tacije": 5240,
      "Ġpolitike": 5241,
      "ÑĥÐ½Ð´": 5242,
      "''.": 5243,
      "Ġodmah": 5244,
      "BA": 5245,
      "Ð»Ð¾Ð¼": 5246,
      "Ġposlu": 5247,
      "jih": 5248,
      "ĠÐ¸Ð½Ð´ÑĥÑģÑĤÑĢ": 5249,
      "Ġl": 5250,
      "ĠÑĤÐ¾Ð¿": 5251,
      "pora": 5252,
      "Ġindustri": 5253,
      "Ð°Ð´ÐµÐ¼": 5254,
      "Ġkonti": 5255,
      "ĠÐĶÑĢÑĥÐ³": 5256,
      "ĠÑĢÐ°ÑĩÑĥÐ½": 5257,
      "Su": 5258,
      "nicima": 5259,
      "lozo": 5260,
      "ĠgraÄĳana": 5261,
      "kade": 5262,
      "Ð¾Ð²Ñĥ": 5263,
      "ĠÑĢÐµÑģ": 5264,
      "ĠÐ¾Ð²Ð°Ðº": 5265,
      "ÑĤÐ¸": 5266,
      "DA": 5267,
      "Ð¾Ð·Ð¸": 5268,
      "ĠÐºÑĢÐ°ÑĻ": 5269,
      "Ġnaja": 5270,
      "Ġrepre": 5271,
      "Ð»ÐµÑĤ": 5272,
      "ĠÐ¿Ð°Ð¶": 5273,
      "ĠEvrop": 5274,
      "nuo": 5275,
      "Å¾ena": 5276,
      "Äĩemo": 5277,
      "Posle": 5278,
      "volu": 5279,
      "ĠreÅ¾i": 5280,
      "ĠdoÅ¾i": 5281,
      "ĠIII": 5282,
      "ĠSrbiju": 5283,
      "Ġputo": 5284,
      "Ġporeme": 5285,
      "ĠÑĥÐ»Ð¾Ð³Ñĥ": 5286,
      "ĠÐºÐ¾ÑĢÐ¸ÑģÑĤÐµ": 5287,
      "Ġsagla": 5288,
      "kse": 5289,
      "Ð°Ð½Ð°ÑģÑĤ": 5290,
      "ĠpomoÄĩu": 5291,
      "Ð¾ÑĴÐµÑļÐ°": 5292,
      "ĠÐ³ÑĢÐ°Ð´Ð°": 5293,
      "ĠÐ¿ÐµÑĢÐ¸Ð¾Ð´": 5294,
      "ĠÑĥÑĢÐµÑĴ": 5295,
      "Ð¾ÐºÑĢÐ°ÑĤ": 5296,
      "Ð¸ÑĤÐµÑĢÐ¸ÑĺÑĥÐ¼": 5297,
      ".).": 5298,
      "JU": 5299,
      "ĠÄįine": 5300,
      "É¦": 5301,
      "Ġrasta": 5302,
      "59": 5303,
      "Ġkm": 5304,
      "ĠÐ¼Ð½Ð¾Ð³Ð¾": 5305,
      "Ġproteina": 5306,
      "Ġinde": 5307,
      "Ð¸ÑĽÐµ": 5308,
      "Ġnajbolji": 5309,
      "ÉļÊģ": 5310,
      "Ð±Ð°": 5311,
      "ie": 5312,
      "ĠÐ¿ÑĢÐµÐ´ÑģÑĤÐ°Ð²ÑĻÐ°ÑĺÑĥ": 5313,
      "Ġkoeficije": 5314,
      "Ð¾Ð²Ð°Ð½Ðµ": 5315,
      "Ġbrzo": 5316,
      "ziju": 5317,
      "ĠÐ½Ð°Ð»Ð°Ð·": 5318,
      "PO": 5319,
      "Ġnajmanje": 5320,
      "Ġorganizacija": 5321,
      "Ã¶": 5322,
      "Ð¾ÑģÐ¿": 5323,
      "Sr": 5324,
      "ĠÑļÐµÐ³Ð¾Ð²Ðµ": 5325,
      "Ġdistribu": 5326,
      "ÐµÑĻÐµ": 5327,
      "Ġinicija": 5328,
      "ĠÐ¿ÑĢÐµÐ´ÑĥÐ·ÐµÑĽÐ°": 5329,
      "ĠÑĥÐ½Ð°Ð¿": 5330,
      "ard": 5331,
      "Ġkraja": 5332,
      "deo": 5333,
      "ÉļÉª": 5334,
      "Ġtere": 5335,
      "ĠÐ¿ÑĢÐµÐ´ÑģÐµÐ´": 5336,
      "siju": 5337,
      "din": 5338,
      "Ġmr": 5339,
      "vrÅ¡": 5340,
      "Ġcon": 5341,
      "ĠÐ·Ð°ÑĪÑĤÐ¸ÑĤÐµ": 5342,
      "Ð³Ð»Ðµ": 5343,
      "leva": 5344,
      "ranu": 5345,
      "Ð²Ð°Ðº": 5346,
      "Ġnapre": 5347,
      "Ð¸Ð½ÑģÐºÐµ": 5348,
      "Î¹": 5349,
      "III": 5350,
      "ĠÑģÑĤÑĢÑĥÑĩ": 5351,
      "zan": 5352,
      "VO": 5353,
      "rica": 5354,
      "sh": 5355,
      "Ð²ÐµÑĽ": 5356,
      "Å¡taj": 5357,
      "pova": 5358,
      "ĠÑĢÐµÐ³ÑĥÐ»": 5359,
      "Ġuzora": 5360,
      "ĠïĤ·": 5361,
      "Ġ36": 5362,
      "Ġkor": 5363,
      "Ð°Ð»Ðº": 5364,
      "Ġravno": 5365,
      "ĠÐ¾ÑĩÐµÐº": 5366,
      "ĠBeograda": 5367,
      "ĠÐ¼ÐµÑħ": 5368,
      "ĠÐ¾Ð±Ð·Ð¸ÑĢÐ¾Ð¼": 5369,
      "nas": 5370,
      "ĠkolaÄįi": 5371,
      "ĠteÅ¾i": 5372,
      "Raz": 5373,
      "Ġ2022": 5374,
      "ĠDru": 5375,
      "Ġodluka": 5376,
      "ĠÐ½Ð°Ð²Ð¾Ð´Ð¸": 5377,
      "ria": 5378,
      "jedna": 5379,
      "Ġnesta": 5380,
      "ĠÑģÐ²Ð¾Ð³": 5381,
      "ĠÑĺÑĥÐ½": 5382,
      "TO": 5383,
      "ĠSto": 5384,
      "Ð¸Ð³Ð½": 5385,
      "njeg": 5386,
      "Ã¼": 5387,
      "ĠÐ¸Ð¼Ðµ": 5388,
      "zacija": 5389,
      "Ġtranspo": 5390,
      "sednika": 5391,
      "ĠÑĢÐ°Ð·Ð»Ð¸ÑĩÐ¸ÑĤÐµ": 5392,
      "Ġ,,": 5393,
      "Ġkorisnika": 5394,
      "ĠÐ´Ð¸Ñĺ": 5395,
      "ramo": 5396,
      "tivan": 5397,
      "vajuÄĩi": 5398,
      "ĠÐºÐ°Ðº": 5399,
      "ĠVo": 5400,
      "Ġzaposlenih": 5401,
      "La": 5402,
      "LO": 5403,
      "ĠÐ¿ÑĢÐ¾Ð½": 5404,
      "Ð»Ñĥ": 5405,
      "42": 5406,
      "Ð°ÑĺÐ½": 5407,
      "ĠÐ¾Ð²Ð¾": 5408,
      "ÑĻÐ°": 5409,
      "nca": 5410,
      "ir": 5411,
      "ĠÐ¾ÑĢÐ³Ð°Ð½Ð¸Ð·Ð°ÑĨÐ¸ÑĺÐµ": 5412,
      "Ð²ÐµÑĢ": 5413,
      "ĠzavrÅ¡e": 5414,
      "ĠÐ¡Ðº": 5415,
      "Ġobrazovanja": 5416,
      "ĠÐ¿Ð¾Ð³Ð»ÐµÐ´Ñĥ": 5417,
      "ĠÑĢÐ°Ð·Ð»Ð¸Ðº": 5418,
      "ĠÑģÐµÐ²ÐµÑĢ": 5419,
      "rnu": 5420,
      "Ġ37": 5421,
      "Ġprilago": 5422,
      "Ð¾ÑĪÐº": 5423,
      "Ġindividu": 5424,
      "ĠÐ¸Ð°ÐºÐ¾": 5425,
      "Ð±Ð¾Ð»": 5426,
      "ĠÐ°ÑĤ": 5427,
      "nto": 5428,
      "ĠÐ¿ÑĢÐµÐ»": 5429,
      "ct": 5430,
      "Ġprocedu": 5431,
      "Ġpravila": 5432,
      "Ġopse": 5433,
      "ĠÐ¿Ð¾Ð¼ÐµÐ½ÑĥÑĤ": 5434,
      "tva": 5435,
      "ÑĢÐ¾Ñĺ": 5436,
      "Ġbismo": 5437,
      "Ġinfe": 5438,
      "laganja": 5439,
      "Ġstrukture": 5440,
      "ĠÐºÐ²Ð°Ð»Ð¸ÑĤÐµÑĤ": 5441,
      "Ġuslova": 5442,
      "telja": 5443,
      "Ġspek": 5444,
      "ĠÑĤÑĢÐ°Ð¶": 5445,
      "veli": 5446,
      "Ð½o": 5447,
      "tional": 5448,
      "ĠÑĥÑģÐ»Ð¾Ð²": 5449,
      "Ġobuhvata": 5450,
      "Ġprimenom": 5451,
      "Ġzastup": 5452,
      "pisi": 5453,
      "Ġizgu": 5454,
      "Ġsnage": 5455,
      "Ġzaista": 5456,
      "É¢Éľ": 5457,
      "ĠÑģÐ¾Ð¿": 5458,
      "ĠÐ¾Ð´Ð½Ð¾ÑģÐµ": 5459,
      "Ġleka": 5460,
      "Ġrazmatra": 5461,
      "fikacije": 5462,
      "ĠÐ¸Ð¼Ð¿": 5463,
      "kida": 5464,
      "É¨É«É¬": 5465,
      "É¢É¤": 5466,
      "ssi": 5467,
      "id": 5468,
      "Ġrazvoju": 5469,
      "mija": 5470,
      "Ġuzoraka": 5471,
      "Å¡tina": 5472,
      "ĠÑĤÐµÐº": 5473,
      "Ġposlova": 5474,
      "Ġispod": 5475,
      "ĠodluÄįi": 5476,
      "Ġnjegova": 5477,
      "Ġprojekta": 5478,
      "ĠÑĤÐ°Ð´Ð°": 5479,
      "Ġbolesnika": 5480,
      "Ġkomplek": 5481,
      "ĠÐ´ÑĥÑħ": 5482,
      "BI": 5483,
      "ĠÑģÑĤÑĢÐ°ÑĤÐµÐ³": 5484,
      "Äįnoj": 5485,
      "ima": 5486,
      "ÑĥÑĢÐµ": 5487,
      "ĠreÅ¡enje": 5488,
      "43": 5489,
      "Ġrezultate": 5490,
      "ĠÑĤÐ²ÑĢÐ´": 5491,
      "gro": 5492,
      "ĠÐ¸ÑģÐºÑĻÑĥÑĩ": 5493,
      "ĠÐ¶ÐµÐ½Ð°": 5494,
      "Ġautomo": 5495,
      "Naime": 5496,
      "100": 5497,
      "ĠÑģÐ²Ð¸": 5498,
      "Ġpovra": 5499,
      "ĠÐ¿ÑĢÐµÑģÑĤ": 5500,
      "Ġdola": 5501,
      "ger": 5502,
      "ĠgraÄĳe": 5503,
      "blja": 5504,
      "Ġprocesu": 5505,
      "Ġelektri": 5506,
      "ĠizvrÅ¡i": 5507,
      "Ġperioda": 5508,
      "ĠtraÅ¾i": 5509,
      "ĠÐ¾Ð²Ð¾Ñĺ": 5510,
      "Ġispra": 5511,
      "Ġzabele": 5512,
      "ĠÐºÐ¾Ð¼Ð¿Ð¾Ð½": 5513,
      "Ġsnima": 5514,
      "ĠÐ¸ÑģÑĤÐ¾ÑĢ": 5515,
      "Ġcu": 5516,
      "Ġmate": 5517,
      "ĠÐļÐ¾Ð¼": 5518,
      "ĠÐ¾Ð±ÐµÐ·Ð±": 5519,
      "ĠÑģÐ»Ð¾Ð±Ð¾Ð´": 5520,
      "Ð°ÑĢÑĥ": 5521,
      "Ġekspre": 5522,
      "ĠÐ²Ð¸Ð·": 5523,
      "ÑĥÑĢÐ°": 5524,
      "Ð¸Ð¼ÐµÐ½Ð·": 5525,
      "rtu": 5526,
      "Ġmedija": 5527,
      "ptem": 5528,
      "Ð¾Ð»ÑĥÑĨ": 5529,
      "ĠuopÅ¡te": 5530,
      "ĠÐļÑĢÐ°ÑĻ": 5531,
      "ĠÐļÐ¾Ñģ": 5532,
      "Ġ38": 5533,
      "ĠCe": 5534,
      "Ġboje": 5535,
      "ĠÑģÑĤÐ°Ð½Ð¾Ð²Ð½Ð¸ÑĪÑĤÐ²Ð°": 5536,
      "ĠopÅ¡te": 5537,
      "Ð¾ÑģÑĢÐµÐ´": 5538,
      "ĠÐ°Ð½Ð°Ð»Ð¸Ð·Ðµ": 5539,
      "Ġjako": 5540,
      "Ġkarakteristike": 5541,
      "Ġoblika": 5542,
      "ĠÈ": 5543,
      "Ġreze": 5544,
      "Ġparametara": 5545,
      "Ð°ÑĩÐµ": 5546,
      "69": 5547,
      "Ġvideo": 5548,
      "ĠÐ·Ð´ÑĢÐ°Ð²": 5549,
      "Ð¸Ð·Ð°ÑĨÐ¸ÑĺÐµ": 5550,
      "pli": 5551,
      "Ġodgovara": 5552,
      "ĠÐ»Ð¸ÑģÑĤ": 5553,
      "Ġska": 5554,
      "Å¾ava": 5555,
      "ĠÉª": 5556,
      "hibi": 5557,
      "Ð»Ð°Ð²": 5558,
      "Ġzapravo": 5559,
      "Ġfunkcional": 5560,
      "Ġprvom": 5561,
      "ĠÑģÑĢÐ¿ÑģÐºÐ¾Ð³": 5562,
      "Ġopti": 5563,
      "Ġï¿½": 5564,
      "Ð¾Ð·Ð½Ð°ÑĤ": 5565,
      "ĠnajveÄĩi": 5566,
      "Ġmase": 5567,
      "ĠÅ¾ene": 5568,
      "ĠÐ²Ð¾Ð´Ðµ": 5569,
      "ĠÐ¿Ð¾ÑĤÑĢÐ¾ÑĪ": 5570,
      "Ġbes": 5571,
      "ĠÐ»Ð¸Ð½": 5572,
      "ĠpodrÅ¾a": 5573,
      "Ġdeli": 5574,
      "ÐµÐ½ÑĤÑĥ": 5575,
      "ĠÐºÐ°Ð¼": 5576,
      "ĠÐ½Ð°ÑĺÑĩÐµÑĪÑĽÐµ": 5577,
      "doc": 5578,
      "ĠÐ¼ÑĥÑĪÐº": 5579,
      "Äĩena": 5580,
      "Ð°Ð½ÑģÐºÐ¸": 5581,
      "Ġperforma": 5582,
      "Ð¸ÑĩÐ½Ð¾Ð¼": 5583,
      "Ġzasno": 5584,
      "Ġreali": 5585,
      "ĠÐ°Ð¿ÑĢ": 5586,
      "ĠÐ¼Ð¾Ð´ÐµÑĢ": 5587,
      "ĠÑĥÑģÐ»ÐµÐ´": 5588,
      "rvo": 5589,
      "Ġ48": 5590,
      "ÑĤÐ¾Ð±": 5591,
      "Ð½Ð°ÑĤÐ°": 5592,
      "ĠÑĤÐµÑĢÐ¸ÑĤÐ¾ÑĢ": 5593,
      "ĠÑĥÐ³Ð¾Ð²Ð¾ÑĢ": 5594,
      "siji": 5595,
      "Ã²": 5596,
      "nse": 5597,
      "ĠSE": 5598,
      "57": 5599,
      "Ġsvakodne": 5600,
      "Ġ1998": 5601,
      "Ġznam": 5602,
      "ĠÐºÑĢÐµÑĤ": 5603,
      "Ġvid": 5604,
      "Ġimu": 5605,
      "ĠÑģÑĥÐ¿ÑĢ": 5606,
      "ĠtrÅ¾iÅ¡tu": 5607,
      "Ð³ÑĥÑģÑĤ": 5608,
      "ÐµÐ½ÑĤÐµ": 5609,
      "ĠÐºÑĢÐµ": 5610,
      "Ġpredsta": 5611,
      "ÐµÑĽÑĥ": 5612,
      "Ġmini": 5613,
      "ĠÐ¸Ð·Ð³ÑĢÐ°Ð´": 5614,
      "raz": 5615,
      "Ġpopula": 5616,
      "ĠomoguÄĩava": 5617,
      "Ġlogi": 5618,
      "Å¡ki": 5619,
      "ĠÉ¦": 5620,
      "Îµ": 5621,
      "hoda": 5622,
      "ĠÑĤÐ¾Ð³": 5623,
      "gri": 5624,
      "Ġrast": 5625,
      "ĠÐ´Ð¸Ð½": 5626,
      "ĠÐ²ÑĢÐµÐ¼ÐµÐ½": 5627,
      "Ġzemljama": 5628,
      "ĠÅ¡est": 5629,
      "ĠÑļÐ¸Ð¼Ð°": 5630,
      "Ġubi": 5631,
      "Ġautora": 5632,
      "stoje": 5633,
      "Ġneophodno": 5634,
      "ÉļÉ¤": 5635,
      "tila": 5636,
      "ĠÐ¿ÑģÐ¸Ñħ": 5637,
      "Ġovak": 5638,
      "Sto": 5639,
      "ĠÐ·Ð½Ð°ÑļÐ°": 5640,
      "Oni": 5641,
      "ĠomoguÄĩi": 5642,
      "Ġdirektno": 5643,
      "dove": 5644,
      "Ãª": 5645,
      "Ġkrei": 5646,
      "ÐºÐ»": 5647,
      "ĠÐ·Ð½Ð°ÑĩÐ¸": 5648,
      "ĠÐ»Ð¸ÑĤÐµÑĢ": 5649,
      "ĠÑĤÑĥ": 5650,
      "ĠpiÅ¡e": 5651,
      "ÄĬe": 5652,
      "ĠbuduÄĩ": 5653,
      "ÑĨÐ¸ÑĺÑĥ": 5654,
      "CE": 5655,
      "ĠpovrÅ¡ine": 5656,
      "ÑĢÐ°Ð¼Ð°": 5657,
      "ĠiskljuÄįivo": 5658,
      "ĠÐ¿ÑĢÐ¾ÑģÑĤÐ¾ÑĢÐ°": 5659,
      "ÑĥÐ³Ð¾ÑģÐ»Ð¾Ð²ÐµÐ½": 5660,
      "Ġsor": 5661,
      "Ġsigurno": 5662,
      "ktima": 5663,
      "Ġenzi": 5664,
      "Ġinteresa": 5665,
      "ĠÑĢÐ°Ð·Ð»Ð¸ÐºÐ°": 5666,
      "Ġfazi": 5667,
      "Ġudru": 5668,
      "66": 5669,
      "ÑĦÐµÑĢ": 5670,
      "Ð°ÑĺÐ¸": 5671,
      "ĠÐ»Ð¾Ð³": 5672,
      "tivnim": 5673,
      "ĠuÅ¾i": 5674,
      "ĠdoÅ¡lo": 5675,
      "ĠÐ¿Ð¾ÑĤÑĢÐµÐ±Ð½Ð¾": 5676,
      "Gra": 5677,
      "Ġnapisa": 5678,
      "ĠÑģÐ²ÐµÑĤÐ°": 5679,
      "dia": 5680,
      "osta": 5681,
      "Ġefekat": 5682,
      "Ġprvog": 5683,
      "ction": 5684,
      "Ġpost": 5685,
      "Ð»ÐµÐ¶": 5686,
      "ĠÐ½ÐµÐ·Ð°Ð²Ð¸Ñģ": 5687,
      "Ġodo": 5688,
      "vide": 5689,
      "Ġizbora": 5690,
      "uzda": 5691,
      "Ġfudba": 5692,
      "cal": 5693,
      "Ð¾ÑĩÐ¸ÑĤÐ¾": 5694,
      "ĠÐ¾Ð±Ð»Ð¸ÐºÐ°": 5695,
      "dnim": 5696,
      "one": 5697,
      "ljeno": 5698,
      "Ġotva": 5699,
      "sanja": 5700,
      "Äįnja": 5701,
      "ĠÐ¢ÑĥÑĢ": 5702,
      "Ġuze": 5703,
      "Å¡avanje": 5704,
      "ljive": 5705,
      "Ġdemokra": 5706,
      "ĠÐ¿ÑĢÐ¸Ð²Ð°ÑĤ": 5707,
      "sniva": 5708,
      "ĠÐ·Ð°Ð´Ð¾Ð²Ð¾ÑĻ": 5709,
      "ĠÑģÐ¾Ð¿ÑģÑĤÐ²": 5710,
      "ĠÐµÐ²": 5711,
      "ĠÑĦÐ°ÐºÑĥÐ»ÑĤ": 5712,
      "Ġkombina": 5713,
      "ĠÐ´Ð¾Ð¼Ð¸Ð½": 5714,
      "bilnosti": 5715,
      "Ġvelika": 5716,
      "Ġnov": 5717,
      "Ġpoj": 5718,
      "ĠÐ´ÐµÑĨÐµ": 5719,
      "ou": 5720,
      "jedno": 5721,
      "her": 5722,
      "Ð¸ÑļÐ°": 5723,
      "Ġservi": 5724,
      "Ġqu": 5725,
      "ĠÐ²ÐµÑĢÐ¾Ð²": 5726,
      "ting": 5727,
      "Ona": 5728,
      "Ġnjihov": 5729,
      "Ġ(âĢŀ": 5730,
      "ĠÐµÐºÑģÐ¿ÐµÑĢÐ¸Ð¼": 5731,
      "ĠÐ¿Ð¾Ð´ÑĢÑĪ": 5732,
      "ĠÐī": 5733,
      "Ġnemaju": 5734,
      "Ġdigita": 5735,
      "mbe": 5736,
      "Ð»Ð°Ð¼": 5737,
      "ÑĢÐ°Ð½Ð°": 5738,
      "Ġpostupak": 5739,
      "ĠÐ¿Ð¾ÑĻÐ¾Ð¿ÑĢÐ¸Ð²ÑĢÐµÐ´": 5740,
      "mpto": 5741,
      "ĠÐłÑĥÑģ": 5742,
      "ĠÐ¾Ð»": 5743,
      "Å¡avanja": 5744,
      "É¨É§": 5745,
      "ĠÐ¼ÐµÑģÑĤÑĥ": 5746,
      "Ġnjemu": 5747,
      "ĠQ": 5748,
      "Ġbroju": 5749,
      "Ġprofesional": 5750,
      "Ġmogla": 5751,
      "Ð¸ÑĢÐ°Ð½Ð°": 5752,
      "Ð°ÑĨÐ¸Ð¼Ð°": 5753,
      "Äĩen": 5754,
      "Ð»ÐµÐ¼Ð°": 5755,
      "Ð°Ð»Ñĥ": 5756,
      "tel": 5757,
      "Ġfunkcija": 5758,
      "Ġbar": 5759,
      "ĠÐĪÐ¾Ð²Ð°Ð½": 5760,
      "ĠÐ´Ð¾Ð¿ÑĢÐ¸Ð½Ð¾Ñģ": 5761,
      "ĠÐ²ÐµÑĽÐ¸": 5762,
      "Ġklini": 5763,
      "ĠÐ¿Ð¾Ð´ÑĢÐ°Ð·ÑĥÐ¼ÐµÐ²Ð°": 5764,
      "77": 5765,
      "Ġpostavlje": 5766,
      "ĠÑĢÐµÐ¿ÑĢ": 5767,
      "ĠÐºÑĻÑĥÑĩ": 5768,
      "tnik": 5769,
      "ĠÐ½ÐµÑĢ": 5770,
      "Ġcene": 5771,
      "Ġobzira": 5772,
      "Ġwe": 5773,
      "Ġpredi": 5774,
      "jim": 5775,
      "ĠvaÅ¾no": 5776,
      "ĠÐ²Ð°Ð½": 5777,
      "kad": 5778,
      "ĠznaÄįaja": 5779,
      "Ġodluke": 5780,
      "Ġanga": 5781,
      "Ð¾Ð²Ð¾Ð´": 5782,
      "Ġkog": 5783,
      "Ġmerenja": 5784,
      "Rezultati": 5785,
      "mentu": 5786,
      "Zna": 5787,
      "like": 5788,
      "Ġsport": 5789,
      "Ġsuda": 5790,
      "Ġdisku": 5791,
      "Ð¾ÑģÐ»Ð°Ð²": 5792,
      "Ġdizaj": 5793,
      "ĠÐ½ÐµÐ´Ð¾ÑģÑĤ": 5794,
      "ĠÐ²Ð»Ð°ÑģÑĤ": 5795,
      "fera": 5796,
      "ĠÑģÑĨ": 5797,
      "ĠÐ½ÐµÐºÐµ": 5798,
      "Ġvodo": 5799,
      "prija": 5800,
      "ÑĺÐµÐ´Ð¸Ñļ": 5801,
      "ĠÐ´ÐµÐ»Ð¾": 5802,
      "lena": 5803,
      "ĠÑĻÑĥÐ±": 5804,
      "Ġporodice": 5805,
      "ÉŁÉ¦": 5806,
      "ĠHer": 5807,
      "Ð¸ÑĺÑģÐºÐ°": 5808,
      "Ð¸ÑĺÐµÐ½ÑĤ": 5809,
      "ĠÐ£Ð½": 5810,
      "ĠÐ¿ÑĢÐ¸ÑģÑĥÑĤ": 5811,
      "Ġispitivanja": 5812,
      "Ġpostoja": 5813,
      "ĠÑĥÑģÐ¼ÐµÑĢ": 5814,
      "jne": 5815,
      "Ġaplika": 5816,
      "ĠzavrÅ¡i": 5817,
      "Ġmor": 5818,
      "njoj": 5819,
      "Ġugovor": 5820,
      "Â°": 5821,
      "Ġsan": 5822,
      "ĠAleksandar": 5823,
      "isto": 5824,
      "ĠÑĢÐµÐ·ÑĥÐ»ÑĤÐ°ÑĤÐ°": 5825,
      "ĠKO": 5826,
      "É«É¬": 5827,
      "ĠÑģÑĢÐ¿ÑģÐºÐµ": 5828,
      "ĠÐ¾Ð±ÐµÐ·Ð±ÐµÑĴ": 5829,
      "Ġgr": 5830,
      "snim": 5831,
      "ĠÐ±ÑĥÐ´ÑĥÑĽ": 5832,
      "loviÄĩ": 5833,
      "ĠuÄįenika": 5834,
      "Ð°Ð½ÑģÐºÐµ": 5835,
      "Ġdeca": 5836,
      "Ġzu": 5837,
      "Ġjezik": 5838,
      "Ġpredsednika": 5839,
      "Ġ1990": 5840,
      "Ġslici": 5841,
      "ĠÑĪÑĤÐ°": 5842,
      "nac": 5843,
      "Ġpada": 5844,
      "njene": 5845,
      "Å¡njeg": 5846,
      "ÐµÑĤÐ°ÑĢ": 5847,
      "ĠÐ¾ÑĪÑĤ": 5848,
      "Ġautor": 5849,
      "ĠÑģÑĤÐ°Ð½": 5850,
      "ĠOdg": 5851,
      "ĠÐ¸Ð·Ð±Ð¾ÑĢ": 5852,
      "Ð°ÐºÑģÐ¸Ð¼": 5853,
      "baci": 5854,
      "akle": 5855,
      "ita": 5856,
      "ĠÐŀÐ±": 5857,
      "fer": 5858,
      "tije": 5859,
      "Ġgeo": 5860,
      "Ġadekva": 5861,
      "ÐµÐ¼Ð°ÑĤ": 5862,
      "dese": 5863,
      "ĠUniverzi": 5864,
      "ĠÐºÐ¾Ð½ÑĨÐµÐ½ÑĤÑĢ": 5865,
      "ĠÐ¸ÑģÐºÑĥ": 5866,
      "ĠÄĩelije": 5867,
      "ĠbudÅ¾e": 5868,
      "Ġmene": 5869,
      "Ġmeseca": 5870,
      "Ġex": 5871,
      "listi": 5872,
      "Ð¸ÑĢÐ°Ð½Ð¸": 5873,
      "ĠMu": 5874,
      "56": 5875,
      "tvore": 5876,
      "Ġpotra": 5877,
      "ĠÐ½ÐµÐºÐ¸": 5878,
      "ĠÑĩÐµÐ³Ð°": 5879,
      "ĠÑĥÐ½ÑĥÑĤÑĢÐ°ÑĪÑļ": 5880,
      "ĠponaÅ¡anja": 5881,
      "ĠÐ½Ð¾Ð²Ðµ": 5882,
      "98": 5883,
      "ĠÑģÐµÐ¿ÑĤ": 5884,
      "ĠÐ±Ð¸ÑĤ": 5885,
      "ĠÅ¡kole": 5886,
      "Ġseg": 5887,
      "Ġprven": 5888,
      "ĠpoveÄĩanje": 5889,
      "ĠÐ¿ÑĢÐ¾Ð±Ð»ÐµÐ¼Ð°": 5890,
      "ĠÑĢÐµÑĨ": 5891,
      "ĠpodrÅ¡ku": 5892,
      "ĠÐ¾Ð±ÐµÐ»ÐµÐ¶": 5893,
      "Ġsistemu": 5894,
      "Ġradova": 5895,
      "ÐĪÐµÐ´": 5896,
      "Ġprese": 5897,
      "ĠVladi": 5898,
      "Ġfilm": 5899,
      "nov": 5900,
      "Ġpremije": 5901,
      "lizova": 5902,
      "Ð±Ð¸Ð½": 5903,
      "ĠÐĳÐ¾Ð³": 5904,
      "Ġradni": 5905,
      "Ð¸ÑĢÐ°Ð¾": 5906,
      "ĠÐºÐ¾Ð½ÑĨÐµÐ¿ÑĤ": 5907,
      "Ð¡Ð»Ð¸ÐºÐ°": 5908,
      "Ġ1996": 5909,
      "ĠÐ¿Ð¾ÑĤÐµÐ½ÑĨÐ¸ÑĺÐ°Ð»": 5910,
      "Ġdonosi": 5911,
      "Äĳivanja": 5912,
      "ĠpotroÅ¡a": 5913,
      "njom": 5914,
      "ÏĦ": 5915,
      "ĠÐ¼Ð¾Ð³ÑĥÑĽÐ½Ð¾ÑģÑĤÐ¸": 5916,
      "Ġprve": 5917,
      "ĠBalka": 5918,
      "ĠukljuÄįujuÄĩi": 5919,
      "Ð¸Ð¶Ðµ": 5920,
      "ĠÐºÑĢÐ¸ÑĤÐµÑĢÐ¸ÑĺÑĥÐ¼": 5921,
      "ÑĥÑĢÑģ": 5922,
      "ok": 5923,
      "Ġ1997": 5924,
      "ĠVojvodi": 5925,
      "Ġshva": 5926,
      "Ð¸Ð»Ð°ÑĨ": 5927,
      "Ġugovora": 5928,
      "Ġsim": 5929,
      "gor": 5930,
      "ĠzemljiÅ¡ta": 5931,
      "ĠÑļÐµÐ³Ð°": 5932,
      "Ġsedi": 5933,
      "Ð¾Ð¼ÐµÐ½": 5934,
      "ĠÑĢÐ°Ð·Ð»Ð¸ÑĩÐ¸ÑĤÐ¸Ð¼": 5935,
      "takmi": 5936,
      "blika": 5937,
      "Ġgro": 5938,
      "ĠÐºÐ¾Ð½ÐºÑĢÐµÑĤ": 5939,
      "Ġimate": 5940,
      "ĠÐ·Ð°ÑħÑĤÐµÐ²": 5941,
      "Ġsamou": 5942,
      "Ġsprovo": 5943,
      "ĠÑģÐ°ÑģÑĤÐ°Ð²": 5944,
      "Ð¾Ð»Ð¾ÑĪÐºÐµ": 5945,
      "ĠÑĥÐ¿ÑĢÐ°Ð²Ð¾": 5946,
      "Ð½Ð¾ÑģÑĤÐ¸Ð¼Ð°": 5947,
      "Ð¸Ð»Ñĥ": 5948,
      "ĠÐ´Ð¾Ð»Ð°Ð·Ð¸": 5949,
      "vencije": 5950,
      "nite": 5951,
      "Ġusme": 5952,
      "Ġneposred": 5953,
      "Ġhrane": 5954,
      "ĠÐ¿ÑĢÐµÐ¼": 5955,
      "ĠÐ³Ð¾Ð²Ð¾ÑĢÐ¸": 5956,
      "hemi": 5957,
      "ntu": 5958,
      "ĠÑģÐ»Ð¾Ð¶": 5959,
      "Ġstepen": 5960,
      "Ð°ÑĩÐºÐ¾Ð³": 5961,
      "ĠÐºÐ¾Ð¼Ð¿Ð»ÐµÐºÑģ": 5962,
      "ljiva": 5963,
      "ÉļÉŀ": 5964,
      "ĠÐ¿Ð¾ÐºÑĢÐµÑĤ": 5965,
      "DÐĮ": 5966,
      "Ġobzir": 5967,
      "ĠÑĥÑģÐ»Ð¾Ð²Ð¸Ð¼Ð°": 5968,
      "Ġokto": 5969,
      "Ġroku": 5970,
      "ÑĢÐ°Ñģ": 5971,
      "ĠÑģÐ°Ð·": 5972,
      "ĠmreÅ¾a": 5973,
      "zori": 5974,
      "PA": 5975,
      "minal": 5976,
      "09": 5977,
      "ĠÐ¿ÑĥÑĤÐµÐ¼": 5978,
      "Ð±Ð¾Ð³": 5979,
      "ĠÐ¿ÑĢÐ¾Ð¼ÐµÐ½": 5980,
      "ĠoÄįeki": 5981,
      "ĠÉľ": 5982,
      "ĠzaÅ¡to": 5983,
      "ĠÑĥÐºÐ¾Ð»Ð¸ÐºÐ¾": 5984,
      "Ð¾Ð±ÑĢÐ°ÑĽ": 5985,
      "ÑĤÐ¾": 5986,
      "ĠÐ¾Ð²Ð¸Ð¼": 5987,
      "ĠÐ¾ÑģÐ¸Ð³ÑĥÑĢ": 5988,
      "ÑĢÐ¾Ð¼": 5989,
      "Ġuslove": 5990,
      "klanja": 5991,
      "stina": 5992,
      "ĠÐ¿ÑĢÐ¸ÑħÐ²Ð°ÑĤ": 5993,
      "Ġizaz": 5994,
      "ĠÐºÑĢÐ°ÑĤ": 5995,
      "duje": 5996,
      "Ġ1991": 5997,
      "vica": 5998,
      "âĢ¢": 5999,
      "ĠSlika": 6000,
      "Ã¤": 6001,
      "Ð¸Ð±Ð»Ð¸Ð¾ÑĤ": 6002,
      "Ġpogla": 6003,
      "ĠÐ²ÐµÐ»Ð¸Ñĩ": 6004,
      "ĠÐ´ÑĥÐ±": 6005,
      "Ġkandi": 6006,
      "Ð¢Ð°ÐºÐ¾": 6007,
      "SS": 6008,
      "Ġupozna": 6009,
      "ĠÐºÐ¾ÑĺÐµÐ¼": 6010,
      "Ġdopu": 6011,
      "lio": 6012,
      "Ġorgana": 6013,
      "ÑģÐ¾Ð½": 6014,
      "ĠÐ²Ð¾Ð·": 6015,
      "ĠÑģÐ²ÐµÐ´": 6016,
      "vaÅ¾": 6017,
      "Ġfon": 6018,
      "Ġmulti": 6019,
      "Ġmodi": 6020,
      "Ġobaveza": 6021,
      "ĠÑģÐ¿Ð¾ÑĢÑĤ": 6022,
      "ĠSR": 6023,
      "ed": 6024,
      "Ġoru": 6025,
      "Ġnaroda": 6026,
      "ĠÐ¼Ð°Ð½": 6027,
      "Ġpenzi": 6028,
      "Ð½Ð¸ÐºÐµ": 6029,
      "rene": 6030,
      "ĠÐ³ÑĥÐ±": 6031,
      "ÑĥÐºÑĥ": 6032,
      "Äįita": 6033,
      "ĠÐ¼Ð°Ð½Ð°ÑģÑĤ": 6034,
      "Ġtakmi": 6035,
      "gru": 6036,
      "53": 6037,
      "Ġish": 6038,
      "ĠÐ½Ð°Ð»Ð°Ð·Ðµ": 6039,
      "Ġtekstu": 6040,
      "Ð°ÑĤÐ¾ÑĢÐ°": 6041,
      "Å¡njih": 6042,
      "ÑĻÐµÐ½": 6043,
      "Ġnjihova": 6044,
      "Ġtest": 6045,
      "Ġpoz": 6046,
      "ĠÑĢÐ°Ð·Ð»Ð¸ÐºÐµ": 6047,
      "ĠÑģÐ¸Ð½ÑĤ": 6048,
      "Å¡la": 6049,
      "Äĩuje": 6050,
      "Ġkojom": 6051,
      "Ġsaop": 6052,
      "Ġteritori": 6053,
      "Ð°Ð»Ð½Ñĥ": 6054,
      "ĠEvrope": 6055,
      "ĠÑļÐ¸ÑħÐ¾Ð²Ðµ": 6056,
      "Ġstruktura": 6057,
      "Ġbolni": 6058,
      "tite": 6059,
      "ljivost": 6060,
      "Ġukazuju": 6061,
      "Ð¾Ð²Ð¾ÑĻÐ½Ð¾": 6062,
      "ĠmreÅ¾e": 6063,
      "ÑĢÐ°Ð´Ñĥ": 6064,
      "tela": 6065,
      "ori": 6066,
      "ranjem": 6067,
      "Ð´Ð°Ð½": 6068,
      "ĠÑĤÐ¸Ð¿Ð°": 6069,
      "bila": 6070,
      "ĠknjiÅ¾e": 6071,
      "ĠÐ´Ð¾Ð¿": 6072,
      "zmu": 6073,
      "ntima": 6074,
      "Ð½Ð¾ÑĪÑĽÑĥ": 6075,
      "rga": 6076,
      "Å¾ne": 6077,
      "Ġprva": 6078,
      "Ġ32": 6079,
      "ÉŁÉ¬": 6080,
      "mino": 6081,
      "ĠkuÄĩe": 6082,
      "Ġljudima": 6083,
      "Ð¾Ð²ÑĢÐµÐ¼ÐµÐ½Ð¾": 6084,
      "Ġsati": 6085,
      "ziste": 6086,
      "JI": 6087,
      "roni": 6088,
      "Ġmoze": 6089,
      "Ġaku": 6090,
      "Ġpokreta": 6091,
      "lis": 6092,
      "solu": 6093,
      "Ġsmanji": 6094,
      "OVI": 6095,
      "ĠporemeÄĩa": 6096,
      "Ġjavnog": 6097,
      "kove": 6098,
      "ĠÐºÐ°ÑĤ": 6099,
      "ĠÑĺÑĥÐ³Ð¾ÑģÐ»Ð¾Ð²ÐµÐ½": 6100,
      "as": 6101,
      "Ð°ÑĤÐ¸Ð²Ð½Ð¸": 6102,
      "ntne": 6103,
      "76": 6104,
      "Ġsposobnosti": 6105,
      "Ġzatvo": 6106,
      "Ïģ": 6107,
      "ĠÐ¿Ð¾Ð¿ÑĥÑĤ": 6108,
      "Ġple": 6109,
      "ÐŁÐ¾ÑĢÐµÐ´": 6110,
      "mene": 6111,
      "ĠÐ¸Ð·ÑĥÐ·ÐµÑĤ": 6112,
      "nuti": 6113,
      "Zato": 6114,
      "Ġupravljanja": 6115,
      "Ġfaktor": 6116,
      "ĠÐ¾ÐºÑĤÐ¾Ð±": 6117,
      "Ð¾Ð²Ð¸Ð½Ðµ": 6118,
      "Ġsuko": 6119,
      "ĠÑģÑĥÐ¿ÑĢÐ¾ÑĤ": 6120,
      "Ġostalih": 6121,
      "ĠreÄĩi": 6122,
      "ĠÐ½Ð°ÑĢÐµÐ´": 6123,
      "Ġispla": 6124,
      "ĠÑĢÐ°Ð·Ð»Ð¸ÐºÑĥ": 6125,
      "Ġkomple": 6126,
      "ĠÐĳÐ¾Ñģ": 6127,
      "noma": 6128,
      "ad": 6129,
      "Ġobjasni": 6130,
      "Ġfir": 6131,
      "Ġadre": 6132,
      "Ġiskustvo": 6133,
      "ĠÑģÑĥÐº": 6134,
      "Ġzvez": 6135,
      "ĠpH": 6136,
      "Ġvakci": 6137,
      "Ġinhibi": 6138,
      "EN": 6139,
      "naliza": 6140,
      "Ġnekih": 6141,
      "ĠÐ¿ÑĢÐ¸ÑģÑĥ": 6142,
      "ĠÐ¡ÐĲÐĶ": 6143,
      "ĠÐ¿Ð¾ÑĤÑĢÐµÐ±Ðµ": 6144,
      "dovima": 6145,
      "ĠÑĥÑģÐ¿ÐµÑĪ": 6146,
      "ĠÐ·Ð°ÑĢ": 6147,
      "ÑĢÐ·": 6148,
      "ĠÐ°Ð¼ÐµÑĢ": 6149,
      "ĠÐ³Ð¾ÑĤ": 6150,
      "Ġintegra": 6151,
      "Ġizuzetno": 6152,
      "Ðĸ": 6153,
      "Ġiskustva": 6154,
      "Åłta": 6155,
      "ĠÑĪÐºÐ¾Ð»Ðµ": 6156,
      "ĠpoÄįetka": 6157,
      "ĠnaÄįina": 6158,
      "ĠÐ¿Ð¾ÑģÐ¼Ð°ÑĤ": 6159,
      "ĠodreÄĳene": 6160,
      "ÑĻÐµ": 6161,
      "lozi": 6162,
      "meti": 6163,
      "Ġistovremeno": 6164,
      "Ġelemenata": 6165,
      "ÐµÐ¼Ðµ": 6166,
      "Ġugro": 6167,
      "Ġured": 6168,
      "ljenih": 6169,
      "Ð°Ð½ÑģÐºÐ¾Ð³": 6170,
      "Ġdomina": 6171,
      "Ġpoljoprivred": 6172,
      "Ġ188": 6173,
      "Ġvlasni": 6174,
      "ĠÄįime": 6175,
      "Ġnjegovog": 6176,
      "ĠÐ¿Ð°Ð´": 6177,
      "Ġregula": 6178,
      "Ġoblik": 6179,
      "ĠÑĤÐµÐ¼Ð¿ÐµÑĢ": 6180,
      "rum": 6181,
      "Ġkoristiti": 6182,
      "ĠÑĥÐ¼ÐµÑĤÐ½Ð¾ÑģÑĤÐ¸": 6183,
      "Ð°ÑģÐ°": 6184,
      "Ðİ": 6185,
      "Â´": 6186,
      "ĠÑĥÐºÐ°Ð·ÑĥÑĺÐµ": 6187,
      "rit": 6188,
      "ĠkoriÅ¡Äĩenje": 6189,
      "ĠÐ²ÑĢÐ»Ð¾": 6190,
      "Ġulja": 6191,
      "tura": 6192,
      "ÑĥÐ´Ðµ": 6193,
      "svim": 6194,
      "Äīa": 6195,
      "ĠÄįovek": 6196,
      "ÑĢÐ¾ÑĤ": 6197,
      "Ð»Ð¸Ð½": 6198,
      "Ġzahtev": 6199,
      "ÑĢÐ°Ð½Ð¸": 6200,
      "valu": 6201,
      "ĠÐ·Ð°ÑģÐ½Ð¾Ð²": 6202,
      "Ð¸ÐºÑģ": 6203,
      "sub": 6204,
      "Ġzadovolj": 6205,
      "ĠÐ¼ÐµÐ½": 6206,
      "ĠÐ¸Ð·Ð»Ð¾Ð¶": 6207,
      "ĠÐ³Ð»Ð°Ð³Ð¾Ð»": 6208,
      "Ġdosti": 6209,
      "Ġfaze": 6210,
      "Ġsmanjenje": 6211,
      "Ġseku": 6212,
      "Ġtemperature": 6213,
      "Ġstava": 6214,
      "Ġobliku": 6215,
      "Ð¾ÐºÑĥ": 6216,
      "Å¾nje": 6217,
      "ĠÑĩÐ¸ÑĺÐ¸": 6218,
      "vnoj": 6219,
      "Ð¿Ð¾ÑĢ": 6220,
      "Ġdokaza": 6221,
      "Ġuslovi": 6222,
      "95": 6223,
      "Ð¸ÑģÐ°ÑļÐµ": 6224,
      "loÅ¡kog": 6225,
      "Kon": 6226,
      "lla": 6227,
      "ĠproÅ¡i": 6228,
      "ÏĤ": 6229,
      "ĠÑĩÐ»": 6230,
      "ĠÐ¸Ð³": 6231,
      "ĠÐ·Ð°Ð³": 6232,
      "Ġsku": 6233,
      "ĠÐ½Ð°ÑĢÐ¾ÑĩÐ¸ÑĤÐ¾": 6234,
      "des": 6235,
      "ĠÅ¡iro": 6236,
      "Ġdecu": 6237,
      "Ð¾Ð²Ð°ÑļÑĥ": 6238,
      "Ġstrani": 6239,
      "Ġsedam": 6240,
      "Ð¾Ð¿Ð°": 6241,
      "Ð°Ð¼Ð±": 6242,
      "Ġjedinjenja": 6243,
      "Ġturisti": 6244,
      "ÑĢÐµÐº": 6245,
      "Äĳan": 6246,
      "Ð°Ð¿Ð°Ð´": 6247,
      "tum": 6248,
      "ÐĶÐ°": 6249,
      "ĠÐ½ÐµÐ¿Ð¾ÑģÑĢÐµÐ´": 6250,
      "vosti": 6251,
      "Ġpredmet": 6252,
      "Ð½Ð¸ÑĩÐºÐµ": 6253,
      "Ġtraja": 6254,
      "Ġpresu": 6255,
      "pisuje": 6256,
      "Ġsprem": 6257,
      "Ð¸ÑģÐ°Ð½": 6258,
      "ĠÑĤÐ°Ð±": 6259,
      "Ġogla": 6260,
      "Ġ1995": 6261,
      "Ġljude": 6262,
      "Ġprethodno": 6263,
      "ĠÅ¾ivotne": 6264,
      "ÐµÐ´Ð°": 6265,
      "ĠÐ¾Ð½Ð´Ð°": 6266,
      "Ġcom": 6267,
      "ĠÐ°ÑĥÑĤÐ¾ÑĢÐ°": 6268,
      "Ġoptere": 6269,
      "cke": 6270,
      "ĠÐ¾Ð´Ð³Ð¾Ð²Ð°ÑĢÐ°ÑĺÑĥÑĽ": 6271,
      "92": 6272,
      "ĠsledeÄĩe": 6273,
      "ÐµÐ²Ð¾": 6274,
      "nili": 6275,
      "ĠÄįvr": 6276,
      "Ġkoncentracija": 6277,
      "Ð¢Ð°Ð±ÐµÐ»Ð°": 6278,
      "ljaka": 6279,
      "Ġoptu": 6280,
      "Ġautori": 6281,
      "fikacija": 6282,
      "ĠÐ°Ð²Ð³ÑĥÑģÑĤ": 6283,
      "ning": 6284,
      "ĠkoriÅ¡Äĩenja": 6285,
      "Ġpovre": 6286,
      "°É¢Êģ": 6287,
      "ĠznaÄįajna": 6288,
      "jsku": 6289,
      "Ġutakmi": 6290,
      "ĠÑĩÐ¾Ð²ÐµÐº": 6291,
      "Ġengle": 6292,
      "govori": 6293,
      "Ġpostaje": 6294,
      "ĠÐľÐ¸Ð½": 6295,
      "á¼": 6296,
      "Äįene": 6297,
      "Ġage": 6298,
      "ĠÐ¿Ð¾ÑĤÐ¾Ð¼": 6299,
      "Ġprimenu": 6300,
      "Ġsprovede": 6301,
      "Ġzakonom": 6302,
      "stupi": 6303,
      "Ġsvakako": 6304,
      "Ġkarakteristika": 6305,
      "ĠÑĢÐ°": 6306,
      "Ġnavode": 6307,
      "ĠÑĥÐ½ÑĥÑĤÐ°ÑĢ": 6308,
      "nsko": 6309,
      "raka": 6310,
      "ĠÐºÐ°Ð¿Ð¸ÑĤ": 6311,
      "Ġsituacija": 6312,
      "losti": 6313,
      "Ġdiplo": 6314,
      "ĠÄĩu": 6315,
      "sorp": 6316,
      "RU": 6317,
      "gnosti": 6318,
      "ms": 6319,
      "Ġovi": 6320,
      "ĠÐ¿Ð°ÑĨÐ¸ÑĺÐµ": 6321,
      "SO": 6322,
      "ĠÑĢÐ°Ð·Ð²Ð¸ÑĺÐµ": 6323,
      "logiju": 6324,
      "Ġnapa": 6325,
      "ĠCr": 6326,
      "pozi": 6327,
      "ĠPla": 6328,
      "prave": 6329,
      "Ġzdravlje": 6330,
      "Ð¾ÑĢÐ¾": 6331,
      "ĠÑĤÑĢÐµÑĤ": 6332,
      "dela": 6333,
      "ĠÐ·Ð°ÑĺÐµÐ´Ð½Ð¾": 6334,
      "ĠÐ¿Ð¾ÑĤÐ²ÑĢÑĴ": 6335,
      "ÑĥÑĦ": 6336,
      "ĠÑļÐµÐ³Ð¾Ð²Ð¾Ð³": 6337,
      "ĠÐ¸Ð¼Ð°Ð»Ð°": 6338,
      "ĠÐ¿Ð¾Ð»Ð¸ÑĤÐ¸ÐºÐµ": 6339,
      "ĠÐ¼Ð¸Ñģ": 6340,
      "ĠÑģÐµÐ·": 6341,
      "Ġimo": 6342,
      "Ġmle": 6343,
      "Ġmono": 6344,
      "Ġoti": 6345,
      "ÐµÐ¼Ð±Ð°ÑĢ": 6346,
      "Ġagre": 6347,
      "Ġopet": 6348,
      "cy": 6349,
      "ĠÅ¾ive": 6350,
      "Ð¸ÑĢÐ°Ð½Ðµ": 6351,
      "ĠÑģÐ°Ð´Ð°": 6352,
      "Ð°Ð±ÑĢ": 6353,
      "fiko": 6354,
      "Ð¸ÑĺÑģÐºÐ¸Ð¼": 6355,
      "ĠÐºÐ¾Ð»Ð¸Ñĩ": 6356,
      "Ðĭ": 6357,
      "Ġdesi": 6358,
      "ĠZakona": 6359,
      "Ġznatno": 6360,
      "Ġnjihovo": 6361,
      "ii": 6362,
      "res": 6363,
      "Ġavio": 6364,
      "Ġturi": 6365,
      "cita": 6366,
      "Ġjugo": 6367,
      "Ro": 6368,
      "Ġas": 6369,
      "ĠÐ¼ÐµÑģÐµÑĨ": 6370,
      "ĠÐ´Ð¾Ð·Ð²": 6371,
      "ĠÐ·Ð°Ð¿Ð°Ð´": 6372,
      "Dakle": 6373,
      "pravda": 6374,
      "ÐĺÐ°ÐºÐ¾": 6375,
      "vice": 6376,
      "Ġreprezenta": 6377,
      "NS": 6378,
      "ĠÐ¤Ð¸Ð»": 6379,
      "ĠÐ½Ð°ÑĺÐ¼": 6380,
      "ĠÐ´Ð¾Ð±ÑĢÐ¾": 6381,
      "Ġanalizu": 6382,
      "ĠÑĢÐ¾Ð´Ð¸ÑĤÐµÑĻ": 6383,
      "ÐļÐ°Ð´Ð°": 6384,
      "riva": 6385,
      "Ġsporazu": 6386,
      "Ð°Ð²ÑĻÐ°ÑĺÑĥ": 6387,
      "Ġovla": 6388,
      "ĠÄįeka": 6389,
      "dju": 6390,
      "Ġinost": 6391,
      "Ġobele": 6392,
      "ĠÅ¾ivi": 6393,
      "Ġnova": 6394,
      "Ġumetni": 6395,
      "ĠÐ¸ÑģÑĤÐ¾": 6396,
      "ĠÑĥÑĤÐ¸ÑĨÐ°ÑĺÐ°": 6397,
      "Ð¸ÑĺÐµÑĢ": 6398,
      "Tu": 6399,
      "Ġdevoj": 6400,
      "Ð¸ÑĺÐ°ÑĤÐµÑĻ": 6401,
      "ĠÐ¿ÑĢÐ¾Ð»": 6402,
      "ĠâĢĶ,": 6403,
      "ÑĬ": 6404,
      "ĠÐ¿ÐµÑĢÐ¸Ð¾Ð´Ð°": 6405,
      "ida": 6406,
      "Ġslike": 6407,
      "tija": 6408,
      "Ð°ÑĪÑļÐµ": 6409,
      "08": 6410,
      "ĠÑĢÐµÑĤ": 6411,
      "ĠÐ¿Ð¾ÑĢÐµÐº": 6412,
      "ÄĬu": 6413,
      "ĠmeÄĳutim": 6414,
      "ĠÑģÐ°Ð¾Ð±ÑĢÐ°ÑĽ": 6415,
      "Ġpodacima": 6416,
      "ĠÑģÑĥÐºÐ¾Ð±": 6417,
      "%),": 6418,
      "Ð¾Ð»Ð¾ÑĪÐºÐ¸Ñħ": 6419,
      "Ġtradicional": 6420,
      "ÐµÐ¾Ð³ÑĢÐ°ÑĦ": 6421,
      "Ġglavni": 6422,
      "njeni": 6423,
      "Ġbanke": 6424,
      "ĠÐ¸ÑĤ": 6425,
      "ĠÑĺÐ°ÑģÐ½Ð¾": 6426,
      "Ð²Ð¾Ð³": 6427,
      "limo": 6428,
      "ljivosti": 6429,
      "ĠreÄįima": 6430,
      "Ð¸ÑĨÐ¾Ð¼": 6431,
      "ĠÄĩete": 6432,
      "nisti": 6433,
      "Ð¸ÑĩÐºÑĥ": 6434,
      "Ð¾ÑĨÐ¸": 6435,
      "Ġzajednice": 6436,
      "ĠÐ´Ðµ": 6437,
      "ĠÑĩÐ¸Ð½Ðµ": 6438,
      "gde": 6439,
      "ĠÑģÑĤÐ°ÑĤÐ¸ÑģÑĤÐ¸ÑĩÐºÐ¸": 6440,
      ".),": 6441,
      "ĠÐ¾Ð¿ÑĢ": 6442,
      "Ġparame": 6443,
      "ĠÑģÑħÐ²Ð°ÑĤ": 6444,
      "Ġpokazala": 6445,
      "Ġjavnosti": 6446,
      "ÑģÑĤÐ²Ð¾Ð¼": 6447,
      "ÑĢÐ¾Ð²": 6448,
      "ĠÐ°ÐºÐ°Ð´ÐµÐ¼": 6449,
      "Å¾eni": 6450,
      "ÐºÐ¾Ð³": 6451,
      "ĠÐ·Ð°ÑħÑĤÐµÐ²Ð°": 6452,
      "ĠInter": 6453,
      "Ġnovog": 6454,
      "ĠmaÅ¡i": 6455,
      "lizacija": 6456,
      "Ġenerget": 6457,
      "ĠÑĢÐ°Ð²": 6458,
      "Ġspolj": 6459,
      "njeno": 6460,
      "ĠÑģÐ»Ð¸Ðº": 6461,
      "PI": 6462,
      "ĠÐ¿ÑĢÐ¾Ð¸Ð·Ð²Ð¾Ð´Ð°": 6463,
      "ron": 6464,
      "ĠÐ½Ð°Ðº": 6465,
      "ĠÐ¿ÑĢÐ¾Ð¼ÐµÐ½Ð°": 6466,
      "ĠÐ½Ð¾Ð²Ð¸Ñħ": 6467,
      "Ci": 6468,
      "Ġuzorka": 6469,
      "ĠÄĩeli": 6470,
      "Äįara": 6471,
      "ĠÑĢÐµÐ¶": 6472,
      "Svi": 6473,
      "ĠÐ£Ð½Ð¸Ð²ÐµÑĢÐ·": 6474,
      "Ġpodne": 6475,
      "Ġarhite": 6476,
      "ĠÐĲÑĢ": 6477,
      "Ġzvu": 6478,
      "Ġfaza": 6479,
      "Ġpuno": 6480,
      "Ġknjiga": 6481,
      "Ġrizik": 6482,
      "ĠÉĽ": 6483,
      "ĠÅ¾u": 6484,
      "guje": 6485,
      "Ð¡Ð°": 6486,
      "tions": 6487,
      "Ð²Ð°ÑĽ": 6488,
      "ĠÑĺÐ°Ð½Ñĥ": 6489,
      "ĠÐ´Ð¾Ð´Ð°ÑĤ": 6490,
      "ĠÐ¿Ð¾ÑĺÐµÐ´Ð¸Ð½Ð°Ñĩ": 6491,
      "lijar": 6492,
      "ĠÐ°Ð½Ð°Ð»Ð¸Ð·Ð°": 6493,
      "ĠÑĺÐµÐ´Ð½Ñĥ": 6494,
      "ĠÐ¾Ð±ÑĺÐ°ÑĪÑļ": 6495,
      "ĠÐ¿Ð¾Ð´ÑģÑĤ": 6496,
      "Ġjuna": 6497,
      "Ġkandida": 6498,
      "Ġdinami": 6499,
      "52": 6500,
      "Ð²ÐµÐ½ÑĨ": 6501,
      "ĠÑģÐµÐºÑĤ": 6502,
      "tine": 6503,
      "ĠobiÄįno": 6504,
      "Ð¸Ð¼Ð¿": 6505,
      "ĠÐ³Ðµ": 6506,
      "ĠÊģÉŁ": 6507,
      "ÐłÐ°Ð·": 6508,
      "loge": 6509,
      "ĠÐ²Ð°Ð·Ð´": 6510,
      "Ġpotpunosti": 6511,
      "ĠÐ¿ÑĢÐ°Ð²Ð¸Ð»Ð°": 6512,
      "ÐµÐ²ÑĢ": 6513,
      "Ġ33": 6514,
      "Ġkontrole": 6515,
      "ĠNE": 6516,
      "ĠÑĤÐ°ÐºÐ¼": 6517,
      "Å¡kova": 6518,
      "Ġminima": 6519,
      "79": 6520,
      "Ġizvora": 6521,
      "Ġtelefo": 6522,
      "Ġfilozo": 6523,
      "64": 6524,
      "................................": 6525,
      "Ġtreti": 6526,
      "Ġmatri": 6527,
      "Ġjavno": 6528,
      "ĠistiÄįe": 6529,
      "ÑĢÐµÐ½": 6530,
      "Ġostale": 6531,
      "stre": 6532,
      "zv": 6533,
      "Ġizabra": 6534,
      "ĠÑĢÐµÐ·ÑĥÐ»ÑĤÐ°ÑĤÐ¸": 6535,
      "mova": 6536,
      "ĠÐĴÐ»Ð°Ð´": 6537,
      "mos": 6538,
      "ĠSrp": 6539,
      "Ġpresta": 6540,
      "ĠÐ¸Ð´ÐµÐ½ÑĤÐ¸ÑĦÐ¸Ðº": 6541,
      "Ġlak": 6542,
      "ĠÐ¿Ð¾ÑģÐ¼Ð°ÑĤÑĢ": 6543,
      "Ġpredstavlje": 6544,
      "stova": 6545,
      "Ġprenosi": 6546,
      "ĠÐĪÑĥÐ³Ð¾ÑģÐ»Ð°Ð²Ð¸ÑĺÐµ": 6547,
      "ĠÐ´Ð°ÑĺÐµ": 6548,
      "ĠSA": 6549,
      "Ġljuba": 6550,
      "ĠÑĤÐµÑĢÐ¼Ð¸Ð½": 6551,
      "Å¾ene": 6552,
      "Ġtuma": 6553,
      "ĠÑĤÑĢÐ°Ð´Ð¸ÑĨÐ¸Ð¾Ð½Ð°Ð»": 6554,
      "ĠÑģÑĤÐ²Ð°ÑĢÐ¸": 6555,
      "ĠÐ»Ð¸ÑĤÐµÑĢÐ°ÑĤÑĥÑĢ": 6556,
      "ĠÂµ": 6557,
      "ĠÑĨÐ¸ÑĻÑĥ": 6558,
      "ĠÑģÐ²Ð¾ÑĺÐ¾Ñĺ": 6559,
      "Ġdono": 6560,
      "nar": 6561,
      "Ġhilja": 6562,
      "Ġnjihovih": 6563,
      "Ð¸ÑĺÐµÐ´": 6564,
      "Ġbezbednosti": 6565,
      "Ġae": 6566,
      "Ġnovca": 6567,
      "Ġkupa": 6568,
      "Å¾ba": 6569,
      "Ġhla": 6570,
      "ĠÐ±Ð¸ÑĻ": 6571,
      "Ġ1992": 6572,
      "puÅ¡ta": 6573,
      "ĠÐ´ÑĢÑĥÐ³Ð¾Ð¼": 6574,
      "Ġrecep": 6575,
      "Ġdati": 6576,
      "Ġnama": 6577,
      "riÅ¡e": 6578,
      "Ġdobar": 6579,
      "at": 6580,
      "Ð¾Ð·Ð¾ÑĦ": 6581,
      "Ġkak": 6582,
      "ĠÑĤÐµÐ¾ÑĢ": 6583,
      "ĠobjaÅ¡nja": 6584,
      "ĠTur": 6585,
      "ĠÑģÑĢÐ¿ÑģÐºÐ¸": 6586,
      "Ð½Ð¸ÑĺÐ¸Ñħ": 6587,
      "ATO": 6588,
      "Ġtala": 6589,
      "Ġpostupku": 6590,
      "Ġtoplo": 6591,
      "Ð°Ð²ÑĻÐ°ÑļÐµ": 6592,
      "ĠutiÄįu": 6593,
      "Ð¾ÑĤÐ°": 6594,
      "ĠÐ±Ð°Ð·": 6595,
      "Ġaktu": 6596,
      "ĠÑģÐ»Ð°Ð±": 6597,
      "ĠÐ¾ÑģÐ»Ð¾Ð±": 6598,
      "Ġiznad": 6599,
      "02": 6600,
      "Ġsajta": 6601,
      "vama": 6602,
      "Ð¸Ð³ÑĢ": 6603,
      "ĠNovi": 6604,
      "Ð½Ð¸ÑĩÐºÐ¸": 6605,
      "Ġozbilj": 6606,
      "Ġvremenu": 6607,
      "cs": 6608,
      "ĠÐĲÐ»ÐµÐºÑģÐ°Ð½Ð´": 6609,
      "tski": 6610,
      "Äĳenih": 6611,
      "han": 6612,
      "Ġblago": 6613,
      "ÐµÐ³Ð»ÐµÐ´": 6614,
      "ĠÐ¾Ð´Ð²": 6615,
      "ĠÐ½Ð°Ð´Ð»ÐµÐ¶": 6616,
      "loÅ¾i": 6617,
      "ĠÑģÑĤÐ°Ð½Ð¾Ð²Ð½Ð¸ÐºÐ°": 6618,
      "Ð¾Ð²Ð°Ð½Ð¸Ñħ": 6619,
      "ĠÐ½Ð°ÑĢÐ¾Ð´Ð°": 6620,
      "ĠÑģÑĢÐµÐ´Ð¸Ð½Ðµ": 6621,
      "63": 6622,
      "ĠEvropi": 6623,
      "Ð¸ÑĢÑĥ": 6624,
      "Ġsasvim": 6625,
      "Ġobjekata": 6626,
      "ĠÑĺÐµÐ´Ð½Ð¾": 6627,
      "ĠliÄįnosti": 6628,
      "mente": 6629,
      "ziva": 6630,
      "Ð²Ð¾Ð¼": 6631,
      "ministra": 6632,
      "Ġosam": 6633,
      "Ð¾Ð´Ð¸ÑĪ": 6634,
      "ĠInstitu": 6635,
      "ĠÑģÐºÐ»": 6636,
      "ĠÐ½Ð¸Ð²Ð¾Ð°": 6637,
      "Ġzad": 6638,
      "Ġsimpto": 6639,
      "Ġtip": 6640,
      "mula": 6641,
      "Ġumesto": 6642,
      "Ġsoft": 6643,
      "ÑĽÐ°": 6644,
      "Ġneuro": 6645,
      "Ð½Ð¸ÑĺÐ°": 6646,
      "pto": 6647,
      "Ġ@": 6648,
      "ĠÐ·ÑĢ": 6649,
      "ÉļÉ¡": 6650,
      "Ġmoglo": 6651,
      "ÐĶÑĢÑĥÐ³": 6652,
      "Ġizvor": 6653,
      "kreta": 6654,
      "ÐµÐ±ÑĢÑĥ": 6655,
      "Ġvise": 6656,
      "54": 6657,
      "Ġgradu": 6658,
      "giju": 6659,
      "ĠÑĢÐ°Ð·Ð»Ð¾Ð³Ð°": 6660,
      "Ġnaru": 6661,
      "ĠÐºÑĢÐ¸Ð¼Ð¸Ð½": 6662,
      "ĠÐ²ÐµÑĪÑĤ": 6663,
      "Ð¾Ð²Ð½Ðµ": 6664,
      "ĠÐ¿ÑĢÐµÑĥÐ·": 6665,
      "ĠÑĤÑĢÐ¾ÑĪÐº": 6666,
      "ksual": 6667,
      "ĠPRO": 6668,
      "Au": 6669,
      "ĠÐ¡Ð°Ð²": 6670,
      "Ġnapada": 6671,
      "ĠÑģÐ²Ð¾ÑĺÐ¸Ñħ": 6672,
      "veni": 6673,
      "Ġupi": 6674,
      "ÑģÐ¾Ð±": 6675,
      "Ġlepo": 6676,
      "Ġtrenutno": 6677,
      "ĠÐ±Ð°Ð½": 6678,
      "ĠOD": 6679,
      "Ñķ": 6680,
      "Ġvec": 6681,
      "tr": 6682,
      "ĠoÄįekuje": 6683,
      "Ġpostupka": 6684,
      "Ġinfra": 6685,
      "Ġpraksi": 6686,
      "Bu": 6687,
      "Ð°Ð´Ð°ÑĪÑļ": 6688,
      "ĠÐ·ÐµÐ¼Ð°ÑĻÐ°": 6689,
      "Ġorganizova": 6690,
      "Ã¾": 6691,
      "ĠÐ¾Ð´ÑĢÐ¶Ð°Ð²": 6692,
      "ĠÐ°ÐºÑĨ": 6693,
      "Ð°ÑĢÑģÐºÐµ": 6694,
      "Ð½Ð¾Ð¿": 6695,
      "51": 6696,
      "ĠÐºÐ¾Ð½ÐºÑĥÑĢ": 6697,
      "Ġkompe": 6698,
      "ĠÐ¸Ð½ÑĤÐµÐ½Ð·": 6699,
      "ĠÐ°Ñģ": 6700,
      "kos": 6701,
      "Ġgena": 6702,
      "riÄĩ": 6703,
      "Ġtema": 6704,
      "Ð¸Ð½ÑģÐºÐ¾Ð³": 6705,
      "Ġfoku": 6706,
      "Äĩeno": 6707,
      "lia": 6708,
      "Ġ500": 6709,
      "Ġpolitika": 6710,
      "ĠÐ¼Ð°ÑĤ": 6711,
      "Ġpotreba": 6712,
      "sloven": 6713,
      "ĠÐ¸ÑĤÐ´": 6714,
      "ĠÐ¿ÑĢÐ¸Ð±": 6715,
      "blji": 6716,
      "Ġukupno": 6717,
      "nus": 6718,
      "Ġnasle": 6719,
      "ĠÐºÐ¾Ð½ÑģÑĤÑĢÑĥÐºÑĨ": 6720,
      "Ġgodinama": 6721,
      "72": 6722,
      "Ti": 6723,
      "ĠÐ¾ÑģÐµÑĽ": 6724,
      "ĠÐ¿ÑĢÐ¸Ð¼ÐµÐ½Ðµ": 6725,
      "Ġsvake": 6726,
      "ĠÐºÐ²Ð°Ð»Ð¸ÑĤÐµÑĤÐ°": 6727,
      "Ġubr": 6728,
      "Ġzdravlja": 6729,
      "ĠÑĤÑĥÐ¼Ð°Ñĩ": 6730,
      "ĠBiH": 6731,
      "ĠtroÅ¡kova": 6732,
      "ĠÐºÐ¾Ð½ÑĤÐµÐºÑģÑĤÑĥ": 6733,
      "ÐļÐ°ÐºÐ¾": 6734,
      "04": 6735,
      "dnu": 6736,
      "Ġplan": 6737,
      "Ġdodatno": 6738,
      "tero": 6739,
      "ĠÑĤÐµÐ¼Ð¿ÐµÑĢÐ°ÑĤÑĥÑĢ": 6740,
      "ĠÐ¶ÐµÐ»": 6741,
      "Ġbora": 6742,
      "ĠÐŁÐ°ÑĢ": 6743,
      "ĠÐ±Ð°ÑĢ": 6744,
      "ĠodrÅ¾i": 6745,
      "Ġnovac": 6746,
      "Ġkolek": 6747,
      "ĠXX": 6748,
      "ĠÐ¼Ð¾Ð³Ð°Ð¾": 6749,
      "Ġvelikim": 6750,
      "ĠsledeÄĩi": 6751,
      "vnika": 6752,
      "jsko": 6753,
      "slav": 6754,
      "Ġrevi": 6755,
      "ĠÑĥÑĢÐ±": 6756,
      "ĠÑļÐµÐ³Ð¾Ð²Ð°": 6757,
      "ÐĿÐ°ÐºÐ¾Ð½": 6758,
      "Ġjeziku": 6759,
      "lizaciju": 6760,
      "ĠÑĦÐ°ÐºÑĤÐ¾ÑĢÐ°": 6761,
      "Ð°ÐºÑĨÐ¸ÑĺÐµ": 6762,
      "ÉŁÉ¤": 6763,
      "cha": 6764,
      "jni": 6765,
      "ĠNovom": 6766,
      "ÐµÐ»ÐµÐºÑĤ": 6767,
      "Ð°ÑĤÐ¸Ð²Ð½Ð¸Ñħ": 6768,
      "ĠÐ¸Ð½Ð¸ÑĨ": 6769,
      "Ġupravljanje": 6770,
      "nes": 6771,
      "Ġklije": 6772,
      "Ġfrek": 6773,
      "Osim": 6774,
      "73": 6775,
      "03": 6776,
      "Ð¸Ð²Ð¸Ð´Ñĥ": 6777,
      "nila": 6778,
      "kada": 6779,
      "Ġnekom": 6780,
      "ĠÐ¼Ð°ÑĤÐµÑĢÐ¸ÑĺÐ°Ð»Ð°": 6781,
      "sada": 6782,
      "ĠÐ²ÐµÑĢÐ¾Ð²Ð°ÑĤÐ½Ð¾": 6783,
      "cem": 6784,
      "ĠZo": 6785,
      "Ð¾Ð»Ðµ": 6786,
      "Ġsastav": 6787,
      "Ġusa": 6788,
      "Ġizazo": 6789,
      "Ð¾Ð·Ð°": 6790,
      "ĠNarod": 6791,
      "ĠÐ¿Ð¾ÑĤÐ¿ÑĥÐ½Ð¾": 6792,
      "Äĩeni": 6793,
      "tivnu": 6794,
      "Ð¸ÑģÑĤÐ¸": 6795,
      "ĠproÅ¡lo": 6796,
      "Ġ39": 6797,
      "ĠÐ¾ÑĢÐ³Ð°Ð½Ð¸Ð·Ð°ÑĨÐ¸ÑĺÐ°": 6798,
      "ĠÑģÐ»ÑĥÐ¶": 6799,
      "Ġkrvi": 6800,
      "ĠÑĥÐ½Ð¸Ð²ÐµÑĢÐ·": 6801,
      "Ġtoj": 6802,
      "ĠÐ³Ð¾ÑĢ": 6803,
      "ĠizloÅ¾e": 6804,
      "Ġ34": 6805,
      "ĠÑģÐµÐ¼Ð°Ð½ÑĤ": 6806,
      "ĠÑĢÐ°Ð·Ð²Ð¾ÑĺÑĥ": 6807,
      "Ġgrupu": 6808,
      "ĠmoÅ£e": 6809,
      "Ġfar": 6810,
      "Ð¾ÑĻÑĪ": 6811,
      "ĠznaÄįajne": 6812,
      "71": 6813,
      "ĠsluÄįajeva": 6814,
      "STI": 6815,
      "mira": 6816,
      "tske": 6817,
      "Ġwi": 6818,
      "Pra": 6819,
      "ĠÐ¼ÐµÑĤÐ¾Ð´Ð°": 6820,
      "Ġodvija": 6821,
      "ĠpoÄįetku": 6822,
      "Ġpokazali": 6823,
      "Ġdobio": 6824,
      "sup": 6825,
      "ĠÐ¼Ð¾Ð¶ÐµÐ¼Ð¾": 6826,
      "Ġeg": 6827,
      "stepe": 6828,
      "ĠproizvoÄĳa": 6829,
      "RED": 6830,
      "06": 6831,
      "ĠÐ¤ÑĢÐ°Ð½ÑĨÑĥ": 6832,
      "ĠnaÅ¡eg": 6833,
      "Ġmilijar": 6834,
      "stavi": 6835,
      "Ð°Ð´Ð¸": 6836,
      "ĠÐ´Ð¾Ð¶": 6837,
      "Ġseptem": 6838,
      "ĠÐ¿ÑĢÐ¸ÑĤ": 6839,
      "Ġkarije": 6840,
      "Ð°Ð½Ð°Ðº": 6841,
      "Ġkontinu": 6842,
      "Ġniz": 6843,
      "ĠÐ´Ð¸Ð¼ÐµÐ½Ð·": 6844,
      "ĠÐ»ÐµÐº": 6845,
      "rigi": 6846,
      "ĠÐ¿ÑĢÐ¾ÑģÐµÑĩ": 6847,
      "Ġpoti": 6848,
      "Ġeki": 6849,
      "ĠÑĪÑĤÐ°Ð¼Ð¿": 6850,
      "ĠrazmiÅ¡lja": 6851,
      "ĠnaÅ¡em": 6852,
      "ĠÐ¿ÑĢÐ¸Ñĩ": 6853,
      "2011": 6854,
      "Ġveru": 6855,
      "ÑĻÐ¸Ð²Ð¾": 6856,
      "ĠÐ¾Ð±Ð»Ð°ÑģÑĤ": 6857,
      "Ġtelevi": 6858,
      "ĠÑģÐ²ÐµÑĤÑĥ": 6859,
      "ĠÅ¾ivotu": 6860,
      "Ð½Ð°ÑĩÐ°Ñĺ": 6861,
      "lak": 6862,
      "Ð¾Ð³ÑĢÐ°ÑĦÐ¸ÑĺÐ°": 6863,
      "gencije": 6864,
      "ĠznaÄįajan": 6865,
      "ÐµÐºÐµ": 6866,
      "reno": 6867,
      "ĠIta": 6868,
      "Ġcentar": 6869,
      "ĠÑĪÐµÑģÑĤ": 6870,
      "Ġdaleko": 6871,
      "Ġideja": 6872,
      "ĠuÄįestvu": 6873,
      "ĠRusije": 6874,
      "ĠÐ¶ÐµÐ½Ðµ": 6875,
      "Ð°Ð²Ñĥ": 6876,
      "ĠÐĹÐ°": 6877,
      "ĠÐ¿Ð¾ÑģÐ»ÐµÐ´Ð¸ÑĨÐ°": 6878,
      "ĠÐ°Ð³": 6879,
      "Ġkontekstu": 6880,
      "Ġneku": 6881,
      "Ġprostoru": 6882,
      "hodno": 6883,
      "Ġekonomi": 6884,
      "Ġbolji": 6885,
      "ĠÐ·Ð°ÑĺÐµÐ´Ð½Ð¸ÑĨÐµ": 6886,
      "ĠÑģÐ°Ñĩ": 6887,
      "ljujuÄĩi": 6888,
      "ĠÑģÐ²Ð°ÐºÐ¸": 6889,
      "ĠÐ·Ð½Ð°ÑĩÐµÑļÐ°": 6890,
      "ÑģÐ¸": 6891,
      "Ca": 6892,
      ".âĢĿ": 6893,
      "Ġkorona": 6894,
      "ny": 6895,
      "ĠpaÅ¾nju": 6896,
      "mentima": 6897,
      "ene": 6898,
      "ĠÐľÐ¸Ñħ": 6899,
      "ĠÐ·Ð°Ð±ÐµÐ»ÐµÐ¶": 6900,
      "Ġdirektor": 6901,
      "ĠPoruka": 6902,
      "potre": 6903,
      "rnim": 6904,
      "ÐĲÐ½": 6905,
      "Ġkupi": 6906,
      "Ġvideti": 6907,
      "ĠÐ¿ÑĢÐ¸Ð¿ÑĢÐµÐ¼": 6908,
      "Ġdaju": 6909,
      "Ġdes": 6910,
      "Ġana": 6911,
      "Ġbavi": 6912,
      "ĠdoÄĳe": 6913,
      "tnost": 6914,
      "Ð¾ÑĢÑĴ": 6915,
      "nema": 6916,
      "ĠÐ´Ð¾ÐºÐ°Ð·": 6917,
      "ÐµÐºÑĤÐ¸": 6918,
      "ĠCom": 6919,
      "vena": 6920,
      "Ġjedinstve": 6921,
      "Ð°ÑĽÐ¸": 6922,
      "Ġizjavio": 6923,
      "ĠÐ±ÐµÐ·Ð±ÐµÐ´Ð½Ð¾ÑģÑĤÐ¸": 6924,
      "Ġsnaga": 6925,
      "ĠÐĿÐ°ÑĢÐ¾Ð´": 6926,
      "07": 6927,
      "ĠÐ¸Ð·Ñĺ": 6928,
      "EÐİ": 6929,
      "ĠÑĤÐ¸": 6930,
      "ĠÑĦÐµÐ±ÑĢÑĥ": 6931,
      "Ġ1994": 6932,
      "ĠÐ»ÐµÐ³": 6933,
      "logu": 6934,
      "ĠÐ¿ÑĢÐ¾ÑĨÐµÑģÑĥ": 6935,
      "Ġjedini": 6936,
      "stvima": 6937,
      "Ġgeno": 6938,
      "Ġnjen": 6939,
      "tika": 6940,
      "Ġpogleda": 6941,
      "Ð¾Ð½Ð¸Ð¼": 6942,
      "ĠÐ¿Ð¾Ð½Ð¾Ð²Ð¾": 6943,
      "turi": 6944,
      "Ġterito": 6945,
      "Ġakade": 6946,
      "Å¾bi": 6947,
      "ĠÐ·Ð°ÑĥÐ·": 6948,
      "Isto": 6949,
      "Ð¸ÑģÑĤÐ¸ÑĩÐºÐ¸Ñħ": 6950,
      "don": 6951,
      "jno": 6952,
      "ĠÑĥÐ¶": 6953,
      "Ġkiseline": 6954,
      "tivnom": 6955,
      "ÑĢÐ°Ñħ": 6956,
      "sma": 6957,
      "Ġpodse": 6958,
      "kaÅ¾e": 6959,
      "ĠÐ¿ÑĢÐµÐ´Ð¼": 6960,
      "njo": 6961,
      "tete": 6962,
      "ĠÐ¸Ð½ÑĦÐ¾ÑĢÐ¼Ð°ÑĨÐ¸ÑĺÐ°": 6963,
      "ĠÑģÐ°Ð´ÑĢÐ¶Ð°Ñĺ": 6964,
      "Ġnepri": 6965,
      "Vo": 6966,
      "ĠFrancu": 6967,
      "ĠÐ³Ð»Ð¾Ð±": 6968,
      "Ġnekada": 6969,
      "ĠTu": 6970,
      "ĠÐ³ÐµÐ½": 6971,
      "ĠÐ¿Ð¾Ð³Ð»": 6972,
      "Ġosnovne": 6973,
      "Ġposlove": 6974,
      "Ġselek": 6975,
      "ĠsaopÅ¡ti": 6976,
      "ĠkoliÄįi": 6977,
      "ĠÐ½Ð°ÑĺÐ±Ð¾ÑĻ": 6978,
      "É¢É±": 6979,
      "2010": 6980,
      "ĠÐ¿ÑĢÐ¾ÑĥÑĩ": 6981,
      "ĠTabela": 6982,
      "62": 6983,
      "ĠtrÅ¾iÅ¡ta": 6984,
      "Ġpojave": 6985,
      "Ð°ÑģÐ¿Ð¸ÑĤ": 6986,
      "ĠmeÅ¡a": 6987,
      "Ġsastoji": 6988,
      "ĠÐºÐ¾Ð¼Ð±Ð¸Ð½": 6989,
      "Ð³Ð»ÐµÐ´Ð°": 6990,
      "IN": 6991,
      "ÑĥÐ»Ð°ÑĨÐ¸ÑĺÐµ": 6992,
      "ĠÑģÑĤÐ°ÑļÐ°": 6993,
      "Ġokolnosti": 6994,
      "Ġreakcije": 6995,
      "Ġobjavlji": 6996,
      "ÐµÑĢÑĥ": 6997,
      "ĠÐµÐºÑģÐ¿ÐµÑĢÐ¸Ð¼ÐµÐ½ÑĤ": 6998,
      "slika": 6999,
      "Nje": 7000,
      "ĠveliÄįine": 7001,
      "wi": 7002,
      "ĠÐ¿Ð¾ÑģÐµÐ´": 7003,
      "Ġog": 7004,
      "ĠÐ±Ð¸Ð±Ð»Ð¸Ð¾ÑĤ": 7005,
      "Ġsen": 7006,
      "ÐµÐ´ÐµÑĢ": 7007,
      "Ð¾Ð²Ð°Ð»Ð°": 7008,
      "ĠÉ¨Éŀ": 7009,
      "ĠÐ½Ð°ÑģÐµÑĻ": 7010,
      "lnost": 7011,
      "ĠBer": 7012,
      "ĠÐ¿Ð¾ÐºÐ°Ð·ÑĥÑĺÐµ": 7013,
      "Ð¾Ð²Ð½Ð¾": 7014,
      "ĠÐļÑĢÐ°ÑĻÐµÐ²": 7015,
      "Ð´Ð¸": 7016,
      "ĠÑģÑĤÐ°ÑļÐµ": 7017,
      "ĠÑģÑĤÐ°Ð±Ð¸Ð»": 7018,
      "74": 7019,
      "Ġvelikog": 7020,
      "ĠÐµÐ»ÐµÐ¼ÐµÐ½Ð°ÑĤÐ°": 7021,
      "ĠâĢ¦": 7022,
      "Ġsvedo": 7023,
      "ĠÑĤÐ¾ÐºÑĥ": 7024,
      "ĠÐ¿Ð¾ÑģÐ²ÐµÑĽ": 7025,
      "ĠÐ¿ÑĢÐ¾ÑģÑĤÐ¾ÑĢÑĥ": 7026,
      "Ġupotrebu": 7027,
      "Ġkoma": 7028,
      "ĠÑĨÑĢÐºÐ²Ðµ": 7029,
      "ĠÑģÐ¼ÑĢÑĤÐ¸": 7030,
      "Ð¾Ð²Ð°Ð»Ð¸": 7031,
      "ĠÐŁÐµÑĤÑĢ": 7032,
      "Ð°Ð½Ð¸ÑĺÐ°": 7033,
      "Ġeksplo": 7034,
      "Ġinfrastruktu": 7035,
      "ĠÐºÑĢÐ¸Ð·": 7036,
      "MO": 7037,
      "Ġupotrebe": 7038,
      "ĠÑģÑĤÐµÐ¿ÐµÐ½": 7039,
      "zio": 7040,
      "nsku": 7041,
      "Ġbiste": 7042,
      "ĠÐ¼ÐµÐ½Ð°ÑŁ": 7043,
      "ĠÐ¿ÑĢÐ¾Ð³ÑĢÐ°Ð¼Ð°": 7044,
      "ĠVas": 7045,
      "ferencija": 7046,
      "Ġsmatraju": 7047,
      "Ġzaga": 7048,
      "jana": 7049,
      "ĠÐ´ÑĢÑĥÐ³Ð¾Ð³": 7050,
      "mio": 7051,
      "ĠÅ¡kol": 7052,
      "ĠÐ¾Ð´ÑĢÐµÑĴÐµÐ½Ðµ": 7053,
      "jevi": 7054,
      "ĠNATO": 7055,
      "ĠÐ±Ð»Ð°Ð³": 7056,
      "ÑĤÐµÑĢÐ½": 7057,
      "2012": 7058,
      "ÐĺÐ½": 7059,
      "ĠÐ´ÐµÑĤÐ°ÑĻ": 7060,
      "ĠÐ·Ð½Ð°ÑĩÐ°ÑĺÐ°": 7061,
      "matski": 7062,
      "loÅ¡ka": 7063,
      "ĠSer": 7064,
      "Ġdje": 7065,
      "ĠÐ¿Ð¾Ð´Ð°ÑĨÐ¸": 7066,
      "ĠÐĶÑĢ": 7067,
      "ĠÅ¾ivotinja": 7068,
      "Ð¸ÑĺÐ¸Ñħ": 7069,
      "Ġnano": 7070,
      "ĠÑļÐµÐ¼Ñĥ": 7071,
      "ĠÑħÐ¸Ð¿Ð¾ÑĤ": 7072,
      "ĠÐ¿ÑĢÐ¾ÑĪÐ»": 7073,
      "ĠEvropske": 7074,
      "61": 7075,
      "ĠÑĢÐµÑĪÐµÑļÐ°": 7076,
      "ĠÑĦÑĢÐ°Ð½ÑĨÑĥ": 7077,
      "Ġgaran": 7078,
      "ĠÅ¾rt": 7079,
      "dnik": 7080,
      "ÑĥÑĻ": 7081,
      "ĠoÄįu": 7082,
      "val": 7083,
      "ĠÑĤÑĢÐµÑĽ": 7084,
      "ÐµÐºÐ²Ð°ÑĤ": 7085,
      "Ġostali": 7086,
      "Ġnedelje": 7087,
      "Ð¾ÑģÐ°": 7088,
      "Ġpolja": 7089,
      "ĠAn": 7090,
      "2013": 7091,
      "Ð¸Ð½ÑģÐºÐ¸Ñħ": 7092,
      "kiÄĩ": 7093,
      "Ð¸ÑĩÐ½Ð¾ÑģÑĤ": 7094,
      "ĠÑģÐ¸Ð¼Ð±Ð¾Ð»": 7095,
      "ĠÐ¸Ð¼Ð°ÑĤÐ¸": 7096,
      "ĠÐ¸Ð½Ð²ÐµÑģÑĤ": 7097,
      "vela": 7098,
      "Ġdode": 7099,
      "Ġmoje": 7100,
      "Ġtkiva": 7101,
      "Ġprou": 7102,
      "zanja": 7103,
      "ĠÐ¿ÑĥÐ±Ð»": 7104,
      "Ġpretpostav": 7105,
      "ÐŀÐ²Ð°": 7106,
      "Ġprikazani": 7107,
      "Ġmar": 7108,
      "Ġkup": 7109,
      "Ġprati": 7110,
      "ĠÐ¼Ð°Ð³": 7111,
      "Ð¸ÑģÐ°ÑļÐ°": 7112,
      "Ġstatu": 7113,
      "ĠRE": 7114,
      "ĠÑĤÐµÐ»Ð°": 7115,
      "ÑĥÑĢÐ³": 7116,
      "ĠtiÄįe": 7117,
      "ntna": 7118,
      "rus": 7119,
      "Ġgrani": 7120,
      "Ġgene": 7121,
      "Du": 7122,
      "Ġaktivi": 7123,
      "Al": 7124,
      "stali": 7125,
      "ĠÑĤÐ°": 7126,
      "Ġneprija": 7127,
      "Ġkontra": 7128,
      "Ġsrednje": 7129,
      "Ġkrea": 7130,
      "Ð°ÑĢÐµ": 7131,
      "Ġindividual": 7132,
      "Ð°ÑĢÐ½Ðµ": 7133,
      "ĠÐ·Ð°Ð»": 7134,
      "ÐºÑĥÐ¿": 7135,
      "ĠÑģÐ°Ð´ÑĢÐ¶Ð°ÑĺÐ°": 7136,
      "Ġuzra": 7137,
      "Ġsrpski": 7138,
      "orga": 7139,
      "ĠÐ¿ÑĢÐµÑĤÐ¿Ð¾ÑģÑĤÐ°Ð²": 7140,
      "ĠÑģÐ¸Ð³ÑĥÑĢ": 7141,
      "Ġ300": 7142,
      "straÅ¾i": 7143,
      "Ð°ÑĤÐ¸Ð²Ð½Ð°": 7144,
      "ÐµÑĨÐ¸Ð·": 7145,
      "ĠÑĥÐ¿ÑĥÑĽ": 7146,
      "Ġspolja": 7147,
      "ĠÐ´ÐµÐ»Ð°ÑĤ": 7148,
      "vanoviÄĩ": 7149,
      "ĠsadrÅ¾e": 7150,
      "strova": 7151,
      "ĠdeÅ¡ava": 7152,
      "Ġvita": 7153,
      "ĠÑĥÐ³Ð¾Ð²Ð¾ÑĢÐ°": 7154,
      "ĠDO": 7155,
      "Uz": 7156,
      "Ġpregleda": 7157,
      "Ġnaravno": 7158,
      "ĠÑģÐ°Ð´ÑĢÐ¶Ð¸": 7159,
      "ĠÐ°Ð¿Ñģ": 7160,
      "ĠÐ¥ÑĢÐ²Ð°ÑĤ": 7161,
      "ĠÐ¸Ð¼Ð°Ð»Ð¸": 7162,
      "ĠÐ²ÑĢÑħ": 7163,
      "Ð¸Ð³Ð°": 7164,
      "Ġuspostavlja": 7165,
      "ĠÐ¸Ð¿Ð°Ðº": 7166,
      "Samo": 7167,
      "Ġodabra": 7168,
      "ĠÑĢÐ¾Ð±": 7169,
      "ĠHi": 7170,
      "ĠistraÅ¾ivanje": 7171,
      "ĠÐ¿ÑĢÐ°ÐºÑĤ": 7172,
      "Ġraste": 7173,
      "Co": 7174,
      "Ð¸Ð²Ð°ÑĤÐ¸": 7175,
      "Ġpribli": 7176,
      "Ġpm": 7177,
      "ranog": 7178,
      "Ġrelativno": 7179,
      "Ġposlovanja": 7180,
      "ĠnajvaÅ¾": 7181,
      "ĠAko": 7182,
      "Ã£": 7183,
      "ĠÑģÑĥÑĪÑĤ": 7184,
      "Ġmislim": 7185,
      "MS": 7186,
      "Ġposlednjih": 7187,
      "ĠÐ¼Ð¸Ðº": 7188,
      "Ġkilo": 7189,
      "ĠdruÅ¡tvo": 7190,
      "rov": 7191,
      "teo": 7192,
      "Ġtur": 7193,
      "ljivi": 7194,
      "nis": 7195,
      "Ġsamosta": 7196,
      "ĠÐ´Ð¸ÑĺÐ°Ð»": 7197,
      "ÉŁÉ¥": 7198,
      "Ġreleva": 7199,
      "Ġoksida": 7200,
      "ÉļÉ¦": 7201,
      "ĠÐ¼ÐµÑĴÑĥÑģÐ¾Ð±": 7202,
      "Ð¸ÑĢÐ°ÑĤÐ¸": 7203,
      "ÐµÑĺÑĥ": 7204,
      "Ġplu": 7205,
      "ĠÑģÐµÐ±Ðµ": 7206,
      "biÄįa": 7207,
      "ĠÐ¸Ð½ÑģÑĤÑĢÑĥ": 7208,
      "Äįima": 7209,
      "Ð¸ÑĺÐ°Ð»Ð¸Ð·": 7210,
      "ĠÐĲÐ¼ÐµÑĢ": 7211,
      "Ġglasa": 7212,
      "ltra": 7213,
      "Ð¸ÑĦÐµÑĢ": 7214,
      "ĠKe": 7215,
      "Ġgor": 7216,
      "ĠÐºÐ¾Ð½ÑĨÐµÐ¿": 7217,
      "ĠponaÅ¡anje": 7218,
      "Ð²Ð°ÑĢÐ°": 7219,
      "Ð¸Ð²Ð°Ð¾": 7220,
      "Ġnabav": 7221,
      "ĠGr": 7222,
      "tiÄĩ": 7223,
      "Ġsl": 7224,
      "2014": 7225,
      "Ġopravda": 7226,
      "ĠSvet": 7227,
      "ĠÐ¿ÑĢÐ²Ð¾Ð¼": 7228,
      "ĠÑĢÐµÑĩÐµÐ½": 7229,
      "ziji": 7230,
      "Ġpostignu": 7231,
      "Ġsmrti": 7232,
      "cho": 7233,
      "Å¡im": 7234,
      "Ġcivi": 7235,
      "ĠÐ¿Ð¾ÑģÑĤÐ°ÑĺÐµ": 7236,
      "ĠÐ¼ÐµÑħÐ°Ð½Ð¸Ð·": 7237,
      "Ġkoor": 7238,
      "Ġpredsedni": 7239,
      "ĠÐ¸Ð½Ð´Ð¸Ð²Ð¸Ð´Ñĥ": 7240,
      "njenih": 7241,
      "Ġsituacije": 7242,
      "ĠÑĥÐ½Ð°Ð¿ÑĢÐµÑĴ": 7243,
      "ĠÑĺÑĥÐ¶": 7244,
      "Ġpogre": 7245,
      "Ġski": 7246,
      "Ġsata": 7247,
      "zda": 7248,
      "ĠÐ½Ð°ÑģÐµÑĻÐ°": 7249,
      "Ġknjige": 7250,
      "Ġzra": 7251,
      "ĠStra": 7252,
      "ĠÑģÑĤÑĢÑĥÐºÑĤÑĥÑĢÐµ": 7253,
      "zanje": 7254,
      "ĠÐ¸Ðº": 7255,
      "ĠÐºÑļÐ¸Ð¶ÐµÐ²Ð½Ð¾ÑģÑĤÐ¸": 7256,
      "ĠÐ¿Ð¾ÑģÑĤÐ¸Ð³": 7257,
      "Ġdoktor": 7258,
      "kola": 7259,
      "ker": 7260,
      "Ġpromo": 7261,
      "ĠÐľÐ°Ðº": 7262,
      "vgu": 7263,
      "ĠÑĢÐµÐ¿ÑĢÐµÐ·ÐµÐ½ÑĤ": 7264,
      "ĠÑĢÐ°ÑģÐ¿Ð¾Ð»": 7265,
      "Ġlokalne": 7266,
      "Ġflu": 7267,
      "Ġsnim": 7268,
      "ĠÐ·Ð½Ð°ÑĩÐµÑļÐµ": 7269,
      "ÐŀÐ²Ð°Ñĺ": 7270,
      "ÐĿÐ°Ð¸Ð¼Ðµ": 7271,
      "ĠÐ¿ÑĢÐ¾ÑĪÐ¸ÑĢ": 7272,
      "Ġpreuze": 7273,
      "Ġtzv": 7274,
      "ĠÐ¼Ð¸ÑĢ": 7275,
      "Ġjednoj": 7276,
      "velo": 7277,
      "Ġ(''": 7278,
      "²É¬": 7279,
      "Ġsusre": 7280,
      "pove": 7281,
      "siste": 7282,
      "ĠÑĩÐ¸Ð¼Ðµ": 7283,
      "Tokom": 7284,
      "96": 7285,
      "ĠÐ±Ð»Ð¸Ð·": 7286,
      "ĠvraÄĩa": 7287,
      "vera": 7288,
      "É¢É¡": 7289,
      "Ġstri": 7290,
      "Ġobrazovanje": 7291,
      "Ġbre": 7292,
      "É«": 7293,
      "ĠÐĶÐ°Ð½": 7294,
      "Ġobaveze": 7295,
      "ĠÐ³ÑĢÑĥÐ¿Ð¸": 7296,
      "ĠÐ´Ð¾ÑģÑĤÑĥÐ¿": 7297,
      "Ġtakav": 7298,
      "Ġteritoriji": 7299,
      "rd": 7300,
      "ÐµÐºÐ¾": 7301,
      "ĠOp": 7302,
      "ÐłÐĲ": 7303,
      "ĠÐ´ÑĢÐ°Ð¼": 7304,
      "Ġhipote": 7305,
      "ĠÐ¿Ð¾Ð½Ð°ÑĪÐ°ÑļÐ°": 7306,
      "Ð»Ð¸Ð¶": 7307,
      "Ġvre": 7308,
      "Ġroditelji": 7309,
      "Ġtabeli": 7310,
      "Ð°ÑĤÐ¸Ð²Ð½Ð¾Ð³": 7311,
      "ĠÑģÐ½Ð°Ð³Ðµ": 7312,
      "ÐŀÐ±": 7313,
      "ĠÐ¿o": 7314,
      "ĠÐ½Ð°ÑĺÐ²Ð¸ÑĪÐµ": 7315,
      "Ġstabi": 7316,
      "nga": 7317,
      ".(": 7318,
      "âĢķ": 7319,
      "Ġteori": 7320,
      "ĠÐĶÑĢÐ°Ð³": 7321,
      "krimina": 7322,
      "ls": 7323,
      "Pod": 7324,
      "Ġkapitala": 7325,
      "Å¡no": 7326,
      "dimo": 7327,
      "Ġkiselina": 7328,
      "ĠÐºÐ½": 7329,
      "ĠsluÄįajevima": 7330,
      "ljiv": 7331,
      "ÑĺÐµÑĢ": 7332,
      "ĠÑħÑĢÐ¸ÑĪÑĽ": 7333,
      "Ġprirode": 7334,
      "kov": 7335,
      "ĠÐ¿Ð¾Ð»Ð¸ÑĨ": 7336,
      "ÐµÑĦÐ¸ÑĨÐ¸ÑĺÐµ": 7337,
      "hod": 7338,
      "ĠVlade": 7339,
      "Ġalterna": 7340,
      "ĠnaÅ¡oj": 7341,
      "Ġeli": 7342,
      "Ġpokri": 7343,
      "ĠÐ±Ð¾Ð»ÐµÑģÑĤÐ¸": 7344,
      "Ġjedino": 7345,
      "Ð³Ð¾ÑĢ": 7346,
      "Ġ1993": 7347,
      "ĠÐ±ÑĥÐ´Ñĥ": 7348,
      "ĠÐķÐ£": 7349,
      "Ð°ÐºÐ¼": 7350,
      "ĠÐºÐ°Ð¶Ðµ": 7351,
      "znih": 7352,
      "lnik": 7353,
      "luÅ¾be": 7354,
      "ĠEuro": 7355,
      "vencija": 7356,
      "âĢ¦âĢ¦": 7357,
      "Ð¸ÑģÑĤÑĢÐ¸Ð±": 7358,
      "ĠÐºÐ°Ð»": 7359,
      "Å¾ni": 7360,
      "ĠÐ¸Ð»": 7361,
      "stoja": 7362,
      "Fo": 7363,
      "Ġsupru": 7364,
      "ĠÐ·Ð°Ð¿Ð¾Ñĩ": 7365,
      "Ġstari": 7366,
      "Ġstatus": 7367,
      "ĠÐ¼ÑĥÑĪÐºÐ°ÑĢ": 7368,
      "ĠâĪĴ": 7369,
      "ER": 7370,
      "Ġodgovora": 7371,
      "Ġbak": 7372,
      "Ġpredmeta": 7373,
      "ĠÑĥÑĩÐµÑģ": 7374,
      "ĠÑĢÐ°Ð·ÑĥÐ¼ÐµÐ²": 7375,
      "ĠTra": 7376,
      "ĠÑģÑĢÐ¿ÑģÐºÐ¾Ð¼": 7377,
      "ĠÐĿÐ°Ñĺ": 7378,
      "ĠÉ©É¨É": 7379,
      "Ġfu": 7380,
      "ĠWe": 7381,
      "ĠÐ¾Ð²Ñĥ": 7382,
      "Ġtelo": 7383,
      "ĠÐµÐ³": 7384,
      "ĠÐ¿Ð¾ÑĢÐµÑĴ": 7385,
      "ĠÐ³Ð¾Ð´Ð¸Ð½Ð¸": 7386,
      "Ġsmrt": 7387,
      "ĠÐ±ÑĢÐ¾ÑĺÑĥ": 7388,
      "Ð·Ð²": 7389,
      "tnika": 7390,
      "ĠveÄĩina": 7391,
      "produ": 7392,
      "ĠÑģÐ°Ð½": 7393,
      "Ho": 7394,
      "ÑĥÑĢÑģÐ°": 7395,
      "ĠpoveÄĩava": 7396,
      "Ġzele": 7397,
      "Ð°Ð²Ð°Ð¾": 7398,
      "Ġtretmana": 7399,
      "meni": 7400,
      "Ġmeni": 7401,
      "Ġsvaku": 7402,
      "ÐµÐ½Ð°ÑĤ": 7403,
      "pija": 7404,
      "fon": 7405,
      "Ð¾Ð²Ð½Ð¾Ð³": 7406,
      "Ġapsolu": 7407,
      "Ġorije": 7408,
      "ĠÄĨ": 7409,
      "ĠÑģÑĤÐ²Ð¾ÑĢ": 7410,
      "sov": 7411,
      "Ġdobiti": 7412,
      "ĠÐºÐ¾ÑĢÐµÐ»": 7413,
      "ĠÐ½Ð¾Ð²Ð¸": 7414,
      "Ð°ÐºÑĪ": 7415,
      "CR": 7416,
      "ĠÐ¼ÐµÑĢÐµ": 7417,
      "Ru": 7418,
      "boj": 7419,
      "ĠÐ´Ð¾ÑĪÐ»Ð¾": 7420,
      "Äĩima": 7421,
      "Äįavanje": 7422,
      "ĠÅ¡an": 7423,
      "cionali": 7424,
      "Ġzabora": 7425,
      "ĠstruÄįnja": 7426,
      "Ġpato": 7427,
      "Å¾nja": 7428,
      "Ġcito": 7429,
      "ĠÐ¾Ð¿Ð°Ñģ": 7430,
      "ĠÑĤÑĢÐ°Ð³": 7431,
      "Ð¾Ð»Ð¸": 7432,
      "ĠÐºÑĢÐ°ÑĺÐ°": 7433,
      "Ð¾Ð²ÐµÐ´": 7434,
      "ĠÐ¿Ð¾ÑĢÐ¾Ð´Ð¸ÑĨÐµ": 7435,
      "Ġregional": 7436,
      "pije": 7437,
      "Ġputu": 7438,
      "Ġsamim": 7439,
      "Ġprije": 7440,
      "rup": 7441,
      "Ġiznena": 7442,
      "ĠAnd": 7443,
      "Ġnavi": 7444,
      "Ġobjekta": 7445,
      "ĠÐ·Ð°Ð²Ð¸ÑģÐ½Ð¾ÑģÑĤÐ¸": 7446,
      "ĠmoÄĩ": 7447,
      "cro": 7448,
      "Ono": 7449,
      "ÐµÐ·ÑĥÐ»ÑĤÐ°ÑĤÐ¸": 7450,
      "ĠÑĺÐµÐ´Ð½Ð¾ÑģÑĤ": 7451,
      "ĠuÄįestvo": 7452,
      "ĠveÄįe": 7453,
      "gene": 7454,
      "ÐŀÐ²Ð¾": 7455,
      "ÐµÑĢÑĨÐµÐ³Ð¾Ð²": 7456,
      "Ġkontrolu": 7457,
      "Ġvlast": 7458,
      "Ð°ÐºÑĥ": 7459,
      "Ġoslobo": 7460,
      "Ð²ÑĢÑĤ": 7461,
      "Ð³Ð¾Ð²Ð¾ÑĢ": 7462,
      "Ġradnika": 7463,
      "ĠMeÄĳu": 7464,
      "ĠÐ¿Ð¾Ð±ÐµÐ´": 7465,
      "Ð±Ð¾ÑĢ": 7466,
      "Ġpomi": 7467,
      "ĠÐ·Ð°Ð½": 7468,
      "ĠÄįija": 7469,
      "ĠÑĩÐ¾Ð²ÐµÐºÐ°": 7470,
      "Ġsoli": 7471,
      "ĠÑĦÑĥÐ½ÐºÑĨÐ¸Ð¾Ð½": 7472,
      "posle": 7473,
      "Ġstopa": 7474,
      "Ð°ÐºÑĤÐ¸Ð²": 7475,
      "Ġindust": 7476,
      "Drugi": 7477,
      "DP": 7478,
      "Ġpoklo": 7479,
      "ÐµÑĢÐ²": 7480,
      "Ð¾Ð²ÑĺÐµÑĤ": 7481,
      "ĠÐ¾ÑģÐ¾Ð±Ð°": 7482,
      "ĠÑĨÐµÐ½ÑĤ": 7483,
      "________________": 7484,
      "koj": 7485,
      "Ġmanife": 7486,
      "ĠÐ°Ð»Ð±": 7487,
      "nizam": 7488,
      "Ġinova": 7489,
      "intere": 7490,
      "88": 7491,
      "ĠÑģÑĤÐ¸Ð»": 7492,
      "ĠÑģÑĤÑĢÑĥ": 7493,
      "Ð¸Ð¿Ð»Ð¾Ð¼": 7494,
      "ĠÄįlanova": 7495,
      "Ġapri": 7496,
      "Ġdobijenih": 7497,
      "ĠÑĨÑĢÐºÐ²": 7498,
      "laganje": 7499,
      "ĠÐ²ÐµÐ»Ð¸ÐºÐµ": 7500,
      "Ġpromen": 7501,
      "Ð¾Ð·Ðµ": 7502,
      "gena": 7503,
      "Ġteksta": 7504,
      "liÅ¡e": 7505,
      "ĠÐ·Ð°ÑĤÐ²Ð¾ÑĢ": 7506,
      "Ġpouzda": 7507,
      "ĠÐ³Ð¾Ð´Ð¸ÑĪ": 7508,
      "Ð°Ð±Ð¾ÑĢ": 7509,
      "Jedan": 7510,
      "ÐļÐ¾Ð½": 7511,
      "oca": 7512,
      "ĠizraÄįuna": 7513,
      "prkos": 7514,
      "Ġpojedinih": 7515,
      "Ġmje": 7516,
      "Ġtransforma": 7517,
      "ĠÐ¿Ð¾Ð±Ð¾ÑĻÑĪ": 7518,
      "Ġ42": 7519,
      "ĠÐ²Ð»Ð°Ñģ": 7520,
      "ĠÐµÐ»ÐµÐºÑĤÑĢ": 7521,
      "ĠÐ°Ð½Ð³": 7522,
      "ĠÑĢÐ¾ÑĴ": 7523,
      "âĢĺ": 7524,
      "ĠMinistarstva": 7525,
      "ĠÐ¶ÑĢÑĤ": 7526,
      "Ġprihvata": 7527,
      "ĠÑĦÐ°ÐºÑĤÐ¾ÑĢ": 7528,
      "nula": 7529,
      "Äĳar": 7530,
      "ĠÐ¡Ð²": 7531,
      "Ġadministra": 7532,
      "ĠIV": 7533,
      "ĠÐºÐ¾Ð½Ð·": 7534,
      "ĠÐ±Ð¸Ð²": 7535,
      "ĠÐĺÑĤÐ°Ð»": 7536,
      "Äįenju": 7537,
      "Äĩoj": 7538,
      "Ġdrugoj": 7539,
      "Ð¸Ð²Ð°ÑļÐµÐ¼": 7540,
      "up": 7541,
      "ĠpreÅ¾i": 7542,
      "ntni": 7543,
      "ÉĿ": 7544,
      "Ġdelatnosti": 7545,
      "Fi": 7546,
      "ĠVI": 7547,
      "ĠÐ¿Ð¾ÑģÑĤÐ°Ð¾": 7548,
      "Ġsposobnost": 7549,
      "ÐµÑļÐ¸Ð¼Ð°": 7550,
      "Ġhuma": 7551,
      "Ð½ÐµÑĢ": 7552,
      "ĠÉ«ÉŁ": 7553,
      "ĠÑĥÐ¾Ð¿ÑĪÑĤ": 7554,
      "ĠpriÄįe": 7555,
      "ĠÑĤÐ°Ð»": 7556,
      "Ð²ÑĢÑģÑĤ": 7557,
      "Ġinformi": 7558,
      "ĠkoriÅ¡Äĩenjem": 7559,
      "ĠÐ³Ð¾ÑĤÐ¾Ð²Ð¾": 7560,
      "ĠÐ¿Ð¾Ð·Ð¸ÑĨ": 7561,
      "ĠÑĤÐ¸Ñħ": 7562,
      "Ġvrednostima": 7563,
      "Ġizgra": 7564,
      "ĠkoliÄįine": 7565,
      "Ġmnoge": 7566,
      "Ġparla": 7567,
      "ĠÐºÐ°ÑĢÐ°ÐºÑĤÐµÑĢÐ¸ÑģÑĤÐ¸ÐºÐµ": 7568,
      "Ð¾Ð²Ð½Ð¸": 7569,
      "Ð¾ÐºÐ¾": 7570,
      "ĠkuÄĩi": 7571,
      "Ġtehnologija": 7572,
      "2015": 7573,
      "dim": 7574,
      "Ġnaziva": 7575,
      "ĠnaÅ¡ih": 7576,
      "ĠÐ¿ÑĢÐ°ÐºÑģÐ¸": 7577,
      "ĠÐ²Ð°ÑĢÐ¸ÑĺÐ°Ð±": 7578,
      "ĠÐ´Ð¾Ð±Ð°": 7579,
      "ĠvrÅ¡e": 7580,
      "ĠÐ·Ð²Ð°Ð½": 7581,
      "ĠÐ·Ð´ÑĢÐ°Ð²ÑģÑĤÐ²": 7582,
      "Ġsupsta": 7583,
      "Ð°Ð»Ð½Ð¾Ñĺ": 7584,
      "ĠÄįoveka": 7585,
      "ĠÐµÐ½Ð³Ð»Ðµ": 7586,
      "Å¾eno": 7587,
      "Î»": 7588,
      "Ð¾ÑĢÐ³": 7589,
      "ĠÐ·ÐµÐ¼ÑĻÐ°Ð¼Ð°": 7590,
      "mercija": 7591,
      "Ġhra": 7592,
      "snici": 7593,
      "Ġtesta": 7594,
      "Ġshvata": 7595,
      "ĠobjaÅ¡nje": 7596,
      "ĠÐ¾Ð½Ð¸Ñħ": 7597,
      "Ġproizvodi": 7598,
      "ĠBra": 7599,
      "Ġgospo": 7600,
      "Ð°ÑĤÐ¾": 7601,
      "93": 7602,
      "Ð¸ÑĢÐ°Ð½Ð¸Ñħ": 7603,
      "ĠÐ¿ÑĢÐ¾Ð´ÑĥÐº": 7604,
      "Ġsmanjuje": 7605,
      "Ġsrpske": 7606,
      "sad": 7607,
      "ĠpodruÄįja": 7608,
      "ĠÐ²Ð¸Ð´Ð¸": 7609,
      "Ġistom": 7610,
      "ĠÑģÐµÐ±Ð¸": 7611,
      "Ġrazlog": 7612,
      "Ġproizvodnju": 7613,
      "Ð½Ð¾ÑģÐ¸": 7614,
      "Ġendo": 7615,
      "Ð°ÑĩÐºÐ¸Ñħ": 7616,
      "ĠÄĮe": 7617,
      "ĠÐŁÐ°Ð²": 7618,
      "Ġsamog": 7619,
      "ĠÐ¿Ð°Ðº": 7620,
      "2009": 7621,
      "Ġsama": 7622,
      "Ġimple": 7623,
      "ĠÐ¿Ð¾Ð·Ð½": 7624,
      "ĠÑĥÐºÑĻÑĥÑĩÑĥÑĺÑĥÑĽÐ¸": 7625,
      "Å¾iti": 7626,
      "ĠÐºÐ¾Ð½Ð°Ñĩ": 7627,
      "Ð¸ÑĢÐ°ÑļÑĥ": 7628,
      "koho": 7629,
      "Ġsrpskog": 7630,
      "konom": 7631,
      "del": 7632,
      "ĠÐ´ÐµÐº": 7633,
      "ĠÐ¾Ð´Ð¼": 7634,
      "jn": 7635,
      "socija": 7636,
      "Ġradika": 7637,
      "tacija": 7638,
      "Ġkorak": 7639,
      "dri": 7640,
      "Ð°ÑĤÑĥ": 7641,
      "ĠAlba": 7642,
      "ĠÄįinjenica": 7643,
      "Ġvrije": 7644,
      "ĠÑĤÐ°ÐºÐ¼Ð¸Ñĩ": 7645,
      "ĠÐ²Ð°ÑģÐ¿Ð¸ÑĤ": 7646,
      "He": 7647,
      "ĠÐ¼Ð°ÑĢÐº": 7648,
      "ĠÐ¿ÑĢÐ¸ÑĢÐ¾Ð´Ðµ": 7649,
      "ml": 7650,
      "Äįaka": 7651,
      "Ġugovo": 7652,
      "Ġispred": 7653,
      "ĠÐ·Ð°ÑĤÐ¾": 7654,
      "rag": 7655,
      "Ð°Ð¶Ñĥ": 7656,
      "ĠÐ¸ÑģÑĤÐ°Ðº": 7657,
      "ĠÐŁÐ¾Ð´": 7658,
      "znog": 7659,
      "ĠÐ¾Ð±ÑĢÐ°Ð·Ð¾Ð²Ð°ÑļÐ°": 7660,
      "uzima": 7661,
      "ĠÐ¼Ð°ÐºÑģÐ¸Ð¼": 7662,
      "ĠÑĺÑĥÐ³": 7663,
      "ĠÑĦÑĥÐ½ÐºÑĨÐ¸ÑĺÐµ": 7664,
      "Ġskladi": 7665,
      "Ð±Ñĥ": 7666,
      "Ġobuhva": 7667,
      "Ġdese": 7668,
      "Ïĥ": 7669,
      "njim": 7670,
      "ĠÑĥÑĩÐ¸Ð½": 7671,
      "Ġhomo": 7672,
      "gio": 7673,
      "Ġjavnih": 7674,
      "ĠsuÅ¡ti": 7675,
      "Ġsuo": 7676,
      "ÑĢÐ°ÑĦÐ¸Ðº": 7677,
      "Ġbiljaka": 7678,
      "Ġvoza": 7679,
      "ĠJE": 7680,
      "ĠÐ³Ð»ÐµÐ´": 7681,
      "Ġpubli": 7682,
      "Ġsek": 7683,
      "Ġmodu": 7684,
      "Ġvesti": 7685,
      "Ġline": 7686,
      "Ġkance": 7687,
      "ĠÐŁÑĢÐµÐ´": 7688,
      "ĠÄįije": 7689,
      "ĠÐ´Ð¾ÐºÑĤÐ¾ÑĢ": 7690,
      "au": 7691,
      "ĠÑħÐµÐ¼": 7692,
      "Ġindika": 7693,
      "laska": 7694,
      "ĠÑĢÐ°Ð½Ð¸ÑĺÐµ": 7695,
      "voda": 7696,
      "par": 7697,
      "ĠÑģÐ¿ÑĢÐµÑĩ": 7698,
      "ÐºÐ¾Ð²": 7699,
      "Ġseksual": 7700,
      "ĠCon": 7701,
      "Ġprera": 7702,
      "Ġnukle": 7703,
      "Ð¸ÑģÐ°Ðº": 7704,
      "Ġveliku": 7705,
      "Ġoptimi": 7706,
      "Ġ75": 7707,
      "Ġboja": 7708,
      "Ð½Ð¸ÑĩÐºÐ¾Ð³": 7709,
      "ĠÐ¾Ð±Ð¸ÑĩÐ½Ð¾": 7710,
      "Ð¾Ð²Ð°Ð½Ð¾": 7711,
      "ini": 7712,
      "Ð¸ÑĩÐ½Ñĥ": 7713,
      "forme": 7714,
      "ÐŀÐ½": 7715,
      "Ġkomentar": 7716,
      "Ġprojekat": 7717,
      "Ġvole": 7718,
      "lep": 7719,
      "ÐµÑĤÐ°ÑĢÐ°": 7720,
      "Ëĩc": 7721,
      "ĠÐ¸ÑģÑĤÐ¸": 7722,
      "ĠÐ¾Ð±Ð°Ð²": 7723,
      "Ġumetnosti": 7724,
      "Ġkojeg": 7725,
      "Ġodbrane": 7726,
      "Ð»Ð¾Ð²": 7727,
      "Ð°Ð²Ð°ÑļÐµÐ¼": 7728,
      "É¢É¥": 7729,
      "Ġdobra": 7730,
      "nosu": 7731,
      "ÑĤÐµÐ¶": 7732,
      "rine": 7733,
      "cus": 7734,
      "Ġ65": 7735,
      "ĠÐ¿Ð¾Ð·Ð¾ÑĢ": 7736,
      "Ð¸ÑĺÑģÐºÐ¾Ð¼": 7737,
      "ÐºÐ¸Ñħ": 7738,
      "Ġvrata": 7739,
      "noÅ¡Äĩu": 7740,
      "ĠÐ·Ð°ÑĪÑĤÐ¸ÑĤÑĥ": 7741,
      "ĠkaÅ¾u": 7742,
      "feri": 7743,
      "leksi": 7744,
      "Ġamba": 7745,
      "Ġspi": 7746,
      "Ġizvede": 7747,
      "Ġpregled": 7748,
      "ĠmiÅ¡ljenje": 7749,
      "Ġdolara": 7750,
      "Ġkvadra": 7751,
      "ĠÐ¿Ð¾Ð²ÐµÐ·Ð°Ð½": 7752,
      "naro": 7753,
      "ĠParti": 7754,
      "ĠÐ¿ÑĢÐ²Ðµ": 7755,
      "Ġoptima": 7756,
      "nina": 7757,
      "Ġkg": 7758,
      "ĠÑĤÐµÐ¾ÑĢÐ¸Ñĺ": 7759,
      "Ġnismo": 7760,
      "lega": 7761,
      "Å¡an": 7762,
      "Ġdeteta": 7763,
      "Ġzadovolja": 7764,
      "ght": 7765,
      "Ġjedinica": 7766,
      "ĠpredviÄĳa": 7767,
      "Ð½Ð¸ÑĩÐºÐ¸Ñħ": 7768,
      "Ġjanu": 7769,
      "ÑĥÐ´Ð¸": 7770,
      "tnije": 7771,
      "Ġsiro": 7772,
      "ĠÐ¾Ð²Ð´Ðµ": 7773,
      "Ġkarci": 7774,
      "Ð¸ÑĽÐ¸": 7775,
      "ĠÐŀÐ¿": 7776,
      "Ð°ÐºÐµ": 7777,
      "vljena": 7778,
      "ĠporeÄĳenju": 7779,
      "elek": 7780,
      "Ġprave": 7781,
      "ĠÐºÐ¾Ð»Ð¸ÐºÐ¾": 7782,
      "ĠÐ¿ÑĢÐ¸Ð·Ð½": 7783,
      "ĠÑĺÐ¾Ñĺ": 7784,
      "UP": 7785,
      "ĠÐĴÑĥÐº": 7786,
      "tnoj": 7787,
      "Ġ\\": 7788,
      "Äįili": 7789,
      "ĠÐ¿Ð¾Ð²ÐµÑĢ": 7790,
      "ĠÐ¸Ð·Ð±ÐµÐ³": 7791,
      "ĠÐºÑĢÐ¸Ð²Ð¸ÑĩÐ½Ð¾Ð³": 7792,
      "89": 7793,
      "vju": 7794,
      "ĠÐ¿Ð¾ÑĺÐ¼": 7795,
      "ĠÑģÐ²ÑĢ": 7796,
      "Ð¸ÑĩÐºÐ¾Ñĺ": 7797,
      "Ð°Ð±ÑĢÐ°Ð½": 7798,
      "hat": 7799,
      "king": 7800,
      "Ġosnovnih": 7801,
      "ĠÐļÐ¾ÑĢ": 7802,
      "ĠloÅ¡e": 7803,
      "Ġneda": 7804,
      "ĠÐ´ÑĢÑĥÐ³Ð°": 7805,
      "ÑĢÐ°Ð²Ð¾": 7806,
      "ĠÐŀÑĢ": 7807,
      "ĠÐ¿ÑĢÐ¾Ð¸Ð·Ð²Ð¾Ð´ÑļÐµ": 7808,
      "ĠAleksand": 7809,
      "ĠÅ¡kola": 7810,
      "Ð»Ð°ÑĪÑĽ": 7811,
      "Ġgore": 7812,
      "Ġreli": 7813,
      "Ð¸ÑĺÐµÐ²": 7814,
      "ĠÑģÑĤÐ°ÑĤÑĥÑģ": 7815,
      "ÐĲÐºÐ¾": 7816,
      "Ġuloga": 7817,
      "ĠÐ²ÑĢÑĪÐ¸": 7818,
      "EÑķ": 7819,
      "Ġtehnologije": 7820,
      "Ð¾ÑģÐ»ÐµÐ´": 7821,
      "ĠÐºÐ¾Ð³Ð°": 7822,
      "Ġpute": 7823,
      "loÅ¡kim": 7824,
      "dine": 7825,
      "ĠÑĥÑĤÐ²ÑĢÐ´": 7826,
      "ĠÑģÐ¿Ð¾ÑĢÐ°Ð·": 7827,
      "ĠÑĥÑģÑĤÐ°Ð½": 7828,
      "ĠÐ²Ð°Ð·Ð´ÑĥÑħ": 7829,
      "ĠÑĥÐ¿ÑĢÐ°Ð²ÑĻÐ°ÑļÐ°": 7830,
      "ĠÅ": 7831,
      "ĠÑĴ": 7832,
      "Ġobole": 7833,
      "ĠuÄįeÅ¡Äĩe": 7834,
      "ĠÐ·Ð°ÐºÐ¾Ð½Ð°": 7835,
      "Ġtrgo": 7836,
      "ĠveÄĩu": 7837,
      "ĠÐ½Ð°ÑĩÐ¸Ð½Ð°": 7838,
      "Ġbira": 7839,
      "ĠÐ½Ð°ÑģÑĤÑĥÐ¿": 7840,
      "ÐŁÐ¾": 7841,
      "ÑĥÐ´Ð±": 7842,
      "ĠÑģÐ¸ÑģÑĤÐµÐ¼Ñĥ": 7843,
      "Ġzapre": 7844,
      "ĠÑĤÑĢÐ°Ð½ÑģÐ¿": 7845,
      "ĠovlaÅ¡Äĩe": 7846,
      "ĠÐ¼ÐµÑĤÐ¾Ð´Ðµ": 7847,
      "GA": 7848,
      "ĠÐ¾ÐºÑĢ": 7849,
      "Ð²Ð¸Ñħ": 7850,
      "Ã¬": 7851,
      "veza": 7852,
      "ferent": 7853,
      "ÐŁÑĢÐµÐ´": 7854,
      "ĠÐ¼ÐµÑĴÑĥÑĤÐ¸Ð¼": 7855,
      "Ġogleda": 7856,
      "Nema": 7857,
      ".âĢĵ": 7858,
      "Ġdobili": 7859,
      "ĠnaÄįe": 7860,
      "Ġostaje": 7861,
      "ĠistraÅ¾ivanju": 7862,
      "ÐĿÐ£": 7863,
      "Ġbiv": 7864,
      "500": 7865,
      "ĠdogaÄĳaja": 7866,
      "ĠÐ¾ÑĪÑĤÐµÑĽ": 7867,
      "ĠÐ³ÑĢÐµÑĪ": 7868,
      "ĠÐ³ÑĢÐ¾Ð±": 7869,
      "mbar": 7870,
      "Ġdijagnosti": 7871,
      "pp": 7872,
      "ĠÐ´Ð¾Ð±ÑĢ": 7873,
      "Ġ150": 7874,
      "Ġpropa": 7875,
      "ĠÐ¿Ð¾ÐºÐ°Ð·ÑĥÑĺÑĥ": 7876,
      "Ð¸Ð½Ð³Ð²": 7877,
      "Ġpripa": 7878,
      "Ġglasnik": 7879,
      "ĠÑģÐ°Ð¼Ð¾ÑģÑĤ": 7880,
      "ĠÐ¿Ð¾ÑĩÐµÑĤÐºÑĥ": 7881,
      "ĠÑĢÐ¸Ð·Ð¸ÐºÐ°": 7882,
      "ĠÐ¸ÑģÑĤÐ¾Ñĩ": 7883,
      "ĠÎ¼": 7884,
      "Ã§": 7885,
      "ĠÑģÐµÐ»Ð°": 7886,
      "ntnih": 7887,
      "Ġlj": 7888,
      "ĠÐ´ÐµÑĺ": 7889,
      "Ð¾ÑĢÐ¸Ð·": 7890,
      "ĠÑĥÑģÐ¿ÐµÑħ": 7891,
      "Å¾na": 7892,
      "ĠÅ½i": 7893,
      "ĠÄįasova": 7894,
      "ĠÐ¿ÑĢÐµÐ³Ð»ÐµÐ´": 7895,
      "ĠÄįaso": 7896,
      "Ge": 7897,
      "Ġalgo": 7898,
      "ĠÐŁÐ¾Ð¿": 7899,
      "ĠÐ´Ð¾Ð±Ð¸Ñĺ": 7900,
      "ĠÑĥÑĤÐ¸ÑĩÐµ": 7901,
      "ĠsaobraÄĩaj": 7902,
      "Ġlinija": 7903,
      "Ġurba": 7904,
      "Ġjos": 7905,
      "ĠÐ¾ÑģÐ¸Ð¼": 7906,
      "Ġznaju": 7907,
      "ĠÐ½ÐµÐºÐ¸Ð¼": 7908,
      "Ð°ÑĢÐ½Ð¸": 7909,
      "ĠÑĪÐºÐ¾Ð»Ð°": 7910,
      "Â»": 7911,
      "ĠÐ¿Ð°ÑĤÑĢ": 7912,
      "ĠÉŀÉļ": 7913,
      "Ġmatemati": 7914,
      "ÐŁÐ¾ÑģÑĤ": 7915,
      "sk": 7916,
      "ĠÐ¿Ð¾Ð´ÑĢÑĥÑĩÑĺÐ°": 7917,
      "mb": 7918,
      "ĠÐ¿ÑĢÐµÑĢ": 7919,
      "niÄĩ": 7920,
      "ĠLju": 7921,
      "ktoru": 7922,
      "ĠÐºÐ¾Ð¼Ð°Ð½Ð´": 7923,
      "ĠÐºÐ¾ÑĺÐ¾Ð¼": 7924,
      "ĠJugoslavije": 7925,
      "ÑĥÑĽÐ°": 7926,
      "ĠÐºÐ»Ð°ÑģÐ¸ÑĦÐ¸Ðº": 7927,
      "ĠÐµÐºÑģÑĤ": 7928,
      "ĠÐºÐ¾Ð¼Ð¿Ð¾Ð·": 7929,
      "ĠÐ²Ð¾Ð´Ð¸": 7930,
      "Ġprobleme": 7931,
      "Ð¾Ð²Ð¾ÑĢ": 7932,
      "Ð¸ÑģÐ¿": 7933,
      "Ġ1989": 7934,
      "ĠÉļ": 7935,
      "Ġatmos": 7936,
      "ĠÐ¾Ð±Ð»Ð¸ÐºÑĥ": 7937,
      "ĠÐ½Ð°Ð¿ÑĢÐµÐ´": 7938,
      "Ġrezultatima": 7939,
      "ĠÑļÐ¸ÑħÐ¾Ð²Ð¾Ð³": 7940,
      "the": 7941,
      "ĠÐºÑļÐ¸Ð³Ð°": 7942,
      "ĠÐ¿ÑĢÐ¸Ð»Ð°Ð³": 7943,
      "ĠÑģÑĤÑĥÐ´Ð¸ÑĺÐµ": 7944,
      "Ġstepena": 7945,
      "lati": 7946,
      "Ġ55": 7947,
      "vano": 7948,
      "Ġvazduha": 7949,
      "Mar": 7950,
      "Ð¿ÑĢÐµ": 7951,
      "Ġinstitucija": 7952,
      "Ġmagne": 7953,
      "Ð¾Ð»Ð¾ÑĪÐºÐ¾Ð³": 7954,
      "ÑĢÑĥÐ³Ð°": 7955,
      "ĠÑĤÐ¸Ð¼Ðµ": 7956,
      "Å¡en": 7957,
      "Ġrat": 7958,
      "valo": 7959,
      "Ġ44": 7960,
      "ĠÐļÐ»": 7961,
      "ĠÐ²ÐµÑĽÐµ": 7962,
      "ljenju": 7963,
      "ya": 7964,
      "Ġdalji": 7965,
      "ĠÐ½Ð¸ÑĤÐ¸": 7966,
      "TS": 7967,
      "ĠÐ²ÐµÐºÑĥ": 7968,
      "97": 7969,
      "Ġnemogu": 7970,
      "Ġovako": 7971,
      "ĠÐ¿Ð¾ÑģÐ»ÐµÐ´Ñļ": 7972,
      "ĠÑĺÐµÐ´Ð¸Ð½Ð¸ÑĨÐ°": 7973,
      "ĠpoÄįinje": 7974,
      "Ġrazgova": 7975,
      "ĠmuÅ¡kar": 7976,
      "OS": 7977,
      "ĠÑĦÑĥÐ½ÐºÑĨÐ¸ÑĺÐ°": 7978,
      "ÐµÐ´Ð¾Ð½": 7979,
      "ĠgraÄĳevi": 7980,
      "ĠÐ¾ÑģÐ²Ð¾Ñĺ": 7981,
      "Ġhar": 7982,
      "ĠÐºÐ»ÑĥÐ±": 7983,
      "port": 7984,
      "Ð¸Ð²Ð°Ð»": 7985,
      "ĠÑģÐ²ÐµÑĤÑģÐºÐ¾Ð³": 7986,
      "Ġgranice": 7987,
      "ĠKar": 7988,
      "Ġgovore": 7989,
      "vnik": 7990,
      "rur": 7991,
      "ĠnaÅ¡u": 7992,
      "dak": 7993,
      "ĠÐ¼Ð¾Ð»": 7994,
      "ĠÐ¸ÑģÑĤÐ¾Ð²ÑĢÐµÐ¼ÐµÐ½Ð¾": 7995,
      "Ð¾ÑģÐº": 7996,
      "Ġstimu": 7997,
      "Ġ>": 7998,
      "Ġputovanja": 7999,
      "Ð²Ð¾Ð´": 8000,
      "ĠVr": 8001,
      "Ð¾Ð¼Ð¸Ð½": 8002,
      "ĠÅ¡irom": 8003,
      "Äįavaju": 8004,
      "nijim": 8005,
      "ĠangaÅ¾o": 8006,
      "ĠÐ¿Ð¾ÑĺÐ°Ð²ÑĻ": 8007,
      "ĠKri": 8008,
      "âĢ¡": 8009,
      "ĠÐ¸ÑģÑĤÐ¸ÑĩÐµ": 8010,
      "kupi": 8011,
      "Ġbaze": 8012,
      "Kad": 8013,
      "ĠÐ¸Ð·Ð½Ð¾ÑģÐ¸": 8014,
      "Ġnjene": 8015,
      "Ð¿ÑĢÐµÑĤ": 8016,
      "ĠÐ½ÐµÐ´Ð¾ÑģÑĤÐ°ÑĤ": 8017,
      "ĠÐ½Ð°ÑĺÐ²ÐµÑĽ": 8018,
      "ĠÂ°": 8019,
      "ĠÐºÐ¸Ñģ": 8020,
      "naca": 8021,
      "ĠÄĮa": 8022,
      "Ġstranke": 8023,
      "ĠME": 8024,
      "ĠÑĢÐ°ÑģÐ¿ÑĢ": 8025,
      "ÑĽÐ¸": 8026,
      "tike": 8027,
      "ntan": 8028,
      "ĠÐºÐ²Ð°Ð»Ð¸ÑĦÐ¸Ðº": 8029,
      "Ġsja": 8030,
      "Ġnovim": 8031,
      "ĠÐĲÐ»Ð±": 8032,
      "Ġzavr": 8033,
      "ĠÐ¾ÑĢÑĥÐ¶": 8034,
      "kg": 8035,
      "ANJE": 8036,
      "ZA": 8037,
      "ĠÑģÐ½Ð¸Ð¼": 8038,
      "zmi": 8039,
      "Ġsajtu": 8040,
      "Ġupla": 8041,
      "ĠTre": 8042,
      "ĠÐ·Ð°ÑģÑĤÑĥÐ¿ÑĻ": 8043,
      "Ġpropi": 8044,
      "Ġkomponente": 8045,
      "Ġcar": 8046,
      "Ġpake": 8047,
      "vodom": 8048,
      "ĠÐ¿ÑĢÐµÐ´Ð¼ÐµÑĤÐ°": 8049,
      "Ġ.-": 8050,
      "Ġjednostavno": 8051,
      "Ġdiskrimina": 8052,
      "Ġmale": 8053,
      "Ġnapred": 8054,
      "ys": 8055,
      "ĠCi": 8056,
      "sobno": 8057,
      "Ġdeset": 8058,
      "ĠSad": 8059,
      "Ð¾Ð¼ÐµÑĤÑĢ": 8060,
      "ĠÐ¼Ð¾ÑĢÐ°ÑĺÑĥ": 8061,
      "Äĩene": 8062,
      "ĠÑģÐ¿Ð¾ÑģÐ¾Ð±Ð½Ð¾ÑģÑĤÐ¸": 8063,
      "Ġpostojanje": 8064,
      "Ð¸Ð½ÑģÐºÐ°": 8065,
      "ĠÑĺÐµÐ´Ð¸Ð½ÑģÑĤÐ²": 8066,
      "ticaj": 8067,
      "ĠÑģÐ°Ð·Ð½": 8068,
      "Ġmobi": 8069,
      "LU": 8070,
      "Ġzemlju": 8071,
      "Ġprimena": 8072,
      "ĠÐ°Ð½Ð³Ð°Ð¶": 8073,
      "ĠÐ´ÑĢÑĥÐ³Ð°Ñĩ": 8074,
      "Ġpapi": 8075,
      "ĠÐ¿ÑĢÐµÑĨÐ¸Ð·": 8076,
      "ĠÐ°Ð¼Ð±": 8077,
      "Ð¡Ð¢": 8078,
      "94": 8079,
      "Ġsin": 8080,
      "put": 8081,
      "let": 8082,
      "ncije": 8083,
      "Ġ64": 8084,
      "Ġorigi": 8085,
      "ĠÐ¿ÑĢÐ¾ÑĦÐµÑģÐ¸Ð¾Ð½Ð°Ð»": 8086,
      "Ġpat": 8087,
      "Ġ400": 8088,
      "ĠÐ¾Ð´Ð»ÑĥÐºÐ°": 8089,
      "ĠÑĢÐ°Ð·ÑĢÐµÐ´": 8090,
      "Osno": 8091,
      "ĠÑļÐµÐ³Ð¾Ð²Ð¾": 8092,
      "ĠduÅ¾e": 8093,
      "Ġkompozi": 8094,
      "Ġstavove": 8095,
      "ĠÐŁÐµÑĤ": 8096,
      "ĠÐ¸ÑģÑĤÑĢÐ°Ð¶Ð¸Ð²Ð°ÑļÐµ": 8097,
      "lovi": 8098,
      "rnom": 8099,
      "ĠÑĺÐ°Ð²ÑĻÐ°": 8100,
      "ĠÐ½Ð¾ÑģÐ¸": 8101,
      "ĠÐ´Ð¾Ñģ": 8102,
      "Ð¾Ð±ÑĢ": 8103,
      "ĠÐ³ÑĢÐ°ÑĴÐµÐ²": 8104,
      "Ġ1941": 8105,
      "Ð¸ÑĤÐµÑĤÑĥ": 8106,
      "vlada": 8107,
      "ĠÐĳÐµÐ¾Ð³": 8108,
      "ĠBan": 8109,
      "ĠÐ·Ð»": 8110,
      "ĠÐ¸Ð·Ð²ÐµÐ´": 8111,
      "Ġveb": 8112,
      "ork": 8113,
      "Ġnajpo": 8114,
      "Ġvelikih": 8115,
      "Ġodluku": 8116,
      "ĠÐ»Ð¸ÑĩÐ½Ð¾ÑģÑĤÐ¸": 8117,
      "ÐŁÐ¾Ð´": 8118,
      "Ġonaj": 8119,
      "Ġdrugu": 8120,
      "kedo": 8121,
      "vljuje": 8122,
      "ĠÐĳÐµÐ»": 8123,
      "Ġpodu": 8124,
      "izvo": 8125,
      "ĠuÄįenja": 8126,
      "ĠÐ´ÐµÐ¿": 8127,
      "Ð¾Ð¼Ð°ÑĤ": 8128,
      "Åłto": 8129,
      "Ha": 8130,
      "ĠKosova": 8131,
      "cka": 8132,
      "Ġwith": 8133,
      "deset": 8134,
      "Ġkampa": 8135,
      "ĠNova": 8136,
      "Ġnpr": 8137,
      "ĠSkup": 8138,
      "Å¡kog": 8139,
      "ĠÑĢÐµÐ»Ð¸Ð³": 8140,
      "ĠÐ¿Ð¾ÑģÑĢÐµÐ´": 8141,
      "Ġnjihovu": 8142,
      "ĠÐ¼ÐµÑĢÐ°": 8143,
      "biÄįaje": 8144,
      "ĠMI": 8145,
      "ĠÐ½Ð°Ð·Ð¸Ð²Ð°": 8146,
      "Ð°Ð²Ð°ÑĺÑĥÑĽÐ¸": 8147,
      "Ġpritiska": 8148,
      "Ġzatvore": 8149,
      "ÐŀÐĴ": 8150,
      "Ku": 8151,
      "Ġ41": 8152,
      "ÐµÑģÐµÑĤÐ¸Ñħ": 8153,
      "ia": 8154,
      "Ġtvrdi": 8155,
      "Ġvirusa": 8156,
      "Ð»Ð°Ñĩ": 8157,
      "Å¡njem": 8158,
      "Ġproizvode": 8159,
      "jskoj": 8160,
      "Ġdakle": 8161,
      "Ġodsu": 8162,
      "Ġmoj": 8163,
      "Ġupa": 8164,
      "ff": 8165,
      "nia": 8166,
      "ĠÐ¿ÑĢÐ°ÑĤ": 8167,
      "tovi": 8168,
      "ĠÄĮlan": 8169,
      "ĠdoÄĩi": 8170,
      "Ġ43": 8171,
      "Ð°ÑĢÐ¼": 8172,
      "Ġnastavi": 8173,
      "Ġvezu": 8174,
      "ĠÐ¼Ð»": 8175,
      "ĠÐ¸ÑģÑĤÐµ": 8176,
      "ĠstanovniÅ¡tva": 8177,
      "Ð°Ð½ÑģÐºÐ¸Ñħ": 8178,
      "ĠopÅ¡tine": 8179,
      "Lo": 8180,
      "Ġpotrebna": 8181,
      "ĠÐ·Ð´ÑĢ": 8182,
      "ÐµÐ·Ðµ": 8183,
      "ĠÐ¿Ð¾Ð»Ð¾Ð¶Ð°Ñĺ": 8184,
      "Ġizrazi": 8185,
      "ĠnovÄįa": 8186,
      "Ð¸ÑģÐ°Ð½Ð°": 8187,
      "Pose": 8188,
      "Ð°ÐºÑĨÐ¸ÑĺÐ°": 8189,
      "Å¡avaju": 8190,
      "So": 8191,
      "Ġref": 8192,
      "ÑĥÐ»Ðµ": 8193,
      "ĠPetro": 8194,
      "ĠÐ¿ÑĢÐ²Ð¾Ð³": 8195,
      "ĠÐ½Ð°ÑĺÐ²ÐµÑĽÐ¸": 8196,
      "Ð¾ÑģÐ»Ðµ": 8197,
      "ĠÐ·Ð³": 8198,
      "Ġpotpisa": 8199,
      "ĠÐ²ÐµÑĽÐ°": 8200,
      "Ð²Ð¸Ð´": 8201,
      "Ġciklu": 8202,
      "ĠÐ½ÐµÑģÑĤ": 8203,
      "vljen": 8204,
      "ĠÐĿÐ°ÐºÐ¾Ð½": 8205,
      "ĠÐ·Ð°ÐºÐ¾Ð½Ð¾Ð´Ð°Ð²": 8206,
      "Ġinternet": 8207,
      "ĠCen": 8208,
      "Ġcrkve": 8209,
      "Ġzbi": 8210,
      "Ð°ÑĪÐ°": 8211,
      "ĠÐ¾Ð±Ð°": 8212,
      "Ġbele": 8213,
      "ĠDA": 8214,
      "tona": 8215,
      "Ġ120": 8216,
      "Ġotvo": 8217,
      "nts": 8218,
      "ĠSrpske": 8219,
      "ĠÑģÑĢÐµÐ´ÑģÑĤÐ°Ð²Ð°": 8220,
      "ĠÑĨÐ¸ÐºÐ»": 8221,
      "Ġtraje": 8222,
      "Ġuskla": 8223,
      "ĠÐ¼Ð°Ð»Ð¾": 8224,
      "rsa": 8225,
      "Ġzanima": 8226,
      "Ġproiz": 8227,
      "ĠÐ½ÐµÐ¾Ð¿ÑħÐ¾Ð´Ð½Ð¾": 8228,
      "ĠkoliÄįina": 8229,
      "ĠpolitiÄįke": 8230,
      "ÐĿÐĲ": 8231,
      "Ġkvanti": 8232,
      "vljeno": 8233,
      "Ġscena": 8234,
      "2008": 8235,
      "Ġvari": 8236,
      "Ġhrvat": 8237,
      "ĠuspeÅ¡no": 8238,
      "ĠÐķÐ½": 8239,
      "Ð¸Ð²Ðµ": 8240,
      "ĠÐ´Ð¸ÑģÑĤÑĢÐ¸Ð±": 8241,
      "ĠÐ¡ÑĤÐµÑĦ": 8242,
      "ĠÐ¿ÑĢÐ°Ð²Ð¸Ð»": 8243,
      "lana": 8244,
      "ĠÐ·ÐµÐ¼ÑĻÐ¸ÑĪÑĤÐ°": 8245,
      "ĠzaÅ¡titi": 8246,
      "Ð°ÑĢÐº": 8247,
      "sani": 8248,
      "Ð¸ÑģÑĤÐ¸ÑĩÐºÐ°": 8249,
      "ĠÐ¾Ð¿Ñģ": 8250,
      "Ġroditelja": 8251,
      "lli": 8252,
      "Ġzanim": 8253,
      "Ġopozi": 8254,
      "ĠÐµÐ»ÐµÐºÑĤÑĢÐ¾Ð½": 8255,
      "ĠÑĤÐµÑĢÐ¼": 8256,
      "ĠÐºÐ°ÑĢÐ°ÐºÑĤÐµÑĢÐ¸ÑģÑĤÐ¸ÐºÐ°": 8257,
      "Å¡ne": 8258,
      "Ġmladih": 8259,
      "Ð¾ÑĢÐ¾Ð´": 8260,
      "ĠÐ´ÐµÑģÐµÑĤ": 8261,
      "ĠdruÅ¡tvu": 8262,
      "Äįari": 8263,
      "Ġregistrova": 8264,
      "stveno": 8265,
      "krip": 8266,
      "ÑĤÑĥÐµÐ»": 8267,
      "deli": 8268,
      "Ð½Ð¾Ð¿ÑĢÐ°Ð²": 8269,
      "Ð¸Ð½ÑĤ": 8270,
      "Ð¾Ð±Ð¸Ð»": 8271,
      "Ð°ÑĨÐ¸Ð¾Ð½Ðµ": 8272,
      "ĠÐ¿ÑĢÐ°ÑĽ": 8273,
      "cno": 8274,
      "Ġizvr": 8275,
      "Ġprocenu": 8276,
      "Ġ.\"": 8277,
      "ĠÐ¸Ð½ÑĤÐµÑĢÐ²": 8278,
      "Ġparametri": 8279,
      "ĠÐ´Ð²Ð¾ÑĢ": 8280,
      "Ġisporu": 8281,
      "ĠÐ¥ÐµÑĢÑĨÐµÐ³Ð¾Ð²": 8282,
      "Naslov": 8283,
      "Ġceo": 8284,
      "ĠÑĪÑĥÐ¼": 8285,
      "Ġlabora": 8286,
      "Ġjavne": 8287,
      "ĠÐ½Ð°ÑĺÐ·": 8288,
      "ĠÑģÐ¾Ð±": 8289,
      "ĠÐ·Ð½Ð°ÑĩÐ°ÑĺÐ½Ð°": 8290,
      "Ġobavesti": 8291,
      "snoj": 8292,
      "Äİe": 8293,
      "vek": 8294,
      "raca": 8295,
      "Ġmana": 8296,
      "Ġprate": 8297,
      "ĠSrba": 8298,
      "ĠÐľÐ¸Ð½Ð¸ÑģÑĤÐ°ÑĢ": 8299,
      "Ð½ÐµÑĤ": 8300,
      "ĠRepublici": 8301,
      "ĠÐ¿ÑĢÐµÐ½Ð¾Ñģ": 8302,
      "ktivno": 8303,
      "ĠÐºÐ¾ÐµÑĦÐ¸ÑĨÐ¸ÑĺÐµ": 8304,
      "ĠÐ¸Ð½ÑĦÐ¾ÑĢÐ¼Ð°ÑĨÐ¸ÑĺÐµ": 8305,
      "ĠtaÄįno": 8306,
      "ĠÐ¾Ð´ÐµÑĻ": 8307,
      "ĠpoveÄĩanja": 8308,
      "ĠÐĲÑĤ": 8309,
      "ĠÐ»ÐµÐ¿": 8310,
      "Ġprodaje": 8311,
      "ĠÐ³ÑĢÑĩ": 8312,
      "ĠÐ½ÐµÑĽÐµ": 8313,
      "ĠÐŁÑĢÐ°Ð²": 8314,
      "ĠÐ³Ð¾Ð´Ð¸Ð½Ñĥ": 8315,
      "Ġzadu": 8316,
      "Ġtekst": 8317,
      "Ġistakao": 8318,
      "Ġsnagu": 8319,
      "Ġfabri": 8320,
      "Ã¦": 8321,
      "Ġukaza": 8322,
      "Ðī": 8323,
      "ĠÑĩÐµÑģÑĤ": 8324,
      "ĠÎ±": 8325,
      "Ġresursa": 8326,
      "Ġjedinice": 8327,
      "ih": 8328,
      "Ġmorfo": 8329,
      "Ġdisertacija": 8330,
      "rajuÄĩi": 8331,
      "ĠÑģÑĤÑĢÐ°Ð½Ð¸": 8332,
      "ÑĢÐµÑĪ": 8333,
      "Ġodi": 8334,
      "%).": 8335,
      "ĠvaÅ¡": 8336,
      "ranim": 8337,
      "ĠÐľÐµÑĴÑĥÑĤÐ¸Ð¼": 8338,
      "Ġpodnosi": 8339,
      "Ð¸Ð½Ð°ÑĢ": 8340,
      "MP": 8341,
      "Ġinostran": 8342,
      "ĠkoÅ¡ta": 8343,
      "ord": 8344,
      "Ġkombi": 8345,
      "ÑħÐ¾Ð´Ð½Ð¾": 8346,
      "ĠÑĥÐ³ÑĢ": 8347,
      "ĠÐŀÐ»": 8348,
      "ĠÐ¡ÑĢÐ±Ð¸ÑĺÐ°": 8349,
      "ÑģÐµ": 8350,
      "vnosti": 8351,
      "Ġuklanja": 8352,
      "Ġstavlja": 8353,
      "2016": 8354,
      "ĠÑģÑĥÐ´Ð°": 8355,
      "ĠÑģÐµÐ³": 8356,
      "Ġporek": 8357,
      "Ð¸ÑģÑĤÐ¸ÑĩÐºÐ¾Ð³": 8358,
      "ĠÐºÐ°Ð¿Ð°ÑĨ": 8359,
      "ĠÐ¿Ð¾Ð²ÑĢÐµÐ´": 8360,
      "ÐµÐ½ÑĤÐ¸Ð¼Ð°": 8361,
      "ĠPD": 8362,
      "Ġoktobra": 8363,
      "SKI": 8364,
      "ĠHerce": 8365,
      "ot": 8366,
      "Ð¸Ð·Ð°ÑĨÐ¸ÑĺÐ°": 8367,
      "Ġzla": 8368,
      "har": 8369,
      "konstru": 8370,
      "ĠpovrÅ¡ina": 8371,
      "Ġportala": 8372,
      "ĠÐĳÐµÐ¾Ð³ÑĢÐ°Ð´Ð°": 8373,
      "Ġvaspita": 8374,
      "âĪĴ": 8375,
      "Ġprogla": 8376,
      "knu": 8377,
      "Ġtakve": 8378,
      "ĠÑĢÐµÑĦÐµÑĢ": 8379,
      "Ð»Ð¸ÑĨ": 8380,
      "oksida": 8381,
      "tosti": 8382,
      "Ġperi": 8383,
      "Ð¸ÑĦÐµÑģÑĤ": 8384,
      "Äįica": 8385,
      "Ġprocene": 8386,
      "ĠÐ½Ð°Ð³Ð»Ð°ÑĪ": 8387,
      "ĠÐľÐµÑĤ": 8388,
      "Äĩom": 8389,
      "ÐĺÐĪ": 8390,
      "Ġkontinui": 8391,
      "ĠÐ¿Ð¾ÐºÐ»": 8392,
      "bde": 8393,
      "Ġnapla": 8394,
      "Ġdelova": 8395,
      "Ġpopulacije": 8396,
      "ÑĥÑĤÐ¾ÑĢ": 8397,
      "ĠÐ´Ð¸Ð½Ð°Ð¼": 8398,
      "Ġposledice": 8399,
      "blio": 8400,
      "Ġsocio": 8401,
      "ĠTele": 8402,
      "Ġistog": 8403,
      "ĠÐ·Ð°ÑģÐ½": 8404,
      "Ġnjoj": 8405,
      "Ġpodstica": 8406,
      "Äĩanje": 8407,
      "TU": 8408,
      "rp": 8409,
      "91": 8410,
      "ĠÐ¾Ð¼Ð¾Ð³ÑĥÑĽÐ°Ð²Ð°": 8411,
      "ĠÑĤÑĥÐ¶": 8412,
      "Ġtima": 8413,
      "Ġdogodi": 8414,
      "ĠuÄįesta": 8415,
      "ĠÐ¸ÑģÐ¿Ð¸ÑĤÐ¸Ð²": 8416,
      "ĠÉ§Éļ": 8417,
      "Ð¾Ð¼Ðµ": 8418,
      "ÄĮe": 8419,
      "gy": 8420,
      "ĠÑĦÑĥÐ½ÐºÑĨÐ¸Ð¾Ð½Ð°Ð»": 8421,
      "ĠdomaÄĩin": 8422,
      "Ġvizu": 8423,
      "mit": 8424,
      "ĠÑģÐ°Ð³Ð»ÐµÐ´": 8425,
      "ĠÑĢÐ°Ð´Ð¾Ð²Ð°": 8426,
      "ĠÐ´Ð¾Ð²Ð¾ÑĻÐ½Ð¾": 8427,
      "ĠsaopÅ¡te": 8428,
      "ĠÑĺÐ°": 8429,
      "ĠÐ½ÐµÐ²": 8430,
      "kako": 8431,
      "Ġbrzine": 8432,
      "Ġnepre": 8433,
      "ĠpodruÄįju": 8434,
      "ĠÐ¸ÑģÐºÐ°Ð·": 8435,
      "Ġnikad": 8436,
      "ĠÑĦÐ¸Ð»Ð¾Ð·Ð¾ÑĦ": 8437,
      "ĠÐ¾ÑĢÐ¸ÑĺÐµÐ½ÑĤ": 8438,
      "hom": 8439,
      "ĠÐ¼ÑĺÐµ": 8440,
      ".:": 8441,
      "Ġsmanjenja": 8442,
      "Ġkriteriju": 8443,
      "vka": 8444,
      "npr": 8445,
      "Ġradnog": 8446,
      "ĠÄįesti": 8447,
      "OG": 8448,
      "Ġstalno": 8449,
      "ĠÐ·Ð½Ð°ÑĩÐ°ÑĺÐ°Ð½": 8450,
      "Ġpartner": 8451,
      "Ġdobijeni": 8452,
      "rijama": 8453,
      "ĠÐ¿Ð¾Ð¼Ð¾ÑĽÑĥ": 8454,
      "É¨É¥": 8455,
      "ĠÑĥÐ¿Ð¾ÑĤÑĢÐµÐ±Ðµ": 8456,
      "Ġkategorije": 8457,
      "Ġalkoho": 8458,
      "Prvi": 8459,
      "Pu": 8460,
      "Ġfrancu": 8461,
      "ĠobjaÅ¡njava": 8462,
      "ĠreÅ¡i": 8463,
      "ÑĻÐ¸Ð²Ðµ": 8464,
      "ZI": 8465,
      "zaciju": 8466,
      "ÐµÑĪÑĤÐ°Ñĺ": 8467,
      "kovima": 8468,
      "Ġprikuplja": 8469,
      "ĠÐ¾Ð±Ð·Ð¸ÑĢ": 8470,
      "Ġuklo": 8471,
      "Ġmetodom": 8472,
      "Ġedu": 8473,
      "bje": 8474,
      "Ð°ÑĩÐºÐ¾Ñĺ": 8475,
      "Ð°Ð³Ð°ÑļÐ°": 8476,
      "ĠÑĤÐº": 8477,
      "Ġhiper": 8478,
      "ĠÑĥÑģÑĤÐ°Ð²": 8479,
      "Ġopreme": 8480,
      "ĠGu": 8481,
      "ĠÐ¿Ð¾ÑģÑĤÑĥÐ¿ÐºÑĥ": 8482,
      "Ġdobri": 8483,
      "Ġdetalj": 8484,
      "jenja": 8485,
      "mili": 8486,
      "ĠÑģÐ°Ñģ": 8487,
      "Ð°Ð½Ð¸Ð¼Ð°": 8488,
      "Ġcentru": 8489,
      "Ġkratko": 8490,
      "Ġpostao": 8491,
      "É¢É°": 8492,
      "Ġspada": 8493,
      "Ġnjegovom": 8494,
      "tskog": 8495,
      "Ġrobe": 8496,
      "cin": 8497,
      "Ġtero": 8498,
      "Ġgovor": 8499,
      "ĠÐ¾Ð±ÑĥÑħÐ²Ð°ÑĤÐ°": 8500,
      "ÑĨÐ¸Ð¿Ð»": 8501,
      "Pi": 8502,
      "ĠÐ¾Ð¿ÑĤÐ¸Ð¼": 8503,
      "ĠÑģÑĢÐµÐ´ÑģÑĤÐ²Ð°": 8504,
      "ĠÐµÐ½ÐµÑĢÐ³Ð¸ÑĺÐµ": 8505,
      "ĠÐ³Ð»ÑĥÐ¼": 8506,
      "MoÅ¾e": 8507,
      "ĠÐľÐ°ÑĤ": 8508,
      "ĠBrita": 8509,
      "ĠÐ¿Ð¾ÑģÑĤÑĥÐ¿ÐºÐ°": 8510,
      "gura": 8511,
      "ĠÑĺÐµÐ´Ð½": 8512,
      "Ġpriprema": 8513,
      "ĠÐĲÑĥÑģÑĤÑĢ": 8514,
      "ĠistraÅ£i": 8515,
      "Ġfakultet": 8516,
      "Ġzaintere": 8517,
      "Ġsvima": 8518,
      "ĠIsto": 8519,
      "ĠÐ¾Ð±ÑĺÐµÐºÐ°ÑĤÐ°": 8520,
      "ĠStu": 8521,
      "Ġregionu": 8522,
      "ĠÑĤÑĢÐ°Ð½ÑģÑĦÐ¾ÑĢÐ¼": 8523,
      "ĠukljuÄįi": 8524,
      "Ġmin": 8525,
      "Ġdimenzija": 8526,
      "Ovi": 8527,
      "ĠÐ¾Ð´Ð»ÑĥÐºÐµ": 8528,
      "ĠÐºÐ¾Ð½ÑĦ": 8529,
      "Ġefikasnosti": 8530,
      "ĠÐ´ÐµÐ±": 8531,
      "ĠÐ½Ð°ÑĥÐºÐ°": 8532,
      "Ġpozori": 8533,
      "85": 8534,
      "ÑģÑĤÐ°": 8535,
      "Ġsprovodi": 8536,
      "ĠÐ²ÐµÐ·Ðµ": 8537,
      "Ġpritisak": 8538,
      "roviÄĩ": 8539,
      "Ġkaza": 8540,
      "ĠÐºÑļÐ¸Ð³Ðµ": 8541,
      "Å¡kih": 8542,
      "Ġnjegovim": 8543,
      "ĠBar": 8544,
      "ĠÐ¼Ð¾Ð³Ð»Ð°": 8545,
      "ĠÑģÐ°Ð²ÐµÐ·": 8546,
      "Å¾enju": 8547,
      "Ġcelu": 8548,
      "Ġplat": 8549,
      "mentari": 8550,
      "ďă": 8551,
      "ĠÐ¿Ð¾ÑģÑĤÑĥÐ¿Ð°Ðº": 8552,
      "SC": 8553,
      "Ð°ÑĻÐµ": 8554,
      "ĠÑĩÑĥÐ²": 8555,
      "ĠtaÄįka": 8556,
      "ÐĹÐ±Ð¾Ð³": 8557,
      "Ġsezone": 8558,
      "znu": 8559,
      "Ġpriori": 8560,
      "Ġprojekto": 8561,
      "Ġodgovornost": 8562,
      "ĠCrve": 8563,
      "Ġpravu": 8564,
      "ÐµÐ½Ð¸Ðº": 8565,
      "ĠSadu": 8566,
      "Ġnado": 8567,
      "ĠÑģÐ»Ð¸ÐºÐ°": 8568,
      "ĠÐ·Ð°Ð²Ð¸ÑģÐ¸": 8569,
      "Ġmenta": 8570,
      "ĠCu": 8571,
      "ĠÐķÐ²ÑĢÐ¾Ð¿Ðµ": 8572,
      "ĠÐ¾Ð±ÐµÐ·Ð±ÐµÐ´": 8573,
      "Ð¸ÑĢÐ°Ð½Ð¾": 8574,
      "ĠÑļÐ¸ÑħÐ¾Ð²Ð°": 8575,
      "kor": 8576,
      "Ð¸Ð³Ð¸ÑĤ": 8577,
      "ĠnaÅ¡a": 8578,
      "ĠÑģÑĤÑĢÑĥÐºÑĤÑĥÑĢÐ°": 8579,
      "ĠÐºÐ¾Ñģ": 8580,
      "zin": 8581,
      "ĠÑģÐ²ÑĢÑħ": 8582,
      "ĠCO": 8583,
      "dama": 8584,
      "ĠÐ°Ð³ÑĢ": 8585,
      "Ġogrom": 8586,
      "Ġsignala": 8587,
      "Ġperspe": 8588,
      "ĠÐĲÐ½ÑĤ": 8589,
      "ĠMiha": 8590,
      "nae": 8591,
      "Ð¾ÑĤÐµ": 8592,
      "riÅ¡Äĩe": 8593,
      "ĠÑĢÐ°Ð·Ð¼Ð°ÑĤÑĢ": 8594,
      "ĠRA": 8595,
      "Ġcelokup": 8596,
      "ĠÐºÐ¾Ð³": 8597,
      "Ð¸ÑĨÐ°Ñĺ": 8598,
      "ĠÅła": 8599,
      "Ġfunkciju": 8600,
      "ĠÐ´ÐµÐ¼Ð¾ÐºÑĢÐ°ÑĤ": 8601,
      "ele": 8602,
      "ĠdruÅ¡tvene": 8603,
      "Ġotpada": 8604,
      "Ð¼Ð¸Ð½Ð¸ÑģÑĤÑĢ": 8605,
      "Ġkretanja": 8606,
      "ÐļÑĢ": 8607,
      "ÐµÑĢÐ½": 8608,
      "org": 8609,
      "Ġregiona": 8610,
      "OVA": 8611,
      "Ð¾Ð´Ð½ÐµÐ²": 8612,
      "teh": 8613,
      "ĠÐ¼Ð¸Ð½Ð¸Ð¼": 8614,
      "que": 8615,
      "lat": 8616,
      "Ġminera": 8617,
      "ĠÐ³Ð»Ð°Ð²Ð½Ð¸": 8618,
      "ĠÐ¿ÑĢÐ¸ÑģÑĤÑĥÐ¿Ð°": 8619,
      "ĠÑģÑĥÐ¼": 8620,
      "ĠÐ»ÐµÑĤ": 8621,
      "pravi": 8622,
      "Ġmetaboli": 8623,
      "ĠÑĢÐµÑĦÐ¾ÑĢÐ¼": 8624,
      "Ġciljeva": 8625,
      "land": 8626,
      "ĠÑģÐ»Ð¾Ñĺ": 8627,
      "Ð·Ð°": 8628,
      "ĠÑģÑĤÑĥÐ´Ð¸ÑĺÐ°": 8629,
      "Ġlinije": 8630,
      "Ġanaliti": 8631,
      "ÐŁÑĢÐ¸Ð¼": 8632,
      "ĠÐ½Ð°ÑģÐ»ÐµÑĴ": 8633,
      "Ð¸ÑģÐ°Ð½Ð¸": 8634,
      "Ġby": 8635,
      "ĠÐ·Ð±Ð¸ÑĢ": 8636,
      "ĠÑĨÐ¸Ð²": 8637,
      "ĠÐĵÐ¾ÑĢ": 8638,
      "ĠÐ°Ð½Ð°Ð»": 8639,
      "Ju": 8640,
      "Ġnovu": 8641,
      "ĠÑĥÑģÐ»ÑĥÐ³Ð°": 8642,
      "Ġ46": 8643,
      "ĠÐ·Ð½Ð°ÑĤÐ½Ð¾": 8644,
      "ĠÐ¿Ð¾Ñħ": 8645,
      "ĠÅłe": 8646,
      "ĠnaÅ¡im": 8647,
      "ĠDE": 8648,
      "Ġprocenat": 8649,
      "ĠÐ¾ÑģÑĤÐ°Ð»Ð¸Ñħ": 8650,
      "tac": 8651,
      "ĠLon": 8652,
      "ĠodreÄĳeni": 8653,
      "Ġciljem": 8654,
      "ĠÐ»Ð¸ÑĨÐµ": 8655,
      "ÐµÐ½Ð¸ÑĺÐµ": 8656,
      "ĠÑĩÐ»Ð°Ð½Ð¾Ð²Ð°": 8657,
      "Ð°Ð²ÑĻÐµ": 8658,
      "ĠÐ¿Ð¾ÑĪÑĤÐ¾": 8659,
      "ĠÐľÐ¸Ð»Ð¾ÑĪ": 8660,
      "Å¾enih": 8661,
      "ĠÐļÐ¾Ð»": 8662,
      "ĠIZ": 8663,
      "ĠÐ¼ÐµÐ´Ð¸ÑĨ": 8664,
      "ĠÐĪÐµÐ´": 8665,
      "Ð¸ÑĺÐµÐ½": 8666,
      "ĠKako": 8667,
      "Ġnauka": 8668,
      "ĠÐ¸Ð·Ð²Ð¾ÑĢÐ°": 8669,
      "Ð°Ð½Ð¾Ñĺ": 8670,
      "ĠÑĤÐµÐºÑģÑĤÐ°": 8671,
      "Ġnjegovu": 8672,
      "Ġtki": 8673,
      "Ġcrve": 8674,
      "ĠÐ¼Ð¾Ð³Ð»Ð¸": 8675,
      "ĠÑħÑĥÐ¼": 8676,
      "Ð°Ð»Ð¸Ð·Ð°ÑĨÐ¸ÑĺÐµ": 8677,
      "ĠoruÅ¾": 8678,
      "ÑĻÐ¸Ð²Ð°": 8679,
      "ĠproÅ¡le": 8680,
      "Ġbrojne": 8681,
      "ĠÐ¿ÑĢÐµÐ´Ð»Ð¾Ð¶": 8682,
      "ĠÐ°Ð´ÐµÐºÐ²Ð°ÑĤ": 8683,
      "Ð¸Ð±ÑĢ": 8684,
      "snom": 8685,
      "Ġcrno": 8686,
      "Ð¸Ð´ÑĢ": 8687,
      "ĠMeto": 8688,
      "ĠÑĩÐ¸ÑļÐµÐ½Ð¸ÑĨÐ°": 8689,
      "Ð¸Ð²Ð¸": 8690,
      "ĠÑļÐ¸ÑħÐ¾Ð²Ð¸Ñħ": 8691,
      "ĠÐ½Ð°ÑģÐ¸ÑĻ": 8692,
      "Ġkarti": 8693,
      "jna": 8694,
      "ÑĨÐ¸ÑĺÐ¸": 8695,
      "ĠÉĿ": 8696,
      "Ġblizi": 8697,
      "ĠÑĺÐ°Ð²Ð½Ð¾Ð³": 8698,
      "Ġ95": 8699,
      "Naravno": 8700,
      "ĠTV": 8701,
      "ĠÄįestica": 8702,
      "Âł": 8703,
      "Ê¼": 8704,
      "ÐµÐ²Ð°Ð½ÑĤ": 8705,
      "Ġborbe": 8706,
      "ÐµÑģÐ°": 8707,
      "hy": 8708,
      "ras": 8709,
      "lle": 8710,
      "ĠlakÅ¡e": 8711,
      "Ġeven": 8712,
      "ljava": 8713,
      "Ð¸ÐºÐ¸": 8714,
      "Ġbitno": 8715,
      "Ġukupnog": 8716,
      "Ġmolekula": 8717,
      "ĠbuduÄĩnosti": 8718,
      "Ġzadatak": 8719,
      "KE": 8720,
      "Å¡tvu": 8721,
      "Ġá¼": 8722,
      "Ġnjihovim": 8723,
      "Å¾avanje": 8724,
      "ÑĥÑĨÐ¸": 8725,
      "ĠtreÄĩi": 8726,
      "ĠÐ´Ð¾Ð½Ð¾ÑĪ": 8727,
      "ĠÐ¼Ð°Ðº": 8728,
      "Ð¸ÑĢÐµ": 8729,
      "ĠIL": 8730,
      "Å¾avaju": 8731,
      "ĠÑģÐ»ÐµÐ´ÐµÑĽ": 8732,
      "Ġdeluje": 8733,
      "ĠGore": 8734,
      "ĠÐ»Ð¾ÑĪ": 8735,
      "Ġponavlja": 8736,
      "teli": 8737,
      "vajanje": 8738,
      "ĠbuduÄĩi": 8739,
      "ĠÐ¿Ð¾ÑĺÐµÐ´Ð¸Ð½Ð¸Ñħ": 8740,
      "ĠÐ¸Ð·Ð²ÐµÑģ": 8741,
      "á¿": 8742,
      "ĠÐ¸Ð½ÑģÑĤÑĢÑĥÐ¼ÐµÐ½ÑĤ": 8743,
      "ps": 8744,
      "Ġodgovori": 8745,
      "Ġiskoristi": 8746,
      "ĠDrÅ¾a": 8747,
      "liteta": 8748,
      "ĠPan": 8749,
      "povi": 8750,
      "Ġ1988": 8751,
      "Ġmakro": 8752,
      "ĠÑģÐ²Ð°": 8753,
      "Ġstoji": 8754,
      "Ġmaterijal": 8755,
      "ĠÐ¿ÑĢÐ¸ÐºÑĥÐ¿ÑĻ": 8756,
      "ĠÐ¾Ð¿ÑĢÐ°Ð²": 8757,
      "ĠÐ¿Ð¾ÑĤÑĢÐµÐ±Ð°": 8758,
      "îĢ": 8759,
      "Ġnauke": 8760,
      "ÐºÐ¾Ñģ": 8761,
      "Ġdepo": 8762,
      "ĠÐ¾Ð±ÑĢ": 8763,
      "ĠMinistarstvo": 8764,
      "Ġtemperatura": 8765,
      "ĠÐ±ÑĥÐ´ÑĥÑĽÐ¸": 8766,
      "Ġkal": 8767,
      "gov": 8768,
      "Ġolak": 8769,
      "ĠoÅ¡teÄĩenja": 8770,
      "ĠnaÄĩi": 8771,
      "ĠÐ¸ÑģÐ¿ÑĥÑļ": 8772,
      "ĠÐ»Ð¸ÑĨ": 8773,
      "Ġ1980": 8774,
      "rku": 8775,
      "ĠÑģÐ²ÐµÐ´Ð¾Ñĩ": 8776,
      "ĠÐ½Ð¾Ð²Ð¾Ð³": 8777,
      "ĠÑļÐ¸ÑħÐ¾Ð²Ð¾": 8778,
      "Ġuprave": 8779,
      "ÑĥÑŁ": 8780,
      "Ġosiguranja": 8781,
      "Ġtrajanja": 8782,
      "xi": 8783,
      "tis": 8784,
      "mato": 8785,
      "ĠÐ¿ÑĢÐ²Ð¾": 8786,
      "ÑĢÑĥÐ´": 8787,
      "ĠÐ¿ÑĢÐ°Ð²Ð¾ÑģÐ»Ð°Ð²": 8788,
      "Äİu": 8789,
      "gledno": 8790,
      "Ð¸Ð¿Ð°": 8791,
      "Ð¸Ñı": 8792,
      "Ġsame": 8793,
      "nskoj": 8794,
      "ĠRado": 8795,
      "ÑĦÐ¾ÑĢÐ¼Ð°Ð½Ñģ": 8796,
      "Ġfaktori": 8797,
      "ĠÉĭ": 8798,
      "Ġustanova": 8799,
      "ĠÐ¿Ð¾ÑĩÐµÑĤÐºÐ°": 8800,
      "ĠPA": 8801,
      "Ð¾Ð»Ð¾ÑĪÐºÐ°": 8802,
      "Ġprakse": 8803,
      "Ð°Ð²ÑĻÐ°ÑļÐ°": 8804,
      "timo": 8805,
      "Ġprene": 8806,
      "ÐµÑĢÐ¼": 8807,
      "ÑĻÐµÐ½Ð°": 8808,
      "Ġvlade": 8809,
      "ĠÐ¿Ð¾ÑĤÐ¿ÑĥÐ½Ð¾ÑģÑĤÐ¸": 8810,
      "ĠkuÄĩa": 8811,
      "ljivih": 8812,
      "Ġporodica": 8813,
      "Ġprikaz": 8814,
      "Ġpreo": 8815,
      "Ð¾Ð±Ð¸Ñĩ": 8816,
      "ĠNaj": 8817,
      "Ġnastavlja": 8818,
      "Danas": 8819,
      "Äįnik": 8820,
      "ĠÐ¿Ð¾Ð´ÑĢÑĥÑĩÑĺÑĥ": 8821,
      "leta": 8822,
      "Ð¾Ð±Ð¸ÑĤ": 8823,
      "Ġtranzi": 8824,
      "znaÄįaj": 8825,
      "Ġavgu": 8826,
      "spira": 8827,
      "Ġmasa": 8828,
      "2007": 8829,
      "lera": 8830,
      "lon": 8831,
      "Ð°Ð»Ð½Ð¾ÑģÑĤÐ¸": 8832,
      "Ġideo": 8833,
      "cena": 8834,
      "Ð¾ÐºÑĥÐ¿": 8835,
      "ĠÐĳÐ¾Ð¶": 8836,
      "ĠUN": 8837,
      "psi": 8838,
      "Ġinspe": 8839,
      "ĠreÄįe": 8840,
      "ĠÐºÐ¾ÑĢÐ¿": 8841,
      "dnja": 8842,
      "car": 8843,
      "Ġefikasnost": 8844,
      "njenje": 8845,
      "Ġmotiva": 8846,
      "ĠgraÄĳani": 8847,
      "Ġteorije": 8848,
      "Ġkomunikacije": 8849,
      "ĠÑģÐ½Ð°Ð³Ð°": 8850,
      "Ġmala": 8851,
      "Ġispitivanje": 8852,
      "Ġprvih": 8853,
      "ĠSla": 8854,
      "tivnost": 8855,
      "Ġstudiji": 8856,
      "Ð¾Ð²ÐµÐº": 8857,
      "ÐĲÐ¢": 8858,
      "Ġintervju": 8859,
      "Ð¾ÑĢÐ´Ð¸Ð½": 8860,
      "ĠÐ¸Ð·Ð³ÑĥÐ±": 8861,
      "Ð¸ÑģÑĤÐµ": 8862,
      "lizam": 8863,
      "Gla": 8864,
      "Ġkapaciteta": 8865,
      "Ġimam": 8866,
      "Ġane": 8867,
      "vinu": 8868,
      "Ġposlednje": 8869,
      "ĠtaÄįke": 8870,
      "Ġada": 8871,
      "Ġ72": 8872,
      "ĠÐ´Ð¸Ð¿Ð»Ð¾Ð¼": 8873,
      "logiji": 8874,
      "ĠÐ³ÐµÐ¾Ð³ÑĢÐ°ÑĦ": 8875,
      "Stoga": 8876,
      "kupan": 8877,
      "ĠÑļÐµÐ³Ð¾Ð²Ð¾Ð¼": 8878,
      "Ð¸ÑĺÐ°Ð»Ð½Ðµ": 8879,
      "ĠÐ´Ð¾Ð±Ð¸Ð¾": 8880,
      "ĠÐ¿Ð¾ÑģÐ»Ð¾Ð²Ð°": 8881,
      "ĠÑĥÐ¾Ð¿ÑĪÑĤÐµ": 8882,
      "Ġmetodo": 8883,
      "¬ģ": 8884,
      "Å¡o": 8885,
      "ĠÐ¼Ð¸ÑĤ": 8886,
      "diÄĩ": 8887,
      "ĠÐ¿Ð¾Ð»Ð¸ÑĤÐ¸ÑĩÐºÐµ": 8888,
      "Ġpredme": 8889,
      "Ð°ÑĢÐ´Ð°": 8890,
      "ĠpodrÅ¡ke": 8891,
      "ĠÐ¾ÑģÐ½Ð¾Ð²Ð½Ðµ": 8892,
      "gore": 8893,
      "Ð²Ð°ÑĻ": 8894,
      "ĠÐ´ÐµÑĩ": 8895,
      "ĠÑģÐ»ÐµÐ´ÐµÑĽÐµ": 8896,
      "ĠÑĥÐºÐ°Ð·ÑĥÑĺÑĥ": 8897,
      "Ġubije": 8898,
      "Ġmetala": 8899,
      "ĠÐ²ÑĢÐ°ÑĤ": 8900,
      "ĠIN": 8901,
      "ÑĢÐ°ÑģÑĤ": 8902,
      "Å¡tava": 8903,
      "ang": 8904,
      "ĠCD": 8905,
      "ÐµÑĢÑģ": 8906,
      "ĠÐ¼Ð°Ð½Ð¸ÑĦÐµÑģÑĤ": 8907,
      "vini": 8908,
      "Ð¸Ð½Ð¾": 8909,
      "2022": 8910,
      "ĠÐ¿ÐµÐ´": 8911,
      "Î·": 8912,
      "ĠÏĦ": 8913,
      "likom": 8914,
      "manu": 8915,
      "Ġstariji": 8916,
      "ĠÐ¿ÐµÑģÐ¼Ðµ": 8917,
      "Ġokre": 8918,
      "Ð°Ð»ÐµÑĢ": 8919,
      "Ġimovi": 8920,
      "urnal": 8921,
      "Fa": 8922,
      "ĠÐ´Ð¾Ð¼Ð¸Ð½Ð°Ð½ÑĤ": 8923,
      "Ġstro": 8924,
      "ĠÐ·Ð°Ð¿ÑĢÐ°Ð²Ð¾": 8925,
      "Ġtehnika": 8926,
      "lov": 8927,
      "Ġrastvora": 8928,
      "RS": 8929,
      "Ð°ÑĩÐºÐ¾Ð¼": 8930,
      "ĠÐ¾ÑĩÑĥÐ²": 8931,
      "ÑĥÑĽÐµ": 8932,
      "Ġnere": 8933,
      "ĠÐ¾ÑģÑĤÐ°Ð²": 8934,
      "ĠÐ´Ð¸Ð·": 8935,
      "ljenosti": 8936,
      "ĠÐ½Ð°ÐºÐ½": 8937,
      "Ġvrstu": 8938,
      "Ġsektora": 8939,
      "zorak": 8940,
      "Ġpreuzima": 8941,
      "Ġkomercija": 8942,
      "ĠÐºÐ¾Ð½Ð²": 8943,
      "Ġnju": 8944,
      "ĠÐ´Ð¾Ð²Ð¾Ð´Ð¸": 8945,
      "Ð¸Ð²Ð°Ð»Ð°": 8946,
      "Ġstrategije": 8947,
      "ÐĿÐµ": 8948,
      "Ġprojekata": 8949,
      "novima": 8950,
      "ĠÑĥÑģÐ»Ð¾Ð²Ð°": 8951,
      "Ġterapije": 8952,
      "ĠÑĦÑĥÐ´Ð±": 8953,
      "ĠVuÄįi": 8954,
      "Äĩete": 8955,
      "grama": 8956,
      "Treba": 8957,
      "ĠÑļÐµÐ½": 8958,
      "ĠÑĥÐ»Ð°Ð·": 8959,
      "Ġlista": 8960,
      "Äĳenjem": 8961,
      "ĠÐ¾ÐºÑĥÐ¿": 8962,
      "ktorska": 8963,
      "zad": 8964,
      "Ġnada": 8965,
      "ÐºÐ¾Ð»Ð¸ÐºÐ¾": 8966,
      "ĠÐ¡Ð°Ð²ÐµÐ·": 8967,
      "Ġnajvi": 8968,
      "rovi": 8969,
      "86": 8970,
      "Ġ47": 8971,
      "ĠÐ°Ð½Ð°Ð»Ð¸Ð·Ñĥ": 8972,
      "Ð¸ÑĩÐ°ÑĢÐ°": 8973,
      "Ð²ÐµÐ´": 8974,
[...]
