{
  "version": "1.0",
  "truncation": null,
  "padding": null,
  "added_tokens": [
    {
      "id": 0,
      "content": "[PAD]",
      "single_word": false,
      "lstrip": false,
      "rstrip": false,
      "normalized": false,
      "special": true
    },
    {
      "id": 1,
      "content": "[UNK]",
      "single_word": false,
      "lstrip": false,
      "rstrip": false,
      "normalized": false,
      "special": true
    },
    {
      "id": 2,
      "content": "[CLS]",
      "single_word": false,
      "lstrip": false,
      "rstrip": false,
      "normalized": false,
      "special": true
    },
    {
      "id": 3,
      "content": "[SEP]",
      "single_word": false,
      "lstrip": false,
      "rstrip": false,
      "normalized": false,
      "special": true
    },
    {
      "id": 4,
      "content": "[MASK]",
      "single_word": false,
      "lstrip": false,
      "rstrip": false,
      "normalized": false,
      "special": true
    }
  ],
  "normalizer": null,
  "pre_tokenizer": {
    "type": "ByteLevel",
    "add_prefix_space": true,
    "trim_offsets": true,
    "use_regex": true
  },
  "post_processor": null,
  "decoder": null,
  "model": {
    "type": "BPE",
    "dropout": null,
    "unk_token": null,
    "continuing_subword_prefix": null,
    "end_of_word_suffix": null,
    "fuse_unk": false,
    "byte_fallback": false,
    "ignore_merges": false,
    "vocab": {
      "[PAD]": 0,
      "[UNK]": 1,
      "[CLS]": 2,
      "[SEP]": 3,
      "[MASK]": 4,
      "!": 5,
      "\"": 6,
      "#": 7,
      "$": 8,
      "%": 9,
      "&": 10,
      "'": 11,
      "(": 12,
      ")": 13,
      "*": 14,
      "+": 15,
      ",": 16,
      "-": 17,
      ".": 18,
      "/": 19,
      "0": 20,
      "1": 21,
      "2": 22,
      "3": 23,
      "4": 24,
      "5": 25,
      "6": 26,
      "7": 27,
      "8": 28,
      "9": 29,
      ":": 30,
      ";": 31,
      "<": 32,
      "=": 33,
      ">": 34,
      "?": 35,
      "@": 36,
      "A": 37,
      "B": 38,
      "C": 39,
      "D": 40,
      "E": 41,
      "F": 42,
      "G": 43,
      "H": 44,
      "I": 45,
      "J": 46,
      "K": 47,
      "L": 48,
      "M": 49,
      "N": 50,
      "O": 51,
      "P": 52,
      "Q": 53,
      "R": 54,
      "S": 55,
      "T": 56,
      "U": 57,
      "V": 58,
      "W": 59,
      "X": 60,
      "Y": 61,
      "Z": 62,
      "[": 63,
      "\\": 64,
      "]": 65,
      "^": 66,
      "_": 67,
      "`": 68,
      "a": 69,
      "b": 70,
      "c": 71,
      "d": 72,
      "e": 73,
      "f": 74,
      "g": 75,
      "h": 76,
      "i": 77,
      "j": 78,
      "k": 79,
      "l": 80,
      "m": 81,
      "n": 82,
      "o": 83,
      "p": 84,
      "q": 85,
      "r": 86,
      "s": 87,
      "t": 88,
      "u": 89,
      "v": 90,
      "w": 91,
      "x": 92,
      "y": 93,
      "z": 94,
      "{": 95,
      "|": 96,
      "}": 97,
      "~": 98,
      "¡": 99,
      "¢": 100,
      "£": 101,
      "¤": 102,
      "¥": 103,
      "¦": 104,
      "§": 105,
      "¨": 106,
      "©": 107,
      "ª": 108,
      "«": 109,
      "¬": 110,
      "®": 111,
      "¯": 112,
      "°": 113,
      "±": 114,
      "²": 115,
      "³": 116,
      "´": 117,
      "µ": 118,
      "¶": 119,
      "·": 120,
      "¸": 121,
      "¹": 122,
      "º": 123,
      "»": 124,
      "¼": 125,
      "½": 126,
      "¾": 127,
      "¿": 128,
      "Â": 129,
      "Ã": 130,
      "Ä": 131,
      "Å": 132,
      "Æ": 133,
      "Ç": 134,
      "È": 135,
      "É": 136,
      "Ê": 137,
      "Ë": 138,
      "Ì": 139,
      "Í": 140,
      "Î": 141,
      "Ï": 142,
      "Ð": 143,
      "Ñ": 144,
      "Ò": 145,
      "Ó": 146,
      "Ô": 147,
      "Õ": 148,
      "Ö": 149,
      "×": 150,
      "Ø": 151,
      "Ù": 152,
      "Ú": 153,
      "Û": 154,
      "Ü": 155,
      "Ý": 156,
      "Þ": 157,
      "ß": 158,
      "à": 159,
      "á": 160,
      "â": 161,
      "ã": 162,
      "ä": 163,
      "å": 164,
      "æ": 165,
      "ç": 166,
      "è": 167,
      "é": 168,
      "ê": 169,
      "ë": 170,
      "ì": 171,
      "í": 172,
      "î": 173,
      "ï": 174,
      "ð": 175,
      "ó": 176,
      "ô": 177,
      "Ā": 178,
      "ā": 179,
      "Ă": 180,
      "ă": 181,
      "Ą": 182,
      "ą": 183,
      "Ć": 184,
      "ć": 185,
      "Ĉ": 186,
      "Ċ": 187,
      "Ď": 188,
      "ď": 189,
      "Đ": 190,
      "đ": 191,
      "Ē": 192,
      "ē": 193,
      "Ĕ": 194,
      "ĕ": 195,
      "Ė": 196,
      "ė": 197,
      "Ę": 198,
      "ę": 199,
      "Ě": 200,
      "ě": 201,
      "Ġ": 202,
      "ġ": 203,
      "Ģ": 204,
      "ģ": 205,
      "Ĥ": 206,
      "ĥ": 207,
      "Ħ": 208,
      "ħ": 209,
      "Ĩ": 210,
      "ĩ": 211,
      "Ī": 212,
      "ī": 213,
      "Ĭ": 214,
      "ĭ": 215,
      "Į": 216,
      "į": 217,
      "İ": 218,
      "ı": 219,
      "Ĳ": 220,
      "ĳ": 221,
      "Ĵ": 222,
      "ĵ": 223,
      "Ķ": 224,
      "ķ": 225,
      "ĸ": 226,
      "Ĺ": 227,
      "ĺ": 228,
      "Ļ": 229,
      "ļ": 230,
      "Ľ": 231,
      "ľ": 232,
      "Ŀ": 233,
      "ŀ": 234,
      "Ł": 235,
      "ł": 236,
      "Ń": 237,
      "ĠÐ": 238,
      "Ð°": 239,
      "Ðµ": 240,
      "Ð¸": 241,
      "Ð¾": 242,
      "ÑĢ": 243,
      "Ð½": 244,
      "Ñģ": 245,
      "ÑĤ": 246,
      "Ñĥ": 247,
      "Ð¾Ð": 248,
      "Ġs": 249,
      "je": 250,
      "Ġp": 251,
      "Ñĺ": 252,
      "Ð°Ð": 253,
      "na": 254,
      "Ġi": 255,
      "ra": 256,
      "ÐµÐ": 257,
      "Ð¸Ð": 258,
      "ni": 259,
      "ko": 260,
      "no": 261,
      "Ġd": 262,
      "st": 263,
      "re": 264,
      "Ġo": 265,
      "ĠÑģ": 266,
      "ĠÐ¿": 267,
      "Ġu": 268,
      "ja": 269,
      "va": 270,
      "li": 271,
      "ne": 272,
      "ĠÐ¸": 273,
      "Äį": 274,
      "Ð¸Ñ": 275,
      "ri": 276,
      "ma": 277,
      "Ðº": 278,
      "ti": 279,
      "Å¡": 280,
      "ka": 281,
      "ta": 282,
      "Ð»": 283,
      "Ġpo": 284,
      "Ð°Ñ": 285,
      "la": 286,
      "ÑģÑĤ": 287,
      "ro": 288,
      "Ġna": 289,
      "Ġje": 290,
      "te": 291,
      "Ð²": 292,
      "ÑĺÐµ": 293,
      "za": 294,
      "ĠÐ¾": 295,
      "ve": 296,
      "ci": 297,
      "ĠÐ½": 298,
      "vo": 299,
      "ĠÑĥ": 300,
      "ĠÐº": 301,
      "ĠÐ´": 302,
      "me": 303,
      "vi": 304,
      "Ġko": 305,
      "Äĩ": 306,
      "ju": 307,
      "to": 308,
      "ÐµÐ½": 309,
      "Ð°Ð½": 310,
      "Å¾": 311,
      "Ġda": 312,
      "ĠÐ¿ÑĢ": 313,
      "Ð¾Ð²": 314,
      "Ġb": 315,
      "mo": 316,
      "ji": 317,
      "ÐµÑ": 318,
      "Ð´": 319,
      "Ġza": 320,
      "lo": 321,
      "ĠÑ": 322,
      "di": 323,
      "le": 324,
      "Ġa": 325,
      "Ġse": 326,
      "Ð¿": 327,
      "Ð¾Ð¼": 328,
      "da": 329,
      "âĢ": 330,
      "Ð°Ð²": 331,
      "nje": 332,
      "Ð¸Ð¼": 333,
      "Ð¾Ð³": 334,
      "Ġ(": 335,
      "Ġsa": 336,
      "Ð¾ÑĢ": 337,
      "Ð¸Ñĺ": 338,
      "Ð¸Ð½": 339,
      "Ð¼": 340,
      "Ġod": 341,
      "Ð¾Ñĺ": 342,
      "ÐµÐ´": 343,
      "ĠÑĺÐµ": 344,
      "ĠÐ·": 345,
      "ru": 346,
      "Ð°ÑĤ": 347,
      "Ġ1": 348,
      "Ð¾Ð´": 349,
      "Ð°Ð»": 350,
      "ĠÑĤ": 351,
      "sti": 352,
      "Ð½Ð¾": 353,
      "ÑģÐº": 354,
      "ĠÐ¼": 355,
      "Ġg": 356,
      "Ġne": 357,
      "Ð°ÑĢ": 358,
      "de": 359,
      "ki": 360,
      "ĠÑĢ": 361,
      "Ġdo": 362,
      "ÐµÑĢ": 363,
      "Ð·": 364,
      "nja": 365,
      "Ð±": 366,
      "mi": 367,
      "Ġka": 368,
      "Ġsu": 369,
      "ĠÐ²": 370,
      "sta": 371,
      "Ð°Ðº": 372,
      "Ð¸ÑĤ": 373,
      "ku": 374,
      "Ð¸Ðº": 375,
      "Ġpro": 376,
      "Ġra": 377,
      "Ð¸Ð²": 378,
      "Ð¸Ñħ": 379,
      "Ð°Ñļ": 380,
      "Ð°Ñĺ": 381,
      "Ð¾Ñ": 382,
      "Ġpre": 383,
      "zi": 384,
      "Ð¾Ð½": 385,
      "ÐµÑĤ": 386,
      "ÐµÐ¼": 387,
      "ĠÐ±": 388,
      "Ð°Ð´": 389,
      "Ġiz": 390,
      "ke": 391,
      "Ġ2": 392,
      "ce": 393,
      "nu": 394,
      "Ð³": 395,
      "Äĳ": 396,
      "tu": 397,
      "ĠâĢ": 398,
      "po": 399,
      "Ġpri": 400,
      "ĠÐ½Ð°": 401,
      "ĠS": 402,
      "si": 403,
      "Ġmo": 404,
      "go": 405,
      "Ġbi": 406,
      "ÑĥÑ": 407,
      "ĠÐ¾Ð´": 408,
      "Ð¸ÑĺÐµ": 409,
      "Ð°Ð·": 410,
      "Äĩe": 411,
      "bi": 412,
      "ĠÑģÐµ": 413,
      "Ð¸Ñĩ": 414,
      "ĠÐ°": 415,
      "ga": 416,
      "ĠÐ³": 417,
      "Ġre": 418,
      "Äįi": 419,
      "ÐµÐ»": 420,
      "sa": 421,
      "ÐµÐº": 422,
      "Ð¸Ð»": 423,
      "Ġt": 424,
      "nih": 425,
      "Ð¾Ð»": 426,
      "se": 427,
      "Ġe": 428,
      "Ð°Ð¼": 429,
      "Äįe": 430,
      "ĠÐ´Ð°": 431,
      "Å¾e": 432,
      "lu": 433,
      "Ġk": 434,
      "ca": 435,
      "Ġf": 436,
      "Ġz": 437,
      "Ð¸ÑĨ": 438,
      "ĠÐ¿Ð¾": 439,
      "Ð°ÑĨ": 440,
      "ĠÑģÑĥ": 441,
      "nog": 442,
      "pa": 443,
      "Ġve": 444,
      "ba": 445,
      "ĠÐ¸Ð·": 446,
      "Ġde": 447,
      "ĪÑĤ": 448,
      "Ġme": 449,
      "ÑĻ": 450,
      "du": 451,
      "Ġto": 452,
      "ĠÑģÑĤ": 453,
      "ĠP": 454,
      "00": 455,
      "Ġ,": 456,
      "Ġte": 457,
      "ÑĨ": 458,
      "Ġni": 459,
      "Ð¸ÑĢ": 460,
      "pi": 461,
      "Ġkoji": 462,
      "pe": 463,
      "Ð¸Ñģ": 464,
      "ĠÅ¡": 465,
      "cija": 466,
      "or": 467,
      "Äįa": 468,
      "Ġv": 469,
      "lja": 470,
      "Ð°Ñĩ": 471,
      "Å¾i": 472,
      "lje": 473,
      "cije": 474,
      "nom": 475,
      "sto": 476,
      "Ġin": 477,
      "Ð°Ð¾": 478,
      "Ð¸Ð·": 479,
      "be": 480,
      "Ð½Ðµ": 481,
      "Å¡e": 482,
      "ĠÐ·Ð°": 483,
      "ski": 484,
      "ĠM": 485,
      "Ġ.": 486,
      "ĠÐºÐ¾Ñĺ": 487,
      "Ð¾Ðº": 488,
      "nosti": 489,
      "gu": 490,
      "ĠÑĺ": 491,
      "Ð¸Ð¼Ð°": 492,
      "ÐµÐ·": 493,
      "sko": 494,
      "Ð¸ÑĺÐ°": 495,
      "''": 496,
      "Ġma": 497,
      "tra": 498,
      "do": 499,
      "ÐµÐ²": 500,
      "ĠÐ¡": 501,
      "ĠB": 502,
      "ÑĢÑĥ": 503,
      "..": 504,
      "ĠÑģÐ²": 505,
      "Ð½Ð¾ÑģÑĤ": 506,
      "ÐµÑļ": 507,
      "Ġob": 508,
      "nim": 509,
      "gi": 510,
      "Ġraz": 511,
      "red": 512,
      "ÐµÐ³": 513,
      "Ġpa": 514,
      "Äĩi": 515,
      ").": 516,
      "Ð¸ÑģÑĤ": 517,
      "Ġ19": 518,
      "su": 519,
      "Ð¶": 520,
      "mu": 521,
      "Ġvi": 522,
      "Ġgo": 523,
      "nji": 524,
      "Ġta": 525,
      "Äĳe": 526,
      "Ð¾Ð±": 527,
      "bo": 528,
      "ĠâĢŀ": 529,
      "Ð°ÑļÐ°": 530,
      "gra": 531,
      "so": 532,
      "Ð°ÑļÐµ": 533,
      "nju": 534,
      "ze": 535,
      "Å¾a": 536,
      "ĠK": 537,
      "Ġkao": 538,
      "ho": 539,
      "Ġsta": 540,
      "tiv": 541,
      "Ð½Ð°": 542,
      "ĠÑģÐ°": 543,
      "ĠA": 544,
      "ĠD": 545,
      "Äĩa": 546,
      "lju": 547,
      "jo": 548,
      "Ð¾Ð¿": 549,
      "Ð¾ÑĤ": 550,
      "ste": 551,
      "ĠN": 552,
      "ÐµÑģ": 553,
      "ÐµÑĽ": 554,
      "ĠÐ¾Ð±": 555,
      "ĠÑĦ": 556,
      "Ð°Ñģ": 557,
      "Ð½Ð¸": 558,
      "Ñļ": 559,
      "ÑĥÑĤ": 560,
      "ĠÐ»": 561,
      "ĠÑĩ": 562,
      "fi": 563,
      "Ġ20": 564,
      "ĠI": 565,
      "Ð¸Ð½Ðµ": 566,
      "Ġsi": 567,
      "ĠÐµ": 568,
      "Ð½Ð¾Ð³": 569,
      "ĠR": 570,
      "ge": 571,
      "ÑģÐ»": 572,
      "Ð¸ÑĩÐº": 573,
      "nost": 574,
      "Ġmi": 575,
      "zu": 576,
      "Ð¸ÑĽ": 577,
      "nt": 578,
      "pu": 579,
      "Ġli": 580,
      "Ð¾ÑģÑĤ": 581,
      "Ġ3": 582,
      "ĠV": 583,
      "Ġh": 584,
      "âĢľ": 585,
      "ĠÐŁ": 586,
      "),": 587,
      "Ġdi": 588,
      "vr": 589,
      "Ġsve": 590,
      "zo": 591,
      "Ġdru": 592,
      "vu": 593,
      "Ð»Ð¸": 594,
      "vanje": 595,
      "ÑĥÑĢ": 596,
      "Ġpra": 597,
      "Ð½Ð¸Ñħ": 598,
      "Ġili": 599,
      "ÐµÑĴ": 600,
      "Å¡a": 601,
      "ĠT": 602,
      "Ġis": 603,
      "ĠÑĤÑĢ": 604,
      "Ġima": 605,
      "Ð¸ÑĪ": 606,
      "sno": 607,
      "Ġva": 608,
      "ske": 609,
      "ĠÐľ": 610,
      "nta": 611,
      "ÑĢÐµÐ´": 612,
      "Ð¾Ð·": 613,
      "lj": 614,
      "ĠÐĳ": 615,
      "Ġ-": 616,
      "Ġkoje": 617,
      "Ð¸ÐºÐ°": 618,
      "ÐµÐ½ÑĤ": 619,
      "Ġpred": 620,
      "Ð°ÑĺÑĥ": 621,
      "ĠÅ¡to": 622,
      "ÑĥÐ»": 623,
      "ĠâĢĵ": 624,
      "Ġgodi": 625,
      "ĠÑĢÐ°Ð·": 626,
      "vanja": 627,
      "stav": 628,
      "lji": 629,
      "ĠÐļ": 630,
      "ĠÐºÐ°Ð¾": 631,
      "Å¡i": 632,
      "Ġno": 633,
      "ÑģÑĤÐ²": 634,
      "kom": 635,
      "Ġpos": 636,
      "ĠÐ¸Ð½": 637,
      "Äĳu": 638,
      "ÑĥÑĩ": 639,
      "Ð¸Ð¾": 640,
      "Ð°Ð¿": 641,
      "ÑĢÐ°Ð½": 642,
      "ÐŁ": 643,
      "ĠÄĩe": 644,
      "Ġzna": 645,
      "Ñĩ": 646,
      "ĠC": 647,
      "Ġm": 648,
      "Ð°Ð³": 649,
      "ĠÐºÐ¾ÑĺÐ¸": 650,
      "Ð¿ÑĢ": 651,
      "ĠÐºÑĢ": 652,
      "ĠÑģÐ»": 653,
      "Ð½Ð¾ÑģÑĤÐ¸": 654,
      "ÐµÐ½Ð°": 655,
      "ÐµÐ±": 656,
      "Ð°Ð¶": 657,
      "ÐµÐ¿": 658,
      "ĠÑļ": 659,
      "Ġus": 660,
      "Ð°Ð¼Ð°": 661,
      "ĠE": 662,
      "Ġ4": 663,
      "nika": 664,
      "ÑĪ": 665,
      "ÑĥÐ¿": 666,
      "Ġvo": 667,
      "ÐµÑģÑĤ": 668,
      "ÑĥÑĽ": 669,
      "ĠO": 670,
      "Ð°Ð²ÑĻ": 671,
      "Ð¾ÑĺÐµ": 672,
      "stu": 673,
      "Ġnaj": 674,
      "Ð¾Ñģ": 675,
      "Ġst": 676,
      "Ð¸Ð´": 677,
      "Ð¾Ð¶": 678,
      "ÑĥÐ´": 679,
      "Ġsvo": 680,
      "pre": 681,
      "ĠÐ³Ð¾Ð´": 682,
      "Ð¡": 683,
      "Ġpe": 684,
      "Ġ201": 685,
      "Ġkon": 686,
      "ĠU": 687,
      "Ġtre": 688,
      "ar": 689,
      "ĠÐ¸Ð¼": 690,
      "ona": 691,
      "ĠÐ¾Ð²": 692,
      "ĠÐ¿ÑĢÐµÐ´": 693,
      "ĠG": 694,
      "Ġja": 695,
      "Ġpod": 696,
      "on": 697,
      "Ð¾ÑĪ": 698,
      "Ð¸ÑĺÐ¸": 699,
      "Ġ200": 700,
      "ĠSr": 701,
      "ĠÑĨ": 702,
      "ÑģÐºÐµ": 703,
      "ÂŃ": 704,
      "fe": 705,
      "ÑĥÐ¼": 706,
      "ĠÉ": 707,
      "Ð°ÑĪ": 708,
      "Åł": 709,
      "ĠÐ½Ðµ": 710,
      "Ġ5": 711,
      "ĠL": 712,
      "Ġbo": 713,
      "nti": 714,
      "Ð¸Ð½Ð°": 715,
      "ĠÐ¾Ñģ": 716,
      "ĠÐ¿Ð¾Ð´": 717,
      "ÑĥÐ½": 718,
      "Ñħ": 719,
      "Ð¸ÑĤÐ¸": 720,
      "Ġodno": 721,
      "Äįu": 722,
      "Ġpu": 723,
      "Ġpot": 724,
      "Ð°Ð´Ð°": 725,
      "rÅ¾a": 726,
      "Ð£": 727,
      "ÑģÐ¿": 728,
      "ska": 729,
      "Na": 730,
      "Ð°Ð½Ð°": 731,
      "ĠH": 732,
      "pra": 733,
      "Ġ''": 734,
      "Ġgra": 735,
      "ÐĿ": 736,
      "ÑģÐºÐ¸": 737,
      "reme": 738,
      "ĠÐĿ": 739,
      "Ð°Ð²Ð°": 740,
      "Ġjed": 741,
      "Ġbe": 742,
      "ĠÐ¸ÑģÑĤ": 743,
      "Ðŀ": 744,
      "rija": 745,
      "Ð¸Ð¾Ð½": 746,
      "Ġnije": 747,
      "Äįki": 748,
      "Ð½Ð¾Ð¼": 749,
      "ĠÐ¿Ð¾ÑģÑĤ": 750,
      "he": 751,
      "Ð½Ð¸Ð¼": 752,
      "ĠÐĶ": 753,
      "ĠÑĪÑĤ": 754,
      "ÑĦ": 755,
      "cu": 756,
      "ran": 757,
      "ĠÑĺÐµÐ´": 758,
      "Ġsamo": 759,
      "ĠÐºÐ¾Ð½": 760,
      "ĠmoÅ¾e": 761,
      "Ġ\"": 762,
      "Ðļ": 763,
      "Ð¸Ð¿": 764,
      "dni": 765,
      "Ð°Ð±": 766,
      "Ġce": 767,
      "ÑĢÐ¶": 768,
      "ĠSrbi": 769,
      "Ð½Ð¾Ñģ": 770,
      "Ġkoja": 771,
      "liko": 772,
      "Po": 773,
      "Ð°ÐºÐ¾": 774,
      "Ġkori": 775,
      "ÑĢÑĥÐ³": 776,
      "an": 777,
      "Ġpi": 778,
      "stra": 779,
      "Za": 780,
      "ĠÐĲ": 781,
      "Ð¾Ð²Ð°": 782,
      "Ð¸Ð³": 783,
      "ciju": 784,
      "Ġti": 785,
      "ĠJ": 786,
      "Ġmogu": 787,
      "govo": 788,
      "ÐµÐºÑĤ": 789,
      "Ġku": 790,
      "ÐµÐ½Ðµ": 791,
      "ĠÐł": 792,
      "Ġali": 793,
      "Ð¸ÑĺÑĥ": 794,
      "ĠÐ¶": 795,
      "ÐºÐ°": 796,
      "skog": 797,
      "Éļ": 798,
      "sni": 799,
      "Ġnje": 800,
      "zna": 801,
      "ĠF": 802,
      "Ð²ÑĢ": 803,
      "20": 804,
      "Ð¸Ð»Ð°": 805,
      "kto": 806,
      "Ð¾Ñĩ": 807,
      "Ð¾ÑĨ": 808,
      "ĠÐĴ": 809,
      "Ġfi": 810,
      "noj": 811,
      "Ġstra": 812,
      "viÄĩ": 813,
      "Ð°ÑĨÐ¸ÑĺÐµ": 814,
      "Ġovo": 815,
      ".,": 816,
      "ÐµÑļÐ°": 817,
      "âĢĿ": 818,
      "ter": 819,
      "ha": 820,
      "ĠÐ²ÑĢ": 821,
      "Ð°ÑĤÐ¸": 822,
      "Ġc": 823,
      "Å¡ta": 824,
      "ĠÐ¢": 825,
      "Ġle": 826,
      "ÐµÑĪ": 827,
      "Ġ6": 828,
      "Ð¢": 829,
      "ĠÐ³Ð¾Ð´Ð¸Ð½Ðµ": 830,
      "skih": 831,
      "ÐµÑĩ": 832,
      "Ð¾ÑĢÐ°": 833,
      "ÑģÐºÐ¾Ð³": 834,
      "ĠÐ¸Ð»Ð¸": 835,
      "ÑĥÑĺÐµ": 836,
      "Ġbu": 837,
      "Ð°Ð»Ð°": 838,
      "ÑĢÐ°Ñ": 839,
      "lika": 840,
      "Å¡ti": 841,
      "Ð¾ÑĻ": 842,
      "Ðĺ": 843,
      "Ġnji": 844,
      "ĠÑħ": 845,
      "al": 846,
      "ÐĲ": 847,
      "ĠÄįi": 848,
      "nd": 849,
      "ÑĢÐ°Ð´": 850,
      "Ð°ÑĤÐ°": 851,
      "Ġpla": 852,
      "ĠÐ±ÑĢ": 853,
      "zvo": 854,
      "ĠÑĪÑĤÐ¾": 855,
      "bra": 856,
      "Ġbro": 857,
      "ĠÐ¿Ð¾ÑĤ": 858,
      "ÐµÐ¼Ð°": 859,
      "ng": 860,
      "ÐµÑĻ": 861,
      "Ð½Ñĥ": 862,
      "Ġkom": 863,
      "stva": 864,
      "hi": 865,
      "ĠÐ·Ð½": 866,
      "Ð¸ÑĨÐ°": 867,
      "vih": 868,
      "ĠÄįe": 869,
      "vima": 870,
      "Ġgodine": 871,
      "Ġak": 872,
      "ÑĤÐµÑĢ": 873,
      "ĠÐºÐ¾ÑĺÐµ": 874,
      "Ð°ÑģÑĤ": 875,
      "bu": 876,
      "Äĳa": 877,
      "stvo": 878,
      "ÐµÑļÐµ": 879,
      "19": 880,
      "Ġba": 881,
      "ÐºÐµ": 882,
      "ĠÑģÐ°Ð¼": 883,
      "ÑĥÐ¶": 884,
      "ĠÐ¾Ð¿": 885,
      "ÑĥÑĺ": 886,
      "ĠÐ´Ð¾": 887,
      "É¢": 888,
      "tno": 889,
      "ĠÐ£": 890,
      "Ġproce": 891,
      "for": 892,
      "ĠÑģÐ¼": 893,
      "Ġkako": 894,
      "Ġdu": 895,
      "lek": 896,
      "ĠÐ´ÑĢÑĥÐ³": 897,
      "ĠÐŀ": 898,
      "ĠÅ¾i": 899,
      "Ġpr": 900,
      "ÑĥÐ±": 901,
      "vlja": 902,
      "Ġtako": 903,
      "kon": 904,
      "ĠÐ¾Ð´Ð½Ð¾Ñģ": 905,
      "ÑģÐºÐ°": 906,
      "ÉŁ": 907,
      "Ġ0": 908,
      "ĠÐºÐ¾Ð¼": 909,
      "ÑĽ": 910,
      "ĠÐ¾Ðº": 911,
      "ÐµÐ½Ð¸": 912,
      "ÐµÐ»Ð°": 913,
      "Ġfa": 914,
      "ĠÐĺ": 915,
      "ÑĥÐ·": 916,
      "Ġmu": 917,
      "Ġslu": 918,
      "ĠÅł": 919,
      "Ġvr": 920,
      "Ġprime": 921,
      "ÐĶ": 922,
      "ĠÑĢÐ°Ð´": 923,
      "dno": 924,
      "Ġor": 925,
      "ĠÑģÐ¿": 926,
      "ĠÐĵ": 927,
      "Äĩu": 928,
      "É¨": 929,
      "nije": 930,
      "Ð¾ÑĢÐ¼": 931,
      "Ġuz": 932,
      "ÐµÐ¶": 933,
      "gle": 934,
      "Ġci": 935,
      "nda": 936,
      "Äī": 937,
      "pro": 938,
      "menta": 939,
      "Å¡te": 940,
      "ĠÐ½Ð°Ñĺ": 941,
      "stavlja": 942,
      "ako": 943,
      "Ð²Ð°": 944,
      "ĠÐ¿Ð¾Ð»": 945,
      "ÑĥÐ»ÑĤ": 946,
      "ÐµÐ½Ð¾": 947,
      "onal": 948,
      "Ġkod": 949,
      "Ġsva": 950,
      "Ð¾Ð²Ð¸ÑĽ": 951,
      "Ġtu": 952,
      "ĠÐºÐ¾ÑĢ": 953,
      "ĠMi": 954,
      "Ġso": 955,
      "ÄĨ": 956,
      "rije": 957,
      "Ð°ÑļÑĥ": 958,
      "Ġvred": 959,
      "ĠÑĪ": 960,
      "Ġlju": 961,
      "Ġdana": 962,
      "Ġ7": 963,
      "Å¡t": 964,
      "jom": 965,
      "ĠÄį": 966,
      "raju": 967,
      "Ð¸ÐºÐµ": 968,
      "Ġsam": 969,
      "Ġbio": 970,
      "Ġot": 971,
      "Ġro": 972,
      "Ð¸ÑĨÐµ": 973,
      "ĠviÅ¡e": 974,
      "Ġlo": 975,
      "Ġosno": 976,
      "ĠÐ¼Ð¾Ð³": 977,
      "Ġrazli": 978,
      "Ġpoli": 979,
      "Ð¸ÑĨÐ¸": 980,
      "Ð½Ð¾Ð²": 981,
      "Ð°ÑĨÐ¸ÑĺÐ°": 982,
      "Ðľ": 983,
      "Ð¾ÑĴ": 984,
      "ÑģÐºÐ¸Ñħ": 985,
      "kog": 986,
      "Ġze": 987,
      "Ġ18": 988,
      "ĠÐĪ": 989,
      "Ġop": 990,
      "gla": 991,
      "ĠÐ¿Ð¾Ð²": 992,
      "ĠÐ¿ÑĢÐ°Ð²": 993,
      "vim": 994,
      "ĠÐ±Ð¸": 995,
      "er": 996,
      "Ġvreme": 997,
      "....": 998,
      "Ðł": 999,
      "Ġspo": 1000,
      "kla": 1001,
      "vali": 1002,
      "ĠÐ°Ðº": 1003,
      "ciji": 1004,
      "Ġga": 1005,
      "Ġbiti": 1006,
      "rt": 1007,
      "ÐµÑĤÐ°": 1008,
      "ÑĥÐº": 1009,
      "vni": 1010,
      "ĠPo": 1011,
      "Ð°Ð»Ð¸": 1012,
      "ĠÐºÐ¾ÑĺÐ°": 1013,
      "nali": 1014,
      "Ð¸ÑĪÑĤ": 1015,
      "njem": 1016,
      "Ġproi": 1017,
      "Ġorga": 1018,
      "eo": 1019,
      "ĠÐ¿ÑĢÐ¸Ð¼": 1020,
      "ÑĥÐ³": 1021,
      "Äįno": 1022,
      "Ġizme": 1023,
      "rak": 1024,
      "Ð°ÐºÐ¾Ð½": 1025,
      "ÐµÑĨ": 1026,
      "rom": 1027,
      "Ð¸Ð»Ð¸": 1028,
      "cio": 1029,
      "om": 1030,
      "Ġkada": 1031,
      "Ġpove": 1032,
      "kaza": 1033,
      "Ġjo": 1034,
      "Ġ8": 1035,
      "ĠÑĢÐ°Ð·Ð»": 1036,
      "Ġposto": 1037,
      "Ð°ÑĻ": 1038,
      "klju": 1039,
      "Ġ10": 1040,
      "ÐµÑĺ": 1041,
      "vaju": 1042,
      "dan": 1043,
      "tni": 1044,
      "Ġtreba": 1045,
      "Ġtra": 1046,
      "Ġdobi": 1047,
      "ksi": 1048,
      "Ð³Ð¾Ð²": 1049,
      "Ġkri": 1050,
      "Ð°ÑĤÐ¸Ð²": 1051,
      "ĠÐ¼Ð¾Ð¶": 1052,
      "ĠÅ¾e": 1053,
      "Ġgru": 1054,
      "Äįaj": 1055,
      "Ð°Ð»Ð¸Ð·": 1056,
      "skom": 1057,
      "ÄĮ": 1058,
      "lne": 1059,
      "hva": 1060,
      "ĠÐ³Ð»": 1061,
      "Ġ199": 1062,
      "ĠÐ·Ð½Ð°Ñĩ": 1063,
      "Ð°ÑĢÐ°": 1064,
      "pri": 1065,
      "tim": 1066,
      "lta": 1067,
      "in": 1068,
      "Ġsiste": 1069,
      "Äįke": 1070,
      "un": 1071,
      "Å¡Äĩe": 1072,
      "Ġek": 1073,
      "ĠÐ¿Ð¾Ñģ": 1074,
      "Ġau": 1075,
      "kre": 1076,
      "ĠÐ¿Ð¾ÑģÐ»": 1077,
      "ĠÐ¿Ð¾ÑĢ": 1078,
      "Ġla": 1079,
      "ĠÐ²ÐµÑĽ": 1080,
      "sku": 1081,
      "vno": 1082,
      "ÐµÑĴÑĥ": 1083,
      "lni": 1084,
      "Ð¸Ð½Ð¸": 1085,
      "cima": 1086,
      "ÐµÑĦ": 1087,
      "Ġproizvo": 1088,
      "ÑĢÐ°": 1089,
      "__": 1090,
      "Ġbez": 1091,
      "rio": 1092,
      "kup": 1093,
      "Ġradi": 1094,
      "ĠZ": 1095,
      "Ġoba": 1096,
      "ĠÐķ": 1097,
      "Ð¾Ð²Ðµ": 1098,
      "ĠÑĥÐº": 1099,
      "Ð»Ð°Ð½": 1100,
      "ĠÐĹ": 1101,
      "Ð¸ÑĪÐµ": 1102,
      "Ġjer": 1103,
      "bog": 1104,
      "Ġinte": 1105,
      "ĠÅ¾ivo": 1106,
      "É¨É": 1107,
      "spo": 1108,
      "Ġova": 1109,
      "Ġposle": 1110,
      "Ġal": 1111,
      "teri": 1112,
      "tro": 1113,
      "Ġ9": 1114,
      "ÑĢÐ°Ð¶": 1115,
      "Ġnjiho": 1116,
      "ĠÑĥÑĤ": 1117,
      "lazi": 1118,
      "ĠÐ¡ÑĢ": 1119,
      "dra": 1120,
      "ĠÐ¥": 1121,
      "Ġodre": 1122,
      "Ġbilo": 1123,
      "Ð¸Ð»Ð¾": 1124,
      "ĠÐĽ": 1125,
      "Ð¸Ñļ": 1126,
      "Ð¾Ð³Ð°": 1127,
      "Ð°ÐºÐ°": 1128,
      "Å£": 1129,
      "tri": 1130,
      "Ġru": 1131,
      "10": 1132,
      "spe": 1133,
      "Ġosta": 1134,
      "ĠÃ": 1135,
      "ĠÐ°Ð½": 1136,
      "Ġobra": 1137,
      "Ġgla": 1138,
      "ĠÑĥÑĩ": 1139,
      "ÑģÐºÐ¾Ð¼": 1140,
      "ĠÐ¿Ð¾Ðº": 1141,
      "loÅ¡": 1142,
      "ver": 1143,
      "ÐµÐ½ÑĨ": 1144,
      "ÑĢÐµÐ±": 1145,
      "ĠÐ´ÑĢ": 1146,
      "Ð°Ð½ÑĤ": 1147,
      "Ð¸ÑĺÐ°Ð»": 1148,
      "Ð¸ÑĻ": 1149,
      "ĠMa": 1150,
      "vom": 1151,
      "Ġste": 1152,
      "Ġsad": 1153,
      "Ð¸ÑĦ": 1154,
      "Ġdrugi": 1155,
      "ĠÐ½Ð¸ÑĺÐµ": 1156,
      "Ð½Ð¸Ðº": 1157,
      "skim": 1158,
      "mena": 1159,
      "ble": 1160,
      "Ġsma": 1161,
      "Ð¾ÑģÐ»": 1162,
      "ĠÐ½ÐµÐº": 1163,
      "ĠuÄįe": 1164,
      "ĠÑĥÐ·": 1165,
      "ÑĢÐµÑĴ": 1166,
      "Ġpotre": 1167,
      "Ð½Ð¸ÐºÐ°": 1168,
      "ĠÐ¼Ð¾Ð¶Ðµ": 1169,
      "Å¡to": 1170,
      "van": 1171,
      "Ġvla": 1172,
      "ÉļÉ": 1173,
      "ÐĴ": 1174,
      "ĠRe": 1175,
      "ĠKo": 1176,
      "Ġispi": 1177,
      "zulta": 1178,
      "Ġbroj": 1179,
      "ĠÐ´Ð¾Ðº": 1180,
      "Ġisto": 1181,
      "sle": 1182,
      "gova": 1183,
      "Ġveli": 1184,
      "Ð´Ðµ": 1185,
      "ÑĪÑĤ": 1186,
      "nica": 1187,
      "tre": 1188,
      "ĠÑļÐµÐ³": 1189,
      "ĠÐ´ÐµÐ»": 1190,
      "Ġistra": 1191,
      "Ð¾Ð²Ð°Ð½": 1192,
      "Ġuti": 1193,
      "lno": 1194,
      "É¢É": 1195,
      "Ð¾Ð²Ð¸": 1196,
      "forma": 1197,
      "ÑĥÑĪ": 1198,
      "Ð»Ð°Ð´": 1199,
      "Ð½Ð¾Ñĺ": 1200,
      "ĠÐ´Ð¾Ð±": 1201,
      "ĠÐ¾ÑĢ": 1202,
      "Ġhi": 1203,
      "ven": 1204,
      "Ġpose": 1205,
      "ĠSa": 1206,
      "ĠNa": 1207,
      "ÑĥÑĽÐ¸": 1208,
      "Ġpita": 1209,
      "bli": 1210,
      "lan": 1211,
      "Ġstru": 1212,
      "vlje": 1213,
      "ĠveÄĩ": 1214,
      "Ġdok": 1215,
      "ĠÐ¿Ð¾Ñĺ": 1216,
      "ĠÐµÐº": 1217,
      "ÑģÑĤÐ°Ð²": 1218,
      "ĠÐŁÑĢ": 1219,
      "ĠÑĤÐ¾": 1220,
      "ĠnaÄįi": 1221,
      "ÑĥÑĺÑĥ": 1222,
      "Ġorgani": 1223,
      "tom": 1224,
      "teta": 1225,
      "Ġzem": 1226,
      "ĠÑĽ": 1227,
      "Ð°ÑĺÐ°": 1228,
      "Ġsmo": 1229,
      "ĠÑģÐ²Ð¾Ñĺ": 1230,
      "ÐŁÑĢ": 1231,
      "Ġfor": 1232,
      "ĠÑģÐº": 1233,
      "cional": 1234,
      "ĠâĢľ": 1235,
      "ĠÐ¿ÑĢÐ²": 1236,
      "nzi": 1237,
      "...": 1238,
      "Ġauto": 1239,
      "ÑĥÑģ": 1240,
      "koliko": 1241,
      "rod": 1242,
      "vog": 1243,
      "ĠSrbije": 1244,
      "Ġgodina": 1245,
      "ÑĥÑĪÑĤ": 1246,
      "ĠÑģÑĢ": 1247,
      "ÐµÐ½Ð¸Ñħ": 1248,
      "ĠÐ¤": 1249,
      "Ġide": 1250,
      "Ġzbog": 1251,
      "nima": 1252,
      "Äįne": 1253,
      "ÐĹ": 1254,
      "ĠÑģÑĤÑĢÐ°Ð½": 1255,
      "Ġkre": 1256,
      "ĠÐ¾ÑģÐ½Ð¾Ð²": 1257,
      "Ð¸Ð¾Ð½Ð°Ð»": 1258,
      "ĠÐ¶Ð¸Ð²": 1259,
      "Ġanali": 1260,
      "ĠÐ´ÑĢÐ¶": 1261,
      "ner": 1262,
      "000": 1263,
      "Ġprema": 1264,
      "stru": 1265,
      "Ġsto": 1266,
      "ĠÐ°Ð»Ð¸": 1267,
      "ĠÐ¸ÑģÐ¿": 1268,
      "âĢĵ": 1269,
      "Ð²Ð¾ÑĢ": 1270,
      "ÑĢÐ°Ð·": 1271,
      "kra": 1272,
      "Ġpoda": 1273,
      "ĠÐ¾ÑĤ": 1274,
      "ĠdrÅ¾a": 1275,
      "Ð°Ñħ": 1276,
      "ÑĻÑĥÑĩ": 1277,
      "Ġoko": 1278,
      "stup": 1279,
      "en": 1280,
      "Ð¸Ð±": 1281,
      "ktu": 1282,
      "Ġvrednosti": 1283,
      "Ġmode": 1284,
      "Ġstva": 1285,
      "tet": 1286,
      "ĠÐ¸Ð·Ð¼": 1287,
      "Ġok": 1288,
      "kti": 1289,
      "Ġkra": 1290,
      "op": 1291,
      "voj": 1292,
      "ÐµÑĢÐ¸": 1293,
      "Ġrad": 1294,
      "Ġstu": 1295,
      "ÉŁÉ": 1296,
      "ĠÐ±ÑĢÐ¾Ñĺ": 1297,
      "tak": 1298,
      "Ð²Ð¾Ñĺ": 1299,
      "Ġnema": 1300,
      "ĠizmeÄĳu": 1301,
      "Ġ:": 1302,
      "ranje": 1303,
      "ĠZa": 1304,
      "Ġ15": 1305,
      "Ka": 1306,
      "ĠÑĥÐ¿": 1307,
      "Ðķ": 1308,
      "eogra": 1309,
      "ĠÑļÐ¸Ñħ": 1310,
      "ĠÑģÐ°Ð¼Ð¾": 1311,
      "Ð¾Ð´Ð°": 1312,
      "Ġslo": 1313,
      "vodi": 1314,
      "Ġof": 1315,
      "Ġpoliti": 1316,
      "ĠÐ¿Ð°ÑĢ": 1317,
      "vro": 1318,
      "Ne": 1319,
      "nici": 1320,
      "vanju": 1321,
      "ÑģÑĤÐ°Ð²ÑĻ": 1322,
      "log": 1323,
      "Ġupo": 1324,
      "joj": 1325,
      "ĠÐ¿Ð¾Ð·": 1326,
      "12": 1327,
      "¿½": 1328,
      "ï¿½": 1329,
      "ĠÐ¾Ð±Ð»": 1330,
      "ÐºÑĥ": 1331,
      "ĠÐ¡ÑĢÐ±": 1332,
      "ĠznaÄįaj": 1333,
      "Ġobja": 1334,
      "Ġrezulta": 1335,
      "Ġposlo": 1336,
      "ĠÐ¿ÑĢÐ¾ÑĨ": 1337,
      "Ð°Ð½Ð¸": 1338,
      "vede": 1339,
      "ĠÐ±Ð¸Ð¾": 1340,
      "Ð¸Ð²Ð°ÑļÐ°": 1341,
      "Ð°ÑĴ": 1342,
      "Ð¾ÑĦ": 1343,
      "vati": 1344,
      "rni": 1345,
      "ÐµÐ¾": 1346,
      "âĢľ,": 1347,
      "Ġaktiv": 1348,
      "pisa": 1349,
      "Ġpret": 1350,
      "Ġ12": 1351,
      "Ġtr": 1352,
      "ÑĥÑģÑĤ": 1353,
      "slo": 1354,
      "bno": 1355,
      "Ðĳ": 1356,
      "ĠrazliÄįi": 1357,
      "ÐµÑħ": 1358,
      "Ġodnosno": 1359,
      "11": 1360,
      "tne": 1361,
      "Ġsr": 1362,
      "unk": 1363,
      "ÐµÐ½Ñĥ": 1364,
      "rta": 1365,
      "Ð¸Ð½Ñĥ": 1366,
      "Ð³Ð»": 1367,
      "Ġge": 1368,
      "ĠmeÄĳu": 1369,
      "Ġuslo": 1370,
      "Ġjedi": 1371,
      "Ġon": 1372,
      "ĠÐ½Ð°ÑĢ": 1373,
      "ren": 1374,
      "Ð°Ð½Ð´": 1375,
      "fika": 1376,
      "ĠdruÅ¡t": 1377,
      "Ġmora": 1378,
      "ÑģÐºÐ¸Ð¼": 1379,
      "ĠÑĤÐ°Ðº": 1380,
      "Ð¾ÑģÑĤÐ¸": 1381,
      "pera": 1382,
      "Ġnasta": 1383,
      "ĠÑĤÐµ": 1384,
      "ÑĢÑĥÐ¿": 1385,
      "Ð²Ðµ": 1386,
      "Ð°Ð»Ð¾": 1387,
      "Ð¸ÑĩÐºÐ¸": 1388,
      "jem": 1389,
      "ÑĢÑĪ": 1390,
      "Ġizra": 1391,
      "logi": 1392,
      "rti": 1393,
      "Ġim": 1394,
      "Äįka": 1395,
      "ĠistraÅ¾i": 1396,
      "Ð¸Ð¶": 1397,
      "Ġtri": 1398,
      "ak": 1399,
      "Ġand": 1400,
      "niji": 1401,
      "skoj": 1402,
      "ĠÐºÐ¾Ð´": 1403,
      "vne": 1404,
      "sli": 1405,
      "juÄĩi": 1406,
      "Ġsred": 1407,
      "ÑĤÑĢ": 1408,
      "ÑĤÐ¸Ð²": 1409,
      "Ġproble": 1410,
      "Ġnivo": 1411,
      "Ġbr": 1412,
      "bro": 1413,
      "sla": 1414,
      "liza": 1415,
      "ntro": 1416,
      "kri": 1417,
      "ĠÐ²ÐµÐ»": 1418,
      "ĠNe": 1419,
      "tor": 1420,
      "Ġpredstavlja": 1421,
      "Ġako": 1422,
      "jedi": 1423,
      "Ġljudi": 1424,
      "ÑļÐµ": 1425,
      "Å¾u": 1426,
      "Ġbila": 1427,
      "Ð³Ð°Ð½": 1428,
      "ĠÑģÐ¸ÑģÑĤ": 1429,
      "ĠÐ½Ð°Ñĩ": 1430,
      "ĠÐ²ÑĢÐµÐ¼": 1431,
      "ch": 1432,
      "Ġnisu": 1433,
      "kao": 1434,
      "ĠÑĺÐµÐ·": 1435,
      "Ð²Ð°ÑĢ": 1436,
      "ĠjoÅ¡": 1437,
      "Ġobe": 1438,
      "Ð°ÑĽ": 1439,
      "Ð¸ÐºÑĥ": 1440,
      "ĠÑģÑĤÑĢ": 1441,
      "rno": 1442,
      "ltu": 1443,
      "ĠÐ½Ð°Ð¿": 1444,
      "ĠBeogra": 1445,
      "nija": 1446,
      "ÑĴ": 1447,
      "stve": 1448,
      "ĠÐ¿ÑĢÐ¾": 1449,
      "lnih": 1450,
      "ĠÐ·Ð°Ð¿": 1451,
      "Ġtoga": 1452,
      "pla": 1453,
      "Sa": 1454,
      "nte": 1455,
      "nsi": 1456,
      "ĠÐ½Ð¾Ð²": 1457,
      "redi": 1458,
      "tion": 1459,
      "Ġpomo": 1460,
      "kazu": 1461,
      "ĠÑģÑĢÐµÐ´": 1462,
      "Ġfunk": 1463,
      "ÐºÑĨ": 1464,
      "Ġupra": 1465,
      "tvr": 1466,
      "Ð°Ð½Ðµ": 1467,
      "ÐµÐ½Ð¾Ð¼": 1468,
      "Ð»ÐµÐ¼": 1469,
      "mina": 1470,
      "ĠÐ¸Ð·Ð¼ÐµÑĴÑĥ": 1471,
      "Ko": 1472,
      "Ġinter": 1473,
      "terija": 1474,
      "Äĳi": 1475,
      "lija": 1476,
      "ÐµÐºÑģ": 1477,
      "ÐµÐ½Ð¾Ð³": 1478,
      "dom": 1479,
      "Ġove": 1480,
      "ÐµÑĪÑĤ": 1481,
      "ÑģÑĤÐ²Ð¾": 1482,
      "ranja": 1483,
      "Ġnakon": 1484,
      "Ð¾ÑĽ": 1485,
      "Ġodgovo": 1486,
      "ĠÐ¿Ð¾Ð¼": 1487,
      "ĠÑĥÐ½": 1488,
      "kova": 1489,
      "ÑģÐºÑĥ": 1490,
      "Ġki": 1491,
      "rima": 1492,
      "Me": 1493,
      "ĠsluÄįa": 1494,
      "Ġprome": 1495,
      "man": 1496,
      "nosi": 1497,
      "Ġju": 1498,
      "ĠÄįa": 1499,
      "Ġoso": 1500,
      "Ġ)": 1501,
      "ntra": 1502,
      "Äįni": 1503,
      "lom": 1504,
      "15": 1505,
      "ÑģÑĤÐ²Ð°": 1506,
      "Ġdva": 1507,
      "18": 1508,
      "To": 1509,
      "Ġstrane": 1510,
      "vrÅ¡i": 1511,
      "ĠnaÄįin": 1512,
      "ĠpoÄįe": 1513,
      "Ð¸ÑĩÐºÐµ": 1514,
      "Ġspe": 1515,
      "Ð¸Ð²Ð¾": 1516,
      "ÐĪ": 1517,
      "Ð°Ð²Ðµ": 1518,
      "ĠÂ": 1519,
      "Ġiza": 1520,
      "Ġodlu": 1521,
      "Ġpozi": 1522,
      "13": 1523,
      "ĠÐ²ÑĢÐµÐ´": 1524,
      "Ġ13": 1525,
      "roz": 1526,
      "ĠÑĥÑģÐ»": 1527,
      "ĠBo": 1528,
      "kta": 1529,
      "Ð¸ÐºÐ¾": 1530,
      "Ġjedan": 1531,
      "Ġimaju": 1532,
      "Ġkonce": 1533,
      "ĠÐ·ÐµÐ¼": 1534,
      "Ð¾Ð»Ð¾ÑĪ": 1535,
      "Ġ14": 1536,
      "ÐºÐ¾": 1537,
      "Å½": 1538,
      "ĠÑĻ": 1539,
      "Ġgde": 1540,
      "Ð¸ÑĢÐ°": 1541,
      "Ð²Ð°ÑĤ": 1542,
      "lnog": 1543,
      "14": 1544,
      "Ð°Ð·Ð¸": 1545,
      "ÐµÐ²Ð°": 1546,
      "Ġdoda": 1547,
      "Ġ/": 1548,
      "Ġteh": 1549,
      "Ġuve": 1550,
      "Ġsli": 1551,
      "ÑĢÐµÐ¼": 1552,
      "Ġovog": 1553,
      "ĠÐ¿ÑĢÐµÑĤ": 1554,
      "ÑĢÐ°ÑĦ": 1555,
      "nice": 1556,
      "AN": 1557,
      "ĠÐ¾Ð´ÑĢÐµÑĴ": 1558,
      "Ð´Ð°": 1559,
      "ĠÐ¶Ð¸Ð²Ð¾ÑĤ": 1560,
      "dne": 1561,
      "ĠÑģÑĢÐ¿": 1562,
      "ĠÐ¸Ð½ÑĤÐµÑĢ": 1563,
      "ÐµÐ¾Ð³": 1564,
      "rne": 1565,
      "Ð°ÑļÐµÐ¼": 1566,
      "Ġzaje": 1567,
      "ĠÐºÐ°ÑĢ": 1568,
      "rova": 1569,
      "ĠÅ¡ta": 1570,
      "ĠRa": 1571,
      "Da": 1572,
      "oj": 1573,
      "Ġri": 1574,
      "Ð°Ð»Ðµ": 1575,
      "vreme": 1576,
      "gre": 1577,
      "Ġ198": 1578,
      "ÑģÐºÐ¾Ñĺ": 1579,
      "lna": 1580,
      "co": 1581,
      "Äįkih": 1582,
      "kih": 1583,
      "ĠÐ¿ÑĢÐµÐ´ÑģÑĤÐ°Ð²ÑĻ": 1584,
      "ĠÐ¼Ð¾Ð´": 1585,
      "Ġodnosu": 1586,
      "Ġosnovu": 1587,
      "fo": 1588,
      "ĠzaÅ¡ti": 1589,
      "Ġnego": 1590,
      "ĠÐ¸ÑģÑĤÑĢÐ°Ð¶": 1591,
      "Pre": 1592,
      "rs": 1593,
      "Ðĵ": 1594,
      "Ãł": 1595,
      "Ġzdra": 1596,
      "ĠÐ¾ÑĢÐ³Ð°Ð½": 1597,
      "Ġutica": 1598,
      "Ð°ÑĤÑĢ": 1599,
      "ĠÑĽÐµ": 1600,
      "ĠÐ½Ð°Ð²": 1601,
      "Ġfo": 1602,
      "Äįkog": 1603,
      "Ġtran": 1604,
      "ĠÐ¸Ð·Ð²": 1605,
      "ÑģÐºÐ¾": 1606,
      "ĠÐ¾Ð±Ñĺ": 1607,
      "Ð»Ð°": 1608,
      "Ġkoristi": 1609,
      "Ð»Ð°Ñģ": 1610,
      "Ġizvo": 1611,
      "Ð°Ð½Ñģ": 1612,
      "ĠÐ·Ð½Ð°ÑĩÐ°Ñĺ": 1613,
      "Ð¸ÑĤÐµÑĤ": 1614,
      "ĠKa": 1615,
      "ĠÐ¼ÐµÑĤ": 1616,
      "Ġ17": 1617,
      "Ġpoja": 1618,
      "ÐµÐºÐ°": 1619,
      "Ð°ÐºÑĤ": 1620,
      "Ġbude": 1621,
      "ĠW": 1622,
      "ĠÐ³ÑĢÑĥÐ¿": 1623,
      "ĠMe": 1624,
      "Ð¸ÑģÑĥ": 1625,
      "ĠÐ¿Ð¾Ñĩ": 1626,
      "âĢĻ": 1627,
      "ĠÐ¿ÑĢÐµÐ¼Ð°": 1628,
      "Ġtokom": 1629,
      "gleda": 1630,
      "volj": 1631,
      "Å¡u": 1632,
      "Ð°ÑĪÑĤ": 1633,
      "ĠÐ¿ÑĢÐµ": 1634,
      "pada": 1635,
      "Äįko": 1636,
      "Ġobave": 1637,
      "200": 1638,
      "fa": 1639,
      "Ġdr": 1640,
      "ĠÐ¿Ð¾Ð»Ð¸ÑĤ": 1641,
      "Ġsme": 1642,
      "ĠÑĢÐµÑĩ": 1643,
      "Ġkojima": 1644,
      "rek": 1645,
      "ĠÐºÐ°ÐºÐ¾": 1646,
      "ĠIn": 1647,
      "ĠÄįla": 1648,
      "ÐºÐ¸": 1649,
      "ĠÐ¿ÑĥÑĤ": 1650,
      "Ġsvoje": 1651,
      "ĠÑģÐ²Ðµ": 1652,
      "Ġ16": 1653,
      "vnog": 1654,
      "nata": 1655,
      "Ġmedi": 1656,
      "Ġnad": 1657,
      "ÐµÑĢÐ°": 1658,
      "Ã¨": 1659,
      "ĠÐ·Ð±": 1660,
      "rodi": 1661,
      "ĠÑĥÐ¼": 1662,
      "nera": 1663,
      "Ġperio": 1664,
      "Ġho": 1665,
      "ĠÑĢÐµÐ·": 1666,
      "ĠÑļÐµÐ³Ð¾Ð²": 1667,
      "tih": 1668,
      "ÑĢÐ°ÑĴ": 1669,
      "«É": 1670,
      "16": 1671,
      "ĠÐ·Ð°Ð²": 1672,
      "Ġkarak": 1673,
      "ĠÐ¾ÑģÑĤ": 1674,
      "tera": 1675,
      "ĠÐ±ÐµÐ·": 1676,
      "Ã¥": 1677,
      "ĠÐ¾Ð½": 1678,
      "ndar": 1679,
      "Ð¸Ð²Ð°ÑļÐµ": 1680,
      "ktor": 1681,
      "hte": 1682,
      "Äįnih": 1683,
      "nova": 1684,
      "Ġw": 1685,
      "ĠÑĥÐ¿ÑĢ": 1686,
      "ĠÑĤÐµÑĢ": 1687,
      "Ð¾Ð²Ð¸Ð¼Ð°": 1688,
      "Ð¸Ð²Ð°": 1689,
      "Ġposta": 1690,
      "stupa": 1691,
      "22": 1692,
      "Ġeko": 1693,
      "Ð¼Ð°": 1694,
      "ĠÐ½ÐµÐ¿": 1695,
      "Ġmeto": 1696,
      "ĠÐ´ÑĢÑĥÑĪÑĤ": 1697,
      "vnih": 1698,
      "Do": 1699,
      "ĠÐ¡ÑĤ": 1700,
      "Ġisti": 1701,
      "ÐµÑĽÐ¸": 1702,
      "nski": 1703,
      "tar": 1704,
      "Ġpara": 1705,
      "ĠodreÄĳe": 1706,
      "Ġih": 1707,
      "ÑĢÑĤ": 1708,
      "ÐµÐ´Ð½": 1709,
      "ur": 1710,
      "meri": 1711,
      "vio": 1712,
      "ĠÑĥÐ²": 1713,
      "ĠÐ¿ÑĢÐ¾ÑĤ": 1714,
      "ÑĨÐ¸": 1715,
      "Ð°ÑĨÐ¸ÑĺÑĥ": 1716,
      "Ð³ÑĢ": 1717,
      "Ġsle": 1718,
      "ĠÑģÐ»ÑĥÑĩ": 1719,
      "Ġtek": 1720,
      "Ð¾Ð»Ð¸ÐºÐ¾": 1721,
      "ÑĥÑħ": 1722,
      "ĠÐ¾Ð´Ð»": 1723,
      "Ġkontro": 1724,
      "ĠÐ²Ð¸Ð´": 1725,
      "ĠPa": 1726,
      "ĠÐ²Ð¸ÑĪÐµ": 1727,
      "Ġet": 1728,
      "ĠÐ¿ÑĢÐ¾Ð¼": 1729,
      "ncija": 1730,
      "Ð¸Ð·Ð²": 1731,
      "ĠÐºÐ°Ð´Ð°": 1732,
      "ĠÐ¿Ð¾Ð½": 1733,
      "Ġkoju": 1734,
      "ĠÐ²ÐµÐ·": 1735,
      "Å¡ko": 1736,
      "ĠpoveÄĩa": 1737,
      "Ð°Ð²Ð°ÑļÐµ": 1738,
      "Ġgovo": 1739,
      "Éª": 1740,
      "Ð¾Ð´Ð¸": 1741,
      "Re": 1742,
      "ĠÐ³ÑĢ": 1743,
      "Ð»Ð¾": 1744,
      "zova": 1745,
      "ĠÐ¿Ð»": 1746,
      "Ġkvali": 1747,
      "Ġinforma": 1748,
      "ĠÐ¸Ð¼Ð°": 1749,
      "godi": 1750,
      "Ġproje": 1751,
      "Ð¾Ð¿ÑĢ": 1752,
      "17": 1753,
      "rati": 1754,
      "ĠNo": 1755,
      "\",": 1756,
      "Ġorganiza": 1757,
      "Ð¾Ð´Ðµ": 1758,
      "ĠÐºÑļ": 1759,
      "Ġpopu": 1760,
      "........": 1761,
      "ÑĥÑĨ": 1762,
      "ĠÑģÐ²ÐµÑĤ": 1763,
      "ĠÐºÐ¾Ð¼Ð¿": 1764,
      "Ð³Ð¾Ð²Ð¾ÑĢ": 1765,
      "Ġregi": 1766,
      "kim": 1767,
      "Ġloka": 1768,
      "ĠÐ±Ð¸Ð»Ð¾": 1769,
      "ĠÐ¨": 1770,
      "Ġdruge": 1771,
      "ĠÑĦÐ¾ÑĢÐ¼": 1772,
      "ĠÎ": 1773,
      "Ġsada": 1774,
      "Ġmaterija": 1775,
      "Ġkultu": 1776,
      "Ð¾ÑĴÐµ": 1777,
      "el": 1778,
      "Ġkroz": 1779,
      "ĠÑĤÐ¾Ðº": 1780,
      "Ġsrp": 1781,
      "âĢŀ": 1782,
      "th": 1783,
      "ĠÑĤÐ¾Ð¼": 1784,
      "oma": 1785,
      "ĠÑĥÐ»": 1786,
      "Ġn": 1787,
      "Ġtak": 1788,
      "Ġsti": 1789,
      "Ġtome": 1790,
      "rij": 1791,
      "Ġfina": 1792,
      "Ð²Ð¾": 1793,
      "Ġzapo": 1794,
      "Ġnjego": 1795,
      "Ġzahte": 1796,
      "Ð¾Ð»Ð¾Ð³": 1797,
      "Ð¸ÑĩÐ¸ÑĤ": 1798,
      "Pro": 1799,
      "rva": 1800,
      "nci": 1801,
      "nik": 1802,
      "ĠÐ¿Ð¸ÑĤ": 1803,
      "Ġjezi": 1804,
      "taka": 1805,
      "Ð¸ÑĩÐ½Ð¾": 1806,
      "RA": 1807,
      "Ġpredu": 1808,
      "Ġprogra": 1809,
      "ĠÐ·ÐµÐ¼ÑĻ": 1810,
      "Ð½Ð¸ÑĺÐµ": 1811,
      "Ġuspe": 1812,
      "mogu": 1813,
      "ĠVa": 1814,
      "ĠÐ¿Ð¾Ð³": 1815,
      "Ġdrugo": 1816,
      "Ġthe": 1817,
      "fini": 1818,
      "Ġpreko": 1819,
      "ÐµÑģÑĤÐ¾": 1820,
      "Ġsna": 1821,
      "âĢľ.": 1822,
      "ĠÐ¦": 1823,
      "ĠÐ°ÑĥÑĤ": 1824,
      "ĠÐ±Ð¸Ð»Ð°": 1825,
      "Ġdeo": 1826,
      "ÑħÐ¾Ð´": 1827,
      "Ð°Ð½Ð¾Ð²": 1828,
      "ĠSrbiji": 1829,
      "Ġhe": 1830,
      "Å¡nje": 1831,
      "II": 1832,
      "Ġsvi": 1833,
      "dova": 1834,
      "Ġsistema": 1835,
      "ĠEvro": 1836,
      "ĠDe": 1837,
      "Ð°ÑĪÑļ": 1838,
      "Äįna": 1839,
      "nske": 1840,
      "ĠveÄĩi": 1841,
      "cijama": 1842,
      "Ġtaj": 1843,
      "tka": 1844,
      "Ġviso": 1845,
      "ĠÐ¾ÑĢÐ³Ð°Ð½Ð¸Ð·": 1846,
      "dite": 1847,
      "Ġbole": 1848,
      "ĠÅ¡ko": 1849,
      "ĠÐºÐ¾ÑĢÐ¸ÑģÑĤ": 1850,
      "bri": 1851,
      "ment": 1852,
      "ĠÑĢÐ°Ð·Ð²Ð¾Ñĺ": 1853,
      "dna": 1854,
      "Ġjedna": 1855,
      "Ð°Ð½Ð¾": 1856,
      "vnom": 1857,
      "dio": 1858,
      "Ġnau": 1859,
      "ĠÐ½Ð°Ð´": 1860,
      "rad": 1861,
      "Ġbudu": 1862,
      "ÐµÑļÑĥ": 1863,
      "Ġprotiv": 1864,
      "novi": 1865,
      "stitu": 1866,
      "Ġpojedi": 1867,
      "met": 1868,
      "ĠÅ¡i": 1869,
      "ÐµÐºÑģÑĤ": 1870,
      "ST": 1871,
      "Ġnas": 1872,
      "Ð²Ð°Ð»": 1873,
      "Ð¸ÑĺÐ¾Ð¼": 1874,
      "ĠkoriÅ¡Äĩe": 1875,
      "ĠRu": 1876,
      "ĠÐ½Ð°Ð»": 1877,
      "Ġsla": 1878,
      "Ġovom": 1879,
      "ÐĿÐ°": 1880,
      "Ta": 1881,
      "ĠÐ¼Ð¾Ð³Ñĥ": 1882,
      "Êģ": 1883,
      "Mo": 1884,
      "Ġpore": 1885,
      "Ð°Ð´ÑĢÐ¶": 1886,
      "Ġsvet": 1887,
      "ĠÐ±Ð¸ÑĤÐ¸": 1888,
      "Ġobla": 1889,
      "ĠNi": 1890,
      "Ġpokaza": 1891,
      "Ġ30": 1892,
      "Ġmno": 1893,
      "Ġona": 1894,
      "ĠÑĤÐ°ÐºÐ¾": 1895,
      "ĠÑĢÐ°Ð·Ð»Ð¸ÑĩÐ¸ÑĤ": 1896,
      "Ġdanas": 1897,
      "____": 1898,
      "Ġzako": 1899,
      "ĠâĢĶ": 1900,
      "ĠÑĺÐµÑĢ": 1901,
      "ĠÑĻÑĥÐ´": 1902,
      "Ð¾Ð²Ð¾ÑĢ": 1903,
      "Ġgu": 1904,
      "ĠÐ¿Ð¾ÑģÑĤÐ¾Ñĺ": 1905,
      "vla": 1906,
      "ĠÐ¾Ð´Ð½Ð¾ÑģÐ½Ð¾": 1907,
      "ĠÐ¿ÑĢÐ¾ÑĨÐµÑģ": 1908,
      "Ð°Ð²Ð°ÑļÐ°": 1909,
      "tiva": 1910,
      "stvu": 1911,
      "ĠÐ¿ÑĢÐ¸Ð¿": 1912,
      "Ġokvi": 1913,
      "star": 1914,
      "mati": 1915,
      "Ġelek": 1916,
      "ÉŃ": 1917,
      "ktiv": 1918,
      "Ġzavi": 1919,
      "ĠÐ¿ÑĢÐ¾Ð¸Ð·Ð²": 1920,
      "Ð¸ÑĺÐ°Ð¼Ð°": 1921,
      "Ð¸Ð»Ðµ": 1922,
      "ĠÐ½ÐµÐ³": 1923,
      "ÑĢÑĥÐº": 1924,
      "ÑĦÐ¾ÑĢÐ¼": 1925,
      "Ð´ÑĢ": 1926,
      "ÐµÐ½Ð¸Ð¼": 1927,
      "plo": 1928,
      "Pri": 1929,
      "Ð»ÐµÐ´": 1930,
      "Ð²ÐµÑĤ": 1931,
      "il": 1932,
      "Ġsvoji": 1933,
      "ĠÐ½Ð°ÑģÑĤ": 1934,
      "ÑĥÐ½ÐºÑĨ": 1935,
      "Ra": 1936,
      "Ġpostoji": 1937,
      "kro": 1938,
      "ĠÑģÑĤÐ²Ð°ÑĢ": 1939,
      "ĠÐºÐ¾Ð»": 1940,
      "ĠÐ±ÑĥÐ´": 1941,
      "Ġpravo": 1942,
      "Ġ197": 1943,
      "rani": 1944,
      "ĠÑĤÑĢÐµÐ±": 1945,
      "ĠsadrÅ¾a": 1946,
      "ĠÐ°Ð½Ð°Ð»Ð¸Ð·": 1947,
      "ĠÐ¼Ð¾Ð³ÑĥÑĽ": 1948,
      "ĠÑģÑĤÑĢÐ°Ð½Ðµ": 1949,
      "ĠÄĮ": 1950,
      "Ġpravi": 1951,
      "Tako": 1952,
      "vao": 1953,
      "Ġstudi": 1954,
      "ove": 1955,
      "Ð»Ðµ": 1956,
      "ĠÑĥÑģÐ¿": 1957,
      "Ġutvr": 1958,
      "matra": 1959,
      "ĠÐ¿ÑĢÐ¸Ðº": 1960,
      "Ġdve": 1961,
      "vija": 1962,
      "21": 1963,
      "sne": 1964,
      "cijom": 1965,
      "klo": 1966,
      "ÐºÐ¾Ð¼": 1967,
      "50": 1968,
      "ÐµÐ¾Ð³ÑĢÐ°Ð´": 1969,
      "Ð¸ÑĤÐµÑĤÐ°": 1970,
      "ĠDa": 1971,
      "loga": 1972,
      "Ġos": 1973,
      "sije": 1974,
      "Ġproizvod": 1975,
      "Ġdelo": 1976,
      "riji": 1977,
      "ÐĽ": 1978,
      "ĠÐ¿ÑĢÐ¾ÑģÑĤ": 1979,
      "ÑĢÐµÑĤ": 1980,
      "ĠBa": 1981,
      "Ġkla": 1982,
      "Ð¾Ð½Ð¾Ð¼": 1983,
      "tua": 1984,
      "Ġtro": 1985,
      "ÐµÐ»Ð¸": 1986,
      "ÑĥÐ»ÑĤÑĥÑĢ": 1987,
      "Ð°ÐºÑĤÐµÑĢ": 1988,
      "rna": 1989,
      "Ġdela": 1990,
      "'',": 1991,
      "Ð¸ÑĦÐ¸Ðº": 1992,
      "Ð°Ð»Ð½Ðµ": 1993,
      "Ġener": 1994,
      "tima": 1995,
      "ĠÐ¸ÑģÐ¿Ð¸ÑĤ": 1996,
      "ĠÑĢÐ°Ñģ": 1997,
      "ÑĤÐ°": 1998,
      "vesti": 1999,
      "Ġskla": 2000,
      "tna": 2001,
      "ĠTa": 2002,
      "âĢ¦": 2003,
      "Ġupotre": 2004,
      "ĠÐ·Ð°ÐºÐ¾Ð½": 2005,
      "ĠÑĨÑĢ": 2006,
      "ĠÐ°ÑĢ": 2007,
      "Ġkarakteri": 2008,
      "Ġbili": 2009,
      "Ġsmatra": 2010,
      "men": 2011,
      "NI": 2012,
      "Mi": 2013,
      "uze": 2014,
      "ĠÑģÐ²Ð°Ðº": 2015,
      "Ġprisu": 2016,
      "Ġobje": 2017,
      "ĠÑĢÐµÐ³": 2018,
      "Ġzajedni": 2019,
      "Ð°ÑĺÐµ": 2020,
      "vna": 2021,
      "ĠÐ´Ð¾Ð¼": 2022,
      "ĠÐ·Ð°Ñĺ": 2023,
      "Ġodgova": 2024,
      "Ġnam": 2025,
      "bora": 2026,
      "Ġknji": 2027,
      "Äįuna": 2028,
      "Ġovaj": 2029,
      "ĠÐ²ÐµÑĢ": 2030,
      "Ġar": 2031,
      "ĠÐ½Ð°ÑĩÐ¸Ð½": 2032,
      "Ġoni": 2033,
      "spi": 2034,
      "vina": 2035,
      "ÐºÐ¾Ð»": 2036,
      "Ð¸ÑĩÐºÐ¸Ñħ": 2037,
      "Ġmeta": 2038,
      "vre": 2039,
      "ÄĲ": 2040,
      "Ġrada": 2041,
      "ĠPro": 2042,
      "Ġprili": 2043,
      "ĠÑļÐ¸ÑħÐ¾Ð²": 2044,
      "ĠÑĢÐµÐ·ÑĥÐ»ÑĤ": 2045,
      "Ġuklju": 2046,
      "Ð°ÑģÑĤÐ¸": 2047,
      "Ġ11": 2048,
      "ĠMo": 2049,
      "ĠÐ¿Ð¾ÑĤÑĢÐµÐ±": 2050,
      "Ġfinansi": 2051,
      "ÐµÐ½Ð·": 2052,
      "ĠX": 2053,
      "Ġdefini": 2054,
      "Ġ194": 2055,
      "ĠÐ¿ÑĢÐ¸Ð»": 2056,
      "Ð²ÑĢÐ¾Ð¿": 2057,
      "ÑĻÐ¸Ð²": 2058,
      "RE": 2059,
      "Ð¸ÑĪÑĽ": 2060,
      "ÐµÐ¼Ñĥ": 2061,
      "vra": 2062,
      "Ġnepo": 2063,
      "ĠPe": 2064,
      "Ġobzi": 2065,
      "zima": 2066,
      "rvi": 2067,
      "Ġporodi": 2068,
      "Äįnog": 2069,
      "Ġmnogo": 2070,
      "ĠÐ°ÐºÑĤÐ¸Ð²": 2071,
      "kata": 2072,
      "ÑĨÐ°": 2073,
      "Ġdobro": 2074,
      "ĠÑĢÐµ": 2075,
      "Ġmese": 2076,
      "ĠÑĩÐ»Ð°Ð½": 2077,
      "ĠGo": 2078,
      "lije": 2079,
      "Ġfe": 2080,
      "Ġsvoj": 2081,
      "Ġrazvo": 2082,
      "ĠmoguÄĩ": 2083,
      "publi": 2084,
      "ĠVe": 2085,
      "ĠÐ½Ð°Ñģ": 2086,
      "ĠÑĦÑĥÐ½ÐºÑĨ": 2087,
      "Ð°ÑĺÑĥÑĽÐ¸": 2088,
      "Ġosi": 2089,
      "ĠÐ¿ÐµÑĢÐ¸": 2090,
      "Äĳenje": 2091,
      "ĠÑģÑĥÐ´": 2092,
      "Ð¾Ð½Ð°": 2093,
      "ĠÑģÐ°Ð²": 2094,
      "ĠkaÅ¾e": 2095,
      "Ġispita": 2096,
      "vani": 2097,
      "rma": 2098,
      "Ġprija": 2099,
      "Ð°ÑĤÐµÑĢ": 2100,
      "Ġose": 2101,
      "meta": 2102,
      "Ġpreduze": 2103,
      "Ġprava": 2104,
      "Ð¾Ð²Ð°ÑļÐ°": 2105,
      "Ġaktivnosti": 2106,
      "Ġrekao": 2107,
      "zbe": 2108,
      "Ð¼ÐµÑĢ": 2109,
      "Ð¸ÑĩÐºÐ¾Ð³": 2110,
      "âĢĿ,": 2111,
      "ÑĢÑĥÐ¶": 2112,
      "Ġdece": 2113,
      "Ġpar": 2114,
      "stava": 2115,
      "Ġsvih": 2116,
      "Ġnajve": 2117,
      "ĠVi": 2118,
      "Ġostva": 2119,
      "ĠÐ·Ð±Ð¾Ð³": 2120,
      "ĠÑĨÐ¸ÑĻ": 2121,
      "Ġad": 2122,
      "Ġrea": 2123,
      "Ġmere": 2124,
      "ĠÑģÐ¿ÑĢ": 2125,
      "viÅ¡e": 2126,
      "Ni": 2127,
      "Ġnu": 2128,
      "ĠÑĥÑĤÐ¸ÑĨ": 2129,
      "ĠÐ·Ð°ÑĤ": 2130,
      "ĠÐ½Ð°ÑĺÐ²": 2131,
      "Ova": 2132,
      "Ð°ÑĢÐ¾Ð´": 2133,
      "Ġveoma": 2134,
      "Ġono": 2135,
      "Ġjedno": 2136,
      "zma": 2137,
      "Ġ&": 2138,
      "Ġdalje": 2139,
      "ĠÐ¿Ð¾ÐºÐ°Ð·": 2140,
      "IJ": 2141,
      "Ġslede": 2142,
      "rane": 2143,
      "bor": 2144,
      "tem": 2145,
      "mije": 2146,
      "Ġvode": 2147,
      "ĠÐ¿Ð¾ÑģÐµÐ±": 2148,
      "vala": 2149,
      "Å¡ka": 2150,
      "30": 2151,
      "ljivo": 2152,
      "ÐµÑĽÐµ": 2153,
      "ĠÐ²Ð»": 2154,
      "Ġkad": 2155,
      "laze": 2156,
      "ladi": 2157,
      "Ġstruktu": 2158,
      "ĠÑĺÐ°Ð²": 2159,
      "ĠÅ¡e": 2160,
      "kcije": 2161,
      "vanjem": 2162,
      "Ġobrazo": 2163,
      "Od": 2164,
      "snosti": 2165,
      "Ġdija": 2166,
      "Ġkomenta": 2167,
      "ĠVu": 2168,
      "ĠÐ¿Ð°": 2169,
      "Ġkomp": 2170,
      "nama": 2171,
      "ĠÐ·Ð°ÑĪÑĤ": 2172,
      "um": 2173,
      "Ġper": 2174,
      "Ma": 2175,
      "Ð°ÑĨÐ¸ÑĺÐ¸": 2176,
      "ĠÐ½Ð¸Ð²Ð¾": 2177,
      "Ġprosto": 2178,
      "Ð°ÑĨÐ°": 2179,
      "ktora": 2180,
      "noviÄĩ": 2181,
      "ÑĥÐ±Ð»": 2182,
      "vrÅ¡e": 2183,
      "stavlje": 2184,
      "Ð°Ð½Ñĥ": 2185,
      "ĠÑĥÑģ": 2186,
      "Ð¾ÑĤÑĢÐµÐ±": 2187,
      "Ð¸Ð¼Ðµ": 2188,
      "Ġspre": 2189,
      "Ġtrenu": 2190,
      "ĠÐ¿ÑĢÐµÐº": 2191,
      "ĠsluÄįaju": 2192,
      "Ð°ÐºÑģ": 2193,
      "ÑĨÑĥ": 2194,
      "Ġ25": 2195,
      "slu": 2196,
      "NA": 2197,
      "ĠÐĳÐµÐ¾Ð³ÑĢÐ°Ð´": 2198,
      "razu": 2199,
      "ĠDo": 2200,
      "Ġsitua": 2201,
      "ÑĢÐ°ÑĤ": 2202,
      "Ġ24": 2203,
      "OV": 2204,
      "Ġsredi": 2205,
      "nce": 2206,
      "ĠÐ²ÐµÐ»Ð¸Ðº": 2207,
      "ĠÐºÑĥÐ»ÑĤÑĥÑĢ": 2208,
      "Ġpredse": 2209,
      "ĠÐ¸Ð½Ð´": 2210,
      "ĠÐ¿ÑĢÐ¸Ð²": 2211,
      "ÑĢÑĥÐºÑĤ": 2212,
      "ĠÐºÐ°ÑĢÐ°ÐºÑĤÐµÑĢ": 2213,
      "25": 2214,
      "lim": 2215,
      "ĠÐ¸Ð´": 2216,
      "ĠÑģÐ°Ð´ÑĢÐ¶": 2217,
      "vije": 2218,
      "ĠÐ´ÐµÑĨ": 2219,
      ".-": 2220,
      "ww": 2221,
      "tnih": 2222,
      "ĠÄįu": 2223,
      "Ġobu": 2224,
      "Ġgrupe": 2225,
      "ĠÐ¿ÑĢÐ¾Ð±": 2226,
      "ĠÐ³ÑĢÐ°Ð´": 2227,
      "lnim": 2228,
      "Ġdobije": 2229,
      "tisti": 2230,
      "tku": 2231,
      "ĠÐ³Ð¾Ð´Ð¸Ð½Ð°": 2232,
      "kva": 2233,
      "Ġpacije": 2234,
      "Ġomogu": 2235,
      "janje": 2236,
      "ĠÐ°Ð»": 2237,
      "Ġpretho": 2238,
      "Ġpotpu": 2239,
      "menu": 2240,
      "koviÄĩ": 2241,
      "ĠÐµÐ½": 2242,
      "Ġefe": 2243,
      "com": 2244,
      "Ð½Ð¸ÑĨÐ¸": 2245,
      "ĠÐ¿Ð¾ÑģÑĤÑĥÐ¿": 2246,
      "us": 2247,
      "Ð¸ÑģÐ»": 2248,
      "ĠdruÅ¡tve": 2249,
      "Ã®": 2250,
      "kle": 2251,
      ");": 2252,
      "ĠÑģÐ½": 2253,
      "nistar": 2254,
      "ĠÐ²Ð¾Ñĺ": 2255,
      "mer": 2256,
      "ĠÐ·Ð°Ñħ": 2257,
      "kat": 2258,
      "Ð¸ÑĤÑĥ": 2259,
      "Ġtim": 2260,
      "Ġprote": 2261,
      "ĠnaÅ¡e": 2262,
      "Ġoblasti": 2263,
      "É§": 2264,
      "ÐµÑĤÐ¸": 2265,
      "Ġca": 2266,
      "Ġnekoliko": 2267,
      "ĠÐ·Ð°Ð´": 2268,
      "tan": 2269,
      "Ð¾Ñħ": 2270,
      "Ġsadr": 2271,
      "Ġnika": 2272,
      "Å¡nji": 2273,
      "Ð°ÑĨÐ¸Ð¾Ð½Ð°Ð»": 2274,
      "Ġpodataka": 2275,
      "ĠÐ¿Ð¾Ð¿": 2276,
      "ĠÐºÐ¾ÑĺÐ¸Ð¼Ð°": 2277,
      "ĠÐ¸ÑģÐº": 2278,
      "Ġsar": 2279,
      "sao": 2280,
      "Ġigra": 2281,
      "ĠÐ´ÐµÑĦ": 2282,
      "Ð¸ÑĩÐµ": 2283,
      "Ġpozna": 2284,
      "Ġobi": 2285,
      "Ð¾Ð´Ñĥ": 2286,
      "gli": 2287,
      "Ġuvek": 2288,
      "tivno": 2289,
      "Ð°ÑĨÐ¸Ð¾Ð½": 2290,
      "tora": 2291,
      "zni": 2292,
      "cioni": 2293,
      "Ġele": 2294,
      "ĠpovrÅ¡i": 2295,
      "Ġanti": 2296,
      "ÐµÐ´Ð¸Ð½": 2297,
      "Ġpostoje": 2298,
      "Ġkompa": 2299,
      "ĠÐ¿ÑĢÐ¸ÑĢ": 2300,
      "Äĳenja": 2301,
      "njima": 2302,
      "Ġ196": 2303,
      "Ð¸ÑĪÑĤÐ°": 2304,
      "Ġpona": 2305,
      "vine": 2306,
      "Ġpote": 2307,
      "ĠÐ´ÐµÐ»Ð°": 2308,
      "Ġneko": 2309,
      "Ġvide": 2310,
      "lima": 2311,
      "ĠPri": 2312,
      "ĠÐ³Ð¾Ð²Ð¾ÑĢ": 2313,
      "Ġraspo": 2314,
      "ÑļÐ°": 2315,
      "Ġput": 2316,
      "ĠÐ½Ð°ÐºÐ¾Ð½": 2317,
      "sija": 2318,
      "ÐµÐ²Ð¸ÑĽ": 2319,
      "ĠÑĤÐ¾Ð³Ð°": 2320,
      "Ġkojoj": 2321,
      "ĠÐ½Ð¸ÑģÑĥ": 2322,
      "Ð½Ð°Ñĩ": 2323,
      "vore": 2324,
      "ĠÐ¼ÐµÑĴ": 2325,
      "grad": 2326,
      "ĠreÅ¡e": 2327,
      "ÐµÐ½ÑĥÑĤ": 2328,
      "Ð¾Ð²Ð¾ÑĻ": 2329,
      "Ġformi": 2330,
      "Ġtem": 2331,
      "Ġzaklju": 2332,
      "dnik": 2333,
      "ĠÐ¾ÑģÐ½Ð¾Ð²Ñĥ": 2334,
      "ĠÐ¿Ð»Ð°Ð½": 2335,
      "Ġtele": 2336,
      "Ġspro": 2337,
      "ĠneÅ¡to": 2338,
      "vred": 2339,
      "nskog": 2340,
      "ĠÐ¼Ð¾ÑĢ": 2341,
      "Ġap": 2342,
      "ĠÐ¸ÑģÑĤÐ¾ÑĢ": 2343,
      "sna": 2344,
      "ĠLa": 2345,
      "hvata": 2346,
      "lacije": 2347,
      "kazuje": 2348,
      "ĠÑģÑĤÑĥÐ´": 2349,
      "Ġnalazi": 2350,
      "tt": 2351,
      "ÐµÐ³Ð°": 2352,
      "ĠÐ¸Ð½ÑģÑĤ": 2353,
      "rana": 2354,
      "ĠÐ¿ÑĢÐ°Ð²Ð°": 2355,
      "gije": 2356,
      "Ġunu": 2357,
      "bar": 2358,
      "jske": 2359,
      "Ġslobo": 2360,
      "lih": 2361,
      "Ġtom": 2362,
      "ĠJo": 2363,
      "Ð¾Ð²Ð°ÑļÐµ": 2364,
      "ÐµÑĤÑĢ": 2365,
      "ÐµÐ¼Ð±": 2366,
      "Ġonda": 2367,
      "ĠRepubli": 2368,
      "snika": 2369,
      "qu": 2370,
      "ĠÐ³Ð°": 2371,
      "ĠDi": 2372,
      "Ġan": 2373,
      "gao": 2374,
      "sob": 2375,
      "ĠÐ¾Ð´Ð½Ð¾ÑģÑĥ": 2376,
      "tivne": 2377,
      "ĠÐ´Ð²Ð°": 2378,
      "Ġkarakteristi": 2379,
      "ĠtakoÄĳe": 2380,
      "Äįan": 2381,
      "Å¾no": 2382,
      "Ġukup": 2383,
      "ÐµÐ½ÑĤÑĢ": 2384,
      "ÑĨÐ¸ÑĺÐµ": 2385,
      "Je": 2386,
      "Ð²Ð¸": 2387,
      "ĠÐ¸Ð·Ð±": 2388,
      "AT": 2389,
      "sam": 2390,
      "jte": 2391,
      "Ġkomu": 2392,
      "ĠÐ²Ð¸Ñģ": 2393,
      "ĠÐ¸Ð½ÑĤ": 2394,
      "Ġprikaza": 2395,
      "ĠÐ²ÑĢÐµÐ´Ð½Ð¾ÑģÑĤÐ¸": 2396,
      "Ġputa": 2397,
      "ĠÐ½Ð°Ð·": 2398,
      "bela": 2399,
      "Ð°Ð»Ð½Ð¾": 2400,
      "ndi": 2401,
      "ÐµÐ¼Ð¾": 2402,
      "AD": 2403,
      "ĠJu": 2404,
      "Å¡tu": 2405,
      "ĠÑĺÐµÐ´Ð°Ð½": 2406,
      "ĠBi": 2407,
      "ĠÐ§": 2408,
      "ðĿ": 2409,
      "viti": 2410,
      "Ġrizi": 2411,
      "nde": 2412,
      "23": 2413,
      "Ð²ÑĢÑĴ": 2414,
      "Äįenja": 2415,
      "ĠistraÅ¾ivanja": 2416,
      "ĠBe": 2417,
      "Ġmalo": 2418,
      "Ġskladu": 2419,
      "Ġneza": 2420,
      "lnom": 2421,
      "Ġneu": 2422,
      "ĠÐ½Ð¸": 2423,
      "Å¾be": 2424,
      "Ġkoncentra": 2425,
      "Ð°Ð²Ð°ÑĺÑĥ": 2426,
      "ĠÐ³Ð´Ðµ": 2427,
      "ĠSe": 2428,
      "Ġproda": 2429,
      "Ð¸ÑĩÐºÐ°": 2430,
      "ĠÐ²ÑĢÑģÑĤ": 2431,
      "ĠodrÅ¾a": 2432,
      "ĠÑĺÐµÐ´Ð¸Ð½": 2433,
      "ĠÐºÐ¾Ð½ÑĨ": 2434,
      "ÐµÐºÑĤÐ¸Ð²": 2435,
      "Ġvrednost": 2436,
      "Ġcr": 2437,
      "Ð²Ð¸ÑĢ": 2438,
      "Ġobli": 2439,
      "risti": 2440,
      "ĠÐ´ÑĢÑĥÑĪÑĤÐ²": 2441,
      "ĠÐ¸Ð·Ð´": 2442,
      "24": 2443,
      "ĠÐºÑĢÐ¸Ð²": 2444,
      "Ð¤": 2445,
      "Ġprepo": 2446,
      "ĠÐºÐ¾Ð½ÑĤ": 2447,
      "Ġrazvoj": 2448,
      "ĠÐ¿Ð¸Ñģ": 2449,
      "Ð¸ÑĤÐ°": 2450,
      "ĠÑĪÐºÐ¾Ð»": 2451,
      "ĠÑĦÐ¸Ð»": 2452,
      "Ð¾Ð¼Ð°": 2453,
      "ĠLi": 2454,
      "Ð¸Ð½Ð³": 2455,
      "ÑĥÑĤÐ¸Ð¼": 2456,
      "laga": 2457,
      "Ġpru": 2458,
      "ĠÐ¿ÑĢÐ¸": 2459,
      "nskih": 2460,
      "Äĳuje": 2461,
      "Ð¾Ð»Ð°": 2462,
      "Ġeks": 2463,
      "Ġ=": 2464,
      "tnog": 2465,
      "lar": 2466,
      "ĠÑĤÐ¾ÐºÐ¾Ð¼": 2467,
      "ĠÐºÐ»": 2468,
      "Ġpokre": 2469,
      "stri": 2470,
      "Ġsmi": 2471,
      "Ġfizi": 2472,
      "loÅ¾e": 2473,
      "Ġobezbe": 2474,
      "mom": 2475,
      "jan": 2476,
      "ĠÑģÑĤÐ°ÑĢ": 2477,
      "Ð½ÑĤ": 2478,
      "Ġokviru": 2479,
      "Ġuslu": 2480,
      "ĠÐ¿Ð¾ÑĤÐ¿": 2481,
      "ÑĥÐ²": 2482,
      "Ġizve": 2483,
      "Ġzemlji": 2484,
      "Ġintere": 2485,
      "Ġdoma": 2486,
      "ĠÑĺÐ¾ÑĪ": 2487,
      "ÑĥÐ¶Ð±": 2488,
      "ĠÑģÐ¸ÑģÑĤÐµÐ¼": 2489,
      "Ð¾Ð²Ð¾": 2490,
      "ĠTe": 2491,
      "Ġnaro": 2492,
      "Ġï": 2493,
      "Ð¾ÑĢÐ¸": 2494,
      "Ġdrugih": 2495,
      "ĠJa": 2496,
      "Ð°ÑĩÐº": 2497,
      "Ð¸ÑģÐº": 2498,
      "Ġmre": 2499,
      "ĠÐ¿ÑĢÐ¸ÑģÑĤ": 2500,
      "ĠÐ¿ÑĢÐ¾Ð³": 2501,
      "Ġispo": 2502,
      "peratu": 2503,
      "ĠÐ½Ð°Ð¼": 2504,
      "Ġgrupa": 2505,
      "Äįkim": 2506,
      "sor": 2507,
      "Ġneka": 2508,
      "ĠÐ¿Ð¾ÑģÐ»ÐµÐ´": 2509,
      "Ve": 2510,
      "Ġ50": 2511,
      "ÑĢÐ¾": 2512,
      "ÃŃ": 2513,
      "ĠÐ´ÑĢÐ¶Ð°Ð²": 2514,
      "line": 2515,
      "ĠÐ¿ÑĢÐµÐ²": 2516,
      "Ð²Ð°Ñĺ": 2517,
      "kuje": 2518,
      "Ð¸ÐºÐ¾Ð¼": 2519,
      "ĠÐ´ÑĢÑĥÐ³Ðµ": 2520,
      "Ġnjih": 2521,
      "Ako": 2522,
      "Ð¸ÑĨÑĥ": 2523,
      "Ġ<": 2524,
      "Ġname": 2525,
      "vet": 2526,
      "kraji": 2527,
      "Ġusta": 2528,
      "od": 2529,
      "ina": 2530,
      "ĠÐ²ÑĢÐµÐ¼Ðµ": 2531,
      "Ġelektro": 2532,
      "Ġnajbo": 2533,
      "ty": 2534,
      "Ëĩ": 2535,
      "janja": 2536,
      "diti": 2537,
      "ÄĬ": 2538,
      "ĠtrÅ¾i": 2539,
      "Ð°Ð½Ð¸Ñħ": 2540,
      "Iz": 2541,
      "liti": 2542,
      "Ġsistem": 2543,
      "es": 2544,
      "ĠÐ·Ð°ÑĺÐµÐ´Ð½": 2545,
      "ĠÑĢÐµÐ´": 2546,
      "Ð¾Ð¿Ð¸Ñģ": 2547,
      "Ġsocija": 2548,
      "ĠÐ¼Ð½Ð¾Ð³": 2549,
      "ÑģÑĤÐ²Ð°ÑĢ": 2550,
      "nos": 2551,
      "ĠÐ¾Ñĩ": 2552,
      "Ġidenti": 2553,
      "Ġdina": 2554,
      "ĠÐºÑĢÐ¾Ð·": 2555,
      "Ġure": 2556,
      "Ìģ": 2557,
      "Ð¸ÑĺÑĥÐ¼": 2558,
      "Ġume": 2559,
      "ĠÐ¾Ð¿ÑĪÑĤ": 2560,
      "MeÄĳu": 2561,
      "mini": 2562,
      "ÑĢÑĥÐºÑĤÑĥÑĢ": 2563,
      "ĠÐ¿ÑĢÐ¸ÐºÐ°Ð·": 2564,
      "Ð¸ÑĤÐµÑĻ": 2565,
      "ĠÐ½Ð°ÑĪ": 2566,
      "ĠÐ¿ÐµÑģ": 2567,
      "ĠÐ½Ð°ÑģÑĤÐ°Ð²": 2568,
      "risa": 2569,
      "kul": 2570,
      "NO": 2571,
      "ĠÑĤÐµÐ¼": 2572,
      "Ġmanje": 2573,
      "Ð°Ð²ÑĻÐ°": 2574,
      "ĠÐľÐ¸Ð»": 2575,
      "Ġugovo": 2576,
      "kcija": 2577,
      "Äįkom": 2578,
      "ĠÐ·Ð°Ðº": 2579,
      "pak": 2580,
      "Ġstandar": 2581,
      "vod": 2582,
      "Ð²ÑĢÑĪ": 2583,
      "ĠneÄĩe": 2584,
      "Ð°Ð·Ðµ": 2585,
      "ĠoÄįe": 2586,
      "Ġone": 2587,
      "Ġstatisti": 2588,
      "ĠÐ¿ÑĢÐ¾ÑĤÐ¸Ð²": 2589,
      "Ġteo": 2590,
      "Ġveza": 2591,
      "ĠÐµÑĦ": 2592,
      "ĠÐ´ÐµÑĤ": 2593,
      "sova": 2594,
      "Ġisku": 2595,
      "Ġizda": 2596,
      "ĠÑģÑĤÐ°Ð½Ð¾Ð²": 2597,
      "pad": 2598,
      "Ġvremena": 2599,
      "Ġtrans": 2600,
      "ruÅ¾e": 2601,
      "ĠÑģÑĤÐ°ÑĤ": 2602,
      "tio": 2603,
      "mp": 2604,
      "ĠÐ¼ÐµÐ´": 2605,
      "snost": 2606,
      "ĠÐ¾ÐºÐ¾": 2607,
      "Ġuo": 2608,
      "ĠÐ¾Ð¼": 2609,
      "Ð°ÑĩÐ°": 2610,
      "Ġnastav": 2611,
      "Ġpolo": 2612,
      "ĠÐ¾Ð²Ð¾Ð³": 2613,
      "Ġtemperatu": 2614,
      "ĠÐ³ÑĢÐ°ÑĴ": 2615,
      "ÐµÑĪÑĽ": 2616,
      "ĠÐ¡ÑĢÐ±Ð¸ÑĺÐµ": 2617,
      "Ð¾ÑĢÑĥ": 2618,
      "ĠÐ¿ÑĢÐµÐ´ÑģÑĤÐ°Ð²ÑĻÐ°": 2619,
      "hu": 2620,
      "Ġprvi": 2621,
      "ĠÑģÐ²Ð¾ÑĺÐµ": 2622,
      "Ð¾Ð³ÑĢÐ°ÑĦ": 2623,
      "Ġâ": 2624,
      "ĠÐ¿ÐµÑĢ": 2625,
      "Pa": 2626,
      "ĠÑĢÐµÑĪ": 2627,
      "ĠÐ¸Ð¼Ð°ÑĺÑĥ": 2628,
      "Å¡ava": 2629,
      "pred": 2630,
      "Ġvoj": 2631,
      "ĠÑĥÐ¿Ð¾ÑĤÑĢÐµÐ±": 2632,
      "ĠÐ¡Ð»": 2633,
      "Ġposti": 2634,
      "ĠÑĤÑĢÐµÐ±Ð°": 2635,
      "Ð°ÑĢÐ´": 2636,
      "ÐµÑĽÐ°": 2637,
      "ĠSi": 2638,
      "Ã©": 2639,
      "ÑĢÐ°Ð¼": 2640,
      "Äįnim": 2641,
      "tke": 2642,
      "grani": 2643,
      "ÐµÑĢÐ·": 2644,
      "Ġvam": 2645,
      "ĠÑĤÑĢÐ¸": 2646,
      "Å¡nja": 2647,
      "Ġ23": 2648,
      "ĠÐ´ÐµÑĦÐ¸Ð½": 2649,
      "ĠÑĤÑĥÑĢ": 2650,
      "ĠÐ½ÐµÐ¼": 2651,
      "ĠÐ¾Ð²Ðµ": 2652,
      "Ġnavede": 2653,
      "ĠÐ¼ÐµÑĴÑĥ": 2654,
      "ĠÐ¾ÐºÐ²Ð¸ÑĢ": 2655,
      "vnim": 2656,
      "Ġsko": 2657,
      "Ġpotvr": 2658,
      "Ð»ÐµÐºÑģ": 2659,
      "ĠÄįita": 2660,
      "ĠÐ¾Ð²Ð¾Ð¼": 2661,
      "Ġsaj": 2662,
      "Ġ100": 2663,
      "pr": 2664,
      "RI": 2665,
      "ĠÐ½ÐµÐ´": 2666,
      "ume": 2667,
      "ĠÐ´ÐµÐ¾": 2668,
      "vana": 2669,
      "Ġovih": 2670,
      "ĠÐľÐ°ÑĢ": 2671,
      "per": 2672,
      "ĠÐ¿Ð¾ÑĺÐµÐ´Ð¸Ð½": 2673,
      "Ġnedo": 2674,
      "vde": 2675,
      "ÐµÑĢÑĤ": 2676,
      "niver": 2677,
      "ĠÐ¼Ð°ÑĤÐµÑĢ": 2678,
      "Ġras": 2679,
      "bre": 2680,
      "Ġneki": 2681,
      "Äįnosti": 2682,
      "Ġzaposle": 2683,
      "Ð¸Ð¶ÐµÐ²": 2684,
      "Ġzi": 2685,
      "Ġposled": 2686,
      "Ð½Ð°ÑĤ": 2687,
      "smo": 2688,
      "Ġsvim": 2689,
      "ÐµÑĢÐ°ÑĤ": 2690,
      "ĠÑĪÐ¸ÑĢ": 2691,
      "ĠÄįak": 2692,
      "vez": 2693,
      "liÄįi": 2694,
      "ÐºÑĢ": 2695,
      "Ġekonom": 2696,
      "Ġfil": 2697,
      "ĠPre": 2698,
      "Ð°ÑĤÐµÐ³": 2699,
      "nad": 2700,
      "ĠÐ±Ð¸Ð»Ð¸": 2701,
      "Ġupravlja": 2702,
      "ĠÐ¿ÑĢÐ¸Ð¼ÐµÑĢ": 2703,
      "Ġdete": 2704,
      "Äĩih": 2705,
      "ĠLe": 2706,
      "Ġoce": 2707,
      "Ġvarija": 2708,
      "tori": 2709,
      "som": 2710,
      "ÑĥÐ³Ð¾ÑģÐ»": 2711,
      "Ð°Ð¼Ð¾": 2712,
      "ĠÐ¾ÑģÐ¾Ð±": 2713,
      "Ġnapo": 2714,
      "Ð¾ÑĪÑĤ": 2715,
      "jski": 2716,
      "tin": 2717,
      "Ġjednom": 2718,
      "ĠÐ¿Ð¾ÑĩÐµÑĤ": 2719,
      "Ġpodr": 2720,
      "ĠÐºÐ¾Ð½ÑĤÑĢ": 2721,
      "Ġdelu": 2722,
      "lnosti": 2723,
      "Ð¸ÑĤÐ¸Ð²": 2724,
      "Ġplani": 2725,
      "gen": 2726,
      "obra": 2727,
      "Ġuzor": 2728,
      "leksa": 2729,
      "Äįku": 2730,
      "ĠÑĤÐµÐºÑģÑĤ": 2731,
      "ĠÐ¼ÐµÑĢ": 2732,
      "Ġ2011": 2733,
      "Ġgrad": 2734,
      "Ġkoliko": 2735,
      "Ġstepe": 2736,
      "Ġnjegovo": 2737,
      "ĠÑĤÐ°ÐºÐ¾ÑĴÐµ": 2738,
      "lini": 2739,
      "ĠÐºÐ²Ð°Ð»": 2740,
      "ĠÑĨÑĢÐº": 2741,
      "ĠÐ¼Ñĥ": 2742,
      "ĠÐ¾ÑģÑĤÐ²Ð°ÑĢ": 2743,
      "Ð¸ÑĤÐµ": 2744,
      "ĠSrbija": 2745,
      "Ġkise": 2746,
      "ÐµÐ»Ð¾": 2747,
      "Ġsup": 2748,
      "Ġime": 2749,
      "Ġindi": 2750,
      "Ġdruga": 2751,
      "ĠÐµÐ»": 2752,
      "Ð¸ÑĨÐ¸ÑĺÐµ": 2753,
      "Ð°Ð»Ð½Ð¸": 2754,
      "Ð¸Ð³ÑĥÑĢ": 2755,
      "ĠOd": 2756,
      "Ġvidi": 2757,
      "kav": 2758,
      "Ġvezi": 2759,
      "ĠÐ²ÐµÐºÐ°": 2760,
      "Äĩem": 2761,
      "sima": 2762,
      "ss": 2763,
      "Ġtehno": 2764,
      "Ġopre": 2765,
      "Ġha": 2766,
      "ÐµÐ¿ÑĤ": 2767,
      "Ð¸ÑĩÐ½Ðµ": 2768,
      "ÐµÐ¿ÑĥÐ±Ð»": 2769,
      "ĠMar": 2770,
      "Ġizo": 2771,
      "Ġsmanje": 2772,
      "ÐµÐ½ÐµÑĢ": 2773,
      "ÐµÑģÑĤÐ¸": 2774,
      "ĠÐ¾Ð´ÑĢÐ¶": 2775,
      "ly": 2776,
      "ĠÐ¾Ð´Ð±": 2777,
      "ĠÐ²Ð°Ð¶": 2778,
      "Å£e": 2779,
      "ĠÑĢÐµÐ»": 2780,
      "Ġodgovor": 2781,
      "Ã°": 2782,
      "ĠÐ´Ð°Ð½": 2783,
      "Ġneop": 2784,
      "Ð¸ÑĽÐ°": 2785,
      "uz": 2786,
      "ÑĥÐ½Ð°ÑĢÐ¾Ð´": 2787,
      "ĠÑĤÐ¸Ð¿": 2788,
      "Ġdopri": 2789,
      "ĠgraÄĳa": 2790,
      "Ġpono": 2791,
      "Ġekspe": 2792,
      "ĠÑĤÐµÑħ": 2793,
      "Ġ2012": 2794,
      "Ġposebno": 2795,
      "ĠÐķÐ²ÑĢÐ¾Ð¿": 2796,
      "laz": 2797,
      "im": 2798,
      "Ġpoveza": 2799,
      "Ġkr": 2800,
      "199": 2801,
      "ÑĥÐºÐ°": 2802,
      "De": 2803,
      "ks": 2804,
      "ĠÐºÑĢÐ¸ÑĤ": 2805,
      "ĠÐ¿Ð¾Ð±": 2806,
      "ĠÐ±Ð»": 2807,
      "ĠÑģÐ¸Ð½": 2808,
      "Ð¾Ð²ÐµÐ½": 2809,
      "menti": 2810,
      "Ġpitanje": 2811,
      "ĠÐ½Ð°Ð³": 2812,
      "Ġodgovaraju": 2813,
      "\".": 2814,
      "gne": 2815,
      "Ġdvo": 2816,
      "ber": 2817,
      "niza": 2818,
      "Ġpoku": 2819,
      "ÐºÐ¾Ð²Ð¸ÑĽ": 2820,
      "ĠÐºÐ¾ÑĺÑĥ": 2821,
      "Ġsvako": 2822,
      "kazuju": 2823,
      "Ġzdrav": 2824,
      "RO": 2825,
      "ÑģÐ°": 2826,
      "cifi": 2827,
      "ĠÐ»Ð¾Ðº": 2828,
      "ciona": 2829,
      "Ġ2010": 2830,
      "Ġulo": 2831,
      "ĠJe": 2832,
      "Ġmnog": 2833,
      "ĠÑģÐ¸ÑģÑĤÐµÐ¼Ð°": 2834,
      "Ġobo": 2835,
      "Ġnacional": 2836,
      "Ġposledi": 2837,
      "Ġ22": 2838,
      "ĠÐ·Ð°ÑħÑĤ": 2839,
      "riti": 2840,
      "Ġsub": 2841,
      "Ð°Ð²ÐµÐ·": 2842,
      "Ð¾Ð³ÑĥÑĽ": 2843,
      "Ð¸ÑĺÑģÐºÐ¸": 2844,
      "Ð°ÑĨÐ¸": 2845,
      "ÑģÑĤÑĢ": 2846,
      "grafi": 2847,
      "zije": 2848,
      "Ġsvega": 2849,
      "stro": 2850,
      "Ġ21": 2851,
      "ĠÐºÑļÐ¸Ð¶ÐµÐ²": 2852,
      "Ð¾ÑĢÑĤ": 2853,
      "Ġlica": 2854,
      "Ġneopho": 2855,
      "ĠÐ¸ÑģÑĤÑĢÐ°Ð¶Ð¸Ð²Ð°ÑļÐ°": 2856,
      "ĠEU": 2857,
      "ÐµÐ½Ð´": 2858,
      "lina": 2859,
      "Äįenje": 2860,
      "ÑļÑĥ": 2861,
      "Ð°Ð»Ð½Ð¾Ð³": 2862,
      "ÑĥÑģÑĤÑĢ": 2863,
      "ĠBeogradu": 2864,
      "JE": 2865,
      "ĠÅ¾ivot": 2866,
      "Å£i": 2867,
      "Kako": 2868,
      "ĠÐ²Ð°ÑĢ": 2869,
      "ĠÐ´Ð¾Ð´": 2870,
      "ĠuÄįi": 2871,
      "ÑļÐ¸": 2872,
      "Ġuna": 2873,
      "Ġpostup": 2874,
      "ĠÐ¼ÐµÑģÑĤ": 2875,
      "Ġdoku": 2876,
      "ĠÐ¿ÑĢÐµÐ¿": 2877,
      "ĠÐļÑĢ": 2878,
      "ĠÐ¿ÑĢÐ¸ÑģÑĤÑĥÐ¿": 2879,
      "ĠÄĲ": 2880,
      "ĠBu": 2881,
      "Ġmili": 2882,
      "ĠÑĤÐ¾Ð¼Ðµ": 2883,
      "ĠÑĢÐ°Ð·Ð²": 2884,
      "vac": 2885,
      "kama": 2886,
      "lnu": 2887,
      "ĠÑĦÐ¸Ð½": 2888,
      "Ġsarad": 2889,
      "Ġprodu": 2890,
      "kar": 2891,
      "feren": 2892,
      "ljenja": 2893,
      "bina": 2894,
      "Ġindu": 2895,
      "Ġ2013": 2896,
      "Ð°Ð²Ð¾": 2897,
      "Å¡ke": 2898,
      "Å¡ao": 2899,
      "gnu": 2900,
      "ĠÑĨÐµÐ»": 2901,
      "Ġura": 2902,
      "ÑĮ": 2903,
      "ÐµÑļÐµÐ¼": 2904,
      "ĠÐ¿Ð¾ÑĢÐ¾Ð´": 2905,
      "ĠTo": 2906,
      "Bi": 2907,
      "Ð¸ÑĨÐ¸Ð¼Ð°": 2908,
      "kve": 2909,
      "ĠÐºÐ¾": 2910,
      "ĠÑĤÐµÐ¾ÑĢ": 2911,
      "ĠÐ¾Ð±ÑĢÐ°Ð·": 2912,
      "ĠÑĥÐ±": 2913,
      "Ġkompo": 2914,
      "ÄįiÄĩ": 2915,
      "Ġnove": 2916,
      "ĠÐ½ÐµÐ³Ð¾": 2917,
      "ĠreÄįi": 2918,
      "Å¡Äĩu": 2919,
      "kovi": 2920,
      "Ġkore": 2921,
      "Ġkoriste": 2922,
      "Ġpotrebno": 2923,
      "Slika": 2924,
      "Ġgre": 2925,
      "Ġpromene": 2926,
      "ljo": 2927,
      "Ġprofe": 2928,
      "Ð°Ð²Ð¸": 2929,
      "ĠÅ½": 2930,
      "ĠÐ°Ð¿": 2931,
      "Ġ2014": 2932,
      "Ġkome": 2933,
      "âĢĿ.": 2934,
      "ĠÑģÐ°ÑĢ": 2935,
      "ĠÐ¾Ð´Ð³Ð¾Ð²Ð¾ÑĢ": 2936,
      "ĠÐ¿Ð¾Ð´Ð°ÑĤ": 2937,
      "rke": 2938,
      "gled": 2939,
      "Ð¸Ð½Ð¸ÑģÑĤ": 2940,
      "Ð½ÑĥÑĤ": 2941,
      "ĠÐµÐºÐ¾Ð½Ð¾Ð¼": 2942,
      "Ġmisli": 2943,
      "ĠÐ¸Ð·Ð²ÑĢÑĪ": 2944,
      "ĠBeograd": 2945,
      "ĠmoguÄĩe": 2946,
      "ĠKi": 2947,
      "glo": 2948,
      "Äīe": 2949,
      "Ð°ÑĤÐµ": 2950,
      "Ġprocesa": 2951,
      "Naj": 2952,
      "Ġsvojim": 2953,
      "snije": 2954,
      "Ġefika": 2955,
      "ĠÐ´ÑĥÐ¶": 2956,
      "Ġ26": 2957,
      "Ġ...": 2958,
      "ĠÉ©": 2959,
      "ĠHa": 2960,
      "MeÄĳutim": 2961,
      "ÐµÑĢÐ³": 2962,
      "LI": 2963,
      "Äĳena": 2964,
      "Î±": 2965,
      "ĠÑģÐ»ÐµÐ´": 2966,
      "Ġban": 2967,
      "ÑĢÐ°Ð½Ð¸Ñĩ": 2968,
      "Ġbra": 2969,
      "Ġstano": 2970,
      "lago": 2971,
      ".\"": 2972,
      "SK": 2973,
      "ĠÄįesto": 2974,
      "ĠponaÅ¡a": 2975,
      "narod": 2976,
      "Ġsigu": 2977,
      "ĠÐºÐ¾Ð½ÑģÑĤ": 2978,
      "Ġ28": 2979,
      "lisa": 2980,
      "ĠraÄįuna": 2981,
      "Ġnivou": 2982,
      "jskih": 2983,
      "ĠÐ¿ÑĢÐ¾ÑĦ": 2984,
      "Ġsvoju": 2985,
      "26": 2986,
      ".âĢľ": 2987,
      "Ð¸ÑĢÐ°ÑļÐµ": 2988,
      "ÑĺÐµÐ´": 2989,
      "Ġpotencija": 2990,
      "stor": 2991,
      "Ð¸ÑĪÑĻ": 2992,
      "ĠÑĥÐºÑĻÑĥÑĩ": 2993,
      "Ġpodru": 2994,
      "Ġdozvo": 2995,
      "Ġ40": 2996,
      "ĠÑĩÐµÑĤ": 2997,
      "drÅ¾a": 2998,
      "Ġprimer": 2999,
      "son": 3000,
      "Ġkar": 3001,
      "Ġvodi": 3002,
      "ĠÐ²Ð»Ð°Ð´": 3003,
      "tski": 3004,
      "Ġkva": 3005,
      "ĠÐ°Ð´": 3006,
      "Ġtrebalo": 3007,
      "Ġ2008": 3008,
      "Ġkojih": 3009,
      "Ġneke": 3010,
      "Ð¸ÑģÑĤÐ°": 3011,
      "ÑĥÐ¿ÑĻ": 3012,
      "zom": 3013,
      "Ġposla": 3014,
      "ĠÐ±Ð¾ÑĢ": 3015,
      "Ġter": 3016,
      "ÐµÐ½Ð°ÑĤÐ°": 3017,
      "lacija": 3018,
      "ÑģÑĤÐ²Ñĥ": 3019,
      "Ġinstitu": 3020,
      "Ġ2009": 3021,
      "Ð°ÑĤÐ½Ð¾": 3022,
      "Ġbolesti": 3023,
      "Ġbli": 3024,
      "ĠÐ¸Ð½ÑĦÐ¾ÑĢÐ¼": 3025,
      "zija": 3026,
      "ĠSta": 3027,
      "ĠÄįove": 3028,
      "Ġ27": 3029,
      "Ð¾ÑĢÐµÐ´": 3030,
      "ĠÐ´Ð¾Ð»": 3031,
      "Te": 3032,
      "ĠÑģÐ¾ÑĨ": 3033,
      "Ġbroja": 3034,
      "Ġtvr": 3035,
      "Äĳen": 3036,
      "Ð²ÑĢÐ´": 3037,
      "Ġizja": 3038,
      "ÑĥÑĺÑĥÑĽÐ¸": 3039,
      "ĠÑħÑĢ": 3040,
      "tivni": 3041,
      "Ð°Ð»Ð½Ð¸Ñħ": 3042,
      "bije": 3043,
      "Ġoda": 3044,
      "ÐµÐ»ÐµÐ¶": 3045,
      "ĠÐ¾Ð·": 3046,
      "Äĩeg": 3047,
      "ksa": 3048,
      "Ġpripre": 3049,
      "Ð¸Ð½Ð¾Ð¼": 3050,
      "lac": 3051,
      "Vi": 3052,
      "Å¡lo": 3053,
      "ĠÑĥÑģÑĤ": 3054,
      "ĠÐ·Ð°Ð±": 3055,
      "Kada": 3056,
      "Ġdolazi": 3057,
      "nka": 3058,
      "ĠÑĢÐ°ÑģÐ¿": 3059,
      "27": 3060,
      "ĠÐ¾Ð±Ð·": 3061,
      "Ġzado": 3062,
      "cep": 3063,
      "menata": 3064,
      "28": 3065,
      "Ġperiodu": 3066,
      "ðĿĳ": 3067,
      "ĠÐ¼ÑĥÐ·": 3068,
      "Ð¸ÑĺÑģÐºÐµ": 3069,
      "ĠÐ¾Ð´Ð³Ð¾Ð²": 3070,
      "Å¾da": 3071,
      "uma": 3072,
      "ĠÑĥÐ´": 3073,
      "Ġproblem": 3074,
      "renja": 3075,
      "ry": 3076,
      "ud": 3077,
      "ĠÐ·Ð°ÐºÑĻÑĥÑĩ": 3078,
      "Ġopera": 3079,
      "ĠÐ¿ÑĢÐµÐ´ÑĥÐ·": 3080,
      "ĠÅ¾ivota": 3081,
      "ĠÐ¿Ð¾ÑģÑĤÐ¾ÑĺÐ¸": 3082,
      "pita": 3083,
      "ÐµÑģÐµÑĤ": 3084,
      "Ġjeste": 3085,
      "Ð¦": 3086,
      "ĠÐ½ÐµÐ·": 3087,
      "MA": 3088,
      "tivnih": 3089,
      "vila": 3090,
      "Ġ195": 3091,
      "titi": 3092,
      "ĠÑģÐ»ÑĥÑĩÐ°Ñĺ": 3093,
      "Ġtehni": 3094,
      "29": 3095,
      ".)": 3096,
      "ĠRo": 3097,
      "ple": 3098,
      "Ġgenera": 3099,
      "Ð¥": 3100,
      "ns": 3101,
      "ĠÑģÐ»ÑĥÑĩÐ°ÑĺÑĥ": 3102,
      "ÐµÐ»Ðµ": 3103,
      "ĠÐ³Ð»Ð°Ð²": 3104,
      "ĠÐºÐ¾ÑĢÐ¸ÑĪÑĽ": 3105,
      "ĠÐ¿Ð¾Ð²ÐµÐ·": 3106,
      "Ġmikro": 3107,
      "Ja": 3108,
      "ÐµÐ½Ð¸ÐºÐ°": 3109,
      "voljno": 3110,
      "tere": 3111,
      "ĠÐµÐ»ÐµÐ¼": 3112,
      "Ġproizvoda": 3113,
      "dro": 3114,
      "Ġreak": 3115,
      "05": 3116,
      "ĠznaÄįajno": 3117,
      "ĠÑĥÐ¼ÐµÑĤ": 3118,
      "Ġsre": 3119,
      "Ġmesto": 3120,
      "Ġuslovima": 3121,
      "Ġzemlje": 3122,
      "ĠÐ»Ð¸": 3123,
      "Ġjednog": 3124,
      "Ġradu": 3125,
      "Ġ+": 3126,
      "Ġnede": 3127,
      "ĠÐ¿ÑĢÐ¾Ð¸Ð·Ð²Ð¾Ð´": 3128,
      "ĠÐµÐ¼": 3129,
      "ĠÑģÑĤÐ°Ð²": 3130,
      "Ġdrugim": 3131,
      "njuje": 3132,
      "ÑĨÐ¸ÑĺÐ°": 3133,
      "jeva": 3134,
      "snik": 3135,
      "Ġkate": 3136,
      "kt": 3137,
      "ĠÐ½Ð°ÑĨÐ¸Ð¾Ð½Ð°Ð»": 3138,
      "mpa": 3139,
      "ĠÐ¿Ð¾Ð¼Ð¾ÑĽ": 3140,
      "Ġlu": 3141,
      "Ð²Ð°Ð½": 3142,
      "Ġograni": 3143,
      "Ġnega": 3144,
      "Ġproces": 3145,
      "ÑĨÐ¸Ð¿": 3146,
      "ÐµÑĴÑĥÑĤÐ¸Ð¼": 3147,
      "Ġrazvoja": 3148,
      "ĠrazliÄįitih": 3149,
      "ĠznaÄįi": 3150,
      "ĠÑģÑĤÑĢÑĥÐºÑĤÑĥÑĢ": 3151,
      "Ġvra": 3152,
      "ĠÐ¼Ð°ÑĢ": 3153,
      "Ġveliki": 3154,
      "ĠÑĥÐ½ÑĥÑĤ": 3155,
      "Ð¸ÑĢÐ°ÑļÐ°": 3156,
      "tvo": 3157,
      "ĠÄįini": 3158,
      "Ġ2015": 3159,
      "nska": 3160,
      "Ġtada": 3161,
      "//": 3162,
      "ĠÑĦÐ°ÐºÑĤ": 3163,
      "tiri": 3164,
      "NE": 3165,
      "Ġprilikom": 3166,
      "Äĳeno": 3167,
      "laza": 3168,
      "Ġstvari": 3169,
      "Ġug": 3170,
      "ĠÐµÐºÑģÐ¿": 3171,
      "Ġmodela": 3172,
      "rovatno": 3173,
      "ĠÐ¿Ð¾ÑĻ": 3174,
      "TA": 3175,
      "Ġukoliko": 3176,
      "ime": 3177,
      "vode": 3178,
      "ĠÐºÐ¾Ð½Ðº": 3179,
      "Ġdis": 3180,
      "Ġnazi": 3181,
      "ĠÐ¿ÑĢÐ¾Ð´": 3182,
      "ol": 3183,
      "Ġpsi": 3184,
      "Ġmesta": 3185,
      "Ġzada": 3186,
      "ĠÐ´Ð²Ðµ": 3187,
      "ĠÑģÐ»Ð¾Ð±": 3188,
      "Äįnom": 3189,
      "</": 3190,
      "Ġporu": 3191,
      "Ġrazume": 3192,
      "Ð°Ð»Ð½Ð°": 3193,
      "ĠÑĢÐ°ÑĤ": 3194,
      "ĠÐ´Ð¾ÑģÑĤ": 3195,
      "ĠÐ°ÐºÐ¾": 3196,
      "ĠAl": 3197,
      "Ð¡Ð»": 3198,
      "Ġvas": 3199,
      "vca": 3200,
      "dija": 3201,
      "TakoÄĳe": 3202,
      "tske": 3203,
      "«É¬": 3204,
      "ĠÐµÐ¿": 3205,
      "TE": 3206,
      "Ð½Ð¸ÑĪÑĤ": 3207,
      "Ã¡": 3208,
      "metri": 3209,
      "Ð°Ð¶Ðµ": 3210,
      "ĠÐ¸Ñģ": 3211,
      "Ġbezbe": 3212,
      "ĠÐ±Ð¾Ð»": 3213,
      "Ġgovori": 3214,
      "che": 3215,
      "ÐµÐ½ÑĤÐ°": 3216,
      "ĠÐ¿Ð¾Ð²ÐµÑĽ": 3217,
      "Ġuticaj": 3218,
      "tog": 3219,
      "Ã¢": 3220,
      "ĠÑĢÐ°Ð·Ð¼": 3221,
      "Ġponu": 3222,
      "LA": 3223,
      "Ġvrsta": 3224,
      "Ñĭ": 3225,
      "Ġdirek": 3226,
      "ĠÐ½Ð°Ð²ÐµÐ´": 3227,
      "ou": 3228,
      "Ð¸ÑĤÐ¾ÑĢ": 3229,
      "Ġpitanju": 3230,
      "pske": 3231,
      "Ð¡ÑĤ": 3232,
      "Ġpriti": 3233,
      "Ġeksperi": 3234,
      "ĠÐ·Ð°Ñģ": 3235,
      "35": 3236,
      "Äįkoj": 3237,
      "ĠnaÅ¡": 3238,
      "ÑĥÑĴ": 3239,
      "ĠÐ´Ð¸Ñģ": 3240,
      "Ð¸Ð¼Ð¾": 3241,
      "manje": 3242,
      "ĠÑĤÐ¸Ð¼": 3243,
      "Ġposmatra": 3244,
      "ĠÐ¸Ñħ": 3245,
      "ĠopÅ¡ti": 3246,
      "Ð¼Ð°Ð½": 3247,
      "ĠÐ¸Ð·Ð»": 3248,
      "Ð¾Ð»Ð¾ÑĪÐº": 3249,
      "ĠÐ´Ð¾Ð²": 3250,
      "ĠÐ¿ÑĢÐ¸Ñħ": 3251,
      "Ġdugo": 3252,
      "Ġpogo": 3253,
      "zora": 3254,
      "ĠÐºÐ°Ñģ": 3255,
      "ttp": 3256,
      "ĠÑĢÐ°Ð´Ð°": 3257,
      "Ð¸ÑĢÐ°Ð½": 3258,
      "ĠÑĩÐ¾Ð²": 3259,
      "Ð¸ÑĢÐµÐºÑĤ": 3260,
      "ĠÐ´Ð°ÑĻ": 3261,
      "ĠÐĸ": 3262,
      "Ġ2007": 3263,
      "ĠÑĤÐ°Ñĺ": 3264,
      "ĠÐ¿ÑĢÐ¾Ð±Ð»ÐµÐ¼": 3265,
      "Ð¼ÐµÑĤ": 3266,
      "ts": 3267,
      "vlju": 3268,
      "mera": 3269,
      "Ð¸ÑĩÐºÐ¸Ð¼": 3270,
      "://": 3271,
      "Ġvrste": 3272,
      "Å¡tva": 3273,
      "Ġinvesti": 3274,
      "ali": 3275,
      "Ð¸ÑĴ": 3276,
      "38": 3277,
      "san": 3278,
      "Ġosigu": 3279,
      "Ð¼Ðµ": 3280,
      "is": 3281,
      "ĠÐłÐµÐ¿ÑĥÐ±Ð»": 3282,
      "39": 3283,
      "Ġvrlo": 3284,
      "ĠÑĢÐµÐº": 3285,
      "Ġprose": 3286,
      "Ġosoba": 3287,
      "lin": 3288,
      "Ð°ÑĦ": 3289,
      "Ġspecifi": 3290,
      "vremeno": 3291,
      "Ġuda": 3292,
      "Ġfoto": 3293,
      "Ġkola": 3294,
      "Ġpode": 3295,
      "Ġgle": 3296,
      "40": 3297,
      "ĠÑĤÐµÑħÐ½": 3298,
      "Äįnu": 3299,
      "ĠÐ¿ÑĢÐ¸Ð½": 3300,
      "Ġpored": 3301,
      "ÐµÐ½ÑĨÐ¸ÑĺÐµ": 3302,
      "tko": 3303,
      "ÑĢÐ°Ð³": 3304,
      "Ð½Ð¾ÑĪ": 3305,
      "Ġsm": 3306,
      "Ġcentra": 3307,
      "Ġdone": 3308,
      "Ð¾ÑĢÐµ": 3309,
      "ÑĪÐ¸": 3310,
      "ban": 3311,
      "Ġispiti": 3312,
      "OD": 3313,
      "ĠÑĥÐºÐ°Ð·": 3314,
      "ĠÐ·Ð°Ð¼": 3315,
      "Ð°ÑĩÐºÐµ": 3316,
      "ĠÐ²Ð¸ÑģÐ¾Ðº": 3317,
      "Ġista": 3318,
      "ĠkoliÄįi": 3319,
      "razume": 3320,
      "Ð³Ð»ÐµÐ´": 3321,
      "zuje": 3322,
      "Ð»Ð°ÑĪ": 3323,
      "bru": 3324,
      "dnih": 3325,
      "Ð°ÑĢÐ¸": 3326,
      "Ð¸ÑĩÐ½Ð¾Ð³": 3327,
      "Ġmaterijala": 3328,
      "Ġstrate": 3329,
      "Ġ29": 3330,
      "ĠpomoÄĩ": 3331,
      "zbi": 3332,
      "telj": 3333,
      "Ġbolje": 3334,
      "Ġkrivi": 3335,
      "dje": 3336,
      "ÑĺÐ°": 3337,
      "ĠÐ¼ÐµÑĴÑĥÐ½Ð°ÑĢÐ¾Ð´": 3338,
      "Ġrela": 3339,
      "zdu": 3340,
      "voje": 3341,
      "Ġanalizi": 3342,
      "ÐĺÐ·": 3343,
      "ĠÑĢÐ°Ð´Ð¸": 3344,
      "ĠvaÅ¾": 3345,
      "Ġ2006": 3346,
      "ĠÐ¿Ð°ÑĢÑĤ": 3347,
      "ĠÐµÑĤ": 3348,
      ".âĢŀ": 3349,
      "Ġpromena": 3350,
      "ĠÐ³ÑĢÐ°Ð½": 3351,
      "ÐµÐºÑĤÑĢ": 3352,
      "mima": 3353,
      "ĠRepublike": 3354,
      "Ġtera": 3355,
      "Äīi": 3356,
      "Ġvozi": 3357,
      "ĠoseÄĩa": 3358,
      "Ġpredvi": 3359,
      "ĠznaÄįa": 3360,
      "ĠÐ°ÑĢÑħ": 3361,
      "ĠÄįinje": 3362,
      "ĠÐ¾Ð²Ð°Ñĺ": 3363,
      "Ġljud": 3364,
      "ĠÑģÐ¸Ð¼": 3365,
      "ĠÐºÐ°Ð¿": 3366,
      "ĠÐ²Ð¾Ð´": 3367,
      "gaÄĳa": 3368,
      "Prema": 3369,
      "ĠÐ·Ð°Ð²Ð¸Ñģ": 3370,
      "Ġspa": 3371,
      "ĠÐ¾ÐºÐ²Ð¸ÑĢÑĥ": 3372,
      "ĠÐı": 3373,
      "aj": 3374,
      "Ġcilje": 3375,
      "ĠÐĳÑĢ": 3376,
      "ĠÐ¸Ð·Ð³": 3377,
      "ÑĥÐºÐµ": 3378,
      "Ġzdravstve": 3379,
      "ĠÐ´Ð¾Ð³": 3380,
      "Ġnapra": 3381,
      "iz": 3382,
      "jum": 3383,
      "ĠÐ´Ð²": 3384,
      "Ġregu": 3385,
      "Å¡lja": 3386,
      "ĠÐ¿ÑĢÐµÑĤÑħÐ¾Ð´": 3387,
      "pisu": 3388,
      "ĠÐ¿ÑĢÐµÐºÐ¾": 3389,
      "ĠÄĩelija": 3390,
      "prav": 3391,
      "Ġ?": 3392,
      "Ġposeb": 3393,
      "ĠÐºÐ°ÑĢÐ°ÐºÑĤÐµÑĢÐ¸ÑģÑĤ": 3394,
      "ĠpodruÄį": 3395,
      "njih": 3396,
      "Ð¸Ð²ÐµÑĢÐ·": 3397,
      "Ġneo": 3398,
      "Ġplo": 3399,
      "ĠÑģÐ¿ÐµÑĨ": 3400,
      "ÐµÑĪÑĽÐµ": 3401,
      "................": 3402,
      "Ġugla": 3403,
      "Ġmeha": 3404,
      "Ð¸ÑĪÑĤÐµ": 3405,
      "Ġzato": 3406,
      "Ġiznosi": 3407,
      "ĠÐ½Ð°ÑĥÑĩ": 3408,
      "ĠÐºÐ¾Ð½ÑĤÑĢÐ¾Ð»": 3409,
      "logije": 3410,
      "Ġdan": 3411,
      "niti": 3412,
      "Ġsud": 3413,
      "ĠÐ¡Ð²ÐµÑĤ": 3414,
      "É¬": 3415,
      "nak": 3416,
      "Ġsposob": 3417,
      "ĠÐºÐ¾ÑĺÐ¾Ñĺ": 3418,
      "ĠSu": 3419,
      "Ġbrzi": 3420,
      "ĠÐ¾Ð´ÑĢÐµÐ´": 3421,
      "voji": 3422,
      "sio": 3423,
      "Ġpitanja": 3424,
      "Ð½Ð¸Ñĺ": 3425,
      "Ġam": 3426,
      "On": 3427,
      "mor": 3428,
      "ĠÐ¾Ð½Ð°": 3429,
      "lici": 3430,
      "ÑĢÑĥÑĩ": 3431,
      "lite": 3432,
      "jskog": 3433,
      "Ġsami": 3434,
      "ÐµÑĢÐ°ÑĤÑĥÑĢ": 3435,
      "ljenje": 3436,
      "ĠÐ¾Ð³": 3437,
      "jima": 3438,
      "Ġuspo": 3439,
      "Ġnorma": 3440,
      "ĠÏ": 3441,
      "ĠÑģÑĥÐ±": 3442,
      "Ġpora": 3443,
      "Ġisklju": 3444,
      "Ġ2005": 3445,
      "ĠÐ¸Ð´ÐµÐ½ÑĤ": 3446,
      "ĠÐ½Ð°ÑĢÐ¾Ð´": 3447,
      "ĠDu": 3448,
      "rao": 3449,
      "Ġvlasti": 3450,
      "Ð¸ÑĩÐ½Ð¸Ñħ": 3451,
      "Ġputem": 3452,
      "laÅ¾e": 3453,
      "der": 3454,
      "Kao": 3455,
      "ĠÐ´ÑĢÐ¶Ð°Ð²Ðµ": 3456,
      "Ġozna": 3457,
      "ĠÐ³Ð»Ð°Ð³": 3458,
      "Ð±ÐµÐ´": 3459,
      "Ġkatego": 3460,
      "mana": 3461,
      "cama": 3462,
      "ĠÐ´Ð°Ð½Ð°": 3463,
      "Ġevro": 3464,
      "Ġpotro": 3465,
      "ĠÐ¼Ð¾ÑĤ": 3466,
      "Ð¾Ñļ": 3467,
      "Ġtru": 3468,
      "leÅ¾": 3469,
      "tus": 3470,
      "pis": 3471,
      "Ġdobija": 3472,
      "renje": 3473,
      "net": 3474,
      "dina": 3475,
      "lnost": 3476,
      "Ġkojim": 3477,
      "kli": 3478,
      "TI": 3479,
      "Ġtj": 3480,
      "36": 3481,
      "Ã²": 3482,
      "Ali": 3483,
      "logija": 3484,
      "ll": 3485,
      "ĠÑĥÑĤÐ¸ÑĨÐ°Ñĺ": 3486,
      "ĠÐ¿ÑĢÐ¾Ñģ": 3487,
      "ÐµÐ»Ñĥ": 3488,
      "ĠII": 3489,
      "Ð°Ð·Ð°": 3490,
      "vili": 3491,
      "No": 3492,
      "Ġ%": 3493,
      "ĠÐ¸Ð½ÑģÑĤÐ¸ÑĤ": 3494,
      "bom": 3495,
      "Ġsave": 3496,
      "ÐµÐ½Ð¾ÑģÑĤÐ¸": 3497,
      "Ġrazlika": 3498,
      "ĠÐ³ÑĢÑĥÐ¿Ðµ": 3499,
      "Ġprima": 3500,
      "Ġminu": 3501,
      "Ġkraju": 3502,
      "ĠmoÅ¾ete": 3503,
      "ĠizveÅ¡ta": 3504,
      "ÑĥÐ»Ð°": 3505,
      "ĠÐ·Ð°Ð²ÑĢÑĪ": 3506,
      "Ovo": 3507,
      "ĠÐ¿Ð¾ÑģÑĤÐ¾ÑĺÐµ": 3508,
      "Ġpriro": 3509,
      "ÑĽÑĥ": 3510,
      "Ġpet": 3511,
      "Ġizuze": 3512,
      "ĠÐºÐ»Ð°Ñģ": 3513,
      "Ã±": 3514,
      "ĠÐ¾Ð¿Ð¸Ñģ": 3515,
      "ler": 3516,
      "tivna": 3517,
      "Ġbri": 3518,
      "Ġbor": 3519,
      "Sve": 3520,
      "ĠÐĿÐ°": 3521,
      "ĠÐ½Ð°ÑģÐ»": 3522,
      "Ġmaj": 3523,
      "ĠÐ´ÑĢÑĥÐ³Ð¸Ñħ": 3524,
      "Ġsebe": 3525,
      "ĠÐ¸Ð½ÑĤÐµÑĢÐµÑģ": 3526,
      "ÑĢÐ°ÑĽ": 3527,
      "Ġkomunika": 3528,
      "Ð¸ÑĩÐºÐ¾Ð¼": 3529,
      "ĠÐ½ÐµÐ¿ÑĢ": 3530,
      "Å¾an": 3531,
      "ĠukljuÄįu": 3532,
      "ĠSo": 3533,
      "Ġnavodi": 3534,
      "Î¿": 3535,
      "Ð¸ÑļÐµÐ½": 3536,
      "Ġglu": 3537,
      "ĠÑĥÐºÑĥÐ¿": 3538,
      "Ñı": 3539,
      "ft": 3540,
      "lova": 3541,
      "Ġpodrazume": 3542,
      "ĠÐ¸ÑģÑĤÑĢÐ°Ð¶Ð¸Ð²": 3543,
      "led": 3544,
      "________": 3545,
      "Å¡enje": 3546,
      "Ġtog": 3547,
      "ris": 3548,
      "ili": 3549,
      "Ð¸ÑĺÐ°ÑĤ": 3550,
      "Äĩim": 3551,
      "ĠÄįemu": 3552,
      "Ġ2016": 3553,
      "ĠâĢ¢": 3554,
      "Ġcilj": 3555,
      "Ġsvaki": 3556,
      "ĠÐ¿Ð¾Ð²ÑĢÑĪ": 3557,
      "Ġprove": 3558,
      "ranju": 3559,
      "34": 3560,
      "ĠÐ¿ÑĢÐ¾ÑĪ": 3561,
      "Ð¨": 3562,
      "Ġzahteva": 3563,
      "Ġpojedina": 3564,
      "Ð°ÑĻÐ°": 3565,
      "Ġgubi": 3566,
      "37": 3567,
      "tnosti": 3568,
      "Ġproblema": 3569,
      "Ġispu": 3570,
      "opÅ¡te": 3571,
      "Ð°ÑĺÑĥÑĽ": 3572,
      "Ġovoj": 3573,
      "Ġprona": 3574,
      "Î½": 3575,
      "ĠÐ¿ÑĢÐ²Ð¸": 3576,
      "ÑĢÐµ": 3577,
      "tova": 3578,
      "ĠÐ·Ð´ÑĢ": 3579,
      "Ġpriva": 3580,
      "dam": 3581,
      "Ġrodite": 3582,
      "ÐµÐ¾Ð¼Ð°": 3583,
      "Ġupu": 3584,
      "Ġ;": 3585,
      "ĠÐ¡ÑĢÐ±Ð¸ÑĺÐ¸": 3586,
      "kte": 3587,
      "ĠÐ³Ð»Ð°Ñģ": 3588,
      "Ġodnosi": 3589,
      "Ġstr": 3590,
      "Ġ2000": 3591,
      "ĠÐ¾Ð±Ð»Ð°ÑģÑĤÐ¸": 3592,
      "ÐµÑĤÐµ": 3593,
      "ĠÉ¢": 3594,
      "ĠÑĺÐµÐ·Ð¸ÐºÐ°": 3595,
      "tivi": 3596,
      "Ð¾Ð³Ñĥ": 3597,
      "Äįiti": 3598,
      "ck": 3599,
      "ÐµÐ²ÐµÑĢ": 3600,
      "we": 3601,
      "Ġdefinisa": 3602,
      "ĠÐ²ÑĢÐµÐ´Ð½Ð¾ÑģÑĤ": 3603,
      "Ð¸ÑĩÐºÐ¾": 3604,
      "ÐµÐ¿ÑĢ": 3605,
      "Ð°ÑĩÑĥÐ½": 3606,
      "fu": 3607,
      "set": 3608,
      "Ð¸ÑĤÐ¾": 3609,
      "rali": 3610,
      "formi": 3611,
      "Ġsmislu": 3612,
      "ÐŀÐ´": 3613,
      "Ġmeri": 3614,
      "dnici": 3615,
      "ĠÑģÐ²Ð¸Ñħ": 3616,
      "Ġvazdu": 3617,
      "Ġovim": 3618,
      "ĠÑĢÐ°ÑģÑĤ": 3619,
      "Ġdire": 3620,
      "bio": 3621,
      "ĠNA": 3622,
      "ĠÐ¿Ð¾ÑģÐµÐ±Ð½Ð¾": 3623,
      "Ġispitanika": 3624,
      "ĠAleksa": 3625,
      "ĠÄįetiri": 3626,
      "ĠÑģÐ¼Ð°Ñļ": 3627,
      "Ġveliko": 3628,
      "ĠÐ½ÐµÐºÐ¾Ð»Ð¸ÐºÐ¾": 3629,
      "Ġkru": 3630,
      "Ġrazliku": 3631,
      "ĠpoÅ¡to": 3632,
      "ĠÐ¸ÑģÐ¿Ð¸ÑĤÐ°Ð½": 3633,
      "Äĳivanje": 3634,
      "Ġï¿½": 3635,
      "ĠÄįlana": 3636,
      "tanja": 3637,
      "ĠÐ¸Ð´Ðµ": 3638,
      "rent": 3639,
      "Ġmuzi": 3640,
      "ĠPO": 3641,
      "ĠÐ¿ÑĢÐµÐ´ÑģÑĤÐ°Ð²": 3642,
      "Ġanalize": 3643,
      "zor": 3644,
      "Ã³": 3645,
      "rito": 3646,
      "Ġpobe": 3647,
      "ĠÐ¦ÑĢ": 3648,
      "ĠÅ¡a": 3649,
      "Ġ60": 3650,
      "ĠmoguÄĩnost": 3651,
      "Ð°ÑĤÑĢÐ°": 3652,
      "Äĩenja": 3653,
      "Ġnovi": 3654,
      "Ġstude": 3655,
      "Ġzara": 3656,
      "Ġtoku": 3657,
      "kna": 3658,
      "Ġzlo": 3659,
      "Ġnjima": 3660,
      "Ġimati": 3661,
      "Ð§": 3662,
      "ĠÐ¿ÑĢÐ°Ð²Ð¾": 3663,
      "Ġmodel": 3664,
      "dnog": 3665,
      "Ġpola": 3666,
      "ĠÐ¸Ð³ÑĢ": 3667,
      "ÑĤÑĥ": 3668,
      "nal": 3669,
      "ĠÐºÐ¾Ð¼ÑĥÐ½": 3670,
      "ĠÑģÐ½Ð°Ð³": 3671,
      "60": 3672,
      "Ĥ·": 3673,
      "ksida": 3674,
      "Ġsvetu": 3675,
      "ĠÐºÑĢÐ°Ñĺ": 3676,
      "ĠmiÅ¡": 3677,
      "ĠFe": 3678,
      "Ð¾ÑĺÐ¸": 3679,
      "tovo": 3680,
      "Ð¸Ð·Ð¼Ð°": 3681,
      "rnih": 3682,
      "ĠÑĢÐ°Ð½": 3683,
      "ĠÑĻÑĥÐ´Ð¸": 3684,
      "Ġgrada": 3685,
      "ĠÐºÐ°": 3686,
      "Ġepi": 3687,
      "rena": 3688,
      "Ð¼Ñĥ": 3689,
      "Ġotkri": 3690,
      "loÅ¡ki": 3691,
      "Ð¸ÑĩÐ½Ð°": 3692,
      "Ġjav": 3693,
      "Ġpostupa": 3694,
      "Ġinf": 3695,
      "ĠTi": 3696,
      "ME": 3697,
      "ĠÐĲÐ½": 3698,
      "ĠÐ¿Ð¾ÐºÑĢ": 3699,
      "Ð¸ÑĺÑģÐºÐ¸Ñħ": 3700,
      "tnu": 3701,
      "Ð¸ÑļÐµ": 3702,
      "Ġsvom": 3703,
      "**": 3704,
      "Ġopa": 3705,
      "ĠÑģÐ¼Ð¾": 3706,
      "ÑĢÐ°Ð½ÑĨÑĥ": 3707,
      "Ġbile": 3708,
      "ĠÐ½Ð°Ð»Ð°Ð·Ð¸": 3709,
      "Ġvan": 3710,
      "ĠAu": 3711,
      "Ġpisa": 3712,
      "ĠdrÅ¾ava": 3713,
      "Ġ2004": 3714,
      "ĠÐ²ÐµÐ¾Ð¼Ð°": 3715,
      "Ð¸Ð¼Ð¸Ð½": 3716,
      "ĠÐ¶Ð¸Ð²Ð¾ÑĤÐ°": 3717,
      "VI": 3718,
      "ĠÐ´ÑĥÐ³": 3719,
      "ĠÐ´ÑĢÑĥÐ³Ð¸": 3720,
      "ĠÑĤÑĢÐ¶": 3721,
      "ĠÐ¾Ð±Ð°Ð²ÐµÐ·": 3722,
      "Ġjedne": 3723,
      "ĠzaÅ¡tite": 3724,
      "ĠÑģÐ¼Ð¸ÑģÐ»": 3725,
      "ĠpaÅ¾": 3726,
      "Ġimao": 3727,
      "Ġobzirom": 3728,
      "Ġrastvo": 3729,
      "ĠÐ¿ÑĢÐ¾ÑģÑĤÐ¾ÑĢ": 3730,
      "bili": 3731,
      "ĠdrÅ¾ave": 3732,
      "KO": 3733,
      "Ġrezultati": 3734,
      "Ð°Ð±Ð¸Ð»": 3735,
      "vlji": 3736,
      "ĠdogaÄĳa": 3737,
      "Ð°Ð²Ð½Ð¾Ð¼": 3738,
      "Ð½Ð¸ÑĺÐ¸": 3739,
      "Ġsaobra": 3740,
      "Ġver": 3741,
      "Ð°ÑĤÐ¾ÑĢ": 3742,
      "ĠÐ²Ð°ÑĢÐ¸Ñĺ": 3743,
      "Ð¸ÑĨÐ°Ð¼Ð°": 3744,
      "tivnog": 3745,
      "ĠÑģÑĥÐ¿": 3746,
      "tnom": 3747,
      "ÐĹÐ°": 3748,
      "Ġobavlja": 3749,
      "):": 3750,
      "Ð¸ÑĩÐ½Ð¸": 3751,
      "nio": 3752,
      "Ġstav": 3753,
      "ĠpruÅ¾a": 3754,
      "Ġfakul": 3755,
      "bija": 3756,
      "ĠÐ¿ÐµÑĢÐ¸Ð¾Ð´Ñĥ": 3757,
      "ĠÐ¢ÑĢ": 3758,
      "ĠÐĺÐ·": 3759,
      "pravo": 3760,
      "Ġpotreb": 3761,
      "tnim": 3762,
      "Ð¸ÑĢÐ¾Ð¼": 3763,
      "KA": 3764,
      "Ġpotpuno": 3765,
      "rnog": 3766,
      "ljopri": 3767,
      "Ġkriti": 3768,
      "ksima": 3769,
      "ÑŁ": 3770,
      "Di": 3771,
      "ÑĥÐ³Ð°ÑĢ": 3772,
      "ĠnaÅ¡i": 3773,
      "jemo": 3774,
      "stan": 3775,
      "Ġmestu": 3776,
      "Ġrezultata": 3777,
      "Ġodsto": 3778,
      "ĠÐ½ÐµÑģ": 3779,
      "Ġunutra": 3780,
      "blje": 3781,
      "Ġpacijenata": 3782,
      "ĠpriÄįa": 3783,
      "ĠÑĩÐµÑģÑĤÐ¾": 3784,
      "Äįava": 3785,
      "nicu": 3786,
      "Ġmla": 3787,
      "wa": 3788,
      "snih": 3789,
      "ÐµÐ½Ð¾ÑģÑĤ": 3790,
      "Ġmiliona": 3791,
      "riju": 3792,
      "ĠÐ¿Ð¾Ð´ÑĢÑĥÑĩ": 3793,
      "In": 3794,
      "Ġode": 3795,
      "ĠÐĤ": 3796,
      "ĠÑĦÐ¸Ð½Ð°Ð½Ñģ": 3797,
      "ÄįeÅ¡Äĩe": 3798,
      "Ġkonta": 3799,
      "Ġdemo": 3800,
      "Ð°Ð²Ð½Ð¾": 3801,
      "den": 3802,
      "ĠÑģÐ¾ÑĨÐ¸ÑĺÐ°Ð»": 3803,
      "dili": 3804,
      "Ġovde": 3805,
      "ĠÐ¼Ð°Ð»": 3806,
      "JA": 3807,
      "ĠvrÅ¡i": 3808,
      "Ð¸ÑģÑĤÐ¸ÑĩÐºÐ¸": 3809,
      "ĠÐ¿ÑĢÐ¾Ñĺ": 3810,
      "Ġzatim": 3811,
      "Ġupravo": 3812,
      "Ġiako": 3813,
      "Ġemi": 3814,
      "ster": 3815,
      "Ġlice": 3816,
      "ĠÅ¾": 3817,
      "ĠÐĺÑģÑĤ": 3818,
      "ĠÑģÐ¿ÑĢÐ¾Ð²": 3819,
      "Ð°Ð¼Ð¿": 3820,
      "sre": 3821,
      "ĠÑĥÑĤÐ²ÑĢÑĴ": 3822,
      "ĠveliÄįi": 3823,
      "ÑģÑĤÐ°Ð²Ð°": 3824,
      "45": 3825,
      "Ð¾ÑĢÐ´": 3826,
      "ÑĥÐ½Ð°": 3827,
      "rka": 3828,
      "ÐµÑĻÐ°": 3829,
      "Ġopo": 3830,
      "Ġverovatno": 3831,
      "Ġevra": 3832,
      "ĠZA": 3833,
      "ÑĥÑļ": 3834,
      "Å¡enja": 3835,
      "Ġstre": 3836,
      "33": 3837,
      "ĠÐ¿Ð¾Ð´Ð°ÑĤÐ°ÐºÐ°": 3838,
      "ĠÑģÐ¸ÑĤÑĥ": 3839,
      "ĠÐĵÑĢ": 3840,
      "dovi": 3841,
      "ĠÑĢÐ¾Ð´": 3842,
      "ĠÑĤÐµÑģÑĤ": 3843,
      "Ġzemlja": 3844,
      "Ġodra": 3845,
      "ĠÐ¿Ð¾ÑģÐ¼": 3846,
      "gija": 3847,
      "dnosti": 3848,
      "ĠDra": 3849,
      "Ġpart": 3850,
      "tek": 3851,
      "ĠVla": 3852,
      "lizacije": 3853,
      "neti": 3854,
      "ĠÐŀÐ´": 3855,
      "ĠÑĢÐ¾Ð¼": 3856,
      "ĠreÄį": 3857,
      "Ġzakona": 3858,
      "para": 3859,
      "ĠÐ´Ð¸ÑĢÐµÐºÑĤ": 3860,
      "Ġimali": 3861,
      "niverzi": 3862,
      "ĠPi": 3863,
      "ĠMinistar": 3864,
      "Ġodnosa": 3865,
      "ĠKu": 3866,
      "ĠÐ°Ð²": 3867,
      "ĠÐ³ÐµÐ½ÐµÑĢ": 3868,
      "Ġindust": 3869,
      "Ġklasi": 3870,
      "Ġprizna": 3871,
      "Ð°Ð½Ð¸Ð¼": 3872,
      "Ġanaliza": 3873,
      "ĠÑģÐ¼Ð¸ÑģÐ»Ñĥ": 3874,
      "Ġklju": 3875,
      "lti": 3876,
      "ravno": 3877,
      "ĠâĢĿ": 3878,
      "ĠÅ¾ele": 3879,
      "lus": 3880,
      "ĠÐ¿ÑĢÐµÐ´Ð»": 3881,
      "tetu": 3882,
      "Ġnjega": 3883,
      "Ġjedin": 3884,
      "Ġprostor": 3885,
      "ĠNema": 3886,
      "ĠÑĢÐ°ÑĤÐ°": 3887,
      "ĠÐ¾Ð¼Ð¾Ð³ÑĥÑĽ": 3888,
      "ĠÐ¾Ð½Ð¸": 3889,
      "ÑģÐµÐ´": 3890,
      "rama": 3891,
      "Ġkompone": 3892,
      "menzi": 3893,
      "nomi": 3894,
      "rve": 3895,
      "ĠRi": 3896,
      "Äįio": 3897,
      "bele": 3898,
      "Ð²Ñĥ": 3899,
      "ĠÐ²Ð¸ÑĪ": 3900,
      "ĠmoguÄĩnosti": 3901,
      "Ġvlada": 3902,
      "OR": 3903,
      "ĠmeÄĳunarod": 3904,
      "ĠpokuÅ¡a": 3905,
      "Ð¾Ð½ÑĤ": 3906,
      "ĠÐ¥ÑĢ": 3907,
      "Ukoliko": 3908,
      "ĠÐļÐ°ÑĢ": 3909,
      "Ã«": 3910,
      "Ġx": 3911,
      "ĠnajviÅ¡e": 3912,
      "ĠÐ¿ÑĢÐµÐ´Ð²": 3913,
      "Ġispitiva": 3914,
      "ĠÑĤÑĢÐ°Ð´": 3915,
      "Ġ2017": 3916,
      "Ġparti": 3917,
      "vje": 3918,
      "Ġsveta": 3919,
      "Ġ2003": 3920,
      "Ġkoncep": 3921,
      "ĠÑģÐºÑĥÐ¿": 3922,
      "Ġdinara": 3923,
      "ED": 3924,
      "nove": 3925,
      "Ġradio": 3926,
      "Ġsig": 3927,
      "Ð»Ð¸Ðº": 3928,
      "Ġprvo": 3929,
      "min": 3930,
      "Ð¾ÐºÐ°": 3931,
      "bav": 3932,
      "ĠÐ°Ð½ÑĤ": 3933,
      "Ġpotrebe": 3934,
      "Ġskup": 3935,
      "ĠÑĩÐ¸ÑĤ": 3936,
      "Ġtradi": 3937,
      "Ð±Ðµ": 3938,
      "tual": 3939,
      "Ġud": 3940,
      "Ð¸ÑĺÑģÐºÐ¾Ð³": 3941,
      "Ġr": 3942,
      "Ġmenja": 3943,
      "Ġkvalitet": 3944,
      "ĠVoj": 3945,
      "80": 3946,
      "Ġkvaliteta": 3947,
      "Ġgleda": 3948,
      "ram": 3949,
      "Ð¾Ð²Ð°Ð½Ð°": 3950,
      "ĠÐºÑļÐ¸Ð³": 3951,
      "Ġ2002": 3952,
      "zne": 3953,
      "Ġnared": 3954,
      "Ġy": 3955,
      "stoji": 3956,
      "Ġdeta": 3957,
      "ĠÑĩÐ¸ÑļÐµÐ½": 3958,
      "Ð¸ÑĢÐ¸": 3959,
      "IJA": 3960,
      "Ġpretpo": 3961,
      "ĠÐĪÑĥÐ³Ð¾ÑģÐ»": 3962,
      "Ð¸Ð²ÑĻ": 3963,
      "Ġredo": 3964,
      "ĠmoÅ¾da": 3965,
      "ĠÐ¼ÐµÑģÑĤÐ¾": 3966,
      "Ġpristup": 3967,
      "Ġsvr": 3968,
      "ĠÐ¾ÑģÐ»": 3969,
      "lica": 3970,
      "ĠsaobraÄĩa": 3971,
      "ĠJugo": 3972,
      "Ġjasno": 3973,
      "Ġkorisni": 3974,
      "Ġjezika": 3975,
      "Nakon": 3976,
      "ĠÑĢÐ°Ð·ÑĥÐ¼": 3977,
      "ĠpreduzeÄĩa": 3978,
      "ld": 3979,
      "bolj": 3980,
      "gh": 3981,
      "ksu": 3982,
      "Ð¸Ð½Ð°Ð¼Ð°": 3983,
      "Ġdosta": 3984,
      "ĠÐ¿ÑĢÐ°ÐºÑģ": 3985,
      "Ġnarod": 3986,
      "Ð¸ÑĢÐ°ÑĺÑĥ": 3987,
      "ĠsadrÅ¾i": 3988,
      "ĠÑĥÐ³Ð»": 3989,
      "ĠUkraji": 3990,
      "tica": 3991,
      "ĠÐ¿Ð¾ÑĢÐµÐ´": 3992,
      "ĠÑģÐ¿Ð¾ÑĢ": 3993,
      "ĠÐ½Ð¾Ñģ": 3994,
      "ranih": 3995,
      "Äĳeni": 3996,
      "ÑĥÑģÐ°": 3997,
      "terna": 3998,
      "ĠÐ¿Ð¾ÑĤÐ¿Ñĥ": 3999,
      "Ġuglavnom": 4000,
      "ĠCa": 4001,
      "ĠÑģÐ¼ÑĢÑĤ": 4002,
      "nose": 4003,
      "movi": 4004,
      "ĠÐºÐ¾ÑĢÐ¸ÑģÑĤÐ¸": 4005,
      "ĠÐ¿Ð¾ÑģÐ»Ðµ": 4006,
      "ĠÑĥÐ¿ÑĢÐ°Ð²ÑĻ": 4007,
      "Ġterapi": 4008,
      "roma": 4009,
      "Ġsvaka": 4010,
      "Ġprograma": 4011,
      "Ġgodinu": 4012,
      "Ġoslo": 4013,
      "tive": 4014,
      "ĠÑĢÐ°Ð·Ð²Ð¾ÑĺÐ°": 4015,
      "ĠIz": 4016,
      "vale": 4017,
      "Ġpredstav": 4018,
      "Ġjavlja": 4019,
      "ĠÐ¿Ð¾Ð³Ð»ÐµÐ´": 4020,
      "ÑĺÑĥ": 4021,
      "ĠHe": 4022,
      "ĠGa": 4023,
      "ÐµÐ¼Ð±ÑĢÐ°": 4024,
      "ĠÑģÑĤÐµÐ¿": 4025,
      "ÑģÑĤÐµ": 4026,
      "Ġsop": 4027,
      "ĠÐ¾Ð³ÑĢÐ°Ð½Ð¸Ñĩ": 4028,
      "Ð¾Ð²Ð°Ð¾": 4029,
      "É¥": 4030,
      "kvi": 4031,
      "kaz": 4032,
      "ĠÐłÐ°Ð´": 4033,
      "Ġstudija": 4034,
      "Ġsebi": 4035,
      "ĠÑģÐµÐ±": 4036,
      "Ġkonku": 4037,
      "ut": 4038,
      "Ġprihva": 4039,
      "br": 4040,
      "Ð¼ÐµÐ½ÑĤ": 4041,
      "Ġmetoda": 4042,
      "48": 4043,
      "mir": 4044,
      "Tabela": 4045,
      "Ð¸Ð¾Ð½Ð°": 4046,
      "ĠÐ¿ÑĢÐµÑģ": 4047,
      "Ġotvore": 4048,
      "ÐµÐ·Ð°": 4049,
      "ĠÑģÐ¼Ð°ÑĤÑĢ": 4050,
      "ĠÑĢÐµÑĦ": 4051,
      "Ġodbra": 4052,
      "Ð¸Ð·Ð°Ð¼": 4053,
      "ĠÑģÐºÐ»Ð°Ð´": 4054,
      "ĠÑĢÐµÑĩÐ¸": 4055,
      "ĠÐ½Ð°Ð·Ð¸Ð²": 4056,
      "ĠuspeÅ¡": 4057,
      "Ġnovo": 4058,
      "Ð¸ÑĺÐ°Ð½": 4059,
      "Ġ2018": 4060,
      "Pred": 4061,
      "ĠÐ¸Ð·Ð½Ð¾Ñģ": 4062,
      "ÐµÐ²Ðµ": 4063,
      "Ġterito": 4064,
      "lama": 4065,
      "âĢĶ": 4066,
      "ĠÐ±ÑĥÐ´Ðµ": 4067,
      "ĠÐ°ÐºÑĤÐ¸Ð²Ð½Ð¾ÑģÑĤÐ¸": 4068,
      "Ġenergije": 4069,
      "Ġen": 4070,
      "Ġintenzi": 4071,
      "nin": 4072,
      "uro": 4073,
      "Ð¸ÑĤÑĢ": 4074,
      "Ġmanji": 4075,
      "ĠÑģÐ»ÑĥÐ¶Ð±": 4076,
      "ĠÐĺÐ½": 4077,
      "Ð¸Ð´Ð°": 4078,
      "ĠÑĨÐ°ÑĢ": 4079,
      "Ð°ÐºÐ¾ÑĴÐµ": 4080,
      "Ġhttp": 4081,
      "Ġovu": 4082,
      "%,": 4083,
      "Ð°Ð»Ð½Ð¾Ð¼": 4084,
      "Ġspecija": 4085,
      "Ġpoljopri": 4086,
      "Äİ": 4087,
      "listi": 4088,
      "Ġdovoljno": 4089,
      "Ð°Ð±ÐµÐ»Ð°": 4090,
      "ĠbiÄĩe": 4091,
      "ÐµÐºÑĤÐ°": 4092,
      "ĠÐ±ÑĢÐ·": 4093,
      "sak": 4094,
      "Ġ35": 4095,
      "SA": 4096,
      "Å¡ku": 4097,
      "ĠÐ¾Ð²Ð¸Ñħ": 4098,
      "ÐľÐµÑĴÑĥÑĤÐ¸Ð¼": 4099,
      "Ġunapre": 4100,
      "Si": 4101,
      "Ġusluga": 4102,
      "govor": 4103,
      "gledu": 4104,
      "ĠÐ¾ÑĨ": 4105,
      "Ġrazlike": 4106,
      "Ð¾ÑģÐ¾Ð±": 4107,
      "Ġizbo": 4108,
      "ĠomoguÄĩa": 4109,
      "rac": 4110,
      "%)": 4111,
      "ĠoÅ¡te": 4112,
      "Ġinformacije": 4113,
      "ĠKra": 4114,
      "Ð¿Ð°Ðº": 4115,
      "ĠAmeri": 4116,
      "dnika": 4117,
      "ĠHrva": 4118,
      "Ġuzro": 4119,
      "Äĳenju": 4120,
      "Ġtret": 4121,
      "oni": 4122,
      "ĠY": 4123,
      "ĠmoÅ¾emo": 4124,
      "Sta": 4125,
      "ÑĤÐ¾ÑĢ": 4126,
      "Ġ2020": 4127,
      "Äĳuju": 4128,
      "ÑĢÐ°Ð½Ðµ": 4129,
      "Ġdise": 4130,
      "lnoj": 4131,
      "Ð¿Ð¾ÑģÑĤ": 4132,
      "metara": 4133,
      "Ð¿ÑĢÐ°Ð²": 4134,
      "Ġekstra": 4135,
      "ĠÐĲÐ»": 4136,
      "dima": 4137,
      "Ð¾Ð»Ð¸ÑĤ": 4138,
      "Ð¿Ð¾ÑĢ": 4139,
      "Ġnezavi": 4140,
      "ĠÐ¼Ð¾ÑĢÐ°": 4141,
      "ÐµÐ½ÑĤÐ°ÑĢ": 4142,
      "chi": 4143,
      "ĠÐ¼Ð¾Ð´ÐµÐ»": 4144,
      "ĠÑĤÐ°Ñĩ": 4145,
      "tkom": 4146,
      "ĠÐµÐ»ÐµÐºÑĤÑĢ": 4147,
      "Å¡li": 4148,
      "Ġkasnije": 4149,
      "ĠÐ¿Ð¸ÑĤÐ°ÑļÐµ": 4150,
      "Ġvidu": 4151,
      "ton": 4152,
      "Ġpsiho": 4153,
      "Ġcilju": 4154,
      "ĠÐ²ÑĢÐµÐ¼ÐµÐ½Ð°": 4155,
      "rancu": 4156,
      "Ġjoj": 4157,
      "ĠÑģÐµÑĢ": 4158,
      "Ð¸ÑĪÑĥ": 4159,
      "ĠrazliÄįite": 4160,
      "Ð¼Ð¸Ð½": 4161,
      "tru": 4162,
      "Ġpredstavljaju": 4163,
      "vrede": 4164,
      "Dru": 4165,
      "Ġnjihove": 4166,
      "Ġodnose": 4167,
      "Ġ!": 4168,
      "ĠÑĢÐ¸Ð·": 4169,
      "ĠÑĦÐ¸Ð·": 4170,
      "Ġpobolj": 4171,
      "Ð½Ð¸ÑĨÐ°": 4172,
      "Ġodnos": 4173,
      "Ð¾Ð½Ðµ": 4174,
      "ljeni": 4175,
      "Ð»Ð°ÑĤ": 4176,
      "ÐµÐ½Ð¾Ñĺ": 4177,
      "É¤": 4178,
      "ĠteÅ¡ko": 4179,
      "ÐµÑĺÐ°": 4180,
      "ĠizvrÅ¡e": 4181,
      "ĠÐ¸Ð·ÑĢÐ°Ð·": 4182,
      "ĠÑģÐ°ÑĢÐ°Ð´": 4183,
      "ĠÐ¾Ð±ÐµÐ·": 4184,
      "Ġ[": 4185,
      "Ð¸ÑĨÐ¸ÑĺÐ°": 4186,
      "Ġveka": 4187,
      "Ġzajedno": 4188,
      "cena": 4189,
      "dÅ¾e": 4190,
      "70": 4191,
      "Le": 4192,
      "it": 4193,
      "ĠFa": 4194,
      "Ð¸ÑĩÐ°ÑĢ": 4195,
      "Ġizgrad": 4196,
      "Ġsopstve": 4197,
      "Äįnost": 4198,
      "ĠÐļÐ¾Ð½": 4199,
      "Pored": 4200,
      "vite": 4201,
      "Ġpreporu": 4202,
      "nosa": 4203,
      "ĠÑģÐ²Ð¾ÑĺÐ¸Ð¼": 4204,
      "Ġkolo": 4205,
      "loba": 4206,
      "Ġpoput": 4207,
      "ĠduÅ¾i": 4208,
      "ĠÐ½ÐµÐ¼Ð°": 4209,
      "Ġblo": 4210,
      "ĠÐºÐ¾Ð¼Ðµ": 4211,
      "Ġmedici": 4212,
      "ĠÑĢÑĥÐº": 4213,
      "Ð°ÑĩÐ¸": 4214,
      "ĠÐ¸Ð¼Ð¿": 4215,
      "ĠstatistiÄįki": 4216,
      "paci": 4217,
      "ĠÐ´ÑĢÐ¶Ð°Ð²Ð°": 4218,
      "Ġit": 4219,
      "Ð¸ÑĩÑĥ": 4220,
      "Ð¸ÑģÐ°Ð¾": 4221,
      "Ġslika": 4222,
      "Ġpolu": 4223,
      "Ġkapita": 4224,
      "Ġ2001": 4225,
      "Ġmogao": 4226,
      "ĠÐ¾ÐºÐ¾Ð»": 4227,
      "AR": 4228,
      "Ġbazi": 4229,
      "ĠistraÅ¾iva": 4230,
      "Ġdaje": 4231,
      "Å¾io": 4232,
      "ĠdruÅ¡tva": 4233,
      "Ġizbor": 4234,
      "Ġgrupi": 4235,
      "ÐµÐºÑĥ": 4236,
      "Ġprinci": 4237,
      "ĠÐ¼Ð¾Ð½": 4238,
      "ĠSAD": 4239,
      "Î¹": 4240,
      "Ġstabi": 4241,
      "rita": 4242,
      "Ġizd": 4243,
      "ÑĨÐ¸Ð¼Ð°": 4244,
      "kiva": 4245,
      "ĠÐ½Ð°ÑĺÐ±": 4246,
      "Ġnovih": 4247,
      "Ima": 4248,
      "Iako": 4249,
      "Ġnedosta": 4250,
      "zno": 4251,
      "Ġhemi": 4252,
      "Ġusled": 4253,
      "Ġprirod": 4254,
      "ena": 4255,
      "rem": 4256,
      "ficije": 4257,
      "Ovaj": 4258,
      "ĠÐºÐ¾ÑĺÐ¸Ñħ": 4259,
      "Ġznanja": 4260,
      "Ġjednu": 4261,
      "kr": 4262,
      "nskom": 4263,
      "ĠZako": 4264,
      "cione": 4265,
      "Ġmladi": 4266,
      "IV": 4267,
      "lata": 4268,
      "ÐµÐ²Ð¸": 4269,
      "ÑĢÐ°Ð·ÑĥÐ¼": 4270,
      "www": 4271,
      "dnom": 4272,
      "Ġameri": 4273,
      "ĠÐµÐ½ÐµÑĢÐ³": 4274,
      "ĠÐ¼ÐµÑģ": 4275,
      "ĠÑģÑĤÐ°Ð½Ð´": 4276,
      "Ġkojem": 4277,
      "*''": 4278,
      "Ġzapa": 4279,
      "stica": 4280,
      "ĠÐ¿ÐµÑĤ": 4281,
      "ĠÐĴÐµÐ»": 4282,
      "Ġsvog": 4283,
      "Ġniti": 4284,
      "Se": 4285,
      "Ð°ÑļÐ¸Ð¼Ð°": 4286,
      "stima": 4287,
      "Ð¾ÐºÑģ": 4288,
      "Ð°ÑĢÑħ": 4289,
      "ĠÐ´Ð¾Ð¿ÑĢ": 4290,
      "ĠÑģÐ°Ð²ÑĢÐµÐ¼": 4291,
      "ĠÄįega": 4292,
      "tina": 4293,
      "Ġmoraju": 4294,
      "ĠÑĤÑĥÐ¼": 4295,
      "ĠoÄįi": 4296,
      "Ġnase": 4297,
      "ngle": 4298,
      "Ã¤": 4299,
      "Ġpodrazumeva": 4300,
      "ÐµÑģÑĤÐ²": 4301,
      "ĠsluÄįaj": 4302,
      "Ġobjavlje": 4303,
      "Ġnivoa": 4304,
      "ĠÐ´Ð°ÑĤ": 4305,
      "ĠÐĲÑĢ": 4306,
      "rala": 4307,
      "ĠrazliÄįitim": 4308,
      "Ġpreda": 4309,
      "veo": 4310,
      "Ġemo": 4311,
      "Ġnovina": 4312,
      "ĠÑģÐ°Ð³": 4313,
      "Ġuvo": 4314,
      "Ðĭ": 4315,
      "Å¡tine": 4316,
      "ĠÑĺÐ°Ñģ": 4317,
      "Ð°ÑĨÐ¸ÑĺÐ°Ð¼Ð°": 4318,
      "ĠÐ±Ð°Ð½": 4319,
      "Ba": 4320,
      "Ġeksperimenta": 4321,
      "Ġprofi": 4322,
      "ĠÐ¸Ð·Ð²Ð¾ÑĢ": 4323,
      "lost": 4324,
      "Ġsredine": 4325,
      "kci": 4326,
      "Ġbilj": 4327,
      "Ġkraj": 4328,
      "njenja": 4329,
      "Ġpredsednik": 4330,
      "Ġdne": 4331,
      "ÑĥÐ»Ð°ÑĢ": 4332,
      "ĠÐ¼ÑĢ": 4333,
      "Ð¾Ð²Ð¾Ð¼": 4334,
      "44": 4335,
      "Ð°Ð½Ð¾Ð²Ð¸ÑĽ": 4336,
      "ĠÐĿÐµÐ¼": 4337,
      "Sva": 4338,
      "Ġpripada": 4339,
      "ĠÐ´ÐµÐ»Ñĥ": 4340,
      "ĠÄįlan": 4341,
      "ĠLu": 4342,
      "ĠÐ¿ÑĢÐ¸Ð¿Ð°Ð´": 4343,
      "31": 4344,
      "ĠÑģÐ²ÐµÐ³Ð°": 4345,
      "Ġinformacija": 4346,
      "ĠÑĤÐµÑĢÐ¸ÑĤÐ¾ÑĢ": 4347,
      "ĠniÅ¡ta": 4348,
      "ÐµÐ½ÑĨÐ¸ÑĺÐ°Ð»": 4349,
      "Ġviru": 4350,
      "Bo": 4351,
      "Ġaspe": 4352,
      "ĠÐ´ÑĢÑĥÐ³Ð¸Ð¼": 4353,
      "Ġuni": 4354,
      "Äĳene": 4355,
      "Ð¸ÑģÑĤÑĢ": 4356,
      "ĠÄĩemo": 4357,
      "Ġ2019": 4358,
      "Ġrazloga": 4359,
      "Ġproto": 4360,
      "Ġizne": 4361,
      "ĠÑĢÐ°Ð·Ð»Ð¸ÑĩÐ¸ÑĤÐ¸Ñħ": 4362,
      "ĠÐºÐ°ÑģÐ½Ð¸ÑĺÐµ": 4363,
      "ÉŁÉ§": 4364,
      "Be": 4365,
      "198": 4366,
      "ture": 4367,
      "01": 4368,
      "ĠÐ¿Ð¾Ð½Ð°ÑĪ": 4369,
      "Ġum": 4370,
      "Ġstanja": 4371,
      "gom": 4372,
      "Ġreal": 4373,
      "ĠÐ¿Ð¾ÑĪÑĤ": 4374,
      "godine": 4375,
      "Ð°ÑĨÐ¸ÑĺÐ¾Ð¼": 4376,
      "ĠÑĥÐ·Ð¾ÑĢ": 4377,
      "Ġredu": 4378,
      "ĠÐºÑĥÑĽ": 4379,
      "Ġ'": 4380,
      "vnu": 4381,
      "ĠÐ¼Ð°Ñģ": 4382,
      "zam": 4383,
      "ĠÅ¾ena": 4384,
      "Ġfaktora": 4385,
      "Ġipak": 4386,
      "Ġzahva": 4387,
      "Ð¸ÑĩÐºÑĥ": 4388,
      "ĠÐ·Ð²": 4389,
      "Ġklu": 4390,
      "vcu": 4391,
      "Ð°ÑĤÐ¸Ð²Ð½Ð¾": 4392,
      "ĠÑģÐµÐ¼": 4393,
      "Ð°ÑĤÐµÐ³Ð¾ÑĢ": 4394,
      "ĠÐ¼Ð¸Ð½": 4395,
      "ĠÐ¿ÑĢÐ¸ÑĢÐ¾Ð´": 4396,
      "Ġnasi": 4397,
      "Ġprogram": 4398,
      "Ġinterak": 4399,
      "jska": 4400,
      "pote": 4401,
      "Ġsavreme": 4402,
      "Ãª": 4403,
      "mpi": 4404,
      "ĠÐ¿Ð¾Ð´ÑĢÐ°Ð·ÑĥÐ¼": 4405,
      "kuplja": 4406,
      "lizova": 4407,
      "zacije": 4408,
      "Ð¸ÑģÐ°Ð½": 4409,
      "ĠÑģÐ²Ð¾ÑĺÑĥ": 4410,
      "Ġope": 4411,
      "Ġkonstru": 4412,
      "Ġrade": 4413,
      "ĠÑģÑĥÐ±Ñĺ": 4414,
      "ĠÐ¿Ð¾Ð»Ð¾Ð¶": 4415,
      "ĠCo": 4416,
      "fikova": 4417,
      "Ġbih": 4418,
      "Ġzakon": 4419,
      "ĠÐ¸Ð·ÑĢÐ°Ð¶": 4420,
      "Äįeno": 4421,
      "Ġodli": 4422,
      "Ġsazna": 4423,
      "Ġsubje": 4424,
      "ĠÐĪÑĥÐ³Ð¾ÑģÐ»Ð°Ð²": 4425,
      "ĠÐ´ÐµÐ²": 4426,
      "Ġstanovni": 4427,
      "Ġisko": 4428,
      "ĠÐ¸Ð½ÑģÑĤÐ¸ÑĤÑĥÑĨ": 4429,
      "Ġorganizacije": 4430,
      "Ġrekla": 4431,
      "Ġstvar": 4432,
      "ĠÐ¾Ð±ÑĥÑħ": 4433,
      "ĠÐ¸Ð¼ÐµÐ½": 4434,
      "ÐµÑĢÑĨ": 4435,
      "Ġosim": 4436,
      "Ġtih": 4437,
      "Ð¾Ð·Ð½": 4438,
      "nskim": 4439,
      "Ġulogu": 4440,
      "ÐµÐ²Ð¸Ð¼Ð°": 4441,
      "Ð¾Ð½Ð¸": 4442,
      "bama": 4443,
      "laca": 4444,
      "ĠÑģÐµÐº": 4445,
      "ÐµÐ½ÑĨÐ¸ÑĺÐ°": 4446,
      "Ġvisi": 4447,
      "ĠÐ´Ð¾Ð¼Ð°ÑĽ": 4448,
      "Ð¸ÐºÐ°Ñģ": 4449,
      "por": 4450,
      "ĠsadrÅ¾aj": 4451,
      "nicija": 4452,
      "Ð¾ÑĻÐµ": 4453,
      "ĠPu": 4454,
      "ĠÐ½ÐµÐ¾Ð¿": 4455,
      "lice": 4456,
      "ĠpoÄįi": 4457,
      "math": 4458,
      "ĠÑĥÐ³Ð¾Ð²Ð¾ÑĢ": 4459,
      "EN": 4460,
      "ĠÐ¡ÐĲ": 4461,
      "Ð¾Ð´Ð°Ð²": 4462,
      "njen": 4463,
      "Ġnalaze": 4464,
      "Äįito": 4465,
      "pti": 4466,
      "ĠÑĤÐµÐ¶": 4467,
      "Ġkonsta": 4468,
      "Ð¾Ð»Ð¾Ð³Ð¸ÑĺÐµ": 4469,
      "ĠÐ½Ð¸Ð²Ð¾Ñĥ": 4470,
      "ĠPra": 4471,
      "dila": 4472,
      "ĠÑģÐµÐ´": 4473,
      "ÑĤÐ°Ð»": 4474,
      "ĠÑĥÐ²ÐµÐº": 4475,
      "Ġnagla": 4476,
      "Ġposao": 4477,
      "Ġ31": 4478,
      "Äįar": 4479,
      "ĠÑģÑĢÐµÐ´Ñļ": 4480,
      "32": 4481,
      "kula": 4482,
      "ĠÐ¡ÑĢÐ¿": 4483,
      "Ġtrgo": 4484,
      "ĠÑĺÐµÐ´Ð½Ð¾Ð³": 4485,
      "75": 4486,
      "É¢Êģ": 4487,
      "Ġtoliko": 4488,
      "Ð¿ÑĢÐ¾ÑĤ": 4489,
      "Éľ": 4490,
      "Ġrezultat": 4491,
      "Ġzavisnosti": 4492,
      "Ġpodaci": 4493,
      "ĠÐ»Ð¸ÑĨÐ°": 4494,
      "ĠSte": 4495,
      "vaja": 4496,
      "ĠÐ¾Ð´Ð»ÑĥÑĩ": 4497,
      "Ġkole": 4498,
      "mbra": 4499,
      "zenta": 4500,
      "Ġzavisi": 4501,
      "Ġpostavlja": 4502,
      "Ġvrati": 4503,
      "Ġosobe": 4504,
      "ĠÑĥÐ·ÑĢ": 4505,
      "rona": 4506,
      "ĠÐ½Ð¾ÑĢÐ¼": 4507,
      "kupa": 4508,
      "ĠÐ¾Ð´Ð³Ð¾Ð²Ð°ÑĢ": 4509,
      "loÅ¡ke": 4510,
      "ĠÐ´Ð¾Ð¿ÑĢÐ¸Ð½": 4511,
      "ÐºÐ°ÑĢ": 4512,
      "ĠÐ¾Ð´Ð½Ð¾ÑģÐ°": 4513,
      "Ġstaro": 4514,
      "ĠÐ¿ÑĢÐ¾ÑĦÐµÑģ": 4515,
      "Ġsara": 4516,
      "Ð¸ÑģÐ°": 4517,
      "Ġizbe": 4518,
      "ÐµÐºÐ°ÑĤ": 4519,
      "Ġiste": 4520,
      "ĠÐºÐ°Ð·": 4521,
      "Êĥ": 4522,
      "ljno": 4523,
      "ĠÑĢÐ°Ð´Ñĥ": 4524,
      "Ġdiserta": 4525,
      "Ð½Ð°Ð´": 4526,
      "ista": 4527,
      "ĠÐĳÐµÐ¾Ð³ÑĢÐ°Ð´Ñĥ": 4528,
      "zultati": 4529,
      "Ð½ÐµÐ²": 4530,
      "udba": 4531,
      "juma": 4532,
      "les": 4533,
      "ĠZe": 4534,
      "49": 4535,
      "Ġmole": 4536,
      "Ġkriteri": 4537,
      "ĠreÅ¡enja": 4538,
      "bla": 4539,
      "Ġodu": 4540,
      "Ġkapaci": 4541,
      "ÑĢÐ°Ð´Ð°": 4542,
      "ĠÐ·ÐµÐ¼ÑĻÐµ": 4543,
      "Ġzema": 4544,
      "Ġjednostav": 4545,
      "Ġcelo": 4546,
      "Ð°Ð»Ð½Ð¸Ð¼": 4547,
      "Ġarhi": 4548,
      "ĠÐ´Ð¾ÑĪ": 4549,
      "Ġpropisa": 4550,
      "ĠHo": 4551,
      "volja": 4552,
      "Ġonih": 4553,
      "Ð°Ð²Ð°ÑļÑĥ": 4554,
      "ĠÐ¾Ð¿ÑĤ": 4555,
      "ĠÐ¿Ñģ": 4556,
      "Ġprepozna": 4557,
      "ĠsadrÅ¾aja": 4558,
      "Ġodma": 4559,
      "Ð¢Ð¾": 4560,
      "Ġco": 4561,
      "ĠÐ²Ð»Ð°ÑģÑĤÐ¸": 4562,
      "ÑĨÐµ": 4563,
      "ĠÐ¾Ð·Ð½Ð°Ñĩ": 4564,
      "Ġponovo": 4565,
      "sve": 4566,
      "Ġpoma": 4567,
      "Ġozbi": 4568,
      "ĠÐ¿ÑĢÐ¸Ñģ": 4569,
      "ĠÉ¨": 4570,
      "viÄĩa": 4571,
      "ljena": 4572,
      "ĠÐ¼Ð°Ñĺ": 4573,
      "Ð°Ð²Ð½Ð¸": 4574,
      "ĠÐ¾ÑģÑĤÐ°Ð»": 4575,
      "ĠnajÄįeÅ¡Äĩe": 4576,
      "ÑĥÐ¼Ð°": 4577,
      "Ġforma": 4578,
      "slov": 4579,
      "Ġzame": 4580,
      "ĠÑĩÐ°Ðº": 4581,
      "Ġostvari": 4582,
      "sional": 4583,
      "gram": 4584,
      "Ġposledica": 4585,
      "Ġumet": 4586,
      "mora": 4587,
      "ĠÑĺÐµÐ´Ð½Ð¾Ð¼": 4588,
      "Ġkulture": 4589,
      "bine": 4590,
      "ĠÐ¾Ð±Ð»Ð¸Ðº": 4591,
      "ĠÐ¿ÑĢÑĥÐ¶": 4592,
      "beli": 4593,
      "Ġodred": 4594,
      "ĠÐ³ÑĢÑĥÐ¿Ð°": 4595,
      "ĠPred": 4596,
      "ĠÐ´Ð¾Ð½": 4597,
      "ĠÐºÐ¾Ð½ÑĤÐµÐºÑģÑĤ": 4598,
      "rano": 4599,
      "zaj": 4600,
      "ĠâĢĺ": 4601,
      "tinu": 4602,
      "Ð°ÑĩÐºÐ¸": 4603,
      "Ð¸ÑĩÐ½Ð¾ÑģÑĤÐ¸": 4604,
      "ljen": 4605,
      "rÅ¾i": 4606,
      "Ġstanje": 4607,
      "Ġfotografi": 4608,
      "Ð°ÑĢÑĤ": 4609,
      "ĠÐ¿Ð¾ÐºÑĥÑĪ": 4610,
      "ĠÐ¿ÑĢÐ¾Ð²": 4611,
      "ĠÐ´Ð¸ÑģÐº": 4612,
      "ĠpoloÅ¾a": 4613,
      "grada": 4614,
      "Ġnisam": 4615,
      "Ġinstru": 4616,
      "ĠÑĩÐµÐ¼Ñĥ": 4617,
      "Ġranije": 4618,
      "ĠGra": 4619,
      "Ð¾Ð¿ÑĪÑĤ": 4620,
      "liÄĩ": 4621,
      "ĠÐ±Ð¸Ð»Ðµ": 4622,
      "ĠÐ·Ð°Ð¿Ð¾ÑģÐ»": 4623,
      "Va": 4624,
      "kazi": 4625,
      "Ġposve": 4626,
      "ĠThe": 4627,
      "ÐµÑĪÑĤÐ¾": 4628,
      "Ġuticaja": 4629,
      "Tre": 4630,
      "Ð°ÐºÐ»Ðµ": 4631,
      "ĠnadleÅ¾": 4632,
      "ĠJugosla": 4633,
      "ĠÐ¾Ð½Ðµ": 4634,
      "Ð¸ÑĤÐ°Ð½": 4635,
      "graf": 4636,
      "stvom": 4637,
      "ĠÐ¸Ð·Ð°Ð·": 4638,
      "ĠplaÄĩa": 4639,
      "sim": 4640,
      "Ð°Ð²Ð¸Ð¾": 4641,
      "Ð°Ð·Ð´": 4642,
      "stom": 4643,
      "Jo": 4644,
      "ĠÐ²ÐµÐ·Ð¸": 4645,
      "Ġ45": 4646,
      "Ð²Ð¾ÑĺÐµ": 4647,
      "arti": 4648,
      "ĪĴ": 4649,
      "ĠÐ¿ÑĢÐµÐ½": 4650,
      "ĠÐ±Ð¾Ð³": 4651,
      "ted": 4652,
      "ĠâĢĻ": 4653,
      "Ð°Ð²Ð¸Ñģ": 4654,
      "telji": 4655,
      "ĠÐ´Ð¾Ð³Ð°ÑĴ": 4656,
      "ÐµÐ´Ð½Ð¾": 4657,
      "ĠraÄįu": 4658,
      "ÐµÐ³ÑĢ": 4659,
      "ĠÐ»Ð¸ÑĤ": 4660,
      "Ð½Ð¸ÑĨÐµ": 4661,
      "ĠÐ´Ð¾Ð±Ð¸ÑĺÐµ": 4662,
      "vaj": 4663,
      "ĠÐ´ÐµÐ¼": 4664,
      "Ġnajbolje": 4665,
      "ÉļÉ§": 4666,
      "kola": 4667,
      "Ð¸ÑĩÐ°Ð½": 4668,
      "nijih": 4669,
      "Ġdra": 4670,
      "CI": 4671,
      "Ġskoro": 4672,
      "ĠÐ¿Ð¸ÑĤÐ°ÑļÐ°": 4673,
      "nike": 4674,
      "ĠÑģÐ²Ð¸Ð¼": 4675,
      "Ġ1999": 4676,
      "Ġpomenu": 4677,
      "ĠÐºÐ°ÑĤÐµÐ³Ð¾ÑĢ": 4678,
      "ĠpoboljÅ¡a": 4679,
      "loÅ¡kih": 4680,
      "vid": 4681,
      "ĠÐ°ÑĥÑĤÐ¾ÑĢ": 4682,
      "ĠKO": 4683,
      "Ġizgleda": 4684,
      "ĠÐ´Ð°ÑĻÐµ": 4685,
      "ĠÐ½ÐµÐ¾Ð¿ÑħÐ¾Ð´": 4686,
      "ĠÑĽÐµÐ»": 4687,
      "46": 4688,
      "ĠÑĤÑĢÐ°Ð½Ñģ": 4689,
      "Ġporta": 4690,
      "Ġmnogi": 4691,
      "ĠÑģÐ¿Ð¾ÑĻ": 4692,
      "ÑĥÐ·ÐµÑĤ": 4693,
      "vori": 4694,
      "len": 4695,
      "Ġmarke": 4696,
      "klu": 4697,
      "Ġministar": 4698,
      "Ð°ÐºÑĥÐ»ÑĤ": 4699,
      "Ð°ÑĤÐ¸Ð²Ð½Ðµ": 4700,
      "Ġniko": 4701,
      "ÐĿÐ°Ñĺ": 4702,
      "sen": 4703,
      "ÑĢÐµÐ¼ÐµÐ½Ð¾": 4704,
      "ĠÐ¾Ð²Ð°": 4705,
      "ÑĥÑĤÐ°": 4706,
      "sur": 4707,
      "Ġprivred": 4708,
      "ÑĺÐµÑĤ": 4709,
      "Ġdostup": 4710,
      "din": 4711,
      "mobi": 4712,
      "ĠÑĥÐ½ÑĥÑĤÑĢ": 4713,
      "tanje": 4714,
      "ĠÐ¿ÑĢÐ¾ÑĨÐµÑģÐ°": 4715,
      "Å¡Äĩa": 4716,
      "sis": 4717,
      "ĠveÄĩa": 4718,
      "ine": 4719,
      "Ġprimene": 4720,
      "Ġperiod": 4721,
      "90": 4722,
      "Ġrazvija": 4723,
      "stribu": 4724,
      "Å¡tvo": 4725,
      "Ġsredstava": 4726,
      "Ġmetode": 4727,
      "Ġkontek": 4728,
      "ĠÐºÑĥÐ¿": 4729,
      "ĠÐ¿ÑĢÐ¾Ð¿Ð¸Ñģ": 4730,
      "ĠÐ¿ÑĢÐ¸Ð·": 4731,
      "ĠÉŃ": 4732,
      "ÐµÑĤÑĥ": 4733,
      "ĠÑĢÐµÐ·ÑĥÐ»ÑĤÐ°ÑĤ": 4734,
      "Ġl": 4735,
      "ĠÐ¾Ð½Ð¾": 4736,
      "Ġprevo": 4737,
      "ĠÐ¾ÑĤÐ²Ð¾ÑĢ": 4738,
      "ĠÐĿÐ¸Ðº": 4739,
      "ĠÄįiji": 4740,
      "Ġrata": 4741,
      "vÅ¡i": 4742,
      "Ð¸Ð½ÑģÐºÐ¸": 4743,
      "ĠÐ¿ÑĢÐ¸Ð»Ð¸ÐºÐ¾Ð¼": 4744,
      "ĠÐ¾Ð´Ð½Ð¾ÑģÐ¸": 4745,
      "ĠveÄĩe": 4746,
      "rba": 4747,
      "ĠÑĤÑĺ": 4748,
      "Ġunutar": 4749,
      "Ġmeseci": 4750,
      "ĠÑģÑħ": 4751,
      "Äįena": 4752,
      "dekva": 4753,
      "ara": 4754,
      "ĠÐ¿ÑĢÐ¸Ð´": 4755,
      "ĠÐ¿ÑĢÐ¸Ð²ÑĢÐµÐ´": 4756,
      "vidu": 4757,
      "ER": 4758,
      "ĠduÅ¾": 4759,
      "ĠmuÅ¡ka": 4760,
      "naÄįe": 4761,
      "Ġteme": 4762,
      "ÑĢÐ¾ÑĪ": 4763,
      "ĠÑĺÐµÐ´Ð½Ð°": 4764,
      "ĠÑĺÐµÑģÑĤÐµ": 4765,
      "ĠÑĦÐ¸Ð»Ð¼": 4766,
      "ĠÐ¿ÑĢÐ¾Ð¼ÐµÐ½Ðµ": 4767,
      "The": 4768,
      "ÑĩÐµÑĪÑĽÐµ": 4769,
      "!!": 4770,
      "Ġprakti": 4771,
      "ĠokruÅ¾e": 4772,
      "55": 4773,
      "ÑģÑĥ": 4774,
      "Ð¸Ð·Ð°ÑĨÐ¸ÑĺÐµ": 4775,
      "Ð¾Ð·Ð²": 4776,
      "ĠÐ¿Ð¾ÑģÑĤÐ°Ð²ÑĻ": 4777,
      "Ġtipa": 4778,
      "gar": 4779,
      "Ġvisoko": 4780,
      "Å£a": 4781,
      "ĠRS": 4782,
      "ÐµÐ½ÑĤÐ¸": 4783,
      "Îµ": 4784,
      "ĠÐ·Ð°ÑĤÐ¸Ð¼": 4785,
      "kse": 4786,
      "Ġdimenzi": 4787,
      "ĠÑĤÑĢÐµÐ½ÑĥÑĤ": 4788,
      "Ġsvojih": 4789,
      "Ġdrugog": 4790,
      "ÐµÐºÐ°ÑĤÐ°": 4791,
      "Ġstavo": 4792,
      "ÐĬ": 4793,
      "ĠdomaÄĩi": 4794,
      "Ġzemalja": 4795,
      "Ġkoncentracije": 4796,
      "Ġmali": 4797,
      "ĠKoso": 4798,
      "Ġ*": 4799,
      "Ġsasta": 4800,
      "ĠÐ¿ÑĢÐ²ÐµÐ½": 4801,
      "rina": 4802,
      "ĠÑĤÐµÐ»": 4803,
      "ĠÐ¾Ð±ÑĺÐ°Ð²ÑĻ": 4804,
      "É«É": 4805,
      "Ġat": 4806,
      "Ġenerge": 4807,
      "Äįak": 4808,
      "ĠÐ¸Ð½ÑĦ": 4809,
      "Ġlako": 4810,
      "sanje": 4811,
      "ĠÐ¿Ð¾Ð·Ð¸ÑĤÐ¸Ð²": 4812,
      "Ġnjegov": 4813,
      "ĠÐºÐ°Ð´": 4814,
      "ÑĥÑĢÑĥ": 4815,
      "Ġnjegove": 4816,
      "ÐµÑĢÐµ": 4817,
      "Kod": 4818,
      "Ġsum": 4819,
      "rin": 4820,
      "Ġukazuje": 4821,
      "ĠÑĢÐµÐ°Ð»Ð¸Ð·": 4822,
      "ĠiskljuÄįi": 4823,
      "ĠÐĬ": 4824,
      "Ġgodini": 4825,
      "Ð»Ð¾Ð¼": 4826,
      "Ġevrop": 4827,
      "eficije": 4828,
      "ÐµÐ³Ð¾Ð²": 4829,
      "Ð¾ÑģÐ¿": 4830,
      "Å¾o": 4831,
      "ĠÐŀÑģ": 4832,
      "Ġdokumenta": 4833,
      "Go": 4834,
      "ĠÐ¾ÑģÐ½": 4835,
      "ĠÑĤÐµÑĪ": 4836,
      "Ġ36": 4837,
      "ĠÐ½Ð¸Ðº": 4838,
      "Ġaktivnost": 4839,
      "78": 4840,
      "Ð¾Ð´Ð¸Ð½Ðµ": 4841,
      "ĠÑģÐºÐ»Ð°Ð´Ñĥ": 4842,
      "Ġtamo": 4843,
      "Ġruko": 4844,
      "Ð¸ÑĺÐ°Ð»Ð°": 4845,
      "Ġpokazuje": 4846,
      "miÅ¡lja": 4847,
      "ĠÐ¼Ð°ÑļÐµ": 4848,
      "Ġ80": 4849,
      "kade": 4850,
      "leko": 4851,
      "Ġitd": 4852,
      "Ġsezo": 4853,
      "ĠÐ±ÐµÐ·Ð±ÐµÐ´": 4854,
      "ÐµÐ·ÐµÐ½ÑĤ": 4855,
      "VA": 4856,
      "ĠÐ¿ÑĢÐ¾Ð³ÑĢÐ°Ð¼": 4857,
      "Ġmogli": 4858,
      "Äĩenje": 4859,
      "Ġmate": 4860,
      "lozo": 4861,
      "rea": 4862,
      "ntar": 4863,
      "Ġpodi": 4864,
      "ĠÑĺÐµÐ·Ð¸ÐºÑĥ": 4865,
      "ĠÑĨÐµÐ½ÑĤÑĢ": 4866,
      "ÑĢÑĥÐºÑĨ": 4867,
      "Pe": 4868,
      "Ð¾ÑģÑĤÐ°Ð²ÑĻ": 4869,
      "ĠgraÄĳe": 4870,
      "ĠÐ¼Ð¾Ð³ÑĥÑĽÐ½Ð¾ÑģÑĤ": 4871,
      "Ġkredi": 4872,
      "Ġnajmanje": 4873,
      "Ġprostora": 4874,
      "jih": 4875,
      "Ġvelike": 4876,
      "ĠÑĤÑĢÐ°Ð½": 4877,
      "Ġpogledu": 4878,
      "Ð°ÑĩÐºÐ°": 4879,
      "ĠÐ³Ð»Ð°Ð³Ð¾Ð»": 4880,
      "ĠÐ»ÐµÐºÑģ": 4881,
      "Ð²Ð¸Ð¼": 4882,
      "ĠÑģÑĤÐ°Ð½Ð¾Ð²Ð½Ð¸ÑĪÑĤ": 4883,
      "ÏĦ": 4884,
      "Ġsupro": 4885,
      "Ã¬": 4886,
      "CA": 4887,
      "ĠÑĩÐ°Ñģ": 4888,
      "ĠÐ¼Ð°Ñļ": 4889,
      "Ġtime": 4890,
      "ĠÐ¼Ð¸ÑĪÑĻ": 4891,
      "ĠÑģÐ°ÑģÑĤ": 4892,
      "Ġimala": 4893,
      "ĠÑĺÐµÐ´Ð½Ðµ": 4894,
      "sred": 4895,
      "ĠÐ¼Ð¾Ð´ÐµÐ»Ð°": 4896,
      "ĠÐ¼Ð¾Ð³ÑĥÑĽÐµ": 4897,
      "Ġminuta": 4898,
      "sme": 4899,
      "ĠÐ°ÑģÐ¿": 4900,
      "ljive": 4901,
      "ĠKon": 4902,
      "nicima": 4903,
      "SP": 4904,
      "ĠÐ¾ÑĤÐºÑĢ": 4905,
      "ĠGe": 4906,
      "Ġgod": 4907,
      "rava": 4908,
      "ĠÐłÐµÐ¿ÑĥÐ±Ð»Ð¸ÐºÐµ": 4909,
      "Ġsvakog": 4910,
      "ĠÐ´Ð°Ð½Ð°Ñģ": 4911,
      "Ġrizika": 4912,
      "Ġpotom": 4913,
      "Ġobrazovanja": 4914,
      "ie": 4915,
      "ĠsluÅ¾be": 4916,
      "Ð¾Ð²Ð¸ÑĽÐ°": 4917,
      "Ġpristupa": 4918,
      "ĠSve": 4919,
      "Ð¾Ð½Ñĥ": 4920,
      "Ġcent": 4921,
      "nke": 4922,
      "Å¾ila": 4923,
      "Ð¾Ð»Ð¾Ð³Ð¸ÑĺÐ°": 4924,
      "Ġmaksima": 4925,
      "ĠÐ¿ÑĢÐ¸Ð¼ÐµÑļ": 4926,
      "Ġ90": 4927,
      "Ġtrenutku": 4928,
      "ÐŀÑģ": 4929,
      "ĠÐ¿ÑĥÑĤÐ°": 4930,
      "Ġ70": 4931,
      "Ġboga": 4932,
      "ĠÐ´ÑĢÑĥÑĪÑĤÐ²Ð°": 4933,
      "Ġstudije": 4934,
      "dar": 4935,
      "limo": 4936,
      "ruje": 4937,
      "dnost": 4938,
      "Ġpokazuju": 4939,
      "Ġformu": 4940,
      "Ġ2021": 4941,
      "IN": 4942,
      "njena": 4943,
      "ĠÐ¿Ð°ÑĢÐ°Ð¼": 4944,
      "Ġsredstva": 4945,
      "ĠzaÅ¡titu": 4946,
      "LE": 4947,
      "Ð»Ð°ÑĴ": 4948,
      "sh": 4949,
      "ĠÐ±ÑĢÐ¾ÑĺÐ°": 4950,
      "Ġtela": 4951,
      "Ð¾ÑĽÐ¸": 4952,
      "Ð¸Ð²Ð°ÑļÑĥ": 4953,
      "ĠÑĤÑĢÐ°Ð´Ð¸ÑĨ": 4954,
      "ĠÐ¸ÑģÐ¿Ð¸ÑĤÐ°Ð½Ð¸ÐºÐ°": 4955,
      "Ð°Ð½Ð°ÑģÑĤ": 4956,
      "ĠMilo": 4957,
      "ĠÐ·Ð°ÑģÑĤ": 4958,
      "LO": 4959,
      "ĠÑģÐ¿ÐµÑĨÐ¸ÑĦ": 4960,
      "ĠïĤ·": 4961,
      "alka": 4962,
      "47": 4963,
      "Ġpodatke": 4964,
      "ĠÑĢÐµÑģ": 4965,
      "nca": 4966,
      "nicama": 4967,
      "Zbog": 4968,
      "ĠÐ·Ð½Ð°ÑĩÐ°ÑĺÐ½Ð¾": 4969,
      "Ġopisa": 4970,
      "Äįen": 4971,
      "Ġvozila": 4972,
      "ĠÑģÐ¿Ð¾ÑģÐ¾Ð±": 4973,
      "Ġdrugom": 4974,
      "Ġtesti": 4975,
      "Ġcm": 4976,
      "Ġkonkre": 4977,
      "jne": 4978,
      "Ð±Ð¸": 4979,
      "ĠSlo": 4980,
      "njuju": 4981,
      "Ġproizvodnje": 4982,
      "ĠÐºÐ¾ÑĢÐ¸Ñģ": 4983,
      "Ġreda": 4984,
      "ÑĢÐ°Ð´Ðµ": 4985,
      "ÐĺÑģÑĤ": 4986,
      "Ð¾Ð²Ð°Ð½Ð¸": 4987,
      "ĠVuÄįiÄĩ": 4988,
      "ĠÐĶÑĢÑĥÐ³": 4989,
      "dera": 4990,
      "Ġmehani": 4991,
      "ĠÐ²ÐµÐ»Ð¸ÐºÐ¸": 4992,
      "Ġvoda": 4993,
      "ĠproÅ¡": 4994,
      "Ġosu": 4995,
      "Ġkupo": 4996,
      "Ġkompanije": 4997,
      "ĠÉ§": 4998,
      "gita": 4999,
      "cionih": 5000,
      "VO": 5001,
      "jevima": 5002,
      "ĠÑĤÑĢÐ°Ñĺ": 5003,
      "ÐµÑħÐ°Ð½": 5004,
      "á½": 5005,
      "Ġsvojoj": 5006,
      "ĠÑĥÑĢÐµÑĴ": 5007,
      "zuju": 5008,
      "Ġmm": 5009,
      "Ð¾ÑĺÐ°": 5010,
      "Ġuzima": 5011,
      "ĠÑĺÐµÐ´Ð½": 5012,
      "ĠdoÅ¾i": 5013,
      "pusti": 5014,
      "Ġska": 5015,
      "Ð¾ÐºÐ¾Ð¼": 5016,
      "Ġreci": 5017,
      "Ġprocedu": 5018,
      "Ð¾ÐºÑĢÐ°ÑĤ": 5019,
      "Ð¾Ð»Ð¾ÑĪÐºÐ¸": 5020,
      "ĠÑĺÑĥÐ½": 5021,
      "Ð±Ð¾Ð»": 5022,
      "Ð¾ÑĪÐº": 5023,
      "ĠÐ¿ÑĢÐµÐ´Ð¼ÐµÑĤ": 5024,
      "Ġ190": 5025,
      "Ġnosi": 5026,
      "neta": 5027,
      "tes": 5028,
      "ĠÑģÐ²Ð¾Ð¼": 5029,
      "Ð¸ÑĪÑĤÑĥ": 5030,
      "ĠÐ¿ÑĢÐ¸Ð½ÑĨÐ¸Ð¿": 5031,
      "ul": 5032,
      "Ġstanju": 5033,
      "Ġrazvije": 5034,
      "lazak": 5035,
      "Ġdej": 5036,
      "dru": 5037,
      "ĠÅ¾a": 5038,
      "nala": 5039,
      "ĠÑĤÐµÐ¼Ð¿": 5040,
      "Ġnekim": 5041,
      "Ipak": 5042,
      "Ð¸ÑĺÑģÐºÐ°": 5043,
      "ĠÐ¿Ð¾ÑģÐ»Ð¾Ð²": 5044,
      "Ġzvani": 5045,
      "mbo": 5046,
      "ĠreÅ¾i": 5047,
      "Ġzau": 5048,
      "ĠÑĥÐ³": 5049,
      "ĠÐ¼Ð»Ð°Ð´": 5050,
      "Ġprojekta": 5051,
      "Ġdovodi": 5052,
      "Ð»ÐµÐ¶": 5053,
      "ĠÐµÑĦÐ¸ÐºÐ°Ñģ": 5054,
      "Ð°ÑĤÐ°Ðº": 5055,
      "niju": 5056,
      "Ġvest": 5057,
      "ÑĥÐ´Ð°": 5058,
      "Ġradova": 5059,
      "Sr": 5060,
      "ĠvaÅ¡e": 5061,
      "ĠÐĹÐ°ÐºÐ¾Ð½": 5062,
      "Ð¸ÑĩÐ½Ð¸Ð¼": 5063,
      "ĠÐ¿ÑĢÐµÐ´Ð²Ð¸ÑĴ": 5064,
      "tine": 5065,
      "Ġprisustvo": 5066,
      "Ð¸ÑģÑĤÐ¸ÑĩÐºÐµ": 5067,
      "ĠÐ´ÐµÑĦÐ¸Ð½Ð¸Ñģ": 5068,
      "ĠÑĥÐ¾Ñĩ": 5069,
      "pora": 5070,
      "ĠÐ²ÑĢÑģÑĤÐµ": 5071,
      "Ð»Ð°Ð¼": 5072,
      "Ġkona": 5073,
      "kciju": 5074,
      "ĠÐ½Ð¸Ð·": 5075,
      "ÄĬe": 5076,
      "Ġturi": 5077,
      "ĠÐ´Ð¾ÐºÑĥÐ¼": 5078,
      "Ġmera": 5079,
      "Ġzabra": 5080,
      "Äįeni": 5081,
      "Ð¾Ð½Ð´": 5082,
      "vane": 5083,
      "ir": 5084,
      "jedna": 5085,
      "ĠÐ¼Ð°ÑĤÐµÑĢÐ¸ÑĺÐ°Ð»": 5086,
      "gno": 5087,
      "grade": 5088,
      "misli": 5089,
      "snog": 5090,
      "Ġnjihovog": 5091,
      "Ð¾Ð²Ð¾Ð³": 5092,
      "Ġfeno": 5093,
      "Ġinicija": 5094,
      "ÑĢÐ°ÑĻ": 5095,
      "telja": 5096,
      "Ð¸Ð³Ð½": 5097,
      "Ġpreci": 5098,
      "ĠÐ·Ð°ÑĪÑĤÐ¸ÑĤÐµ": 5099,
      "Ġgloba": 5100,
      "dije": 5101,
      "ĠÐ¿ÑĢÐ¾Ð¿": 5102,
      "ĠAr": 5103,
      "ĠÐ¿Ð¾Ð·Ð½Ð°ÑĤ": 5104,
      "ĠuÄįenika": 5105,
      "Ġsagla": 5106,
      "Ġsvakom": 5107,
      "ĠÐ¼Ð¸Ð»": 5108,
      "ĠÑĥÑĩÐµÑģÑĤÐ²": 5109,
      "Ïģ": 5110,
      "Ġfunkcije": 5111,
      "ĠÐ¼ÐµÑĤÐ¾Ð´": 5112,
      "tili": 5113,
      "Ġpreva": 5114,
      "ĠÐ´ÑĥÑħ": 5115,
      "Ã£": 5116,
      "Ġkata": 5117,
      "Äĩemo": 5118,
      "ĠLo": 5119,
      "ĠÐºÐ¾ÑĺÐ¸Ð¼": 5120,
      "pom": 5121,
      "ĠÐ¿ÑĢÐµÐ»": 5122,
      "Ġdoba": 5123,
      "ljene": 5124,
      "Li": 5125,
      "ĠÑģÐ¼Ð°ÑĤÑĢÐ°": 5126,
      "Ð¾Ð²Ð°ÑĤÐ¸": 5127,
      "ĠpomoÄĩi": 5128,
      "Ġzavr": 5129,
      "nat": 5130,
      "VE": 5131,
      "Ġlitera": 5132,
      "ĠÑĩÐ¸Ð½": 5133,
      "65": 5134,
      "tacije": 5135,
      "ĠbaÅ¡": 5136,
      "Ġmani": 5137,
      "ruka": 5138,
      "Ġpone": 5139,
      "ÏĤ": 5140,
      "gan": 5141,
      "Ġj": 5142,
      "ces": 5143,
      "jskim": 5144,
      "Ġana": 5145,
      "ĠSto": 5146,
      "ĠutiÄįe": 5147,
      "ĠÑĥÐ³Ð»Ð°Ð²Ð½Ð¾Ð¼": 5148,
      "ĠÑĩÐ¸Ð½Ð¸": 5149,
      "Ġkoga": 5150,
      "Ġstrana": 5151,
      "É©": 5152,
      "sci": 5153,
      "Ġodluka": 5154,
      "%.": 5155,
      "Ġveze": 5156,
      "Ġgotovo": 5157,
      "ĠÐ¸Ð·ÑĢ": 5158,
      "Ð¸Ð½Ð¸ÑģÑĤÐ°ÑĢ": 5159,
      "Ġnekog": 5160,
      "ĠÐ½ÐµÑĪÑĤÐ¾": 5161,
      "Ġimamo": 5162,
      "Ġoblika": 5163,
      "ĠÐºÑĢÐ°ÑĺÑĥ": 5164,
      "snu": 5165,
      "Ġkomi": 5166,
      "ĠSrbiju": 5167,
      "ĠÐ²ÑĢÑģÑĤÐ°": 5168,
      "ÐµÑĢÐ¸Ð¼": 5169,
      "ĠÑĺÐµÐ·Ð¸Ðº": 5170,
      "ĠÐ¿ÑĢÐµÑĤÐ¿Ð¾ÑģÑĤ": 5171,
      "Ġ189": 5172,
      "ÐļÐ°Ð¾": 5173,
      "ĠnaroÄįito": 5174,
      "Ġleka": 5175,
      "ktori": 5176,
      "ĠÐ¸Ð¼Ð°Ð¾": 5177,
      "nas": 5178,
      "tuje": 5179,
      "stina": 5180,
      "ĠEvrop": 5181,
      "ntno": 5182,
      "ÐµÐ·ÑĥÐ»ÑĤ": 5183,
      "Ġnikada": 5184,
      "ĠÐ°Ð¼": 5185,
      "Äįuje": 5186,
      "ĠÐ»Ð¾Ð³": 5187,
      "ĠÐ¸Ð¼Ðµ": 5188,
      "ĠureÄĳa": 5189,
      "ĠÑĢÐµÐ³ÑĥÐ»": 5190,
      "lio": 5191,
      "ĠÐ¼ÑĥÑĪ": 5192,
      "Ð¾ÑĨÐ°": 5193,
      "ĠÉŀ": 5194,
      "Ġodmah": 5195,
      "Ġcena": 5196,
      "rnu": 5197,
      "Ġ2022": 5198,
      "ĠÐºÑĢÐ°ÑĻ": 5199,
      "La": 5200,
      "Ġnapre": 5201,
      "ĠÑģÐ²ÑĢ": 5202,
      "ĠMu": 5203,
      "ĠzadrÅ¾a": 5204,
      "ĠÐ·Ð´ÑĢÐ°Ð²": 5205,
      "ptem": 5206,
      "ĠzavrÅ¡e": 5207,
      "Ġfunkcioni": 5208,
      "Ð²Ð°ÑĤÐ°": 5209,
      "Ġsklo": 5210,
      "Ġkomentara": 5211,
      "Su": 5212,
      "TO": 5213,
      "like": 5214,
      "ÑĬ": 5215,
      "MI": 5216,
      "ima": 5217,
      "Ġposlu": 5218,
      "Ð½Ð¸ÑĨÐ¸Ð¼Ð°": 5219,
      "reni": 5220,
      "Ð¸ÑĩÐ½Ð¾Ð¼": 5221,
      "ĠdrugaÄįi": 5222,
      "ĠÄįetvr": 5223,
      "Ġlogi": 5224,
      "gro": 5225,
      "ĠknjiÅ¾e": 5226,
      "ĠÑĤÑĢÐ³Ð¾Ð²": 5227,
      "Ġhidro": 5228,
      "Ð°ÑŁ": 5229,
      "mija": 5230,
      "PO": 5231,
      "Ġcon": 5232,
      "ĠpomoÄĩu": 5233,
      "ĠÐ¸Ð°ÐºÐ¾": 5234,
      "ĠÅ¾ivoti": 5235,
      "rica": 5236,
      "Ġhra": 5237,
      "ĠÐ¼ÐµÑģÑĤÐ°": 5238,
      "Ð±ÑĢ": 5239,
      "Ġmr": 5240,
      "Nije": 5241,
      "Ġinfe": 5242,
      "Ġbrzo": 5243,
      "Ġravno": 5244,
      "Ġrazvoju": 5245,
      "Ð¢Ð°ÐºÐ¾ÑĴÐµ": 5246,
      "Ġkoeficije": 5247,
      "Ġmg": 5248,
      "Ð¾ÑĴÐµÑļÐµ": 5249,
      "Ġke": 5250,
      "struktu": 5251,
      "Éŀ": 5252,
      "Ġprocesu": 5253,
      "Ð¾Ð±ÑĢ": 5254,
      "ĠÑĩÐµÑĤÐ¸ÑĢÐ¸": 5255,
      "ĠFi": 5256,
      "ĠÉ¤": 5257,
      "Ġmenad": 5258,
      "Ġkorisnika": 5259,
      "Ð°ÑĺÐ½": 5260,
      "Ð³Ð¾Ð²Ð¾ÑĢÐ°": 5261,
      "ÐµÑĢÐ¸ÑĺÑĥÐ¼": 5262,
      "ĠÐºÐ°Ð½": 5263,
      "É¨Éľ": 5264,
      "njeg": 5265,
      "Ġsnage": 5266,
      "ÑģÐ¸": 5267,
      "ĠÑļÐµÐ³Ð¾Ð²Ðµ": 5268,
      "ĠVo": 5269,
      "dnim": 5270,
      "Posle": 5271,
      "Ġindividu": 5272,
      "ĠÐ¼Ð½Ð¾Ð³Ð¾": 5273,
      "Ð°Ð´Ð°ÑĪÑļ": 5274,
      "tivnim": 5275,
      "ĠÐ¾Ð±Ð·Ð¸ÑĢÐ¾Ð¼": 5276,
      "É¢É§": 5277,
      "Å¡iÄĩ": 5278,
      "ser": 5279,
      "ĠizvrÅ¡i": 5280,
      "Ð±Ð°Ð½": 5281,
      "ĠÑģÐ¾Ð¿": 5282,
      "ĠBeograda": 5283,
      "Ð°Ð»Ðº": 5284,
      "ĠÑĤÐ°Ð´Ð°": 5285,
      "ĠÑģÐ²ÐµÐ´": 5286,
      "Ġpolitike": 5287,
      "Ġkarakteristike": 5288,
      "Ġposlova": 5289,
      "kuju": 5290,
      "siju": 5291,
      "ĠÑĦÑĢ": 5292,
      "Ð½Ð°ÑĤÐ°": 5293,
      "Ð¾Ð³Ðµ": 5294,
      "Ġputo": 5295,
      "76": 5296,
      "Ð»ÐµÑĤ": 5297,
      "''.": 5298,
      "ĠÐ²Ð¸Ð´Ñĥ": 5299,
      "ĠFo": 5300,
      "Ġzat": 5301,
      "Ġnakna": 5302,
      "ĠÐ¿Ð°ÑĨÐ¸ÑĺÐµ": 5303,
      "Ð¸ÑĺÐµÐ¼": 5304,
      "ĠÐ¼ÐµÑĢÐ¸": 5305,
      "ĠÐ¡Ðº": 5306,
      "ĠÑģÐ²Ð¾Ð³": 5307,
      "Ġpovra": 5308,
      "ĠÐºÐ¾ÑĢÐ¸ÑģÑĤÐµ": 5309,
      "SS": 5310,
      "ĠÐ¼Ð¸": 5311,
      "NK": 5312,
      "Ð¼Ð¸": 5313,
      "Ð³Ð»Ðµ": 5314,
      "Ġnajbolji": 5315,
      "Ġresur": 5316,
      "ĠÄįine": 5317,
      "ten": 5318,
      "vide": 5319,
      "Ġtere": 5320,
      "Ġboje": 5321,
      "vini": 5322,
      "ĠgraÄĳana": 5323,
      "Ġfudba": 5324,
      "ĠÑĥÑĢ": 5325,
      "ĠÐ¿Ð¸ÑĤÐ°ÑļÑĥ": 5326,
      "ĠÐ¾ÑĪÑĤ": 5327,
      "ĠÑĥÐ»Ð¾Ð³Ñĥ": 5328,
      "ÐŁÑĢÐµÐ¼Ð°": 5329,
      "ĠodluÄįi": 5330,
      "Raz": 5331,
      "ĠÐ´ÐµÐ»Ð¾": 5332,
      "Ġrepre": 5333,
      "ĠVojvodi": 5334,
      "dove": 5335,
      "ĠbudÅ¾e": 5336,
      "Ð¸ÑĽÐµ": 5337,
      "ĠÑĤÑĢÐµÐ±Ð°Ð»Ð¾": 5338,
      "ct": 5339,
      "Ð½Ð¸ÐºÑĥ": 5340,
      "Ġkog": 5341,
      "roj": 5342,
      "59": 5343,
      "Ġmase": 5344,
      "ĠkolaÄįi": 5345,
      "one": 5346,
      "Ġkraja": 5347,
      "vajuÄĩi": 5348,
      "ĠÐ´Ð¸Ñĺ": 5349,
      "ĠÐ¾Ð²Ð¾": 5350,
      "Ġsnima": 5351,
      "Ð°Ð´Ðµ": 5352,
      "Ġodluke": 5353,
      "Ġprilago": 5354,
      "tivan": 5355,
      "ard": 5356,
      "ger": 5357,
      "ĠÑĤÐµÐº": 5358,
      "siji": 5359,
      "Ġrazmatra": 5360,
      "Ð¾Ð·Ð¸": 5361,
      "ÐµÐ½Ð¸ÑĨÐ¸": 5362,
      "ria": 5363,
      "ĠÐµÐ²ÑĢÐ¾Ð¿": 5364,
      "ĠÐ¿ÑĢÐ¾Ð½": 5365,
      "Ġreze": 5366,
      "BA": 5367,
      "Ð²ÐµÑĽ": 5368,
      "Ġizgu": 5369,
      "sanja": 5370,
      "laganja": 5371,
      "blja": 5372,
      "Ġrasta": 5373,
      "ĠÐºÐ¾Ð½ÐºÑĥÑĢ": 5374,
      "Ġzabele": 5375,
      "ĠÐ¿ÑĢÐµÐ´ÑĥÐ·ÐµÑĽÐ°": 5376,
      "ĠÐ¸Ð½Ð²": 5377,
      "Ġpriho": 5378,
      "Ġjako": 5379,
      "Ġpopula": 5380,
      "Ġporeme": 5381,
      "Äįnja": 5382,
      "ĠÐ¾ÐºÑĢÑĥÐ¶": 5383,
      "Ġpoj": 5384,
      "ĠÑħÐ¸Ð¿": 5385,
      "ĠÐ¿Ð°Ð¶": 5386,
      "ĠuopÅ¡te": 5387,
      "Ġuslova": 5388,
      "ÐµÑĢÐ²": 5389,
      "ĠÐ»Ð¸Ð½": 5390,
      "41": 5391,
      "ljiva": 5392,
      "Ð±Ð°": 5393,
      "ĠÐ´Ð¸ÑģÐµÑĢÑĤ": 5394,
      "ĠÑģÐ»Ð¾Ð±Ð¾Ð´": 5395,
      "ĠÐ¸ÑģÐºÑĻÑĥÑĩ": 5396,
      "ĠÑĤÑĢÐ°Ð¶": 5397,
      "RED": 5398,
      "Ġnaja": 5399,
      "ÑĤÐµ": 5400,
      "Ġobuhvata": 5401,
      "Ġkomplek": 5402,
      "Ġkompanija": 5403,
      "eng": 5404,
      "ĠÐ¿ÑĢÐµÑģÑĤ": 5405,
      "leva": 5406,
      "Å¾ava": 5407,
      "Ġrezultate": 5408,
      "kida": 5409,
      "Ġelektri": 5410,
      "ziju": 5411,
      "Ð¸ÑĩÐºÐ¾Ñĺ": 5412,
      "ĠÐºÐ¾Ð½ÑĨÐµÐ½ÑĤÑĢ": 5413,
      "ĠÐ¾Ð²Ð°Ðº": 5414,
      "Ð¾Ð»ÑĥÑĨ": 5415,
      "ĠÐ¾Ð¿ÐµÑĢ": 5416,
      "Ð¼Ð¾": 5417,
      "ĠmoÄĩi": 5418,
      "ĠÐ²ÑĢÑĪ": 5419,
      "Ġprvom": 5420,
      "ĠÑĤÐ¾Ð¿": 5421,
      "ĠÐ¸Ð½Ð´ÑĥÑģÑĤÑĢ": 5422,
      "Ġpredsta": 5423,
      "ĠÐĲÐ»ÐµÐºÑģ": 5424,
      "zan": 5425,
      "ĠreÅ¡a": 5426,
      "Å¡taj": 5427,
      "ĠÐ¿ÐµÑĢÐ¸Ð¾Ð´": 5428,
      "Ġubi": 5429,
      "58": 5430,
      "tskog": 5431,
      "Ġzaista": 5432,
      "Ġkli": 5433,
      "ĠÑģÑĤÐ°Ð½Ð´Ð°ÑĢÐ´": 5434,
      "Ġtranspo": 5435,
      "Ġbes": 5436,
      "Ð¾Ð²Ñĥ": 5437,
      "jim": 5438,
      "gri": 5439,
      "Ð¸Ð´Ñĥ": 5440,
      "ĠÑĢÐ°Ð·Ð»Ð¸Ðº": 5441,
      "Ġparametara": 5442,
      "ĠÐ»Ð¸ÑģÑĤ": 5443,
      "Äįnoj": 5444,
      "Ġorganizacija": 5445,
      "Ġznam": 5446,
      "ĠÐºÐ°Ðº": 5447,
      "Ð²Ð°Ðº": 5448,
      "Ġ1998": 5449,
      "Ġsinte": 5450,
      "ting": 5451,
      "ĠÐ¼Ð°Ð½Ð°ÑģÑĤ": 5452,
      "ĠpovrÅ¡ine": 5453,
      "nuo": 5454,
      "ĠIII": 5455,
      "ĠÑģÐ²ÐµÑĤÐ°": 5456,
      "Äĩena": 5457,
      "ĠpodrÅ¾a": 5458,
      "Ġodgovara": 5459,
      "ĠÐºÑĢÐµ": 5460,
      "mbe": 5461,
      "Ġvid": 5462,
      "Ġnjegova": 5463,
      "Ġbismo": 5464,
      "ssi": 5465,
      "ĠÅ¾ivotne": 5466,
      "ĠtraÅ¾i": 5467,
      "Å¾en": 5468,
      "Ġ38": 5469,
      "Ġkm": 5470,
      "Ð¾ÑĴÐµÑļÐ°": 5471,
      "Gra": 5472,
      "ÐµÑĻÐµ": 5473,
      "ĠÅ¡est": 5474,
      "volu": 5475,
      "Ġzaposlenih": 5476,
      "ĠÑĤÐ²ÑĢÐ´": 5477,
      "ÑĢÐ°Ñļ": 5478,
      "Ġanga": 5479,
      "ÑĢÐ°Ñĺ": 5480,
      "zori": 5481,
      "ĠopÅ¡te": 5482,
      "cal": 5483,
      "fici": 5484,
      "Ġnesta": 5485,
      "ĠÐºÐ²": 5486,
      "Å¡tina": 5487,
      "veta": 5488,
      "stoje": 5489,
      "66": 5490,
      "ĠÐ¼ÐµÑħÐ°Ð½": 5491,
      "SI": 5492,
      "Ġpostavlje": 5493,
      "Ġklini": 5494,
      "ÑĤÐ¸": 5495,
      "Ġprofesional": 5496,
      "mentu": 5497,
      "ĠÅ¾ive": 5498,
      "Ġuze": 5499,
      "tska": 5500,
      "Ð½o": 5501,
      "Ġsor": 5502,
      "Ġslici": 5503,
      "ĠÐ¿ÑģÐ¸Ñħ": 5504,
      "Ð¾ÑģÑĢÐµÐ´": 5505,
      "Äīa": 5506,
      "Ġfunkcional": 5507,
      "ĠÑĢÐ°Ð·Ð»Ð¸ÑĩÐ¸ÑĤÐµ": 5508,
      "Ġsvakodne": 5509,
      "Ġgro": 5510,
      "Ð¸Ð½ÑģÐºÐµ": 5511,
      "ĠÐ·Ð½Ð°ÑĩÐ¸": 5512,
      "ĠÑģÑĤÑĢÐ°ÑĤÐµÐ³": 5513,
      "ĠÑĥÑģÐ»Ð¾Ð²": 5514,
      "Ġzastup": 5515,
      "ph": 5516,
      "ĠDru": 5517,
      "ĠÐ´ÐµÑģ": 5518,
      "ĠÐ¸Ð·Ð±Ð¾ÑĢ": 5519,
      "ms": 5520,
      "ljeno": 5521,
      "42": 5522,
      "ÑĨÐ¸ÑĺÑĥ": 5523,
      "Ġodo": 5524,
      "lena": 5525,
      "Ġneophodno": 5526,
      "ĠÐ±Ð¸ÑĻ": 5527,
      "ĠreÅ¡enje": 5528,
      "Ġhrane": 5529,
      "Ġizbora": 5530,
      "ĠÑģÐ²Ð¸": 5531,
      "43": 5532,
      "ĠtroÅ¡ko": 5533,
      "Naime": 5534,
      "Ġkombina": 5535,
      "ramo": 5536,
      "ĠÅ¡kole": 5537,
      "Ġispod": 5538,
      "ĠÐ·Ð°ÑħÑĤÐµÐ²": 5539,
      "ĠCe": 5540,
      "ĠÐºÑĢÐµÑĤ": 5541,
      "Ġcu": 5542,
      "Ġotva": 5543,
      "Ġvakci": 5544,
      "Ġwe": 5545,
      "ĠÑĦÐ°ÐºÑĥÐ»ÑĤ": 5546,
      "Ġautora": 5547,
      "Ġpost": 5548,
      "dia": 5549,
      "tskih": 5550,
      "Ġpredsednika": 5551,
      "ron": 5552,
      "ĠÑĢÐµÐ²": 5553,
      "ÐµÐ²ÑĢ": 5554,
      "ĠUniverzi": 5555,
      "ljivi": 5556,
      "ĠÐĴÐ¾Ñĺ": 5557,
      "Ġusluge": 5558,
      "ĠomoguÄĩava": 5559,
      "Ġimu": 5560,
      "Ð°Ð½ÐºÐ°": 5561,
      "ĠomoguÄĩi": 5562,
      "É¨ÉĿ": 5563,
      "ĠÐ¼Ð¸Ñģ": 5564,
      "ĠÐ²ÐµÑĢÐ¾Ð²": 5565,
      "ĠÑĥÑģÐ»ÐµÐ´": 5566,
      "Ġprvog": 5567,
      "Ġdirektno": 5568,
      "Ġdola": 5569,
      "Ġ37": 5570,
      "ĠÐ¸Ð½ÑĤÐµÐ³ÑĢ": 5571,
      "fikacije": 5572,
      "mpto": 5573,
      "Ġpenzi": 5574,
      "ĠÐ¾ÑĩÐµÐº": 5575,
      "ĠÑĤÐ¾Ð³": 5576,
      "raz": 5577,
      "ÑĤÐ¾Ð±": 5578,
      "Ġprimenom": 5579,
      "ĠÐ½Ð°ÑĺÑĩÐµÑĪÑĽÐµ": 5580,
      "rtu": 5581,
      "prave": 5582,
      "Ġprese": 5583,
      "tional": 5584,
      "Ġsedi": 5585,
      "ÑĺÐµÐ´Ð¸Ñļ": 5586,
      "Ð¸ÑĺÑģÐºÐ¸Ð¼": 5587,
      "ĠÑģÑĤÑĢÑĥÑĩ": 5588,
      "ĠÐ¾Ð²Ð¾Ñĺ": 5589,
      "Ġopse": 5590,
      "ĠÐ¿Ð¾Ð¼ÐµÐ½ÑĥÑĤ": 5591,
      "Ġporodice": 5592,
      "ĠtrÅ¾iÅ¡tu": 5593,
      "ĠuÅ¾i": 5594,
      "ĠÑģÐ¾Ð¿ÑģÑĤÐ²": 5595,
      "ĠteÅ¾i": 5596,
      "ction": 5597,
      "Ġvideo": 5598,
      "ĠÐ½Ð°Ð»Ð°Ð·": 5599,
      "Å¡ki": 5600,
      "Ġoptere": 5601,
      "Ġzapravo": 5602,
      "ĠÐ¿ÑĢÐµÐ´ÑģÑĤÐ°Ð²ÑĻÐ°ÑĺÑĥ": 5603,
      "Ġmeseca": 5604,
      "Å¾ena": 5605,
      "ĠÐ£Ð½": 5606,
      "Ġdeca": 5607,
      "Ġugovora": 5608,
      "Ġinteresa": 5609,
      "ĠÑĥÐ½Ð°Ð¿": 5610,
      "doc": 5611,
      "ÑĢÐ¸": 5612,
      "100": 5613,
      "Ġobzira": 5614,
      "Ġuzora": 5615,
      "Ġfazi": 5616,
      "Ġdopu": 5617,
      "ÑĥÑĢÐ°": 5618,
      "ĠÄĩelije": 5619,
      "Ð¾Ð²Ð°Ð½Ðµ": 5620,
      "Ġumetni": 5621,
      "ĠÐ¿Ð¾Ð´ÑĢÑĪ": 5622,
      "Äĩen": 5623,
      "ĠÐ²Ð»Ð°ÑģÑĤ": 5624,
      "Ð°Ð´ÐµÐ¼": 5625,
      "Ġistorij": 5626,
      "Sto": 5627,
      "Ġkor": 5628,
      "ĠpiÅ¡e": 5629,
      "DE": 5630,
      "osta": 5631,
      "ĠÑĢÐµÐ¿ÑĢ": 5632,
      "Ġnemaju": 5633,
      "Ġstrukture": 5634,
      "pisi": 5635,
      "ĠÐ¡Ð¿": 5636,
      "Zna": 5637,
      "Ġvelika": 5638,
      "ĠÐ¼ÑĢÐµÐ¶": 5639,
      "68": 5640,
      "ĠÐ²Ð°Ð½": 5641,
      "Ġovak": 5642,
      "Oni": 5643,
      "mino": 5644,
      "deo": 5645,
      "njene": 5646,
      "Ġokto": 5647,
      "sniva": 5648,
      "Ð°ÑĩÐºÐ¾Ð³": 5649,
      "ÑĥÐ½Ð´": 5650,
      "Rezultati": 5651,
      "Ð°Ð½Ð¾Ð³": 5652,
      "ĠnajveÄĩi": 5653,
      "snim": 5654,
      "ĠÐ°Ð½Ð°Ð»Ð¸Ð·Ðµ": 5655,
      "Ġsigurno": 5656,
      "isto": 5657,
      "ĠAn": 5658,
      "meti": 5659,
      "Ġekspre": 5660,
      "âĢ¢": 5661,
      ".).": 5662,
      "ĠÑĤÑĥ": 5663,
      "Ġbroju": 5664,
      "kad": 5665,
      "ĠbuduÄĩ": 5666,
      "Ġnjihov": 5667,
      "zacija": 5668,
      "Ð»Ñĥ": 5669,
      "Ð±Ð¸Ð½": 5670,
      "Ġautomobi": 5671,
      "ĠÐ¾ÑģÐ¸Ð³ÑĥÑĢ": 5672,
      "Ġdonosi": 5673,
      "rvo": 5674,
      "Ð³ÑĥÑģÑĤ": 5675,
      "Ġdistribu": 5676,
      "Ġnapisa": 5677,
      "OVI": 5678,
      "JU": 5679,
      "Ġturisti": 5680,
      "vica": 5681,
      "ĠÐ½Ð°Ð²Ð¾Ð´Ð¸": 5682,
      "ĠÐ¼Ð¾ÑĤÐ¸Ð²": 5683,
      "Ġzu": 5684,
      "ĠÐ¿Ð¾Ð³Ð»ÐµÐ´Ñĥ": 5685,
      "Ã¶": 5686,
      "ÐºÐ¾Ð³": 5687,
      "Ð°ÑĢÑĥ": 5688,
      "ĠÑļÐ¸Ð¼Ð°": 5689,
      "Ġupozna": 5690,
      "ed": 5691,
      "Ġmogla": 5692,
      "ÑĥÑĢÐµ": 5693,
      "Å¡njeg": 5694,
      "gina": 5695,
      "Ð¾ÑĩÐ¸ÑĤÐ¾": 5696,
      "Ġgr": 5697,
      "Ġenzi": 5698,
      "ĠQ": 5699,
      "Ð¸ÐºÑģ": 5700,
      "cionog": 5701,
      "Ġzasno": 5702,
      "jedno": 5703,
      "Ġkrei": 5704,
      "Ġshva": 5705,
      "pli": 5706,
      "ĠiskljuÄįivo": 5707,
      "ĠÅ¾ene": 5708,
      "III": 5709,
      "nse": 5710,
      "69": 5711,
      "ĠdoÅ¡lo": 5712,
      "ĠÐ°Ð¿ÑĢ": 5713,
      "ĠÐ³ÑĥÐ±": 5714,
      "ĠÐ¸ÑģÐºÑĥ": 5715,
      "67": 5716,
      "ktima": 5717,
      "ĠÐ²ÑĢÐµÐ¼ÐµÐ½": 5718,
      "ĠÐ¿ÑĢÐ¸ÑģÑĥÑĤ": 5719,
      "nj": 5720,
      "Ġuzoraka": 5721,
      "ĠÐļÐ¾Ð¼": 5722,
      "mje": 5723,
      "ĠÐ²Ð°Ð·Ð´": 5724,
      "ĠÐĪÐ¾Ð²Ð°Ð½": 5725,
      "ĠÐ¾ÑĤÐ¿": 5726,
      "ĠÐºÐ°Ð¼": 5727,
      "É¢É¦": 5728,
      "ĠÑĥÐ½ÑĥÑĤÑĢÐ°ÑĪÑļ": 5729,
      "njoj": 5730,
      "Ġmerenja": 5731,
      "Ġfon": 5732,
      "zmu": 5733,
      "Pi": 5734,
      "blika": 5735,
      "ĠÐ´Ð¾Ð¼Ð¸Ð½": 5736,
      "Ð¸ÑĢÐ°Ð¾": 5737,
      "ĠÐ»Ð¸Ðº": 5738,
      "ĠznaÄįaja": 5739,
      "Ġljudima": 5740,
      "Ġdemokra": 5741,
      "ĠÑģÐµÐ²ÐµÑĢ": 5742,
      "Ġnjemu": 5743,
      "Ð²ÐµÑĢ": 5744,
      "ĠÑĢÑĥ": 5745,
      "Ġefekat": 5746,
      "Ġuslove": 5747,
      "Ġpotra": 5748,
      "lla": 5749,
      "Ġusme": 5750,
      "Ð¸Ð²ÑĢÐµÐ´": 5751,
      "ĠÑģÑĢÐ¿ÑģÐºÐµ": 5752,
      "Ġ48": 5753,
      "ÐµÐ½ÑĤÑĥ": 5754,
      "ĠâĢĶ,": 5755,
      "ĠÐ°ÑĤ": 5756,
      "Ġpravila": 5757,
      "Ġsprovo": 5758,
      "Ð¸Ð·Ñĥ": 5759,
      "ĠÑĤÐµÐ¼Ð¿ÐµÑĢÐ°ÑĤÑĥÑĢ": 5760,
      "hemi": 5761,
      "ĠVladi": 5762,
      "nac": 5763,
      "ÐµÑĽÑĥ": 5764,
      "Å¡la": 5765,
      "Ġmoze": 5766,
      "Ġadekva": 5767,
      "ĠÑģÐµÐ¿ÑĤ": 5768,
      "ĠÑĢÐµÑĨ": 5769,
      "Ġzemljama": 5770,
      "fera": 5771,
      "Ð°Ð´Ñĥ": 5772,
      "Ð°ÑĩÐµ": 5773,
      "ĠAleksandar": 5774,
      "ĠÐ¶ÐµÐ½": 5775,
      "ĠvaÅ¾no": 5776,
      "Ġdisku": 5777,
      "ĠÑĤÑĢÐ¾ÑĪÐº": 5778,
      "ĠÐºÐ²Ð°Ð»Ð¸ÑĤÐµÑĤ": 5779,
      "Ġ1996": 5780,
      "ĠÐ±Ð¸ÑĤ": 5781,
      "ljiv": 5782,
      "ÐºÐ»": 5783,
      "Ġvodo": 5784,
      "ĠÐºÐ¾Ð¼ÑĥÐ½Ð¸Ðº": 5785,
      "ÐµÐ½Ð¸Ðº": 5786,
      "53": 5787,
      "Ġispitivanja": 5788,
      "ĠzavrÅ¡i": 5789,
      "id": 5790,
      "Ġtoplo": 5791,
      "baci": 5792,
      "Ð¸ÑĢÐ°Ð½Ð°": 5793,
      "Ð°Ð»Ñĥ": 5794,
      "Ġmini": 5795,
      "Ġex": 5796,
      "Ġmene": 5797,
      "ĠÐ¿ÑĢÐ¸ÑħÐ²Ð°ÑĤ": 5798,
      "Ona": 5799,
      "Ġpostoja": 5800,
      "ĠÑģÐ°Ð·": 5801,
      "Ġ1997": 5802,
      "Ġrast": 5803,
      "ĠÐ½Ð°Ð´Ð»ÐµÐ¶": 5804,
      "Ġtelef": 5805,
      "ĠÐ¾ÑĢÐ³Ð°Ð½Ð¸Ð·Ð°ÑĨÐ¸ÑĺÐµ": 5806,
      "Ġhro": 5807,
      "ntne": 5808,
      "ĠÐ¼ÐµÑģÑĤÑĥ": 5809,
      "ÐµÐ½ÑĤÐµ": 5810,
      "nov": 5811,
      "ĠÐµÐºÑģÐ¿ÐµÑĢÐ¸Ð¼": 5812,
      "Ġtekstu": 5813,
      "Ġmedija": 5814,
      "klanja": 5815,
      "valu": 5816,
      "Ġpremije": 5817,
      "ÑĻÐ°": 5818,
      "ĠkuÄĩe": 5819,
      "Ġfunkcija": 5820,
      "ĠÐ½ÐµÐ·Ð°Ð²Ð¸Ñģ": 5821,
      "Ġjezik": 5822,
      "Ġkandi": 5823,
      "ĠpodrÅ¡ku": 5824,
      "prija": 5825,
      "njom": 5826,
      "Ð¾Ð·Ð½Ð°ÑĤ": 5827,
      "Ġ(âĢŀ": 5828,
      "Ð¡Ð»Ð¸ÐºÐ°": 5829,
      "nuti": 5830,
      "Ġtakmi": 5831,
      "É¨Êģ": 5832,
      "ĠÑĻÑĥÐ±": 5833,
      "her": 5834,
      "Ġ1991": 5835,
      "DA": 5836,
      "ÑĢÐ°Ð½Ð°": 5837,
      "lizacija": 5838,
      "Ġseku": 5839,
      "Ġinde": 5840,
      "ÑĥÐ³Ð°": 5841,
      "Ġsposobnosti": 5842,
      "ĠÐºÐ¾ÑĺÐµÐ¼": 5843,
      "É¨É¦": 5844,
      "ĠÐ·Ð°Ð´Ð¾Ð²Ð¾ÑĻ": 5845,
      "Ġnaroda": 5846,
      "ĠHer": 5847,
      "Ġelemenata": 5848,
      "Â°": 5849,
      "Ġtema": 5850,
      "Ġdeli": 5851,
      "Ġneposred": 5852,
      "Ġqu": 5853,
      "ĠÐºÐ¾Ð½ÐºÑĢÐµÑĤ": 5854,
      "Ġpostupak": 5855,
      "Ġpredi": 5856,
      "Ð¾ÑģÐ»Ð°Ð²": 5857,
      "ĠÐ²ÐµÑĽÐ¸": 5858,
      "uzda": 5859,
      "Ð¸ÑļÐ°": 5860,
      "as": 5861,
      "Ro": 5862,
      "Ġoblik": 5863,
      "Ġperioda": 5864,
      "Ñĸ": 5865,
      "duje": 5866,
      "Ġpoz": 5867,
      "Ġpredmet": 5868,
      "Ð¾Ð²ÑĢÐµÐ¼ÐµÐ½Ð¾": 5869,
      "ĠÑļÐµÐ³Ð°": 5870,
      "Ġsan": 5871,
      "Å¾enje": 5872,
      "dovima": 5873,
      "Ġobjasni": 5874,
      "Ġsuda": 5875,
      "ĠÐ¿Ð¾ÑĤÑĢÐµÐ±Ð½Ð¾": 5876,
      "ĠÐ´Ð¾Ð¿ÑĢÐ¸Ð½Ð¾Ñģ": 5877,
      "ĠÑĥÐºÐ¾Ð»Ð¸ÐºÐ¾": 5878,
      "Ġpada": 5879,
      "Äĩuje": 5880,
      "Ð¸Ð½Ð°ÑĢ": 5881,
      "Ġsport": 5882,
      "ÐĮ": 5883,
      "Ġobzir": 5884,
      "77": 5885,
      "hibi": 5886,
      "ĠÐ¿ÑĢÐ¸ÑģÑĥ": 5887,
      "dju": 5888,
      "Ġprven": 5889,
      "ÑģÐ¾Ð½": 5890,
      "Ci": 5891,
      "akle": 5892,
      "Ġproteina": 5893,
      "Ð¸Ð»Ñĥ": 5894,
      "ĠÑĥÑģÐ»Ð¾Ð²Ð¸Ð¼Ð°": 5895,
      "ĠÐ°Ð¼ÐµÑĢ": 5896,
      "loviÄĩ": 5897,
      "ĠâĢ¦": 5898,
      "Ġbolni": 5899,
      "ziste": 5900,
      "ĠÐºÐ¾Ð¼Ð¿Ð¾Ð½": 5901,
      "vosti": 5902,
      "tila": 5903,
      "Ġ1990": 5904,
      "ĠÑĢÐ°Ð·Ð»Ð¸ÐºÐ°": 5905,
      "ĠÐ·Ð°ÑĢ": 5906,
      "Ġtest": 5907,
      "gru": 5908,
      "ĠÉ©Éª": 5909,
      "Ġbar": 5910,
      "Ġdevoj": 5911,
      "ĠSE": 5912,
      "gor": 5913,
      "fer": 5914,
      "ĠÐ´Ð¾Ð¿": 5915,
      "ÑĥÐºÑĥ": 5916,
      "ĠÐ¿Ð¾ÐºÑĢÐµÑĤ": 5917,
      "Kon": 5918,
      "Ġtala": 5919,
      "Ð¢Ð°ÐºÐ¾": 5920,
      "Ġjavnog": 5921,
      "Ð¸ÐºÐ»": 5922,
      "Ġstepen": 5923,
      "Ġopti": 5924,
      "Ð¸ÑĢÐ°Ð½Ð¸": 5925,
      "ĠÑģÑĢÐ¿ÑģÐºÐ¾Ð³": 5926,
      "Ġimate": 5927,
      "Ġsamou": 5928,
      "ĠÑĤÑĢÐµÑĤ": 5929,
      "Ġprve": 5930,
      "Ð°ÑĨÐ¸Ð¼Ð°": 5931,
      "Ġsistemu": 5932,
      "ĠÐī": 5933,
      "tum": 5934,
      "ĠÐºÑĥÐ»ÑĤÑĥÑĢÐµ": 5935,
      "ĠÐ´ÑĥÐ±": 5936,
      "Ġintegra": 5937,
      "dese": 5938,
      "Ġizaz": 5939,
      "ĠÐ¸Ð¼Ð¾Ð²": 5940,
      "09": 5941,
      "gnosti": 5942,
      "ĠmreÅ¾a": 5943,
      "ĠÑģÐµÐ·": 5944,
      "Ġpogla": 5945,
      "ĠÑĩÐ»": 5946,
      "ĠzemljiÅ¡ta": 5947,
      "Äĳivanja": 5948,
      "Ġupravljanja": 5949,
      "ĠÐ¤Ð¸Ð»": 5950,
      "ĠzaÅ¡to": 5951,
      "ĠÐ¢ÑĥÑĢ": 5952,
      "Ġcene": 5953,
      "Ġzatvo": 5954,
      "vencije": 5955,
      "dela": 5956,
      "ĠÐºÑĻÑĥÑĩ": 5957,
      "ĠÐ½ÐµÐºÐ¸": 5958,
      "Ð²Ð¸Ð´": 5959,
      "ĠÐ¿ÑĢÐµÐ³": 5960,
      "Ð¸Ð¼ÐµÐ½Ð·": 5961,
      "ĠÐ¾Ð´Ð½Ð¾ÑģÐµ": 5962,
      "Å¡njih": 5963,
      "Ġaplika": 5964,
      "Å¾nje": 5965,
      "ĠÐ²ÐµÐ»Ð¸Ñĩ": 5966,
      "Ġprva": 5967,
      "ĠÐ´Ð¾Ð»Ð°Ð·Ð¸": 5968,
      "ĠÐ¾Ð²Ð¸Ð¼": 5969,
      "Ġ,,": 5970,
      "ĠÐ½ÐµÐºÐµ": 5971,
      "Ġ1995": 5972,
      "vaÅ¾": 5973,
      "ÄĬu": 5974,
      "Ġkojom": 5975,
      "ĠpoveÄĩanje": 5976,
      "Ð¸Ð¶Ðµ": 5977,
      "Ð±Ð¾Ð³": 5978,
      "ori": 5979,
      "ĠÐ¿Ð¾Ð¿ÑĥÑĤ": 5980,
      "Ġoru": 5981,
      "cha": 5982,
      "sub": 5983,
      "ĠÐ½Ð°Ðº": 5984,
      "Ġoptu": 5985,
      "Ġnjihova": 5986,
      "ĠÐ¿Ð°Ð´": 5987,
      "Ġnekih": 5988,
      "ĠÑĩÐµÐ³Ð°": 5989,
      "Ġiskustvo": 5990,
      "Ġtraja": 5991,
      "Ġnov": 5992,
      "Zato": 5993,
      "Ġugro": 5994,
      "solu": 5995,
      "ĠÐ±ÑĥÐ´ÑĥÑĽ": 5996,
      "79": 5997,
      "ĠÑĢÐ°Ð·Ð»Ð¸ÐºÑĥ": 5998,
      "ÑĥÐ´Ðµ": 5999,
      "Ġsaop": 6000,
      "ĠÑĥÑģÐ¼ÐµÑĢ": 6001,
      "ĠznaÄįajna": 6002,
      "Ġtemperature": 6003,
      "ĠÐ¿ÑĢÐ¾Ð¼ÐµÐ½": 6004,
      "Ġdomina": 6005,
      "Ġseg": 6006,
      "ĠÑĪÑĤÐ°": 6007,
      "ÑĥÐ³Ð¾ÑģÐ»Ð¾Ð²ÐµÐ½": 6008,
      "ĠÑģÑĨ": 6009,
      "ĠnaÄįina": 6010,
      "ĠÐĳÐ¾Ð³": 6011,
      "Ġdizaj": 6012,
      "cke": 6013,
      "ĠliÄįnosti": 6014,
      "Ġostalih": 6015,
      "ĠÑĢÐ°Ð·Ð»Ð¸ÑĩÐ¸ÑĤÐ¸Ð¼": 6016,
      "Ġiskustva": 6017,
      "ĠOD": 6018,
      "ÐµÑĤÐ°ÑĢ": 6019,
      "ĠÐºÑĢÐ¸ÑĤÐµÑĢÐ¸ÑĺÑĥÐ¼": 6020,
      "ĠÐ¾Ð½Ð´Ð°": 6021,
      "ĠoÄįeki": 6022,
      "kove": 6023,
      "Ġobliku": 6024,
      "Ġ39": 6025,
      "ĠÄįime": 6026,
      "Åłta": 6027,
      "ĠÐ³ÑĢÐ°Ð´Ð°": 6028,
      "ĠÐ¼Ð¾Ð³ÑĥÑĽÐ½Ð¾ÑģÑĤÐ¸": 6029,
      "Ġmodi": 6030,
      "Ġobaveza": 6031,
      "ÑĢÐµÑģ": 6032,
      "ĠÑĥÐ¿ÑĢÐ°Ð²Ð¾": 6033,
      "Ġvaspi": 6034,
      "ĠÐ³Ð¾Ð²Ð¾ÑĢÐ¸": 6035,
      "ĠodreÄĳene": 6036,
      "Å¾ba": 6037,
      "Ġsmanji": 6038,
      "ĠmreÅ¾e": 6039,
      "ĠkoriÅ¡Äĩenje": 6040,
      "Ġroku": 6041,
      "zem": 6042,
      "rene": 6043,
      "Ġfaktor": 6044,
      "ĠÐ¿ÑĢÐµÐ´ÑģÐµÐ´": 6045,
      "Ð¾Ð»Ð¾ÑĪÐºÐµ": 6046,
      "Tu": 6047,
      "ĠÐ¸Ð·ÑĥÐ·ÐµÑĤ": 6048,
      "Ð°Ð»Ð½Ñĥ": 6049,
      "Ġfir": 6050,
      "Ġperforma": 6051,
      "lozi": 6052,
      "Ð°Ð±ÑĢ": 6053,
      "ĠÑģÑĤÐ°ÑĤÐ¸ÑģÑĤÐ¸ÑĩÐºÐ¸": 6054,
      "ĠÄįovek": 6055,
      "ĠÐ¸Ð·Ñĺ": 6056,
      "ĠÑļÐµÐ³Ð¾Ð²Ð¾Ð³": 6057,
      "takmi": 6058,
      "tite": 6059,
      "ĠÐ¿Ð¾Ð´ÑĢÐ°Ð·ÑĥÐ¼ÐµÐ²Ð°": 6060,
      "Ġnjegovog": 6061,
      "Ġpoljoprivred": 6062,
      "Ġstruktura": 6063,
      "res": 6064,
      "Ġuslovi": 6065,
      "ĠsledeÄĩe": 6066,
      "Ġorganizova": 6067,
      "lis": 6068,
      "Ġkarakteristika": 6069,
      "Ġorgana": 6070,
      "Ġsuko": 6071,
      "Ġobrazovanje": 6072,
      "Ġfilozo": 6073,
      "ĠÐ¾Ð±Ð»Ð¸ÐºÐ°": 6074,
      "Ġregula": 6075,
      "Ð°Ð²Ñĥ": 6076,
      "ĠÐ¿ÑĥÑĤÐµÐ¼": 6077,
      "Ġispla": 6078,
      "Ġbolesnika": 6079,
      "Ġaku": 6080,
      "Ġzvez": 6081,
      "ljivost": 6082,
      "Ġ188": 6083,
      "É¨Éª": 6084,
      "sorp": 6085,
      "Ġzdravlje": 6086,
      "ĠÐ¾ÐºÑĤÐ¾Ð±": 6087,
      "Äįita": 6088,
      "Ð°ÑĺÐ¸": 6089,
      "ranjem": 6090,
      "Ġdecu": 6091,
      "SO": 6092,
      "Ġgeo": 6093,
      "Ġstrani": 6094,
      "ntima": 6095,
      "ĠÐ¿Ð¾Ð»Ð¸ÑĤÐ¸ÐºÐµ": 6096,
      "Ð¾Ð²Ð¾ÑĻÐ½Ð¾": 6097,
      "Ġtradicional": 6098,
      "ljenih": 6099,
      "Ġizvr": 6100,
      "nili": 6101,
      "ĠÑļÐ¸ÑħÐ¾Ð²Ðµ": 6102,
      "Ca": 6103,
      "nite": 6104,
      "Ġzadovolj": 6105,
      "nsko": 6106,
      "ĠÑģÑĥÐ¿ÑĢÐ¾ÑĤ": 6107,
      "ĠÐºÐ°ÑĤ": 6108,
      "ĠÐ½ÐµÐ´Ð¾ÑģÑĤ": 6109,
      "ii": 6110,
      "ĠÐļÑĢÐ°ÑĻ": 6111,
      "Ð»ÐµÐ¼Ð°": 6112,
      "Ġservi": 6113,
      "Äĳan": 6114,
      "Ġukazuju": 6115,
      "ĠÅ¡iro": 6116,
      "Ð¸Ð»Ð°ÑĨ": 6117,
      "govora": 6118,
      "Ġizuzetno": 6119,
      "veli": 6120,
      "Ġuzorka": 6121,
      "Ġsati": 6122,
      "Ġadre": 6123,
      "Ġured": 6124,
      "ĠPla": 6125,
      "Ġkomple": 6126,
      "mene": 6127,
      "ĠukljuÄįujuÄĩi": 6128,
      "ĠÐ¾Ð±ÐµÐ»ÐµÐ¶": 6129,
      "ĠÅ¾ivi": 6130,
      "Ð¸ÑĺÐµÐ½ÑĤ": 6131,
      "Ġljude": 6132,
      "ĠÑĩÐ¾Ð²ÐµÐº": 6133,
      "pozi": 6134,
      "ĠÐľÐ°Ðº": 6135,
      "ĠÉ«": 6136,
      "Ġobele": 6137,
      "tela": 6138,
      "guje": 6139,
      "ĠSA": 6140,
      "ĠÐ¾Ð»": 6141,
      "Ð´Ð°Ð½": 6142,
      "Ð°ÑĪÑļÐµ": 6143,
      "ĠÐ¡ÐĲÐĶ": 6144,
      "Ġish": 6145,
      "ĠÐ²Ð¾Ð´Ðµ": 6146,
      "Ġistovremeno": 6147,
      "ÑĤÐ¾": 6148,
      "ĠÐ¿ÑĢÐµÐ¼": 6149,
      "Ġagre": 6150,
      "ĠpoÄįetka": 6151,
      "ĠreÄĩi": 6152,
      "vnoj": 6153,
      "ĠÑĥÑĩÐµÐ½Ð¸ÐºÐ°": 6154,
      "56": 6155,
      "nisti": 6156,
      "Ð¾Ð¿Ð°": 6157,
      "ĠÐ½Ð¾Ð²Ðµ": 6158,
      "ÑĢÐ°Ñģ": 6159,
      "Ġjeziku": 6160,
      "ĠÐ¿Ð¾ÑĤÑĢÐ¾ÑĪ": 6161,
      "ĠÐ¼Ð¸ÑĢ": 6162,
      "Ġmulti": 6163,
      "ĠÐ½Ð°ÑĢÐµÐ´": 6164,
      "ÑĦÐµÑĢ": 6165,
      "Ġnavode": 6166,
      "loÅ¡kog": 6167,
      "ĠBalka": 6168,
      "Ð½Ð¾ÑĪÑĽÑĥ": 6169,
      "ĠSR": 6170,
      "ĠÐ½Ð°ÑĺÐ¼": 6171,
      "ĠSlika": 6172,
      "Ðİ": 6173,
      "Ð°ÑĤÐ¸Ð²Ð½Ð¸": 6174,
      "Ġhilja": 6175,
      "ĠÐ¾ÑģÐµÑĽ": 6176,
      "pova": 6177,
      "Ġglavni": 6178,
      "ĠÐ²ÑĢÐ»Ð¾": 6179,
      "Ġzra": 6180,
      "ÐµÐ¼Ð°ÑĤ": 6181,
      "ĠEvrope": 6182,
      "Ġvlasni": 6183,
      "ote": 6184,
      "Ġoti": 6185,
      "ĠproÅ¡i": 6186,
      "Ġdokaza": 6187,
      "ĠÐ¼Ð¾Ð´ÐµÑĢ": 6188,
      "ĠÑĢÐ°": 6189,
      "logiju": 6190,
      "É¦": 6191,
      "rga": 6192,
      "ksual": 6193,
      "Ġfaze": 6194,
      "ĠÑģÐ»Ð¾Ð¶": 6195,
      "ĠÑĩÐ¸ÑĺÐ¸": 6196,
      "Ðĸ": 6197,
      "ĠÐ´ÐµÑĨÐµ": 6198,
      "Ġdiplo": 6199,
      "Ġsituacija": 6200,
      "ĠÑĤÐ¸Ð¿Ð°": 6201,
      "Ġdono": 6202,
      "ĠpotroÅ¡a": 6203,
      "ĠÐ½ÐµÐ¿Ð¾ÑģÑĢÐµÐ´": 6204,
      "Ġneuro": 6205,
      "ĠÐ¿Ð¾ÑĤÐ²ÑĢÑĴ": 6206,
      "Ġispra": 6207,
      "ĠÐ½Ð°ÑĢÐ¾ÑĩÐ¸ÑĤÐ¾": 6208,
      "STI": 6209,
      "Ð°Ð½ÑģÐºÐ¾Ð³": 6210,
      "PS": 6211,
      "ĠÐºÐ¾Ð»Ð¸Ñĩ": 6212,
      "Ġgene": 6213,
      "ĠNovom": 6214,
      "Ð¸ÑĤÐµÐºÑĤ": 6215,
      "Ġzahtev": 6216,
      "ĠÅ¾eli": 6217,
      "Ġrecep": 6218,
      "Ġmor": 6219,
      "57": 6220,
      "Ġengle": 6221,
      "lizaciju": 6222,
      "ÑĻÐµÐ½": 6223,
      "Ġ32": 6224,
      "ĠÄĩu": 6225,
      "ĠÐºÑĢÐ¸Ð¼Ð¸Ð½": 6226,
      "Ġspolj": 6227,
      "Ġsprem": 6228,
      "Ġpuno": 6229,
      "ljivosti": 6230,
      "ĠÑģÐ¼ÑĢÑĤÐ¸": 6231,
      "fiko": 6232,
      "ĠÄįvr": 6233,
      "tura": 6234,
      "ÑĢÐ°Ð½Ð¸": 6235,
      "Ġkrimina": 6236,
      "Ġsedam": 6237,
      "Ġljuba": 6238,
      "Ġkoristiti": 6239,
      "Ġpostupku": 6240,
      "ĠÐ¿ÑĢÐ¾Ð±Ð»ÐµÐ¼Ð°": 6241,
      "ĠÑģÐ°ÑģÑĤÐ°Ð²": 6242,
      "Ð¾ÑĤÐ¾Ð²Ð¾": 6243,
      "ĠÐ·Ð½Ð°ÑļÐ°": 6244,
      "ĠÐ¸Ð³": 6245,
      "svim": 6246,
      "ĠÑĢÐ°Ð·Ð»Ð¸ÐºÐµ": 6247,
      "arma": 6248,
      "ĠizloÅ¾e": 6249,
      "ĠÑģÐ¸Ð½ÑĤ": 6250,
      "RU": 6251,
      "ĠporemeÄĩa": 6252,
      "É¨Éŀ": 6253,
      "Ġnapa": 6254,
      "tnik": 6255,
      "ĠÐ¶ÐµÐ½Ð°": 6256,
      "Ġsporazu": 6257,
      "ĠÐ¿Ð¾ÑĤÐµÐ½ÑĨÐ¸ÑĺÐ°Ð»": 6258,
      "ĠÐ´Ð¸Ð½": 6259,
      "Ġinost": 6260,
      "IJE": 6261,
      "Ð¸Ð±Ð»Ð¸": 6262,
      "PA": 6263,
      "tr": 6264,
      "ĠponaÅ¡anja": 6265,
      "Ġprethodno": 6266,
      "ĠÐ¼ÐµÑģÐµÑĨ": 6267,
      "CE": 6268,
      "ĠÑĢÐµÑģÑĥÑĢ": 6269,
      "pravda": 6270,
      "sloven": 6271,
      "Äįene": 6272,
      "Ġobjekata": 6273,
      "Ð°ÑĤÐ¾ÑĢÐ°": 6274,
      "Ġizabra": 6275,
      "Ġnova": 6276,
      "ĠÐ·Ð°ÑħÑĤÐµÐ²Ð°": 6277,
      "ĠÐ¾ÑģÐ»Ð¾Ð±": 6278,
      "Ġnjihovo": 6279,
      "Ġpredmeta": 6280,
      "Ð¾Ð²ÐµÐ´": 6281,
      "fikacija": 6282,
      "Ġjavnosti": 6283,
      "riÅ¡e": 6284,
      "ĠÐ£Ð½Ð¸Ð²ÐµÑĢÐ·": 6285,
      "ĠÐ»ÐµÐº": 6286,
      "ĠÑĢÐ°ÑĩÑĥÐ½": 6287,
      "Ġpostaje": 6288,
      "ÐŁÐ¾ÑĢÐµÐ´": 6289,
      "ĠÐ·ÐµÐ¼Ð°ÑĻÐ°": 6290,
      "Ġbora": 6291,
      "Ġgradu": 6292,
      "ĠÐºÐ¾Ð½ÑĨÐµÐ¿ÑĤ": 6293,
      "ĠmeÄĳutim": 6294,
      "Ð¾ÐºÑĥ": 6295,
      "Ġzajednice": 6296,
      "jskom": 6297,
      "Ġdosti": 6298,
      "Ġkandida": 6299,
      "Ġautori": 6300,
      "gde": 6301,
      "ĠÑģÐ°Ð´Ð°": 6302,
      "ÑĢÐ°Ð´Ñĥ": 6303,
      "ad": 6304,
      "Ġae": 6305,
      "Ġseptem": 6306,
      "Ð½Ð¾ÑģÑĤÐ¸Ð¼Ð°": 6307,
      "Ð½Ð¸ÐºÐµ": 6308,
      "Ġorije": 6309,
      "Ġprimenu": 6310,
      "Ð¸Ð³ÑĢ": 6311,
      "cy": 6312,
      "Ġznatno": 6313,
      "Ġnasle": 6314,
      "Ġnaru": 6315,
      "losti": 6316,
      "Ġnama": 6317,
      "rit": 6318,
      "ĠÐ´Ð¾Ð±ÑĢ": 6319,
      "ĠÑģÐ¿Ð¾Ð¼": 6320,
      "Ġupi": 6321,
      "zv": 6322,
      "mula": 6323,
      "Ð°Ð½ÑģÐºÐ¸": 6324,
      "ĠÈ": 6325,
      "ĠÐ±Ð¸Ð²": 6326,
      "ĠÐ¾Ð±ÐµÐ·Ð±": 6327,
      "ida": 6328,
      "vnika": 6329,
      "ĠÄĩete": 6330,
      "Ġdesi": 6331,
      "Ġdati": 6332,
      "Ġdigita": 6333,
      "ĠPRO": 6334,
      "tions": 6335,
      "ĠÐ·Ð°ÑģÐ½Ð¾Ð²": 6336,
      "ÐµÐ´Ð¾Ð½": 6337,
      "Ð°ÐºÑģÐ¸Ð¼": 6338,
      "ĠÐ°Ð²Ð³ÑĥÑģÑĤ": 6339,
      "njeni": 6340,
      "ĠÑĤÐ°Ð±": 6341,
      "ĠÑĢÐµÐ·ÑĥÐ»ÑĤÐ°ÑĤÐ°": 6342,
      "Ġlak": 6343,
      "ministra": 6344,
      "ÑĢÐ¿": 6345,
      "mente": 6346,
      "mova": 6347,
      "ÐĺÐ°ÐºÐ¾": 6348,
      "vice": 6349,
      "ĠÄĩeli": 6350,
      "ĠÐ´Ð¾Ð¶": 6351,
      "Ġsvedo": 6352,
      "Ġjavno": 6353,
      "Ġ@": 6354,
      "Ġsajta": 6355,
      "Ġfaza": 6356,
      "Svi": 6357,
      "tali": 6358,
      "Å¾ne": 6359,
      "Ġage": 6360,
      "ĠÑģÐ»Ð°Ð±": 6361,
      "ĠÑĥÑģÐ¿ÐµÑĪ": 6362,
      "stre": 6363,
      "Ġsprovede": 6364,
      "ok": 6365,
      "stupi": 6366,
      "Ġkontrole": 6367,
      "Ð¾ÑĢÐ¾": 6368,
      "Ġsoft": 6369,
      "ĠreÄįima": 6370,
      "ĠÐ±Ð°Ð·": 6371,
      "Ġutakmi": 6372,
      "Ti": 6373,
      "Ð°Ð½Ð¾Ð¼": 6374,
      "rum": 6375,
      "Ġpresu": 6376,
      "Ġopet": 6377,
      "Ġsvakako": 6378,
      "Ġnovog": 6379,
      "Dakle": 6380,
      "Ð¾Ð·Ð¾ÑĦ": 6381,
      "ĠInstitu": 6382,
      "Ð¾Ð¿ÑĢÐ¸Ð²ÑĢÐµÐ´": 6383,
      "Ġas": 6384,
      "99": 6385,
      "Ġvec": 6386,
      "Ġjuna": 6387,
      "pisuje": 6388,
      "Ġjedinjenja": 6389,
      "rnim": 6390,
      "ĠÐ¿Ð¾ÑĤÐ¾Ð¼": 6391,
      "Ġzakonom": 6392,
      "ĠÐ·Ð´ÑĢÐ°Ð²ÑģÑĤÐ²": 6393,
      "ÐĶÐ°": 6394,
      "Ġsku": 6395,
      "Ġzdravlja": 6396,
      "ĠÉ«É": 6397,
      "nus": 6398,
      "tije": 6399,
      "ĠÐ°ÑĥÑĤÐ¾ÑĢÐ°": 6400,
      "ĠÑĥÐºÐ°Ð·ÑĥÑĺÐµ": 6401,
      "ĠNarod": 6402,
      "ĠÑĺÐ°ÑģÐ½Ð¾": 6403,
      "Ð¸ÑģÐ°ÑļÐµ": 6404,
      "Ġple": 6405,
      "loge": 6406,
      "Ġinhibi": 6407,
      "Ġautor": 6408,
      "des": 6409,
      "Ġostale": 6410,
      "Ġumetnosti": 6411,
      "Ð²Ð¾Ð³": 6412,
      "ĠÑĺÑĥÐ³Ð¾ÑģÐ»Ð¾Ð²ÐµÐ½": 6413,
      "Ġkrea": 6414,
      "Ġkak": 6415,
      "Ð¸ÑĢÐ°Ð½Ðµ": 6416,
      "Ġtreti": 6417,
      "vama": 6418,
      "ÐļÐ°Ð´Ð°": 6419,
      "ĠÑĥÐ³Ð¾Ð²Ð¾ÑĢÐ°": 6420,
      "Ġradni": 6421,
      "Ġovi": 6422,
      "ÑĻÐµ": 6423,
      "ĠÐ¸Ð·Ð²ÐµÑĪÑĤ": 6424,
      "jama": 6425,
      "ĠÑģÑħÐ²Ð°ÑĤ": 6426,
      "Ġwi": 6427,
      "ĠÑģÐ¸Ð¼Ð±Ð¾Ð»": 6428,
      "Ġstava": 6429,
      "ĠÐ´Ð¾Ð·Ð²": 6430,
      "Ð°Ð²Ð°Ð¾": 6431,
      "%),": 6432,
      "ĠÐ¸Ð·Ð³ÑĢÐ°Ð´": 6433,
      "han": 6434,
      "Au": 6435,
      "ĠÐ¸Ð½ÑĤÐµÐ½Ð·": 6436,
      "ljaka": 6437,
      "ĠÐ¼Ð°ÑĤ": 6438,
      "Ð²ÐµÐ½ÑĨ": 6439,
      "nila": 6440,
      "ÑģÑĤÐ²Ð¾Ð¼": 6441,
      "ĠÐ¸Ð¼Ð°Ð»Ð°": 6442,
      "Äĩeno": 6443,
      "njo": 6444,
      "Ġpodacima": 6445,
      "wi": 6446,
      "ĠÑĢÐ°Ð·Ð²Ð¸ÑĺÐµ": 6447,
      "ĠkoriÅ¡Äĩenja": 6448,
      "Ġogla": 6449,
      "Ð°ÐºÐµ": 6450,
      "Ġpredstavlje": 6451,
      "Ġizvora": 6452,
      "ning": 6453,
      "Ġnjihovih": 6454,
      "Ġprenosi": 6455,
      "Ġtuma": 6456,
      "ĠÐ·Ð°Ð³": 6457,
      "Al": 6458,
      "ĠÐ¿Ð¾ÑģÐµÐ´": 6459,
      "Ġkoncentracija": 6460,
      "ĠÐ½Ð°Ð»Ð°Ð·Ðµ": 6461,
      "Äįara": 6462,
      "Ġblago": 6463,
      "ĠÄįeka": 6464,
      "Ð¸ÑĺÐ°ÑĤÐµÑĻ": 6465,
      "Ġparame": 6466,
      "Ġozbilj": 6467,
      "ĠNE": 6468,
      "ĠistiÄįe": 6469,
      "Ġzvu": 6470,
      "Ġfilm": 6471,
      "ÐµÐ¾Ð³ÑĢÐ°ÑĦ": 6472,
      "ĠSrp": 6473,
      "ĠÑĤÑĥÐ¼Ð°Ñĩ": 6474,
      "Ġrizik": 6475,
      "Ġumesto": 6476,
      "ĠÐ¿ÑĢÐ¾Ð»": 6477,
      "stova": 6478,
      "ĠÐ·Ð°ÑĺÐµÐ´Ð½Ð¾": 6479,
      "ĠuÄįestvu": 6480,
      "Ġmobi": 6481,
      "Ġsimbo": 6482,
      "Ġkrvi": 6483,
      "giju": 6484,
      "Ġsmanjenje": 6485,
      "64": 6486,
      "ĠÐłÑĥÑģ": 6487,
      "Ð¾Ð²Ð°ÑļÑĥ": 6488,
      "noma": 6489,
      "Ð¾Ð»Ð¾ÑĪÐºÐ¸Ñħ": 6490,
      "Ġakade": 6491,
      "âĢ¦âĢ¦": 6492,
      "ĠCr": 6493,
      "Ġreprezenta": 6494,
      "Ġcom": 6495,
      "ĠÐ´ÑĢÑĥÐ³Ð¾Ð¼": 6496,
      "Ð°ÑģÐ°": 6497,
      "52": 6498,
      "04": 6499,
      "Ð¾ÑĨÐ¸": 6500,
      "Ð¾Ð·Ð°": 6501,
      ".),": 6502,
      "ĠÐ¸ÑģÑĤÐ¾": 6503,
      "ĠÐ·Ð°Ð¿Ð°Ð´": 6504,
      "ĠÑģÑĤÐ°Ð½": 6505,
      "ÐĶÑĢÑĥÐ³": 6506,
      "ĠÐ¿Ð¾ÑĺÐµÐ´Ð¸Ð½Ð°Ñĩ": 6507,
      "Ġanalizu": 6508,
      "ĠÐ¾Ð´Ð²": 6509,
      "ĠÐºÐ¾Ð¼Ð¿Ð»ÐµÐºÑģ": 6510,
      "ĠÑģÑĥÐº": 6511,
      "Ġsimpto": 6512,
      "lijar": 6513,
      "Ġpokazala": 6514,
      "ĠÐ°Ð½Ð°Ð»Ð¸Ð·Ð°": 6515,
      "Ġdes": 6516,
      "Ð¸ÑĺÐµÑĢ": 6517,
      "ĠpH": 6518,
      "ziva": 6519,
      "ĠÐ¾Ð´Ð³Ð¾Ð²Ð°ÑĢÐ°ÑĺÑĥÑĽ": 6520,
      "Ġflu": 6521,
      "Ġ1992": 6522,
      "Ġgrupu": 6523,
      "ĠÐ´Ð¾ÐºÐ°Ð·": 6524,
      "Ġplan": 6525,
      "Ġpraksi": 6526,
      "ĠproizvoÄĳa": 6527,
      "Äĩeni": 6528,
      "Ð³Ð¾ÑĢ": 6529,
      "dnu": 6530,
      "Ġdinami": 6531,
      "ĠÐ½Ð°ÑĢÐ¾Ð´Ð°": 6532,
      "ĠÐ¾ÑĢÐ³": 6533,
      "ÐµÐ¼Ð±Ð°ÑĢ": 6534,
      "Pra": 6535,
      "ĠÐ¸Ð·Ð»Ð¾Ð¶": 6536,
      "ĠÐ¿Ð¾ÑĢÐµÐº": 6537,
      "njeno": 6538,
      "Ġslike": 6539,
      "Ð£Ðº": 6540,
      "Ġjugo": 6541,
      "ĠÐ´Ðµ": 6542,
      "ĠÑĥÑģÑĤÐ°Ð½": 6543,
      "Ġdobar": 6544,
      "tero": 6545,
      "Ġpresta": 6546,
      "Ġnovca": 6547,
      "ĠÑļÐµÐ³Ð¾Ð²Ð°": 6548,
      "Ð½ÐµÑĤ": 6549,
      "03": 6550,
      "Ġizvor": 6551,
      "Ġpovre": 6552,
      "ĠÑĺÐ°Ð½Ñĥ": 6553,
      "Ġprou": 6554,
      "ÊĦ": 6555,
      "ĠÐ¿ÑĢÐ¸Ð²Ð°ÑĤ": 6556,
      "Ġvise": 6557,
      "ĠÑĥÐ½Ð¸Ð²ÐµÑĢÐ·": 6558,
      "Ġaktu": 6559,
      "Ġodvija": 6560,
      "Å¾iti": 6561,
      "ĠÐ³ÐµÐ½": 6562,
      "tivnom": 6563,
      "Ġusa": 6564,
      "Ġkontinu": 6565,
      "Ġnabav": 6566,
      "Ġvelikim": 6567,
      "Ġovla": 6568,
      "ĠÐĳÐ¾Ñģ": 6569,
      "riva": 6570,
      "Ð¸ÑħÐ°": 6571,
      "ĠobiÄįno": 6572,
      "ĠoÄįekuje": 6573,
      "Ġpotpunosti": 6574,
      "ÐłÐ°Ð·": 6575,
      "jni": 6576,
      "ĠÐŁÐ°ÑĢ": 6577,
      "ĠÑĺÐµÐ´Ð½Ñĥ": 6578,
      "Ġpodne": 6579,
      "Ġtip": 6580,
      "NS": 6581,
      "ĠÊģ": 6582,
      "Ġ33": 6583,
      "ĠÑĥÑĩÐµÑģ": 6584,
      "ÐµÐ²Ð¾": 6585,
      "ĠÐ°Ð¿Ñģ": 6586,
      "Ð¸Ð·Ð°ÑĨÐ¸ÑĺÐ°": 6587,
      "ĠÑĢÐµÐ¶": 6588,
      "Ð°ÐºÑĨÐ¸ÑĺÐµ": 6589,
      "mbar": 6590,
      "Ġzaga": 6591,
      "tnost": 6592,
      "ĠÐ¿ÑĢÐ¾Ð¼ÐµÐ½Ð°": 6593,
      "ĠÅ¡kol": 6594,
      "Ġarhite": 6595,
      "ĠÐ»Ð¸ÑĤÐµÑĢÐ°ÑĤÑĥÑĢ": 6596,
      "zio": 6597,
      "08": 6598,
      "ĠÑģÑĤÐ²Ð°ÑĢÐ¸": 6599,
      "at": 6600,
      "stvima": 6601,
      "Ġhla": 6602,
      "ĠÐ¼Ð°Ð½": 6603,
      "sup": 6604,
      "ntu": 6605,
      "ĠNovi": 6606,
      "63": 6607,
      "Ġmoglo": 6608,
      "ĠÐ¿ÑĢÐ¾ÑĺÐµÐºÑĤ": 6609,
      "Ġkora": 6610,
      "ĠÐ¾Ð±ÑĺÐ°ÑĪÑļ": 6611,
      "ĠÑģÐ²Ð¾ÑĺÐ¾Ñĺ": 6612,
      "ĠÐºÐ²Ð°Ð»Ð¸ÑĤÐµÑĤÐ°": 6613,
      "mira": 6614,
      "kada": 6615,
      "Ġpostignu": 6616,
      "sada": 6617,
      "Ġukupno": 6618,
      "veni": 6619,
      "ÑĢÐ°Ñħ": 6620,
      "Ġmatemati": 6621,
      "ÐµÐ½Ð°ÑĤ": 6622,
      "Osim": 6623,
      "MS": 6624,
      "Ġnekom": 6625,
      "Ġosam": 6626,
      "strova": 6627,
      "MO": 6628,
      "ĠÑģÐ²Ð¾ÑĺÐ¸Ñħ": 6629,
      "Ð¸ÑĨÐ¾Ð¼": 6630,
      "Ð¿ÑĢÐµÑģ": 6631,
      "ĠÑĨÑĢÐºÐ²": 6632,
      "kos": 6633,
      "Ġubr": 6634,
      "ÑĥÑĦ": 6635,
      "ĠutiÄįu": 6636,
      "ĠÐ´Ð¾Ð±ÑĢÐ¾": 6637,
      "Ġmle": 6638,
      "ĠÐ½ÐµÑĢ": 6639,
      "ĠÐ³Ð¾ÑĢ": 6640,
      "ĠÐ½Ð°Ð¿ÑĢ": 6641,
      "Ġlepo": 6642,
      "ĠrazmiÅ¡lja": 6643,
      "ĠÐ¸ÑĤ": 6644,
      "Ð¸Ð¿Ð»Ð¾Ð¼": 6645,
      "zanja": 6646,
      "ĠdruÅ¡tvo": 6647,
      "puÅ¡ta": 6648,
      "Ġsvake": 6649,
      "Ġkupa": 6650,
      "nina": 6651,
      "Ð½Ð¸ÑĺÐ¸Ñħ": 6652,
      "ĠÐ¿Ð¾Ð³Ð»": 6653,
      "Å¡avanja": 6654,
      "Ð°Ð¿Ð°Ð´": 6655,
      "ĠÐ¿ÑĢÐ¸Ð±": 6656,
      "ĠÑģÑĤÑĢÑĥ": 6657,
      "ÑĢÐ°Ð¼Ð°": 6658,
      "ĠÐ´Ð°ÑĺÐµ": 6659,
      "Isto": 6660,
      "ĠÑĥÐ½ÑĥÑĤÐ°ÑĢ": 6661,
      "Ġisho": 6662,
      "ĠÑĩÐ¸Ð½Ðµ": 6663,
      "gencije": 6664,
      "ĠÑĢÐ¾Ð´Ð¸ÑĤÐµÑĻ": 6665,
      "ĠÐºÐ¾Ð½ÑĤÐµÐºÑģÑĤÑĥ": 6666,
      "ĠÐ»ÐµÐ³": 6667,
      "Ġkoma": 6668,
      "ĠÐ¿ÑĢÐ¾ÑģÑĤÐ¾ÑĢÐ°": 6669,
      "Ġsasvim": 6670,
      "ĠobjaÅ¡nja": 6671,
      "Ð²Ð°ÑĽ": 6672,
      "Ġ1994": 6673,
      ".âĢĿ": 6674,
      "ĠÅ¾ivotu": 6675,
      "ĠproÅ¡lo": 6676,
      "Bu": 6677,
      "ĠÑģÑĢÐ¿ÑģÐºÐ¸": 6678,
      "ĠÑĥÑĤÐ¸ÑĨÐ°ÑĺÐ°": 6679,
      "ĠÐ¤ÑĢÐ°Ð½ÑĨÑĥ": 6680,
      "ĠÑĦÑĢÐ°Ð½ÑĨÑĥ": 6681,
      "Ð¸ÑĺÑģÐºÐ¾Ð¼": 6682,
      "Ġnovac": 6683,
      "ĠÐ²ÐµÑĢÐ¾Ð²Ð°ÑĤÐ½Ð¾": 6684,
      "slav": 6685,
      "sk": 6686,
      "Ġtoj": 6687,
      "onu": 6688,
      "ĠRusije": 6689,
      "Ġpregleda": 6690,
      "Ġdobio": 6691,
      "sma": 6692,
      "ĠOdg": 6693,
      "ĠÑĺÐµÐ´Ð½Ð¾": 6694,
      "riÄĩ": 6695,
      "ĠÐ¼Ð¾Ð³Ð°Ð¾": 6696,
      "Äĳenih": 6697,
      "Ġminima": 6698,
      "ÑĥÐ·Ð¸Ð¼": 6699,
      "ene": 6700,
      "Ð¾Ð²Ð°Ð½Ð¸Ñħ": 6701,
      "ĠpoÄįetku": 6702,
      "ĠÐĴÐ»Ð°Ð´": 6703,
      "54": 6704,
      "ĠÑĤÐ¾ÐºÑĥ": 6705,
      "ĠZo": 6706,
      "jno": 6707,
      "Å¾eni": 6708,
      "ĠÑĤÐ°ÐºÐ¼": 6709,
      "Â»": 6710,
      "ATO": 6711,
      "Ð°Ð½ÑģÐºÐµ": 6712,
      "tivnu": 6713,
      "Ġtrenutno": 6714,
      "Ġvelikog": 6715,
      "71": 6716,
      "Ġ\\": 6717,
      "Ð¾Ð²Ð¾Ð´": 6718,
      "Ġfoku": 6719,
      "Ð¸ÑĪÑļ": 6720,
      "ĠEvropi": 6721,
      "nema": 6722,
      "naliza": 6723,
      "72": 6724,
      "Ġbanke": 6725,
      "jana": 6726,
      "ĠÐ¿ÑĢÐ¾ÑģÐµÑĩ": 6727,
      "Ïĥ": 6728,
      "Ġknjiga": 6729,
      "ĠÐ³Ð¾Ð´Ð¸Ð½Ð¸": 6730,
      "Ġiznad": 6731,
      "Ġizazo": 6732,
      "mos": 6733,
      "Ġbavi": 6734,
      "Ġfrek": 6735,
      "Ġizjavio": 6736,
      "ĠÑĢÐ°Ð·Ð»Ð¾Ð³Ð°": 6737,
      "Ġkompe": 6738,
      "Ġzad": 6739,
      "Ġdaleko": 6740,
      "Ġmono": 6741,
      "Ġdodatno": 6742,
      "Ġmatri": 6743,
      "ĠÐ¾Ð±ÐµÐ·Ð±ÐµÑĴ": 6744,
      "Ã¼": 6745,
      "02": 6746,
      "ĠÐºÑĢÐ°ÑĤ": 6747,
      "ĠTur": 6748,
      "Ð½Ð¸ÑĺÐ°": 6749,
      "ĠÐ¿Ð¾ÑģÑĤÑĥÐ¿ÐºÑĥ": 6750,
      "ÐµÐ´ÐµÑĢ": 6751,
      "ĠÑģÑĥÐºÐ¾Ð±": 6752,
      "ĠÐ¿Ð¾ÑĤÑĢÐµÐ±Ðµ": 6753,
      "ĠÐ¿Ð¾ÑĤÐ¿ÑĥÐ½Ð¾": 6754,
      "Ġsamosta": 6755,
      "Ġpotreba": 6756,
      "Ġsl": 6757,
      "Ð¢Ð°Ð±ÐµÐ»Ð°": 6758,
      "Ġpolitika": 6759,
      "Ġsrednje": 6760,
      "ÐļÐ°ÐºÐ¾": 6761,
      "Ġdaju": 6762,
      "straÅ¾i": 6763,
      "ĠEvropske": 6764,
      "Ð°ÑģÐ¿": 6765,
      "Ð¾ÑĤÐ°": 6766,
      "Ġdirektor": 6767,
      "ĠÑģÑĤÐ°Ð½Ð¾Ð²Ð½Ð¸ÑĪÑĤÐ²Ð°": 6768,
      "ĠÐ²Ð°Ð·Ð´ÑĥÑħ": 6769,
      "mentima": 6770,
      "ĠudruÅ¾e": 6771,
      "ÐµÐ±ÑĢÑĥ": 6772,
      "Ã§": 6773,
      "Ġkarije": 6774,
      "73": 6775,
      "ĠpaÅ¾nju": 6776,
      "ĠÐ¿ÑĢÐ¸ÑĤ": 6777,
      "Ġneku": 6778,
      "ĠÐ¿Ð¾Ð´ÑģÑĤ": 6779,
      "ÉļÉľ": 6780,
      "ĠÐ°ÐºÐ°Ð´ÐµÐ¼": 6781,
      "ĠZakona": 6782,
      "Ð¸Ð½ÑģÐºÐ¾Ð³": 6783,
      "Ġnjen": 6784,
      "ĠÑĤÑĢÐ°Ð´Ð¸ÑĨÐ¸Ð¾Ð½Ð°Ð»": 6785,
      "Ġnedelje": 6786,
      "turi": 6787,
      "ĠÐ·Ð°Ð±ÐµÐ»ÐµÐ¶": 6788,
      "ĠÐ¸Ð´ÐµÐ½ÑĤÐ¸ÑĦÐ¸Ðº": 6789,
      "lak": 6790,
      "Ġgodinama": 6791,
      "06": 6792,
      "ĠÐŀÐ±": 6793,
      "ÉŁÉª": 6794,
      "ĠSer": 6795,
      "ĠÐ¿Ð¾Ð½Ð¾Ð²Ð¾": 6796,
      "rov": 6797,
      "ĠÐ¼Ð°ÑĤÐµÑĢÐ¸ÑĺÐ°Ð»Ð°": 6798,
      "ĠÑĢÐµÐ·ÑĥÐ»ÑĤÐ°ÑĤÐ¸": 6799,
      "ĠÑĦÐ°ÐºÑĤÐ¾ÑĢÐ°": 6800,
      "ls": 6801,
      "ĠnaÅ¡eg": 6802,
      "ĠsledeÄĩi": 6803,
      "Ġglasa": 6804,
      "Ġgor": 6805,
      "ĠÑĨÑĢÐºÐ²Ðµ": 6806,
      "sednik": 6807,
      "ĠmaÅ¡i": 6808,
      "Ġvideti": 6809,
      "ĠÐ½Ð¸Ð²Ð¾Ð°": 6810,
      "ĠRE": 6811,
      "51": 6812,
      "Ġprati": 6813,
      "Ġveru": 6814,
      "ĠsluÄįajeva": 6815,
      "ĠÐ°Ñģ": 6816,
      "ÉŁÉŀ": 6817,
      "Vo": 6818,
      "ĠÅ¾u": 6819,
      "ĠÐĪÑĥÐ³Ð¾ÑģÐ»Ð°Ð²Ð¸ÑĺÐµ": 6820,
      "ĠÂµ": 6821,
      "Ġpojave": 6822,
      "ferencija": 6823,
      "2011": 6824,
      "Ġmilijar": 6825,
      "ĠÐ¼Ð°Ð³": 6826,
      "Ġrevi": 6827,
      "up": 6828,
      "Ġsajtu": 6829,
      "Ð¸Ð¼Ð¿": 6830,
      "Ġniz": 6831,
      "rd": 6832,
      "Ġinfra": 6833,
      "Ð¡Ð°": 6834,
      "ĠÐ¿Ð¾ÑģÐ¼Ð°ÑĤÑĢ": 6835,
      "stavi": 6836,
      "ĠÑģÐºÐ»": 6837,
      "ĠTu": 6838,
      "Ġpogleda": 6839,
      "ĠgraÄĳevi": 6840,
      "ĠÑģÑĤÐ°Ð±Ð¸Ð»": 6841,
      "Ġobjekta": 6842,
      "ĠCom": 6843,
      "ĠoÄįu": 6844,
      "ĠÑģÐµÐºÑĤ": 6845,
      "Ġupotrebu": 6846,
      "blji": 6847,
      "Ġnapada": 6848,
      "ĠÐ±Ð°ÑĢ": 6849,
      "Ġbre": 6850,
      "ĠÐŁÐµÑĤÑĢ": 6851,
      "Ġindividual": 6852,
      "ĠÑģÑĤÐ°ÑļÐµ": 6853,
      "ĠÐ·Ð½Ð°ÑĩÐµÑļÐ°": 6854,
      "ĠÐ²Ð¾Ð·": 6855,
      "ĠÐ·Ð°ÑĺÐµÐ´Ð½Ð¸ÑĨÐµ": 6856,
      "cho": 6857,
      "ĠnaÅ¡em": 6858,
      "ĠÐ¿ÐµÑĢÐ¸Ð¾Ð´Ð°": 6859,
      "ĠInter": 6860,
      "ĠÐ·Ð½Ð°ÑĩÐµÑļÐµ": 6861,
      "vanoviÄĩ": 6862,
      "ĠmeÅ¡a": 6863,
      "jevi": 6864,
      "vena": 6865,
      "Ġcentar": 6866,
      "ÉļÉ¬": 6867,
      "ĠÄįoveka": 6868,
      "Ġpomi": 6869,
      "ÐĿÐ°ÐºÐ¾Ð½": 6870,
      "PI": 6871,
      "ĠÐ¸Ð½Ð¸ÑĨ": 6872,
      "mio": 6873,
      "ĠÐ¿Ð¾ÑģÐ»ÐµÐ´Ð¸ÑĨÐ°": 6874,
      "ĠÐ¾ÑĪÑĤÐµÑĽ": 6875,
      "ĠÃ¯": 6876,
      "stepe": 6877,
      "ĠÑļÐµÐ¼Ñĥ": 6878,
      "Ġkorona": 6879,
      "--": 6880,
      "ĠÐ·ÑĢ": 6881,
      "loÅ¡ka": 6882,
      "ĠÑģÐ²ÐµÑĤÑĥ": 6883,
      "Ð¸Ñı": 6884,
      "Ġklije": 6885,
      "ĠÐŁÐ°Ð²": 6886,
      "Ġposlove": 6887,
      "Ġbezbednosti": 6888,
      "ÑĺÐµÑĢ": 6889,
      "Ġjedini": 6890,
      "Ġteksta": 6891,
      "ĠÐºÐ¾Ð¼Ð±Ð¸Ð½": 6892,
      "ĠÑģÐµÐ±Ðµ": 6893,
      "Ġregional": 6894,
      "ĠÐ¿ÑĢÐ¾ÑĥÑĩ": 6895,
      "Ġsnaga": 6896,
      "Ð²Ð¾Ð¼": 6897,
      "ĠÉ¬": 6898,
      "Ġpretpostav": 6899,
      "ĠÐ¿ÑĢÐ¸Ð¼ÐµÐ½Ðµ": 6900,
      "Ð¸ÑģÑĤÐ¸": 6901,
      "Ð¸ÑĺÐµÐ´": 6902,
      "ĠdoÄĳe": 6903,
      "ĠÐ¿ÑĢÐ°Ð²Ð¸Ð»Ð°": 6904,
      "ĠÅ¾rt": 6905,
      "Ġvazduha": 6906,
      "Ġupotrebe": 6907,
      "Ġjedinstve": 6908,
      "ÑģÐ¾Ð±": 6909,
      "ljujuÄĩi": 6910,
      "ĠÃ¨": 6911,
      "Ġeki": 6912,
      "teo": 6913,
      "ĠÐļÐ¾Ñģ": 6914,
      "ĠÐ´ÑĢÑĥÐ³Ð¾Ð³": 6915,
      "ĠÂ«": 6916,
      "ĠGr": 6917,
      "Ð°ÑĽÐ¸": 6918,
      "ĠBer": 6919,
      "ĠÐ¸ÑĤÐ´": 6920,
      "Ġog": 6921,
      "Ġbiste": 6922,
      "Ð¾Ð¿ÑĢÐ°Ð²": 6923,
      "pove": 6924,
      "socija": 6925,
      "Ġkupi": 6926,
      "kov": 6927,
      "rup": 6928,
      "Ð»Ð¾Ð²": 6929,
      "ĠÐ°ÑĢÑħÐ¸ÑĤÐµÐºÑĤ": 6930,
      "Å¾bi": 6931,
      "Ġurba": 6932,
      "logu": 6933,
      "ĠÐ¼Ð¾Ð¶ÐµÐ¼Ð¾": 6934,
      "Ġsastav": 6935,
      "Ġsmatraju": 6936,
      "ĠFrancu": 6937,
      "Ġsrpske": 6938,
      "Ġ500": 6939,
      "ĠÐºÐ°Ð¿Ð¸ÑĤ": 6940,
      "Ġgrani": 6941,
      "ĠÑģÐ°Ñĩ": 6942,
      "Ġuzra": 6943,
      "tho": 6944,
      "Ð°ÐºÑĥ": 6945,
      "ĠmoÅ£e": 6946,
      "ĠdeÅ¡ava": 6947,
      "ĠznaÄįajne": 6948,
      "ĠBiH": 6949,
      "ĠÐºÐ¸Ñģ": 6950,
      "ĠÑģÐ»ÑĥÐ¶": 6951,
      "Ha": 6952,
      "Ġdode": 6953,
      "ĠÃ±": 6954,
      "ĠWe": 6955,
      "Ġplu": 6956,
      "Ġstatu": 6957,
      "Ġsusre": 6958,
      "ĠÐ¾Ð±Ð»Ð°ÑģÑĤ": 6959,
      "Ġoset": 6960,
      "Ġeksplo": 6961,
      "Ġoksida": 6962,
      "Å¡no": 6963,
      "stali": 6964,
      "Ð°ÐºÐ¼": 6965,
      "Ġpromo": 6966,
      "ĠÑģÑĢÐ¿ÑģÐºÐ¾Ð¼": 6967,
      "ĠistraÅ¾ivanje": 6968,
      "ĠTabela": 6969,
      "ĠDO": 6970,
      "Ġnekada": 6971,
      "ANJE": 6972,
      "potre": 6973,
      "Ġreli": 6974,
      "ĠÐ¿ÑĥÐ±Ð»": 6975,
      "ĠsaopÅ¡ti": 6976,
      "Nje": 6977,
      "ĠtiÄįe": 6978,
      "Ġekonomi": 6979,
      "ĠÑģÑĢÐµÐ´Ð¸Ð½Ðµ": 6980,
      "vinu": 6981,
      "ĠCi": 6982,
      "ĠznaÄįajan": 6983,
      "Ġtabeli": 6984,
      "ĠÐ¸Ð¿Ð°Ðº": 6985,
      "Ġspek": 6986,
      "ÑĥÐ±ÑĢ": 6987,
      "Ð¸Ð²Ð¸Ð´Ñĥ": 6988,
      "Ġsrpski": 6989,
      "ĠÑĨÐ¸ÑĻÑĥ": 6990,
      "Ð¾Ð²Ð°Ð»Ð°": 6991,
      "ĠsadrÅ¾e": 6992,
      "ĠÐ³Ð»ÐµÐ´": 6993,
      "Ġpokazali": 6994,
      "ĠvraÄĩa": 6995,
      "ĠÑĥÐ¼ÐµÑĤÐ½Ð¾ÑģÑĤÐ¸": 6996,
      "Ġpribli": 6997,
      "ĠÐ¼Ð¾Ð»": 6998,
      "Ġmislim": 6999,
      "ĠÐ²ÐµÑĪÑĤ": 7000,
      "ĠÐļÐ»": 7001,
      "74": 7002,
      "reno": 7003,
      "Ġkolek": 7004,
      "Ġmoje": 7005,
      "Ñķ": 7006,
      "ĠÑĪÐµÑģÑĤ": 7007,
      "He": 7008,
      "Ð¾Ð³ÑĢÐ°ÑĦÐ¸ÑĺÐ°": 7009,
      "govori": 7010,
      "Ġpodse": 7011,
      "ĠÐ¾Ð¿ÑĢ": 7012,
      "Ġmodu": 7013,
      "Ġkilo": 7014,
      "ĠÐ¿Ð¾ÐºÐ°Ð·ÑĥÑĺÐµ": 7015,
      "Ġsupru": 7016,
      "ÐµÐ¼Ðµ": 7017,
      "Ġbolji": 7018,
      "tiÄĩ": 7019,
      "Ġsituacije": 7020,
      "Ġjednoj": 7021,
      "Ġprostoru": 7022,
      "DI": 7023,
      "Ġteritoriji": 7024,
      "kaÅ¾e": 7025,
      "Ġosnovne": 7026,
      "ĠÑĦÐµÐ±ÑĢÑĥ": 7027,
      "Ġindika": 7028,
      "Ġlokalne": 7029,
      "ĠÐºÐ°Ð»": 7030,
      "ĠÐĲÐ»ÐµÐºÑģÐ°Ð½Ð´": 7031,
      "ĠveliÄįine": 7032,
      "Ð¸Ð²Ð°ÑĤÐ¸": 7033,
      "Ġpreuze": 7034,
      "Ġ34": 7035,
      "ÐµÑĢÑĥ": 7036,
      "ĠXX": 7037,
      "ĠHi": 7038,
      "slika": 7039,
      "ĠÐĲÐ¼ÐµÑĢ": 7040,
      "ÑģÐµ": 7041,
      "kiÄĩ": 7042,
      "Ð¾Ð·Ðµ": 7043,
      "ÐµÑĨÐ¸Ð·": 7044,
      "ĠÐ¸Ð¼Ð°Ð»Ð¸": 7045,
      "Ġprikazani": 7046,
      "ĠÐ¼Ð¸Ðº": 7047,
      "tel": 7048,
      "Ġostali": 7049,
      "ĠpodruÄįja": 7050,
      "ĠÑĥÐ¶": 7051,
      "Ð½Ð°ÑĩÐ°Ñĺ": 7052,
      "Ġmar": 7053,
      "ĠVas": 7054,
      "2012": 7055,
      "Ġuspostavlja": 7056,
      "Samo": 7057,
      "Tokom": 7058,
      "ĠÐµÐ³": 7059,
      "Äįina": 7060,
      "ĠTra": 7061,
      "val": 7062,
      "Ġsekre": 7063,
      "ĠÐ¡Ð²": 7064,
      "ĠÐ¿ÑĢÐ¾ÑĪÐ»": 7065,
      "ĠÐĶÑĢ": 7066,
      "Ġkup": 7067,
      "Ġobjavlji": 7068,
      "Ġsrpskog": 7069,
      "Ġokru": 7070,
      "ĠÑģÐ²Ð°ÐºÐ¸": 7071,
      "koj": 7072,
      "nsku": 7073,
      "ĠÐ¾ÑĢÐ³Ð°Ð½Ð¸Ð·Ð°ÑĨÐ¸ÑĺÐ°": 7074,
      "Ġinova": 7075,
      "89": 7076,
      "Ġtzv": 7077,
      "ĠÐ½Ð°ÑĺÐ±Ð¾ÑĻ": 7078,
      "ĠÄįlanova": 7079,
      "ĠÐ³Ð»Ð¾Ð±": 7080,
      "ĠÐĹÐ°": 7081,
      "ĠÐ¿Ð¾ÑĢÐ¾Ð´Ð¸ÑĨÐµ": 7082,
      "Ġmoz": 7083,
      "ĠÐºÑĢÐ°ÑĺÐ°": 7084,
      "vela": 7085,
      "ĠKe": 7086,
      "ĠponaÅ¡anje": 7087,
      "Ġnepri": 7088,
      "62": 7089,
      "Ġneprija": 7090,
      "61": 7091,
      "É«É¤": 7092,
      "Ġprirode": 7093,
      "zanje": 7094,
      "Ġshvata": 7095,
      "lia": 7096,
      "ĠÐ¡Ð°Ð²": 7097,
      "ĠÐ¿Ð¾ÑģÐ²ÐµÑĽ": 7098,
      "âĢķ": 7099,
      "ĠÑĥÐ¿ÑĢÐ°Ð²": 7100,
      "ĠÐ¿ÑĢÐµÑĤÐ¿Ð¾ÑģÑĤÐ°Ð²": 7101,
      "Uz": 7102,
      "ĠÐ¼ÐµÑĤÐ¾Ð´Ð°": 7103,
      "Ġspolja": 7104,
      "ĠÐ¶ÐµÐ»": 7105,
      "ĠÑĥÑģÐ¿Ð¾ÑģÑĤÐ°Ð²ÑĻ": 7106,
      "Ð¾Ð²Ð½Ðµ": 7107,
      "Ġpromen": 7108,
      "ÑĻÐ¸Ð²Ð¾": 7109,
      "Ð¾ÑĻÑĪ": 7110,
      "cki": 7111,
      "ĠÐĿÐ°ÑĢÐ¾Ð´": 7112,
      "ĠÐĶÐ°Ð½": 7113,
      "ĠÐ½Ð¾Ð²Ð¸Ñħ": 7114,
      "Ġodabra": 7115,
      "ĠÐ½Ð°ÑģÐ¸ÑĻ": 7116,
      "ĠBan": 7117,
      "Ġkontra": 7118,
      "Ġposlednjih": 7119,
      "ÐĲÐ½": 7120,
      "ltra": 7121,
      "ĠÐ¿ÑĢÐ¾ÑĪÐ¸ÑĢ": 7122,
      "ĠÐ¿Ð¾ÑĻÐ¾Ð¿ÑĢÐ¸Ð²ÑĢÐµÐ´": 7123,
      "ĠÄĨ": 7124,
      "Ġokolnosti": 7125,
      "Ġpostupka": 7126,
      "vgu": 7127,
      "ĠÐ¸Ð¼Ð°ÑĤÐ¸": 7128,
      "Î»": 7129,
      "Å¾ene": 7130,
      "Ġupravljanje": 7131,
      "Ġopravda": 7132,
      "ĠÐ·Ð°ÐºÐ¾Ð½Ð°": 7133,
      "pto": 7134,
      "intere": 7135,
      "tike": 7136,
      "koho": 7137,
      "rus": 7138,
      "Ġsmrt": 7139,
      "rijski": 7140,
      "Ð¾Ð»Ðµ": 7141,
      "ÐŀÐ²Ð°": 7142,
      "ĠÐ¿ÑĢÐ¾Ð¸Ð·Ð²Ð¾Ð´Ð°": 7143,
      "ĠÑĩÐ¸Ð¼Ðµ": 7144,
      "ntna": 7145,
      "Ġpregled": 7146,
      "2013": 7147,
      "Ġdobiti": 7148,
      "Ð°Ð²ÑĻÐ°ÑĺÑĥ": 7149,
      "Ð¸ÑĦÐµÑĢ": 7150,
      "ĠuÄįestvo": 7151,
      "ĠÐ·Ð°ÐºÐ¾Ð½Ð¾Ð´Ð°Ð²": 7152,
      "Ġdje": 7153,
      "2014": 7154,
      "Ġdelatnosti": 7155,
      "Ð³Ð»ÐµÐ´Ð°": 7156,
      "ĠnajvaÅ¾": 7157,
      "ĠÐºÐ¾Ð½ÑģÑĤÑĢÑĥÐºÑĨ": 7158,
      "vencija": 7159,
      "Ġreleva": 7160,
      "ĠÑĪÑĤÐ°Ð¼Ð¿": 7161,
      "Ġalterna": 7162,
      "borato": 7163,
      "ĠNiko": 7164,
      "Ð¸Ð²Ð°Ð¾": 7165,
      "Ġrelativno": 7166,
      "ĠÐ¸Ð½ÑģÑĤÑĢÑĥ": 7167,
      "Ġobaveze": 7168,
      "ĠÑģÐµÐ»Ð°": 7169,
      "Ġpoti": 7170,
      "Ġtransforma": 7171,
      "Ġsata": 7172,
      "ĠÐ¿ÑĢÐ¸Ñĩ": 7173,
      "ĠÑĪÐºÐ¾Ð»Ðµ": 7174,
      "ĠÐ¶ÑĢÑĤ": 7175,
      "ĠÐ´ÐµÑĤÐ°ÑĻ": 7176,
      "ĠÐ¾Ð´ÑĢÐµÑĴÐµÐ½Ðµ": 7177,
      "Ð¾ÑĢÑĴ": 7178,
      "Â´": 7179,
      "dimo": 7180,
      "Du": 7181,
      "Ġapri": 7182,
      "É¡": 7183,
      "ÐµÐºÐ²Ð°ÑĤ": 7184,
      "ĠÑĥÐ¿ÑĥÑĽ": 7185,
      "Ð¾ÑĢÐ¸ÑĺÐ°": 7186,
      "ĠÐ¿Ð¾Ð»Ð¾Ð²": 7187,
      "Äįavanje": 7188,
      "ÐµÑĺÑĥ": 7189,
      "ĠÅ¡te": 7190,
      "ĠSvet": 7191,
      "gene": 7192,
      "Ġsiro": 7193,
      "lnik": 7194,
      "JI": 7195,
      "Ġulja": 7196,
      "Ġsen": 7197,
      "Ġodbrane": 7198,
      "ĠÑħÑĢÐ¸ÑĪÑĽ": 7199,
      "ĠAlba": 7200,
      "ĠÐ¸Ð½ÑĦÐ¾ÑĢÐ¼Ð°ÑĨÐ¸ÑĺÐ°": 7201,
      "Ġaktivi": 7202,
      "Ġinfrastruktu": 7203,
      "Ġvremenu": 7204,
      "ĠÐ²Ð¸Ð´Ð¸": 7205,
      "ĠStra": 7206,
      "Ġtelevi": 7207,
      "tika": 7208,
      "ĠÐĶÑĢÐ°Ð³": 7209,
      "ĠÑģÑĥÑĪÑĤ": 7210,
      "boj": 7211,
      "É¢É¯": 7212,
      "ĠÑĤÐ°": 7213,
      "ĠÐºÐ½": 7214,
      "ĠAko": 7215,
      "Ð¼Ð°ÑĤ": 7216,
      "Ġvita": 7217,
      "07": 7218,
      "nga": 7219,
      "Ġ(''": 7220,
      "ĠÑģÑĤÐ²Ð¾ÑĢ": 7221,
      "ĠBra": 7222,
      "ĠÐºÑļÐ¸Ð¶ÐµÐ²Ð½Ð¾ÑģÑĤÐ¸": 7223,
      "Ġnaravno": 7224,
      "Å¾nja": 7225,
      "Pod": 7226,
      "ĠÑģÐ»Ð¸Ðº": 7227,
      "ĠAna": 7228,
      "ĠÅ¾ivotinja": 7229,
      "ĠveÄįe": 7230,
      "ĠÐ¾ÑģÐ¾Ð±Ð°": 7231,
      "ĠodrÅ¾i": 7232,
      "Ġradnika": 7233,
      "au": 7234,
      "velo": 7235,
      "ĠÑģÐµÐ±Ð¸": 7236,
      "stoja": 7237,
      "ĠÑģÑĤÐ°ÑļÐ°": 7238,
      "Ġstepena": 7239,
      "CR": 7240,
      "Ġkiseline": 7241,
      "dere": 7242,
      "ĠÑģÐµÐ¼Ð°Ð½ÑĤ": 7243,
      "Ð¸ÑĩÐ½Ð¾ÑģÑĤ": 7244,
      "Ġfu": 7245,
      "ĠÑģÑĥÐ´Ð°": 7246,
      "ĠÐ´Ð¾Ð´Ð°ÑĤ": 7247,
      "2010": 7248,
      "OG": 7249,
      "ĠÑĦÑĥÐ½ÐºÑĨÐ¸Ð¾Ð½": 7250,
      "ĠMinistarstva": 7251,
      "Ð°ÑĤÐ¸Ð²Ð½Ð°": 7252,
      "Ġsnim": 7253,
      "ÉļÉª": 7254,
      "ĠÅ¡an": 7255,
      "ml": 7256,
      "tnika": 7257,
      "ĠÐ±Ð»Ð°Ð³": 7258,
      "ĠÐºÐ°Ð¶Ðµ": 7259,
      "Ð±Ð¾ÑĢ": 7260,
      "Ġroditelji": 7261,
      "ÑĢÐ·": 7262,
      "ranu": 7263,
      "ĠÐ³Ðµ": 7264,
      "Ð¾ÑģÐ°": 7265,
      "ĠÐ¼ÐµÑĢÐµ": 7266,
      "ĠNATO": 7267,
      "Ð°ÑĤÐ¸Ð²Ð½Ð¸Ñħ": 7268,
      "ĠÅ¡kola": 7269,
      "ĠveÄĩina": 7270,
      "ĠÑģÐ°Ð´ÑĢÐ¶Ð°Ñĺ": 7271,
      "Ġ300": 7272,
      "ĠsluÄįajevima": 7273,
      "ĠÐºÐ¾Ð½Ð°Ñĩ": 7274,
      "ĠÐ±Ð¾Ð»ÐµÑģÑĤÐ¸": 7275,
      "Ð·Ð²": 7276,
      "ÐĿÐ°Ð¸Ð¼Ðµ": 7277,
      "dak": 7278,
      "Ġpogre": 7279,
      "Ġkoor": 7280,
      "ĠÐ¿ÑĢÐ¾Ð´ÑĥÐº": 7281,
      "meni": 7282,
      "Å¾ni": 7283,
      "Ġadministra": 7284,
      "ĠÐµÑĤÐ½": 7285,
      "ny": 7286,
      "ktorska": 7287,
      "92": 7288,
      "biÄįa": 7289,
      "ĠÐµÐºÑģÐ¿ÐµÑĢÐ¸Ð¼ÐµÐ½ÑĤ": 7290,
      "Ð¸ÑĺÐ¸Ñħ": 7291,
      "talija": 7292,
      "Ð¾Ð²Ð°Ð»Ð¸": 7293,
      "Jedan": 7294,
      "ĠÐ¿ÑĢÐ°ÐºÑĤ": 7295,
      "ĠÐķÐ£": 7296,
      "Ġ1993": 7297,
      "Ð¾Ð²Ð½Ð¾": 7298,
      "Ġzele": 7299,
      "Ġkontekstu": 7300,
      "vera": 7301,
      "Ð½Ð¾ÑģÐ¸": 7302,
      "ÑĥÑĢÐ³": 7303,
      "ĠÐŁÑĢÐµÐ´": 7304,
      "liÅ¡e": 7305,
      "Ð°Ð²Ð°ÑļÐµÐ¼": 7306,
      "ĠÐºÐ¾Ð½Ð·": 7307,
      "ĠÎ¼": 7308,
      "Ġreakcije": 7309,
      "Ġjedino": 7310,
      "njenih": 7311,
      "Å¡im": 7312,
      "Ġsastoji": 7313,
      "Ġraste": 7314,
      "Äĩima": 7315,
      "vju": 7316,
      "ÐĺÐ½": 7317,
      "ĠÐ´Ð¸Ð¼ÐµÐ½Ð·": 7318,
      "ĠMeÄĳu": 7319,
      "ĠÑĺÐµÐ´Ð½Ð¾ÑģÑĤ": 7320,
      "rske": 7321,
      "ĠÐ¿ÑĢÐ²Ð¾Ð¼": 7322,
      "Ġapsolu": 7323,
      "Ġimple": 7324,
      "ĠÑĢÐµÑĪÐµÑļÐ°": 7325,
      "Ġhipote": 7326,
      "ĠÑģÐ°Ð´ÑĢÐ¶Ð¸": 7327,
      "Ġpato": 7328,
      "Ð°Ð½Ð°Ðº": 7329,
      "ĠÐµÐ½Ð³Ð»Ðµ": 7330,
      "ĠÐ¿ÑĢÐ¾ÑĨÐµÑģÑĥ": 7331,
      "ĠÄįasova": 7332,
      "Ã¦": 7333,
      "ĠÐ´ÐµÐ»Ð°ÑĤ": 7334,
      "orga": 7335,
      "Ð²Ð°ÑĢÐ°": 7336,
      "Ġproizvodnju": 7337,
      "ÐĪÐµÐ´": 7338,
      "................................": 7339,
      "Ġtakav": 7340,
      "Ġprihvata": 7341,
      "ĠstanovniÅ¡tva": 7342,
      "ĠÐ¿Ð¾ÑģÑĤÐ°ÑĺÐµ": 7343,
      "cita": 7344,
      "Ġnavi": 7345,
      "Ġsvaku": 7346,
      "Ġpubli": 7347,
      "ĠÐ¿ÑĢÐ¸Ð¿ÑĢÐµÐ¼": 7348,
      "Ġsmrti": 7349,
      "konstru": 7350,
      "ĠÐµÐºÑģ": 7351,
      "Äįenju": 7352,
      "Ġputu": 7353,
      "ĠÑģÑĤÐµÐ¿ÐµÐ½": 7354,
      "ÐŀÐ²Ð°Ñĺ": 7355,
      "Ġodgovora": 7356,
      "Ð¸Ð²Ð°ÑļÐµÐ¼": 7357,
      "ĠAleksand": 7358,
      "Ġsupsta": 7359,
      "ĠÐĳÑĥÐ³Ð°ÑĢ": 7360,
      "ĠÐ¿Ð¾Ð±ÐµÐ´": 7361,
      "cs": 7362,
      "ĠtrÅ¾iÅ¡ta": 7363,
      "Ġdrugoj": 7364,
      "ĠÐ¿ÑĢÐµÑĦ": 7365,
      "ĠÑħÐµÐ¼": 7366,
      "ĠÐ·Ð»": 7367,
      "Ġgospo": 7368,
      "jn": 7369,
      "ĠCon": 7370,
      "98": 7371,
      "ĠstruÄįnja": 7372,
      "Ġknjige": 7373,
      "Ð¸Ð²Ð°Ð»": 7374,
      "Ð°Ð´Ð¸": 7375,
      "ntni": 7376,
      "Ð´Ð¸": 7377,
      "Ð¯": 7378,
      "Drugi": 7379,
      "ĠÐ¿Ð¾ÑģÑĤÐ¸Ð³": 7380,
      "Ġpredsedni": 7381,
      "ĠÐĴÑĢ": 7382,
      "Ġvre": 7383,
      "ĠÑĢÐ°Ð·Ð²Ð¾ÑĺÑĥ": 7384,
      "ĠÐ¿ÑĢÐ¾Ð¸Ð·Ð²Ð¾Ð´ÑļÐµ": 7385,
      "sov": 7386,
      "ĠÄĮa": 7387,
      "ĠÑģÑĤÐ°Ð½Ð¾Ð²Ð½Ð¸ÐºÐ°": 7388,
      "Ġeli": 7389,
      "Ġdijagnosti": 7390,
      "Ð°ÑĢÑģÐºÐµ": 7391,
      "Ġsce": 7392,
      "ĠEuro": 7393,
      "voda": 7394,
      "ÐµÐºÐµ": 7395,
      "Ġstatus": 7396,
      "ĠÑĤÑĢÐµÑĽ": 7397,
      "ÐŀÐ²Ð¾": 7398,
      "ĠpoveÄĩava": 7399,
      "ĠnaÅ¡oj": 7400,
      "ĠÑĢÐ¾ÑĴ": 7401,
      "Fo": 7402,
      "Ġseksual": 7403,
      "Ġispred": 7404,
      "Ġugovor": 7405,
      "ziji": 7406,
      "bliote": 7407,
      "dine": 7408,
      "ĠÐ¿Ð¾ÑģÑĤÑĥÐ¿ÐºÐ°": 7409,
      "Ð¾Ð²Ð½Ð¾Ð³": 7410,
      "ĠIZ": 7411,
      "Ġprije": 7412,
      "ÑĥÐ»Ð°ÑĨÐ¸ÑĺÐµ": 7413,
      "Ġcelu": 7414,
      "Ġalgo": 7415,
      "ĠÐ²ÑĢÑħ": 7416,
      "Ġdobijenih": 7417,
      "Ġvesti": 7418,
      "Ġnukle": 7419,
      "ĠÐ·Ð½Ð°ÑĩÐ°ÑĺÐ°": 7420,
      "Ġproizvodi": 7421,
      "ĠVlade": 7422,
      "Ru": 7423,
      "Ð°ÑĤÐ¾": 7424,
      "ĠÑĤÑĥÐ¶": 7425,
      "Äįaka": 7426,
      "Ġmeni": 7427,
      "ÑĢÐ°Ð²Ð¾": 7428,
      "Ġspi": 7429,
      "ĠÑĪÑĥÐ¼": 7430,
      "ĠÑģÐ¸Ð³ÑĥÑĢ": 7431,
      "Ġzabora": 7432,
      "ĠÐŀÑĢ": 7433,
      "ĠÐ½Ð°ÑĺÐ²Ð¸ÑĪÐµ": 7434,
      "Äįima": 7435,
      "2015": 7436,
      "ĠÐ¿o": 7437,
      "ĠÑĢÐµÑĤ": 7438,
      "laganje": 7439,
      "TU": 7440,
      "Ð¸ÑģÐ°Ðº": 7441,
      "Äĩoj": 7442,
      "nula": 7443,
      "Ġvrednostima": 7444,
      "ĠvrÅ¡e": 7445,
      "Ġmanife": 7446,
      "ĠAnd": 7447,
      "ĠÐ¿Ð¾ÑĢÐµÑĴ": 7448,
      "ĠÑĺÑĥÐ¶": 7449,
      "cka": 7450,
      "nto": 7451,
      "ĠÐºÐ¾ÑĢÐµÐ»": 7452,
      "ĠÅ½i": 7453,
      "ĠÐ¾Ð²Ñĥ": 7454,
      "forme": 7455,
      "Ġfra": 7456,
      "ĠÐ½Ð°ÑģÐµÑĻ": 7457,
      "Ġuskla": 7458,
      "laska": 7459,
      "Ð¸ÑģÐ°ÑļÐ°": 7460,
      "Ġeg": 7461,
      "ĠÉ¡": 7462,
      "Ð®": 7463,
      "ĠÐ¿Ð¾Ð´Ð°ÑĨÐ¸": 7464,
      "ĠÑĥÐ¼ÐµÑĤÐ½": 7465,
      "ker": 7466,
      ".âĢĵ": 7467,
      "ĠÄĮlan": 7468,
      "Ġideja": 7469,
      "ĠÐ¿Ð¾ÑģÑĤÐ¾ÑĺÐµÑĽ": 7470,
      "Ð¸ÑĢÐ°ÑĤÐ¸": 7471,
      "ĠÑĩÐ¾Ð²ÐµÐºÐ°": 7472,
      "ranog": 7473,
      "ĠÑĥÐ¾Ð¿ÑĪÑĤ": 7474,
      "Ġkontrolu": 7475,
      "ĠÑģÐ¿ÑĢÐµÑĩ": 7476,
      "Ð¸ÑĢÑĥ": 7477,
      "Ġselek": 7478,
      "ĠÑģÐ½Ð°Ð³Ðµ": 7479,
      "ih": 7480,
      "ĠÐ°ÐºÑĨ": 7481,
      "Ð¸Ð½ÑģÐºÐ¸Ñħ": 7482,
      "Ġstari": 7483,
      "Ġiznena": 7484,
      "ÐļÐ¾Ð½": 7485,
      "ĠÄįija": 7486,
      "Ġoslobo": 7487,
      "Ð°ÐºÑĤÐ¸Ð²": 7488,
      "ĠpreÅ¾i": 7489,
      "pije": 7490,
      "njim": 7491,
      "Ġdogodi": 7492,
      "Ġsposobnost": 7493,
      "Ġinformi": 7494,
      "Ġuloga": 7495,
      "ntnih": 7496,
      "cno": 7497,
      "mpe": 7498,
      "cro": 7499,
      "Ð°Ð»Ð½Ð¾Ñĺ": 7500,
      "Ġpojedinih": 7501,
      "ĠÐ¼ÐµÑĴÑĥÑģÐ¾Ð±": 7502,
      "Co": 7503,
      "Ġposlovanja": 7504,
      "Ono": 7505,
      "Ġkiselina": 7506,
      "ĠÐ¸Ð½Ð´Ð¸Ð²Ð¸Ð´Ñĥ": 7507,
      "ĠÑģÐ°Ð½": 7508,
      "ĠangaÅ¾o": 7509,
      "ĠÐ°Ð³": 7510,
      "del": 7511,
      "Ġistom": 7512,
      "Ð¸Ð³Ð°": 7513,
      "________________": 7514,
      "Ġizgra": 7515,
      "ĠParti": 7516,
      "ĠÑĤÐ¸Ñħ": 7517,
      "âĪĴ": 7518,
      "lega": 7519,
      "Ġparla": 7520,
      "Ġpoklo": 7521,
      "ĠÑĤÑĢÐ°Ð³": 7522,
      "luÅ¾be": 7523,
      "ÐµÐ·ÑĥÐ»ÑĤÐ°ÑĤÐ¸": 7524,
      "Ð»Ð¸Ð¶": 7525,
      "ĠÐ´Ð¾ÑģÑĤÑĥÐ¿": 7526,
      "Ð¾ÑģÐ»ÐµÐ´": 7527,
      "Ð¸ÑĢÐ°Ð½Ð¸Ñħ": 7528,
      "rnom": 7529,
      "ÐºÐ¸Ñħ": 7530,
      "ï¿½ï¿½": 7531,
      "ĠÐ¸Ð·Ð½": 7532,
      "ĠÐºÑĢÐ¸Ð·": 7533,
      "Ġ1941": 7534,
      "prkos": 7535,
      "Ġobuhva": 7536,
      "tacija": 7537,
      "ff": 7538,
      "Å¡kova": 7539,
      "hat": 7540,
      "Ġvlast": 7541,
      "SE": 7542,
      "ĠÑĢÐ°Ð·ÑĥÐ¼ÐµÐ²": 7543,
      "ĠÄĮe": 7544,
      "Ġsamim": 7545,
      "Ð»Ð°ÑĪÑĽ": 7546,
      "pija": 7547,
      "Ġizvede": 7548,
      "ĠÐ¿ÑĢÐµÐ´Ð¼": 7549,
      "ĠÐ·Ð°ÑĪÑĤÐ¸ÑĤÑĥ": 7550,
      "Ġzadovolja": 7551,
      "ĠÑĦÑĥÐ½ÐºÑĨÐ¸ÑĺÐµ": 7552,
      "2009": 7553,
      "produ": 7554,
      "Ġpat": 7555,
      "posle": 7556,
      "Ġjedinica": 7557,
      "Ġori": 7558,
      "ps": 7559,
      "ĠÐ·Ð°Ð»": 7560,
      "Ð°ÑĤÐ¸Ð²Ð½Ð¾Ð³": 7561,
      "Å¡ne": 7562,
      "ĠÂ°": 7563,
      "Ġpute": 7564,
      "ÐŀÐ½": 7565,
      "jsku": 7566,
      "Ð¼Ð¸Ð½Ð¸ÑģÑĤ": 7567,
      "ĠÐĲÐ½Ð´ÑĢ": 7568,
      "ĠÑĢÐ°Ð½Ð¸ÑĺÐµ": 7569,
      "snici": 7570,
      "ĠÐ·Ð°Ð¿Ð¾Ñĩ": 7571,
      "ĠsaobraÄĩaj": 7572,
      "ĠistraÅ¾ivanju": 7573,
      "Ġski": 7574,
      "ĠÐ±ÑĢÐ¾ÑĺÑĥ": 7575,
      "lizam": 7576,
      "Ġpolja": 7577,
      "Ġreali": 7578,
      "Ġlinija": 7579,
      "cus": 7580,
      "ĠKri": 7581,
      "ĠÐ³Ð¾ÑĤÐ¾Ð²Ð¾": 7582,
      "Äįica": 7583,
      "ncije": 7584,
      "Ġpokri": 7585,
      "Ġimo": 7586,
      "Ġdese": 7587,
      "ĠJugoslavije": 7588,
      "ght": 7589,
      "ĠÐĿÐ°Ñĺ": 7590,
      "Ġtelo": 7591,
      "ÉļÊĥ": 7592,
      "Ġgaran": 7593,
      "Ġgena": 7594,
      "nis": 7595,
      "Ġprera": 7596,
      "Ġhuma": 7597,
      "sad": 7598,
      "Ġnaziva": 7599,
      "Ð°Ð±Ð¾ÑĢ": 7600,
      "Ġglasnik": 7601,
      "Ġpodu": 7602,
      "ĠÐ½Ð¾Ð²Ð¸": 7603,
      "Å¡an": 7604,
      "ĠÑĢÐµÐ¿ÑĢÐµÐ·ÐµÐ½ÑĤ": 7605,
      "kedo": 7606,
      "lov": 7607,
      "Å¡tini": 7608,
      "Ð¾Ð»Ð¸": 7609,
      "Ġobole": 7610,
      "ĠÑĤÐµÐ»Ð°": 7611,
      "ĠÑģÐ½Ð¸Ð¼": 7612,
      "Ð¸ÑĺÐ°Ð»Ð¸Ð·": 7613,
      "ĠIV": 7614,
      "ÐµÑļÐ¸Ð¼Ð°": 7615,
      "ĠÐ¥ÑĢÐ²Ð°ÑĤ": 7616,
      "tnoj": 7617,
      "ĠÐ¸ÑģÑĤÐ¾Ð²ÑĢÐµÐ¼ÐµÐ½Ð¾": 7618,
      "ĠÐ¿Ð¾ÑģÑĤÐ°Ð¾": 7619,
      "ĠÐ¸Ð»": 7620,
      "konom": 7621,
      "ĠÐ¿Ð¾ÑģÑĤÑĥÐ¿Ð°Ðº": 7622,
      "Ð¾Ð²Ð½Ð¸": 7623,
      "ÐµÐºÑĤÐ¸": 7624,
      "loÅ¡kim": 7625,
      "ĠmiÅ¡ljenje": 7626,
      "Ġmje": 7627,
      "Ġsama": 7628,
      "Ġnastavi": 7629,
      "nizam": 7630,
      "ĠÐ¿ÑĢÐ¾ÑģÑĤÐ¾ÑĢÑĥ": 7631,
      "ĠnaÅ¡ih": 7632,
      "ĠÐļÑĢÐ°ÑĻÐµÐ²": 7633,
      "ĠÐ·Ð°ÑĤÐ¾": 7634,
      "ĠÑĦÐ°ÐºÑĤÐ¾ÑĢ": 7635,
      "Ġmnoge": 7636,
      "mercija": 7637,
      "Ġnismo": 7638,
      "ĠÐ¾Ð½Ð¸Ñħ": 7639,
      "ÉļÉ¥": 7640,
      "dÅ¾": 7641,
      "ĠÐ²ÐµÐ»Ð¸ÐºÐµ": 7642,
      "Ð¾Ð±ÑĢÐ°ÑĽ": 7643,
      "ĠÐ´Ð¾ÑĪÐ»Ð¾": 7644,
      "Ġnastave": 7645,
      "Ġ>": 7646,
      "Ġprojekat": 7647,
      "ĠÐ¿Ð¾Ð·Ð¸ÑĨ": 7648,
      "ĠÐĳÐµÐ»": 7649,
      "Â£": 7650,
      "ĠKosova": 7651,
      "ĠÐºÐ¾Ð¼Ð¿Ð°Ð½": 7652,
      "ĠÐ¶ÐµÐ½Ðµ": 7653,
      "Ġvole": 7654,
      "Ġsmanjuje": 7655,
      "ĠÑĢÐ°ÑģÐ¿Ð¾Ð»": 7656,
      "ĠÄįinjenica": 7657,
      "Ð¸ÑĩÐ½Ñĥ": 7658,
      "Ġsamog": 7659,
      "oca": 7660,
      "Ġpripa": 7661,
      "hodno": 7662,
      "ĠÐŀÐ¿": 7663,
      "500": 7664,
      "ĠÐ¾Ð±Ð¸ÑĩÐ½Ð¾": 7665,
      "ĠmoÄĩ": 7666,
      "BI": 7667,
      "cem": 7668,
      "Ð¾ÐºÐ¾": 7669,
      "ĠÄįije": 7670,
      "ĠSrba": 7671,
      "ĠÑĥÑĩÐ¸Ð½": 7672,
      "ĠÑĥÐ½Ð°Ð¿ÑĢÐµÑĴ": 7673,
      "ĠÐ¿Ð¾Ð·Ð½": 7674,
      "ĠÐ¼Ð°ÑĢÐº": 7675,
      "Äįine": 7676,
      "Ġhrva": 7677,
      "Ġkorak": 7678,
      "Ġregistrova": 7679,
      "ĠÐ¿Ð¾Ð²ÑĢÐµÐ´": 7680,
      "á¼": 7681,
      "Nema": 7682,
      "ĠÄįaso": 7683,
      "Ġdeteta": 7684,
      "naro": 7685,
      "ae": 7686,
      "ÑĥÑĻ": 7687,
      "Ġedu": 7688,
      "Ġjavnih": 7689,
      "ĠÐ¿Ð°Ðº": 7690,
      "ĠÐ³Ð»Ð°Ð³Ð¾Ð»Ð°": 7691,
      "siste": 7692,
      "ĠÐ´ÐµÐº": 7693,
      "ĠizraÄįuna": 7694,
      "ÑĨÐ¸Ð¿Ð»": 7695,
      "ĠkuÄĩi": 7696,
      "ĠÐ·Ð°ÑĤÐ²Ð¾ÑĢ": 7697,
      "ĠÑĤÐ¸Ð¼Ðµ": 7698,
      "ĠÐ±Ð¸Ð±Ð»Ð¸": 7699,
      "ĠloÅ¡e": 7700,
      "znog": 7701,
      "ĠÑģÐ¿Ð¾ÑĢÐ°Ð·": 7702,
      "Ġdisertacija": 7703,
      "Ġjos": 7704,
      "Ġkg": 7705,
      "ĠÏĦ": 7706,
      "Ġtkiva": 7707,
      "Ġ42": 7708,
      "Ð²ÑĢÑĤ": 7709,
      "Äĩene": 7710,
      "rila": 7711,
      "ĠÐ·Ð°Ð´Ð°ÑĤ": 7712,
      "ĠkoriÅ¡Äĩenjem": 7713,
      "ĠÐ¸ÑģÑĤÐ¸": 7714,
      "Ġtehnologija": 7715,
      "Ð°Ð¶Ñĥ": 7716,
      "rine": 7717,
      "ĠÐ²Ð°ÑĢÐ¸ÑĺÐ°Ð±": 7718,
      "Ġpozori": 7719,
      "Ġogleda": 7720,
      "88": 7721,
      "ĠSadu": 7722,
      "ĠÐ·Ð²Ð°Ð½": 7723,
      "ĠkaÅ¾u": 7724,
      "Ð¸Ð´ÑĢ": 7725,
      "ÑĥÐ´Ð¸": 7726,
      "ÐµÑĤÐ°ÑĢÐ°": 7727,
      "gena": 7728,
      "Ġref": 7729,
      "elek": 7730,
      "Ġveliku": 7731,
      "loÅ¾i": 7732,
      "ĠÐºÑĢÐ¸Ð²Ð¸ÑĩÐ½Ð¾Ð³": 7733,
      "Ð¿ÑĢÐµ": 7734,
      "ĠÑĤÐµÑĢÐ¼Ð¸Ð½": 7735,
      "Ð¸ÑģÑĤÑĢÐ¸Ð±": 7736,
      "ĠÐ½Ð°ÑĩÐ¸Ð½Ð°": 7737,
      "ĠÐ·ÐµÐ¼ÑĻÐ°Ð¼Ð°": 7738,
      "ĠpriÄįe": 7739,
      "ĠÐ¿ÑĢÐ¸ÑĢÐ¾Ð´Ðµ": 7740,
      "Ġjanu": 7741,
      "Ġneda": 7742,
      "Ð°ÑĢÐ½Ðµ": 7743,
      "DÐĮ": 7744,
      "leksi": 7745,
      ".(": 7746,
      "veza": 7747,
      "Ġgore": 7748,
      "Âł": 7749,
      "Ġbele": 7750,
      "ĠÐĶÑĢÐ¶": 7751,
      "ĠÑģÐ¿Ð¾ÑĢÑĤ": 7752,
      "Ġdobra": 7753,
      "Ð½ÐµÑĢ": 7754,
      "ĠOp": 7755,
      "ĠVr": 7756,
      "ĠÐ¼ÐµÐ´Ð¸ÑĨ": 7757,
      "ĠÐĵÐ»": 7758,
      "vnosti": 7759,
      "ĠÐºÐ¾ÑĺÐ¾Ð¼": 7760,
      "ÐĲÐºÐ¾": 7761,
      "ZA": 7762,
      "Ġpartner": 7763,
      "Ġosnovnih": 7764,
      "ĠÑĦÑĥÐ½ÐºÑĨÐ¸ÑĺÐ°": 7765,
      "Ġlj": 7766,
      "Ġpake": 7767,
      "UP": 7768,
      "ĠÑĢÐµÐ¿": 7769,
      "zmi": 7770,
      "ĠÐ±ÑĥÐ´Ñĥ": 7771,
      "ĠÑĤÑĢÐ°Ð½ÑģÐ¿": 7772,
      "ĠobjaÅ¡nje": 7773,
      "ÐºÐ¾Ð²": 7774,
      "Ð±Ñĥ": 7775,
      "tva": 7776,
      "Ð¾Ð²Ð°Ð½Ð¾": 7777,
      "ĠuÄīe": 7778,
      "Ġcivi": 7779,
      "ĠkoliÄįine": 7780,
      "Ġvelikih": 7781,
      "ĠveÄĩu": 7782,
      "Ð°Ð²Ð°ÑĺÑĥÑĽÐ¸": 7783,
      "tija": 7784,
      "ĠÑģÐ¸ÑģÑĤÐµÐ¼Ñĥ": 7785,
      "ĠÐ¾ÑģÐ¸Ð¼": 7786,
      "ĠSkup": 7787,
      "Â²": 7788,
      "ini": 7789,
      "ĠÐ¾Ð¿Ð°Ñģ": 7790,
      "Ġrazlog": 7791,
      "Ġradika": 7792,
      "Ġbiljaka": 7793,
      "ĠÐ¸ÑģÑĤÐ¸ÑĩÐµ": 7794,
      "Ġkance": 7795,
      "boli": 7796,
      "Ð°ÐºÑĪ": 7797,
      "ĠÐ·Ð°Ð´ÑĢÐ¶": 7798,
      "naca": 7799,
      "Ġnovim": 7800,
      "ĠÐ¾ÐºÑĢ": 7801,
      "É¢É¬": 7802,
      "Ġoptima": 7803,
      "ÐµÑĦÐ¸ÑĨÐ¸ÑĺÐµ": 7804,
      "Ġgovore": 7805,
      "ĠÐ¾Ð´Ð»ÑĥÐºÐ°": 7806,
      "ĠÐĺÑĤÐ°Ð»": 7807,
      "Ġprobleme": 7808,
      "ĠtroÅ¡kova": 7809,
      "ĠmuÅ¡kar": 7810,
      "Ġnastavnika": 7811,
      "ĠÐ¸Ð½ÑĤÐµÑĢÐ²": 7812,
      "Ġprave": 7813,
      "Ġtehnologije": 7814,
      "the": 7815,
      "Ġrazgova": 7816,
      "ĠÐ°Ð½Ð³": 7817,
      "Ġkomentar": 7818,
      "ĠÐ¼ÐµÑĴÑĥÑĤÐ¸Ð¼": 7819,
      "ljivih": 7820,
      "Ġtvrdi": 7821,
      "ĠJE": 7822,
      "Ð°ÑĢÐµ": 7823,
      "ĠÑģÑĤÑĢÑĥÐºÑĤÑĥÑĢÐµ": 7824,
      "uzima": 7825,
      "Ġkojeg": 7826,
      "ÐµÐ½Ð¸ÑĨÐµ": 7827,
      "Ġzapre": 7828,
      "Äįili": 7829,
      "Ð¾Ð²ÑĺÐµÑĤ": 7830,
      "Ð°ÑĪÐ°": 7831,
      "ya": 7832,
      "ĠÐ´Ð¸Ð¿Ð»Ð¾Ð¼": 7833,
      "ĠÐµÐ»ÐµÐ¼ÐµÐ½Ð°ÑĤÐ°": 7834,
      "deset": 7835,
      "Ġ1989": 7836,
      "ĠVI": 7837,
      "Ġdalji": 7838,
      "Ġbiv": 7839,
      "ktoru": 7840,
      "Ġdobili": 7841,
      "Ġpouzda": 7842,
      "ÑĥÑĺÑĥÑĽ": 7843,
      "Ġbira": 7844,
      "valo": 7845,
      "ĠÑĥÐºÑĻÑĥÑĩÑĥÑĺÑĥÑĽÐ¸": 7846,
      "Ð¸ÑĤÐµÑĤÑĥ": 7847,
      "ĠÐ¿Ð¾Ð±Ð¾ÑĻÑĪ": 7848,
      "Ð°Ð±ÑĢÐ°Ð½": 7849,
      "DP": 7850,
      "Ġbak": 7851,
      "ĠÐ¾Ð¿ÑĤÐ¸Ð¼": 7852,
      "znih": 7853,
      "ĠÑĤÐµÑĢÐ¼": 7854,
      "SKI": 7855,
      "ĠoÅ¡teÄĩenja": 7856,
      "vljena": 7857,
      "Ġnemogu": 7858,
      "ĠÑĤÐ°Ð»": 7859,
      "ĠÐ´ÑĢÑĥÐ³Ð°": 7860,
      "Kad": 7861,
      "Ġ65": 7862,
      "Ġostaje": 7863,
      "Ġkapitala": 7864,
      "ĠÐ¿Ð¾ÑģÐ»ÐµÐ´Ñļ": 7865,
      "ĠÐ¸ÑģÑĤÐ°Ðº": 7866,
      "Ġvizu": 7867,
      "ĠÑĨÐµÐ½ÑĤ": 7868,
      "Ð¸Ð½ÑģÐºÐ°": 7869,
      "ĠÑĢÐ°ÑģÐ¿ÑĢ": 7870,
      "Ġupla": 7871,
      "Ð°ÐºÑĨ": 7872,
      "Ġradnog": 7873,
      "Ġ49": 7874,
      "ÐĲÐĿ": 7875,
      "Ġvoza": 7876,
      "Ġ75": 7877,
      "ĠÑģÐ°Ð·Ð½": 7878,
      "Ð¸ÑģÑĤÐ¸ÑĩÐºÐ¸Ñħ": 7879,
      "ĠÐ¿ÑĢÐ²Ðµ": 7880,
      "vljuje": 7881,
      "ĠÐŁÐ¾Ð¿": 7882,
      "Ġmale": 7883,
      "ĠÑĢÐ¾Ð±": 7884,
      "ntan": 7885,
      "Ġjavne": 7886,
      "Ġstopa": 7887,
      "ĠÑģÑĤÑĥÐ´Ð¸ÑĺÐµ": 7888,
      "Ġpriprema": 7889,
      "ĠdomaÄĩin": 7890,
      "Ġalkoho": 7891,
      "Ġsek": 7892,
      "ĠÐ¾Ð´Ð¼": 7893,
      "Ð°ÑĤÑĥ": 7894,
      "Ġotvo": 7895,
      "Ġtretmana": 7896,
      "ĠÐ´ÐµÐ¼Ð¾ÐºÑĢÐ°ÑĤ": 7897,
      "Pose": 7898,
      "ĠÐ¿Ð¾ÑģÑĢÐµÐ´": 7899,
      "ĠÐ¿ÑĢÐ°ÐºÑģÐ¸": 7900,
      "ĠÐ¼Ð°Ðº": 7901,
      "Ġautoma": 7902,
      "Ġdolara": 7903,
      "TS": 7904,
      "Ð°ÑĩÐºÐ¸Ñħ": 7905,
      "ĠÐ´ÑĢÐ°Ð¼": 7906,
      "ĠÐ¸Ð½ÑĤÐµÐ»": 7907,
      "ĠÐ¾Ð²Ð´Ðµ": 7908,
      "ÊĤ": 7909,
      "ĠÑĢÐµÐ»Ð¸Ð³": 7910,
      "Ġdeset": 7911,
      "Ġwith": 7912,
      "ĠÐ¸ÑģÐºÐ°Ð·": 7913,
      "Ġavi": 7914,
      "ĠÐ·Ð°Ð½": 7915,
      "Ġznaju": 7916,
      "Ġcrkve": 7917,
      "rur": 7918,
      "krimina": 7919,
      "ĠÐºÑļÐ¸Ð³Ð°": 7920,
      "vodom": 7921,
      "ĠSP": 7922,
      "ĠÐ¸ÑģÐ¿Ð¸ÑĤÐ¸Ð²": 7923,
      "tnije": 7924,
      "ĠpolitiÄįke": 7925,
      "Ġsuo": 7926,
      "Å¡kog": 7927,
      "Ġovako": 7928,
      "ĠÐ´ÐµÑĺ": 7929,
      "Ġdakle": 7930,
      "Ð¼Ð°Ð½Ð°": 7931,
      "Ð¸ÑģÐ¿": 7932,
      "Ġsoli": 7933,
      "ĠÐ²Ð¾Ð´Ð¸": 7934,
      "ĠLju": 7935,
      "CIJA": 7936,
      "ĠÑģÐ°Ð´ÑĢÐ¶Ð°ÑĺÐ°": 7937,
      "Ġkretanja": 7938,
      "Ġsin": 7939,
      "ĠuÄįeÅ¡Äĩe": 7940,
      "nosu": 7941,
      "ĠpoÄįinje": 7942,
      "liki": 7943,
      "ĠÑģÐ¸Ð³Ð½": 7944,
      "Ð¿ÑĢÐµÑĤ": 7945,
      "ÑģÐºÑĢ": 7946,
      "ĠÐºÐ¾Ð³Ð°": 7947,
      "Ġgranice": 7948,
      "Å¡ni": 7949,
      "É¢É¤": 7950,
      "Ġciklu": 7951,
      "ĠCen": 7952,
      "ĠÐ¿Ð¾ÐºÐ°Ð·ÑĥÑĺÑĥ": 7953,
      "feri": 7954,
      "Ġzatvore": 7955,
      "Äĩom": 7956,
      "ÑĥÐ´Ð±": 7957,
      "ÐµÐºÐ¾": 7958,
      "ferent": 7959,
      "ÉŃÉ": 7960,
      "Ġodluku": 7961,
      "Å¾eno": 7962,
      "Ġpropi": 7963,
      "ÐµÑĢÐ»": 7964,
      "Ġ150": 7965,
      "ĠÐ¿Ð°ÑĤÑĢ": 7966,
      "rijama": 7967,
      "Äįavaju": 7968,
      "Ġhomo": 7969,
      "Ġinternet": 7970,
      "Ġatmos": 7971,
      "Ð¸ÑĺÑģÐºÐ¾": 7972,
      "Ġline": 7973,
      "Ġendo": 7974,
      "Ġamba": 7975,
      "Ġoktobra": 7976,
      "Ġjednostavno": 7977,
      "Ð²Ð¸Ñħ": 7978,
      "Ġvrata": 7979,
      "Ġpotrebna": 7980,
      "ĠÑĥÑĤÐ²ÑĢÐ´": 7981,
      "ĠÑĤÐµÐºÑģÑĤÐ°": 7982,
      "ĠÐ½ÐµÐºÐ¸Ð¼": 7983,
      "Ġmigra": 7984,
      "lovi": 7985,
      "ĠÑļÐµÐ³Ð¾Ð²Ð¾": 7986,
      "ĠÐŁÐ¾Ð´": 7987,
      "ĠÐ¿ÑĢÐµÑĨÐ¸Ð·": 7988,
      "Ġpostojanje": 7989,
      "Ġkarci": 7990,
      "Å¡avanje": 7991,
      "ĠÐµÐ½ÐµÑĢÐ³Ð¸ÑĺÐµ": 7992,
      "Ġzemlju": 7993,
      "Ð¸ÑĩÐ°ÑĢÐ°": 7994,
      "Ġoptimi": 7995,
      "ĠÐµÐ¼Ð¾ÑĨ": 7996,
      "Ġpovr": 7997,
      "So": 7998,
      "ĠÐºÐ¾Ð»Ð¸ÐºÐ¾": 7999,
      "ĠÐĴÑĥÐº": 8000,
      "Ġnapred": 8001,
      "Ġbrzine": 8002,
      "Ġizrazi": 8003,
      "ĠÐ´Ð¾Ð±Ð°": 8004,
      "Ð¾Ð¿Ð¾Ð»": 8005,
      "ĠAd": 8006,
      "Ho": 8007,
      "sr": 8008,
      "Å¡en": 8009,
      "ĠkoÅ¡ta": 8010,
      "ĠdruÅ¡tvu": 8011,
      "Ġkategorije": 8012,
      "tskoj": 8013,
      "vlada": 8014,
      "Å¾na": 8015,
      "sani": 8016,
      "ĠÐºÐ¾Ð½ÑĨÐµÐ¿": 8017,
      "ĠÐ¿Ð¾ÑĩÐµÑĤÐºÑĥ": 8018,
      "Ġmoj": 8019,
      "Ġrat": 8020,
      "Ku": 8021,
      "ljenju": 8022,
      "ĠzaÅ¡titi": 8023,
      "ĠÐ³ÑĢÑĥÐ¿Ð¸": 8024,
      "Ġhor": 8025,
      "Ġinstitucija": 8026,
      "ĠÐ½Ð°ÑģÑĤÑĥÐ¿": 8027,
      "Ð°Ð¼Ð±": 8028,
      "ĠÐ¼Ð¾Ð¼": 8029,
      "ĠÐ´Ð¾Ð±Ð¸Ñĺ": 8030,
      "Ð¸Ð½Ð³Ð²": 8031,
      "ĠuspeÅ¡no": 8032,
      "ĠÎ±": 8033,
      "Ð°ÐºÑĨÐ¸ÑĺÐ°": 8034,
      "OVA": 8035,
      "Ġprakse": 8036,
      "ÐµÐºÑĤÑĥ": 8037,
      "Ð¸ÑĽÐ¸": 8038,
      "GA": 8039,
      "ia": 8040,
      "Ð¸ÑĢÐ°ÑļÑĥ": 8041,
      "ĠÐ½Ð¸ÑĤÐ¸": 8042,
      "ĠÑĺÐ¾Ñĺ": 8043,
      "LU": 8044,
      "ĠÐ³Ð»ÑĥÐ¼": 8045,
      "ĠÐ·Ð°Ð²Ð¸ÑģÐ½Ð¾ÑģÑĤÐ¸": 8046,
      "ĠnaÅ¡u": 8047,
      "Ġfakultet": 8048,
      "Ð»Ð¾Ð¶": 8049,
      "ĠÐ·Ð±Ð¸ÑĢ": 8050,
      "Ð²ÑĢÑģÑĤ": 8051,
      "vano": 8052,
      "ĠStu": 8053,
      "Osno": 8054,
      "Åłto": 8055,
      "Ð¸ÑĺÐµÐ²": 8056,
      "Ġnjene": 8057,
      "ĠÐ´ÑĢÑĥÐ³Ð°Ñĩ": 8058,
      "Ġproizvode": 8059,
      "Ġdrugu": 8060,
      "ĠdogaÄĳaja": 8061,
      "vljeno": 8062,
      "nts": 8063,
      "ÑĥÐ»Ðµ": 8064,
      "Ð°Ð½Ð¾ÑģÑĤ": 8065,
      "ĠPetro": 8066,
      "Ð¸ÑĨÐ°Ñĺ": 8067,
      "Ġ.-": 8068,
      "ĠdruÅ¡tvene": 8069,
      "ÑĢÐ¾Ð¼": 8070,
      "ĠÐ¼Ð°ÐºÑģÐ¸Ð¼": 8071,
      "MP": 8072,
      "que": 8073,
      "Ġvirusa": 8074,
      "ĠÐ¾ÑģÐ²Ð¾Ñĺ": 8075,
      "Ġ.\"": 8076,
      "ÐµÑĢÑĨÐµÐ³Ð¾Ð²": 8077,
      "Ġ44": 8078,
      "put": 8079,
      "ĠÑļÐ¸ÑħÐ¾Ð²Ð¾Ð³": 8080,
      "Lo": 8081,
      "roviÄĩ": 8082,
      "Ġkontinui": 8083,
      "ĠÑģÑĤÐ°ÑĤÑĥÑģ": 8084,
      "Ġvrije": 8085,
      "ÐŀÐĴ": 8086,
      "Ġstavlja": 8087,
      "KE": 8088,
      "ĠpodruÄįju": 8089,
      "ĠÑģÐµÐ³": 8090,
      "Äĳar": 8091,
      "don": 8092,
      "port": 8093,
      "ktivno": 8094,
      "Ġputovanja": 8095,
      "EÐİ": 8096,
      "Ġ55": 8097,
      "ÑĤÐµÑĢÐ½": 8098,
      "Ġprojekto": 8099,
      "ĠuÄįesta": 8100,
      "ĠÑģÐ°Ð²ÐµÐ·": 8101,
      "ĠÐ²Ð»Ð°Ñģ": 8102,
      "ĠÐ½Ð°Ð·Ð¸Ð²Ð°": 8103,
      "Ġnjihovu": 8104,
      "ĠÑģÐ²ÐµÑĤÑģÐºÐ¾Ð³": 8105,
      "ĠÐºÐ°ÑĢÐ°ÐºÑĤÐµÑĢÐ¸ÑģÑĤÐ¸ÐºÐµ": 8106,
      "Ġrezultatima": 8107,
      "Ð°Ð½Ð³": 8108,
      "ĠÐ¿ÑĢÐµÐ³Ð»ÐµÐ´": 8109,
      "ĠÐ´Ð¾Ñģ": 8110,
      "ÐŁÑĢÐµÐ´": 8111,
      "ĠÐ½Ð°ÑĺÐ²ÐµÑĽ": 8112,
      "raca": 8113,
      "Ġraspode": 8114,
      "ĠSad": 8115,
      "ÐµÐ½Ð¸ÑĨÐ°": 8116,
      "Ġzaintere": 8117,
      "ĠÐ²ÐµÐºÑĥ": 8118,
      "ĠduÅ¾e": 8119,
      "ÐŁÐ¾": 8120,
      "stveno": 8121,
      "Ġopreme": 8122,
      "Ġprate": 8123,
      "mail": 8124,
      "Ġrazre": 8125,
      "psi": 8126,
      "tosti": 8127,
      "ĠKar": 8128,
      "Ð¼Ð¸Ð½Ð¸ÑģÑĤÑĢ": 8129,
      "ĠvaÅ¡": 8130,
      "ĠÅ¡tampa": 8131,
      "Ġtraje": 8132,
      "ĠtaÄįno": 8133,
      "ĠMeto": 8134,
      "Ġtesta": 8135,
      "Ġmenta": 8136,
      "Ġkriteriju": 8137,
      "ĠdoÄĩi": 8138,
      "Ġvezu": 8139,
      "Ġprimena": 8140,
      "Ġbaze": 8141,
      "ĠnaÄįe": 8142,
      "ĠRA": 8143,
      "ork": 8144,
      "Ġuklanja": 8145,
      "ÐŀÐ±": 8146,
      "ĠÐ¸ÑģÑĤÐ¾Ñĩ": 8147,
      "pp": 8148,
      "Ġustanova": 8149,
      "Ġpreduzetni": 8150,
      "Î·": 8151,
      "Ġokre": 8152,
      "Ġstalno": 8153,
      "Ġminera": 8154,
      "ĠÑģÐ°Ð¼Ð¾ÑģÑĤ": 8155,
      "Ġparametri": 8156,
      "Ġ43": 8157,
      "sobno": 8158,
      "Ġnano": 8159,
      "vnik": 8160,
      "Ð°ÑĢÐ¼": 8161,
      "Ġstavove": 8162,
      "ĠÐ±ÑĥÐ³Ð°ÑĢ": 8163,
      "ĠÐ¾Ð´Ð»ÑĥÐºÐµ": 8164,
      "ĠÐļÐ¾ÑĢ": 8165,
      "Ġzadu": 8166,
      "ĠÅ¡irom": 8167,
      "ĠÐ¾Ð±Ð°": 8168,
      "Ġpokreta": 8169,
      "ĠÐ¿Ð¾Ð»Ð¾Ð¶Ð°Ñĺ": 8170,
      "ÐŁÐ¾ÑģÑĤ": 8171,
      "Ġdetalj": 8172,
      "ĠovlaÅ¡Äĩe": 8173,
      "Ġplat": 8174,
      "izvo": 8175,
      "Ġstranke": 8176,
      "ĠÐ½Ð°Ð¿ÑĢÐµÐ´": 8177,
      "ticaj": 8178,
      "ĠÐ¿Ð¾ÑĺÐ°Ð²ÑĻ": 8179,
      "Ġnajpo": 8180,
      "Ġperspe": 8181,
      "ĠÐ³Ð¾Ð´Ð¸Ð½Ñĥ": 8182,
      "vek": 8183,
      "ĠGrad": 8184,
      "ĠÐ¸Ð½Ð²ÐµÑģÑĤ": 8185,
      "Ġopozi": 8186,
      "tona": 8187,
      "Äīaj": 8188,
      "ÑĤÑĥÐµÐ»": 8189,
      "ĠÐºÐ¾Ð¼Ð°Ð½Ð´": 8190,
      "ĠÑĥÑģÐ¿ÐµÑħ": 8191,
      "ĠÐ¸Ð·Ð±ÐµÐ³": 8192,
      "ĠÐ¼ÐµÑĢÐ°": 8193,
      "ĠÑģÑĤÐ¸Ð»": 8194,
      "ranim": 8195,
      "ĠÐĿÐ°ÐºÐ¾Ð½": 8196,
      "Ġonaj": 8197,
      "spira": 8198,
      "Ġprikuplja": 8199,
      "ĠÐ¿Ð¾Ð·Ð¾ÑĢ": 8200,
      "Ġcito": 8201,
      "ĠÐ½ÐµÑĽÐµ": 8202,
      "Ġzla": 8203,
      "ĠGu": 8204,
      "ĠÐ´Ð¾ÐºÑĤÐ¾ÑĢ": 8205,
      "ÄĮe": 8206,
      "Ġzbi": 8207,
      "ĠÐ¸Ð·Ð½Ð¾ÑģÐ¸": 8208,
      "ĠÐ½ÐµÑģÑĤ": 8209,
      "ĠÐ¿Ð¾Ð´ÑĢÑĥÑĩÑĺÐ°": 8210,
      "vljen": 8211,
      "2016": 8212,
      "ĠÐ¿Ð¾Ð²ÐµÑĢ": 8213,
      "Ġdoktor": 8214,
      "ÑĢÐ°ÑĦÐ¸Ðº": 8215,
      "ĠuÄįenja": 8216,
      "Ġpm": 8217,
      "âĢĺ": 8218,
      "ĠÑĤÐ¸": 8219,
      "Ġsocio": 8220,
      "Ð¸Ð±ÑĢ": 8221,
      "Ġsja": 8222,
      "Ġdepre": 8223,
      "ĠÐ¾Ð¿Ñģ": 8224,
      "Ð°ÑĩÐºÐ¾Ñĺ": 8225,
      "bera": 8226,
      "Ġisporu": 8227,
      "ĠDE": 8228,
      "ĠÐ´Ð²Ð¾ÑĢ": 8229,
      "hom": 8230,
      "Ġsprovodi": 8231,
      "Ġzanima": 8232,
      "Ġtekst": 8233,
      "ĠÐ±ÐµÐ·Ð±ÐµÐ´Ð½Ð¾ÑģÑĤÐ¸": 8234,
      "kupi": 8235,
      "Ġmladih": 8236,
      "ĠÐ²ÑĢÑĪÐ¸": 8237,
      "ĠÐ¼ÑĥÑĪÐºÐ°ÑĢ": 8238,
      "ÑĤÐµÐ¶": 8239,
      "Å¡o": 8240,
      "Ġmaterijal": 8241,
      "ĠÐ´ÐµÑģÐµÑĤ": 8242,
      "dri": 8243,
      "Ð»Ð¸ÑĨ": 8244,
      "rtika": 8245,
      "ĠÐºÐ¾Ð³": 8246,
      "Ð°Ð²Ð½": 8247,
      "Ð¸Ð³Ð¸Ð½": 8248,
      "vka": 8249,
      "ĠÐ¿ÑĢÐ°Ð²Ð¸Ð»": 8250,
      "nijim": 8251,
      "Ġdelova": 8252,
      "Ġlaborato": 8253,
      "ĠÑģÐ°Ð¾Ð±ÑĢÐ°ÑĽ": 8254,
      "ĠBar": 8255,
      "Ġvredno": 8256,
      "kovima": 8257,
      "ĠÐ¿ÑĢÐ²Ð¾Ð³": 8258,
      "dama": 8259,
      "ÐµÑģÐ°": 8260,
      "95": 8261,
      "hy": 8262,
      "zorak": 8263,
      "rhi": 8264,
      "Ġodsu": 8265,
      "ĠPoruka": 8266,
      "jsko": 8267,
      "ĠÐºÐ»ÑĥÐ±": 8268,
      "Ġkvadra": 8269,
      "ĠÐ¡ÑĤÐµÑĦ": 8270,
      "ĠporeÄĳenju": 8271,
      "biÄįaje": 8272,
      "ĠdruÅ¡tvenih": 8273,
      "Ġtur": 8274,
      "ĠTele": 8275,
      "ĠÐľÐµÑĴÑĥÑĤÐ¸Ð¼": 8276,
      "ĠÐ¿Ð¾ÑĺÐ¼": 8277,
      "Ð¹": 8278,
      "snoj": 8279,
      "Ġkompozi": 8280,
      "OS": 8281,
      "ĠÐºÑĢÑĥÐ³": 8282,
      "ds": 8283,
      "ĠÐ¾Ð±Ð»Ð¸ÐºÑĥ": 8284,
      "Ġprocene": 8285,
      "Ġpritiska": 8286,
      "ĠÐ¿ÑĢÐ¸Ð·Ð½": 8287,
      "ĠÐ´Ð¸ÑĺÐ°Ð»": 8288,
      "king": 8289,
      "Ġposledice": 8290,
      "Ġinostran": 8291,
      "ĠÐ¾Ð±Ð°Ð²": 8292,
      "ĠTre": 8293,
      "ĠÑĢÐ¸Ð·Ð¸ÐºÐ°": 8294,
      "Ġmetala": 8295,
      "ĠÐ»Ð¸ÑĨÐµ": 8296,
      "ĠÑĦÐ¸Ð»Ð¾Ð·Ð¾ÑĦ": 8297,
      "ĠÑģÑĥÐ¼": 8298,
      "ĠÐķÐ½": 8299,
      "ĠÐ¼ÐµÑĤÐ¾Ð´Ðµ": 8300,
      "ĠpovrÅ¡ina": 8301,
      "ĠÐľÐ°ÑĤ": 8302,
      "Ġ41": 8303,
      "Ġrazno": 8304,
      "lli": 8305,
      "Ġ64": 8306,
      "Ge": 8307,
      "Ġceo": 8308,
      "ĠÐ³ÑĢÐµÑĪ": 8309,
      "ĠistraÅ£i": 8310,
      "ĠÑĺÐ°Ð²ÑĻÐ°": 8311,
      "Ġkratko": 8312,
      "Pu": 8313,
      "ĠÑĥÐ¿ÑĢÐ°Ð²ÑĻÐ°ÑļÐ°": 8314,
      "Ïħ": 8315,
      "ĠÐ¿Ð¾ÑĢÐµ": 8316,
      "Ġcentru": 8317,
      "ĠÐ·Ð°Ð¿ÑĢÐ°Ð²Ð¾": 8318,
      "Ġnikad": 8319,
      "ĠÑĢÐµÑĦÐ¾ÑĢÐ¼": 8320,
      "Ð¸Ð½ÑĤ": 8321,
      "Ġpodstica": 8322,
      "Ġtima": 8323,
      "bje": 8324,
      "Ġpopulacije": 8325,
      "ot": 8326,
      "Å¡tvu": 8327,
      "Ġpropa": 8328,
      "Ġukaza": 8329,
      "Ġpapi": 8330,
      "ĠÐ¸Ð·Ð²ÐµÐ´": 8331,
      "Ð°ÑĢÐº": 8332,
      "Ð¸ÑģÐ°Ð½Ð°": 8333,
      "Ñİ": 8334,
      "ĠÑĺÐµÐ´Ð¸Ð½ÑģÑĤÐ²": 8335,
      "Ġspada": 8336,
      "ĠMI": 8337,
      "ÐµÐ·Ðµ": 8338,
      "ĠÐµÐ²": 8339,
      "ĠÐŁÐµÑĤ": 8340,
      "2022": 8341,
      "rajuÄĩi": 8342,
      "ĠÐ²ÐµÑĽÐµ": 8343,
      "Ġnjoj": 8344,
      "ÐĺÐĪ": 8345,
      "ĠÐ¼Ð¾ÑĢÐ°ÑĺÑĥ": 8346,
      "âĢ¡": 8347,
      "ĠÑĥÑĤÐ¸ÑĩÐµ": 8348,
      "Ġzadatak": 8349,
      "Ð¾Ð±Ð¸Ð»": 8350,
      "Ġfabri": 8351,
      "Ġistakao": 8352,
      "ĠÐ¸ÑģÐ¿ÑĥÑļ": 8353,
      "Ġnere": 8354,
      "ĠÐ´Ð¸Ð½Ð°Ð¼": 8355,
      "ĠÐĳÐ¾Ð¶": 8356,
      "ÐļÑĢ": 8357,
      "ĠÐ¿ÑĢÐµÐ½Ð¾Ñģ": 8358,
      "Ð¸Ð²Ð¸": 8359,
      "Å¡njem": 8360,
      "ĠÐ·Ð°ÑģÑĤÑĥÐ¿ÑĻ": 8361,
      "ĠÐ¿ÑĢÐ¸Ð»Ð°Ð³": 8362,
      "ĠNova": 8363,
      "Fa": 8364,
      "Ġscena": 8365,
      "Ġ400": 8366,
      "Ġfrancu": 8367,
      "ĠÑĨÐ¸ÑĤ": 8368,
      "ĠÐ²ÐµÑĽÐ°": 8369,
      "ĠreÅ¡i": 8370,
      "ĠÐ¸ÑģÑĤÐµ": 8371,
      "ET": 8372,
      "ĠÐľÐ¸Ð½Ð¸ÑģÑĤÐ°ÑĢ": 8373,
      "org": 8374,
      "ĠÐºÐ¾Ð½ÑĦ": 8375,
      "Prvi": 8376,
      "ÉļÊģ": 8377,
      "ÑĥÐ³Ðµ": 8378,
      "ÐºÐ¾Ñģ": 8379,
      "jna": 8380,
      "ĠÐ³ÑĢÑĩ": 8381,
      "mon": 8382,
      "Ġprogla": 8383,
      "ĠÐ½a": 8384,
      "ĠÉª": 8385,
      "Ġtakve": 8386,
      "ĠÑĩÑĥÐ²": 8387,
      "Ġodi": 8388,
      "Ġpotpisa": 8389,
      "ÐµÑģÐµÑĤÐ¸Ñħ": 8390,
      "pravi": 8391,
      "Ġnpr": 8392,
      "riÅ¡Äĩe": 8393,
      "ĠPA": 8394,
      "niÄĩ": 8395,
      "Äĩanje": 8396,
      "ĠCrve": 8397,
      "Ġcelokup": 8398,
      "Ġintervju": 8399,
      "ĠkuÄĩa": 8400,
      "ĠÉ¦": 8401,
      "ĠnaÅ¡a": 8402,
      "ĠÑģÐ»Ð¸ÐºÐ°": 8403,
      "Ġkomponente": 8404,
      "ĠopÅ¡tine": 8405,
      "Ġskladi": 8406,
      "Ġprodaje": 8407,
      "ĠÑĥÐ³ÑĢ": 8408,
      "ĠÐ¼Ð°Ð»Ð¾": 8409,
      "Ġkomunikacije": 8410,
      "ĠÑĺÑĥÐ³": 8411,
      "ĠdoÅ¾ivlja": 8412,
      "Ġ-,": 8413,
      "ĠÐ½Ð°ÑĺÐ²ÐµÑĽÐ¸": 8414,
      "ĠÐ¿Ð¾Ð½Ð°ÑĪÐ°ÑļÐ°": 8415,
      "ĠÐ·ÐµÐ¼ÑĻÐ¸ÑĪÑĤÐ°": 8416,
      "ĠpredviÄĳa": 8417,
      "Ġistog": 8418,
      "Ġobavesti": 8419,
      "ĠÐ´Ð¾Ð²Ð¾ÑĻÐ½Ð¾": 8420,
      "nae": 8421,
      "Ġtemperatura": 8422,
      "Ð°ÑĩÐºÐ¾Ð¼": 8423,
      "ĠÐ½ÐµÐ¾Ð¿ÑħÐ¾Ð´Ð½Ð¾": 8424,
      "teh": 8425,
      "%).": 8426,
      "Ġzanim": 8427,
      "ĠDA": 8428,
      "Ġcar": 8429,
      "Ð¾Ð»Ð¾ÑĪÐºÐ¾Ð³": 8430,
      "Ġproiz": 8431,
      "Äįari": 8432,
      "MoÅ¾e": 8433,
      "mato": 8434,
      "ĠÑģÐµÐ»": 8435,
      "Ġupa": 8436,
      "ĠÅłe": 8437,
      "Ġblizi": 8438,
      "ĠMiha": 8439,
      "lati": 8440,
      "ĠlakÅ¡e": 8441,
      "Ð¾Ð¼ÐµÑĤÑĢ": 8442,
      "Ð¾ÑģÐ»Ðµ": 8443,
      "lep": 8444,
      "Ð»Ð¾ÑĤ": 8445,
      "ĠÑĩÐµÑģÑĤ": 8446,
      "Ġuklo": 8447,
      "Ġnepre": 8448,
      "Ð¾ÑĢÐ¸Ð·": 8449,
      "Ġregiona": 8450,
      "ĠâĪĴ": 8451,
      "ĠÐ´Ð¾Ð½Ð¾ÑĪ": 8452,
      "ĠÑģÐ°Ð³Ð»ÐµÐ´": 8453,
      "ĠÑģÐ¾Ð±": 8454,
      "Ð¸ÐºÐ¸": 8455,
      "reo": 8456,
      "ĠÑģÐ²ÐµÐ´Ð¾Ñĩ": 8457,
      "Ju": 8458,
      "ĠÑĴ": 8459,
      "Ġavgu": 8460,
      "Ġsvima": 8461,
      "Ðī": 8462,
      "ĠÐ¿ÑĢÐµÑĢ": 8463,
      "Ġmasa": 8464,
      "ĠÑģÑĤÑĢÐ°Ð½Ð¸": 8465,
      "ÐµÐ½ÑĤÐ¸Ð¼Ð°": 8466,
      "2008": 8467,
      "Ġnjegovom": 8468,
      "Å¾avaju": 8469,
      "ĠÐ¼Ð»": 8470,
      "gov": 8471,
      "Ġ120": 8472,
      "ĠÐ¾ÑĢÐ³Ð°Ð½Ð°": 8473,
      "Ð¸ÑģÐ¸ÑĺÐµ": 8474,
      "Ġveb": 8475,
      "Äİe": 8476,
      "ÑģÑĤÐ¸ÑĤ": 8477,
      "Ð¸Ð·Ð°Ð½ÑĤ": 8478,
      "Ġstimu": 8479,
      "Ġimovi": 8480,
      "ĠmiÅ¡ljenja": 8481,
      "xi": 8482,
      "Ġnado": 8483,
      "ĠÐ¿ÑĢÐ°ÑĽ": 8484,
      "hro": 8485,
      "Ġznanje": 8486,
      "Ġeven": 8487,
      "knu": 8488,
      "ĠpoveÄĩanja": 8489,
      "Ð°Ð²Ð°Ð»Ð¸": 8490,
      "Ð°Ð²Ð¸Ð»Ð°": 8491,
      "ĠÐ¿Ð°ÑĨÐ¸ÑĺÐµÐ½Ð°ÑĤÐ°": 8492,
      "Ġkaza": 8493,
      "ĠSrpske": 8494,
      "Ġsnagu": 8495,
      "ĠÐľÐ°ÐºÐµÐ´Ð¾Ð½": 8496,
      "ĠDrÅ¾a": 8497,
      "Å¡kih": 8498,
      "ĠÐ¾ÑģÑĤÐ°Ð»Ð¸Ñħ": 8499,
      "Ġsagleda": 8500,
      "Mar": 8501,
      "Ġpriori": 8502,
      "Å¾avanje": 8503,
      "Ġnovu": 8504,
      "Ġmana": 8505,
      "ĠÐ½Ð°ÑĺÐ·": 8506,
      "ĠÑģÐºÑĥÐ¿ÑĪÑĤ": 8507,
      "Ġkarti": 8508,
      "Ġresursa": 8509,
      "ras": 8510,
      "zaciju": 8511,
      "Ġnjegovim": 8512,
      "ljava": 8513,
      "Ð°Ð²ÑĻÐµ": 8514,
      "Ġstoji": 8515,
      "Ġpritisak": 8516,
      "ĠÐ°Ð½Ð³Ð°Ð¶": 8517,
      "ĠÐ¸ÑģÑĤÑĢÐ°Ð¶Ð¸Ð²Ð°ÑļÐµ": 8518,
      "Ovi": 8519,
      "Ġby": 8520,
      "grama": 8521,
      "ĠÅła": 8522,
      "ĠÐ¼ÐµÐ½": 8523,
      "Ġrezo": 8524,
      "Ġregionu": 8525,
      "Äįnik": 8526,
      "ĠÐ»ÐµÑĤ": 8527,
      "Ġjedinice": 8528,
      "Ġtehnika": 8529,
      "ĠÐ¾Ð±ÑĢ": 8530,
      "nia": 8531,
      "ĠukljuÄįi": 8532,
      "Ġlinije": 8533,
      "Ġpostao": 8534,
      "Ð¿Ð°Ð½": 8535,
      "ĠÑļÐ¸ÑħÐ¾Ð²Ð¸Ñħ": 8536,
      "ĠÐµÐºÑģÑĤ": 8537,
      "ÐŁÑĢÐ¸Ð¼": 8538,
      "ĠRado": 8539,
      "ĠoruÅ¾": 8540,
      "Ġkama": 8541,
      "ĠÐ´Ð¸Ð·": 8542,
      "Ð»Ð°Ñĩ": 8543,
      "Ġ1988": 8544,
      "ÑĢÐµÑĪ": 8545,
      "tskim": 8546,
      "Ġprikaz": 8547,
      "Ð¸Ð¿Ð°": 8548,
      "ÐŁÐ¾Ð´": 8549,
      "Ġodgovornost": 8550,
      "Ġnapla": 8551,
      "kako": 8552,
      "ÐºÐ¾Ñĺ": 8553,
      "Ġpravu": 8554,
      "vajanje": 8555,
      "ĠÐ´Ð¸ÑģÑĤÑĢÐ¸Ð±": 8556,
      "Ð¾Ð¼Ð¸Ð½": 8557,
      "ĠÑļÐµÐ³Ð¾Ð²Ð¾Ð¼": 8558,
      "znu": 8559,
      "tac": 8560,
      "Ġotpor": 8561,
      "logy": 8562,
      "Ġmati": 8563,
      "mentari": 8564,
      "ĠÐ¾ÑĩÑĥÐ²": 8565,
      "ĠproÅ¡le": 8566,
      "¬ģ": 8567,
      "rili": 8568,
      "Ġpreo": 8569,
      "ĠTV": 8570,
      "ĠKako": 8571,
      "Ġportala": 8572,
      "Ð¾Ð²ÐµÐº": 8573,
      "ĠÐ³ÑĥÐ±Ð¸ÑĤ": 8574,
      "ANI": 8575,
      "ĠÐ¿Ð¾ÑĩÐµÑĤÐºÐ°": 8576,
      "ĠnaÅ¡im": 8577,
      "lle": 8578,
      "Ð°ÑĢÐ½Ð¸": 8579,
      "lat": 8580,
      "Ġciljeva": 8581,
      "Ð²Ð¾Ð´": 8582,
      "ÉļÉŀ": 8583,
      "Ġfunkciju": 8584,
      "Ġroditelja": 8585,
      "ĠÐ½Ð°ÐºÐ½Ð°Ð´": 8586,
      "ĠÑĩÐ»Ð°Ð½Ð°": 8587,
      "Ġnjegovu": 8588,
      "Ð¾Ð¼Ð°ÑĤ": 8589,
      "Ġporodica": 8590,
      "Ġciljem": 8591,
      "Ð¾Ð»ÑĥÑĤ": 8592,
      "mske": 8593,
      "ĠkoliÄįina": 8594,
      "jenja": 8595,
      "ĠtreÄĩi": 8596,
      "ĠÐ¾Ð¼Ð¾Ð³ÑĥÑĽÐ°Ð²Ð°": 8597,
      "Ġpripad": 8598,
      "Ġbitno": 8599,
      "Ġsmanjenja": 8600,
      "ĠPar": 8601,
      "ÐµÐ½Ð³": 8602,
      "Ġdao": 8603,
      "PoÅ¡to": 8604,
      "Î¼": 8605,
      "Ġstariji": 8606,
      "ĠobjaÅ¡njava": 8607,
      "ĠsaopÅ¡te": 8608,
      "ĠÑļÐ¸ÑħÐ¾Ð²Ð°": 8609,
      "ĠÐ¿Ð¾Ð»Ð¸ÑĤÐ¸ÑĩÐºÐµ": 8610,
      "CC": 8611,
      "Îº": 8612,
      "bde": 8613,
      "Ġkupu": 8614,
      "ĠVojvodine": 8615,
      "Ġsame": 8616,
      "ĠSara": 8617,
      "É¢Éľ": 8618,
      "zin": 8619,
      "Ð°Ð²Ð°ÑĤÐ¸": 8620,
      "ĠGru": 8621,
      "plici": 8622,
      "ĠST": 8623,
      "ÐµÐ½Ð¸ÑĺÐµ": 8624,
      "manu": 8625,
      "Ġpredme": 8626,
      "ĠÐĲÐ½ÑĤ": 8627,
      "ĠÐ·Ð½Ð°ÑĩÐ°ÑĺÐ½Ð°": 8628,
      "Ġoprede": 8629,
      "Gla": 8630,
      "Ġnjihovim": 8631,
      "Ġdobijeni": 8632,
      "ĠÐ¾Ð¿ÑĢÐ°Ð²": 8633,
      "ĠÐºÐ¾Ð¼Ð¿Ð¾Ð·": 8634,
      "Ġizlo": 8635,
      "ÑĻÐµÐ½Ð°": 8636,
      "gura": 8637,
      "ĠÐ½Ð¾ÑģÐ¸": 8638,
      "ĠHerce": 8639,
      "Ġdobri": 8640,
      "Ġteorije": 8641,
      "logiji": 8642,
      "more": 8643,
      "ĠÐĲÑĥÑģÑĤÑĢ": 8644,
      "ĠÐ°Ð´ÐµÐºÐ²Ð°ÑĤ": 8645,
      "ĠÐ¿ÑĢÐ¾Ð³ÑĢÐ°Ð¼Ð°": 8646,
      "snom": 8647,
      "sed": 8648,
      "njava": 8649,
      "tivnost": 8650,
      "Ġfilozofi": 8651,
      "novima": 8652,
      "ĠÐ¾Ð±Ð°Ð²ÑĻ": 8653,
      "rite": 8654,
      "Ġodobre": 8655,
      "Ġogrom": 8656,
      "cin": 8657,
      "Å¡kol": 8658,
      "Ġkombi": 8659,
      "Ġpoe": 8660,
      "ĠÐ±ÑĥÐ´ÑĥÑĽÐ¸": 8661,
      "ĠtaÄįke": 8662,
      "Ð¾Ð²Ð°Ð½Ð¾Ð³": 8663,
      "Ð¸ÑĤÐ½Ð¾": 8664,
      "ĠÐ¿Ð¾ÑģÐ¼Ð°ÑĤ": 8665,
      "Ġiskoristi": 8666,
      "ĠÐ¿Ð¾ÑĪÑĤÐ¾": 8667,
      "ĠÐµÐ³Ð·": 8668,
      "Ġpojava": 8669,
      "85": 8670,
      "ĠÐ¸Ð½ÑĦÐ¾ÑĢÐ¼Ð°ÑĨÐ¸ÑĺÐµ": 8671,
      "lori": 8672,
      "ĠÑģÐ²ÑĢÑħ": 8673,
      "ĠRepublici": 8674,
      "ĠÐ´Ð¸ÑĺÐ°Ð³": 8675,
      "ĠÐ¾Ð±ÑĥÑħÐ²Ð°ÑĤÐ°": 8676,
      "Ġborbe": 8677,
      "Ð¾ÑģÐº": 8678,
      "ÐĹÐ±Ð¾Ð³": 8679,
      "spita": 8680,
      "ĠÑĦÐ¾ÑĤ": 8681,
      "rsa": 8682,
      "ĠÑĥÑģÑĤÐ°Ð²": 8683,
      "ĠÐĴÐ¸Ð´": 8684,
      "ĠÑģÑĤÑĥÐ´Ð¸ÑĺÐ°": 8685,
      "ĠÑĩÐ»Ð°Ð½Ð¾Ð²Ð°": 8686,
      "ĠÐ¡Ð¼": 8687,
      "ĠÐ¾Ð´ÐµÑĻ": 8688,
      "nes": 8689,
      "Ð¸ÑĢÐµ": 8690,
      "ĠodreÄĳeni": 8691,
      "Ġnauka": 8692,
      "ĠÐ²ÑĢÐ°ÑĤ": 8693,
      "zad": 8694,
      "ĠÐ¿ÑĢÐ°ÑĤ": 8695,
      "ĠÐ¼Ð¸Ð½Ð¸Ð¼": 8696,
      "ĠÑĥÐ¾Ð¿ÑĪÑĤÐµ": 8697,
      "Ġporek": 8698,
      "Ġadvo": 8699,
      "Ð²Ð°ÑĻ": 8700,
      "kinja": 8701,
      "Å¡tava": 8702,
      "ĠÐ·Ð°ÑģÐ½": 8703,
      "Ġkogni": 8704,
      "OM": 8705,
      "ĠnaÄĩi": 8706,
      "Ġder": 8707,
      "Ġbrojne": 8708,
      "Ġsocijalne": 8709,
      "ĠÐļÐ¾Ð»": 8710,
      ".:": 8711,
      "ĠÐ´Ð¾Ð²Ð¾Ð´Ð¸": 8712,
      "Ð²ÐµÐ´": 8713,
      "ĠÐ¿Ð¾ÑĺÐµÐ´": 8714,
      "Ġopada": 8715,
      "ĠÐ¿ÐµÑģÐ¼Ðµ": 8716,
      "bilnost": 8717,
      "Ġtranzi": 8718,
      "Ġ46": 8719,
      "ĠÑĢÐµÑĦÐµÑĢ": 8720,
      "ĠÑģÐ²Ð°": 8721,
      "rku": 8722,
      "ĠÐ¿ÑĢÐµÑĤÑħÐ¾Ð´Ð½Ð¾": 8723,
      "Ġseptembra": 8724,
      "likom": 8725,
      "Ġske": 8726,
      "Ġvari": 8727,
      "Ġpromeni": 8728,
      "ang": 8729,
      "Ġrado": 8730,
      "NIK": 8731,
      "Äĳenjem": 8732,
      "ĠÑģÐ½Ð°Ð³Ð°": 8733,
      "ĠÑĢÐ°Ð´Ð¸Ð¾": 8734,
      "Ð¿Ð»": 8735,
      "Ð¸Ð²Ðµ": 8736,
      "ĠÐ¿ÑĢÐµÐ´Ð¼ÐµÑĤÐ°": 8737,
      "Ġstambe": 8738,
      "Ġprvih": 8739,
      "ĠÐ´Ð¾Ð±Ð¸Ð¾": 8740,
      "ÑĻÐ¸Ð²Ðµ": 8741,
      "lon": 8742,
      "lana": 8743,
      "mili": 8744,
      "zme": 8745,
      "ĠÐ¿ÐµÐ²": 8746,
      "ĠÐ·Ð½Ð°ÑĤÐ½Ð¾": 8747,
      "Ġekonomske": 8748,
      "ĠÐºÐ¾ÐµÑĦÐ¸ÑĨÐ¸ÑĺÐµ": 8749,
      "land": 8750,
      "ĠÑĺÐµÐ´Ð¸Ð½Ð¸ÑĨÐ°": 8751,
      "rovi": 8752,
      "ĠÐ¿Ð¾ÑģÑĤÐ¾ÑĺÐ°ÑļÐµ": 8753,
      "ĠÐ³ÑĢÐ°ÑĴÐ°Ð½": 8754,
      "Ġteorij": 8755,
      "Ð¾Ð´Ð½ÐµÐ²": 8756,
      "Ġsezone": 8757,
      "Ġsaradnju": 8758,
      "ĠÐºÑļÐ¸Ð³Ðµ": 8759,
      "Ð°Ð»Ð¸Ð·Ð°ÑĨÐ¸ÑĺÐµ": 8760,
      "ĠÐ·Ð°Ð²Ð¸ÑģÐ¸": 8761,
      "Ġboja": 8762,
      "ĠÄįesti": 8763,
      "Ġkampa": 8764,
      "Danas": 8765,
      "ĠSla": 8766,
      "Ġmolekula": 8767,
      "Ð¾ÐºÑĥÐ¿": 8768,
      "ĠÊģÉŁ": 8769,
      "Ġostalim": 8770,
      "Ġorganizo": 8771,
      "Ġperi": 8772,
      "Naravno": 8773,
      "aÐ²": 8774,
      "Ġane": 8775,
      "ĠÐ¿ÑĢÐ¸Ñĺ": 8776,
      "Ġnaselja": 8777,
      "Ġnajvi": 8778,
      "Ġolak": 8779,
      "ÉĽ": 8780,
      "ĠÐ»ÐµÐ¿": 8781,
      "Ġanaliti": 8782,
      "jete": 8783,
      "Ð»Ð°Ð³": 8784,
      "ĠÐºÐ°Ð¿Ð°ÑĨ": 8785,
      "Ð¾Ð½Ð¸Ð¼": 8786,
      "Ġprocenat": 8787,
      "Ġfakulteta": 8788,
      "Ġsamom": 8789,
      "ĠÑĪÐºÐ¾Ð»Ð°": 8790,
      "timo": 8791,
      "Ð¡Ð¢": 8792,
      "ĠLon": 8793,
      "Ġmotiva": 8794,
      "Ġsrpskom": 8795,
      "dici": 8796,
      "Ġprene": 8797,
      "Ġstudiji": 8798,
      "Ġlim": 8799,
      "Ð¸ÑģÑĤÐ¸ÑĩÐºÐ°": 8800,
      "ĠÐ¾Ð±ÐµÐ·Ð±ÐµÐ´": 8801,
      "kg": 8802,
      "ĠÐ¿Ð¾Ð²ÑĢÑĪÐ¸Ð½Ðµ": 8803,
      "ĠÐ¿Ð¾Ð¼Ð¾ÑĽÑĥ": 8804,
      "phi": 8805,
      "Ġrekonstru": 8806,
      "Ð¾Ð³Ð¾Ð´": 8807,
      "ĠÐĲÑĤ": 8808,
      "Ã±Ã²": 8809,
      "Ġdubo": 8810,
      "Ġideje": 8811,
      "ĠÐ¾ÑĢÑĥÐ¶": 8812,
      "Ġponavlja": 8813,
      "Ð°Ð½ÑģÐµ": 8814,
      "Ġcrve": 8815,
      "ĠÐ·ÐµÐ¼ÑĻÐ¸": 8816,
      "Ð¾ÑĢÐ¾Ð´": 8817,
      "ĠIsto": 8818,
      "Ð¾Ð¼Ðµ": 8819,
      "ĠÐ¿ÑĢÐ²Ð¾": 8820,
      "ĠÑĢÐµÑĩÐ¸Ð¼Ð°": 8821,
      "ĠÐºÐ»Ð°ÑģÐ¸ÑĦÐ¸Ðº": 8822,
      "Ð°Ð»ÐµÑĢ": 8823,
      "ĠnovÄįa": 8824,
      "npr": 8825,
      "gledno": 8826,
      "Ġtero": 8827,
      "Ġplana": 8828,
      "Ġprocenu": 8829,
      "ĠÐ°Ð½Ð°Ð»": 8830,
      "ÐłÐĲ": 8831,
      "ĠÐ·Ð½Ð°ÑĩÐ°ÑĺÐ°Ð½": 8832,
      "ĠUniverziteta": 8833,
      "ĠÑģÐ¿ÑĢÐ¾Ð²ÐµÐ´": 8834,
      "Treba": 8835,
      "Ġkapaciteta": 8836,
      "ĠÐ¼Ð¾ÑĽÐ¸": 8837,
      "njenje": 8838,
      "tovi": 8839,
      "Ġ95": 8840,
      "Ġpreki": 8841,
      "ĠÐĳÐ°Ð»Ðº": 8842,
      "ÉŁÉ¬": 8843,
      "ĠÐ¿Ð¾ÑĤÐ¿ÑĥÐ½Ð¾ÑģÑĤÐ¸": 8844,
      "Ġgi": 8845,
      "Ġnavo": 8846,
      "Ġimam": 8847,
      "ĠÑĤÐ°ÐºÐ¼Ð¸Ñĩ": 8848,
      "Ġpriliku": 8849,
      "qa": 8850,
      "2017": 8851,
      "ĠÐ½Ð°ÑĥÐºÐ°": 8852,
      "Ġsituaciji": 8853,
      "Ð¸ÑĺÑĥÐ¼Ð°": 8854,
      "ĠbuduÄĩnosti": 8855,
      "znaÄįaj": 8856,
      "ĠÑĢÐ°Ð´Ð¾Ð²Ð°": 8857,
      "ĠÐ¾Ð±Ð·Ð¸ÑĢ": 8858,
      "ĠÐ¿ÑĢÐ°Ð²Ñĥ": 8859,
      "ĠÑĤÐ·Ð²": 8860,
      "nskoj": 8861,
      "ÉŁÉ¦": 8862,
      "Ġnauke": 8863,
      "ĠÐ´Ð°ÐºÐ»Ðµ": 8864,
      "ĠGore": 8865,
      "Ġdelimi": 8866,
      "PP": 8867,
      "Ġada": 8868,
      "Ġbave": 8869,
      "pta": 8870,
      "ĠreÄįe": 8871,
      "ĠÑļÐ¸ÑħÐ¾Ð²Ð¾": 8872,
      "Ġbibliote": 8873,
      "ĠÑĺÐ°": 8874,
      "ĠBrita": 8875,
      "Ġrastu": 8876,
      "Ġruke": 8877,
      "Ġimena": 8878,
      "ÐĿÐµ": 8879,
      "Bio": 8880,
      "Ġstro": 8881,
      "ĠÐ¿ÑĢÐµÐ´Ð»Ð¾Ð¶": 8882,
      "ĠÐ¸Ð·Ð²ÐµÑģ": 8883,
      "ïĤ·": 8884,
      "ĠÐķÐ²ÑĢÐ¾Ð¿Ðµ": 8885,
      "linu": 8886,
      "Ġtende": 8887,
      "Ġprevazi": 8888,
      "Ġeventual": 8889,
      "ĠÐ¿Ð°Ð¿": 8890,
      "slim": 8891,
      "Ġdobre": 8892,
      "ĠÑģÐ»ÑĥÑĩÐ°ÑĺÐµÐ²Ð¸Ð¼Ð°": 8893,
      "Ġubije": 8894,
      "ĠÑģÑĤÐ²Ð°ÑĢÐ°Ð»": 8895,
      "let": 8896,
      "Ġprete": 8897,
      "ĠÐ¼Ð¾Ð³Ð»Ð¸": 8898,
      "Ġsaradnji": 8899,
      "Ġïģ": 8900,
      "vaÄįa": 8901,
      "ĠÐ¼Ð¾Ð³Ð»Ð°": 8902,
      "ÑĺÐµÐ´Ð½": 8903,
      "Ġdrza": 8904,
      "ĠÐºÐ²Ð°Ð»Ð¸ÑĦÐ¸Ðº": 8905,
      "Ġmala": 8906,
      "Ġpolju": 8907,
      "ÑĥÑĨÐ¸": 8908,
      "ĠÐ½Ð°ÑģÐµÑĻÐ°": 8909,
      "2007": 8910,
      "Ġnju": 8911,
      "lera": 8912,
      "Ġstudenata": 8913,
      "Stoga": 8914,
      "Ġnastavlja": 8915,
      "Fi": 8916,
      "KI": 8917,
      "Ġposlednje": 8918,
      "Å¾em": 8919,
      "Ġukupnog": 8920,
      "Ġdeluje": 8921,
      "ĠÐľÐµÑĤ": 8922,
      "ĠÐ°Ð¼Ð±": 8923,
      "Ð¸Ð²Ð°Ð»Ð¸": 8924,
      "Ġispitivanje": 8925,
      "Ġmada": 8926,
      "Ġupisa": 8927,
      "ĠSan": 8928,
      "duju": 8929,
      "Ġkonzu": 8930,
      "oksida": 8931,
      "87": 8932,
      "Ġefikasnosti": 8933,
      "ĠÑħÐ¸Ð¿Ð¾ÑĤ": 8934,
      "Ġmorfo": 8935,
      "ĠÐ³Ð»Ð°Ð²Ð½Ð¸": 8936,
      "ĠPan": 8937,
      "Ġnada": 8938,
      "ĠgraÄĳani": 8939,
      "ĠÐ½Ð°Ð³Ð»Ð°ÑĪ": 8940,
      "Ð¾ÑĢÐµÑĴ": 8941,
      "ĠÑĤÐº": 8942,
      "Ġinspe": 8943,
      "ĠÐ½Ð¸Ð¶": 8944,
      "Ġbizni": 8945,
      "kor": 8946,
      "ĠÐ±ÐµÑģ": 8947,
      "str": 8948,
      "ĠIN": 8949,
      "ĠÐ¸Ð½Ð¾Ð²": 8950,
      "ĠÑļÐµÐ½": 8951,
      "ĠÐ¿Ð°ÑĤ": 8952,
      "Ġ1980": 8953,
      "publika": 8954,
      "Ġmin": 8955,
      "ĠÐ¸ÑģÐºÑĻÑĥÑĩÐ¸Ð²Ð¾": 8956,
      "ele": 8957,
      "Ġnavedenih": 8958,
      "ĠCD": 8959,
      "mb": 8960,
      "Ġkvanti": 8961,
      "ÑĥÑĤÐ¾ÑĢ": 8962,
      "ĠÐ´ÑĢÑĥÐ³Ð¾Ñĺ": 8963,
      "ĠÐ°Ð´Ð¼Ð¸Ð½Ð¸ÑģÑĤÑĢ": 8964,
      "ĠðĿĳ": 8965,
      "ĠÐ½ÐµÐ²": 8966,
      "Ġkaraktera": 8967,
      "Ġtrudno": 8968,
      "Ġakcija": 8969,
      "ĠÐ¿Ð¾Ð²ÑĢÐ°ÑĤ": 8970,
      "Ð¸Ð½ÑĤÐµÑĢ": 8971,
      "ĠÐºÐ°ÑĢÐ°ÐºÑĤÐµÑĢÐ¸ÑģÑĤÐ¸ÐºÐ°": 8972,
      "ÑħÐ¾Ð´Ð½Ð¾": 8973,
      "ĠÑĺÐ°Ð²Ð½Ð¾Ð³": 8974,
      "ĠÐ¾Ð²Ð»Ð°ÑĪÑĽ": 8975,
      "Ð¾Ð»Ð¾ÑĪÐºÐ°": 8976,
      "ĠÐĵÐ¾ÑĢ": 8977,
      "lnika": 8978,
      "ĠÐ¿Ð¾ÑĺÐµÐ´Ð¸Ð½Ð¸Ñħ": 8979,
      "ĠÐ¡ÑĢÐ±Ð°": 8980,
      "mit": 8981,
      "Ġekonomski": 8982,
      "Ġaktue": 8983,
      "ding": 8984,
      "Ġstanovnika": 8985,
      "kne": 8986,
      "Ġkomercija": 8987,
      "ĠÐ´Ð¾Ð¶Ð¸Ð²ÑĻ": 8988,
      "Ġvrstu": 8989,
[...]
