{
  "[PAD]": 0,
  "[UNK]": 1,
  "[CLS]": 2,
  "[SEP]": 3,
  "[MASK]": 4,
  "!": 5,
  "\"": 6,
  "#": 7,
  "$": 8,
  "%": 9,
  "&": 10,
  "'": 11,
  "(": 12,
  ")": 13,
  "*": 14,
  "+": 15,
  ",": 16,
  "-": 17,
  ".": 18,
  "/": 19,
  "0": 20,
  "1": 21,
  "2": 22,
  "3": 23,
  "4": 24,
  "5": 25,
  "6": 26,
  "7": 27,
  "8": 28,
  "9": 29,
  ":": 30,
  ";": 31,
  "<": 32,
  "=": 33,
  ">": 34,
  "?": 35,
  "@": 36,
  "A": 37,
  "B": 38,
  "C": 39,
  "D": 40,
  "E": 41,
  "F": 42,
  "G": 43,
  "H": 44,
  "I": 45,
  "J": 46,
  "K": 47,
  "L": 48,
  "M": 49,
  "N": 50,
  "O": 51,
  "P": 52,
  "Q": 53,
  "R": 54,
  "S": 55,
  "T": 56,
  "U": 57,
  "V": 58,
  "W": 59,
  "X": 60,
  "Y": 61,
  "Z": 62,
  "[": 63,
  "\\": 64,
  "]": 65,
  "^": 66,
  "_": 67,
  "`": 68,
  "a": 69,
  "b": 70,
  "c": 71,
  "d": 72,
  "e": 73,
  "f": 74,
  "g": 75,
  "h": 76,
  "i": 77,
  "j": 78,
  "k": 79,
  "l": 80,
  "m": 81,
  "n": 82,
  "o": 83,
  "p": 84,
  "q": 85,
  "r": 86,
  "s": 87,
  "t": 88,
  "u": 89,
  "v": 90,
  "w": 91,
  "x": 92,
  "y": 93,
  "z": 94,
  "{": 95,
  "|": 96,
  "}": 97,
  "~": 98,
  "�": 28357,
  "\u0000": 193,
  "\u0001": 194,
  "\u0002": 195,
  "\u0003": 196,
  "\u0004": 197,
  "\u0005": 198,
  "\u0006": 199,
  "\u0007": 200,
  "\b": 201,
  "\t": 202,
  "\n": 203,
  "\u000b": 204,
  "\f": 205,
  "\r": 206,
  "\u000e": 207,
  "\u000f": 208,
  "\u0010": 209,
  "\u0011": 210,
  "\u0012": 211,
  "\u0013": 212,
  "\u0014": 213,
  "\u0015": 214,
  "\u0016": 215,
  "\u0017": 216,
  "\u0018": 217,
  "\u0019": 218,
  "\u001a": 219,
  "\u001b": 220,
  "\u001c": 221,
  "\u001d": 222,
  "\u001e": 223,
  "\u001f": 224,
  " ": 225,
  "": 226,
  "x ": 261,
  "U ": 262,
  "e ": 263,
  "u ": 264,
  "o ": 265,
  "n ": 266,
  "E ": 267,
  "i ": 268,
  "g ": 269,
  "F ": 270,
  "z ": 271,
  "T ": 272,
  "a ": 273,
  "s ": 274,
  "X ": 275,
  "0 ": 276,
  "v ": 277,
  "7 ": 278,
  "� ": 2022,
  "m ": 280,
  "O ": 281,
  "h ": 282,
  "t ": 283,
  "j ": 284,
  "2 ": 285,
  "A ": 287,
  "r ": 288,
  "8 ": 289,
  "k ": 290,
  "d ": 291,
  "l ": 292,
  "H ": 293,
  "1 ": 296,
  "_ ": 298,
  "R ": 300,
  "c ": 304,
  "C ": 309,
  "4 ": 314,
  "N ": 317,
  "G ": 318,
  "* ": 319,
  "I ": 320,
  "3 ": 321,
  "y ": 322,
  "5 ": 323,
  "P ": 325,
  "6 ": 327,
  "M ": 328,
  "- ": 329,
  "Y ": 333,
  "9 ": 336,
  "J ": 337,
  "b ": 338,
  "q ": 342,
  "( ": 346,
  "p ": 347,
  "Z ": 353,
  "V ": 354,
  "! ": 355,
  "f ": 356,
  ". ": 357,
  ", ": 359,
  "S ": 361,
  "K ": 363,
  "+ ": 366,
  "B ": 367,
  ": ": 368,
  "D ": 372,
  "L ": 373,
  "> ": 375,
  "w ": 379,
  "\u0010 ": 386,
  "W ": 390,
  "% ": 393,
  "\u0003 ": 394,
  "< ": 395,
  ") ": 400,
  "\" ": 401,
  "Q ": 402,
  "\u0014 ": 403,
  "\\ ": 404,
  "/ ": 405,
  "\u0011 ": 406,
  "\u0017 ": 407,
  "^ ": 408,
  "= ": 409,
  "' ": 410,
  "; ": 411,
  "\b ": 412,
  "\u0006 ": 413,
  "? ": 414,
  "[ ": 415,
  "\u000f ": 416,
  "] ": 417,
  "# ": 418,
  "$ ": 419,
  "` ": 420,
  "\u0001 ": 421,
  "\u0012 ": 422,
  " ": 423,
  "{ ": 424,
  "\u001a ": 425,
  "\u001b ": 426,
  "@ ": 427,
  "\u0018 ": 428,
  "& ": 429,
  "\u0016 ": 430,
  "} ": 431,
  "\u0005 ": 432,
  "\u0013 ": 433,
  "\u0019 ": 434,
  "\u0015 ": 435,
  "~ ": 436,
  "| ": 437,
  "\u0007 ": 438,
  "\u0004 ": 439,
  "\u000e ": 440,
  "\u0002 ": 441,
  "\u0000 ": 442,
  "je ": 443,
  "st": 444,
  "ra": 445,
  "en": 446,
  "ko": 447,
  "an": 448,
  "re": 449,
  "po": 450,
  "č": 451,
  "š": 452,
  "in": 453,
  "ov": 454,
  "ri": 455,
  "ni": 456,
  "ro": 457,
  "na": 458,
  "ja ": 459,
  "no": 460,
  "li": 461,
  "da ": 462,
  "ž": 463,
  "ci": 464,
  "na ": 465,
  "ti": 466,
  "od": 467,
  "av": 468,
  "ka": 469,
  "je": 470,
  "ć": 471,
  "ma ": 472,
  "te": 473,
  "al": 474,
  "se ": 475,
  "ju ": 476,
  "la": 477,
  "sk": 478,
  "ve": 479,
  "or": 480,
  "ne ": 481,
  "il": 482,
  "za": 483,
  "ta": 484,
  "lj": 485,
  "me": 486,
  "ob": 487,
  "pre": 488,
  "vi": 489,
  "va": 490,
  "le": 491,
  "no ": 492,
  "vo": 493,
  "ne": 494,
  "ru": 495,
  "ka ": 496,
  "pro": 497,
  "za ": 498,
  "ma": 499,
  "su ": 501,
  "de": 502,
  "mo": 503,
  "ji ": 504,
  "iz": 505,
  "đ": 506,
  "sa": 507,
  "di": 508,
  "ti ": 509,
  "ta ": 510,
  "to": 511,
  "ih ": 512,
  "pri": 513,
  "sa ": 514,
  "ko ": 515,
  "lo": 516,
  "si": 517,
  "se": 518,
  "do": 519,
  "men": 520,
  "ni ": 521,
  "zi": 522,
  "sti ": 523,
  "št": 524,
  "ar": 525,
  "bi": 526,
  "od ": 527,
  "mi": 528,
  "sl": 529,
  "pi": 530,
  "pe": 531,
  "om ": 532,
  "anje ": 533,
  "va ": 534,
  "ja": 535,
  "ke ": 536,
  "gra": 537,
  "anja ": 538,
  "pa": 539,
  "da": 540,
  "im ": 541,
  "raz": 542,
  "tu": 543,
  "sti": 544,
  "ku": 545,
  "nih ": 546,
  "te ": 547,
  "ra ": 548,
  "st ": 549,
  "pra": 550,
  "sko": 551,
  "la ": 552,
  "ine ": 553,
  "nog ": 554,
  "či": 555,
  "su": 556,
  "mo ": 557,
  "pu": 558,
  "cije ": 559,
  "kao ": 560,
  "stav": 561,
  "ili ": 562,
  "pr": 563,
  "red": 564,
  "koji ": 565,
  "bo": 566,
  "nj": 567,
  "jed": 568,
  "če": 569,
  "ć ": 570,
  "sta": 571,
  "ca ": 572,
  "be": 573,
  "20": 574,
  "gov": 575,
  "ga ": 576,
  "ži": 577,
  "nosti ": 578,
  "će ": 579,
  "du": 580,
  "nov": 581,
  "tiv": 582,
  "vr": 583,
  "ima ": 584,
  "tra": 585,
  "sto": 586,
  "ci ": 587,
  "ju": 588,
  "ča": 589,
  "me ": 590,
  "ku ": 591,
  "god": 592,
  "dru": 593,
  "os": 594,
  "ina ": 595,
  "cija ": 596,
  "to ": 597,
  "ve ": 598,
  "zna": 599,
  "stra": 600,
  "is": 601,
  "de ": 602,
  "li ": 603,
  "kon": 604,
  "ali ": 605,
  "vo ": 606,
  "nom ": 607,
  "ena ": 608,
  "što ": 609,
  "gu": 610,
  "ce": 611,
  "ani": 612,
  "er": 613,
  "19": 614,
  "ce ": 615,
  "go": 616,
  "ske ": 617,
  "ak": 618,
  "tre": 619,
  "nim ": 620,
  "ći ": 621,
  "ana ": 622,
  "fi": 623,
  "nu ": 624,
  "jen": 625,
  "že ": 626,
  "pred": 627,
  "gi": 628,
  "lu": 629,
  "iz ": 630,
  "lju": 631,
  "nije ": 632,
  "dr": 633,
  "„ ": 634,
  "ki ": 635,
  "ski ": 636,
  "nost ": 637,
  "). ": 638,
  "ga": 639,
  "og ": 640,
  "bil": 641,
  "bi ": 642,
  "kom ": 643,
  "tr": 644,
  "ze": 645,
  "jem ": 646,
  "ran": 647,
  "enja ": 648,
  "..": 649,
  "koje ": 650,
  "ora ": 651,
  "še ": 652,
  "so": 653,
  "stu": 654,
  "do ": 655,
  "svo": 656,
  "vod": 657,
  "naj": 658,
  "ste": 659,
  "cen": 660,
  "ini": 661,
  "du ": 662,
  "mu": 663,
  "– ": 664,
  "ova ": 665,
  "treb": 666,
  "zu": 667,
  "di ": 668,
  "ana": 669,
  "jav": 670,
  "ala ": 671,
  "enje ": 672,
  "ven": 673,
  "cio": 674,
  "tu ": 675,
  "bu": 676,
  "odno": 677,
  "spo": 678,
  "'' ": 679,
  "Po": 680,
  "vi ": 681,
  "sve": 682,
  "for": 683,
  "skog ": 684,
  "lja ": 685,
  "le ": 686,
  "že": 687,
  "ba": 688,
  "tič": 689,
  "pa ": 690,
  "), ": 691,
  "op": 692,
  "godine ": 693,
  "Sr": 694,
  "ska ": 695,
  "drž": 696,
  "tro": 697,
  "ća ": 698,
  "oj ": 699,
  "slu": 700,
  "dob": 701,
  "koja ": 702,
  "man": 703,
  "stan": 704,
  "prav": 705,
  "mu ": 706,
  "201": 707,
  "Na": 708,
  "re ": 709,
  "spe": 710,
  "ova": 711,
  "nje": 712,
  "sta ": 713,
  "međ": 714,
  "drug": 715,
  "ek": 716,
  "skih ": 717,
  "nji": 718,
  "ene ": 719,
  "će": 720,
  "ri ": 721,
  "kori": 722,
  "teri": 723,
  "ava ": 724,
  "hi": 725,
  "vred": 726,
  "kri": 727,
  "po ": 728,
  "“ ": 729,
  "ca": 730,
  "gu ": 731,
  "kra": 732,
  "on": 733,
  "inte": 734,
  "eni ": 735,
  "van": 736,
  "ove ": 737,
  "ciju ": 738,
  "zi ": 739,
  "Š": 740,
  "vre": 741,
  "lo ": 742,
  "bro": 743,
  "ila ": 744,
  "ina": 745,
  "ini ": 746,
  "nika ": 747,
  "200": 748,
  "ču": 749,
  "nu": 750,
  "stru": 751,
  "posl": 752,
  "ver": 753,
  "ovi": 754,
  "sle": 755,
  "ok": 756,
  "š ": 757,
  "cij": 758,
  "lji": 759,
  "eni": 760,
  "ze ": 761,
  "Srbi": 762,
  "eno ": 763,
  "koj": 764,
  "razli": 765,
  "lek": 766,
  "može ": 767,
  "Ka": 768,
  "gle": 769,
  "ste ": 770,
  "lič": 771,
  "ut": 772,
  "ši": 773,
  "kom": 774,
  "ređ": 775,
  "mal": 776,
  "rad": 777,
  "uč": 778,
  "sto ": 779,
  "kako ": 780,
  "pit": 781,
  "noj ": 782,
  "nič": 783,
  "kog ": 784,
  "stič": 785,
  "mi ": 786,
  "si ": 787,
  "tim ": 788,
  "met": 789,
  "ogra": 790,
  "ot": 791,
  "še": 792,
  "on ": 793,
  "poli": 794,
  "aju ": 795,
  "ori": 796,
  "vanja ": 797,
  "nal": 798,
  "kre": 799,
  "dov": 800,
  "osnov": 801,
  "anju ": 802,
  "pod": 803,
  "ɨ": 804,
  "fe": 805,
  "stva": 806,
  "ima": 807,
  "lan": 808,
  "samo ": 809,
  "Re": 810,
  "potreb": 811,
  "više ": 812,
  "ɢ": 813,
  "sred": 814,
  "mogu": 815,
  "ru ": 816,
  "pot": 817,
  "den": 818,
  "skom ": 819,
  "Be": 820,
  "nje ": 821,
  "liko ": 822,
  "nik ": 823,
  "sve ": 824,
  "sno ": 825,
  "kada ": 826,
  "ɚ": 827,
  "zav": 828,
  "kih ": 829,
  "ki": 830,
  "kod ": 831,
  "vanje ": 832,
  "00 ": 833,
  "tom ": 834,
  "uz": 835,
  "tno ": 836,
  "org": 837,
  "Ta": 838,
  "vla": 839,
  "rod": 840,
  "predstav": 841,
  "gl": 842,
  "među ": 843,
  "gen": 844,
  "lje ": 845,
  "sva": 846,
  "ho": 847,
  "pla": 848,
  "ɨ�": 849,
  "go ": 850,
  "tal": 851,
  "ciji ": 852,
  "un": 853,
  "bli": 854,
  "mod": 855,
  "pove": 856,
  "gru": 857,
  "posto": 858,
  "ave": 859,
  "bra": 860,
  "an ": 861,
  "cu ": 862,
  "znača": 863,
  "siste": 864,
  "inu ": 865,
  "ću ": 866,
  "san": 867,
  "Za": 868,
  "kon ": 869,
  "lu ": 870,
  "dan ": 871,
  "bio ": 872,
  "gla": 873,
  "sam ": 874,
  "šta ": 875,
  "biti ": 876,
  "ge": 877,
  "he": 878,
  "živo": 879,
  "klju": 880,
  "., ": 881,
  "Me": 882,
  "rav": 883,
  "ɚ�": 884,
  "ɢ�": 885,
  "vu ": 886,
  "Ne": 887,
  "fa": 888,
  "sli": 889,
  "skim ": 890,
  "ovi ": 891,
  "ge ": 892,
  "ren": 893,
  "ovan": 894,
  "cima ": 895,
  "Ra": 896,
  "stva ": 897,
  "odgov": 898,
  "proiz": 899,
  "stvo ": 900,
  "đe ": 901,
  "loš": 902,
  "rij": 903,
  "tor": 904,
  "rek": 905,
  "min": 906,
  "ako ": 907,
  "mena ": 908,
  "jer ": 909,
  "ara ": 910,
  "tek": 911,
  "koliko ": 912,
  "veli": 913,
  "vrš": 914,
  "istra": 915,
  "či ": 916,
  "ona ": 917,
  "kup": 918,
  "jući ": 919,
  "lta": 920,
  "im": 921,
  "hod": 922,
  "ško": 923,
  "sni": 924,
  "zem": 925,
  "prema ": 926,
  "bilo ": 927,
  "rak": 928,
  "kul": 929,
  "ɟ": 930,
  "pose": 931,
  "hva": 932,
  "jama ": 933,
  "bog ": 934,
  "mogu ": 935,
  "ša": 936,
  "zan": 937,
  "Č": 938,
  "ter": 939,
  "stup": 940,
  "sku": 941,
  "par": 942,
  "sr": 943,
  "enih ": 944,
  "lje": 945,
  "Ko": 946,
  "cional": 947,
  "svi": 948,
  "dal": 949,
  "Na ": 950,
  "između ": 951,
  "proce": 952,
  "zulta": 953,
  "tako ": 954,
  "kro": 955,
  "tak": 956,
  "njegov": 957,
  "Ma": 958,
  "“": 959,
  "njih": 960,
  "teta ": 961,
  "rom ": 962,
  "dok ": 963,
  "vić ": 964,
  "eno": 965,
  "tri": 966,
  "određ": 967,
  "ovog ": 968,
  "ove": 969,
  "voj": 970,
  "anali": 971,
  "kva": 972,
  "kim ": 973,
  "svoj": 974,
  "zo": 975,
  "jo": 976,
  "glav": 977,
  "uti": 978,
  "držav": 979,
  "šti": 980,
  "pozi": 981,
  "dobi": 982,
  "ović ": 983,
  "Sa": 984,
  "jek": 985,
  "smo ": 986,
  "stal": 987,
  "ɟ�": 988,
  "pe ": 989,
  "već ": 990,
  "10 ": 991,
  "sluča": 992,
  "....": 993,
  "be ": 994,
  "br": 995,
  "lja": 996,
  "ha": 997,
  "istraži": 998,
  "sma": 999,
  "đu": 1000,
  "199": 1001,
  "struk": 1002,
  "moguć": 1003,
  "skoj ": 1004,
  "poka": 1005,
  "logi": 1006,
  "fo": 1007,
  "poda": 1008,
  "društ": 1009,
  "fin": 1010,
  "cijal": 1011,
  "različi": 1012,
  "ča ": 1013,
  "isto": 1014,
  "vor": 1015,
  "č ": 1016,
  "jedin": 1017,
  "sku ": 1018,
  "fun": 1019,
  "aniza": 1020,
  "pret": 1021,
  "aktiv": 1022,
  "Mi": 1023,
  "peri": 1024,
  "tin": 1025,
  "bila ": 1026,
  "zbog ": 1027,
  "au": 1028,
  "šć": 1029,
  "Pro": 1030,
  "čno ": 1031,
  "odnosno ": 1032,
  "­ ": 1033,
  "oda": 1034,
  "ba ": 1035,
  "sko ": 1036,
  "Beogra": 1037,
  "18": 1038,
  "ble": 1039,
  "vro": 1040,
  "tne ": 1041,
  "20 ": 1042,
  "značaj": 1043,
  "nala": 1044,
  "mno": 1045,
  "ovom ": 1046,
  "poče": 1047,
  "avi": 1048,
  "forma": 1049,
  "pozna": 1050,
  "Pre": 1051,
  "gre": 1052,
  "ɚ ": 1053,
  "ele": 1054,
  "ovo ": 1055,
  "mer": 1056,
  "čin ": 1057,
  "Pri": 1058,
  "lož": 1059,
  "rezulta": 1060,
  "In": 1061,
  "razu": 1062,
  "Srbije ": 1063,
  "godina ": 1064,
  "val": 1065,
  "cr": 1066,
  "mene ": 1067,
  "nici ": 1068,
  "funk": 1069,
  "toga ": 1070,
  "razvo": 1071,
  "avanje ": 1072,
  "jezi": 1073,
  "obra": 1074,
  "mode": 1075,
  "Ni": 1076,
  "stu ": 1077,
  "fika": 1078,
  "ranje ": 1079,
  "naš": 1080,
  "srp": 1081,
  "obi": 1082,
  "pre ": 1083,
  "treba ": 1084,
  "ava": 1085,
  "ovima ": 1086,
  "tih ": 1087,
  "bez ": 1088,
  "Ve": 1089,
  "tima ": 1090,
  "ji": 1091,
  "tora ": 1092,
  "ata ": 1093,
  "De": 1094,
  "izra": 1095,
  "per": 1096,
  "broj ": 1097,
  "” ": 1098,
  "enju ": 1099,
  "šta": 1100,
  "tor ": 1101,
  "rodi": 1102,
  "strane ": 1103,
  "nastav": 1104,
  "dar": 1105,
  "vom ": 1106,
  "��": 11421,
  "vrednosti ": 1108,
  "nja ": 1109,
  "gde ": 1110,
  "ur": 1111,
  "ĉ": 1112,
  "deo ": 1113,
  "para": 1114,
  "komp": 1115,
  "kono": 1116,
  "ke": 1117,
  "čin": 1118,
  "postav": 1119,
  "liza": 1120,
  "prin": 1121,
  "menta": 1122,
  "una": 1123,
  "kođe ": 1124,
  "zu ": 1125,
  "Ć ": 1126,
  "lika ": 1127,
  "pore": 1128,
  "pravo ": 1129,
  "pl": 1130,
  "kr": 1131,
  "proble": 1132,
  "način ": 1133,
  "jan": 1134,
  "usl": 1135,
  "nisu ": 1136,
  "us": 1137,
  "olj": 1138,
  "pod ": 1139,
  "Mo": 1140,
  "inter": 1141,
  "lju ": 1142,
  "Je": 1143,
  "raju ": 1144,
  "ranja ": 1145,
  "tri ": 1146,
  "govor": 1147,
  "zajed": 1148,
  "jedan ": 1149,
  "kultu": 1150,
  "teh": 1151,
  "dana ": 1152,
  "če ": 1153,
  "još ": 1154,
  "zbe": 1155,
  "sadrž": 1156,
  "građ": 1157,
  "pera": 1158,
  "avanja ": 1159,
  "organiza": 1160,
  "nakon ": 1161,
  "zah": 1162,
  "čke ": 1163,
  "alo ": 1164,
  "ovanja ": 1165,
  "ɪ": 1166,
  "kla": 1167,
  "tak ": 1168,
  "prime": 1169,
  "zd": 1170,
  "ro ": 1171,
  "mar": 1172,
  "kar": 1173,
  "ilo ": 1174,
  "karak": 1175,
  "tran": 1176,
  "tet ": 1177,
  "posle": 1178,
  "mini": 1179,
  "bor": 1180,
  "enog ": 1181,
  "sed": 1182,
  "ži ": 1183,
  "kal": 1184,
  "ţ": 1185,
  "oko ": 1186,
  "fil": 1187,
  "medi": 1188,
  "ad": 1189,
  "nji ": 1190,
  "odlu": 1191,
  "pad": 1192,
  "vima ": 1193,
  "__": 1194,
  "osnovu ": 1195,
  "odnosu ": 1196,
  "vreme ": 1197,
  "stven": 1198,
  "jima ": 1199,
  "zavis": 1200,
  "pomo": 1201,
  "dva ": 1202,
  "ten": 1203,
  "utica": 1204,
  "tan": 1205,
  "vra": 1206,
  "Bo": 1207,
  "tokom ": 1208,
  "mb": 1209,
  "kan": 1210,
  "kojima ": 1211,
  "imaju ": 1212,
  "zašti": 1213,
  "uve": 1214,
  "tra ": 1215,
  "io ": 1216,
  "njih ": 1217,
  "nju ": 1218,
  "vrop": 1219,
  "Pe": 1220,
  "ist": 1221,
  "primen": 1222,
  "he ": 1223,
  "materi": 1224,
  "... ": 1225,
  "rije ": 1226,
  "van ": 1227,
  "nice ": 1228,
  "osob": 1229,
  "poseb": 1230,
  "šte ": 1231,
  "cu": 1232,
  "fer": 1233,
  "struktu": 1234,
  "rt": 1235,
  "šte": 1236,
  "12 ": 1237,
  "ća": 1238,
  "uče": 1239,
  "uz ": 1240,
  "radi": 1241,
  "važ": 1242,
  "samo": 1243,
  "čne ": 1244,
  "rima ": 1245,
  "ral": 1246,
  "publi": 1247,
  "''": 1248,
  "uze": 1249,
  "slob": 1250,
  "prika": 1251,
  "iza": 1252,
  "proizvod": 1253,
  "druge ": 1254,
  "Ž": 1255,
  "ide": 1256,
  "reš": 1257,
  "sna": 1258,
  "prava ": 1259,
  "kvali": 1260,
  "rija ": 1261,
  "osta": 1262,
  "dovolj": 1263,
  "knji": 1264,
  "obave": 1265,
  "zuje ": 1266,
  "dela ": 1267,
  "popu": 1268,
  "tren": 1269,
  "ispi": 1270,
  "kroz ": 1271,
  "sla": 1272,
  "koj ": 1273,
  "meta": 1274,
  "15 ": 1275,
  "ɧ": 1276,
  "ɟ ": 1277,
  "svoje ": 1278,
  "rž": 1279,
  "predu": 1280,
  "nica ": 1281,
  "nego ": 1282,
  "oma ": 1283,
  "in ": 1284,
  "hra": 1285,
  "grad": 1286,
  "dana": 1287,
  "meri": 1288,
  "en ": 1289,
  "Za ": 1290,
  "ovanje ": 1291,
  "pri ": 1292,
  "lji ": 1293,
  "uspe": 1294,
  "koju ": 1295,
  "el": 1296,
  "avaju ": 1297,
  "manje ": 1298,
  "tome ": 1299,
  "11 ": 1300,
  "Ru": 1301,
  "taka ": 1302,
  "čki ": 1303,
  "obla": 1304,
  "gene": 1305,
  "okvi": 1306,
  "ara": 1307,
  "ruž": 1308,
  "smatra": 1309,
  "tiv ": 1310,
  "jal": 1311,
  "uje ": 1312,
  "izve": 1313,
  "kontro": 1314,
  "nivo": 1315,
  "ani ": 1316,
  "tera": 1317,
  "log ": 1318,
  "vođ": 1319,
  "Ju": 1320,
  "regi": 1321,
  "cijama ": 1322,
  "stima ": 1323,
  "ekono": 1324,
  "10": 1325,
  "Va": 1326,
  "informa": 1327,
  "stitu": 1328,
  "sob": 1329,
  "centra": 1330,
  "50 ": 1331,
  "bili ": 1332,
  "cijen": 1333,
  "pak ": 1334,
  "sigu": 1335,
  "tna ": 1336,
  "ljudi ": 1337,
  "zahte": 1338,
  "tog ": 1339,
  "plo": 1340,
  "sman": 1341,
  "politič": 1342,
  "ksi": 1343,
  "vremen": 1344,
  "lin": 1345,
  "tni ": 1346,
  "rada ": 1347,
  "pis": 1348,
  "ban": 1349,
  "nad": 1350,
  "bav": 1351,
  "30 ": 1352,
  "elek": 1353,
  "“, ": 1354,
  "janje ": 1355,
  "ši ": 1356,
  "karakteri": 1357,
  "tvr": 1358,
  "utvr": 1359,
  "fak": 1360,
  "radi ": 1361,
  "198": 1362,
  "skla": 1363,
  "progra": 1364,
  "izi": 1365,
  "predstavlja ": 1366,
  "obraz": 1367,
  "oni ": 1368,
  "al ": 1369,
  "sistema ": 1370,
  "vodi ": 1371,
  "tnih ": 1372,
  "obe": 1373,
  "spek": 1374,
  "ɢ ": 1375,
  "21 ": 1376,
  "of ": 1377,
  "and ": 1378,
  "Te": 1379,
  "ša ": 1380,
  "ʁ": 1381,
  "već": 1382,
  "kad ": 1383,
  "obli": 1384,
  "cijom ": 1385,
  "ovih ": 1386,
  "duž": 1387,
  "ha ": 1388,
  "liz": 1389,
  "iti ": 1390,
  "spre": 1391,
  "ansi": 1392,
  "viso": 1393,
  "doda": 1394,
  "zn": 1395,
  "poveć": 1396,
  "uka": 1397,
  "or ": 1398,
  "uklju": 1399,
  "star": 1400,
  "čka ": 1401,
  "muni": 1402,
  "nave": 1403,
  "tar ": 1404,
  "Vi": 1405,
  "organ": 1406,
  "dom ": 1407,
  "cep": 1408,
  "lom ": 1409,
  "naro": 1410,
  "lar": 1411,
  "smi": 1412,
  "obu": 1413,
  "bri": 1414,
  "mp": 1415,
  "mor": 1416,
  "lj ": 1417,
  "procen": 1418,
  "upotreb": 1419,
  "raču": 1420,
  "formi": 1421,
  "Srbiji ": 1422,
  "razume": 1423,
  "To ": 1424,
  "Mil": 1425,
  "ljaju ": 1426,
  "postoji ": 1427,
  "000 ": 1428,
  "stava ": 1429,
  "mla": 1430,
  "nač": 1431,
  "rea": 1432,
  "ostva": 1433,
  "enim ": 1434,
  "cija": 1435,
  "dan": 1436,
  "Do": 1437,
  "”": 1438,
  "uprav": 1439,
  "ran ": 1440,
  "ing ": 1441,
  "ug": 1442,
  "dola": 1443,
  "pojav": 1444,
  "sre": 1445,
  "lica ": 1446,
  "prov": 1447,
  "direk": 1448,
  "sao ": 1449,
  "ode": 1450,
  "dve ": 1451,
  "svet": 1452,
  "ser": 1453,
  "studi": 1454,
  "znač": 1455,
  "14 ": 1456,
  "korišć": 1457,
  "bole": 1458,
  "rela": 1459,
  "Iz": 1460,
  "preko ": 1461,
  "jom ": 1462,
  "zako": 1463,
  "objav": 1464,
  "ama ": 1465,
  "obzi": 1466,
  "AN": 1467,
  "22 ": 1468,
  "Mar": 1469,
  "aja ": 1470,
  "Pr": 1471,
  "tivno ": 1472,
  "prisu": 1473,
  "bude ": 1474,
  "poru": 1475,
  "del": 1476,
  "it": 1477,
  "mora ": 1478,
  "lan ": 1479,
  "privred": 1480,
  "Di": 1481,
  "politi": 1482,
  "intere": 1483,
  "Među": 1484,
  "iš": 1485,
  "enom ": 1486,
  "finansi": 1487,
  "sek": 1488,
  "ovaj ": 1489,
  "tua": 1490,
  "13 ": 1491,
  "Od": 1492,
  "nema ": 1493,
  "čak ": 1494,
  "miš": 1495,
  "prak": 1496,
  "rš": 1497,
  "ovu ": 1498,
  "aut": 1499,
  "vog ": 1500,
  "loga ": 1501,
  "prost": 1502,
  "potpu": 1503,
  "uzi": 1504,
  "ɫ�": 1505,
  "sil": 1506,
  "mog": 1507,
  "ap": 1508,
  "remen": 1509,
  "anjem ": 1510,
  "kata ": 1511,
  "plan": 1512,
  "takođe ": 1513,
  "preduze": 1514,
  "vih ": 1515,
  "An": 1516,
  "protiv ": 1517,
  "ener": 1518,
  "Se": 1519,
  "istraživanja ": 1520,
  "porodi": 1521,
  "mat": 1522,
  "zdrav": 1523,
  "tivne ": 1524,
  "16 ": 1525,
  "prili": 1526,
  "Đ": 1527,
  "janja ": 1528,
  "rad ": 1529,
  "auto": 1530,
  "Ba": 1531,
  "ković ": 1532,
  "25 ": 1533,
  "danas ": 1534,
  "18 ": 1535,
  "tka ": 1536,
  "vode ": 1537,
  "19 ": 1538,
  "Pa": 1539,
  "zaklju": 1540,
  "Da ": 1541,
  "slo": 1542,
  "sije ": 1543,
  "aj ": 1544,
  "unu": 1545,
  "slučaju ": 1546,
  "mesto ": 1547,
  "ode ": 1548,
  "tnog ": 1549,
  "svih ": 1550,
  "vanju ": 1551,
  "taj ": 1552,
  "ime ": 1553,
  "ɩ": 1554,
  "ose": 1555,
  "Le": 1556,
  "društven": 1557,
  "fek": 1558,
  "ost ": 1559,
  "sme": 1560,
  "grupe ": 1561,
  "vu": 1562,
  "ljanje ": 1563,
  "odu ": 1564,
  "posle ": 1565,
  "sada ": 1566,
  "ćeli": 1567,
  "man ": 1568,
  "sav": 1569,
  "razvi": 1570,
  "ig": 1571,
  "dese": 1572,
  "veoma ": 1573,
  "II ": 1574,
  "gosl": 1575,
  "Vo": 1576,
  "tan ": 1577,
  "brz": 1578,
  "svim ": 1579,
  "stri": 1580,
  "enjem ": 1581,
  "sin": 1582,
  "ane ": 1583,
  "verzi": 1584,
  "ukup": 1585,
  "pada ": 1586,
  "ɭ": 1587,
  "Cr": 1588,
  "stanov": 1589,
  "služ": 1590,
  "nja": 1591,
  "dra": 1592,
  "et ": 1593,
  "niji ": 1594,
  "........": 1595,
  "prethod": 1596,
  "co": 1597,
  "raspo": 1598,
  "šnj": 1599,
  "žu ": 1600,
  "šu ": 1601,
  "red ": 1602,
  "stvu ": 1603,
  "podataka ": 1604,
  "Su": 1605,
  "ološ": 1606,
  "površ": 1607,
  "voda ": 1608,
  "lini": 1609,
  "ment ": 1610,
  "mili": 1611,
  "ula": 1612,
  "daju ": 1613,
  "lov": 1614,
  "čnih ": 1615,
  "veći ": 1616,
  "projek": 1617,
  "izno": 1618,
  "denti": 1619,
  "izd": 1620,
  "17 ": 1621,
  "igra": 1622,
  "Bi": 1623,
  "zuju ": 1624,
  "ništ": 1625,
  "kojoj ": 1626,
  "nekoliko ": 1627,
  "tion ": 1628,
  "šće ": 1629,
  "ispitiv": 1630,
  "Republi": 1631,
  "nazi": 1632,
  "fizi": 1633,
  "ljena ": 1634,
  "situa": 1635,
  "osti ": 1636,
  "por": 1637,
  "ale ": 1638,
  "tem": 1639,
  "kama ": 1640,
  "aktivnosti ": 1641,
  "To": 1642,
  "član": 1643,
  "ekonom": 1644,
  "Evrop": 1645,
  "mom ": 1646,
  "197": 1647,
  "đi": 1648,
  "sne ": 1649,
  "promen": 1650,
  "ispit": 1651,
  "noš": 1652,
  "slede": 1653,
  "RA": 1654,
  "ud": 1655,
  "okviru ": 1656,
  "održ": 1657,
  "vati ": 1658,
  "uvek ": 1659,
  "cama ": 1660,
  "nacional": 1661,
  "ljen ": 1662,
  "kraj": 1663,
  "Naj": 1664,
  "nen": 1665,
  "Vu": 1666,
  "ST": 1667,
  "din": 1668,
  "anti": 1669,
  "jeni": 1670,
  "mr": 1671,
  "one ": 1672,
  "enu ": 1673,
  "Dru": 1674,
  "kov": 1675,
  "učeni": 1676,
  "ch": 1677,
  "kli": 1678,
  "pi ": 1679,
  "sarad": 1680,
  "mese": 1681,
  "pred ": 1682,
  "bela ": 1683,
  "oče": 1684,
  "gor": 1685,
  "La": 1686,
  "24 ": 1687,
  "umet": 1688,
  "jen ": 1689,
  "komuni": 1690,
  "dalje ": 1691,
  "Slika ": 1692,
  "ala": 1693,
  "’ ": 1694,
  "lež": 1695,
  "rizi": 1696,
  "glas": 1697,
  "opi": 1698,
  "put ": 1699,
  "drugih ": 1700,
  "predsed": 1701,
  "lih ": 1702,
  "postup": 1703,
  "oblasti ": 1704,
  "trži": 1705,
  "ljanja ": 1706,
  "Vla": 1707,
  "fini": 1708,
  "čkog ": 1709,
  "čnog ": 1710,
  "standar": 1711,
  "stati": 1712,
  "pristu": 1713,
  "vrednost ": 1714,
  "kor": 1715,
  "odgovor": 1716,
  "Li": 1717,
  "pu ": 1718,
  "dav": 1719,
  "nas ": 1720,
  "Beograd ": 1721,
  "kret": 1722,
  "drugi ": 1723,
  "nepo": 1724,
  "kat ": 1725,
  "Međutim ": 1726,
  "gao ": 1727,
  "mre": 1728,
  "tele": 1729,
  "riji ": 1730,
  "prvi ": 1731,
  "17": 1732,
  "kin": 1733,
  "teš": 1734,
  "Sve": 1735,
  "14": 1736,
  "kak": 1737,
  "onda ": 1738,
  "čni ": 1739,
  "inama ": 1740,
  "feren": 1741,
  "Ako ": 1742,
  "čna ": 1743,
  "posebno ": 1744,
  "nam ": 1745,
  "Ova": 1746,
  "obezbe": 1747,
  "lim ": 1748,
  "jih ": 1749,
  "teori": 1750,
  "koristi ": 1751,
  "jan ": 1752,
  "vat": 1753,
  "ene": 1754,
  "ža ": 1755,
  "opšt": 1756,
  "čl": 1757,
  "jala ": 1758,
  "polj": 1759,
  "save": 1760,
  "zije ": 1761,
  "ras": 1762,
  "vaju ": 1763,
  "\", ": 1764,
  "13": 1765,
  "vremena ": 1766,
  "posta": 1767,
  "grafi": 1768,
  "gi ": 1769,
  "nešto ": 1770,
  "ovim ": 1771,
  "san ": 1772,
  "izvrš": 1773,
  "ulo": 1774,
  "snika ": 1775,
  "zaposl": 1776,
  "mnogo ": 1777,
  "Kon": 1778,
  "jedno": 1779,
  "23 ": 1780,
  "krivi": 1781,
  "nor": 1782,
  "tar": 1783,
  "“. ": 1784,
  "može": 1785,
  "puta ": 1786,
  "ter ": 1787,
  "ona": 1788,
  "dro": 1789,
  "oko": 1790,
  "omoguć": 1791,
  "stv": 1792,
  "malo ": 1793,
  "sija ": 1794,
  "ile ": 1795,
  "meni": 1796,
  "lima ": 1797,
  "elemen": 1798,
  "gađ": 1799,
  "nev": 1800,
  "nalazi ": 1801,
  "zvo": 1802,
  "identi": 1803,
  "sor": 1804,
  "doma": 1805,
  "smisl": 1806,
  "gije ": 1807,
  "grada ": 1808,
  "sima ": 1809,
  "uslu": 1810,
  "ev": 1811,
  "ar ": 1812,
  "vari": 1813,
  "neu": 1814,
  "RE": 1815,
  "čan ": 1816,
  "inom ": 1817,
  "izo": 1818,
  "pogle": 1819,
  "jske ": 1820,
  "veka ": 1821,
  "nema": 1822,
  "Si": 1823,
  "ispitani": 1824,
  "pitanje ": 1825,
  "tali": 1826,
  "dio ": 1827,
  "institu": 1828,
  "gro": 1829,
  "unarod": 1830,
  "tur": 1831,
  "ple": 1832,
  "nauč": 1833,
  "budu": 1834,
  "ljeni ": 1835,
  "vim ": 1836,
  "stički ": 1837,
  "ɬ": 1838,
  "čkih ": 1839,
  "potvr": 1840,
  "oru": 1841,
  "pacijen": 1842,
  "snov": 1843,
  "godiš": 1844,
  "tru": 1845,
  "ɭ ": 1846,
  "čove": 1847,
  "kome ": 1848,
  "ćem ": 1850,
  "com ": 1851,
  "skladu ": 1852,
  "najbo": 1853,
  "zna ": 1854,
  "pojed": 1855,
  "sub": 1856,
  "jene ": 1857,
  "prihva": 1858,
  "sistem ": 1859,
  "karakteristi": 1860,
  "lokal": 1861,
  "produ": 1862,
  "sim ": 1863,
  "ophod": 1864,
  "ono ": 1865,
  "sar ": 1866,
  "indu": 1867,
  "posled": 1868,
  "prote": 1869,
  "posledi": 1870,
  "snije ": 1871,
  "bu ": 1872,
  "mati": 1873,
  "razvoj ": 1874,
  "svi ": 1875,
  "moguće ": 1876,
  "Kako ": 1877,
  ".- ": 1878,
  "tke ": 1879,
  "ɤ": 1880,
  "str": 1881,
  "isk": 1882,
  "rana ": 1883,
  "stro": 1884,
  "često ": 1885,
  "turi": 1886,
  "16": 1887,
  "jednom ": 1888,
  "rs ": 1889,
  "organiz": 1890,
  "— ": 1891,
  "SA": 1892,
  "predme": 1893,
  "stig": 1894,
  "međunarod": 1895,
  "pute": 1896,
  "tivni ": 1897,
  "tehno": 1898,
  "prove": 1899,
  "pora": 1900,
  "rekao ": 1901,
  "jski ": 1902,
  "put": 1903,
  "spi": 1904,
  "isku": 1905,
  "ljud": 1906,
  "15": 1907,
  "bal": 1908,
  "Al": 1909,
  "periodu ": 1910,
  "onal": 1911,
  "Prema ": 1912,
  "koncentra": 1913,
  "elektro": 1914,
  "dija": 1915,
  "rije": 1916,
  "ž ": 1917,
  "poten": 1918,
  "ovoj ": 1919,
  "trenut": 1920,
  "mora": 1921,
  "sen": 1922,
  "oz": 1923,
  "40 ": 1924,
  "socijal": 1925,
  "viđ": 1926,
  "bezbe": 1927,
  "jedna ": 1928,
  "prija": 1929,
  "loka": 1930,
  "____": 1931,
  "obja": 1932,
  "uni": 1933,
  "kaže ": 1934,
  "opera": 1935,
  "cin": 1936,
  "podru": 1937,
  "pan": 1938,
  "ponaš": 1939,
  "'', ": 1940,
  "klu": 1941,
  "verova": 1942,
  "doprin": 1943,
  "komenta": 1944,
  "ture ": 1945,
  "jena ": 1946,
  "Kada ": 1947,
  "196": 1948,
  "klo": 1949,
  "Kra": 1950,
  "defini": 1951,
  "Pred": 1952,
  "mina": 1953,
  "ponov": 1954,
  "žev": 1955,
  "bla": 1956,
  "profe": 1957,
  "ćeg ": 1958,
  "spor": 1959,
  "daje ": 1960,
  "vao ": 1961,
  "života ": 1962,
  "Du": 1963,
  "speci": 1964,
  "dvo": 1965,
  "pet ": 1966,
  "Kao ": 1967,
  "telj": 1968,
  "NA": 1969,
  "IJ": 1970,
  "kompani": 1971,
  "indi": 1972,
  "svega ": 1973,
  "stav ": 1974,
  "šu": 1975,
  "tacije ": 1976,
  "oni": 1977,
  "sposob": 1978,
  "efika": 1979,
  "the ": 1980,
  "slobod": 1981,
  "OV": 1982,
  "kuje ": 1983,
  "enosti ": 1984,
  "primer ": 1985,
  "am": 1986,
  "svojim ": 1987,
  "poku": 1988,
  "objek": 1989,
  "zv": 1990,
  "step": 1991,
  "država ": 1992,
  "neophod": 1993,
  "paž": 1994,
  "Takođe ": 1995,
  "kojih ": 1996,
  "Tabela ": 1997,
  "nad ": 1998,
  "So": 1999,
  "ćih ": 2000,
  "žen": 2001,
  "Beogradu ": 2002,
  "delu ": 2003,
  "bezbed": 2004,
  "radu ": 2005,
  "tivnih ": 2006,
  "govora ": 2007,
  "grupa ": 2008,
  "šao ": 2009,
  "bilj": 2010,
  "arhi": 2011,
  "razvoja ": 2012,
  "nau": 2013,
  "rata ": 2014,
  "upo": 2015,
  "poslov": 2016,
  "sud": 2017,
  "Bu": 2018,
  "kate": 2019,
  "crk": 2020,
  "narod": 2021,
  "drugo": 2023,
  "svoju ": 2024,
  "obuhva": 2025,
  "tiče ": 2026,
  "činjeni": 2027,
  "različitih ": 2028,
  "napo": 2029,
  "jedini": 2030,
  "tempera": 2031,
  "nivou ": 2032,
  "mera ": 2033,
  "uzor": 2034,
  "Od ": 2035,
  "slič": 2036,
  "194": 2037,
  "odgovara": 2038,
  "jeni ": 2039,
  "češće ": 2040,
  "žena ": 2041,
  "štu ": 2042,
  "oti": 2043,
  "pitanja ": 2044,
  "kav ": 2045,
  "krat": 2046,
  "doku": 2047,
  "mišlj": 2048,
  "neki ": 2049,
  "reč": 2050,
  "lice ": 2051,
  "tež": 2052,
  "28 ": 2053,
  "Ar": 2054,
  "ćemo ": 2055,
  "zen": 2056,
  "promene ": 2057,
  "područ": 2058,
  "us ": 2059,
  "nostima ": 2060,
  "podr": 2061,
  "svoj ": 2062,
  "kultur": 2063,
  "Srbija ": 2064,
  "modela ": 2065,
  "26 ": 2066,
  "27 ": 2067,
  "drugim ": 2068,
  "Sta": 2069,
  "ostal": 2070,
  "države ": 2071,
  "dnev": 2072,
  "procesa ": 2073,
  "dr ": 2074,
  "vez": 2075,
  "smatra ": 2076,
  "zija ": 2077,
  "zada": 2078,
  "broj": 2079,
  "muzi": 2080,
  "jeva ": 2081,
  "prirod": 2082,
  "jeste ": 2083,
  "ziv": 2084,
  "tivna ": 2085,
  "dobro ": 2086,
  "otkri": 2087,
  "trans": 2088,
  "diti ": 2089,
  "Alek": 2090,
  "meri ": 2091,
  "gori": 2092,
  "jim ": 2093,
  "njeg ": 2094,
  "sup": 2095,
  "zemlje ": 2096,
  "propi": 2097,
  "broja ": 2098,
  "uređ": 2099,
  "doka": 2100,
  "dina": 2101,
  "vrste ": 2102,
  "prosto": 2103,
  "voz": 2104,
  "pli": 2105,
  "ekspe": 2106,
  "tradi": 2107,
  "Ku": 2108,
  "uspo": 2109,
  "Ro": 2110,
  "prose": 2111,
  "cena ": 2112,
  "veliki ": 2113,
  "jeg ": 2114,
  "sati ": 2115,
  "hemi": 2116,
  "uključu": 2117,
  "pokaz": 2118,
  "zadovolj": 2119,
  "lacije ": 2120,
  "gled": 2121,
  "jednog ": 2122,
  "et": 2123,
  "slav": 2124,
  "joj ": 2125,
  "prilikom ": 2126,
  "odi": 2127,
  "tira": 2128,
  "značajno ": 2129,
  "specifi": 2130,
  "jenja ": 2131,
  "opre": 2132,
  "Gra": 2133,
  "oda ": 2134,
  "pojedin": 2135,
  "Srp": 2136,
  "psi": 2137,
  "post": 2138,
  "potrebno ": 2139,
  "jezika ": 2140,
  "trebalo ": 2141,
  "uticaj ": 2142,
  "meh": 2143,
  "regu": 2144,
  "smislu ": 2145,
  "kovan": 2146,
  "mental": 2147,
  "100 ": 2148,
  "čiti ": 2149,
  "29 ": 2150,
  "kova ": 2151,
  "vrsta ": 2152,
  "jedna": 2153,
  "stre": 2154,
  "pen": 2155,
  "EN": 2156,
  "ɞ": 2157,
  "čemu ": 2158,
  "sna ": 2159,
  "znanja ": 2160,
  "zer": 2161,
  "”, ": 2162,
  "kise": 2163,
  "inf": 2164,
  "zan ": 2165,
  "got": 2166,
  "književ": 2167,
  "oven": 2168,
  "takmi": 2169,
  "rvat": 2170,
  "ogranič": 2171,
  "uju ": 2172,
  "alne ": 2173,
  "PO": 2174,
  "tio ": 2175,
  "saj": 2176,
  "ljene ": 2177,
  "pored ": 2178,
  "tiri ": 2179,
  "pitanju ": 2180,
  "komunika": 2181,
  "jaju ": 2182,
  "Jo": 2183,
  "ljeno ": 2184,
  "Ovo ": 2185,
  "obav": 2186,
  "sni ": 2187,
  "priro": 2188,
  "terito": 2189,
  "oč": 2190,
  "nedo": 2191,
  "tj ": 2192,
  "nija ": 2193,
  "2011 ": 2194,
  "prostor": 2195,
  "glu": 2196,
  "Nakon ": 2197,
  "parti": 2198,
  "nega": 2199,
  "kru": 2200,
  "podrazume": 2201,
  "posmatra": 2202,
  "mesta ": 2203,
  "ren ": 2204,
  "ocen": 2205,
  "Au": 2206,
  "Jugosl": 2207,
  "ovan ": 2208,
  "Ć": 2209,
  "tori ": 2210,
  "bile ": 2211,
  "car": 2212,
  "logije ": 2213,
  "prave ": 2214,
  "jenih ": 2215,
  "govor ": 2216,
  "sigur": 2217,
  "odi ": 2218,
  "done": 2219,
  "neke ": 2220,
  "zat": 2221,
  "jskih ": 2222,
  "gleda ": 2223,
  "glavnom ": 2224,
  "tnim ": 2225,
  "tivnog ": 2226,
  "dok": 2227,
  "đe": 2228,
  "govori ": 2229,
  "čenja ": 2230,
  "Ne ": 2231,
  "vezi ": 2232,
  "menu": 2233,
  "ubi": 2234,
  "tacija ": 2235,
  "rancu": 2236,
  "nove ": 2237,
  "ške ": 2238,
  "pruž": 2239,
  "str ": 2240,
  "Ja": 2241,
  "Kos": 2242,
  "tnu ": 2243,
  "kasnije ": 2244,
  "ukoliko ": 2245,
  "menta ": 2246,
  "enost ": 2247,
  "2012 ": 2248,
  "meto": 2249,
  "2010 ": 2250,
  "60 ": 2251,
  "gin": 2252,
  "); ": 2253,
  "demo": 2254,
  "Mini": 2255,
  "dove": 2256,
  "stoji ": 2257,
  "tela ": 2258,
  "opa": 2259,
  "nike ": 2260,
  "okol": 2261,
  "izla": 2262,
  ".\" ": 2263,
  "čić ": 2264,
  "som ": 2265,
  "tku ": 2266,
  "događ": 2267,
  "jemo ": 2268,
  "koriste ": 2269,
  "oca ": 2270,
  "reči ": 2271,
  "IN": 2272,
  "scen": 2273,
  "mana ": 2274,
  "Republike ": 2275,
  "nede": 2276,
  "uzro": 2277,
  "osigu": 2278,
  "stran": 2279,
  "proš": 2280,
  "evrop": 2281,
  "ori ": 2282,
  "stvari ": 2283,
  "jskog ": 2284,
  "postoje ": 2285,
  "doš": 2286,
  "potro": 2287,
  "Dra": 2288,
  "kovi": 2289,
  "telja ": 2290,
  "dozvo": 2291,
  "koncep": 2292,
  "maj": 2293,
  "mima ": 2294,
  "nase": 2295,
  "dima ": 2296,
  "Ti": 2297,
  "vesti": 2298,
  "ˇ": 2299,
  "On ": 2300,
  "juje ": 2301,
  "mogućnost ": 2302,
  "finis": 2303,
  "er ": 2304,
  "količ": 2305,
  "Ha": 2306,
  "ɜ": 2307,
  "mani": 2308,
  "misli": 2309,
  "gr": 2310,
  "jedno ": 2311,
  "proces ": 2312,
  "đa ": 2313,
  "govori": 2314,
  "prezen": 2315,
  "metara ": 2316,
  "čan": 2317,
  "odred": 2318,
  "neće ": 2319,
  "é": 2320,
  "mije ": 2321,
  "Ste": 2322,
  "spa": 2323,
  "tivi": 2324,
  "reak": 2325,
  "rani ": 2326,
  "kojim ": 2327,
  "2013 ": 2328,
  "bora": 2329,
  "EU ": 2330,
  "isklju": 2331,
  "gov ": 2332,
  "kraju ": 2333,
  "izuze": 2334,
  "bar ": 2335,
  "problem ": 2336,
  "mikro": 2337,
  "vor ": 2338,
  "uslovima ": 2339,
  "đenje ": 2340,
  "Go": 2341,
  "ale": 2342,
  "proizvoda ": 2343,
  "mbra ": 2344,
  "nasta": 2345,
  "Ho": 2346,
  "2014 ": 2347,
  "ponen": 2348,
  "znači ": 2349,
  "matič": 2350,
  "ɨ ": 2351,
  "cioni": 2352,
  "Sa ": 2353,
  "odnosa ": 2354,
  "niti ": 2355,
  "povezan": 2356,
  "zatim ": 2357,
  "Uni": 2358,
  "tlji": 2359,
  "titi ": 2360,
  "genera": 2361,
  "model ": 2362,
  "jte ": 2363,
  "četiri ": 2364,
  "jedne ": 2365,
  "Ovaj ": 2366,
  "vam ": 2367,
  "vrlo ": 2368,
  "njima ": 2369,
  "ber": 2370,
  "31 ": 2371,
  "ht": 2372,
  "Iako ": 2373,
  "odnosi ": 2374,
  "pojedina": 2375,
  "bor ": 2376,
  "zemlji": 2377,
  "među": 2378,
  "otvor": 2379,
  "tada ": 2380,
  "ovana ": 2381,
  "veća ": 2382,
  "muš": 2383,
  "qu": 2384,
  "đuje ": 2385,
  "priti": 2386,
  "logija ": 2387,
  "mere ": 2388,
  "klasi": 2389,
  "putem ": 2390,
  "varija": 2391,
  "Tako ": 2392,
  "hu": 2393,
  "́": 2394,
  "lak": 2395,
  "tetu ": 2396,
  "minu": 2397,
  "tnosti ": 2398,
  "đenja ": 2399,
  "bio": 2400,
  "statu": 2401,
  "2009 ": 2402,
  "život ": 2403,
  "ispitanika ": 2404,
  "ponu": 2405,
  "vaz": 2406,
  "pobe": 2407,
  "princi": 2408,
  "dar ": 2409,
  "bora ": 2410,
  "br ": 2411,
  "tere": 2412,
  "ranju ": 2413,
  "trgov": 2414,
  "pote": 2415,
  "plani": 2416,
  "Pored ": 2417,
  "mpi": 2418,
  "shva": 2419,
  "hro": 2420,
  "pokre": 2421,
  "obo": 2422,
  "definis": 2423,
  "efek": 2424,
  "daš": 2425,
  "svr": 2426,
  "unutra": 2427,
  "ispu": 2428,
  "imao ": 2429,
  "iako ": 2430,
  "raka ": 2431,
  "troško": 2432,
  "tnom ": 2433,
  "Co": 2434,
  "obzirom ": 2435,
  "pode": 2436,
  "polož": 2437,
  "dece ": 2438,
  "bolesti ": 2439,
  "đena ": 2440,
  "2008 ": 2441,
  "rak ": 2442,
  "eksperi": 2443,
  "smr": 2444,
  "sov": 2445,
  "preduzeća ": 2446,
  "sled ": 2447,
  "emi": 2448,
  "svom ": 2449,
  "mje": 2450,
  "investi": 2451,
  "nivo ": 2452,
  "RO": 2453,
  "ovani ": 2454,
  "skri": 2455,
  "poja": 2456,
  "ciona": 2457,
  "analize ": 2458,
  "uglavnom ": 2459,
  "komponen": 2460,
  "veće ": 2461,
  "sprov": 2462,
  "SK": 2463,
  "konstruk": 2464,
  "35 ": 2465,
  "ska": 2466,
  "vlj": 2467,
  "problema ": 2468,
  "es ": 2469,
  "tura ": 2470,
  "rane ": 2471,
  "vala ": 2472,
  "velič": 2473,
  "đen ": 2474,
  "00": 2475,
  "tera ": 2476,
  "Aleksan": 2477,
  "kcije ": 2478,
  "bolj": 2479,
  "vide": 2480,
  "dati ": 2481,
  "supro": 2482,
  "reč ": 2483,
  "voj ": 2484,
  "lizacije ": 2485,
  "nosi ": 2486,
  "Niko": 2487,
  "Jugoslavi": 2488,
  "Ova ": 2489,
  "čima ": 2490,
  "dolazi ": 2491,
  "pola": 2492,
  "son ": 2493,
  "žb": 2494,
  "dimen": 2495,
  "vlasti ": 2496,
  "čini ": 2497,
  "glaš": 2498,
  "uspeš": 2499,
  "eks": 2500,
  "predviđ": 2501,
  "ostav": 2502,
  "kontek": 2503,
  "pretpostav": 2504,
  "ameri": 2505,
  "2015 ": 2506,
  "Voj": 2507,
  "foto": 2508,
  "oksi": 2509,
  "čkom ": 2510,
  "ano ": 2511,
  "vid": 2512,
  "stičke ": 2513,
  "čenje ": 2514,
  "škol": 2515,
  "navodi ": 2516,
  "siv": 2517,
  "postu": 2518,
  "zajednič": 2519,
  "strate": 2520,
  "vidu ": 2521,
  "dis": 2522,
  "oprivred": 2523,
  "sveta ": 2524,
  "mestu ": 2525,
  "razlika ": 2526,
  "sur": 2527,
  "čega ": 2528,
  "at ": 2529,
  "ista": 2530,
  "ch ": 2531,
  "zaštite ": 2532,
  "ćen ": 2533,
  "line ": 2534,
  "organizacije ": 2535,
  "sop": 2536,
  "čiji ": 2537,
  "njega ": 2538,
  "pripre": 2539,
  "njem ": 2540,
  "stvar": 2541,
  "čnim ": 2542,
  "jenje ": 2543,
  "inten": 2544,
  "ino": 2545,
  "hu ": 2546,
  "Lu": 2547,
  "… ": 2548,
  "vora ": 2549,
  "komplek": 2550,
  "materijala ": 2551,
  "ali": 2552,
  "svaki ": 2553,
  "alno ": 2554,
  "žene ": 2555,
  "odnos ": 2556,
  "čito ": 2557,
  "predstavljaju ": 2558,
  "ari ": 2559,
  "zato ": 2560,
  "sig": 2561,
  "okruž": 2562,
  "jekata ": 2563,
  "Ċ": 2564,
  "rade ": 2565,
  "dovoljno ": 2566,
  "rezultata ": 2567,
  "nosi": 2568,
  "tive ": 2569,
  "neko ": 2570,
  "prikazan": 2571,
  "odgovaraju": 2572,
  "opšte ": 2573,
  "Ri": 2574,
  "različite ": 2575,
  "sim": 2576,
  "teriju": 2577,
  "konku": 2578,
  "svetu ": 2579,
  "toku ": 2580,
  "á": 2581,
  "uspostav": 2582,
  "novi ": 2583,
  "sten": 2584,
  "195": 2585,
  "potpuno ": 2586,
  "čine ": 2587,
  "jednostav": 2588,
  "ostvari": 2589,
  "gija ": 2590,
  "lav": 2591,
  "fakul": 2592,
  "vazdu": 2593,
  "društva ": 2594,
  "ret": 2595,
  "glob": 2596,
  "ču ": 2597,
  "Ameri": 2598,
  "završ": 2599,
  "Rezulta": 2600,
  "upravo ": 2601,
  "imati ": 2602,
  "žda ": 2603,
  "ovak": 2604,
  "mogućnosti ": 2605,
  "2007 ": 2606,
  "80 ": 2607,
  "očeki": 2608,
  "izjav": 2609,
  "potrebe ": 2610,
  "jasno ": 2611,
  "nicima ": 2612,
  "pr ": 2613,
  "odnose ": 2614,
  "saobra": 2615,
  "kupa": 2616,
  "rezultati ": 2617,
  "tob": 2618,
  "Pi": 2619,
  "sebe ": 2620,
  "istorij": 2621,
  "snih ": 2622,
  "Ob": 2623,
  "poz": 2624,
  "Ki": 2625,
  "manja ": 2626,
  "lina ": 2627,
  "pravi": 2628,
  "mir": 2629,
  "ćim ": 2630,
  "inski ": 2631,
  "studen": 2632,
  "cilj ": 2633,
  "pošt": 2634,
  "05 ": 2635,
  "poput ": 2636,
  "</ ": 2637,
  "at": 2638,
  "zahteva ": 2639,
  "Ali ": 2640,
  "pes": 2641,
  "budu ": 2642,
  "renu": 2643,
  "è": 2644,
  "detal": 2645,
  "analizi": 2646,
  "zam ": 2647,
  "ći": 2648,
  "min ": 2649,
  "avanju ": 2650,
  "komb": 2651,
  "svog ": 2653,
  "ovao ": 2654,
  "moder": 2655,
  "rati ": 2656,
  "Nema": 2657,
  "tipa ": 2658,
  "ustan": 2659,
  "gled ": 2660,
  "koga ": 2661,
  "diser": 2662,
  "matra": 2663,
  "Kri": 2664,
  "člana ": 2665,
  "ak ": 2666,
  "zak ": 2667,
  "nezavis": 2668,
  "bru": 2669,
  "stanja ": 2670,
  "zavr": 2671,
  "kuju ": 2672,
  "DN": 2673,
  "odra": 2674,
  "novih ": 2675,
  "2006 ": 2676,
  "zma ": 2677,
  "ška ": 2678,
  "staro": 2679,
  "lac ": 2680,
  "part": 2681,
  "čnom ": 2682,
  "terapi": 2683,
  "anak ": 2684,
  "razlike ": 2685,
  "toj ": 2686,
  "nošću ": 2687,
  "zom ": 2688,
  "zlo": 2689,
  "odbra": 2690,
  "sak ": 2691,
  ".„ ": 2692,
  "ulogu ": 2693,
  "stanovništ": 2694,
  "kulture ": 2695,
  ".) ": 2696,
  "rijan": 2697,
  "žno ": 2698,
  "nared": 2699,
  "• ": 2700,
  "šem ": 2701,
  "niku ": 2702,
  "Dž": 2703,
  "savremen": 2704,
  "cilje": 2705,
  "bolje ": 2706,
  "čita": 2707,
  "najčešće ": 2708,
  "dao ": 2709,
  "70 ": 2710,
  "gom ": 2711,
  "ul": 2712,
  "2016 ": 2713,
  "arti": 2714,
  "zdravstven": 2715,
  "nalaze ": 2716,
  "đeno ": 2717,
  "jno ": 2718,
  "zacije ": 2719,
  "zakona ": 2720,
  "gno": 2721,
  "rao ": 2722,
  "njihove ": 2723,
  "32 ": 2724,
  "ruko": 2725,
  "kcija ": 2726,
  "pravo": 2727,
  "osoba ": 2728,
  "šir": 2729,
  "tiva": 2730,
  "vanjem ": 2731,
  "jednu ": 2732,
  "33 ": 2733,
  "analiza ": 2734,
  "sopstven": 2735,
  "promena ": 2736,
  "ɢʁ": 2737,
  "gubi": 2738,
  "sum": 2739,
  "SAD ": 2740,
  "prela": 2741,
  "stali ": 2742,
  "snost ": 2743,
  "ore ": 2744,
  "blj": 2745,
  "Ministar": 2746,
  "Ukoliko ": 2747,
  "alni ": 2748,
  "imali ": 2749,
  "statistički ": 2750,
  "kojem ": 2751,
  "čko ": 2752,
  "gotovo ": 2753,
  "RI": 2754,
  "anih ": 2755,
  "Veli": 2756,
  "tek ": 2757,
  "strukture ": 2758,
  "šeg ": 2759,
  "koristi": 2760,
  "um ": 2761,
  "upu": 2762,
  "vidi ": 2763,
  "čku ": 2764,
  "jeno ": 2765,
  "maksi": 2766,
  "izgrad": 2767,
  "čkim ": 2768,
  "različitim ": 2769,
  "ovremen": 2770,
  "ovde ": 2771,
  "objašnj": 2772,
  "čio ": 2773,
  "Fe": 2774,
  "vis": 2775,
  "nedosta": 2776,
  "vori": 2777,
  "imen": 2778,
  "tero": 2779,
  "zajedno ": 2780,
  "pomoć ": 2781,
  "ćenja ": 2782,
  "ć": 2783,
  "katego": 2784,
  "poljoprivred": 2785,
  "alnog ": 2786,
  "pristup ": 2787,
  "naveden": 2788,
  "90 ": 2789,
  "sle ": 2790,
  "epi": 2791,
  "tkom ": 2792,
  "os ": 2793,
  "lić ": 2794,
  "čit": 2795,
  "KO": 2796,
  "kaz": 2797,
  "graf": 2798,
  "volu": 2799,
  "podrazumeva ": 2800,
  "njegove ": 2801,
  "nadlež": 2802,
  "Raz": 2803,
  "tehnič": 2804,
  "mir ": 2805,
  "đu ": 2806,
  "Sve ": 2807,
  "stanje ": 2808,
  "zemal": 2809,
  "pripad": 2810,
  "gan": 2811,
  "slika ": 2812,
  "stabil": 2813,
  "45 ": 2814,
  "36 ": 2815,
  "čkoj ": 2816,
  "druž": 2817,
  "Zako": 2818,
  "izvešta": 2819,
  "kriteriju": 2820,
  "// ": 2821,
  "prila": 2822,
  "riju ": 2823,
  "zima ": 2824,
  "izraž": 2825,
  "Evro": 2826,
  "Jed": 2827,
  "cilju ": 2828,
  "istič": 2829,
  "kvaliteta ": 2830,
  "Mak": 2831,
  "poj": 2832,
  "posve": 2833,
  "arhitek": 2834,
  "sama ": 2835,
  "men ": 2836,
  "snosti ": 2837,
  "reći ": 2838,
  "ton ": 2839,
  "2005 ": 2840,
  "Če": 2841,
  "En": 2842,
  "ɭ�": 2843,
  "pogledu ": 2844,
  "pokaza": 2845,
  "usled ": 2846,
  "priva": 2847,
  "tiva ": 2848,
  "žen ": 2849,
  "čije ": 2850,
  "zastup": 2851,
  "prven": 2852,
  "pobolj": 2853,
  "faktora ": 2854,
  "mogao ": 2855,
  "\". ": 2856,
  "onih ": 2857,
  "gri": 2858,
  "prostora ": 2859,
  "učenika ": 2860,
  "možemo ": 2861,
  "Da": 2862,
  "indust": 2863,
  "dam ": 2864,
  "najviše ": 2865,
  "miliona ": 2866,
  "34 ": 2867,
  "ovane ": 2868,
  "ista ": 2869,
  "bol": 2870,
  "Milo": 2871,
  "isko": 2872,
  "opti": 2873,
  "nivoa ": 2874,
  "cione ": 2875,
  "rezultat ": 2876,
  "ovo": 2877,
  "ʃ": 2878,
  "Bal": 2879,
  "izbe": 2880,
  "enoj ": 2881,
  ".“ ": 2882,
  "tske ": 2883,
  "jne ": 2884,
  "Fa": 2885,
  "grupi ": 2886,
  "37 ": 2887,
  "pravi ": 2888,
  "01 ": 2889,
  "kolo": 2890,
  "ty ": 2891,
  "računa": 2892,
  "razloga ": 2893,
  "uticaja ": 2894,
  "ficijen": 2895,
  "vali": 2896,
  "ac ": 2897,
  "ɩɪ": 2898,
  "njegov ": 2899,
  "skoro ": 2900,
  "isto ": 2901,
  "prepozna": 2902,
  "AT": 2903,
  "Sto": 2904,
  "ft": 2905,
  "pacijenata ": 2906,
  "tret": 2907,
  "efe": 2908,
  "mil": 2909,
  "ski": 2910,
  "sastav": 2911,
  "štine ": 2912,
  "vin": 2913,
  "ano": 2914,
  "................": 2915,
  "odre": 2916,
  "ovati ": 2917,
  "ave ": 2918,
  "obele": 2919,
  "aspek": 2920,
  "nijih ": 2921,
  "označ": 2922,
  "der ": 2923,
  "podaci ": 2924,
  "agen": 2925,
  "ljenih ": 2926,
  "programa ": 2927,
  "vas ": 2928,
  "gar": 2929,
  "Zbog ": 2930,
  "litera": 2931,
  "vje": 2932,
  "godinu ": 2933,
  "39 ": 2934,
  "plać": 2935,
  "osim ": 2936,
  "2017 ": 2937,
  "razliku ": 2938,
  "2000 ": 2939,
  "stala ": 2940,
  "stani": 2941,
  "počin": 2942,
  "npr ": 2943,
  "sebi ": 2944,
  "mija ": 2945,
  "ɨɜ": 2946,
  "napa": 2947,
  "materijal": 2948,
  "sadržaja ": 2949,
  "dže": 2950,
  "ao ": 2951,
  "naše ": 2952,
  "informacija ": 2953,
  "He": 2954,
  "Ana": 2955,
  "stvom ": 2956,
  "sep": 2957,
  "pita": 2958,
  "paci": 2959,
  "psiho": 2960,
  "kade": 2961,
  "naved": 2962,
  "postoje": 2963,
  "Save": 2964,
  "pravil": 2965,
  "unutraš": 2966,
  "sredine ": 2967,
  "Bri": 2968,
  "ovremeno ": 2969,
  "zaj": 2970,
  "38 ": 2971,
  "ovića ": 2972,
  "metoda ": 2973,
  "jekat ": 2974,
  "ipak ": 2975,
  "Kod ": 2976,
  "član ": 2977,
  "RS ": 2978,
  "maš": 2979,
  "mul": 2980,
  "gradu ": 2981,
  "jezik ": 2982,
  "jska ": 2983,
  "ukazuje ": 2984,
  "ljivo ": 2985,
  "ravno": 2986,
  "stom ": 2987,
  "zavisnosti ": 2988,
  "unapre": 2989,
  "usluga ": 2990,
  "informacije ": 2991,
  "energije ": 2992,
  "pis ": 2993,
  "naročito ": 2994,
  "skup": 2995,
  "Sva": 2996,
  "Bro": 2997,
  "ovla": 2998,
  "vidi": 2999,
  "izaz": 3000,
  "posledica ": 3001,
  "druga": 3002,
  "Iz ": 3003,
  "Or": 3004,
  "pravila ": 3005,
  "moraju ": 3006,
  "polu": 3007,
  "ćelija ": 3008,
  "lacija ": 3009,
  "mob": 3010,
  "sp": 3011,
  "feno": 3012,
  "tiču ": 3013,
  "vod ": 3014,
  "zapad": 3015,
  "vezan": 3016,
  "hidro": 3017,
  "ponovo ": 3018,
  "Inter": 3019,
  "2018 ": 3020,
  "ošte": 3021,
  "volj": 3022,
  "ner": 3023,
  "inske ": 3024,
  "sadrži ": 3025,
  "nasil": 3026,
  "cioni ": 3027,
  "period ": 3028,
  "tivan ": 3029,
  "godini ": 3030,
  "rasta ": 3031,
  "imala ": 3032,
  "eko": 3033,
  "kle": 3034,
  "LI": 3035,
  "imov": 3036,
  "izbor": 3038,
  "grad ": 3039,
  "nače": 3040,
  "rešenja ": 3041,
  "Lju": 3042,
  "pomenu": 3043,
  "The ": 3044,
  "saobraća": 3045,
  "žu": 3046,
  "ks ": 3047,
  "prijav": 3048,
  "normal": 3049,
  "htt": 3050,
  "žio ": 3051,
  "2004 ": 3052,
  "pisan": 3053,
  "ari": 3054,
  "III ": 3055,
  "Op": 3056,
  "janju ": 3057,
  "suda ": 3058,
  "lično ": 3059,
  "pen ": 3060,
  "Poli": 3061,
  "obrazov": 3062,
  "Ze": 3063,
  "snog ": 3064,
  "dri": 3065,
  ":// ": 3066,
  "svojih ": 3067,
  "Hrvat": 3068,
  "odr": 3069,
  "šku ": 3070,
  "tuž": 3071,
  "oblika ": 3072,
  "25": 3073,
  "zemalja ": 3074,
  "subjek": 3075,
  "primene ": 3076,
  "‘ ": 3077,
  "zana ": 3078,
  "ade": 3079,
  "nova ": 3080,
  "sprove": 3081,
  "Fi": 3082,
  "komi": 3083,
  "beli ": 3084,
  "deli": 3085,
  "brzo ": 3086,
  "eli": 3087,
  "Lo": 3088,
  "tski ": 3089,
  "itd ": 3090,
  "predsednik ": 3091,
  "ekstra": 3092,
  "dej": 3093,
  "dela": 3094,
  "ono": 3095,
  "unutar ": 3096,
  "mnog": 3097,
  "jevima ": 3098,
  "Her": 3099,
  "har": 3100,
  "ljivo": 3101,
  "tuma": 3102,
  "enika ": 3103,
  "jana ": 3104,
  "deset ": 3105,
  "ñ": 3106,
  "načina ": 3107,
  "turi ": 3108,
  "isti ": 3109,
  "sila ": 3110,
  "oktob": 3111,
  "nasle": 3112,
  "lne ": 3113,
  "potencijal": 3114,
  "”. ": 3115,
  "njen ": 3116,
  "politike ": 3117,
  "nicu ": 3118,
  "ep": 3119,
  "Tre": 3120,
  "ozo": 3121,
  "profesi": 3122,
  "njoj ": 3123,
  "interak": 3124,
  "vidu": 3125,
  "drugom ": 3126,
  "učestv": 3127,
  "jeziku ": 3128,
  "leksi": 3129,
  "ranije ": 3130,
  "kontin": 3132,
  "porek": 3133,
  "uzo": 3134,
  "ɟɧ": 3135,
  "�ɬ": 6569,
  "čuje ": 3137,
  "NO": 3138,
  "inar": 3139,
  "Isto": 3140,
  "ts ": 3141,
  "Rezultati ": 3142,
  "ljenja ": 3143,
  "Po ": 3144,
  "den ": 3145,
  "istraživa": 3146,
  "menu ": 3147,
  "novi": 3148,
  "zvani": 3149,
  "tki": 3150,
  "postig": 3151,
  "životin": 3152,
  "drugog ": 3153,
  "gne": 3154,
  "jum ": 3155,
  "tala": 3156,
  "svojoj ": 3157,
  "pokazuje ": 3158,
  "sli ": 3159,
  "nama ": 3160,
  "elektri": 3161,
  "rama ": 3162,
  "varijan": 3163,
  "ljama ": 3164,
  "grade ": 3165,
  "funkcije ": 3166,
  "aktivnost ": 3167,
  "osi ": 3168,
  "ustav": 3169,
  "velike ": 3170,
  "čnu ": 3171,
  "metod": 3172,
  "í": 3173,
  "å": 3174,
  "star ": 3175,
  "proto": 3176,
  "alnih ": 3177,
  "tnost ": 3178,
  "lika": 3179,
  "poređ": 3180,
  "len": 3181,
  "viš": 3182,
  "zabra": 3183,
  "NI": 3184,
  "Fo": 3185,
  "zabe": 3186,
  "zbi": 3187,
  "2020 ": 3188,
  "ɥ": 3189,
  "uoč": 3190,
  "eficijen": 3191,
  "vali ": 3192,
  "organizacija ": 3193,
  "cionih ": 3194,
  "zasnov": 3195,
  "resur": 3196,
  "mske ": 3197,
  "druga ": 3198,
  "menad": 3199,
  "oruž": 3200,
  "preno": 3201,
  "TE": 3202,
  "bavi ": 3203,
  "dostup": 3204,
  "biće ": 3205,
  "blo": 3206,
  "ine": 3207,
  "2003 ": 3208,
  "sklo": 3209,
  "stic": 3210,
  "time ": 3211,
  "akle ": 3212,
  "žive": 3213,
  "24": 3214,
  "izlož": 3215,
  "Ipak ": 3216,
  "korela": 3217,
  "Ži": 3218,
  "fa ": 3219,
  "rizika ": 3220,
  "jaka ": 3221,
  "poglav": 3222,
  "mski ": 3223,
  "2002 ": 3224,
  "alo": 3225,
  "NA ": 3226,
  "boga": 3227,
  "toliko ": 3228,
  "kola": 3229,
  "metode ": 3230,
  "fir": 3231,
  "ss ": 3232,
  "šava ": 3233,
  "dete ": 3234,
  "Pra": 3235,
  "eg": 3236,
  "telj ": 3237,
  "autora ": 3238,
  "tika ": 3239,
  "perioda ": 3240,
  "sadržaj ": 3241,
  "ranih ": 3242,
  "preci": 3243,
  "Mu": 3244,
  "ništa ": 3245,
  "tivnim ": 3246,
  "glago": 3247,
  "adekva": 3248,
  "emo": 3249,
  "hov ": 3250,
  "Univerzi": 3251,
  "kapaci": 3252,
  "oba ": 3253,
  "ganja ": 3254,
  "tru ": 3255,
  "telji ": 3256,
  "Bos": 3257,
  "Naime ": 3258,
  "četvr": 3259,
  "kle ": 3260,
  "prostor ": 3261,
  "mole": 3262,
  "distri": 3263,
  "običa": 3264,
  "ljenje ": 3265,
  "losti ": 3266,
  "ote": 3267,
  "sport": 3268,
  "traž": 3269,
  "bak": 3270,
  "reda ": 3271,
  "škole ": 3272,
  "preporu": 3273,
  "zakon": 3274,
  "dinara ": 3275,
  "standard": 3276,
  "dija ": 3277,
  "stanak ": 3278,
  "Sl": 3279,
  "socija": 3280,
  "isključi": 3281,
  "name": 3282,
  "data ": 3283,
  "individu": 3284,
  "možda ": 3285,
  "hov": 3286,
  "ɪɚ�": 3287,
  "produk": 3288,
  "njegova ": 3289,
  "mah ": 3290,
  "reli": 3291,
  "možete ": 3292,
  "oblik ": 3294,
  "ravno ": 3295,
  "rano ": 3296,
  "njim ": 3297,
  "razvoju ": 3298,
  "tina ": 3299,
  "loški ": 3300,
  "neposred": 3301,
  "ron": 3302,
  "proizvodnje ": 3303,
  "Gr": 3304,
  "sanja ": 3305,
  "dž": 3306,
  "zaštitu ": 3307,
  "): ": 3308,
  "pokazuju ": 3309,
  "2019 ": 3310,
  "sanje ": 3311,
  "Bra": 3312,
  "čnosti ": 3313,
  "Ge": 3314,
  "funkcional": 3315,
  "čija ": 3316,
  "povra": 3317,
  "gan ": 3318,
  "Ukraj": 3319,
  "sredstava ": 3320,
  "vizi": 3321,
  "menata ": 3322,
  "viru": 3323,
  "konkuren": 3324,
  "ljem ": 3325,
  "der": 3326,
  "nak": 3327,
  "hrane ": 3328,
  "interes": 3329,
  "mer ": 3330,
  "lija ": 3331,
  "teško ": 3332,
  "ština ": 3333,
  "Ga": 3334,
  "preva": 3335,
  "njihovog ": 3336,
  "dopu": 3337,
  "vodi": 3338,
  "evra ": 3339,
  "vrši ": 3340,
  "ivanje ": 3341,
  "zdra": 3342,
  "mogli ": 3343,
  "odla": 3344,
  "ɦ": 3345,
  "meni ": 3346,
  "zavisi ": 3347,
  "studije ": 3348,
  "Narod": 3349,
  "više": 3350,
  "širo": 3351,
  "kraja ": 3352,
  "Osnov": 3353,
  "distribu": 3354,
  "integra": 3355,
  "Cen": 3356,
  "75 ": 3357,
  "direktno ": 3358,
  "krenu": 3359,
  ".. ": 3360,
  "krea": 3361,
  "JE ": 3362,
  "kontak": 3363,
  "uro": 3364,
  "delo ": 3365,
  "uključujući ": 3366,
  "stvor": 3367,
  "rišć": 3368,
  "slučaj ": 3369,
  "Tur": 3370,
  "vil": 3371,
  "nekim ": 3372,
  "zama ": 3373,
  "Novi ": 3374,
  "suko": 3375,
  "snage ": 3376,
  "fan": 3377,
  "neka ": 3378,
  "Francu": 3379,
  "AR": 3380,
  "potom ": 3381,
  "njegovog ": 3382,
  "verovatno ": 3383,
  "2001 ": 3384,
  "alna ": 3385,
  "instru": 3386,
  "suje ": 3387,
  "let": 3388,
  "sredstva ": 3389,
  "Stan": 3390,
  "god ": 3391,
  "tički ": 3392,
  "zor": 3393,
  "slož": 3394,
  "minan": 3395,
  "sadr": 3396,
  "veze ": 3397,
  "marke": 3398,
  "podi": 3399,
  "elektron": 3400,
  "služb": 3401,
  "tila ": 3402,
  "izabra": 3403,
  "sl ": 3404,
  "Vr": 3405,
  "pom ": 3406,
  "God": 3407,
  "naroda ": 3408,
  "snici ": 3409,
  "utiče ": 3410,
  "žele": 3411,
  "pisao ": 3412,
  "ovanih ": 3413,
  "prvom ": 3414,
  "obrazovanja ": 3415,
  "značaj ": 3416,
  "St": 3417,
  "moći ": 3418,
  "Tokom ": 3419,
  "vremenu ": 3420,
  "ww": 3421,
  "jskim ": 3422,
  "koeficijen": 3423,
  "…": 3424,
  "reprezen": 3425,
  "funkcioni": 3426,
  "njemu ": 3427,
  "formu": 3428,
  "žrt": 3429,
  "________": 3430,
  "48 ": 3431,
  "obično ": 3432,
  "her": 3433,
  "Tu": 3434,
  "vac ": 3435,
  "’": 3436,
  "con": 3437,
  "ruje ": 3438,
  "male ": 3439,
  "ui": 3440,
  "%) ": 3441,
  "rast ": 3442,
  "domać": 3443,
  "juju ": 3444,
  "Kar": 3445,
  "anga": 3446,
  "iznosi ": 3447,
  "net ": 3448,
  "%, ": 3449,
  "elemenata ": 3450,
  "ćenje ": 3451,
  "karakteristike ": 3452,
  "dugo": 3453,
  "svakog ": 3454,
  "tradicional": 3455,
  "tuje ": 3456,
  "forman": 3457,
  "www ": 3458,
  "poboljš": 3459,
  "značaja ": 3460,
  "fikacije ": 3461,
  "funkcija ": 3462,
  "65 ": 3463,
  "snik ": 3464,
  "mono": 3465,
  "î": 3466,
  "maksimal": 3467,
  "došlo ": 3468,
  "odluka ": 3469,
  "inde": 3470,
  "cionog ": 3471,
  "juma ": 3472,
  "usob": 3473,
  "srpske ": 3474,
  "izbeg": 3475,
  "Prav": 3476,
  "vši ": 3477,
  "09 ": 3478,
  "napu": 3479,
  "zone ": 3480,
  "Pod": 3481,
  "ɡ": 3482,
  "zaposlenih ": 3483,
  "broju ": 3484,
  "ved": 3485,
  "srpskog ": 3486,
  "apri": 3487,
  "zemljama ": 3488,
  "stanju ": 3489,
  "pomoću ": 3490,
  "procesu ": 3491,
  "simbo": 3492,
  "porodice ": 3493,
  "ponašanja ": 3494,
  "Nije ": 3495,
  "određene ": 3496,
  "maju ": 3497,
  "hil": 3498,
  "cel": 3499,
  "ugovora ": 3500,
  "Ja ": 3501,
  "jao ": 3502,
  "kredi": 3503,
  "ostalih ": 3504,
  "signa": 3505,
  "seg": 3506,
  "fici": 3507,
  "posao ": 3508,
  "ton": 3509,
  "tike ": 3510,
  "Beograda ": 3511,
  "Pu": 3512,
  "DE": 3513,
  "ceni": 3514,
  "teme": 3515,
  "Ď": 3516,
  "đeni ": 3517,
  "redov": 3518,
  "koro": 3519,
  "izvođ": 3520,
  "iska": 3521,
  "eri ": 3522,
  "Nje": 3523,
  "testi": 3524,
  "podatke ": 3525,
  "studija ": 3526,
  "formi ": 3527,
  "spolj": 3528,
  "42 ": 3529,
  "trenutku ": 3530,
  "poma": 3531,
  "kl": 3532,
  "izvr": 3533,
  "šal": 3534,
  "pov": 3535,
  "sud ": 3536,
  "energe": 3537,
  "najveći ": 3538,
  "prona": 3539,
  "sistemu ": 3540,
  "ljuje ": 3541,
  "sfer": 3542,
  "dovodi ": 3543,
  "kompanije ": 3544,
  "prizna": 3545,
  "njom ": 3546,
  "ljev": 3547,
  "mana": 3548,
  "mon": 3549,
  "tskog ": 3550,
  "srpski ": 3551,
  "prvo ": 3552,
  "el ": 3553,
  "LA": 3554,
  "TO ": 3555,
  "izme": 3556,
  "stanovništva ": 3557,
  "jar": 3558,
  "SP": 3559,
  "zemlji ": 3560,
  "ţi": 3561,
  "struktura ": 3562,
  "obelež": 3563,
  "ćete ": 3564,
  "sva ": 3565,
  "onu ": 3566,
  "akade": 3567,
  "fon": 3568,
  "dje": 3569,
  "rala ": 3570,
  "engle": 3571,
  "prvog ": 3572,
  "forme ": 3573,
  "šen ": 3574,
  "profesional": 3575,
  "rali ": 3576,
  "čime ": 3577,
  "zno ": 3578,
  "sinte": 3579,
  "gena ": 3580,
  "tuel": 3581,
  "odgovor ": 3582,
  "jna ": 3583,
  "kuće ": 3584,
  "primar": 3585,
  "kun": 3586,
  "osni": 3587,
  "zajednice ": 3588,
  "zni ": 3589,
  "gama ": 3590,
  "55 ": 3591,
  "ozbilj": 3592,
  "zani": 3593,
  "oci ": 3594,
  "oslob": 3595,
  "ɢɧ": 3596,
  "radio ": 3597,
  "pova ": 3598,
  "vencije ": 3599,
  "dva": 3600,
  "tamo ": 3601,
  "gli": 3602,
  "Ban": 3603,
  "neophodno ": 3604,
  "videti ": 3605,
  "potreba ": 3606,
  "praktič": 3607,
  "krei": 3608,
  "sporazu": 3609,
  "zacija ": 3610,
  "pogod": 3611,
  "ćena ": 3612,
  "prve ": 3613,
  "pru": 3614,
  "polov": 3615,
  "disku": 3616,
  "Oni ": 3617,
  "pomoći ": 3618,
  "upravljanja ": 3619,
  "pošto ": 3620,
  "ispunj": 3621,
  "jete ": 3622,
  "kvalite": 3623,
  "građan": 3624,
  "janu": 3625,
  "slov ": 3626,
  "strani ": 3627,
  "mina ": 3628,
  "svakom ": 3629,
  "pola ": 3630,
  "08 ": 3631,
  "TI": 3632,
  "44 ": 3633,
  "protiv": 3634,
  "lizacija ": 3635,
  "osu": 3636,
  "2022 ": 3637,
  "bezbednosti ": 3638,
  "postaje ": 3639,
  "Ber": 3640,
  "stepen ": 3641,
  "ispod ": 3642,
  "žiti ": 3643,
  "ograf": 3644,
  "kvalitet ": 3645,
  "uslova ": 3646,
  "omogućava ": 3647,
  "dece": 3648,
  "građana ": 3649,
  "hla": 3650,
  "tara ": 3651,
  "stane ": 3652,
  "Slu": 3653,
  "čovek ": 3654,
  "koncentracije ": 3655,
  "odsto ": 3656,
  "200 ": 3657,
  "Ona ": 3658,
  "ɨɞ": 3659,
  "rešenje ": 3660,
  "jugosl": 3661,
  "meš": 3662,
  "njihov ": 3663,
  "šio ": 3664,
  "07 ": 3665,
  "nima ": 3666,
  "zahval": 3667,
  "međusob": 3668,
  "đuju ": 3669,
  "poreme": 3670,
  "ističe ": 3671,
  "znatno ": 3672,
  "tip ": 3673,
  "tori": 3674,
  "41 ": 3675,
  "diplo": 3676,
  "žal": 3677,
  "lako ": 3678,
  "zapravo ": 3679,
  "mali ": 3680,
  "AL": 3681,
  "ɛ": 3682,
  "upotrebe ": 3683,
  "jni ": 3684,
  "čen ": 3685,
  "poslova ": 3686,
  "nove": 3687,
  "95 ": 3688,
  "uprave ": 3689,
  "mogla ": 3690,
  "kojom ": 3691,
  "kolek": 3692,
  "šest ": 3693,
  "postupak ": 3694,
  "anjima ": 3695,
  "stan ": 3696,
  "ster": 3697,
  "02 ": 3698,
  "prikup": 3699,
  "deve": 3700,
  "sio ": 3701,
  "novog ": 3702,
  "primenom ": 3703,
  " ": 3704,
  "Pos": 3705,
  "bih ": 3706,
  "eksperimental": 3707,
  "à": 3708,
  "zemljišta ": 3709,
  "tvor": 3710,
  "fikovan": 3711,
  "odluke ": 3712,
  "MA ": 3713,
  "čar ": 3714,
  "64 ": 3715,
  "43 ": 3716,
  "SE": 3717,
  "Itali": 3718,
  "zne ": 3719,
  "vozila ": 3720,
  "rezultate ": 3721,
  "ovano ": 3722,
  "nekog ": 3723,
  "alnom ": 3724,
  "svako": 3725,
  "03 ": 3726,
  "svet ": 3727,
  "osobe ": 3728,
  "rezer": 3729,
  "dno ": 3730,
  "*'' ": 3731,
  "umetnosti ": 3732,
  "korisnika ": 3733,
  "fud": 3734,
  "granič": 3735,
  "razmatra": 3736,
  "prostoru ": 3737,
  "računa ": 3738,
  "građev": 3739,
  "sad ": 3740,
  "površine ": 3741,
  "istovremeno ": 3742,
  "radova ": 3743,
  "usluge ": 3744,
  "performan": 3745,
  "potroša": 3746,
  "ide ": 3747,
  "izgu": 3748,
  "drugo ": 3749,
  "fotografi": 3750,
  "detek": 3751,
  "Drž": 3752,
  "jenim ": 3753,
  "posti": 3754,
  "jević ": 3755,
  "cipl": 3756,
  "rat ": 3757,
  "VI": 3758,
  "kapit": 3759,
  "digi": 3760,
  "uk": 3761,
  "stičkih ": 3762,
  "tili ": 3763,
  "obliku ": 3764,
  "tivnu ": 3765,
  "žem ": 3766,
  "baci": 3767,
  "sc": 3768,
  "DA ": 3769,
  "lik": 3770,
  "tivnom ": 3771,
  "central": 3772,
  "obr": 3773,
  "procedu": 3774,
  "jugosloven": 3775,
  "ɚɧ": 3776,
  "2021 ": 3777,
  "šić ": 3778,
  "bili": 3779,
  "najmanje ": 3780,
  "klini": 3781,
  "profi": 3782,
  "isključivo ": 3783,
  "sposobnosti ": 3784,
  "obzir ": 3785,
  "ljive ": 3786,
  "ME": 3787,
  "snim ": 3788,
  "fra": 3789,
  "angaž": 3790,
  "SA ": 3791,
  "kombina": 3792,
  "pisa ": 3793,
  "gos": 3794,
  "oprav": 3795,
  "njihova ": 3796,
  "dijal": 3797,
  "solu": 3798,
  "jati ": 3799,
  "ner ": 3800,
  "uli": 3801,
  "međutim ": 3802,
  "fazi ": 3803,
  "Prvi ": 3804,
  "avgu": 3805,
  "04 ": 3806,
  "Stra": 3807,
  "nikada ": 3808,
  "OR": 3809,
  "iste ": 3810,
  "Zakona ": 3811,
  "otva": 3812,
  "obzira ": 3813,
  "značajna ": 3814,
  "njene ": 3815,
  "tuži": 3816,
  "bibli": 3817,
  "Evrope ": 3818,
  "aku": 3819,
  "varijab": 3820,
  "česti": 3821,
  "odmah ": 3822,
  "taciju ": 3823,
  "port": 3824,
  "Jovan": 3825,
  "čuna": 3826,
  "vid ": 3827,
  "uopšte ": 3828,
  "tržištu ": 3829,
  "reži": 3830,
  "parametara ": 3831,
  "meseci ": 3832,
  "ovali ": 3833,
  "javnog ": 3834,
  "mle": 3835,
  "ь": 3836,
  "ranjem ": 3837,
  "kole": 3838,
  "navi": 3839,
  "odli": 3840,
  "verovat": 3841,
  "živi ": 3842,
  "inskog ": 3843,
  "izvor": 3844,
  "Ca": 3845,
  "obe ": 3846,
  "Dakle ": 3847,
  "prola": 3848,
  "vena ": 3849,
  "filozo": 3850,
  "tre ": 3851,
  "inskih ": 3852,
  "karakteristika ": 3853,
  "Vojvod": 3854,
  "Jugoslavije ": 3855,
  "oli": 3856,
  "α": 3857,
  "umetnič": 3858,
  "minuta ": 3859,
  "Sre": 3860,
  "06 ": 3861,
  "hoda ": 3862,
  "ɚɜ": 3863,
  "mm ": 3864,
  "ugro": 3865,
  "we": 3866,
  "smrti ": 3867,
  "praksi ": 3868,
  "dizaj": 3869,
  "sprovo": 3870,
  "53 ": 3871,
  "ati ": 3872,
  "vana ": 3873,
  "početka ": 3874,
  "govore ": 3875,
  "Tra": 3876,
  "deceni": 3877,
  "are ": 3878,
  "eki": 3879,
  "tz": 3880,
  "stvara": 3881,
  "Aleksandar ": 3882,
  "geo": 3883,
  "stanka ": 3884,
  "stalno ": 3885,
  "46 ": 3886,
  "kompozi": 3887,
  "organa ": 3888,
  "1999 ": 3889,
  "jali ": 3890,
  "celo": 3891,
  "ured": 3892,
  "ukazuju ": 3893,
  "predmet ": 3894,
  "à ": 3895,
  "Ima": 3896,
  "posred": 3897,
  "video ": 3898,
  "sova ": 3899,
  "okru": 3900,
  "đene ": 3901,
  "dinami": 3902,
  "premi": 3903,
  "slike ": 3904,
  "đivanje ": 3905,
  "siju ": 3906,
  "tekst": 3907,
  "tičke ": 3908,
  "loške ": 3909,
  "° ": 3910,
  "ličnosti ": 3911,
  "fri": 3912,
  "uslov": 3913,
  "sani ": 3914,
  "ostale ": 3915,
  "moleku": 3916,
  "is ": 3917,
  "člani": 3918,
  "sis ": 3919,
  "oči": 3920,
  "Osim ": 3921,
  "formal": 3922,
  "rele": 3923,
  "dosta ": 3924,
  "referen": 3925,
  "merenja ": 3926,
  "ekspre": 3927,
  "odu": 3928,
  "čnost ": 3929,
  "Zna": 3930,
  "svedo": 3931,
  "52 ": 3932,
  "buduć": 3933,
  "kove ": 3934,
  "šću ": 3935,
  "velika ": 3936,
  "gnu": 3937,
  "mim ": 3938,
  "km ": 3939,
  "modi": 3940,
  "prese": 3941,
  "šnje ": 3942,
  "cene ": 3943,
  "stra ": 3944,
  "ben": 3945,
  "lama ": 3946,
  "47 ": 3947,
  "terna": 3948,
  "vodom ": 3949,
  "ukupno ": 3950,
  "pouz": 3951,
  "Š ": 3952,
  "snu ": 3953,
  "najbolje ": 3954,
  "ilo": 3955,
  "τ": 3956,
  "jskom ": 3957,
  "hipote": 3958,
  "sekun": 3959,
  "line": 3960,
  "pad ": 3961,
  "šenje ": 3962,
  "baš ": 3963,
  "for ": 3964,
  "mato": 3965,
  "veću ": 3966,
  "početku ": 3967,
  "pristup": 3968,
  "51 ": 3969,
  "sledeće ": 3970,
  "manji ": 3971,
  "nicama ": 3972,
  "bre": 3973,
  "medicin": 3974,
  "strana ": 3975,
  "predi": 3976,
  "slici ": 3977,
  "28": 3978,
  "optere": 3979,
  "ɫ": 3980,
  "prilago": 3981,
  "izbora ": 3982,
  "ο": 3983,
  "intenzi": 3984,
  "njihovo ": 3985,
  "rob": 3986,
  "tić ": 3987,
  "analizu ": 3988,
  "ispitivanja ": 3989,
  "sam": 3990,
  "gni": 3991,
  "prethodno ": 3992,
  "regula": 3993,
  "piše ": 3994,
  "komer": 3995,
  "72 ": 3996,
  "efekat ": 3997,
  "Posle ": 3998,
  "glavni ": 3999,
  "plu": 4000,
  "ɨɪ": 4001,
  "49 ": 4002,
  "test ": 4003,
  "zatvor": 4004,
  "važno ": 4005,
  "500 ": 4006,
  "življ": 4007,
  "ministra": 4008,
  "program ": 4009,
  "frek": 4010,
  "cm ": 4011,
  "fikacija ": 4012,
  "povećanje ": 4013,
  "Stu": 4014,
  "objekata ": 4015,
  "izvora ": 4016,
  "predsednika ": 4017,
  "OD": 4018,
  "Kori": 4019,
  "mova ": 4020,
  "prva ": 4021,
  "primenu ": 4022,
  "jer": 4023,
  "postupku ": 4024,
  "deca ": 4025,
  "utakmi": 4026,
  "Hi": 4027,
  "ugar": 4028,
  "životne ": 4029,
  "knjiga ": 4030,
  "delu": 4031,
  "orijen": 4032,
  "laca ": 4033,
  "potpunosti ": 4034,
  "Miha": 4035,
  "nisam ": 4036,
  "njihovih ": 4037,
  "priča ": 4038,
  "njena ": 4039,
  "dijagno": 4040,
  "javlja ": 4041,
  "štvo ": 4042,
  "Grafi": 4043,
  "korišćenje ": 4044,
  "čoveka ": 4045,
  "tica": 4046,
  "dobija ": 4047,
  "spreč": 4048,
  "prirode ": 4049,
  "znanje ": 4050,
  "ografi": 4051,
  "Srbiju ": 4052,
  "odgovara ": 4053,
  "dobio ": 4054,
  "kontekstu ": 4055,
  "postupka ": 4056,
  "kovi ": 4057,
  "Vučić ": 4058,
  "mate": 4059,
  "dale": 4060,
  "reci": 4061,
  "ting ": 4062,
  "projekta ": 4063,
  "lin ": 4064,
  "mreže ": 4065,
  "flu": 4066,
  "značajan ": 4067,
  "siji ": 4068,
  "LE": 4069,
  "pren": 4070,
  "ganje ": 4071,
  "podršku ": 4072,
  "šenja ": 4073,
  "francu": 4074,
  "sane ": 4075,
  "svakako ": 4076,
  "ozna": 4077,
  "prouč": 4078,
  "ð": 4079,
  "ʁɟ ": 4080,
  "far": 4081,
  "ster ": 4082,
  "štva ": 4083,
  "mase ": 4084,
  "misli ": 4085,
  "proda": 4086,
  "AC": 4087,
  "я ": 4088,
  "konkre": 4089,
  "oseća": 4090,
  "Ke": 4091,
  "alu ": 4092,
  "selek": 4093,
  "opse": 4094,
  "navod": 4095,
  "Vladi": 4096,
  "vene ": 4097,
  "Anali": 4098,
  "ck ": 4099,
  "pati": 4100,
  "izbor ": 4101,
  ",, ": 4102,
  "mladi": 4103,
  "99 ": 4104,
  "58 ": 4105,
  "istraživanje ": 4106,
  "var": 4107,
  "discipl": 4108,
  "udal": 4109,
  "lizaciju ": 4110,
  "oču": 4111,
  "svakodnev": 4112,
  "tzv ": 4113,
  "devoj": 4114,
  "soft": 4115,
  "Jedan ": 4116,
  "dra ": 4117,
  "nemaju ": 4118,
  "nekad ": 4119,
  "67 ": 4120,
  "56 ": 4121,
  "šti ": 4122,
  "šiti ": 4123,
  "pona": 4124,
  "59 ": 4125,
  "izuzetno ": 4126,
  "manasti": 4127,
  "54 ": 4128,
  "toru ": 4129,
  "pristupa ": 4130,
  "sela ": 4131,
  "avanjem ": 4132,
  "rečima ": 4133,
  "gram ": 4134,
  "jujući ": 4135,
  "kg ": 4136,
  "septe": 4137,
  "Rad": 4138,
  "imamo ": 4139,
  "budže": 4140,
  "63 ": 4141,
  "logiju ": 4142,
  "preki": 4143,
  "juće ": 4144,
  "pokuša": 4145,
  "ksa ": 4146,
  "pripa": 4147,
  "dominan": 4148,
  "rov": 4149,
  "http ": 4150,
  "jedinica ": 4151,
  "zisten": 4152,
  "vas": 4153,
  "tin ": 4154,
  "pover": 4155,
  "ɟɞ": 4156,
  "karije": 4157,
  "odvi": 4158,
  "bismo ": 4159,
  "stoje ": 4160,
  "iskustva ": 4161,
  "predmeta ": 4162,
  "kata": 4163,
  "62 ": 4164,
  "92 ": 4165,
  "zaista ": 4166,
  "čnja": 4167,
  "cem ": 4168,
  "iznad ": 4169,
  "lije ": 4170,
  "postojanje ": 4171,
  "grupu ": 4172,
  "moglo ": 4173,
  "vića ": 4174,
  "Institu": 4175,
  "ljiva ": 4176,
  "febru": 4177,
  "koman": 4178,
  "VE": 4179,
  "multi": 4180,
  "značajne ": 4181,
  "izvo": 4182,
  "saglas": 4183,
  "dovi ": 4184,
  "područja ": 4185,
  "poremeća": 4186,
  "relevan": 4187,
  "upotrebu ": 4188,
  "cegov": 4189,
  "kontroli": 4190,
  "loških ": 4191,
  "61 ": 4192,
  "osnovne ": 4193,
  "Gru": 4194,
  "kla ": 4195,
  "doba ": 4196,
  "namen": 4197,
  "proteina ": 4198,
  "MI": 4199,
  "ura": 4200,
  "kos ": 4201,
  "kompanija ": 4202,
  "zon": 4203,
  "tivnost ": 4204,
  "uslove ": 4205,
  "57 ": 4206,
  "jnih ": 4207,
  "pravu ": 4208,
  "ban ": 4209,
  "niz ": 4210,
  "ćanja ": 4211,
  "ila": 4212,
  "knjige ": 4213,
  "68 ": 4214,
  "prene": 4215,
  "faze ": 4216,
  "kandi": 4217,
  "situacija ": 4218,
  "moni": 4219,
  "korišćenja ": 4220,
  "Zato ": 4221,
  "prisustvo ": 4222,
  "ɫɬ": 4223,
  "nekih ": 4224,
  "đar": 4225,
  "faktor ": 4226,
  "tona ": 4227,
  "agre": 4228,
  "metrij": 4229,
  "rođ": 4230,
  "sasvim ": 4231,
  "pat": 4232,
  "stička ": 4233,
  "utiču ": 4234,
  "ciklu": 4235,
  "dat ": 4236,
  "regional": 4237,
  "sile ": 4238,
  "Gor": 4239,
  "njegovo ": 4240,
  "velikog ": 4241,
  "desetih ": 4242,
  "mg ": 4243,
  "bazi": 4244,
  "ćelije ": 4245,
  "smanjenje ": 4246,
  "veza ": 4247,
  "infek": 4248,
  "šan": 4249,
  "il ": 4250,
  "sprem": 4251,
  "bakteri": 4252,
  "podacima ": 4253,
  "lista ": 4254,
  "simp": 4255,
  "politika ": 4256,
  "počinje ": 4257,
  "mskog ": 4258,
  "Svi ": 4259,
  "mama ": 4260,
  "stvima ": 4261,
  "tnoj ": 4262,
  "menadž": 4263,
  "ere ": 4264,
  "njeno ": 4265,
  "obuhvata ": 4266,
  "stil": 4267,
  "vest ": 4268,
  "nakna": 4269,
  "posedu": 4270,
  "66 ": 4271,
  "id": 4272,
  "SS": 4273,
  "pokuš": 4274,
  "Pa ": 4275,
  "foku": 4276,
  "—": 4277,
  "stanovnika ": 4278,
  "polja ": 4279,
  "Petr": 4280,
  "anije ": 4281,
  "dostav": 4282,
  "78 ": 4283,
  "prim": 4284,
  "pokri": 4285,
  "tus ": 4286,
  "Pose": 4287,
  "zla": 4288,
  "političke ": 4289,
  "tivnosti ": 4290,
  "mskih ": 4291,
  "IV ": 4292,
  "Pla": 4293,
  "kar ": 4294,
  "umesto ": 4295,
  "lizma ": 4296,
  "dije ": 4297,
  "dre": 4298,
  "teksta ": 4299,
  "donoš": 4300,
  "jako ": 4301,
  "kur": 4302,
  "koristiti ": 4303,
  "pribli": 4304,
  "zao ": 4305,
  "upozna": 4306,
  "pal": 4307,
  "nar": 4308,
  "ostali ": 4309,
  "uslovi ": 4310,
  "preuze": 4311,
  "dili ": 4312,
  "Do ": 4313,
  "uži": 4314,
  "škola ": 4315,
  "%. ": 4316,
  "komple": 4317,
  "avati ": 4318,
  "ɚɥ": 4319,
  "enjima ": 4320,
  "društvo ": 4321,
  "seksu": 4322,
  "mentu ": 4323,
  "postao ": 4324,
  "kontrole ": 4325,
  "garan": 4326,
  "zivanje ": 4328,
  "decu ": 4329,
  "novo": 4330,
  "este": 4331,
  "sušt": 4332,
  "upravljanje ": 4333,
  "PRE": 4334,
  "znog ": 4335,
  "nikom ": 4336,
  "praz": 4337,
  "IJA ": 4338,
  "vlast ": 4339,
  "članova ": 4340,
  "ljudima ": 4341,
  "matski ": 4342,
  "dub": 4343,
  "manife": 4344,
  "81 ": 4345,
  "Slov": 4346,
  "ons ": 4347,
  "ostr": 4348,
  "pol": 4349,
  "Evropi ": 4350,
  "narod ": 4351,
  "plan ": 4352,
  "pojave ": 4353,
  "tskih ": 4354,
  "zio ": 4355,
  "servi": 4356,
  "bolesnika ": 4357,
  "ɫɤ": 4358,
  "slučajevima ": 4359,
  "ɩɨ�": 4360,
  "ɢɬ": 4361,
  "ver ": 4362,
  "Še": 4363,
  "85 ": 4364,
  "žive ": 4365,
  "pojedinih ": 4366,
  "neprija": 4367,
  "inska ": 4368,
  "infra": 4369,
  "žne ": 4370,
  "mrt": 4371,
  "zvez": 4372,
  "mira ": 4373,
  "sever": 4374,
  "uzoraka ": 4375,
  "ы": 4376,
  "kritič": 4377,
  "69 ": 4378,
  "dode": 4379,
  "tum ": 4380,
  "hibi": 4381,
  "smatraju ": 4382,
  "krv": 4383,
  "javnosti ": 4384,
  "kara": 4385,
  "manj": 4386,
  "enice ": 4387,
  "ovlašć": 4388,
  "meseca ": 4389,
  "svake ": 4390,
  "Pan": 4391,
  "vani ": 4392,
  "met ": 4393,
  "avajući ": 4394,
  "činjenica ": 4395,
  "poe": 4396,
  "pato": 4397,
  "pažnju ": 4398,
  "zano ": 4399,
  "indika": 4400,
  "zasni": 4401,
  "ponašanje ": 4402,
  "povre": 4403,
  "nan": 4404,
  "administra": 4405,
  "siro": 4406,
  "avao ": 4407,
  "oksida": 4408,
  "Fil": 4409,
  "industrij": 4410,
  "konstan": 4411,
  "dod": 4412,
  "podne": 4413,
  "jedinjenja ": 4414,
  "čnoj ": 4415,
  "Evropske ": 4416,
  "materija": 4417,
  "evi": 4418,
  "reguli": 4419,
  "ordina": 4420,
  "sloven": 4421,
  "71 ": 4422,
  "tari": 4423,
  "opšti": 4424,
  "mentar": 4425,
  "govara": 4426,
  "životu ": 4427,
  "matri": 4428,
  "lep": 4429,
  "renu ": 4430,
  "dama ": 4431,
  "hrvat": 4432,
  "autor": 4433,
  "bama ": 4434,
  "1998 ": 4435,
  "sadrža": 4436,
  "roku ": 4437,
  "enici ": 4438,
  "sledeći ": 4439,
  "JA ": 4440,
  "onal ": 4441,
  "Bar": 4442,
  "torska ": 4443,
  "kine": 4444,
  "teritoriji ": 4445,
  "čar": 4446,
  "lite ": 4447,
  "lozi ": 4448,
  "žan": 4449,
  "dena ": 4450,
  "uzima ": 4451,
  "ranog ": 4452,
  "centar ": 4453,
  "tore ": 4454,
  "digital": 4455,
  "76 ": 4456,
  "ćuje ": 4457,
  "77 ": 4458,
  "biv": 4459,
  "SR": 4460,
  "Ser": 4461,
  "figu": 4462,
  "KA ": 4463,
  "th": 4464,
  "kora": 4465,
  "nabav": 4466,
  "jednač": 4467,
  "naru": 4468,
  "snaga ": 4469,
  "ler ": 4470,
  "iza ": 4471,
  "slučajeva ": 4472,
  "naziva ": 4473,
  "nički ": 4474,
  "drugoj ": 4475,
  "mada ": 4476,
  "ziju ": 4477,
  "ţe ": 4478,
  "Man": 4479,
  "ph": 4480,
  "zašto ": 4481,
  "vrata ": 4482,
  "hodno ": 4483,
  "srpskom ": 4484,
  "73 ": 4485,
  "valen": 4486,
  "bur": 4487,
  "roman": 4488,
  "Par": 4489,
  "Ce": 4490,
  "čini": 4491,
  "vešta": 4492,
  "integri": 4493,
  "kvan": 4494,
  "velikim ": 4495,
  "imu": 4496,
  "zora ": 4497,
  "aplika": 4498,
  "seman": 4499,
  "kona": 4500,
  "nikak": 4501,
  "ɧɨ�": 4502,
  "zakonom ": 4503,
  "Novom ": 4504,
  "th ": 4505,
  "stimu": 4506,
  "oktobra ": 4507,
  "alterna": 4508,
  "poš": 4509,
  "status ": 4510,
  "stveno ": 4511,
  "ničke ": 4512,
  "sen ": 4513,
  "Pav": 4514,
  "film ": 4515,
  "mobil": 4516,
  "relativno ": 4517,
  "ps ": 4518,
  "zahtev ": 4519,
  "temperature ": 4520,
  "tral": 4521,
  "inu": 4522,
  "BiH ": 4523,
  "zivanja ": 4524,
  "boje ": 4525,
  "lov ": 4526,
  "jev": 4527,
  "per ": 4528,
  "96 ": 4529,
  "D�": 4530,
  "kola ": 4531,
  "komentara ": 4532,
  "anog ": 4533,
  "osetlji": 4534,
  "nose ": 4535,
  "ing": 4536,
  "pokazala ": 4537,
  "jedini ": 4538,
  "lokali": 4539,
  "iskustvo ": 4540,
  "ralno ": 4541,
  "kretanja ": 4542,
  "lio ": 4543,
  "MA": 4544,
  "Član ": 4545,
  "alnim ": 4546,
  "anu ": 4547,
  "VO": 4548,
  "uči": 4549,
  "znih ": 4550,
  "osa ": 4551,
  "ostaje ": 4552,
  "gradi": 4553,
  "obrazovanje ": 4554,
  "valu": 4555,
  "jednoj ": 4556,
  "znam ": 4557,
  "par ": 4558,
  "greš": 4559,
  "najvaž": 4560,
  "recep": 4561,
  "vođenje ": 4562,
  "tama ": 4563,
  "giju ": 4564,
  "vet": 4565,
  "gova ": 4566,
  "12": 4567,
  "OB": 4568,
  "jač": 4569,
  "nauka ": 4570,
  "tržišta ": 4571,
  "sul": 4572,
  "minimal": 4573,
  "odgovora ": 4574,
  "događaja ": 4575,
  "učini": 4576,
  "93 ": 4577,
  "interesa ": 4578,
  "dje ": 4579,
  "pozori": 4580,
  "neuro": 4581,
  "dakle ": 4582,
  "Zakon ": 4583,
  "ćanje ": 4584,
  "želi ": 4585,
  "učenja ": 4586,
  "98 ": 4587,
  "as ": 4588,
  "eksplo": 4589,
  "zabelež": 4590,
  "fiko": 4591,
  "crkve ": 4592,
  "većina ": 4593,
  "ber ": 4594,
  "ae": 4595,
  "izvor ": 4596,
  "siti ": 4597,
  "trebi ": 4598,
  "uključ": 4599,
  "jn ": 4600,
  "DЌ": 4601,
  "Br": 4602,
  "ê": 4603,
  "rem ": 4604,
  "kraj ": 4605,
  "istom ": 4606,
  "daleko ": 4607,
  "opet ": 4608,
  "hilja": 4609,
  "kop": 4610,
  "bibliote": 4611,
  "niko ": 4612,
  "Kr": 4613,
  "NE": 4614,
  "74 ": 4615,
  "popular": 4616,
  "jedinice ": 4617,
  "situacije ": 4618,
  "rizik ": 4619,
  "No": 4620,
  "želj": 4621,
  "krimin": 4622,
  "Dana": 4623,
  "sposobnost ": 4624,
  "snom ": 4625,
  "najveć": 4626,
  "traži": 4627,
  "svako ": 4628,
  "dobro": 4629,
  "počeo ": 4630,
  "Ak": 4631,
  "magne": 4632,
  "kontrol": 4633,
  "Šta ": 4634,
  "postignu": 4635,
  "šar": 4636,
  "slov": 4637,
  "DI": 4638,
  "prkos ": 4639,
  "bo ": 4640,
  "samim ": 4641,
  "Hercegov": 4642,
  "limo ": 4643,
  "naglaš": 4644,
  "1996 ": 4645,
  "izne": 4646,
  "Tr": 4647,
  "ideja ": 4648,
  "ljiv ": 4649,
  "popula": 4650,
  "vođa": 4651,
  "izračuna": 4652,
  "miši": 4653,
  "pušt": 4654,
  "banke ": 4655,
  "lokalne ": 4656,
  "ь ": 4657,
  "stičkog ": 4658,
  "uzorka ": 4659,
  "the": 4660,
  "1997 ": 4661,
  "dila ": 4662,
  "Zo": 4663,
  "Srpske ": 4664,
  "termin": 4665,
  "transforma": 4666,
  "izma ": 4667,
  "osnovnih ": 4668,
  "apsolu": 4669,
  ".). ": 4670,
  "racije ": 4671,
  "Val": 4672,
  "so ": 4673,
  "anija ": 4674,
  "supstan": 4675,
  "San": 4676,
  "sekre": 4677,
  "Kan": 4678,
  "Mla": 4679,
  "susre": 4680,
  "oki": 4681,
  "lena ": 4682,
  "odabra": 4683,
  "fudbal": 4684,
  "Ver": 4685,
  "području ": 4686,
  "1990 ": 4687,
  "cer": 4688,
  "TV ": 4689,
  "migra": 4690,
  "istraživanju ": 4691,
  "inova": 4692,
  "Srba ": 4693,
  "sorp": 4694,
  "samog ": 4695,
  "tice ": 4696,
  "jedino ": 4697,
  "um": 4698,
  "sastoji ": 4699,
  "troškova ": 4700,
  "toplo": 4701,
  "inhibi": 4702,
  "vencija ": 4703,
  "poslani": 4704,
  "gleda": 4705,
  "imeni": 4706,
  "dodatno ": 4707,
  "ces ": 4708,
  "delom ": 4709,
  "budući ": 4710,
  "veličine ": 4711,
  "kana ": 4712,
  "gl ": 4713,
  "čaka ": 4714,
  "transpor": 4715,
  "fu": 4716,
  "tako": 4717,
  "njegovom ": 4718,
  "redu ": 4719,
  "godinama ": 4720,
  "Per": 4721,
  "Dob": 4722,
  "ljude ": 4723,
  "pravoslav": 4724,
  "hrišć": 4725,
  "jnog ": 4726,
  "− ": 4727,
  "aktivi": 4728,
  "knu": 4729,
  "našem ": 4730,
  "tekst ": 4731,
  "97 ": 4732,
  "Dok": 4733,
  "zra": 4734,
  "aktuel": 4735,
  "igra ": 4736,
  "tvo": 4737,
  "Ono ": 4738,
  "Jan": 4739,
  "ovala ": 4740,
  "izgleda ": 4741,
  "koncentracija ": 4742,
  "ZA": 4743,
  "lizam ": 4744,
  "mnogi ": 4745,
  "tira ": 4746,
  "svetskog ": 4747,
  "nov ": 4748,
  "uloga ": 4749,
  "vane ": 4750,
  "inicija": 4751,
  "takav ": 4752,
  "ö": 4753,
  "sun": 4754,
  "devi": 4755,
  "gore ": 4756,
  "doprine": 4757,
  "objekta ": 4758,
  "naselja ": 4759,
  "ger ": 4760,
  "1991 ": 4761,
  "ciona ": 4762,
  "registr": 4763,
  "SI": 4764,
  "prikazani ": 4765,
  "tel": 4766,
  "ekonomske ": 4767,
  "й ": 4768,
  "novca ": 4769,
  "posla ": 4770,
  "ena": 4771,
  "teo": 4772,
  "torima ": 4773,
  "poslovanja ": 4774,
  "math ": 4775,
  "čvr": 4776,
  "vama ": 4777,
  "nukle": 4778,
  "parla": 4779,
  "Istra": 4780,
  "lović ": 4781,
  "sedam ": 4782,
  "pama ": 4783,
  "89 ": 4784,
  "eng ": 4785,
  "obaveza ": 4786,
  "biološ": 4787,
  "granice ": 4788,
  "kupi": 4789,
  "tekstu ": 4790,
  "vlada ": 4791,
  "godišnje ": 4792,
  "ugovor": 4793,
  "maja ": 4794,
  "kne": 4795,
  "che": 4796,
  "94 ": 4797,
  "ɚʃ": 4798,
  "ljava ": 4799,
  "ćima ": 4800,
  "meren": 4801,
  "sadaš": 4802,
  "sami ": 4803,
  "--": 4804,
  "ʂ": 4805,
  "linear": 4806,
  "osvoj": 4807,
  "μ": 4808,
  "pomin": 4809,
  "79 ": 4810,
  "kupov": 4811,
  "ɝ": 4812,
  "one": 4813,
  "ugovor ": 4814,
  "tija ": 4815,
  "zakono": 4816,
  "vak": 4817,
  "ɚɬ": 4818,
  "Ča": 4819,
  "ɢɦ": 4820,
  "poklo": 4821,
  "opštine ": 4822,
  "fos": 4823,
  "tosti ": 4824,
  "ted ": 4825,
  "91 ": 4826,
  "stao ": 4827,
  "telo ": 4828,
  "medija ": 4829,
  "proizvođa": 4830,
  "tes ": 4831,
  "Predsed": 4832,
  "obaveze ": 4833,
  "plat": 4834,
  "izdva": 4835,
  "Drugi ": 4836,
  "navode ": 4837,
  "tabeli ": 4838,
  "društvene ": 4839,
  "zdravlja ": 4840,
  "kolači": 4841,
  "Sad ": 4842,
  "diskri": 4843,
  "kapitala ": 4844,
  "tal ": 4845,
  "jenog ": 4846,
  "javno ": 4847,
  "ms ": 4848,
  "Dže": 4849,
  "imple": 4850,
  "juna": 4851,
  "značenja ": 4852,
  "Con": 4853,
  "ven ": 4854,
  "dak ": 4855,
  "prije": 4856,
  "plate ": 4857,
  "nena": 4858,
  "Tri": 4859,
  "dobar ": 4860,
  "stepena ": 4861,
  "Glav": 4862,
  "zor ": 4863,
  "Gene": 4864,
  "anim ": 4865,
  "gen ": 4866,
  "Đor": 4867,
  "zad": 4868,
  "ɢɡ": 4869,
  "ovanju ": 4870,
  "sedi": 4871,
  "tska ": 4872,
  "vije": 4873,
  "disertacija ": 4874,
  "dne ": 4875,
  "novu ": 4876,
  "odbrane ": 4877,
  "Kad ": 4878,
  "morfo": 4879,
  "stike ": 4880,
  "cito": 4881,
  "našeg ": 4882,
  "ota": 4883,
  "pokazali ": 4884,
  "radnika ": 4885,
  "jevi ": 4886,
  "1995 ": 4887,
  "dovima ": 4888,
  "hor": 4889,
  "njenog ": 4890,
  "uri": 4891,
  "novim ": 4892,
  "deteta ": 4893,
  "Mno": 4894,
  "ZA ": 4895,
  "određeni ": 4896,
  "sor ": 4897,
  "ɢɯ ": 4898,
  "jsko ": 4899,
  "zdravlje ": 4900,
  "NATO ": 4901,
  "prom": 4902,
  "institucija ": 4903,
  "ostvar": 4904,
  "interpre": 4905,
  "rat": 4906,
  "ćeni ": 4907,
  "društvu ": 4908,
  "Tak": 4909,
  "sazna": 4910,
  "MO": 4911,
  "skra": 4912,
  "ralne ": 4913,
  "menti ": 4914,
  "učin": 4915,
  "''. ": 4916,
  "značenje ": 4917,
  "riti ": 4918,
  "velikih ": 4919,
  "tije ": 4920,
  "centri": 4921,
  "mehan": 4922,
  "jona ": 4923,
  "α ": 4924,
  "ljanju ": 4925,
  "javnih ": 4926,
  "propa": 4927,
  "pripada ": 4928,
  "poslove ": 4929,
  "Parti": 4930,
  "stio ": 4931,
  "krvi ": 4932,
  "snim": 4933,
  "srednje ": 4934,
  "lektu": 4935,
  "teorije ": 4936,
  "upotreba ": 4937,
  "bez": 4938,
  "onaj ": 4939,
  "glasnik ": 4940,
  "septembra ": 4941,
  "83 ": 4942,
  "Fran": 4943,
  "Rusije ": 4944,
  "ogro": 4945,
  "Mi ": 4946,
  "specijal": 4947,
  "Medi": 4948,
  "vale ": 4949,
  "mnoge ": 4950,
  "88 ": 4951,
  "lop": 4952,
  "kojeg ": 4953,
  "zaciju ": 4954,
  "skup ": 4955,
  "naš ": 4956,
  "kontrolu ": 4957,
  "Sav": 4958,
  "kakav ": 4959,
  "položaj ": 4960,
  "trud": 4961,
  "proši": 4962,
  "PRO": 4963,
  "odav": 4964,
  "mehaniza": 4965,
  "Godine ": 4966,
  "partne": 4967,
  "svaka ": 4968,
  "sano ": 4969,
  "hiper": 4970,
  "tica ": 4971,
  "autori ": 4972,
  "pruža ": 4973,
  "ó": 4974,
  "ciljeva ": 4975,
  "sigurno ": 4976,
  "sana ": 4977,
  "mak ": 4978,
  "ovanjem ": 4979,
  "ćaju ": 4980,
  "kategorije ": 4981,
  "odbi": 4982,
  "ov ": 4983,
  "ü": 4984,
  "TA ": 4985,
  "AV": 4986,
  "For": 4987,
  "revolu": 4988,
  "rava ": 4989,
  "vizu": 4990,
  "udruž": 4991,
  "nijim ": 4992,
  "Poru": 4993,
  "toksi": 4994,
  "spolja": 4995,
  "onima ": 4996,
  "sanih ": 4997,
  "sadrže ": 4998,
  "vera ": 4999,
  "Lon": 5000,
  "enica ": 5001,
  "trenutno ": 5002,
  "pm ": 5003,
  "zr": 5004,
  "đivanja ": 5005,
  "isprav": 5006,
  "objavlji": 5007,
  "novac ": 5008,
  "ite ": 5009,
  "perspek": 5010,
  "iskori": 5011,
  "tema ": 5012,
  "njegovu ": 5013,
  "mišljenje ": 5014,
  "terori": 5015,
  "časo": 5016,
  "odo": 5017,
  "funkciju ": 5018,
  "kompe": 5019,
  "zakon ": 5020,
  "Stoga ": 5021,
  "delatnosti ": 5022,
  "parame": 5023,
  "primena ": 5024,
  "ä": 5025,
  "zona ": 5026,
  "Pre ": 5027,
  "bliz": 5028,
  "ml ": 5029,
  "juna ": 5030,
  "dova ": 5031,
  "nastavnika ": 5032,
  "Ek": 5033,
  "Naslov ": 5034,
  "ò": 5035,
  "kontinui": 5036,
  "vanjima ": 5037,
  "vrednostima ": 5038,
  "avio ": 5039,
  "načel": 5040,
  "nekom ": 5041,
  "tam ": 5042,
  "vezu ": 5043,
  "imena ": 5044,
  "opšte": 5045,
  "Por": 5046,
  "generi": 5047,
  "neku ": 5048,
  "jić ": 5049,
  "zapa": 5050,
  "vodu ": 5051,
  "muškar": 5052,
  "faza ": 5053,
  "privat": 5054,
  "nauke ": 5055,
  "ε": 5056,
  "ly ": 5057,
  "Međunarod": 5058,
  "ovanog ": 5059,
  "dobijenih ": 5060,
  "86 ": 5061,
  "donosi ": 5062,
  "bolji ": 5063,
  "revi": 5064,
  "veliku ": 5065,
  "stvar ": 5066,
  "RU": 5067,
  "ɟɪ": 5068,
  "vrede ": 5069,
  "82 ": 5070,
  "KA": 5071,
  "ilu": 5072,
  "ziva ": 5073,
  "vesti ": 5074,
  "podu": 5075,
  "vož": 5076,
  "Ci": 5077,
  "liti ": 5078,
  "gust": 5079,
  "ćeno ": 5080,
  "adre": 5081,
  "loškog ": 5082,
  "Popo": 5083,
  "boj": 5084,
  "usva": 5085,
  "tional ": 5086,
  "sluš": 5087,
  "Pri ": 5088,
  "87 ": 5089,
  "Samo ": 5090,
  "snaž": 5091,
  "marta ": 5092,
  "drugu ": 5093,
  "licu ": 5094,
  "dele ": 5095,
  "DO": 5096,
  "Što ": 5097,
  "84 ": 5098,
  "kriti": 5099,
  "pozicije ": 5100,
  "testa ": 5101,
  "kontra": 5102,
  "specija": 5103,
  "nara": 5104,
  "zemlju ": 5105,
  "LO": 5106,
  "vača ": 5107,
  "mne ": 5108,
  "menja ": 5109,
  "bar": 5110,
  "borav": 5111,
  "Slob": 5112,
  "dap": 5113,
  "Kraljev": 5114,
  "tine ": 5115,
  "ɚɪ": 5116,
  "pojava ": 5117,
  "početkom ": 5118,
  "zamen": 5119,
  "učešće ": 5120,
  "valo ": 5121,
  "njihovu ": 5122,
  "reakcije ": 5123,
  "jedinstven": 5124,
  "političkih ": 5125,
  "spra": 5126,
  "stadi": 5127,
  "â": 5128,
  "svaku ": 5129,
  "enti": 5130,
  "ljuju ": 5131,
  "Republici ": 5132,
  "spon": 5133,
  "dugo ": 5134,
  "moj ": 5135,
  "Spe": 5136,
  "log": 5137,
  "Danas ": 5138,
  "objasni": 5139,
  "stica": 5140,
  "politički ": 5141,
  "vlade ": 5142,
  "alko": 5143,
  "slav ": 5144,
  "podse": 5145,
  "1992 ": 5146,
  "komercijal": 5147,
  "loge ": 5148,
  "nos ": 5149,
  "naziv ": 5150,
  "stili ": 5151,
  "Ovi ": 5152,
  "MS ": 5153,
  "rio ": 5154,
  "Pove": 5155,
  "IC": 5156,
  "stale ": 5157,
  "veku ": 5158,
  "ispolj": 5159,
  "odsu": 5160,
  "stanu ": 5161,
  "origin": 5162,
  "istog ": 5163,
  "eti": 5164,
  "kvanti": 5165,
  "zadatak ": 5166,
  "ekstrak": 5167,
  "est ": 5168,
  "razlog ": 5169,
  "preduzet": 5170,
  "određenih ": 5171,
  "ssi": 5172,
  "tehnologije ": 5173,
  "predlož": 5174,
  "žim ": 5175,
  "moć": 5176,
  "zati ": 5177,
  "taciji ": 5178,
  "milijar": 5179,
  "pan ": 5180,
  "taju ": 5181,
  "Dal": 5182,
  "Make": 5183,
  "napred": 5184,
  "počela ": 5185,
  "anin ": 5186,
  "ɢɜ": 5187,
  "ˇc": 5188,
  "priče ": 5189,
  "Dan": 5190,
  "čica ": 5191,
  "optimal": 5192,
  "mehani": 5193,
  "stalo ": 5194,
  "mno ": 5195,
  "poslednjih ": 5196,
  "površina ": 5197,
  "led": 5198,
  "resursa ": 5199,
  "wit": 5200,
  "pomog": 5201,
  "odgovornosti ": 5202,
  "jsku ": 5203,
  "enije ": 5204,
  "uo": 5205,
  "mišljenja ": 5206,
  "vlasni": 5207,
  "enik ": 5208,
  "µ": 5209,
  "Meto": 5210,
  "povećava ": 5211,
  "Poruka ": 5212,
  "algori": 5213,
  "ur ": 5214,
  "mbar ": 5215,
  "tetom ": 5216,
  "ref": 5217,
  "krivičnog ": 5218,
  "plici": 5219,
  "я": 5220,
  "ćer": 5221,
  "crven": 5222,
  "Služb": 5223,
  "obro": 5224,
  "ʄ": 5225,
  "poređenju ": 5226,
  "poto": 5227,
  "zoni ": 5228,
  "karakteristič": 5229,
  "mine": 5230,
  "muze": 5231,
  "koordina": 5232,
  "fer ": 5233,
  "našoj ": 5234,
  "širom ": 5235,
  "ispred ": 5236,
  "književnosti ": 5237,
  "ničkog ": 5238,
  "najbolji ": 5239,
  "istorije ": 5240,
  "ling": 5241,
  "koli": 5242,
  "korišćenjem ": 5243,
  "ljivost ": 5244,
  "ciljem ": 5245,
  "raspola": 5246,
  "Nacional": 5247,
  "inci": 5248,
  "prakse ": 5249,
  "tkiva ": 5250,
  "posledice ": 5251,
  "´ ": 5252,
  "Dok ": 5253,
  "kov ": 5254,
  "(„ ": 5255,
  "Srbi ": 5256,
  "fik": 5257,
  "skladi": 5258,
  "razmiš": 5259,
  "nacionalne ": 5260,
  "rup": 5261,
  "univerzi": 5262,
  "O2 ": 5263,
  "mska ": 5264,
  "društvenih ": 5265,
  "projekt": 5266,
  "korisni": 5267,
  "Zav": 5268,
  "spomeni": 5269,
  "tržiš": 5270,
  "stručnja": 5271,
  "njegovim ": 5272,
  "Hu": 5273,
  "tite ": 5274,
  "doc ": 5275,
  "300 ": 5276,
  "proizvodnju ": 5277,
  "mala ": 5278,
  "bave ": 5279,
  "ris ": 5280,
  "saopšt": 5281,
  "zapre": 5282,
  "centra ": 5283,
  "NE ": 5284,
  "zavi": 5285,
  "optuž": 5286,
  "odluči": 5287,
  "kovima ": 5288,
  "stranke ": 5289,
  "klijen": 5290,
  "stiti ": 5291,
  "okup": 5292,
  "Makedo": 5293,
  "kosti ": 5294,
  "delimi": 5295,
  "oblast ": 5296,
  "proizvodi ": 5297,
  "diskrimina": 5298,
  "njegovih ": 5299,
  "zaključiti ": 5300,
  "lova ": 5301,
  "Tele": 5302,
  "zemlja ": 5303,
  "pojam ": 5304,
  "korak ": 5305,
  "komunikacije ": 5306,
  "zastuplj": 5307,
  "proizvod ": 5308,
  "tro ": 5309,
  "tribu": 5310,
  "strukturu ": 5311,
  "plod": 5312,
  "ac": 5313,
  "diferen": 5314,
  "imate ": 5315,
  "Univerziteta ": 5316,
  "stvu": 5317,
  "procene ": 5318,
  "komponente ": 5319,
  "vazduha ": 5320,
  "prati ": 5321,
  "intenziv": 5322,
  "pisu ": 5323,
  "ds ": 5324,
  "autor ": 5325,
  "dobra ": 5326,
  "nagla": 5327,
  "ekonomski ": 5328,
  "tanje ": 5329,
  "mentacije ": 5330,
  "izmen": 5331,
  "PI": 5332,
  "celokup": 5333,
  "roditelja ": 5334,
  "Sada ": 5335,
  "kvadra": 5336,
  "konferen": 5337,
  "ɧɚ ": 5338,
  "nastave ": 5339,
  "At": 5340,
  "količine ": 5341,
  "ralni ": 5342,
  "PC": 5343,
  "JE": 5344,
  "Spo": 5345,
  "javljaju ": 5346,
  "račun ": 5347,
  "demokra": 5348,
  "uspešno ": 5349,
  "nes": 5350,
  "PA": 5351,
  "aprila ": 5352,
  "navedenih ": 5353,
  "informi": 5354,
  "** ": 5355,
  "simu": 5356,
  "Istraži": 5357,
  "sad": 5358,
  "sina ": 5359,
  "logiji ": 5360,
  "leka": 5361,
  "intelektu": 5362,
  "rezultatima ": 5363,
  "kuća ": 5364,
  "realiz": 5365,
  "ideje ": 5366,
  "itali": 5367,
  "tačke ": 5368,
  "Odg ": 5369,
  "hod ": 5370,
  "ose ": 5371,
  "pto": 5372,
  "socijalne ": 5373,
  "dobiti ": 5374,
  "postavlja ": 5375,
  "aniji ": 5376,
  "procenu ": 5377,
  "Kla": 5378,
  "Ministarstva ": 5379,
  "populacije ": 5380,
  "vač ": 5381,
  "ljivih ": 5382,
  "tipi": 5383,
  "pravni ": 5384,
  "mrež": 5385,
  "stin": 5386,
  "kući ": 5387,
  "± ": 5388,
  "ɨʁ": 5389,
  "ruju ": 5390,
  "javne ": 5391,
  "dogod": 5392,
  "saču": 5393,
  "njihovim ": 5394,
  "rih ": 5395,
  "atmo": 5396,
  "porodica ": 5397,
  "hap": 5398,
  "životinja ": 5399,
  "tranzi": 5400,
  "lik ": 5401,
  "ɚɤ": 5402,
  "ljuba": 5403,
  "ukupnog ": 5404,
  "soli": 5405,
  "tvrd": 5406,
  "PS ": 5407,
  "odgovornost ": 5408,
  "ćene ": 5409,
  "stila ": 5410,
  "bazi ": 5411,
  "ovje": 5412,
  "strategije ": 5413,
  "pul": 5414,
  "metabo": 5415,
  "zanim": 5416,
  "Sara": 5417,
  "sezone ": 5418,
  "zahva": 5419,
  "jak ": 5420,
  "lon": 5421,
  "ovac ": 5422,
  "delova ": 5423,
  "ɨɧ": 5424,
  "autono": 5425,
  "Zla": 5426,
  "stamb": 5427,
  "Ove ": 5428,
  "projekat ": 5429,
  "stranih ": 5430,
  "TO": 5431,
  "verovatno": 5432,
  "đa": 5433,
  "tretmana ": 5434,
  "povolj": 5435,
  "domaćin": 5436,
  "Ministarstvo ": 5437,
  "naz": 5438,
  "zaštiti ": 5439,
  "1994 ": 5440,
  "Bran": 5441,
  "uspeh ": 5442,
  "rekla ": 5443,
  "efikasnosti ": 5444,
  "ɪɟ�": 5445,
  "kance": 5446,
  "bes": 5447,
  "krajem ": 5448,
  "takve ": 5449,
  "vero": 5450,
  "teže ": 5451,
  "slobode ": 5452,
  "Gore ": 5453,
  "malo": 5454,
  "nastu": 5455,
  "fe ": 5456,
  "ostalim ": 5457,
  "metra ": 5458,
  "teme ": 5459,
  "uobiča": 5460,
  "Mer": 5461,
  "enzi": 5462,
  "tičkih ": 5463,
  "pH ": 5464,
  "prikaz ": 5465,
  "presu": 5466,
  "endo": 5467,
  "zel": 5468,
  "šća ": 5469,
  "prvih ": 5470,
  "ulja ": 5471,
  "date ": 5472,
  "ljao ": 5473,
  "ostalog ": 5474,
  "dolara ": 5475,
  "igre ": 5476,
  "probleme ": 5477,
  "odgovori": 5478,
  "kogni": 5479,
  "Ov": 5480,
  "dubo": 5481,
  "struktur": 5482,
  "događa": 5483,
  "porekla ": 5484,
  "decembra ": 5485,
  "simpto": 5486,
  "gog ": 5487,
  "ljivosti ": 5488,
  "pregled ": 5489,
  "ža": 5490,
  "Bel": 5491,
  "novo ": 5492,
  "tipo": 5493,
  "skrip": 5494,
  "tions ": 5495,
  "Pov": 5496,
  "ɢɤ": 5497,
  "kultura ": 5498,
  "smanjuje ": 5499,
  "NS ": 5500,
  "kiseline ": 5501,
  "han": 5502,
  "jula ": 5503,
  "supru": 5504,
  "granica ": 5505,
  "samom ": 5506,
  "pisa": 5507,
  "labora": 5508,
  "lim": 5509,
  "TA": 5510,
  "kategori": 5511,
  "dite ": 5512,
  "tuju ": 5513,
  "Broj ": 5514,
  "Hri": 5515,
  "deri": 5516,
  "čenju ": 5517,
  ".( ": 5518,
  "hrišćan": 5519,
  "zakonodav": 5520,
  "ct ": 5521,
  "reke ": 5522,
  "vise ": 5523,
  "tehnologija ": 5524,
  "kapi": 5525,
  "državne ": 5526,
  "test": 5527,
  "vanred": 5528,
  "pokrenu": 5529,
  "Uz ": 5530,
  "naravno ": 5531,
  "puno ": 5532,
  "ambi": 5533,
  "BI": 5534,
  "samostal": 5535,
  "koncept ": 5536,
  "Komi": 5537,
  "ispitivanje ": 5538,
  "doktor": 5539,
  "januara ": 5540,
  "Zem": 5541,
  "argu": 5542,
  "com": 5543,
  "retko ": 5544,
  "geograf": 5545,
  "dži": 5546,
  "rijar": 5547,
  "kala ": 5548,
  "ljati ": 5549,
  "naprav": 5550,
  "izjavio ": 5551,
  "funkciji ": 5552,
  "ventu": 5553,
  "dna ": 5554,
  "karaktera ": 5555,
  "Crne ": 5556,
  "SS ": 5557,
  "izbo": 5558,
  "ljudskih ": 5559,
  "radnog ": 5560,
  ".), ": 5561,
  "tel ": 5562,
  "mislim ": 5563,
  "traži ": 5564,
  "grob": 5565,
  "štamp": 5566,
  "njihovom ": 5567,
  "lis ": 5568,
  "planu ": 5569,
  "ex": 5570,
  "Sl ": 5571,
  "cal ": 5572,
  "E�": 5573,
  "pogo": 5574,
  "Rado": 5575,
  "Cil": 5576,
  "dni ": 5577,
  "dođe ": 5578,
  "sajta ": 5579,
  "materijal ": 5580,
  "ški ": 5581,
  "rastvor": 5582,
  "određi": 5583,
  "adap": 5584,
  "Analiza ": 5585,
  "Vlade ": 5586,
  "Har": 5587,
  "italijan": 5588,
  "hom ": 5589,
  "tost ": 5590,
  "fakultet ": 5591,
  "same ": 5592,
  "fabri": 5593,
  "Bugar": 5594,
  "kompeten": 5595,
  "linije ": 5596,
  "duhov": 5597,
  "viši ": 5598,
  "uključuje ": 5599,
  "pesme ": 5600,
  "osam ": 5601,
  "%), ": 5602,
  "ER": 5603,
  "vremeno ": 5604,
  "ranim ": 5605,
  "šćen ": 5606,
  "redu": 5607,
  "odluku ": 5608,
  "određuje ": 5609,
  "!!": 5610,
  "bele": 5611,
  "eniji ": 5612,
  "tskom ": 5613,
  "ograd": 5614,
  "zara": 5615,
  "lične ": 5616,
  "infla": 5617,
  "dobili ": 5618,
  "des": 5619,
  "IJE ": 5620,
  "bele ": 5621,
  "Stru": 5622,
  "prevo": 5623,
  "napravi": 5624,
  "nedelje ": 5625,
  "bde": 5626,
  "ugrož": 5627,
  "snagu ": 5628,
  "dali ": 5629,
  "zajednica ": 5630,
  "mladih ": 5631,
  "demokrat": 5632,
  "vež": 5633,
  "ile": 5634,
  "brojne ": 5635,
  "Vred": 5636,
  "zainteres": 5637,
  "pripove": 5638,
  "sata ": 5639,
  "ɚʁ": 5640,
  "redi": 5641,
  "priča": 5642,
  "Kosova ": 5643,
  "učenici ": 5644,
  "memo": 5645,
  "vode": 5646,
  "policij": 5647,
  "definiše ": 5648,
  "Pošto ": 5649,
  "pouzdan": 5650,
  "tivu ": 5651,
  "srpskih ": 5652,
  "brzine ": 5653,
  "radnje ": 5654,
  "reali": 5655,
  "prevazi": 5656,
  "Poseb": 5657,
  "Polj": 5658,
  "mreža ": 5659,
  "doći ": 5660,
  "sin ": 5661,
  "nastavi ": 5662,
  "sektora ": 5663,
  "voza": 5664,
  "potrebna ": 5665,
  "tropo": 5666,
  "osobine ": 5667,
  "tis ": 5668,
  "Jovanović ": 5669,
  "osnovni ": 5670,
  "ν": 5671,
  "jeve ": 5672,
  "telef": 5673,
  "Tro": 5674,
  "tačno ": 5675,
  "vrstu ": 5676,
  "tanja ": 5677,
  "stvaranje ": 5678,
  "biljaka ": 5679,
  "ovako ": 5680,
  "moć ": 5681,
  "—, ": 5682,
  "muškara": 5683,
  "moz": 5684,
  "VI ": 5685,
  "Euro": 5686,
  "alkoho": 5687,
  "regiona ": 5688,
  "propu": 5689,
  "Skup": 5690,
  "povećanja ": 5691,
  "alu": 5692,
  "izgrađ": 5693,
  "istori": 5694,
  "struje ": 5695,
  "tička ": 5696,
  "avali ": 5697,
  "institucije ": 5698,
  "školi ": 5699,
  "pravnog ": 5700,
  "Nor": 5701,
  "Zagre": 5702,
  "juž": 5703,
  "ekonomi": 5704,
  "poslu": 5705,
  "moje ": 5706,
  "bren": 5707,
  "konzu": 5708,
  "neposredno ": 5709,
  "Brit": 5710,
  "manju ": 5711,
  "prodaje ": 5712,
  "potencija": 5713,
  "» ": 5714,
  "uskla": 5715,
  "tok ": 5716,
  "kiselina ": 5717,
  "am ": 5718,
  "licen": 5719,
  "kombin": 5720,
  "We": 5721,
  "skr": 5722,
  "identiteta ": 5723,
  "osiguranja ": 5724,
  "isporu": 5725,
  "govoru ": 5726,
  "engl ": 5727,
  "lost ": 5728,
  "zaustav": 5729,
  "1993 ": 5730,
  "naših ": 5731,
  "osnova ": 5732,
  "poznat ": 5733,
  "rim ": 5734,
  "uver": 5735,
  "Sred": 5736,
  "količina ": 5737,
  "�ɢʁ": 5738,
  "roda ": 5739,
  "ziji ": 5740,
  "bom ": 5741,
  "Maj": 5742,
  "procenat ": 5743,
  "Car": 5744,
  "visoko ": 5745,
  "prvoj ": 5746,
  "kupan ": 5747,
  "pogreš": 5749,
  "edu": 5750,
  "ς ": 5751,
  "bitno ": 5752,
  "ograničenja ": 5753,
  "ceo ": 5754,
  "hiru": 5755,
  "vojne ": 5756,
  "metri": 5757,
  "prilagođ": 5758,
  "Mon": 5759,
  "ološki ": 5760,
  "olak": 5761,
  "Komenta": 5762,
  "hte": 5763,
  "deš": 5764,
  "urban": 5765,
  "Sli": 5766,
  "Zapad": 5767,
  "novembra ": 5768,
  "putu ": 5769,
  "unije ": 5770,
  "Grafikon ": 5771,
  "slično ": 5772,
  "literaturi ": 5773,
  "rezu": 5774,
  "pravcu ": 5775,
  "pritiska ": 5776,
  "ministar": 5777,
  "učenje ": 5778,
  "nastaje ": 5779,
  "naći ": 5780,
  "rok ": 5781,
  "ser ": 5782,
  "upi": 5783,
  "ρ": 5784,
  "ë": 5785,
  "LJ": 5786,
  "dobila ": 5787,
  "povla": 5788,
  "Alb": 5789,
  "onog ": 5790,
  "Nikola ": 5791,
  "velikoj ": 5792,
  "delovanja ": 5793,
  "linija ": 5794,
  "Laza": 5795,
  "faktori ": 5796,
  "akcija ": 5797,
  "legi": 5798,
  "Direk": 5799,
  "strateš": 5800,
  "homo": 5801,
  "niju ": 5802,
  "Još ": 5803,
  "ok ": 5804,
  "vita": 5805,
  "Ši": 5806,
  "policije ": 5807,
  "budućnosti ": 5808,
  "teljima ": 5809,
  "čević ": 5810,
  "kan ": 5811,
  "Aut": 5812,
  "logu ": 5813,
  "obole": 5814,
  "saradnje ": 5815,
  "proizvode ": 5816,
  "svesti ": 5817,
  "stog ": 5818,
  "kretanje ": 5819,
  "ćina ": 5820,
  "smanjenja ": 5821,
  "avgusta ": 5822,
  "većeg ": 5823,
  "meta ": 5824,
  "dić ": 5825,
  "SD ": 5826,
  "Utica": 5827,
  "dala ": 5828,
  "zre": 5829,
  "Rusija ": 5830,
  "Kor": 5831,
  "pozicija ": 5832,
  "ѕ": 5833,
  "SAN": 5834,
  "šević ": 5835,
  "hori": 5836,
  "stero": 5837,
  "osnovi ": 5838,
  "efikasnost ": 5839,
  "Prva ": 5840,
  "postala ": 5841,
  "janjem ": 5842,
  "dobijeni ": 5843,
  "Sever": 5844,
  "vek ": 5845,
  "å ": 5846,
  "zakoni": 5847,
  ".” ": 5848,
  "doprinos ": 5849,
  "stavove ": 5850,
  "lus ": 5851,
  "ck": 5852,
  "inostran": 5853,
  "ld ": 5854,
  "mentima ": 5855,
  "žele ": 5856,
  "ralnog ": 5857,
  "izola": 5858,
  "onim ": 5859,
  "nano": 5860,
  "dije": 5861,
  "din ": 5862,
  "don ": 5863,
  "400 ": 5864,
  "utic": 5865,
  "standarda ": 5866,
  "real": 5867,
  "as": 5868,
  "inga ": 5869,
  "likom ": 5870,
  "anom ": 5871,
  "vakc": 5872,
  "univer": 5873,
  "deći ": 5874,
  "ut ": 5875,
  "ι": 5876,
  "trak": 5877,
  "kovića ": 5878,
  "leta ": 5879,
  "cionim ": 5880,
  "ošt": 5881,
  "kamp": 5882,
  "imovine ": 5883,
  "davno ": 5884,
  "razlikuju ": 5885,
  "tehnike ": 5886,
  "raste ": 5887,
  "nasl": 5888,
  "polju ": 5889,
  "odigra": 5890,
  "ida ": 5891,
  "disertacije ": 5892,
  "Sadu ": 5893,
  "očekuje ": 5894,
  "određivanje ": 5895,
  "veni ": 5896,
  "teorija ": 5897,
  "hin": 5898,
  "sekven": 5899,
  "nasilja ": 5900,
  "kapaciteta ": 5901,
  "modelu ": 5902,
  "sme ": 5903,
  "podrške ": 5904,
  "selu ": 5905,
  "enija ": 5906,
  ".– ": 5907,
  "ure": 5908,
  "promo": 5909,
  "zahvaljujući ": 5910,
  "Ist": 5911,
  "priprem": 5912,
  "SO": 5913,
  "150 ": 5914,
  "današ": 5915,
  "usvo": 5916,
  "mor ": 5917,
  "časova ": 5918,
  "EЎ": 5919,
  "potpi": 5920,
  "Para": 5921,
  "objašnjava ": 5922,
  "ratu ": 5923,
  "obavešt": 5924,
  "okolnosti ": 5925,
  "savet": 5926,
  "gradi ": 5927,
  "Slobod": 5928,
  "rić ": 5929,
  "stvara ": 5930,
  "asi": 5931,
  "početak ": 5932,
  "cita ": 5933,
  "jera ": 5934,
  "pravne ": 5935,
  "usmer": 5936,
  "sja": 5937,
  "ospo": 5938,
  "sal": 5939,
  "upit": 5940,
  "veta ": 5941,
  "korpu": 5942,
  "id ": 5943,
  "određena ": 5944,
  "stite ": 5945,
  "trajanja ": 5946,
  "kacije ": 5947,
  "ɨɦ ": 5948,
  "pub": 5949,
  "sub ": 5950,
  "pripadaju ": 5951,
  "njenih ": 5952,
  "raditi ": 5953,
  "jesu ": 5954,
  "DP ": 5955,
  "ziti ": 5956,
  "gledno ": 5957,
  "uticajem ": 5958,
  "uloge ": 5959,
  "čitav": 5960,
  "des ": 5961,
  "jednostavno ": 5962,
  "pritisak ": 5963,
  "deluje ": 5964,
  "parale": 5965,
  "sekundar": 5966,
  "ispla": 5967,
  "otpo": 5968,
  "vosti ": 5969,
  "razumevanje ": 5970,
  "zbir": 5971,
  "Bor": 5972,
  "međusobno ": 5973,
  "nal ": 5974,
  "zaključ": 5975,
  "školu ": 5976,
  "putovanja ": 5977,
  "izanje ": 5978,
  "socio": 5979,
  "fakulteta ": 5980,
  "zane": 5981,
  "Izvor ": 5982,
  "članovi ": 5983,
  "ponekad ": 5984,
  "Ukup": 5985,
  "Mađar": 5986,
  "klase ": 5987,
  "đ ": 5988,
  "it ": 5989,
  "timo ": 5990,
  "određenim ": 5991,
  "Ter": 5992,
  "dimenzija ": 5993,
  "stara ": 5994,
  "boja ": 5995,
  "vodo": 5996,
  "titu": 5997,
  "araju ": 5998,
  "postojanja ": 5999,
  "blizini ": 6000,
  "ustanov": 6001,
  "ction ": 6002,
  "top": 6003,
  "robe ": 6004,
  "internet ": 6005,
  "predlog ": 6006,
  "poznato ": 6007,
  "eventu": 6008,
  "tvrdi ": 6009,
  "sumnji": 6010,
  "uključi": 6011,
  "tičkog ": 6012,
  "terapije ": 6013,
  "Uticaj ": 6014,
  "Vis": 6015,
  "konf": 6016,
  "zadrž": 6017,
  "tenden": 6018,
  "pake": 6019,
  "dif": 6020,
  "čl ": 6021,
  "pome": 6022,
  "virusa ": 6023,
  "znaju ": 6024,
  "vaj": 6025,
  "stanovi": 6026,
  "dera ": 6027,
  "akcije ": 6028,
  "istoriji ": 6029,
  "pokreta ": 6030,
  "kali": 6031,
  "filma ": 6032,
  "organizaciji ": 6033,
  "Hr": 6034,
  "jednako ": 6035,
  "Mis": 6036,
  "prosve": 6037,
  "stoga ": 6038,
  "ST ": 6039,
  "regionu ": 6040,
  "najznačaj": 6041,
  "posla": 6042,
  "fikaciju ": 6043,
  "sić ": 6044,
  "iste": 6045,
  "zimo ": 6046,
  "motiva": 6047,
  "................................": 6048,
  "religi": 6049,
  "ljenim ": 6050,
  "govo": 6051,
  "Ap": 6052,
  "IZ": 6053,
  "ruke ": 6054,
  "Bla": 6055,
  "jke ": 6056,
  "Ot": 6057,
  "napre": 6058,
  "povodom ": 6059,
  "Službeni ": 6060,
  "povr": 6061,
  "činjenice ": 6062,
  "Oli": 6063,
  "ato": 6064,
  "čeka": 6065,
  "brojem ": 6066,
  "saradnju ": 6067,
  "direktor ": 6068,
  "σ": 6069,
  "ponav": 6070,
  "tretira": 6071,
  "Gu": 6072,
  "metodom ": 6073,
  "SL": 6074,
  "ɟɤ": 6075,
  "SR ": 6076,
  "zad ": 6077,
  "centru ": 6078,
  "visoke ": 6079,
  "politiku ": 6080,
  "ɫɟ ": 6081,
  "lingvi": 6082,
  "ministar ": 6083,
  "Stef": 6084,
  "lizaciji ": 6085,
  "ljenog ": 6086,
  "svojom ": 6087,
  "porodici ": 6088,
  "oslobo": 6089,
  "najpre ": 6090,
  "Crk": 6091,
  "poslednje ": 6092,
  "VA": 6093,
  "dio": 6094,
  "stab": 6095,
  "turu ": 6096,
  "potencijal ": 6097,
  "Nov": 6098,
  "ćom ": 6099,
  "živ": 6100,
  "BE": 6101,
  "Dobi": 6102,
  "zgrade ": 6103,
  "radio": 6104,
  "isla": 6105,
  "studiji ": 6106,
  "đenih ": 6107,
  "plana ": 6108,
  "odnosima ": 6109,
  "ĉe": 6110,
  "vano ": 6111,
  "albu": 6112,
  "mun": 6113,
  "karcin": 6114,
  "elementi ": 6115,
  "Milan ": 6116,
  "velikom ": 6117,
  "No ": 6118,
  "masov": 6119,
  "usme": 6120,
  "Doda": 6121,
  "korist ": 6122,
  "prvenstveno ": 6123,
  "ɢɥ": 6124,
  "starosti ": 6125,
  "ralnih ": 6126,
  "industri": 6127,
  "priori": 6128,
  "prihvatlji": 6129,
  "kategorija ": 6130,
  "operacije ": 6131,
  "temperatura ": 6132,
  "bezbednost ": 6133,
  "imalo ": 6134,
  "studenata ": 6135,
  "Duna": 6136,
  "kinja ": 6137,
  "κ": 6138,
  "veče": 6139,
  "mnogim ": 6140,
  "frekven": 6141,
  "vođenja ": 6142,
  "Kru": 6143,
  "takva ": 6144,
  "chi": 6145,
  "oštećenja ": 6146,
  "1989 ": 6147,
  "primi": 6148,
  "bilnost ": 6149,
  "cro": 6150,
  "moderni": 6151,
  "ν ": 6152,
  "kli ": 6153,
  "prodav": 6154,
  "aspekta ": 6155,
  "saopšti": 6156,
  "papi": 6157,
  "izraz": 6158,
  "biste ": 6159,
  "Tu ": 6160,
  "visok ": 6161,
  "vojske ": 6162,
  "vide ": 6163,
  "rac ": 6164,
  "finansijskih ": 6165,
  "uklo": 6166,
  "Ša": 6167,
  "ničkih ": 6168,
  "Is": 6169,
  "zg": 6170,
  "gle ": 6171,
  "Bio ": 6172,
  "ranu ": 6173,
  "loška ": 6174,
  "preven": 6175,
  "nio ": 6176,
  "Fin": 6177,
  "ljivi ": 6178,
  "štam": 6179,
  "situaciji ": 6180,
  "formiranje ": 6181,
  "paju ": 6182,
  "filozofi": 6183,
  "Er": 6184,
  "CI": 6185,
  "ekstre": 6186,
  "uda": 6187,
  "ligen": 6188,
  "opreme ": 6189,
  "til": 6190,
  "Naravno ": 6191,
  "žemo ": 6192,
  "prikazan ": 6193,
  "depre": 6194,
  "dvoj": 6195,
  "napada ": 6196,
  "čestica ": 6197,
  "Balkan": 6198,
  "zal": 6199,
  "tova ": 6200,
  "ft ": 6201,
  "ologije ": 6202,
  "svojstva ": 6203,
  "označava ": 6204,
  "kol": 6205,
  "noći ": 6206,
  "eviden": 6207,
  "sredini ": 6208,
  "smanji": 6209,
  "rija": 6210,
  "sasto": 6211,
  "suge": 6212,
  "nismo ": 6213,
  "sci ": 6214,
  "Poče": 6215,
  "završe": 6216,
  "è ": 6217,
  "Pret": 6218,
  "val ": 6219,
  "stvuju ": 6220,
  "fera ": 6221,
  "Ovak": 6222,
  "dem ": 6223,
  "ol": 6224,
  "lakše ": 6225,
  "uku": 6226,
  "ostala ": 6227,
  "dužine ": 6228,
  "rezul": 6229,
  "uništ": 6230,
  "spira": 6231,
  "sje": 6232,
  "čina ": 6233,
  "signala ": 6234,
  "primera ": 6235,
  "analizi ": 6236,
  "poglavlju ": 6237,
  "konstru": 6238,
  "sla ": 6239,
  "krize ": 6240,
  "vost ": 6241,
  "osobina ": 6242,
  "tačka ": 6243,
  "srednj": 6244,
  "važan ": 6245,
  "jenu ": 6246,
  "zvu": 6247,
  "prenosi ": 6248,
  "grupama ": 6249,
  "dostig": 6250,
  "konač": 6251,
  "iznena": 6252,
  "stopa ": 6253,
  "stičkim ": 6254,
  "stavlja ": 6255,
  "duže ": 6256,
  "forma ": 6257,
  "stvaranja ": 6258,
  "DNK ": 6259,
  "pisana ": 6260,
  "rajući ": 6261,
  "onoga ": 6262,
  "ishra": 6263,
  "ed ": 6264,
  "uga": 6265,
  "LA ": 6266,
  "beograd": 6267,
  "SE ": 6268,
  "pravom ": 6269,
  "konstrukcije ": 6270,
  "nesre": 6271,
  "dugoro": 6272,
  "stvori": 6273,
  "jednim ": 6274,
  "đi ": 6275,
  "nazivom ": 6276,
  "laž": 6277,
  "oprede": 6278,
  "ɞɚ ": 6279,
  "pam": 6280,
  "upotrebi ": 6281,
  "apara": 6282,
  "kažu ": 6283,
  "Com": 6284,
  "umi": 6285,
  "istakao ": 6286,
  "masa ": 6287,
  "ću": 6288,
  "vobi": 6289,
  "istim ": 6290,
  "matematič": 6291,
  "rar": 6292,
  "mehaniz": 6293,
  "izni": 6294,
  "karakter ": 6295,
  "co ": 6296,
  "metala ": 6297,
  "projekata ": 6298,
  "preciz": 6299,
  "prošlosti ": 6300,
  "ništva ": 6301,
  "vizuel": 6302,
  "div": 6303,
  "bezbedno": 6304,
  "Agen": 6305,
  "Pari": 6306,
  "greške ": 6307,
  "slučaja ": 6308,
  "starij": 6309,
  "percep": 6310,
  "manifesta": 6311,
  "problemi ": 6312,
  "aru ": 6313,
  "vuč": 6314,
  "kriterijuma ": 6315,
  "jućih ": 6316,
  "interv": 6317,
  "atmosfer": 6318,
  "jam ": 6319,
  "zasniva ": 6320,
  "Jedna ": 6321,
  "Ustav": 6322,
  "polje ": 6323,
  "toka ": 6324,
  "poseduje ": 6325,
  "obrade ": 6326,
  "Doktorska ": 6327,
  "Vojvodine ": 6328,
  "publič": 6329,
  "PE": 6330,
  "otac ": 6331,
  "vrh": 6332,
  "bina ": 6333,
  "Mode": 6334,
  "medic": 6335,
  "strategija ": 6336,
  "konsta": 6337,
  "doprinosi ": 6338,
  "Mal": 6339,
  "Vlada ": 6340,
  "em ": 6341,
  "državi ": 6342,
  "ete ": 6343,
  "ɟɬ": 6344,
  "ogleda ": 6345,
  "stika ": 6346,
  "teti ": 6347,
  "šten ": 6348,
  "soci": 6349,
  "ab": 6350,
  "znak ": 6351,
  "DS ": 6352,
  "nikad ": 6353,
  "utvrđeno ": 6354,
  "les ": 6355,
  "našu ": 6356,
  "taj": 6357,
  "paro": 6358,
  "obolj": 6359,
  "površini ": 6360,
  "ɢɱ": 6361,
  "sper": 6362,
  "festi": 6363,
  "održavanje ": 6364,
  "UN ": 6365,
  "potrošača ": 6366,
  "analizom ": 6367,
  "zapoš": 6368,
  "tabela ": 6369,
  "jenom ": 6370,
  "održivo": 6371,
  "odbora ": 6372,
  "dovesti ": 6373,
  "Kara": 6374,
  "korup": 6375,
  "predstavlj": 6376,
  "cre": 6377,
  "('' ": 6378,
  "većem ": 6379,
  "došao ": 6380,
  "Ovde ": 6381,
  "Fili": 6382,
  "radne ": 6383,
  "traje ": 6384,
  "sastav ": 6385,
  "kacija ": 6386,
  "štvu ": 6387,
  "NO ": 6388,
  "BO": 6389,
  "regre": 6390,
  "istraživanjima ": 6391,
  "primenjuje ": 6392,
  "mskom ": 6393,
  "Gla": 6394,
  "Vas ": 6395,
  "istaknu": 6396,
  "stina": 6397,
  "hval": 6398,
  "majka ": 6399,
  "Mitr": 6400,
  "Org": 6401,
  "jskoj ": 6402,
  "snabde": 6403,
  "napisao ": 6404,
  "smešta": 6405,
  "naf": 6406,
  "ćoj ": 6407,
  "našim ": 6408,
  "pravno ": 6409,
  "laborato": 6410,
  "pje": 6411,
  "kovana ": 6412,
  "shodno ": 6413,
  "patrijar": 6414,
  "nacionalnih ": 6415,
  "kompleksa ": 6416,
  "pokazao ": 6417,
  "ostvaruje ": 6418,
  "ɨɛ": 6419,
  "metar ": 6420,
  "CA": 6421,
  "lega": 6422,
  "obavlja ": 6423,
  "m2 ": 6424,
  "sy": 6425,
  "ovanim ": 6426,
  "vremenom ": 6427,
  "Aleksandra ": 6428,
  "okruženju ": 6429,
  "uš": 6430,
  "zali": 6431,
  "gal": 6432,
  "komentari": 6433,
  "staje ": 6434,
  "britan": 6435,
  "SF": 6436,
  "odgovarajuće ": 6437,
  "strukturi ": 6438,
  "mbo": 6439,
  "moze ": 6440,
  "ç": 6441,
  "radom ": 6442,
  "pokraj": 6443,
  "Nji": 6444,
  "tao ": 6445,
  "danje ": 6446,
  "đenju ": 6447,
  "tehnika ": 6448,
  "izi ": 6449,
  "ljubi": 6450,
  "kić ": 6451,
  "Kosovo ": 6452,
  "otpor": 6453,
  "novom ": 6454,
  "izraz ": 6455,
  "stić ": 6456,
  "okvir ": 6457,
  "lični ": 6458,
  "cionar": 6459,
  "kakve ": 6460,
  "steći ": 6461,
  "radili ": 6462,
  "uzeti ": 6463,
  "PD": 6464,
  "larne ": 6465,
  "vina ": 6466,
  "ranom ": 6467,
  "inskim ": 6468,
  "prirodi ": 6469,
  "lekse": 6470,
  "RT": 6471,
  "OVI": 6472,
  "otpada ": 6473,
  "cilj": 6474,
  "temu ": 6475,
  "prednosti ": 6476,
  "pet": 6477,
  "turizma ": 6478,
  "ral ": 6479,
  "suoč": 6481,
  "veb ": 6482,
  "dešava ": 6483,
  "Drugog ": 6484,
  "kana": 6485,
  "optimi": 6486,
  "inače ": 6487,
  "kama": 6488,
  "osloba": 6489,
  "nogor": 6490,
  "dobre ": 6491,
  "Nova": 6492,
  "anaka ": 6493,
  "Isto ": 6494,
  "vri": 6495,
  "dnog ": 6496,
  "saradnji ": 6497,
  "naša ": 6498,
  "Neki ": 6499,
  "avac ": 6500,
  "norma": 6501,
  "by ": 6502,
  "drugačije ": 6503,
  "hije ": 6504,
  "1941 ": 6505,
  "interne": 6506,
  "fron": 6507,
  "ɋ": 6508,
  "vara ": 6509,
  "ela": 6510,
  "povezanost ": 6511,
  "Duš": 6512,
  "osnovna ": 6513,
  "Tran": 6514,
  "čena ": 6515,
  "sliku ": 6516,
  "prikazana ": 6517,
  "ovoga ": 6518,
  "120 ": 6519,
  "štima ": 6520,
  "hy": 6521,
  "ube": 6522,
  "Kragu": 6523,
  "moţe ": 6524,
  "prilog ": 6525,
  "poni": 6526,
  "don": 6527,
  "pao ": 6528,
  "pomoć": 6529,
  "komentar ": 6530,
  "MEN": 6531,
  "čnik ": 6532,
  "Vladimir ": 6533,
  "makro": 6534,
  "sora ": 6535,
  "ls ": 6536,
  "odstup": 6537,
  "februara ": 6538,
  "rastu ": 6539,
  "inžen": 6540,
  "invali": 6541,
  "Postoji ": 6542,
  "þ": 6543,
  "ɢɦ ": 6544,
  "reda": 6545,
  "pero": 6546,
  "uspeha ": 6547,
  "tržište ": 6548,
  "sup ": 6549,
  "DA": 6550,
  "protek": 6551,
  "potroš": 6552,
  "kontrola ": 6553,
  "ljubav ": 6554,
  "sajtu ": 6555,
  "rijski ": 6556,
  "nastanka ": 6557,
  "korek": 6558,
  "službe ": 6559,
  "visine ": 6560,
  "poznata ": 6561,
  "veličina ": 6562,
  "Rob": 6563,
  "Eѕ": 6564,
  "odredbe ": 6565,
  "imale ": 6566,
  "ljubavi ": 6567,
  "Mosk": 6568,
  "vek": 6570,
  "ciklusa ": 6571,
  "of": 6572,
  "građani ": 6573,
  "pojma ": 6574,
  "primeni ": 6575,
  "ukupne ": 6576,
  "štini ": 6577,
  "naciona": 6578,
  "cenu ": 6579,
  "članica ": 6580,
  "Dimi": 6581,
  "Ujedin": 6582,
  "svima ": 6583,
  "razlikuje ": 6584,
  "televizi": 6585,
  "delovima ": 6586,
  "ɧɚ�": 6587,
  "sobom ": 6588,
  "predla": 6589,
  "situacijama ": 6590,
  "promenu ": 6591,
  "kreće ": 6592,
  "tim": 6593,
  "gim ": 6594,
  "kapita": 6595,
  "Cilj ": 6596,
  "izol": 6597,
  "srpska ": 6598,
  "diskur": 6599,
  "štete ": 6600,
  "situaciju ": 6601,
  "rica ": 6602,
  "kazne ": 6603,
  "Veliki ": 6604,
  "okre": 6605,
  "učesnika ": 6606,
  "penzi": 6607,
  "Ad": 6608,
  "potrebu ": 6609,
  "pala ": 6610,
  "sh": 6611,
  "stvarala": 6612,
  "Grad": 6613,
  "BA ": 6614,
  "frag": 6615,
  "čuju ": 6616,
  "izgle": 6617,
  "borbi ": 6618,
  "položaja ": 6619,
  "svemu ": 6620,
  "privla": 6621,
  "NI ": 6622,
  "horizon": 6623,
  "Gre": 6624,
  "prihoda ": 6625,
  "era ": 6626,
  "mogući ": 6627,
  "PA ": 6628,
  "list ": 6629,
  "dobijaju ": 6630,
  "tetima ": 6631,
  "predik": 6632,
  "sledi ": 6633,
  "vije ": 6634,
  "izgled ": 6635,
  "suju ": 6636,
  "deter": 6637,
  "iznos ": 6638,
  "smer": 6639,
  "sredstvo ": 6640,
  "antropo": 6641,
  "nička ": 6642,
  "delimično ": 6643,
  "rezi": 6644,
  "Pravil": 6645,
  "korpora": 6646,
  "snoj ": 6647,
  "prirodnih ": 6648,
  "republi": 6649,
  "1988 ": 6650,
  "skupa ": 6651,
  "kovanja ": 6652,
  "Mir": 6653,
  "ĉa": 6654,
  "generacije ": 6655,
  "opština ": 6656,
  "ologija ": 6657,
  "slava ": 6658,
  "većim ": 6659,
  "ografija ": 6660,
  "nacija ": 6661,
  "tač": 6662,
  "objekat ": 6663,
  "reakcija ": 6664,
  "konkret": 6665,
  "uklan": 6666,
  "njeni ": 6667,
  "bilnosti ": 6668,
  "cus ": 6669,
  "ispitivanih ": 6670,
  "loše ": 6671,
  "borbe ": 6672,
  "automob": 6673,
  "ljavanje ": 6674,
  "ɟɥ": 6675,
  "Upravo ": 6676,
  "tivnoj ": 6677,
  "valua": 6678,
  "ir": 6679,
  "gasa ": 6680,
  "……": 6681,
  "osigura": 6682,
  "savre": 6683,
  "nijeg ": 6684,
  "poslovnih ": 6685,
  "Ok": 6686,
  "uma ": 6687,
  "usvoj": 6688,
  "plaz": 6689,
  "ljak ": 6690,
  "mskim ": 6691,
  "up ": 6692,
  "društvenim ": 6693,
  "jela ": 6694,
  "steri": 6695,
  "dolaze ": 6696,
  "stabi": 6697,
  "Novog ": 6698,
  "telje ": 6699,
  "nat": 6700,
  "principa ": 6701,
  "plav": 6702,
  "termin ": 6703,
  "Subo": 6704,
  "povrede ": 6705,
  "Petrović ": 6706,
  "anke": 6707,
  "uman": 6708,
  "istoriju ": 6709,
  "pojedinim ": 6710,
  "https ": 6711,
  "1980 ": 6712,
  "stabilnost ": 6713,
  "ten ": 6714,
  "nuklear": 6715,
  "udžb": 6716,
  "Engle": 6717,
  "čice ": 6718,
  "pride": 6719,
  "priliku ": 6720,
  "pravnih ": 6721,
  "prekr": 6722,
  "verti": 6723,
  "glasa ": 6724,
  "ekvi": 6725,
  "određen ": 6726,
  "smrt ": 6727,
  "reflek": 6728,
  "uprkos ": 6729,
  "ht ": 6730,
  "kovanje ": 6731,
  "teritorije ": 6732,
  "javni ": 6733,
  "jos ": 6734,
  "profesor ": 6735,
  "srod": 6736,
  "ugl": 6737,
  "oblastima ": 6738,
  "Odlu": 6739,
  "prednost ": 6740,
  "važi ": 6741,
  "svoje": 6742,
  "mente ": 6743,
  "Među ": 6744,
  "troškove ": 6745,
  "« ": 6746,
  "zameni": 6747,
  "destina": 6748,
  "Bez ": 6749,
  "uslov ": 6750,
  "Svetog ": 6751,
  "sistemi ": 6752,
  "poslovne ": 6753,
  "zaposleni ": 6754,
  "prilično ": 6755,
  "krimina": 6756,
  "Juž": 6757,
  "vec ": 6758,
  "bije ": 6759,
  "muzike ": 6760,
  "matra ": 6761,
  "čnika ": 6762,
  "frak": 6763,
  "tati ": 6764,
  "izveštaja ": 6765,
  "finansijske ": 6766,
  "saradnici ": 6767,
  "nedelj": 6768,
  "inteligen": 6769,
  "dalo ": 6770,
  "Kosovu ": 6771,
  "metod ": 6772,
  "Indi": 6773,
  "državnih ": 6774,
  "šev": 6775,
  "ukra": 6776,
  "ken": 6777,
  "mestima ": 6778,
  "sistemima ": 6779,
  "use": 6780,
  "Tada ": 6781,
  "Kro": 6782,
  "društveno ": 6783,
  "cir": 6784,
  "jugo": 6785,
  "tadaš": 6786,
  "mali": 6787,
  "prilike ": 6788,
  "Poda": 6789,
  "odvija ": 6790,
  "vladav": 6791,
  "modu": 6792,
  "wor": 6793,
  "želez": 6794,
  "saobraćaja ": 6795,
  "aktiva": 6796,
  "racional": 6797,
  "gove": 6798,
  "ostao ": 6799,
  "troškovi ": 6800,
  "Sin": 6801,
  "vaše ": 6802,
  "Napo": 6803,
  "trenu": 6804,
  "čišć": 6805,
  "kože ": 6806,
  "interakcije ": 6807,
  "cha": 6808,
  "Treba ": 6809,
  "merenje ": 6810,
  "određenog ": 6811,
  "Nave": 6812,
  "godišnji ": 6813,
  "okruženja ": 6814,
  "CD": 6815,
  "PRI": 6816,
  "izvan ": 6817,
  "λ": 6818,
  "obezbeđuje ": 6819,
  "Šp": 6820,
  "ocima ": 6821,
  "mbru ": 6822,
  "alnu ": 6823,
  "brzina ": 6824,
  "ino ": 6825,
  "TE ": 6826,
  "poro": 6827,
  "mem": 6828,
  "Predsednik ": 6829,
  "Sko": 6830,
  "Foto ": 6831,
  "SANU ": 6832,
  "ocu ": 6833,
  "zaštita ": 6834,
  "otvori": 6835,
  "Više ": 6836,
  "deno ": 6837,
  "aktivnostima ": 6838,
  "žava ": 6839,
  "urb": 6840,
  "njaka ": 6841,
  "izvešt": 6842,
  "bira": 6843,
  "potencij": 6844,
  "novr": 6845,
  "vak ": 6846,
  "loškim ": 6847,
  "cele ": 6848,
  "podrž": 6849,
  "pije ": 6850,
  "musli": 6851,
  "CA ": 6852,
  "‡ ": 6853,
  "korišćen ": 6854,
  "Prilikom ": 6855,
  "lokalnih ": 6856,
  "inflama": 6857,
  "inspek": 6858,
  "ciono ": 6859,
  "Ko ": 6860,
  "gradova ": 6861,
  "raznih ": 6862,
  "šampi": 6863,
  "ruku ": 6864,
  "vice ": 6865,
  "glas ": 6866,
  "stope ": 6867,
  "nedostatak ": 6868,
  "smo": 6869,
  "preuzi": 6870,
  "psihi": 6871,
  "neka": 6872,
  "knj": 6873,
  "zadataka ": 6874,
  "tole": 6875,
  "razvoj": 6876,
  "bod": 6877,
  "tretman ": 6878,
  "________________": 6879,
  "ï": 6880,
  "Popović ": 6881,
  "potrebama ": 6882,
  "primenjuju ": 6883,
  "post ": 6884,
  "dosto": 6885,
  "nekada ": 6886,
  "Marko ": 6887,
  "dašnj": 6888,
  "mobi": 6889,
  "organ ": 6890,
  "torom ": 6891,
  "dnih ": 6892,
  "kilo": 6893,
  "dago": 6894,
  "dano ": 6895,
  "visoko": 6896,
  "zabele": 6897,
  "ostalo ": 6898,
  "Bil": 6899,
  "kab": 6900,
  "ujedno ": 6901,
  "kralja ": 6902,
  "Jovan ": 6903,
  "osl": 6904,
  "bubre": 6905,
  "list": 6906,
  "menom ": 6907,
  "hibri": 6908,
  "ukraj": 6909,
  "deli ": 6910,
  "avan": 6911,
  "izvod": 6912,
  "svešt": 6913,
  "eta ": 6914,
  "amba": 6915,
  "navedene ": 6916,
  "privrede ": 6917,
  "mci ": 6918,
  "mone": 6919,
  "1986 ": 6920,
  "stranu ": 6921,
  "Prvo ": 6922,
  "jnim ": 6923,
  "uzorku ": 6924,
  "maj ": 6925,
  "sir": 6926,
  "Organiza": 6927,
  "obvez": 6928,
  "avala ": 6929,
  "prole": 6930,
  "rast": 6931,
  "vr ": 6932,
  "romana ": 6933,
  "učestal": 6934,
  "uza": 6935,
  "svrhe ": 6936,
  "njenom ": 6937,
  "VA ": 6938,
  "nasto": 6939,
  "inicijal": 6940,
  "došli ": 6941,
  "FI": 6942,
  "predlo": 6943,
  "Znača": 6944,
  "zila ": 6945,
  "civil": 6946,
  "različiti ": 6947,
  "odluč": 6948,
  "pojm": 6949,
  "sukoba ": 6950,
  "dobijene ": 6951,
  "inskom ": 6952,
  "komu": 6953,
  "mnogih ": 6954,
  "govi ": 6955,
  "genoti": 6956,
  "dodaje ": 6957,
  "reprezenta": 6958,
  "mum ": 6959,
  "čića ": 6960,
  "novinar": 6961,
  "mani ": 6962,
  "ker ": 6963,
  "korelacije ": 6964,
  "deblj": 6965,
  "gore": 6966,
  "veru": 6967,
  "usav": 6968,
  "žalost ": 6969,
  "stvena ": 6970,
  "ble ": 6971,
  "okri": 6972,
  "najav": 6973,
  "Mora": 6974,
  "činjenicu ": 6975,
  "janović ": 6976,
  "zgrada ": 6977,
  "ã": 6978,
  "konačno ": 6979,
  "poslednji ": 6980,
  "ekonomskih ": 6981,
  "perso": 6982,
  "konven": 6983,
  "prostra": 6984,
  "1987 ": 6985,
  "dimo ": 6986,
  "njegovoj ": 6987,
  "naju": 6988,
  "Svaki ": 6989,
  "Aust": 6990,
  "bit": 6991,
  "praćenje ": 6992,
  "elemente ": 6993,
  "danja ": 6994,
  "Taj ": 6995,
  "Hrvatske ": 6996,
  "praktično ": 6997,
  "vica ": 6998,
  "privre": 6999,
  "jalo ": 7000,
  "performansi ": 7001,
  "sprovođenje ": 7002,
  "over": 7003,
  "Sle": 7004,
  "her ": 7005,
  "civi": 7006,
  "pobu": 7007,
  "demi": 7008,
  "dimenzi": 7009,
  "učestvuju ": 7010,
  "GRA": 7011,
  "poznati ": 7012,
  "akumu": 7013,
  "PU": 7014,
  "efekata ": 7015,
  "konu ": 7016,
  "javnom ": 7017,
  "ĉi": 7018,
  "prikazane ": 7019,
  "prvobi": 7020,
  "svrhu ": 7021,
  "svoja ": 7022,
  "hiljada ": 7023,
  "poziciju ": 7024,
  "nacionalnog ": 7025,
  "SP ": 7026,
  "čara ": 7027,
  "bolest ": 7028,
  "hero": 7029,
  "krivično ": 7030,
  "roditelji ": 7031,
  "Prose": 7032,
  "jor": 7033,
  "radnih ": 7034,
  "lepo ": 7035,
  "zdravstvene ": 7036,
  "java ": 7037,
  "uzme ": 7038,
  "Sjedin": 7039,
  "wa": 7040,
  "opisuje ": 7041,
  "CE": 7042,
  "evropskih ": 7043,
  "transa": 7044,
  "programu ": 7045,
  "stvora ": 7046,
  "promenama ": 7047,
  "Gro": 7048,
  "razvija ": 7049,
  "-, ": 7050,
  "objavio ": 7051,
  "sektoru ": 7052,
  "tic": 7053,
  "ó ": 7054,
  "načinu ": 7055,
  "pos": 7056,
  "element ": 7057,
  "pogled ": 7058,
  "Kom": 7059,
  "umu ": 7060,
  "ljeg ": 7061,
  "Že": 7062,
  "tov": 7063,
  "kratko ": 7064,
  "**": 7065,
  "područje ": 7066,
  "odelj": 7067,
  "Ch": 7068,
  "poseban ": 7069,
  "zaključak ": 7071,
  "stor": 7072,
  "ace": 7073,
  "uređaja ": 7074,
  "ponude ": 7075,
  "pož": 7076,
  "industrije ": 7077,
  "slobodno ": 7078,
  "onom ": 7079,
  "konstrukcija ": 7080,
  "rastvora ": 7081,
  "vidimo ": 7082,
  "rečeno ": 7083,
  "raznovr": 7084,
  "rus ": 7086,
  "Lj": 7087,
  "odvo": 7088,
  "Jav": 7089,
  "glagola ": 7090,
  "zemlj": 7091,
  "tam": 7092,
  "održavanja ": 7093,
  "Dr": 7094,
  "1Ć ": 7095,
  "ela ": 7096,
  "načine ": 7097,
  "fal": 7098,
  "Či": 7099,
  "mišljenju ": 7100,
  "kanala ": 7101,
  "komponenti ": 7102,
  "Ig": 7103,
  "cipi": 7104,
  "postep": 7105,
  "serije ": 7106,
  "izdvoj": 7107,
  "zmu ": 7108,
  "%). ": 7109,
  "Ivan": 7110,
  "kinu": 7111,
  "dvostru": 7112,
  "we ": 7113,
  "IX ": 7114,
  "mediji ": 7115,
  "Pode": 7116,
  "π": 7117,
  "sused": 7118,
  "nudi ": 7119,
  "pojedinačnih ": 7120,
  "geni": 7121,
  "mrž": 7122,
  "jača ": 7123,
  "tici ": 7124,
  "raspolo": 7125,
  "naveo ": 7126,
  "stiče ": 7127,
  "uticati ": 7128,
  "stem ": 7129,
  "Ta ": 7130,
  "libe": 7131,
  "stim ": 7132,
  "cilja ": 7133,
  "KO ": 7134,
  "postro": 7135,
  "muškaraca ": 7136,
  "uglj": 7137,
  "razne ": 7138,
  "poreza ": 7139,
  "SU": 7140,
  "formiranja ": 7141,
  "Nema ": 7142,
  "sastavu ": 7143,
  "portala ": 7144,
  "leg": 7145,
  "osva": 7146,
  "partije ": 7147,
  "Fede": 7148,
  "wi": 7149,
  "autori": 7150,
  "kato": 7151,
  "množ": 7152,
  "Teh": 7153,
  "izrazi": 7154,
  "službi ": 7155,
  "listi ": 7156,
  "nasled": 7157,
  "sporazuma ": 7158,
  "imam ": 7159,
  "zaduž": 7160,
  "molekula ": 7161,
  "Fakul": 7162,
  "alban": 7163,
  "bija ": 7164,
  "sel": 7165,
  "super": 7166,
  "međunarodne ": 7167,
  "dara ": 7168,
  "celini ": 7169,
  "arhitekton": 7170,
  "aviona ": 7171,
  "dejstvo ": 7172,
  "Postoje ": 7173,
  "more ": 7174,
  "IL ": 7175,
  "β ": 7176,
  "mesec ": 7177,
  "with ": 7178,
  "oce ": 7179,
  "tsko ": 7180,
  "stabilnosti ": 7181,
  "voren ": 7182,
  "pismen": 7183,
  "aerod": 7184,
  "Ivan ": 7185,
  "ad ": 7186,
  "neo": 7187,
  "konzer": 7188,
  "udeo ": 7189,
  "paren": 7190,
  "većini ": 7191,
  "pio ": 7192,
  "Met": 7193,
  "une": 7194,
  "knjizi ": 7195,
  "hidra": 7196,
  "hronič": 7197,
  "statusa ": 7198,
  "pima ": 7199,
  "insu": 7200,
  "episko": 7201,
  "Sch": 7202,
  "šaka ": 7203,
  "grama ": 7204,
  "Ex": 7205,
  "gim": 7206,
  "mbar": 7207,
  "pija ": 7208,
  "pojač": 7209,
  "pravde ": 7210,
  "nata ": 7211,
  "vizije ": 7212,
  "izgradnje ": 7213,
  "Posled": 7214,
  "sled": 7215,
  "sprovodi ": 7216,
  "emocional": 7217,
  "can ": 7218,
  "završio ": 7219,
  "navedeno ": 7220,
  "Druga ": 7221,
  "res ": 7222,
  "Ispi": 7223,
  "sticanje ": 7224,
  "posebne ": 7225,
  "najbolj": 7226,
  "javnost ": 7227,
  "lepo": 7228,
  "Bilo ": 7229,
  "žnj": 7230,
  "zagre": 7231,
  "Am": 7232,
  "eksploa": 7233,
  "ispitanici ": 7234,
  "kancela": 7235,
  "izgradnju ": 7236,
  "poseti": 7237,
  "princip ": 7238,
  "Dar": 7239,
  "ekvivalen": 7240,
  "bespla": 7241,
  "osvr": 7242,
  "rešavanje ": 7243,
  "političkog ": 7244,
  "Gl": 7245,
  "hije": 7246,
  "ganju ": 7247,
  "Može ": 7248,
  "stičkom ": 7249,
  "Lin": 7250,
  "tskim ": 7251,
  "zolu": 7252,
  "izanja ": 7253,
  "prošle ": 7254,
  "prošir": 7255,
  "ekonomije ": 7256,
  "služi ": 7257,
  "smatrati ": 7258,
  "jev ": 7259,
  "PR": 7260,
  "različita ": 7261,
  "Rusiji ": 7262,
  "serija ": 7263,
  "glave ": 7264,
  "oslobod": 7265,
  "cy ": 7266,
  "unapred ": 7267,
  "domini": 7268,
  "Ima ": 7269,
  "Proble": 7270,
  "sara": 7271,
  "zala": 7272,
  "skro": 7273,
  "uzorak ": 7274,
  "podstica": 7275,
  "zatvora ": 7276,
  "dene ": 7277,
  "empi": 7278,
  "1985 ": 7279,
  "niže ": 7280,
  "presto": 7281,
  "jo ": 7282,
  "dužnosti ": 7283,
  "dimenzije ": 7284,
  "dor ": 7285,
  "koeficijent ": 7286,
  "Tren": 7287,
  "malih ": 7288,
  "majke ": 7289,
  "uvo": 7290,
  "dacije ": 7291,
  "ćenih ": 7292,
  "Nju": 7293,
  "Tan": 7294,
  "značajnu ": 7295,
  "feri": 7296,
  "hat ": 7297,
  "fi ": 7298,
  "njegovi ": 7299,
  "varijabli ": 7300,
  "Regi": 7301,
  "Srpska ": 7302,
  "vata ": 7303,
  "SO ": 7304,
  "nadležnosti ": 7305,
  "Bori": 7306,
  "tivi ": 7307,
  "medijima ": 7308,
  "late": 7309,
  "Mogu": 7310,
  "cionom ": 7311,
  "terenu ": 7312,
  "ume": 7313,
  "evropske ": 7314,
  "košar": 7315,
  "glavnih ": 7316,
  "Boži": 7317,
  "steča": 7318,
  "provod": 7319,
  "arhe": 7320,
  "šire ": 7321,
  "fokusi": 7322,
  "sredinu ": 7323,
  "krivičnih ": 7324,
  "ɧɟ ": 7325,
  "laciju ": 7326,
  "Beograd": 7327,
  "dine ": 7328,
  "modeli ": 7329,
  "fotografije ": 7330,
  "stvarno ": 7331,
  "prvu ": 7332,
  "TU": 7333,
  "nastaju ": 7334,
  "parametri ": 7335,
  "uključuju ": 7336,
  "BS ": 7337,
  "će ": 7338,
  "Budu": 7339,
  "postaju ": 7340,
  "upotrebom ": 7341,
  "vir": 7342,
  "seo": 7343,
  "izrade ": 7344,
  "njihovi ": 7345,
  "MU": 7346,
  "unutrašnj": 7347,
  "para ": 7348,
  "Sadrž": 7349,
  "imo ": 7350,
  "rami": 7351,
  "selo ": 7352,
  "Saraje": 7353,
  "evolu": 7354,
  "zili ": 7355,
  "flo": 7356,
  "rov ": 7357,
  "VO ": 7358,
  "identitet ": 7359,
  "dža": 7360,
  "Bosne ": 7361,
  "takvih ": 7362,
  "cin ": 7363,
  "Pod ": 7364,
  "kulturu ": 7365,
  "predstavnika ": 7366,
  "enzima ": 7367,
  "RAN": 7368,
  "Koliko ": 7369,
  "sar": 7370,
  "Gori ": 7371,
  "Izra": 7372,
  "sno": 7373,
  "national ": 7374,
  "koncepta ": 7375,
  "juća ": 7376,
  "atribu": 7377,
  "ženje ": 7378,
  "redovno ": 7379,
  "kulturne ": 7380,
  "yo": 7381,
  "ljan": 7382,
  "pojedinca ": 7383,
  "telu ": 7384,
  "vremenski ": 7385,
  "kalne ": 7386,
  "dor": 7387,
  "rila ": 7388,
  "visokim ": 7389,
  "vida ": 7390,
  "njenu ": 7391,
  "najveća ": 7392,
  "poruka ": 7393,
  "društvenog ": 7394,
  "konstitu": 7395,
  "rukovod": 7396,
  "hlo": 7397,
  "larni ": 7398,
  "drugima ": 7399,
  "anaca ": 7400,
  "sus": 7401,
  "plasi": 7402,
  "sakup": 7403,
  "formu ": 7404,
  "zagađ": 7405,
  "biljke ": 7406,
  "upored": 7407,
  "usavrš": 7408,
  "državama ": 7409,
  "advo": 7410,
  "potrebne ": 7411,
  "On": 7412,
  "čeni ": 7413,
  "ginu": 7414,
  "idu ": 7415,
  "Dani": 7416,
  "Men": 7417,
  "ološke ": 7418,
  "temperaturi ": 7419,
  "var ": 7420,
  "udar": 7421,
  "ograni": 7422,
  "foli": 7423,
  "intra": 7424,
  "asocija": 7425,
  "pronala": 7426,
  "hetero": 7427,
  "obavezu ": 7428,
  "Konstan": 7429,
  "mol ": 7430,
  "jković ": 7431,
  "karbo": 7432,
  "podatak ": 7433,
  "Afri": 7434,
  "gubitak ": 7435,
  "pitanjima ": 7436,
  "odob": 7437,
  "unutrašnjih ": 7438,
  "Put": 7439,
  "ans ": 7440,
  "međunarodnih ": 7441,
  "spoljaš": 7442,
  "1984 ": 7443,
  "crkva ": 7444,
  "ustanova ": 7445,
  "tumora ": 7446,
  "verzija ": 7447,
  "podržav": 7448,
  "membra": 7449,
  "Podaci ": 7450,
  "ɟɦ": 7451,
  "Infor": 7452,
  "racija ": 7453,
  "softver": 7454,
  "lit": 7455,
  "pojavu ": 7456,
  "razum": 7457,
  "boravi": 7458,
  "udruženja ": 7459,
  "lečenja ": 7460,
  "NOV": 7461,
  "doprinose ": 7462,
  "pokazalo ": 7463,
  "SC": 7464,
  "okupa": 7465,
  "pregle": 7466,
  "osećaj ": 7467,
  "kiseo": 7468,
  "tipova ": 7469,
  "seu": 7470,
  "Nemačka ": 7471,
  "ot ": 7472,
  "jale ": 7473,
  "govorio ": 7474,
  "prikazuje ": 7475,
  "uzima": 7476,
  "Knji": 7477,
  "prezi": 7478,
  "indeksa ": 7479,
  "Komp": 7480,
  "1981 ": 7481,
  "Kre": 7482,
  "potencijala ": 7483,
  "glo": 7484,
  "ralna ": 7485,
  "primenji": 7486,
  "prihod": 7487,
  "ɨɝ ": 7488,
  "poruke ": 7489,
  "srca ": 7490,
  "opis ": 7491,
  "prodaju ": 7492,
  "ističu ": 7493,
  "praksa ": 7494,
  "češ": 7495,
  "evalua": 7496,
  "zadovoljstvo ": 7497,
  "aktivno ": 7498,
  "merno ": 7499,
  "klub ": 7500,
  "unapređenje ": 7501,
  "intervju": 7502,
  "komunikacija ": 7503,
  "pac": 7504,
  "Vre": 7505,
  "kulturi ": 7506,
  "zajednici ": 7507,
  "ɨɝ": 7508,
  "deni ": 7509,
  "jezg": 7510,
  "son": 7511,
  "pripi": 7512,
  "tiji ": 7513,
  "bankar": 7514,
  "kvar": 7515,
  "određeno ": 7516,
  "ope": 7517,
  "prisutna ": 7518,
  "progre": 7519,
  "RJ ": 7520,
  "prepre": 7521,
  "avamo ": 7522,
  "blizu ": 7523,
  "zvuč": 7524,
  "suprot ": 7525,
  "dokumenta": 7526,
  "ero": 7527,
  "pozitivno ": 7528,
  "ɢɫɬ": 7529,
  "fila ": 7530,
  "orijenti": 7531,
  "varijable ": 7532,
  "prethodne ": 7533,
  "ulaganja ": 7534,
  "omla": 7535,
  "porast ": 7536,
  "podzem": 7537,
  "Jugoslaviji ": 7538,
  "Ni ": 7539,
  "dodao ": 7540,
  "Sen": 7541,
  "kasni": 7542,
  "RA ": 7543,
  "é ": 7544,
  "ljavaju ": 7545,
  "resto": 7546,
  "visokog ": 7547,
  "ustanove ": 7548,
  "policija ": 7549,
  "humani": 7550,
  "farma": 7551,
  "disk": 7552,
  "fleksi": 7553,
  "odgovaraju ": 7554,
  "samouprave ": 7555,
  "uto": 7556,
  "prič": 7557,
  "strana": 7558,
  "dig": 7559,
  "osiguranje ": 7560,
  "proizvodnja ": 7561,
  "teri ": 7562,
  "fol": 7563,
  "Razli": 7564,
  "nastala ": 7565,
  "najveće ": 7566,
  "teritorij": 7567,
  "Već ": 7568,
  "suprot": 7569,
  "insi": 7570,
  "savez": 7571,
  "opterećenja ": 7572,
  "ì": 7573,
  "Strate": 7574,
  "ɢɰ": 7575,
  "usa": 7576,
  "efekte ": 7577,
  "inva": 7578,
  "izdava": 7579,
  "oloških ": 7580,
  "un ": 7581,
  "1970 ": 7582,
  "æ": 7583,
  "motor": 7584,
  "dik": 7585,
  "Najveći ": 7586,
  "demon": 7587,
  "svakoj ": 7588,
  "mine ": 7589,
  "vege": 7590,
  "igrača ": 7591,
  "grafija ": 7592,
  "detalj": 7593,
  "pravna ": 7594,
  "sredi": 7595,
  "trgovine ": 7596,
  "org ": 7597,
  "proizvodnji ": 7598,
  "prima": 7599,
  "povezana ": 7600,
  "Bli": 7601,
  "uspeo ": 7602,
  "partner": 7603,
  "uzrok ": 7604,
  "Možda ": 7605,
  "višestru": 7606,
  "postojećih ": 7607,
  "Ana ": 7608,
  "larnih ": 7609,
  "počeli ": 7610,
  "podrška ": 7611,
  "histo": 7612,
  "akcen": 7613,
  "Većina ": 7614,
  "smešt": 7615,
  "oci": 7616,
  "poena ": 7617,
  "primeru ": 7618,
  "osnove ": 7619,
  "pojavljuje ": 7620,
  "priklju": 7621,
  "pedago": 7622,
  "lična ": 7623,
  "prouzro": 7624,
  "ličnih ": 7625,
  "jani ": 7626,
  "banka ": 7627,
  ".: ": 7628,
  "posebnim ": 7629,
  "Istorija ": 7630,
  "arhitekture ": 7631,
  "meru ": 7632,
  "određenom ": 7633,
  "dve": 7634,
  "zove ": 7635,
  "marketin": 7636,
  "stih ": 7637,
  "karakteriše ": 7638,
  "Pal": 7639,
  "savrš": 7640,
  "saznanja ": 7641,
  "sudija ": 7642,
  "KU": 7643,
  "AP ": 7644,
  "komisije ": 7645,
  "Demo": 7646,
  "mail ": 7647,
  "vajući ": 7648,
  "vrednov": 7649,
  "fraz": 7650,
  "škoj ": 7651,
  "poti": 7652,
  "Ir": 7653,
  "ljavanja ": 7654,
  "ɚɦ": 7655,
  "poremećaja ": 7656,
  "potiče ": 7657,
  "okvira ": 7658,
  "pored": 7659,
  "hal": 7660,
  "mna ": 7661,
  "CO": 7662,
  "mić ": 7663,
  "que ": 7664,
  "enima ": 7665,
  "Marković ": 7666,
  "međunarodnim ": 7667,
  "Kova": 7668,
  "stvarnosti ": 7669,
  "institucional": 7670,
  "dobru ": 7671,
  "guje ": 7672,
  "inciden": 7673,
  "uput": 7674,
  "liste ": 7675,
  "dalj": 7676,
  "matskih ": 7677,
  "tembar ": 7678,
  "delovi ": 7679,
  "dužina ": 7680,
  "ir ": 7681,
  "reagov": 7682,
  "štetu ": 7683,
  "canje ": 7684,
  "nasilje ": 7685,
  "ae ": 7686,
  "realizacije ": 7687,
  "ničko ": 7688,
  "Mili": 7689,
  "toni": 7690,
  "govorima ": 7691,
  "Sek": 7692,
  "ekonomskog ": 7693,
  "obnov": 7694,
  "savla": 7695,
  "Narodne ": 7696,
  "jka ": 7697,
  "brinu": 7698,
  "lekova ": 7699,
  "Dragan ": 7700,
  "zrna ": 7701,
  "stanku ": 7702,
  "otka": 7703,
  "efekti ": 7704,
  "fanta": 7705,
  "domenu ": 7706,
  "javnim ": 7707,
  "tete ": 7708,
  "eta": 7709,
  "deci ": 7710,
  "Mor": 7711,
  "teži ": 7712,
  "devet ": 7713,
  "Slav": 7714,
  "Ran": 7715,
  "Kne": 7716,
  "Sme": 7717,
  "XX ": 7718,
  "talne ": 7719,
  "zar ": 7720,
  "magi": 7721,
  "prethodnih ": 7722,
  "bić ": 7723,
  "ho ": 7724,
  "ol ": 7725,
  "kost ": 7726,
  "razgovara": 7727,
  "žete ": 7728,
  "imuno": 7729,
  "vaspit": 7730,
  "izborima ": 7731,
  "set ": 7732,
  "pozitivan ": 7733,
  "sili ": 7734,
  "Ekono": 7735,
  "Arhi": 7736,
  "fizičke ": 7737,
  "sijom ": 7738,
  "daljem ": 7739,
  "napomenu": 7740,
  "stana ": 7741,
  "KE ": 7742,
  "svin": 7743,
  "jenosti ": 7744,
  "ram ": 7745,
  "gana ": 7746,
  "direktora ": 7747,
  "poziciji ": 7748,
  "međunarodnog ": 7749,
  "sanju ": 7750,
  "izveštaj ": 7751,
  "bića ": 7752,
  "bavi": 7753,
  "električne ": 7754,
  "napona ": 7755,
  "Ode": 7756,
  "anata ": 7757,
  "ugla ": 7758,
  "dobije ": 7759,
  "iznosila ": 7760,
  "ʁ ": 7761,
  "veliko ": 7762,
  "kuću ": 7763,
  "doživlj": 7764,
  "matske ": 7765,
  "tiku ": 7766,
  "hop": 7767,
  "Stati": 7768,
  "đević ": 7770,
  "mini ": 7771,
  "novod": 7772,
  "Velika ": 7773,
  "čem ": 7774,
  "previše ": 7775,
  "Spa": 7776,
  "bornik ": 7777,
  "mesa ": 7778,
  "dejstva ": 7779,
  ".</ ": 7780,
  "jite ": 7781,
  "telefona ": 7782,
  "sovje": 7783,
  "Pozna": 7784,
  "talo": 7786,
  "Gri": 7787,
  "hova ": 7788,
  "\u000f\u0003 ": 7789,
  "treće ": 7790,
  "Ele": 7791,
  "propisa ": 7792,
  "proceni ": 7793,
  "plaćanja ": 7794,
  "prate ": 7795,
  "dokaz ": 7796,
  "ravni ": 7797,
  "važna ": 7798,
  "njenim ": 7799,
  "dodi": 7800,
  "jn": 7801,
  "mito": 7802,
  "Sim": 7803,
  "wa ": 7804,
  "stare ": 7805,
  "komentare ": 7806,
  "mehanizam ": 7807,
  "delovanje ": 7808,
  "azo": 7809,
  "ruske ": 7810,
  "lazi ": 7811,
  "kupu": 7812,
  "trudno": 7813,
  "odgovarajući ": 7814,
  "demo ": 7815,
  "― ": 7816,
  "karcinoma ": 7817,
  "Crnoj ": 7818,
  "fakultetu ": 7819,
  "uprava ": 7820,
  "negde ": 7821,
  "gluko": 7822,
  "unutrašnje ": 7823,
  "Fer": 7824,
  "ceni ": 7825,
  "ško ": 7826,
  "slobodu ": 7827,
  "Republika ": 7828,
  "borbu ": 7829,
  "kovati ": 7830,
  "pacijenta ": 7831,
  "ćuju ": 7832,
  "promi": 7833,
  "pominje ": 7834,
  "urnal ": 7835,
  "sugeri": 7836,
  "teni": 7837,
  "radila ": 7838,
  "delatnost ": 7839,
  "cno ": 7840,
  "cara ": 7841,
  "2Ć ": 7842,
  "Osnovni ": 7843,
  "vizija ": 7844,
  "rev": 7845,
  "odobr": 7846,
  "mra": 7847,
  "ron ": 7848,
  "zase": 7849,
  "potvrđuje ": 7850,
  "način": 7851,
  "brojnih ": 7852,
  "Jevre": 7853,
  "identifi": 7854,
  "balkan": 7855,
  "korišćena ": 7856,
  "nepokret": 7857,
  "ɢɦɚ ": 7858,
  "omogućavaju ": 7859,
  "Zatim ": 7860,
  "nacije ": 7861,
  "ziv ": 7862,
  "rekla": 7863,
  "ll ": 7864,
  "sne": 7865,
  "intenziteta ": 7866,
  "stičku ": 7867,
  "matike ": 7868,
  "auto ": 7869,
  "ger": 7870,
  "potraži": 7871,
  "oblici ": 7872,
  "postane ": 7873,
  "rekor": 7874,
  "ń": 7875,
  "siromaš": 7876,
  "odrediti ": 7877,
  "amin": 7878,
  "sastava ": 7879,
  "uvid ": 7880,
  "prijatelj": 7881,
  "Hrvatskoj ": 7882,
  "und ": 7883,
  "izvršena ": 7884,
  "stati ": 7885,
  "srednja ": 7886,
  "tiraju ": 7887,
  "obezbedi ": 7888,
  "literature ": 7889,
  "prisutan ": 7890,
  "poboljšanje ": 7891,
  "šla ": 7892,
  "teoriji ": 7893,
  "izda": 7894,
  "stariji ": 7895,
  "Šu": 7896,
  "izradu ": 7897,
  "nastavlja ": 7898,
  "stiju ": 7899,
  "otež": 7900,
  "produž": 7901,
  "pti": 7902,
  "nastavku ": 7903,
  "preduzeće ": 7904,
  "ćelijama ": 7905,
  "proizvođača ": 7906,
  "infekcije ": 7907,
  "mon ": 7908,
  "utvrđivanje ": 7909,
  "fede": 7910,
  "znamo ": 7911,
  "opo": 7912,
  "Petar ": 7913,
  "kulturnog ": 7914,
  "pojedine ": 7915,
  "sudu ": 7916,
  "vaš ": 7917,
  "učestvuje ": 7918,
  "mit ": 7919,
  "miju ": 7920,
  "aj": 7921,
  "trend ": 7922,
  "ostrva ": 7923,
  "film": 7924,
  "detekt": 7925,
  "treći ": 7926,
  "‒ ": 7927,
  "let ": 7928,
  "Ben": 7929,
  "land ": 7930,
  "okolnostima ": 7931,
  "mog ": 7932,
  "talni ": 7933,
  "dovode ": 7934,
  "moramo ": 7935,
  "Ti ": 7936,
  "ng ": 7937,
  "ise": 7938,
  "prover": 7939,
  "listu ": 7940,
  "mladi ": 7941,
  "niz": 7942,
  "meti": 7943,
  "žrtve ": 7944,
  "pozitivne ": 7945,
  "procena ": 7946,
  "Nastav": 7947,
  "gina": 7948,
  "Bogo": 7949,
  "malim ": 7950,
  "celu": 7951,
  "prisustvu ": 7952,
  "obavezno ": 7953,
  "osvet": 7954,
  "tužila": 7955,
  "napad ": 7956,
  "Dr ": 7957,
  "250 ": 7958,
  "sanog ": 7959,
  "pol ": 7960,
  "rasto": 7961,
  "Austra": 7962,
  "koma": 7963,
  "bira ": 7964,
  "motivi": 7965,
  "ɨɥ": 7966,
  "članu ": 7967,
  "Imajući ": 7968,
  "utisak ": 7969,
  "insko ": 7970,
  "grup": 7971,
  "sagled": 7972,
  "dim ": 7973,
  "ly": 7974,
  "procedure ": 7975,
  "prinos ": 7976,
  "Jedin": 7977,
  "njak ": 7978,
  "sh ": 7979,
  "Bre": 7980,
  "celog ": 7981,
  "vrijed": 7982,
  "pono": 7983,
  "Ukrajini ": 7984,
  "poziva ": 7985,
  "baz": 7986,
  "istu ": 7987,
  "novč": 7988,
  "Miloš ": 7989,
  "izraza ": 7990,
  "likov": 7991,
  "postupa": 7992,
  "kakva ": 7993,
  "šli ": 7994,
  "arteri": 7995,
  "Time ": 7996,
  "kontinen": 7997,
  "glavne ": 7998,
  "svije": 7999,
  "režima ": 8000,
  "tle ": 8001,
  "smrt": 8002,
  "nina ": 8003,
  "kuć": 8004,
  "svest ": 8005,
  "baze ": 8006,
  "Elek": 8007,
  "Bur": 8008,
  "fre": 8009,
  "strategi": 8010,
  "klan": 8011,
  "famili": 8012,
  "proglaš": 8013,
  "lečenje ": 8014,
  "jućeg ": 8015,
  "sigurnosti ": 8016,
  "Jer ": 8017,
  "njihovoj ": 8018,
  "zauze": 8019,
  "bizni": 8020,
  "11": 8021,
  "povećanjem ": 8022,
  "američki ": 8023,
  "Zahval": 8024,
  "Marija ": 8025,
  "smet": 8026,
  "državni ": 8027,
  "važnosti ": 8028,
  "zonu ": 8029,
  "len ": 8030,
  "ljudska ": 8031,
  "skop": 8032,
  "morao ": 8033,
  "promeni ": 8034,
  "pisali ": 8035,
  "minacije ": 8036,
  "izri": 8037,
  "traže ": 8038,
  "trajanju ": 8039,
  "avina ": 8040,
  "pravima ": 8041,
  "materije ": 8042,
  "uzrasta ": 8043,
  "šno ": 8044,
  "trpe": 8045,
  "mogle ": 8046,
  "predstavnici ": 8047,
  "materija ": 8048,
  "ženja ": 8049,
  "mac ": 8050,
  "nedavno ": 8051,
  "Nikolić ": 8052,
  "Jelena ": 8053,
  "potrošnje ": 8054,
  "tropoli": 8055,
  "1000 ": 8056,
  "Pit": 8057,
  "okon": 8058,
  "firme ": 8059,
  "moja ": 8060,
  "nović ": 8061,
  "Dimitri": 8062,
  "pisala ": 8063,
  "radovi ": 8064,
  "uzimaju ": 8065,
  "živeo ": 8066,
  "gimnazi": 8067,
  "1983 ": 8068,
  "crkven": 8069,
  "utin ": 8070,
  "obil": 8071,
  "ard ": 8073,
  "glavnog ": 8074,
  "slične ": 8075,
  "ica ": 8076,
  "kuku": 8077,
  "statisti": 8078,
  "BA": 8079,
  "interesan": 8080,
  "polovine ": 8081,
  "socijali": 8082,
  "milijardi ": 8083,
  "Vil": 8084,
  "poštovanje ": 8085,
  "videli ": 8086,
  "gdje ": 8087,
  "Jovana ": 8088,
  "щ": 8089,
  "seru": 8090,
  "naknade ": 8091,
  "Zoran ": 8092,
  "sanim ": 8093,
  "valu ": 8094,
  "nekadaš": 8095,
  "šak ": 8096,
  "kontakt ": 8097,
  "kraljev": 8098,
  "fizički ": 8099,
  "versi": 8100,
  "vila ": 8101,
  "rit": 8102,
  "ubr": 8103,
  "bol ": 8104,
  "celu ": 8105,
  "goriva ": 8106,
  "mas ": 8107,
  "One ": 8108,
  "lno ": 8109,
  "donošenja ": 8110,
  "tata ": 8111,
  "Mislim ": 8112,
  "vrati ": 8113,
  "žeg ": 8114,
  "perspektive ": 8115,
  "nastao ": 8116,
  "demije ": 8117,
  "pomaže ": 8118,
  "donačel": 8119,
  "ocene ": 8120,
  "zadržav": 8121,
  "ljubav": 8122,
  "njama ": 8123,
  "cor": 8124,
  "Gi": 8125,
  "roka ": 8126,
  "Zak": 8127,
  "zajednički ": 8128,
  "procese ": 8129,
  "uzorcima ": 8130,
  "ɚɞ": 8131,
  "istraţi": 8132,
  "opšti ": 8133,
  "ss": 8134,
  "rado": 8135,
  "prisustva ": 8136,
  "obrazovanju ": 8137,
  "bine ": 8138,
  "izdvo": 8139,
  "nista ": 8140,
  "’. ": 8141,
  "veštine ": 8142,
  "algorit": 8143,
  "ić ": 8144,
  "Zakonom ": 8145,
  "Plan": 8146,
  "operacija ": 8147,
  "istraž": 8148,
  "svje": 8149,
  "hijerar": 8150,
  "Tabeli ": 8151,
  "saglasnost ": 8152,
  "Vin": 8153,
  "bici": 8154,
  "iskorišć": 8155,
  "recimo ": 8156,
  "sirov": 8157,
  "domena ": 8158,
  "kulturnih ": 8159,
  "korišćeni ": 8160,
  "sajt ": 8161,
  "vajcar": 8162,
  "pravilima ": 8163,
  "opš": 8164,
  "posmatra ": 8165,
  "jivanje ": 8166,
  "duž ": 8167,
  "cijski ": 8168,
  "uki": 8169,
  "budućnost ": 8170,
  "Nemačke ": 8171,
  "istoj ": 8172,
  "izvršenja ": 8173,
  "državu ": 8174,
  "poznate ": 8175,
  "privati": 8176,
  "poveri": 8177,
  "Udruž": 8178,
  "kav": 8179,
  "1982 ": 8180,
  "pamet": 8181,
  "studijama ": 8182,
  "ovekov": 8183,
  "Saveta ": 8184,
  "sudova ": 8185,
  "uko": 8186,
  "ore": 8187,
  "sloja ": 8188,
  "sličan ": 8189,
  "graf ": 8190,
  "očigledno ": 8191,
  "kap": 8192,
  "Čak ": 8193,
  "spadaju ": 8194,
  "Radi": 8195,
  "kvantita": 8196,
  "planiranja ": 8197,
  "automobila ": 8198,
  "hek": 8199,
  "zaciji ": 8200,
  "IV": 8201,
  "ence ": 8202,
  "pažnje ": 8203,
  "čim ": 8204,
  "IH ": 8205,
  "samostalno ": 8206,
  "cirku": 8207,
  "nai": 8208,
  "CR": 8209,
  "FA ": 8210,
  "ы ": 8211,
  "formuli": 8212,
  "govoriti ": 8213,
  "progno": 8214,
  "logy ": 8215,
  "port ": 8216,
  "mart ": 8217,
  "koristeći ": 8218,
  "prelazi ": 8219,
  "korelacija ": 8220,
  "Kul": 8221,
  "PL": 8222,
  "ljudskog ": 8223,
  "ys ": 8224,
  "agencija ": 8225,
  "sali ": 8226,
  "ciljeve ": 8227,
  "poginu": 8228,
  "sindi": 8229,
  "nuti ": 8230,
  "decenije ": 8232,
  "koris": 8233,
  "tekstova ": 8234,
  "Model ": 8235,
  "narodne ": 8236,
  "ukupan ": 8237,
  "Razvo": 8238,
  "širi ": 8239,
  "opasnost ": 8240,
  "kadr": 8241,
  "tko ": 8242,
  "zahteve ": 8243,
  "sreć": 8244,
  "stanovništvo ": 8245,
  "priču ": 8246,
  "jun ": 8247,
  "prvenstvo ": 8248,
  "nili ": 8249,
  "from ": 8250,
  "ɉ": 8251,
  "formira ": 8252,
  "sagovor": 8253,
  "obraza": 8254,
  "dam": 8255,
  "Dej": 8256,
  "aktivnih ": 8257,
  "stanovišta ": 8258,
  "sloboda ": 8259,
  "takvim ": 8260,
  "Bru": 8261,
  "stavova ": 8262,
  "novin": 8263,
  "Ara": 8264,
  "Sti": 8265,
  "politička ": 8266,
  "stresa ": 8267,
  "dina ": 8268,
  "dnevno ": 8269,
  "nae": 8270,
  "izaziva ": 8271,
  "stere": 8272,
  "Zašto ": 8273,
  "peča": 8274,
  "ker": 8275,
  "nezavisno ": 8276,
  "Lan": 8277,
  "mni ": 8278,
  "lili ": 8279,
  "600 ": 8280,
  "mlado": 8281,
  "International ": 8282,
  "GA": 8283,
  "odrasli": 8284,
  "gospod": 8285,
  "1945 ": 8286,
  "cina ": 8287,
  "Davi": 8288,
  "delove ": 8289,
  "defici": 8290,
  "umetnost ": 8291,
  "vamo ": 8292,
  "Svaka ": 8293,
  "nastup": 8294,
  "analo": 8295,
  "berg ": 8296,
  "Kal": 8297,
  "Kur": 8298,
  "nastanak ": 8299,
  "osvojio ": 8300,
  "Evropska ": 8301,
  "jevi": 8302,
  "Mihaj": 8303,
  "kup ": 8304,
  "kredita ": 8305,
  "moguća ": 8306,
  "insisti": 8307,
  "bugar": 8308,
  "doživ": 8309,
  "zera ": 8310,
  "Nemačkoj ": 8311,
  "pisac ": 8312,
  "ljto ": 8313,
  "dijabe": 8314,
  "delima ": 8315,
  "apo": 8316,
  "kažem ": 8317,
  "ljanjem ": 8318,
  "matiz": 8319,
  "larnog ": 8320,
  "šuma ": 8321,
  "fori": 8322,
  "sporazum ": 8323,
  "raspoređ": 8324,
  "sala ": 8325,
  "vidim ": 8326,
  "opasnosti ": 8327,
  "eu": 8328,
  "imenom ": 8329,
  "roman ": 8330,
  "nite ": 8331,
  "predstave ": 8332,
  "konstat": 8333,
  "manu ": 8334,
  "napi": 8335,
  "potreban ": 8336,
  "sem ": 8337,
  "menadžmenta ": 8338,
  "zavisnost ": 8339,
  "dijalo": 8340,
  "glavna ": 8341,
  "110 ": 8342,
  "nav": 8343,
  "dim": 8344,
  "zasluž": 8345,
  "pare ": 8346,
  "tsku ": 8347,
  "vanih ": 8348,
  "etno": 8349,
  "opsegu ": 8350,
  "srpskoj ": 8351,
  "ljudske ": 8352,
  "veri": 8353,
  "ɱ": 8354,
  "navedenog ": 8355,
  "razumevanja ": 8356,
  "ɧɨ ": 8357,
  "dužan ": 8358,
  "onako ": 8359,
  "Vrednosti ": 8360,
  "3Ć ": 8361,
  "čeno ": 8362,
  "procesima ": 8363,
  "propisima ": 8364,
  "stigao ": 8365,
  "zanema": 8366,
  "Ču": 8367,
  "knjigu ": 8368,
  "manipu": 8369,
  "ﬁ": 8370,
  "kandidata ": 8371,
  "mes ": 8372,
  "Posebno ": 8373,
  "svetlosti ": 8374,
  "Srpski ": 8375,
  "zabav": 8376,
  "anac ": 8377,
  "ulici ": 8378,
  "klasa ": 8379,
  "IST": 8380,
  "izdanja ": 8381,
  "utih ": 8382,
  "prošlog ": 8383,
  "zračenja ": 8384,
  "NK ": 8385,
  "nacionalni ": 8386,
  "takmičenja ": 8387,
  "Rezultat ": 8388,
  "temelj": 8389,
  "ɨɩ": 8390,
  "topo": 8391,
  "savremene ": 8392,
  "Zvez": 8393,
  "zida ": 8394,
  "lar ": 8395,
  "sopstvene ": 8396,
  "rasprostra": 8397,
  "dž ": 8398,
  "jenju ": 8399,
  "vojska ": 8400,
  "ANJE ": 8401,
  "lića ": 8402,
  "zori": 8403,
  "MP ": 8404,
  "Nova ": 8405,
  "kalci": 8406,
  "jumu ": 8407,
  "ništvo ": 8408,
  "ɰ": 8409,
  "problemima ": 8410,
  "oča": 8411,
  "drži ": 8412,
  "prof ": 8413,
  "epo": 8414,
  "Ukrajine ": 8415,
  "školske ": 8416,
  "vezane ": 8417,
  "strak": 8418,
  "povezani ": 8419,
  "emisije ": 8420,
  "naši ": 8421,
  "namir": 8422,
  "sredstvima ": 8423,
  "ruski ": 8424,
  "opšteg ": 8425,
  "cipa": 8426,
  "automatski ": 8427,
  "PRED": 8428,
  "volje ": 8429,
  "škog ": 8430,
  "veština ": 8431,
  "učešća ": 8432,
  "lige ": 8433,
  "zahtevaju ": 8434,
  "organizaciju ": 8435,
  "Držav": 8436,
  "imi": 8437,
  "dobara ": 8438,
  "'') ": 8439,
  "ɨɦ": 8440,
  "agrega": 8441,
  "negativne ": 8442,
  "Univerzitet ": 8443,
  "gne ": 8444,
  "sumnje ": 8445,
  "Potreb": 8446,
  "Bosni ": 8447,
  "poziv ": 8448,
  "tekstu": 8449,
  "piti ": 8450,
  "kukuru": 8451,
  "oči ": 8452,
  "zadržava ": 8453,
  "pripreme ": 8454,
  "nagrade ": 8455,
  "poslovanje ": 8456,
  "sloj ": 8457,
  "Nišu ": 8458,
  "ocena ": 8459,
  "Sun": 8460,
  "jum": 8461,
  "vole": 8462,
  "indeks ": 8463,
  "niste ": 8464,
  "bin": 8465,
  "poslu ": 8466,
  "energija ": 8467,
  "desetak ": 8468,
  "Glavni ": 8469,
  "proizve": 8470,
  "jnom ": 8471,
  "TI ": 8472,
  "jedina ": 8473,
  "stupa ": 8474,
  "gove ": 8475,
  "društveni ": 8476,
  "nm ": 8477,
  "ljević ": 8478,
  "događaj ": 8479,
  "mica ": 8480,
  "brže ": 8481,
  "001 ": 8482,
  "sigurnost ": 8483,
  "priprema ": 8484,
  "lana ": 8485,
  "ovlašćenja ": 8486,
  "performanse ": 8487,
  "jane ": 8488,
  "pružaju ": 8489,
  "lek ": 8490,
  "can": 8491,
  "pretež": 8492,
  "suprotstav": 8493,
  "dokumenta ": 8494,
  "ofici": 8495,
  "padne ": 8496,
  "Jap": 8497,
  "fu ": 8498,
  "ljamo ": 8499,
  "realizaciju ": 8500,
  "političkim ": 8501,
  "lni ": 8502,
  "Đur": 8503,
  "ovakve ": 8504,
  "kralj ": 8505,
  "pogotovo ": 8506,
  "ɮ": 8507,
  "korisnici ": 8508,
  "Vra": 8509,
  "poželj": 8510,
  "starijih ": 8511,
  "nes ": 8512,
  "skladišt": 8513,
  "inostranstvu ": 8514,
  "otkriva ": 8515,
  "toleran": 8516,
  "istorijski ": 8517,
  "gradnje ": 8518,
  "domaće ": 8519,
  "oka ": 8520,
  "menadže": 8521,
  "jnu ": 8522,
  "mpli": 8523,
  "1979 ": 8524,
  "Pot": 8525,
  "partnera ": 8526,
  "izvođa": 8527,
  "dokaza ": 8528,
  "ciljevi ": 8529,
  "nikako ": 8530,
  "zapaž": 8531,
  "skupštine ": 8532,
  "navedeni ": 8533,
  "plj": 8534,
  "stičko ": 8535,
  "imajući ": 8536,
  "ovek ": 8537,
  "stali": 8538,
  "godišnjeg ": 8539,
  "sačin": 8540,
  "položaju ": 8541,
  "kompju": 8542,
  "vodio ": 8543,
  "obolelih ": 8544,
  "miri": 8545,
  "hle": 8546,
  "fizičkog ": 8547,
  "Journal ": 8548,
  "VIII ": 8549,
  "kluba ": 8550,
  "ekspresije ": 8551,
  "pravilu ": 8552,
  "saglasnosti ": 8553,
  "bogat": 8554,
  "zvanično ": 8555,
  "ding ": 8556,
  "lekara ": 8557,
  "namet": 8558,
  "stil ": 8559,
  "obila": 8560,
  "preživlj": 8561,
  "infrastrukture ": 8562,
  "nedelja ": 8563,
  "istih ": 8564,
  "partija ": 8565,
  "zaključuje ": 8566,
  "dekla": 8567,
  "konce": 8568,
  "formacije ": 8569,
  "dokumenata ": 8570,
  "cho": 8571,
  "Hercegovine ": 8572,
  "interes ": 8573,
  "Kana": 8574,
  "budžeta ": 8575,
  "saradnika ": 8576,
  "Sal": 8577,
  "Institut ": 8578,
  "Vam ": 8579,
  "prilika ": 8580,
  "EC": 8581,
  "Inte": 8582,
  "postojala ": 8583,
  "Wor": 8584,
  "čene ": 8585,
  "implementa": 8586,
  "ogle": 8587,
  "uhap": 8588,
  "monetar": 8589,
  "propor": 8590,
  "postepeno ": 8591,
  "human": 8592,
  "životinje ": 8593,
  "ё": 8594,
  "izmene ": 8595,
  "uočava ": 8596,
  "gor ": 8597,
  "jon ": 8598,
  "nagrada ": 8599,
  "ovakav ": 8600,
  "karakteristikama ": 8601,
  "pesama ": 8602,
  "raznim ": 8603,
  "približno ": 8604,
  "Rober": 8605,
  "crnogor": 8606,
  "pš": 8607,
  "srpskim ": 8608,
  "prilagod": 8609,
  "η": 8610,
  "znim ": 8611,
  "površinu ": 8612,
  "emo ": 8613,
  "Sla": 8614,
  "Ukupno ": 8615,
  "101 ": 8616,
  "Sy": 8617,
  "pravilno ": 8618,
  "SI ": 8619,
  "konta": 8620,
  "cs ": 8621,
  "oviće": 8622,
  "podnosi": 8623,
  "dovo": 8624,
  "KP ": 8625,
  "stvaraju ": 8626,
  "procedura ": 8627,
  "Sadržaj ": 8628,
  "uče ": 8629,
  "rijske ": 8630,
  "peroksi": 8631,
  "održava ": 8632,
  "raspodele ": 8633,
  "specifične ": 8634,
  "pregleda ": 8635,
  "prinosa ": 8636,
  "prepara": 8637,
  "1971 ": 8638,
  "investicija ": 8639,
  "brojnim ": 8640,
  "detaljno ": 8641,
  "cy": 8642,
  "Mari": 8643,
  "Velike ": 8644,
  "istina ": 8645,
  "domaćih ": 8646,
  "šim ": 8647,
  "nekoj ": 8648,
  "reka ": 8649,
  "anić ": 8650,
  "800 ": 8651,
  "polo": 8652,
  "ostvaren": 8653,
  "pokazano ": 8654,
  "teore": 8655,
  "aca ": 8656,
  "CI ": 8657,
  "krug ": 8658,
  "slova ": 8659,
  "procesi ": 8660,
  "Sovje": 8661,
  "izvodi ": 8662,
  "vratio ": 8663,
  "suver": 8664,
  "mađar": 8665,
  "portal ": 8666,
  "većine ": 8667,
  "poseduju ": 8668,
  "saveta ": 8669,
  "fora ": 8670,
  "preda": 8671,
  "stije ": 8672,
  "interakcija ": 8673,
  "hr": 8674,
  "žite ": 8675,
  "dobijanje ": 8676,
  "bra ": 8677,
  "oslobađ": 8678,
  "kardi": 8679,
  "morala ": 8680,
  "Ispitiv": 8681,
  "LI ": 8682,
  "set": 8683,
  "1978 ": 8684,
  "dom": 8685,
  "ideju ": 8686,
  "čet": 8687,
  "Gar": 8688,
  "ljenom ": 8689,
  "mbri": 8690,
  "Miro": 8691,
  "numeri": 8692,
  "interven": 8693,
  "primeri ": 8694,
  "energiju ": 8695,
  "glasi ": 8696,
  "fis": 8697,
  "znom ": 8698,
  "ocenu ": 8699,
  "Vol": 8700,
  "upla": 8701,
  "odgovori ": 8702,
  "verovatnije ": 8703,
  "pripadnika ": 8704,
  "Fun": 8705,
  "lnih ": 8706,
  "ostvarivanje ": 8707,
  "prekrša": 8708,
  "mož": 8709,
  "SD": 8710,
  "stala": 8711,
  "autobu": 8712,
  "okruženje ": 8713,
  "anović ": 8714,
  "Zel": 8715,
  "nag": 8716,
  "nosa": 8717,
  "Grad ": 8718,
  "dosle": 8719,
  "populacija ": 8720,
  "vazduš": 8721,
  "thi": 8722,
  "Anti": 8723,
  "legen": 8724,
  "uspostavljanje ": 8725,
  "Prika": 8726,
  "kapacitet ": 8727,
  "državnog ": 8728,
  "’, ": 8729,
  "konver": 8730,
  "računovod": 8731,
  "dol": 8732,
  "deluju ": 8733,
  "obeležja ": 8734,
  "zeći ": 8735,
  "ty": 8736,
  "izvori ": 8737,
  "sisteme ": 8738,
  "vot ": 8739,
  "sagle": 8740,
  "bacu": 8741,
  "koristili ": 8742,
  "ola ": 8743,
  "ovanom ": 8744,
  "mlade ": 8745,
  "objavljen ": 8746,
  "čvor": 8747,
  "sat ": 8748,
  "iznosu ": 8749,
  "tumor": 8750,
  "dole": 8751,
  "xi": 8752,
  "sredina ": 8753,
  "ključnih ": 8754,
  "oktobar ": 8755,
  "KP": 8756,
  "ći ": 8757,
  "aplikacije ": 8758,
  "ws ": 8759,
  "zapi": 8760,
  "povezan ": 8761,
  "1974 ": 8762,
  "ovalo ": 8763,
  "ministra ": 8764,
  "obraču": 8765,
  "prethodnom ": 8766,
  "stre ": 8767,
  "oboljenja ": 8768,
  "značajnih ": 8769,
  "roditelj": 8770,
  "ishod": 8771,
  "Klju": 8772,
  "trećeg ": 8773,
  "Mnogi ": 8774,
  "nepri": 8775,
  "konflik": 8776,
  "kolačiće ": 8777,
  "životnu ": 8778,
  "započe": 8779,
  "verzije ": 8780,
  "kulturno ": 8781,
  "postojeće ": 8782,
  "Bibli": 8783,
  "drav": 8784,
  "mona": 8785,
  "hranu ": 8786,
  "dodatne ": 8787,
  "ɠ": 8788,
  "članice ": 8789,
  "ukupnih ": 8790,
  "neophodna ": 8791,
  "Vide": 8792,
  "dove ": 8793,
  "ɤɨʁ": 8794,
  "ɢɪ": 8795,
  "ø": 8796,
  "KS ": 8797,
  "stari ": 8798,
  "hlad": 8799,
  "učenicima ": 8800,
  "nužno ": 8801,
  "cela ": 8802,
  "uvođenje ": 8803,
  "Vreme ": 8804,
  "manastira ": 8805,
  "leži ": 8806,
  "egzisten": 8807,
  "narodu ": 8808,
  "Metohi": 8809,
  "canja ": 8810,
  "čelu ": 8811,
  "vul": 8812,
  "niži ": 8813,
  "objekti ": 8814,
  "proseku ": 8815,
  "rate ": 8816,
  "želite ": 8817,
  "king ": 8818,
  "fizičko ": 8819,
  "nesto ": 8820,
  "starih ": 8821,
  "znaĉa": 8822,
  "car ": 8823,
  "prije ": 8824,
  "nadzor ": 8825,
  "univerz": 8826,
  "Mek": 8827,
  "govorom ": 8828,
  "Don": 8829,
  "ralnim ": 8830,
  "studenti ": 8831,
  "fla": 8832,
  "traz": 8833,
  "školama ": 8834,
  "GA ": 8835,
  "bud": 8836,
  "lila ": 8837,
  "koali": 8838,
  "tilo ": 8839,
  "sus ": 8840,
  "ruskog ": 8841,
  "tuda ": 8842,
  "ks": 8843,
  "kne ": 8844,
  "tičkim ": 8845,
  "planiranje ": 8846,
  "radno ": 8847,
  "vizan": 8848,
  "predviđa ": 8849,
  "vrhun": 8850,
  "pridru": 8851,
  "podnoš": 8852,
  "30": 8853,
  "Vi ": 8854,
  "6Ć ": 8855,
  "Bog": 8856,
  "subo": 8857,
  "poslodav": 8858,
  "objasniti ": 8859,
  "hipoteza ": 8860,
  "ubla": 8861,
  "buduće ": 8862,
  "komunal": 8863,
  "lani": 8864,
  "PP": 8865,
  "elementa ": 8866,
  "aro": 8867,
  "?- ": 8868,
  "Reč ": 8869,
  "zab": 8870,
  "licima ": 8871,
  "naučnih ": 8872,
  "Razvoj ": 8873,
  "Ide": 8874,
  "sona ": 8875,
  "vraća ": 8876,
  "obavljanje ": 8877,
  "Wil": 8878,
  "distan": 8879,
  "socijalnog ": 8880,
  "preminu": 8881,
  "Politika ": 8882,
  "Stefan": 8883,
  "talnog ": 8884,
  "našli ": 8885,
  "sade ": 8886,
  "speri": 8887,
  "posebna ": 8888,
  "bas ": 8889,
  "septembar ": 8890,
  "upućuje ": 8891,
  "teško": 8892,
  "ubistva ": 8893,
  "Zdrav": 8894,
  "umr": 8895,
  "energi": 8896,
  "zatva": 8897,
  "građanima ": 8898,
  "prvo": 8899,
  "srednjeg ": 8900,
  "caju ": 8901,
  "visini ": 8902,
  "ličnost ": 8903,
  "iko": 8904,
  "naglašava ": 8905,
  "puteva ": 8906,
  "čiju ": 8907,
  "XX": 8908,
  "El": 8909,
  "Pošal": 8910,
  "ljajući ": 8911,
  "putnika ": 8912,
  "vaku": 8913,
  "Uče": 8914,
  "subjekta ": 8915,
  "up": 8916,
  "špan": 8917,
  "poljoprivrede ": 8918,
  "postiže ": 8919,
  "zvezde ": 8920,
  "generalno ": 8921,
  "ry ": 8922,
  "Av": 8923,
  "ɟɜ": 8924,
  "kontrolne ": 8925,
  "stama ": 8926,
  "šena ": 8927,
  "kvalita": 8928,
  "Država ": 8929,
  "tačaka ": 8930,
  "lokacije ": 8931,
  "plastič": 8932,
  "istorija ": 8933,
  "----": 8934,
  "ličnog ": 8935,
  "oblike ": 8936,
  "med ": 8937,
  "lokaliteta ": 8938,
  "Autor ": 8939,
  "pravilo ": 8940,
  "jači ": 8941,
  "vojnika ": 8942,
  "glavi ": 8943,
  "Aj": 8944,
  "principu ": 8945,
  "žni ": 8946,
  "kazao ": 8947,
  "1976 ": 8948,
  "gubitka ": 8949,
  "Qu": 8950,
  "JU ": 8951,
  "merama ": 8952,
  "trenutka ": 8953,
  "osećanja ": 8954,
  "inku": 8955,
  "alata ": 8956,
  "odbaci": 8957,
  "ɫɭ ": 8958,
  "Bog ": 8959,
  "načela ": 8960,
  "vrše ": 8961,
  "škom ": 8962,
  "osnovnog ": 8963,
  "integracije ": 8964,
  "tnije ": 8965,
  "Mana": 8966,
  "belež": 8967,
  "jt ": 8968,
  "informacijama ": 8969,
  "m3 ": 8970,
  "agencije ": 8971,
  "konzerva": 8972,
  "odse": 8973,
  "visoka ": 8974,
  "ambijen": 8975,
  "utvrđena ": 8976,
  "1975 ": 8977,
  "MI ": 8978,
  "iskr": 8979,
  "bakterija ": 8980,
  "IT ": 8981,
  "Republič": 8982,
  "nine ": 8983,
  "vrsti ": 8984,
  "Karak": 8985,
  "katastro": 8986,
  "Istovremeno ": 8987,
  "pomen": 8988,
  "vlasnik ": 8989,
  "implici": 8990,
  "engleskog ": 8991,
  "kuhin": 8992,
  "ɫɜ": 8993,
  "nepovolj": 8994,
  "ɢʁɟ ": 8995,
  "Francuske ": 8996,
  "naoruž": 8997,
  "Holan": 8998,
  "standard ": 8999,
  "lajn ": 9000,
  "prijave ": 9001,
  "svojevr": 9002,
  "jon": 9003,
  "ubrzo ": 9004,
  "Neka ": 9005,
  "strah ": 9006,
  "novčan": 9007,
  "nы": 9008,
  "uređa": 9009,
  "jest ": 9010,
  "pojedinaca ": 9011,
  "Obra": 9012,
  "filmu ": 9013,
  "Hz ": 9014,
  "normalno ": 9015,
  "juče ": 9016,
  "nivoima ": 9017,
  "neza": 9018,
  "turni": 9019,
  "SKA ": 9020,
  "odva": 9021,
  "donošenje ": 9022,
  "koeficijenta ": 9023,
  "tehničke ": 9024,
  "Pore": 9025,
  "očekivanja ": 9026,
  "kazna ": 9027,
  "rijama ": 9028,
  "Drugim ": 9029,
  "medal": 9030,
  "PRA": 9031,
  "suspen": 9032,
  "talen": 9033,
  "serti": 9034,
  "sk ": 9035,
  "informaciju ": 9036,
  "1972 ": 9037,
  "naknad": 9038,
  "visina ": 9039,
  "organizacijama ": 9040,
  "povezane ": 9041,
  "kruž": 9042,
  "pokušaj ": 9043,
  "zate": 9044,
  "MO ": 9045,
  "Kragujev": 9047,
  "ostaju ": 9048,
  "propagan": 9049,
  "kat": 9050,
  "većinu ": 9051,
  "FO": 9052,
  "čila ": 9053,
  "obradu ": 9054,
  "zahtevima ": 9055,
  "nedovoljno ": 9056,
  "tinj": 9057,
  "rukovodi": 9058,
  "VII ": 9059,
  "negativno ": 9060,
  "podsta": 9061,
  "prethodnog ": 9062,
  "pole": 9063,
  "razdva": 9064,
  "poglavlja ": 9065,
  "pokret ": 9066,
  "opu": 9067,
  "semena ": 9068,
  "osci": 9069,
  "kompara": 9070,
  "izgradnji ": 9071,
  "siroma": 9072,
  "hemo": 9073,
  "Fri": 9074,
  "Uprkos ": 9075,
  "radni ": 9076,
  "1977 ": 9077,
  "105 ": 9078,
  "varijanse ": 9079,
  "efekta ": 9080,
  "postupaka ": 9081,
  "uočiti ": 9082,
  "očekivati ": 9083,
  "količinu ": 9084,
  "napredak ": 9085,
  "vlada": 9086,
  "alnoj ": 9087,
  "1973 ": 9088,
  "produkcije ": 9089,
  "odgovo": 9090,
  "telesne ": 9091,
  "cki ": 9092,
  "Šved": 9093,
  "manjim ": 9094,
  "takvog ": 9095,
  "pak": 9096,
  "rezisten": 9097,
  "odama ": 9098,
  "povu": 9099,
  "ženi ": 9100,
  "ulozi ": 9101,
  "najvećih ": 9102,
  "šeće": 9103,
  "IK ": 9104,
  "prenos ": 9105,
  "ekster": 9106,
  "habili": 9107,
  "rod ": 9108,
  "takoz": 9109,
  "gran": 9110,
  "7Ć ": 9111,
  "okrenu": 9112,
  "dani ": 9113,
  "Radi ": 9114,
  "Kvali": 9115,
  "timi": 9116,
  "finansiranja ": 9117,
  "posmatrati ": 9118,
  "op ": 9119,
  "politici ": 9120,
  "navedenim ": 9121,
  "mišić": 9122,
  "rekli ": 9123,
  "ÿ": 9124,
  "finansijski ": 9125,
  "teli": 9126,
  "tiranje ": 9127,
  "sektor ": 9128,
  "pažnja ": 9129,
  "lipi": 9130,
  "najnovi": 9131,
  "Rumuni": 9132,
  "pomenuti ": 9133,
  "elastič": 9134,
  "gas ": 9135,
  "vizanti": 9136,
  "skov": 9137,
  "goja": 9138,
  "motora ": 9139,
  "odraslih ": 9140,
  "Đu": 9141,
  "ostane ": 9142,
  "pisanja ": 9143,
  "fosfa": 9144,
  "osnovnim ": 9145,
  "prirodnog ": 9146,
  "PDV ": 9147,
  "posebnu ": 9148,
  "prosti": 9149,
  "vladavine ": 9150,
  "sveobuhva": 9151,
  "klub": 9152,
  "upravlja": 9153,
  "gur": 9154,
  "zemljište ": 9155,
  "povi ": 9156,
  "ɨɞ ": 9157,
  "utvrditi ": 9158,
  "zar": 9159,
  "prirodne ": 9160,
  "OM ": 9161,
  "ramo ": 9162,
  "rezolu": 9163,
  "kontekst ": 9164,
  "9Ć ": 9165,
  "formiraju ": 9166,
  "Grupa ": 9167,
  "pori": 9168,
  "ostati ": 9169,
  "anski ": 9170,
  "osnov ": 9171,
  "tana ": 9172,
  "Mod": 9173,
  "eksplici": 9174,
  "misao ": 9175,
  "preduzi": 9176,
  "kapital ": 9177,
  "komplika": 9178,
  "obras": 9179,
  "književnost ": 9180,
  "bivši ": 9181,
  "zina ": 9182,
  "glavu ": 9183,
  "Central": 9184,
  "kilometara ": 9185,
  "SKI ": 9186,
  "štem ": 9187,
  "pasiv": 9188,
  "dozvole ": 9189,
  "ɢɫ�": 9190,
  "nemoguće ": 9191,
  "niza ": 9192,
  "bje": 9193,
  "tičko ": 9194,
  ".* ": 9195,
  "saradnja ": 9196,
  "ših ": 9197,
  "rale ": 9198,
  "Haj": 9199,
  "redom ": 9200,
  "zujući ": 9201,
  "krup": 9202,
  "udru": 9203,
  "rice ": 9204,
  "mater": 9205,
  "zana": 9206,
  "menjaju ": 9207,
  "1968 ": 9208,
  "gel ": 9209,
  "aktivne ": 9210,
  "Americi ": 9211,
  "prirodno ": 9212,
  "većoj ": 9213,
  "Hrvatska ": 9214,
  "zin ": 9215,
  "veruje ": 9216,
  "prvim ": 9217,
  "kodi": 9218,
  "višim ": 9219,
  "kil": 9220,
  "obavljaju ": 9221,
  "izuč": 9222,
  "vrije": 9223,
  "denih ": 9224,
  "tiranja ": 9225,
  "glasova ": 9226,
  "identifiko": 9227,
  "određenu ": 9228,
  "ljivim ": 9229,
  "pobed": 9230,
  "gvož": 9231,
  "zadovoljstva ": 9232,
  "šati ": 9233,
  "doktorske ": 9234,
  "makar ": 9235,
  "Min": 9236,
  "čeka ": 9237,
  "spoljnih ": 9238,
  "jivanja ": 9239,
  "Gos": 9240,
  "doneo ": 9241,
  "poboljšanja ": 9242,
  "spu": 9243,
  "usta": 9244,
  "Olimpi": 9245,
  "konvencional": 9246,
  "Spi": 9247,
  "uveć": 9248,
  "bombar": 9249,
  "polovini ": 9250,
  "DE ": 9251,
  "primeniti ": 9252,
  "Određ": 9253,
  "koncer": 9254,
  "cevi ": 9255,
  "ovica ": 9256,
  "stoje": 9257,
  "povreda ": 9258,
  "ulice ": 9259,
  "čeva ": 9260,
  "parametra ": 9261,
  "Al ": 9262,
  "Nu": 9263,
  "Njujor": 9264,
  "Var": 9265,
  "mus ": 9266,
  "Han": 9267,
  "suzbi": 9268,
  "nez": 9269,
  "utakmice ": 9270,
  "stepeni ": 9271,
  "ekspo": 9272,
  "stranog ": 9273,
  "cionu ": 9274,
  "nek": 9275,
  "aspekt ": 9276,
  "LU": 9277,
  "poreklo ": 9278,
  "definisanje ": 9279,
  "navodno ": 9280,
  "drveta ": 9281,
  "banaka ": 9282,
  "1960 ": 9283,
  "koloni": 9284,
  "čitav ": 9285,
  "ravnoprav": 9286,
  "socijalnih ": 9287,
  "konkur": 9288,
  "Save ": 9289,
  "peša": 9290,
  "rastu": 9291,
  "Pošaljite ": 9292,
  "učesni": 9293,
  "postati ": 9294,
  "mL ": 9295,
  "šna ": 9296,
  "metrije ": 9297,
  "posete ": 9298,
  "ɨɫ�": 9299,
  "zemljištu ": 9300,
  "odlučivanja ": 9301,
  "delega": 9302,
  "ćao ": 9303,
  "ɚɰɢʁ": 9304,
  "ters ": 9305,
  "termina ": 9306,
  "kriterijum ": 9307,
  "ɟʃ": 9308,
  "bliže ": 9309,
  "objavljena ": 9310,
  "kriminali": 9311,
  "cation ": 9312,
  "evropskim ": 9313,
  "gustine ": 9314,
  "hemijskih ": 9315,
  "ice ": 9316,
  "Andre": 9317,
  "stepenu ": 9318,
  "Prvog ": 9319,
  "em": 9320,
  "korona ": 9321,
  "sadašnj": 9322,
  "ese": 9323,
  "celine ": 9324,
  "socijalni ": 9325,
  "ANJA ": 9326,
  "iden": 9327,
  "dane ": 9328,
  "finansijskog ": 9329,
  "dosadaš": 9330,
  "zvezda ": 9331,
  "sintak": 9332,
  "Hen": 9333,
  "supstance ": 9334,
  "terapija ": 9335,
  "epiz": 9336,
  "termo": 9337,
  "teru ": 9338,
  "ulazi ": 9339,
  "unapređenja ": 9340,
  "grafije ": 9341,
  "rođen ": 9342,
  "hen ": 9343,
  "adi": 9344,
  "prate": 9345,
  "mio": 9346,
  "povezanosti ": 9347,
  "zane ": 9348,
  "radnici ": 9349,
  "zglob": 9350,
  "čast ": 9351,
  "postavljen ": 9352,
  "korisnicima ": 9353,
  "veno ": 9354,
  "Baj": 9355,
  "vezana ": 9356,
  "lokacija ": 9357,
  "rili ": 9358,
  "lizovane ": 9359,
  "STI ": 9360,
  "pretežno ": 9361,
  "prosečna ": 9362,
  "nagradu ": 9363,
  "etar": 9364,
  "odredbama ": 9365,
  "vne ": 9366,
  "cijalne ": 9367,
  "Komentari ": 9368,
  "nicom ": 9369,
  "̌": 9370,
  "izvođenje ": 9371,
  "razreda ": 9372,
  "Francuska ": 9373,
  "vezuje ": 9374,
  "projektu ": 9375,
  "mleka ": 9376,
  "kamen": 9377,
  "bron": 9378,
  "govima ": 9379,
  "glagol": 9380,
  "socijalno ": 9381,
  "iscr": 9382,
  "proslav": 9383,
  "sporti": 9384,
  "jugoisto": 9385,
  "4Ć ": 9386,
  "stanice ": 9387,
  "sra": 9388,
  "sman ": 9389,
  "masti ": 9390,
  "tradicije ": 9391,
  "obim ": 9392,
  "Primena ": 9393,
  "�ɬɢ ": 9394,
  "severo": 9395,
  "cijske ": 9396,
  "invalidi": 9397,
  "filozof": 9398,
  "populaciji ": 9399,
  "žna ": 9400,
  "ničkom ": 9401,
  "ukaz": 9402,
  "investicije ": 9403,
  "odgovarajućih ": 9404,
  "talno ": 9405,
  "đivanju ": 9406,
  "stranka ": 9407,
  "sutra ": 9408,
  "obrnu": 9409,
  "tović ": 9410,
  "nski ": 9411,
  "SFRJ ": 9412,
  "hol": 9413,
  "Zaklju": 9414,
  "visokom ": 9415,
  "devija": 9416,
  "rukama ": 9417,
  "zave": 9418,
  "Ovim ": 9419,
  "štaju ": 9420,
  "sport ": 9421,
  "računar": 9422,
  "stiču ": 9423,
  "svetske ": 9424,
  "zaga": 9425,
  "1944 ": 9426,
  "vertikal": 9427,
  "znao ": 9428,
  "spada ": 9429,
  "izja": 9430,
  "industriji ": 9431,
  "Hil": 9432,
  "hrana ": 9433,
  "ts": 9434,
  "pojavljuju ": 9435,
  "EK": 9436,
  "jul ": 9437,
  "vlasnika ": 9438,
  "ou ": 9439,
  "izvođenja ": 9440,
  "davanja ": 9441,
  "hran": 9442,
  "stavu ": 9443,
  "dbe ": 9444,
  "izboru ": 9445,
  "starije ": 9446,
  "stera ": 9447,
  "ljivanje ": 9448,
  "smisao ": 9449,
  "ɡɚ ": 9450,
  "int ": 9451,
  "nastavak ": 9452,
  "STI": 9453,
  "organima ": 9454,
  "ъ ": 9455,
  "đenog ": 9456,
  "mnogobro": 9457,
  "Struk": 9458,
  "OVA ": 9459,
  "Niš ": 9460,
  "sena ": 9461,
  "ubistvo ": 9462,
  "sastavni ": 9463,
  "utvrdi ": 9464,
  "SC ": 9465,
  "insku ": 9466,
  "ras ": 9467,
  "tehničkih ": 9468,
  "praćenja ": 9469,
  "macije ": 9470,
  "grešaka ": 9471,
  "krive ": 9472,
  "23": 9473,
  "datum ": 9474,
  "ukr": 9475,
  "Ari": 9476,
  "funkcionisanje ": 9477,
  "maka ": 9478,
  "Viz": 9479,
  "lor": 9480,
  "cijalni ": 9481,
  "Utvr": 9482,
  "srednjih ": 9483,
  "180 ": 9484,
  "δ": 9485,
  "Muze": 9486,
  "nepre": 9487,
  "ološka ": 9488,
  "lije": 9489,
  "mrežama ": 9490,
  "Fre": 9491,
  "Budući ": 9492,
  "indikatora ": 9493,
  "vaspitanja ": 9494,
  "sklopu ": 9495,
  "Europe": 9496,
  "ničkim ": 9497,
  "bioti": 9498,
  "vezanih ": 9499,
  "pisani ": 9500,
  "spektro": 9501,
  "Ac": 9502,
  "radimo ": 9503,
  "nedovolj": 9504,
  "radikal": 9505,
  "komandan": 9506,
  "organi ": 9507,
  "plata ": 9508,
  "komisija ": 9509,
  "poverenja ": 9510,
  "manjem ": 9511,
  "Ċu ": 9512,
  "transparen": 9513,
  "oslan": 9514,
  "oprem": 9515,
  "zarade ": 9516,
  "Dis": 9517,
  "zani ": 9518,
  "dose": 9519,
  "engleskom ": 9520,
  "verbal": 9521,
  "razgovora ": 9522,
  "loškom ": 9523,
  "stimuli": 9524,
  "fen": 9525,
  "lišta ": 9526,
  "određenoj ": 9527,
  "pozicioni": 9528,
  "kolu ": 9529,
  "Peri": 9530,
  "barem ": 9531,
  "neutral": 9532,
  "osam": 9533,
  "morf": 9534,
  "oružja ": 9535,
  "Vrhov": 9536,
  "živeli ": 9537,
  "ъ": 9538,
  "odakle ": 9539,
  "duga ": 9540,
  "doživlja": 9541,
  "vremenskom ": 9542,
  "oke": 9543,
  "nekret": 9544,
  "jamo ": 9545,
  "MP": 9546,
  "viša ": 9547,
  "voli ": 9548,
  "dizajni": 9549,
  "svakodnevno ": 9550,
  "kritike ": 9551,
  "hotela ": 9552,
  "hi ": 9553,
  "pokušava ": 9554,
  "Klini": 9555,
  "važe": 9556,
  "spiri": 9557,
  "ɚʃɚ ": 9558,
  "odgovore ": 9559,
  "sorte ": 9560,
  "čno": 9561,
  "napred ": 9562,
  "otvoreno ": 9563,
  "savremenih ": 9564,
  "odeljenja ": 9565,
  "nacionalnom ": 9566,
  "dnu ": 9567,
  "dokna": 9568,
  "hirurš": 9569,
  "zasnovan ": 9570,
  "američke ": 9571,
  "čani ": 9572,
  "poslovnog ": 9573,
  "izvršiti ": 9574,
  "izazi": 9575,
  "De ": 9576,
  "Teori": 9577,
  "stici": 9578,
  "zajedničke ": 9579,
  "terena ": 9580,
  "kriza ": 9581,
  "srednjovekov": 9582,
  "vrijeme ": 9583,
  "negativan ": 9584,
  "trećem ": 9585,
  "Cari": 9586,
  "vni ": 9587,
  "lici ": 9588,
  "istini": 9589,
  "ugo": 9590,
  "tnik ": 9591,
  "Izvešta": 9592,
  "dobrov": 9593,
  "naučne ": 9594,
  "ostvaruju ": 9595,
  "Detal": 9596,
  "nazivaju ": 9597,
  "dez": 9598,
  "Mc": 9599,
  "zim ": 9600,
  "ld": 9601,
  "dobrovolj": 9602,
  "temperatu": 9603,
  "lez": 9604,
  "New ": 9605,
  "elektra": 9606,
  "protein ": 9607,
  "čita ": 9608,
  "Kona": 9609,
  "finansija ": 9610,
  "izdanje ": 9611,
  "Ina": 9612,
  "poviš": 9613,
  "stavljanje ": 9614,
  "Balkana ": 9615,
  "pd": 9616,
  "instala": 9617,
  "časa ": 9618,
  "stru ": 9619,
  "entič": 9620,
  "eduka": 9621,
  "efikasno ": 9622,
  "paradig": 9623,
  "maga": 9624,
  "engleski ": 9625,
  "avgust ": 9626,
  "5Ć ": 9627,
  ")- ": 9628,
  "all ": 9629,
  "okolini ": 9630,
  "sani": 9631,
  "dovelo ": 9632,
  "voditi ": 9633,
  "polu ": 9634,
  "proli": 9635,
  "gradovima ": 9636,
  "upoređ": 9637,
  "korisnik ": 9638,
  "boru ": 9639,
  "slikar": 9640,
  "elementima ": 9641,
  "es": 9642,
  "zakonu ": 9643,
  "SNS ": 9644,
  "marketing ": 9645,
  "Ger": 9646,
  "članom ": 9647,
  "profila ": 9648,
  "interesovanja ": 9649,
  "tov ": 9650,
  "režim ": 9651,
  "čijem ": 9652,
  "BC ": 9653,
  "dospe": 9654,
  "ljica ": 9655,
  "prisutni ": 9656,
  "zaka": 9657,
  "drugačiji ": 9658,
  "medije ": 9659,
  "1969 ": 9660,
  "kovan ": 9661,
  "ora": 9662,
  "njenja ": 9663,
  "privrednog ": 9664,
  "većih ": 9665,
  "Zagreb ": 9666,
  "težine ": 9667,
  "hijerarhi": 9668,
  "izabran ": 9669,
  "intervencije ": 9670,
  "koraka ": 9671,
  "kot": 9672,
  "Pet": 9673,
  "korupcije ": 9674,
  "Zajed": 9675,
  "dokument ": 9676,
  "Hvala ": 9677,
  "dug ": 9678,
  "kiseonika ": 9679,
  "davanje ": 9680,
  "web ": 9681,
  "želja ": 9682,
  "BDP ": 9683,
  "130 ": 9684,
  "dae ": 9685,
  "Del": 9686,
  "podignu": 9687,
  "Karakteri": 9688,
  "sili": 9689,
  "dijagnosti": 9690,
  "125 ": 9691,
  "sobe ": 9692,
  "izvršenje ": 9693,
  "Balkanu ": 9694,
  "Ured": 9695,
  "ɚɨ ": 9696,
  "fikaciji ": 9697,
  "Dušan ": 9698,
  "dv": 9699,
  "istove": 9700,
  "sniji ": 9701,
  "januar ": 9702,
  "rehabili": 9703,
  "pročita": 9704,
  "...": 9705,
  "pil": 9706,
  "neizve": 9707,
  "privatnog ": 9708,
  "Evo ": 9709,
  "košt": 9710,
  "aust": 9711,
  "tvrde ": 9712,
  "prirodu ": 9713,
  "Auto": 9714,
  ".... ": 9715,
  "proksi": 9716,
  "scenari": 9717,
  "smatrao ": 9718,
  "pomenutih ": 9719,
  "prosečne ": 9720,
  "puno": 9721,
  "prisustv": 9722,
  "komore ": 9723,
  "centralne ": 9724,
  "Đorđević ": 9725,
  "čili ": 9726,
  "komunici": 9727,
  "gol": 9728,
  "tečnosti ": 9729,
  "mišića ": 9730,
  "gova": 9731,
  "arbi": 9732,
  "ii": 9733,
  "vanog ": 9734,
  "obezbediti ": 9735,
  "γ": 9736,
  "sledećim ": 9737,
  "dju ": 9738,
  "gli ": 9739,
  "103 ": 9740,
  "izvrši": 9741,
  "Centar ": 9742,
  "odlučio ": 9743,
  "ɚʃɟ ": 9744,
  "takvo ": 9745,
  "impul": 9746,
  "European ": 9747,
  "Ivana ": 9748,
  "104 ": 9749,
  "nastale ": 9750,
  "dobijena ": 9751,
  "značenju ": 9752,
  "ćati ": 9753,
  "blago": 9754,
  "anksi": 9755,
  "ishrane ": 9756,
  "donose ": 9757,
  "model": 9758,
  "odsustvo ": 9759,
  "postali ": 9760,
  "aerodro": 9761,
  "crkvi ": 9762,
  "Hel": 9763,
  "prvenstvu ": 9764,
  "uspeli ": 9765,
  "priroda ": 9766,
  "povezuje ": 9767,
  "prijatelja ": 9768,
  "Ovakav ": 9769,
  "svetski ": 9770,
  "Cu": 9771,
  "iznosio ": 9772,
  "avi ": 9773,
  "predstava ": 9774,
  "tea": 9775,
  "Internet ": 9776,
  "krov": 9777,
  "Obi": 9778,
  "mane ": 9779,
  "hos": 9780,
  "pretpostavke ": 9781,
  "obavešta": 9782,
  "utvrđuje ": 9783,
  "vači ": 9784,
  "lija": 9785,
  "radim ": 9786,
  "sezoni ": 9787,
  "ape": 9788,
  "znu ": 9789,
  "tip": 9790,
  "Sv ": 9791,
  "pozitivnih ": 9792,
  "hemijske ": 9793,
  "služe ": 9794,
  "pismo ": 9795,
  "poznatih ": 9796,
  "„": 9797,
  "razno": 9798,
  "jenjem ": 9799,
  "pozaj": 9800,
  "H2": 9801,
  "sprovođenja ": 9802,
  "sorpcije ": 9803,
  "finale ": 9804,
  "nijem ": 9805,
  "nepokretnosti ": 9806,
  "ishod ": 9807,
  "rečenice ": 9808,
  "šavanje ": 9809,
  "Brani": 9810,
  "prepu": 9811,
  "testu ": 9812,
  "međunarodnom ": 9813,
  "Francuskoj ": 9814,
  "Autor": 9815,
  "ološkog ": 9816,
  "standardima ": 9817,
  "miranje ": 9818,
  "stiže ": 9819,
  "vazduhop": 9820,
  "određivanja ": 9821,
  "Profe": 9822,
  "najboljih ": 9823,
  "identič": 9824,
  "scena": 9825,
  "online ": 9826,
  "najpozna": 9827,
  "zov ": 9828,
  "loško ": 9829,
  "narednom ": 9830,
  "potencijalno ": 9831,
  "sagore": 9832,
  "konfigu": 9833,
  "čiva ": 9834,
  "ovasku": 9835,
  "emit": 9836,
  "radnji ": 9837,
  "jednakosti ": 9838,
  "predviđeno ": 9839,
  "gradonačel": 9840,
  "pokazatelja ": 9841,
  "pacova ": 9842,
  "rud": 9843,
  "organizuje ": 9844,
  "Problem ": 9845,
  "reci ": 9846,
  "ozbiljno ": 9847,
  "Građ": 9848,
  "cere": 9849,
  "staju ": 9850,
  "Ljudi ": 9851,
  "definišu ": 9852,
  "seudo": 9853,
  "Pozi": 9854,
  "savet ": 9855,
  "stanica ": 9856,
  "talna ": 9857,
  "konteksta ": 9858,
  "distribucije ": 9859,
  "Dija": 9860,
  "aran": 9861,
  "obuke ": 9862,
  "doze ": 9863,
  "turističke ": 9864,
  "senzi": 9865,
  "zuba ": 9866,
  "az": 9867,
  "vnih ": 9868,
  "Filozo": 9869,
  "podela ": 9870,
  "1914 ": 9871,
  "102 ": 9872,
  "proizila": 9873,
  "pisano ": 9874,
  "diskriminacije ": 9875,
  "prosto ": 9876,
  "široko ": 9877,
  "pari": 9878,
  "kore": 9879,
  "selja": 9880,
  "dizajn ": 9881,
  "Ž ": 9882,
  "završava ": 9883,
  "zanja ": 9884,
  "pala": 9885,
  "razvojem ": 9886,
  "ćeš ": 9887,
  "FA": 9888,
  "mislite ": 9889,
  "oviću ": 9890,
  "Istraživanje ": 9891,
  "kinje ": 9892,
  "promet ": 9893,
  "pravnim ": 9894,
  "strik": 9895,
  "Crna ": 9896,
  "fazu ": 9897,
  "vlaž": 9898,
  "nera ": 9899,
  "lna ": 9900,
  "uru": 9901,
  "briga": 9902,
  "pronaći ": 9903,
  "· ": 9904,
  "vrhu ": 9905,
  "generacija ": 9906,
  "gene ": 9907,
  "Uži": 9908,
  "prostorima ": 9909,
  "jeft": 9910,
  "april ": 9911,
  "Rim": 9912,
  "ɨʁ ": 9913,
  "gramatič": 9914,
  "Sveti ": 9915,
  "ses ": 9916,
  "praksu ": 9917,
  "otvara ": 9918,
  "sadrţ": 9919,
  "ćenog ": 9920,
  "sistemom ": 9921,
  "komunikaciju ": 9922,
  "Pau": 9923,
  "HO": 9924,
  "XIX ": 9925,
  "predloga ": 9926,
  "pretpostavlja ": 9927,
  "izvrši ": 9928,
  "najverovatnije ": 9929,
  "poreklom ": 9930,
  "potrebi ": 9931,
  "reproduk": 9932,
  "banci ": 9933,
  "pilo": 9934,
  "reduk": 9935,
  "nacr": 9936,
  "8Ć ": 9937,
  "trenutak ": 9938,
  "pravnom ": 9939,
  "ivanja ": 9940,
  "vjer": 9941,
  "nadokna": 9942,
  "hipo": 9943,
  "Londo": 9944,
  "jednačina ": 9945,
  "sreću ": 9946,
  "subjekata ": 9947,
  "ɲ": 9948,
  "podrazumevaju ": 9949,
  "agresiv": 9950,
  "Te ": 9951,
  "ljam ": 9952,
  "sed ": 9953,
  "UD": 9954,
  "hirur": 9955,
  "bori ": 9956,
  "gubi ": 9957,
  "upore": 9958,
  "pojedini ": 9959,
  "pogor": 9960,
  "Sud ": 9961,
  "bola ": 9962,
  "Stefan ": 9963,
  "modifikovan": 9964,
  "februar ": 9965,
  "promovi": 9966,
  "pozitivna ": 9967,
  "opcija ": 9968,
  "Im": 9969,
  "razvijaju ": 9970,
  "111 ": 9971,
  "inami": 9972,
  "ralnom ": 9973,
  "đem ": 9974,
  "brojni ": 9975,
  "Josi": 9976,
  "leka ": 9977,
  "građane ": 9978,
  "životnog ": 9979,
  "trop": 9980,
  "rite ": 9981,
  "ljima ": 9982,
  "njenje ": 9983,
  "50": 9984,
  "transformacije ": 9985,
  "Akade": 9986,
  "softvera ": 9987,
  "kombinacija ": 9988,
  "regresi": 9989,
  "2023 ": 9990,
  "autentič": 9991,
  "ljenosti ": 9992,
  "tražio ": 9993,
  "tičkom ": 9994,
  "veri ": 9995,
  "Egi": 9996,
  "× ": 9997,
  "decom ": 9998,
  "imenica ": 9999,
  "radnom ": 10000,
  "sion ": 10001,
  "narednih ": 10002,
  "cka ": 10003,
  "pomogne ": 10004,
  "Tek": 10005,
  "mel": 10006,
  "Vene": 10007,
  "razmo": 10008,
  "igrao ": 10009,
  "ZI": 10010,
  "latin": 10011,
  "cijalna ": 10012,
  "La ": 10013,
  "naselje ": 10014,
  "azi": 10015,
  "Vaše ": 10016,
  "prenosa ": 10017,
  "Cor": 10018,
  "srpsko ": 10019,
  "sledećih ": 10020,
  "Fon": 10021,
  "Rod": 10022,
  "Elektro": 10023,
  "Uz": 10024,
  "sit": 10025,
  "telefo": 10026,
  "miji ": 10027,
  "deč": 10028,
  "merena ": 10029,
  "slede ": 10030,
  "preseka ": 10031,
  "Kroz ": 10032,
  "menti": 10033,
  "samih ": 10034,
  "uskoro ": 10035,
  "sekundi ": 10036,
  "ang ": 10037,
  "vlasti": 10038,
  "kro ": 10039,
  "savremenog ": 10040,
  "izbore ": 10041,
  "hri": 10042,
  "obuč": 10043,
  "onlajn ": 10044,
  "ɚɡ": 10045,
  "stvaranju ": 10046,
  "poha": 10047,
  "sceni ": 10048,
  "lor ": 10049,
  "kanali": 10050,
  "tiju ": 10051,
  "jac ": 10052,
  "datu": 10053,
  "zapadne ": 10054,
  "svojstava ": 10055,
  "Gale": 10056,
  "demograf": 10057,
  "prikazano ": 10058,
  "filmova ": 10059,
  "ćama ": 10060,
  "identifikovan": 10061,
  "JA": 10062,
  "kulturni ": 10063,
  "intenzitet ": 10064,
  "linu ": 10065,
  "larna ": 10066,
  "mila ": 10067,
  "sreće ": 10068,
  "slabo": 10069,
  "signal ": 10070,
  "mol": 10071,
  "zdrav ": 10072,
  "enike ": 10073,
  "svetskom ": 10074,
  "bloki": 10075,
  "miz": 10076,
  "106 ": 10077,
  "pacijenti ": 10078,
  "che ": 10079,
  "baza ": 10080,
  "odstupanja ": 10081,
  "našao ": 10082,
  "funkcioniše ": 10083,
  "tag": 10084,
  "komponenta ": 10085,
  "OS ": 10086,
  "ukupnom ": 10087,
  "uvaž": 10088,
  "šavanja ": 10089,
  "merene ": 10090,
  "rođen": 10091,
  "pisanje ": 10092,
  "apsolutno ": 10093,
  "Srbima ": 10094,
  "kosov": 10095,
  "anica ": 10096,
  "postrojenja ": 10097,
  "limfo": 10098,
  "tabele ": 10099,
  "naknadu ": 10100,
  "želeo ": 10101,
  "1967 ": 10102,
  "Kli": 10103,
  "decembar ": 10104,
  "Œ ": 10105,
  "igraju ": 10106,
  "tipu ": 10107,
  "anksioz": 10108,
  "OH ": 10109,
  "mozga ": 10110,
  "hoće ": 10111,
  "rešavanja ": 10112,
  "motori": 10113,
  "otvorena ": 10114,
  "Narodna ": 10115,
  "Goran ": 10116,
  "ate ": 10117,
  "poslovima ": 10118,
  "predmet": 10119,
  "Italije ": 10120,
  "Zani": 10121,
  "lizom ": 10122,
  "virus ": 10123,
  "transporta ": 10124,
  "sci": 10125,
  "zaborav": 10126,
  "ent ": 10127,
  "rekrea": 10128,
  "bel": 10129,
  "Džej": 10130,
  "Dubr": 10131,
  "detinj": 10132,
  "sredinom ": 10133,
  "ampli": 10134,
  "140 ": 10135,
  "mehanizama ": 10136,
  "US ": 10137,
  "određuju ": 10138,
  "fru": 10139,
  "mreži ": 10140,
  "padom ": 10141,
  "mogućih ": 10142,
  "poprav": 10143,
  "pau": 10144,
  "Đuri": 10145,
  "nedelju ": 10146,
  "miru ": 10147,
  "dvori": 10148,
  "Tako": 10149,
  "talu ": 10150,
  "Njegova ": 10151,
  "ženama ": 10152,
  "vezani ": 10153,
  "dugotra": 10154,
  "sličnosti ": 10155,
  "IM ": 10156,
  "injeni": 10157,
  "mlađ": 10158,
  "pesma ": 10159,
  "registra": 10160,
  "zasnovana ": 10161,
  "ю": 10162,
  "reforme ": 10163,
  "transformi": 10164,
  "dava": 10165,
  "pripadnici ": 10166,
  "tago": 10167,
  "adekvatno ": 10168,
  "poglavlje ": 10169,
  "sporta ": 10170,
  "Neke ": 10171,
  "nezaposl": 10172,
  "instruk": 10173,
  ".[ ": 10174,
  "stres ": 10175,
  "definisati ": 10176,
  "precizno ": 10177,
  "prosvete ": 10178,
  "ogrom": 10179,
  "poverenje ": 10180,
  "sav ": 10181,
  "konstruis": 10182,
  "tovi ": 10183,
  "štaj ": 10184,
  "Tod": 10185,
  "Uro": 10186,
  "umje": 10187,
  "stičkoj ": 10189,
  "štiti ": 10190,
  "čari ": 10191,
  "srce ": 10192,
  "prirodni ": 10193,
  "turista ": 10194,
  "pin": 10195,
  "uzorci ": 10196,
  "Dana ": 10197,
  "tove ": 10198,
  "enicima ": 10199,
  "avalo ": 10200,
  "misle ": 10201,
  "jica ": 10202,
  "obima ": 10203,
  "korišćene ": 10204,
  "ostvariti ": 10205,
  "Švajcar": 10206,
  "Sofi": 10207,
  "mrežu ": 10208,
  "govara ": 10209,
  "supstra": 10210,
  "pisane ": 10211,
  "tisa ": 10212,
  "sticanja ": 10213,
  "jci ": 10214,
  "1918 ": 10215,
  "prethodnim ": 10216,
  "razgovor ": 10217,
  "Italiji ": 10218,
  "Boga ": 10219,
  "fraze": 10220,
  "formalno ": 10221,
  "sećanja ": 10222,
  "odbranu ": 10223,
  "napomenuti ": 10224,
  "građe ": 10225,
  "imovinu ": 10226,
  "znost ": 10227,
  "dolescen": 10228,
  "poslednja ": 10229,
  "As": 10230,
  "posledicu ": 10231,
  "poslovni ": 10232,
  "jezera ": 10233,
  "utakmica ": 10234,
  "zvala ": 10235,
  "prera": 10236,
  "lete": 10237,
  "pretra": 10238,
  "jednačine ": 10239,
  "okoline ": 10240,
  "ćević ": 10241,
  "neto ": 10242,
  "INE ": 10243,
  "Standar": 10244,
  "109 ": 10245,
  "oblicima ": 10246,
  "kovane ": 10247,
  "INA ": 10248,
  "izrazito ": 10249,
  "centara ": 10250,
  "Bogorodi": 10251,
  "radovima ": 10252,
  "igru ": 10253,
  "sinteti": 10254,
  "stručnjaka ": 10255,
  "ekonomska ": 10256,
  "staništa ": 10257,
  "ovakvih ": 10258,
  "košarka": 10259,
  "ţivo": 10260,
  "ɨɤ": 10261,
  "Vaš": 10262,
  "simbolič": 10263,
  "važne ": 10264,
  "spomenika ": 10265,
  "čite ": 10266,
  "nastavnici ": 10267,
  "pluća ": 10268,
  "107 ": 10269,
  "UČ": 10270,
  "granicama ": 10271,
  "inženjer": 10272,
  "kin ": 10273,
  "Radio ": 10274,
  "aktivni ": 10275,
  "političkom ": 10276,
  "materijalne ": 10277,
  "isti": 10278,
  "apsor": 10279,
  "sukob ": 10280,
  "Nena": 10281,
  "Fra": 10282,
  "promenljive ": 10283,
  "izoda ": 10284,
  "podele ": 10285,
  "nemi": 10286,
  "značaju ": 10287,
  "Savi": 10288,
  "nijedan ": 10289,
  "ravnote": 10290,
  "kongre": 10291,
  "zavise ": 10292,
  "ishoda ": 10293,
  "region ": 10294,
  "lari": 10295,
  "Jugoslavija ": 10296,
  "ljali ": 10297,
  "kakvu ": 10298,
  "dale ": 10299,
  "kreću ": 10300,
  "članovima ": 10301,
  "krivična ": 10302,
  "aspe": 10303,
  "menadžment ": 10304,
  "pro ": 10305,
  "radnja ": 10306,
  "ljudskim ": 10307,
  "sv ": 10308,
  "vitamina ": 10309,
  "neophodne ": 10310,
  "čuva ": 10311,
  "poslanika ": 10312,
  "teške ": 10313,
  "pav": 10314,
  "buk": 10315,
  "js ": 10316,
  "1942 ": 10317,
  "otpad": 10318,
  "obuhvataju ": 10319,
  "profesora ": 10320,
  "vin ": 10321,
  "jug ": 10322,
  "suprotno ": 10323,
  "novina": 10324,
  "manjih ": 10325,
  "geometrij": 10326,
  "talasa ": 10327,
  "interneta ": 10328,
  "potraživanja ": 10329,
  "znate ": 10330,
  "vrha ": 10331,
  "simptoma ": 10332,
  "zid ": 10333,
  "definisan ": 10334,
  "sjed": 10335,
  "drzav": 10336,
  "aci": 10337,
  "karijere ": 10338,
  "termi": 10339,
  "pritiskom ": 10340,
  "Dejan ": 10341,
  "supstanci ": 10342,
  "muškarci ": 10343,
  "kontrolom ": 10344,
  "carstva ": 10345,
  "matrice ": 10346,
  "odbor ": 10347,
  "izdvaja ": 10348,
  "SRB": 10349,
  "servisa ": 10350,
  "duboko ": 10351,
  "školskog ": 10352,
  "Đo": 10353,
  "slabo ": 10354,
  "gradnja ": 10355,
  "dile": 10356,
  "ment": 10357,
  "Nikola": 10358,
  "prolazi ": 10359,
  "desilo ": 10360,
  "doneti ": 10361,
  "rase": 10362,
  "ford ": 10363,
  "ologi": 10364,
  "skor": 10365,
  "celom ": 10366,
  "ilu ": 10367,
  "Izu": 10368,
  "zdravstvenih ": 10369,
  "tniji ": 10370,
  "anici ": 10371,
  "malolet": 10372,
  "definicija ": 10373,
  "klau": 10374,
  "inflamator": 10375,
  "sankcija ": 10376,
  "bolja ": 10377,
  "mp ": 10378,
  "greška ": 10379,
  "zilo ": 10380,
  "Instituta ": 10381,
  "bid ": 10382,
  "širenje ": 10383,
  "jezer": 10384,
  "Jugosloven": 10385,
  "objašnjenje ": 10386,
  "nemački ": 10387,
  "nikakve ": 10388,
  "dozvoljava ": 10389,
  "vrstama ": 10390,
  "The": 10391,
  "šalje ": 10392,
  "liniji ": 10393,
  "koristio ": 10394,
  "napušt": 10395,
  "mešt": 10396,
  "Procen": 10397,
  "musliman": 10398,
  "Ham": 10399,
  "moderne ": 10400,
  "fizičkih ": 10401,
  "razume ": 10402,
  "šume ": 10403,
  "trombo": 10404,
  "period": 10405,
  "prisutne ": 10406,
  "naučno ": 10407,
  "praved": 10408,
  "Vojvodini ": 10409,
  "nila ": 10410,
  "duh ": 10411,
  "interese ": 10412,
  "spremni ": 10413,
  "Obave": 10414,
  "rje": 10415,
  "slobodnog ": 10416,
  "istorijske ": 10417,
  "kupo": 10418,
  "ie": 10419,
  "stena ": 10420,
  "postigao ": 10421,
  "snu": 10422,
  "1961 ": 10423,
  "niža ": 10424,
  "sho": 10425,
  "čenih ": 10426,
  "prirodnim ": 10427,
  "meč ": 10428,
  "œ": 10429,
  "metodama ": 10430,
  "ploče ": 10431,
  "premijer ": 10432,
  "TN": 10433,
  "instituta ": 10434,
  "znosti ": 10435,
  "lata ": 10436,
  "varijante ": 10437,
  "pojmova ": 10438,
  "brat ": 10439,
  "progla": 10440,
  "lat ": 10441,
  "uhva": 10442,
  "raspolož": 10443,
  "Tor": 10444,
  "norme ": 10445,
  "Skupštine ": 10446,
  "108 ": 10447,
  "širem ": 10448,
  "padavina ": 10449,
  "ljani ": 10450,
  "strukturi": 10451,
  "kombinaciji ": 10452,
  "odgovarajućim ": 10453,
  "Ori": 10454,
  "osve": 10455,
  "Ŀ": 10456,
  "pun": 10457,
  "toplote ": 10458,
  "PP ": 10459,
  "matika ": 10460,
  "lidera ": 10461,
  "Predstav": 10462,
  "ffe": 10463,
  "nafte ": 10464,
  "političku ": 10465,
  "službenika ": 10466,
  "češći ": 10467,
  "DEO ": 10468,
  "zapo": 10469,
  "Mali ": 10470,
  "Slobodan ": 10471,
  "eri": 10472,
  "izvorima ": 10473,
  "ženskog ": 10474,
  "omil": 10475,
  "tražiti ": 10476,
  "predstavljeni ": 10477,
  "oružje ": 10478,
  "tehni": 10479,
  "Ur": 10480,
  "došla ": 10481,
  "Između ": 10482,
  "Nauč": 10483,
  "šne ": 10484,
  "snimak ": 10485,
  "polica": 10486,
  "kto": 10487,
  "KI ": 10488,
  "očuvanje ": 10489,
  "ˮ ": 10490,
  "transport ": 10491,
  "važnost ": 10492,
  "empirij": 10493,
  "terapiju ": 10494,
  "tina": 10495,
  "japan": 10496,
  "čana ": 10497,
  "bosan": 10498,
  "definisana ": 10499,
  "porodicu ": 10500,
  "Partizan ": 10501,
  "brzinu ": 10502,
  "stavi ": 10503,
  "Andri": 10504,
  "maksimalno ": 10505,
  "kompleks ": 10506,
  "cit ": 10507,
  "Milošević ": 10508,
  "boravka ": 10509,
  "korena ": 10510,
  "Top": 10511,
  "otišao ": 10512,
  "dilo ": 10513,
  "harti": 10514,
  "Hercegovini ": 10515,
  "drago": 10516,
  "energetske ": 10517,
  "drom ": 10518,
  "opštini ": 10519,
  "ANj": 10520,
  "instrumenata ": 10521,
  "Umesto ": 10522,
  "£ ": 10523,
  "lnog ": 10524,
  "rastvara": 10525,
  "——": 10526,
  "PCR ": 10527,
  "čestice ": 10528,
  "objavljeni ": 10529,
  "novembar ": 10530,
  "venog ": 10531,
  "she": 10532,
  "blago ": 10533,
  "ispita ": 10534,
  "Nisam ": 10535,
  "oboga": 10536,
  "novoj ": 10537,
  "gare": 10538,
  "obrazlož": 10539,
  "izlaganja ": 10540,
  "ključni ": 10541,
  "decenija ": 10542,
  "igara ": 10543,
  "ispra": 10544,
  "izgradnja ": 10545,
  "Hor": 10546,
  "godišnjem ": 10547,
  "medija": 10548,
  "Fu": 10549,
  "Cha": 10550,
  "istaći ": 10551,
  "site ": 10552,
  "podržava ": 10553,
  "stranice ": 10554,
  "vnog ": 10555,
  "1943 ": 10556,
  "nepreki": 10557,
  "fenomen ": 10558,
  "deskrip": 10559,
  "Član": 10560,
  "približ": 10561,
  "delo": 10562,
  "usaglaš": 10563,
  "odabi": 10564,
  "dug": 10565,
  "bateri": 10566,
  "bilan": 10567,
  "nabavke ": 10568,
  "mereno ": 10569,
  "tumačenje ": 10570,
  "ilustra": 10571,
  "kompromi": 10572,
  "postavljena ": 10573,
  "jućim ": 10574,
  "redakcije ": 10575,
  "posveć": 10576,
  "sadržajem ": 10577,
  "trom ": 10578,
  "dovanja ": 10579,
  "mislio ": 10580,
  "26": 10581,
  "ɪɚɡ": 10582,
  "džb": 10583,
  "ljenost ": 10584,
  "ovic ": 10585,
  "geni ": 10586,
  "mitropoli": 10587,
  "liji ": 10588,
  "institucijama ": 10589,
  "Zanim": 10590,
  "Njegov ": 10591,
  "ekipa ": 10592,
  "sekretar ": 10593,
  "živi": 10594,
  "predstavljen ": 10595,
  "Stojanović ": 10596,
  "ljivanja ": 10597,
  "adolescen": 10598,
  "morali ": 10599,
  "smisla ": 10600,
  "160 ": 10601,
  "đenim ": 10602,
  "katolič": 10603,
  "mašina ": 10604,
  "Joh": 10605,
  "disertaciji ": 10606,
  "romanu ": 10607,
  "UN": 10608,
  "fokus ": 10609,
  "ličnim ": 10610,
  "svojine ": 10611,
  "dvoje ": 10612,
  "pali ": 10613,
  "ostatak ": 10614,
  "vani": 10615,
  "jaja ": 10616,
  "scene ": 10617,
  "ʼ": 10618,
  "umetnika ": 10619,
  "utvrđivanja ": 10620,
  "tumačenja ": 10621,
  "stavovi ": 10622,
  "linom ": 10623,
  "AM": 10624,
  "antioksida": 10625,
  "Taj": 10626,
  "učiniti ": 10627,
  "stručne ": 10628,
  "radna ": 10629,
  "RAZ": 10630,
  "ɨɬ": 10631,
  "ɪɭ�": 10632,
  "ght ": 10633,
  "vojni ": 10634,
  "jače ": 10635,
  "cke ": 10636,
  "TS ": 10637,
  "lokalnom ": 10638,
  "lokalnog ": 10639,
  "spontan": 10640,
  "konj": 10641,
  "tonu ": 10642,
  "sivanje ": 10643,
  "avama ": 10644,
  "radove ": 10645,
  "jda ": 10646,
  "Primer ": 10647,
  "formacija ": 10648,
  "tat ": 10649,
  "realizuje ": 10650,
  "fonda ": 10651,
  "pristupa": 10652,
  "700 ": 10653,
  "stven ": 10654,
  "usmera": 10655,
  "ciklo": 10656,
  "medicine ": 10657,
  "Zi": 10658,
  "kataliza": 10659,
  "duži ": 10660,
  "rin ": 10661,
  "objektima ": 10662,
  "nomin": 10663,
  "krivičnom ": 10664,
  "sedam": 10665,
  "hormo": 10666,
  " ": 10667,
  "podjednako ": 10668,
  "specifičnih ": 10669,
  "suštini ": 10670,
  "Slično ": 10671,
  "šije ": 10672,
  "klo ": 10673,
  "Prilog ": 10674,
  "Reda": 10675,
  "Universi": 10676,
  "šite ": 10677,
  "finansiranje ": 10678,
  "kovali ": 10679,
  "pomenute ": 10680,
  "peva": 10681,
  "dostignu": 10682,
  "non ": 10683,
  "uređuje ": 10684,
  "stina ": 10685,
  "želje ": 10686,
  "Ol": 10687,
  "Kralje": 10688,
  "fotografija ": 10689,
  "članak ": 10690,
  "lokalnim ": 10691,
  "ćeva ": 10692,
  "teoriju ": 10693,
  "ušte": 10694,
  "Pavlović ": 10695,
  "II": 10696,
  "rudar": 10697,
  "buke ": 10698,
  "udela ": 10699,
  "prehra": 10700,
  "kolo ": 10701,
  "uradi ": 10702,
  "prepoznatlji": 10703,
  "onemoguć": 10704,
  "Sil": 10705,
  "Stre": 10706,
  "rođenja ": 10707,
  "ling ": 10708,
  "1965 ": 10709,
  "Dva ": 10710,
  "osposob": 10711,
  "dacija ": 10712,
  "Sava ": 10713,
  "pokazale ": 10714,
  "kursa ": 10715,
  "RNK ": 10716,
  "Zakonu ": 10717,
  "nezavisnost ": 10718,
  "implan": 10719,
  "duk": 10720,
  "1950 ": 10721,
  "hon": 10722,
  "olakš": 10723,
  "pus ": 10724,
  "sveti": 10725,
  "jedni ": 10726,
  "odlučuje ": 10727,
  "mnogo": 10728,
  "Džo": 10729,
  "anoj ": 10730,
  "ljivi": 10731,
  "brata ": 10732,
  "naredne ": 10733,
  "degra": 10734,
  "održivog ": 10735,
  "govorimo ": 10736,
  "orbi": 10737,
  "vile": 10738,
  "Epi": 10739,
  "časopisa ": 10740,
  "preduzećima ": 10741,
  "kovao ": 10742,
  "vredi ": 10743,
  "omo": 10744,
  "borb": 10745,
  "higi": 10746,
  "profesor": 10747,
  "Č ": 10748,
  "državnim ": 10749,
  "Veoma ": 10750,
  "...) ": 10751,
  "that ": 10752,
  "viken": 10753,
  "istoku ": 10754,
  "guju ": 10755,
  "krajnje ": 10756,
  "savremenom ": 10757,
  "postavljanje ": 10758,
  "tač ": 10759,
  "dvadeset ": 10760,
  "sankcije ": 10761,
  "zam": 10762,
  "učenike ": 10763,
  "Saveza ": 10764,
  "odvoj": 10765,
  "svoga ": 10766,
  "šanse ": 10767,
  "kati ": 10768,
  "ovski ": 10769,
  "reprezentacije ": 10770,
  "112 ": 10771,
  "damo ": 10772,
  "Anto": 10773,
  "njenoj ": 10774,
  "dodatni ": 10775,
  "projektima ": 10776,
  "sudb": 10777,
  "zaključka ": 10778,
  "FK ": 10779,
  "postići ": 10780,
  "kategoriju ": 10781,
  "popre": 10782,
  "biva ": 10783,
  "junaka ": 10784,
  "Napomena ": 10785,
  "privreda ": 10786,
  "napla": 10787,
  "motiv ": 10788,
  "ĉki ": 10789,
  "zavisno ": 10790,
  "gazd": 10791,
  "kompli": 10792,
  "Klu": 10793,
  "znati ": 10794,
  "faktore ": 10795,
  "parlamentar": 10796,
  "borba ": 10797,
  "cik": 10798,
  "simbol ": 10799,
  "Vuk ": 10800,
  "Korišć": 10801,
  "SK ": 10802,
  "Rad ": 10803,
  "funkcionisanja ": 10804,
  "nacionalnim ": 10805,
  "moru ": 10806,
  "Krivi": 10807,
  "olimpi": 10808,
  "Dalje ": 10809,
  "svu": 10810,
  "cri": 10811,
  "ološkim ": 10812,
  "Super": 10813,
  "testiranja ": 10814,
  "zaslu": 10815,
  "vole ": 10816,
  "apstrak": 10817,
  "mio ": 10818,
  "ničkoj ": 10819,
  "GO": 10820,
  "saka ": 10821,
  "božan": 10822,
  "jenost ": 10823,
  "drže ": 10824,
  "diz": 10825,
  "francuski ": 10826,
  "doma ": 10827,
  "noge ": 10828,
  "ostvarivanja ": 10829,
  "dru ": 10830,
  "Kraljevine ": 10831,
  "objekte ": 10832,
  "ulje ": 10833,
  "kina ": 10834,
  "kuli": 10835,
  "udara ": 10836,
  "nadzora ": 10837,
  "uvodi ": 10838,
  "značajnosti ": 10839,
  "testiranje ": 10840,
  "posto ": 10841,
  "1948 ": 10842,
  "London ": 10843,
  "gledi": 10844,
  "uči ": 10845,
  "jugu ": 10846,
  "svedoči ": 10847,
  "slabi": 10848,
  "code ": 10849,
  "tičku ": 10850,
  "!!! ": 10851,
  "kvalitetu ": 10852,
  "vojnih ": 10853,
  "most ": 10854,
  "sudije ": 10855,
  "zvali ": 10856,
  "godišnja ": 10857,
  "umro ": 10858,
  "OVIĆ ": 10859,
  "Raj": 10860,
  "115 ": 10861,
  "napravio ": 10862,
  "minje ": 10863,
  "ponuda ": 10864,
  "izolata ": 10865,
  "In ": 10866,
  "evidenti": 10867,
  "kali ": 10868,
  "žimo ": 10869,
  "zen ": 10870,
  "polako ": 10871,
  "Ali": 10872,
  "gla ": 10873,
  "odgovoran ": 10874,
  "radite ": 10875,
  "leve ": 10876,
  "Dobijeni ": 10877,
  "Tri ": 10878,
  "provin": 10879,
  "planine ": 10880,
  "ubrz": 10881,
  "AS ": 10882,
  "izjave ": 10883,
  "1966 ": 10884,
  "lt ": 10885,
  "Gora ": 10886,
  "pove ": 10887,
  "pokret": 10888,
  "ostvari ": 10889,
  "takvi ": 10890,
  "vlak": 10891,
  "atrak": 10892,
  "gospo": 10893,
  "izradi ": 10894,
  "tur ": 10895,
  "transport": 10896,
  "Sci": 10897,
  "posebnog ": 10898,
  "objedin": 10899,
  "fon ": 10900,
  "specifičnosti ": 10901,
  "sopstvenog ": 10902,
  "nameru ": 10903,
  "dvadese": 10904,
  "mešovi": 10905,
  "manjina ": 10906,
  "jin": 10907,
  "tskoj ": 10908,
  "Ili ": 10909,
  "jevre": 10910,
  "poređenje ": 10911,
  "ševa ": 10912,
  "negativnih ": 10913,
  "današnje ": 10914,
  "alkohola ": 10915,
  "usta ": 10916,
  "Osnovna ": 10917,
  "turizam ": 10918,
  "učestvovao ": 10919,
  "pokazatelj ": 10920,
  "verujem ": 10921,
  "Drugo ": 10922,
  "društava ": 10923,
  "uteme": 10924,
  "jetre ": 10925,
  "diferencija": 10926,
  "rečenica ": 10927,
  "sinteze ": 10928,
  "Smede": 10929,
  "pisma ": 10930,
  "žrtava ": 10931,
  "despo": 10932,
  "afir": 10933,
  "ključne ": 10934,
  "hole": 10935,
  "onto": 10936,
  "planova ": 10937,
  "del ": 10938,
  "omogućiti ": 10939,
  "kategoriji ": 10940,
  "živela ": 10941,
  "Petra ": 10942,
  "okupi": 10943,
  "testova ": 10944,
  "pp": 10945,
  "izlo": 10946,
  "Amerike ": 10947,
  "urbani": 10948,
  "prevoz ": 10949,
  "tebe ": 10950,
  "cti": 10951,
  "napravi ": 10952,
  "Smatra ": 10953,
  "istine ": 10954,
  "??": 10955,
  "ćine ": 10956,
  "rin": 10957,
  "patri": 10958,
  "univerziteta ": 10959,
  "oc": 10960,
  "kreiranje ": 10961,
  "nedostatka ": 10962,
  "tacijom ": 10963,
  "institut ": 10964,
  "naučni ": 10965,
  "kriva ": 10966,
  "nižim ": 10967,
  "rešavanju ": 10968,
  "smeru ": 10969,
  "Oče": 10970,
  "roba ": 10971,
  "stupan ": 10972,
  "fazama ": 10973,
  "Ь": 10974,
  "suštinski ": 10975,
  "krene ": 10976,
  "stručnog ": 10977,
  "razmatranja ": 10978,
  "ponudi ": 10979,
  "novine ": 10980,
  "vezan ": 10981,
  "danu ": 10982,
  "fran": 10983,
  "zabeležen ": 10984,
  ".'' ": 10985,
  "uzimanje ": 10986,
  "ugrađ": 10987,
  "razi ": 10988,
  "gradske ": 10989,
  "torske ": 10990,
  "pandemije ": 10991,
  "trau": 10992,
  "disko": 10993,
  "mržnje ": 10994,
  "kaznu ": 10995,
  "specijaliz": 10996,
  "voje ": 10997,
  "genih ": 10998,
  "najveću ": 10999,
  "Ljubi": 11000,
  "pobede ": 11001,
  "Informer ": 11002,
  "depo": 11003,
  "dobiju ": 11004,
  "neprijatelj": 11005,
  "važnu ": 11006,
  "parametar ": 11007,
  "dokumentacije ": 11008,
  "evo ": 11009,
  "oseća ": 11010,
  "imenice ": 11011,
  "zabrinu": 11012,
  "infekcija ": 11013,
  "poznavanje ": 11014,
  "staze ": 11015,
  "bal ": 11016,
  "okruga ": 11017,
  "kruga ": 11018,
  "dovela ": 11019,
  "interesu ": 11020,
  "Evropa ": 11021,
  "48": 11022,
  "čvrsto": 11023,
  "zaro": 11024,
  "vere ": 11025,
  "kupaca ": 11026,
  "OG ": 11027,
  "Mate": 11028,
  "žić ": 11029,
  "kovala ": 11030,
  "humanitar": 11031,
  "venti": 11032,
  "osobama ": 11033,
  "limi": 11034,
  "sferi ": 11035,
  "uĉ": 11036,
  "ler": 11037,
  "presude ": 11038,
  "sz": 11039,
  "pravac ": 11040,
  "AP": 11041,
  "Ņ": 11042,
  "sledeća ": 11043,
  "pravca ": 11044,
  "msko ": 11045,
  "niske ": 11046,
  "detaljnije ": 11047,
  "stor ": 11048,
  "čas ": 11049,
  "rangi": 11050,
  "tanjem ": 11051,
  "ekonomija ": 11052,
  "ikono": 11053,
  "wo": 11054,
  "zapadu ": 11055,
  "supruga ": 11056,
  "spektar ": 11057,
  "napret": 11058,
  "afek": 11059,
  "tt ": 11060,
  "saobraćaj ": 11061,
  "Živ": 11062,
  "ješ ": 11063,
  "Evropskog ": 11064,
  "verovatnoća ": 11065,
  "Redakcija ": 11066,
  "otvoren ": 11067,
  "diskre": 11068,
  "Zbornik ": 11069,
  "pristupu ": 11070,
  "ovakvog ": 11071,
  "takvu ": 11072,
  "prakti": 11073,
  "use ": 11074,
  "matskim ": 11075,
  "vazduh ": 11076,
  "čitala": 11077,
  "dono": 11078,
  "shvatanja ": 11079,
  "nasleđa ": 11080,
  "donekle ": 11081,
  "ɢɱɤ": 11082,
  "aktera ": 11083,
  "programe ": 11084,
  "ukupna ": 11085,
  "međunarodni ": 11086,
  "nado": 11087,
  "Ab": 11088,
  "desno ": 11089,
  "monitor": 11090,
  "ĸ": 11091,
  "pogrešno ": 11092,
  "zahtevi ": 11093,
  "biblioteke ": 11094,
  "legu": 11095,
  "Pregled ": 11096,
  "primerima ": 11097,
  "Press ": 11098,
  "šeni ": 11099,
  "mašine ": 11100,
  "vio": 11101,
  "raspolaganju ": 11102,
  "želim ": 11103,
  "odgovorni ": 11104,
  "revizi": 11105,
  "izdavanje ": 11106,
  "varijacije ": 11107,
  "dijalog ": 11108,
  "najvećim ": 11109,
  "finalu ": 11110,
  "SSSR ": 11111,
  "zajedničkog ": 11112,
  "116 ": 11113,
  "Pis": 11114,
  "Putin ": 11116,
  "nskog ": 11117,
  "pružanje ": 11118,
  "zaboravi": 11119,
  "Luka ": 11120,
  "Vuko": 11121,
  "Kasnije ": 11122,
  "ksi ": 11123,
  "Inače ": 11124,
  "tex": 11125,
  "Drago": 11126,
  "zasi": 11127,
  "113 ": 11128,
  "Tek ": 11129,
  "respira": 11130,
  "nuž": 11131,
  "instrument ": 11132,
  "govorili ": 11133,
  "dski ": 11134,
  "Zašti": 11135,
  "slobodnih ": 11136,
  "1964 ": 11137,
  "Panče": 11138,
  "srebr": 11139,
  "raski": 11140,
  "principima ": 11141,
  "evro": 11142,
  "kalen": 11143,
  "postizanje ": 11144,
  "luka ": 11145,
  "Hy": 11146,
  "visokih ": 11147,
  "morati ": 11148,
  "ugao ": 11149,
  "našla ": 11150,
  "jugoslovenske ": 11151,
  "osnovana ": 11152,
  "oste": 11153,
  "učini ": 11154,
  "izveštaju ": 11155,
  "međuvremenu ": 11156,
  "američkog ": 11157,
  "nem ": 11158,
  "rević ": 11159,
  "ira ": 11160,
  "dalji ": 11161,
  "DR": 11162,
  "počinju ": 11163,
  "fera": 11164,
  "lide": 11165,
  "tno": 11166,
  "proba": 11167,
  "Bila ": 11168,
  "nezavisnosti ": 11169,
  "nastupa ": 11170,
  ".; ": 11171,
  "glava ": 11172,
  "heli": 11173,
  "privremen": 11174,
  "razlozi ": 11175,
  "tabe": 11176,
  "širenja ": 11177,
  "stranica ": 11178,
  "Odnos ": 11179,
  "lovi ": 11180,
  "porez ": 11181,
  "besko": 11182,
  "dvor": 11183,
  "Đ ": 11184,
  "vasku": 11185,
  "završetka ": 11186,
  "istorijskih ": 11187,
  "privrednih ": 11188,
  "rati": 11189,
  "savi": 11190,
  "bre ": 11191,
  "Jer": 11192,
  "Proces ": 11193,
  "poruku ": 11194,
  "otvorenom ": 11195,
  "nezakoni": 11196,
  "dobijen ": 11197,
  "tkinja ": 11198,
  "sp ": 11199,
  "pretva": 11200,
  "posu": 11201,
  "realno ": 11202,
  "čisto": 11203,
  "organizma ": 11204,
  "ovome ": 11205,
  "igrač ": 11206,
  "Podelite ": 11207,
  "područjima ": 11208,
  "devedesetih ": 11209,
  "indirek": 11210,
  "javanje ": 11211,
  "EU": 11212,
  "preneta ": 11213,
  "Kine ": 11214,
  "heren": 11215,
  "stop": 11216,
  "eći ": 11217,
  "1963 ": 11218,
  "duje ": 11219,
  "opaž": 11220,
  "Intere": 11221,
  "trajanje ": 11222,
  "Često ": 11223,
  "panja ": 11224,
  "značajni ": 11225,
  "uju": 11226,
  "ties ": 11227,
  "Program ": 11228,
  "receptora ": 11229,
  "straha ": 11230,
  "aranž": 11231,
  "zauzima ": 11232,
  "onome ": 11233,
  "Trenut": 11234,
  "ogle ": 11235,
  "sednici ": 11236,
  "Zahvaljujući ": 11237,
  "karte ": 11238,
  "preli": 11239,
  "ɫɚ ": 11240,
  "shi": 11241,
  "ulazak ": 11242,
  "dobijanja ": 11243,
  "obezbeđenja ": 11244,
  "Jedno": 11245,
  "bara ": 11246,
  "vaca ": 11247,
  "zemljo": 11248,
  "funda": 11249,
  "šteta ": 11250,
  "nula ": 11251,
  "činjenici ": 11252,
  "vitro ": 11253,
  "preovla": 11254,
  "molit": 11255,
  "invaliditetom ": 11256,
  "u00": 11257,
  "vlakana ": 11258,
  "tvrđ": 11259,
  "dy ": 11260,
  "ulica ": 11261,
  "kristal": 11262,
  "uno": 11263,
  "istinu ": 11264,
  "najvažnije ": 11265,
  "tivom ": 11266,
  "Film ": 11267,
  "nude ": 11268,
  "harmo": 11269,
  "117 ": 11270,
  "Parizu ": 11271,
  "kažnj": 11272,
  "nizu ": 11273,
  "nalaza ": 11274,
  "prekida ": 11275,
  "imuni": 11276,
  "potvrđuju ": 11277,
  "segment ": 11278,
  "jović ": 11279,
  "tačnije ": 11280,
  "svečan": 11281,
  "prehramb": 11282,
  "sru": 11283,
  "danima ": 11284,
  "Ma ": 11285,
  "muziku ": 11286,
  "varo": 11287,
  "potiču ": 11288,
  "om": 11289,
  "roditeljima ": 11290,
  "vrijednosti ": 11291,
  "momentu ": 11292,
  "beta ": 11293,
  "pone": 11294,
  "kupovine ": 11295,
  "celina ": 11296,
  "organizacione ": 11297,
  "ćivanje ": 11298,
  "stranaka ": 11299,
  "rida ": 11300,
  "eksperimentalne ": 11301,
  "vredno": 11302,
  "susret ": 11303,
  "nalazio ": 11304,
  "135 ": 11305,
  "ratne ": 11306,
  "й": 11307,
  "χ": 11308,
  "Kragujevcu ": 11309,
  "učenik ": 11310,
  "industrija ": 11311,
  "dža ": 11312,
  "statističke ": 11313,
  "malom ": 11314,
  "pisom ": 11315,
  "avši ": 11316,
  "izmeĊu ": 11317,
  "sulta": 11318,
  "jl ": 11319,
  "gy ": 11320,
  "Ɇ": 11321,
  "relacija ": 11322,
  "malog ": 11323,
  "astro": 11324,
  "narodnog ": 11325,
  "pojedinačno ": 11326,
  "korpusa ": 11327,
  "max ": 11328,
  "strogo ": 11329,
  "cifi": 11330,
  "periodi": 11331,
  "protoka ": 11332,
  "gol ": 11333,
  "RTS ": 11334,
  "hidroksi": 11335,
  "Opera": 11336,
  "aka ": 11337,
  "pojavi ": 11338,
  "Kina ": 11339,
  "vezi": 11340,
  "rizikom ": 11341,
  "korti": 11342,
  "izbori ": 11343,
  "šković ": 11344,
  "hrono": 11345,
  "tehnički ": 11346,
  "čane ": 11347,
  "kol ": 11348,
  "Dubrov": 11349,
  "ny": 11350,
  "stanova ": 11351,
  "vie": 11352,
  "slovima ": 11353,
  "dodatnih ": 11354,
  "Mul": 11355,
  "objavljivanje ": 11356,
  "disper": 11357,
  "markera ": 11358,
  "ologiju ": 11359,
  "apopto": 11360,
  "propisuje ": 11361,
  "sanom ": 11362,
  "ɟʄ": 11363,
  "wn ": 11364,
  "podseća ": 11365,
  "ME ": 11366,
  "jezičke ": 11367,
  "kriminala ": 11368,
  "granici ": 11369,
  "upravlja ": 11370,
  "melan": 11371,
  "î ": 11372,
  "lošku ": 11373,
  "vibra": 11374,
  "zadu": 11375,
  "dup": 11376,
  "definisane ": 11378,
  "Hol": 11379,
  "ligi ": 11380,
  "mas": 11381,
  "lizacijom ": 11382,
  "postalo ": 11383,
  "dijalek": 11384,
  "metabolič": 11385,
  "Pitanje ": 11386,
  "alac ": 11387,
  "general ": 11388,
  "glasno ": 11389,
  "Potrebno ": 11390,
  "CE ": 11391,
  "rečeni": 11392,
  "beleži ": 11393,
  "okvirima ": 11394,
  "Serbi": 11395,
  "doveo ": 11396,
  "AJ ": 11397,
  "sma ": 11398,
  "tehnološkog ": 11399,
  "nekako ": 11400,
  "inici": 11401,
  "akt ": 11402,
  "doza ": 11403,
  "povremeno ": 11404,
  "teritoriju ": 11405,
  "Eu": 11406,
  "filtra": 11407,
  "krila ": 11408,
  "Š2": 11409,
  "macija ": 11410,
  "Obren": 11411,
  "manu": 11412,
  "diskursa ": 11413,
  "MAT": 11414,
  "flav": 11415,
  "Sistem ": 11416,
  "upitnika ": 11417,
  "pretera": 11418,
  "neophodan ": 11419,
  "º": 11420,
  "asisten": 11422,
  "Stanković ": 11423,
  "odavno ": 11424,
  "kara ": 11425,
  "poručio ": 11426,
  "ensis ": 11427,
  "stica ": 11428,
  "prvenstva ": 11429,
  "kurs ": 11430,
  "plaća ": 11431,
  "ivi": 11432,
  "opada ": 11433,
  "Studen": 11434,
  "ulaze ": 11435,
  "stare": 11436,
  "znanju ": 11437,
  "siguran ": 11438,
  "dnim ": 11439,
  "revolucije ": 11440,
  "realizaciji ": 11441,
  "і": 11442,
  "noć": 11443,
  "nalaz ": 11444,
  "oglaš": 11445,
  "dozvoljeno ": 11446,
  "razmene ": 11447,
  "provo": 11448,
  "mar ": 11449,
  "pravoslavne ": 11450,
  "vojsku ": 11451,
  "programi ": 11452,
  "3D ": 11453,
  "materijali ": 11454,
  "distribuciju ": 11455,
  "teških ": 11456,
  "novinara ": 11457,
  "EE": 11458,
  "pesmu ": 11459,
  "resursima ": 11460,
  "sol": 11461,
  "ponašanju ": 11462,
  "SM ": 11463,
  "ciljevima ": 11464,
  "jnost ": 11465,
  "portre": 11466,
  "sel ": 11467,
  "nastavnik ": 11468,
  "Bož": 11469,
  "Pola": 11470,
  "izražena ": 11471,
  "mnih ": 11472,
  "samoj ": 11473,
  "popunj": 11474,
  "OP": 11475,
  "zadatke ": 11476,
  "stranici ": 11477,
  "bogo": 11478,
  "obuku ": 11479,
  "domaćinstva ": 11480,
  "dica ": 11481,
  "gori ": 11482,
  "starog ": 11483,
  "minimum ": 11484,
  "naučnog ": 11485,
  "pija": 11486,
  "publike ": 11487,
  "dre ": 11488,
  "karijeru ": 11489,
  "Ustava ": 11490,
  "eksperimenta ": 11491,
  "etan": 11492,
  "tanju ": 11493,
  "anti ": 11494,
  "1953 ": 11495,
  "istraživača ": 11496,
  "cve": 11497,
  "budemo ": 11498,
  "svesni ": 11499,
  "renju ": 11500,
  "ekipe ": 11501,
  "bivše ": 11502,
  "najlep": 11503,
  "sprovedena ": 11504,
  "pp ": 11505,
  "fond ": 11506,
  "aplikacija ": 11507,
  "Posl": 11508,
  "njaci ": 11509,
  "opštih ": 11510,
  "firmi ": 11511,
  "što": 11512,
  "prikupljanje ": 11513,
  "izražava ": 11514,
  "ishrani ": 11515,
  "mskoj ": 11516,
  "prevashodno ": 11517,
  "ljko ": 11518,
  "avate ": 11519,
  "požara ": 11520,
  "mije": 11521,
  "privile": 11522,
  "ćaj ": 11523,
  "Izuze": 11524,
  "poduhva": 11525,
  "soli ": 11526,
  "buna": 11527,
  "šući ": 11528,
  "panje ": 11529,
  "podvr": 11530,
  "ranoj ": 11531,
  "oslo": 11532,
  "shvatanje ": 11533,
  "zvana ": 11534,
  "raš": 11535,
  "objavila ": 11536,
  "neutra": 11537,
  "lova": 11538,
  "AD": 11539,
  "crno ": 11540,
  "avam ": 11541,
  "solidar": 11542,
  "TR": 11543,
  "cono": 11544,
  "virtuel": 11545,
  "ie ": 11546,
  "Molimo ": 11547,
  "hrani ": 11548,
  "izazove ": 11549,
  "robo": 11550,
  "domen ": 11551,
  "Pen": 11552,
  "Nasuprot ": 11553,
  "funkcio": 11554,
  "ɭɬ": 11555,
  "pozorišta ": 11556,
  "standardna ": 11557,
  "arap": 11558,
  "odobra": 11559,
  "Vašing": 11560,
  "izvršeno ": 11561,
  "kl ": 11562,
  "Interne": 11563,
  "popl": 11564,
  "obeć": 11565,
  "SEDN": 11566,
  "anal": 11567,
  "nutri": 11568,
  "predstavljena ": 11569,
  "kneza ": 11570,
  "opseg ": 11571,
  "znali ": 11572,
  "optu": 11573,
  "pče": 11574,
  "cts ": 11575,
  "Ovako ": 11576,
  "lokalni ": 11577,
  "Oko ": 11578,
  "čijim ": 11579,
  "urednik ": 11580,
  "vis ": 11581,
  "nekro": 11582,
  "ljana ": 11583,
  "šića ": 11584,
  "stepenom ": 11585,
  "Smatra": 11586,
  "dimenzional": 11587,
  "ii ": 11588,
  "svu ": 11589,
  "privremeno ": 11590,
  "demokratije ": 11591,
  "Star": 11592,
  "uzaja": 11593,
  "ekonomskim ": 11594,
  "kvi": 11595,
  "slova": 11596,
  "aktivnog ": 11597,
  "Proce": 11598,
  "objašnjenja ": 11599,
  "šice ": 11600,
  "posebnih ": 11601,
  "â ": 11602,
  "zastupljenost ": 11603,
  "Ʉ": 11604,
  "vođenjem ": 11605,
[...]
