{
  "version": "1.0",
  "truncation": null,
  "padding": null,
  "added_tokens": [
    {
      "id": 0,
      "content": "[PAD]",
      "single_word": false,
      "lstrip": false,
      "rstrip": false,
      "normalized": false,
      "special": true
    },
    {
      "id": 1,
      "content": "[UNK]",
      "single_word": false,
      "lstrip": false,
      "rstrip": false,
      "normalized": false,
      "special": true
    },
    {
      "id": 2,
      "content": "[CLS]",
      "single_word": false,
      "lstrip": false,
      "rstrip": false,
      "normalized": false,
      "special": true
    },
    {
      "id": 3,
      "content": "[SEP]",
      "single_word": false,
      "lstrip": false,
      "rstrip": false,
      "normalized": false,
      "special": true
    },
    {
      "id": 4,
      "content": "[MASK]",
      "single_word": false,
      "lstrip": false,
      "rstrip": false,
      "normalized": false,
      "special": true
    }
  ],
  "normalizer": null,
  "pre_tokenizer": {
    "type": "Sequence",
    "pretokenizers": [
      {
        "type": "Whitespace"
      },
      {
        "type": "ByteLevel",
        "add_prefix_space": false,
        "trim_offsets": true,
        "use_regex": false
      }
    ]
  },
  "post_processor": null,
  "decoder": null,
  "model": {
    "type": "BPE",
    "dropout": null,
    "unk_token": null,
    "continuing_subword_prefix": null,
    "end_of_word_suffix": "Ġ",
    "fuse_unk": false,
    "byte_fallback": false,
    "ignore_merges": true,
    "vocab": {
      "[PAD]": 0,
      "[UNK]": 1,
      "[CLS]": 2,
      "[SEP]": 3,
      "[MASK]": 4,
      "!": 5,
      "\"": 6,
      "#": 7,
      "$": 8,
      "%": 9,
      "&": 10,
      "'": 11,
      "(": 12,
      ")": 13,
      "*": 14,
      "+": 15,
      ",": 16,
      "-": 17,
      ".": 18,
      "/": 19,
      "0": 20,
      "1": 21,
      "2": 22,
      "3": 23,
      "4": 24,
      "5": 25,
      "6": 26,
      "7": 27,
      "8": 28,
      "9": 29,
      ":": 30,
      ";": 31,
      "<": 32,
      "=": 33,
      ">": 34,
      "?": 35,
      "@": 36,
      "A": 37,
      "B": 38,
      "C": 39,
      "D": 40,
      "E": 41,
      "F": 42,
      "G": 43,
      "H": 44,
      "I": 45,
      "J": 46,
      "K": 47,
      "L": 48,
      "M": 49,
      "N": 50,
      "O": 51,
      "P": 52,
      "Q": 53,
      "R": 54,
      "S": 55,
      "T": 56,
      "U": 57,
      "V": 58,
      "W": 59,
      "X": 60,
      "Y": 61,
      "Z": 62,
      "[": 63,
      "\\": 64,
      "]": 65,
      "^": 66,
      "_": 67,
      "`": 68,
      "a": 69,
      "b": 70,
      "c": 71,
      "d": 72,
      "e": 73,
      "f": 74,
      "g": 75,
      "h": 76,
      "i": 77,
      "j": 78,
      "k": 79,
      "l": 80,
      "m": 81,
      "n": 82,
      "o": 83,
      "p": 84,
      "q": 85,
      "r": 86,
      "s": 87,
      "t": 88,
      "u": 89,
      "v": 90,
      "w": 91,
      "x": 92,
      "y": 93,
      "z": 94,
      "{": 95,
      "|": 96,
      "}": 97,
      "~": 98,
      "¡": 99,
      "¢": 100,
      "£": 101,
      "¤": 102,
      "¥": 103,
      "¦": 104,
      "§": 105,
      "¨": 106,
      "©": 107,
      "ª": 108,
      "«": 109,
      "¬": 110,
      "®": 111,
      "¯": 112,
      "°": 113,
      "±": 114,
      "²": 115,
      "³": 116,
      "´": 117,
      "µ": 118,
      "¶": 119,
      "·": 120,
      "¸": 121,
      "¹": 122,
      "º": 123,
      "»": 124,
      "¼": 125,
      "½": 126,
      "¾": 127,
      "¿": 128,
      "À": 129,
      "Á": 130,
      "Â": 131,
      "Ã": 132,
      "Ä": 133,
      "Å": 134,
      "Æ": 135,
      "Ç": 136,
      "È": 137,
      "É": 138,
      "Ê": 139,
      "Ë": 140,
      "Ì": 141,
      "Í": 142,
      "Î": 143,
      "Ï": 144,
      "Ð": 145,
      "Ñ": 146,
      "Ò": 147,
      "Ó": 148,
      "Ô": 149,
      "Õ": 150,
      "Ö": 151,
      "×": 152,
      "Ø": 153,
      "Ù": 154,
      "Ú": 155,
      "Û": 156,
      "Ü": 157,
      "Ý": 158,
      "Þ": 159,
      "ß": 160,
      "à": 161,
      "á": 162,
      "â": 163,
      "ã": 164,
      "ä": 165,
      "å": 166,
      "æ": 167,
      "ç": 168,
      "è": 169,
      "é": 170,
      "ê": 171,
      "ë": 172,
      "ì": 173,
      "í": 174,
      "î": 175,
      "ï": 176,
      "ð": 177,
      "ñ": 178,
      "ò": 179,
      "ó": 180,
      "ô": 181,
      "õ": 182,
      "ö": 183,
      "÷": 184,
      "ø": 185,
      "ù": 186,
      "ú": 187,
      "û": 188,
      "ü": 189,
      "ý": 190,
      "þ": 191,
      "ÿ": 192,
      "Ā": 193,
      "ā": 194,
      "Ă": 195,
      "ă": 196,
      "Ą": 197,
      "ą": 198,
      "Ć": 199,
      "ć": 200,
      "Ĉ": 201,
      "ĉ": 202,
      "Ċ": 203,
      "ċ": 204,
      "Č": 205,
      "č": 206,
      "Ď": 207,
      "ď": 208,
      "Đ": 209,
      "đ": 210,
      "Ē": 211,
      "ē": 212,
      "Ĕ": 213,
      "ĕ": 214,
      "Ė": 215,
      "ė": 216,
      "Ę": 217,
      "ę": 218,
      "Ě": 219,
      "ě": 220,
      "Ĝ": 221,
      "ĝ": 222,
      "Ğ": 223,
      "ğ": 224,
      "Ġ": 225,
      "ġ": 226,
      "Ģ": 227,
      "ģ": 228,
      "Ĥ": 229,
      "ĥ": 230,
      "Ħ": 231,
      "ħ": 232,
      "Ĩ": 233,
      "ĩ": 234,
      "Ī": 235,
      "ī": 236,
      "Ĭ": 237,
      "ĭ": 238,
      "Į": 239,
      "į": 240,
      "İ": 241,
      "ı": 242,
      "Ĳ": 243,
      "ĳ": 244,
      "Ĵ": 245,
      "ĵ": 246,
      "Ķ": 247,
      "ķ": 248,
      "ĸ": 249,
      "Ĺ": 250,
      "ĺ": 251,
      "Ļ": 252,
      "ļ": 253,
      "Ľ": 254,
      "ľ": 255,
      "Ŀ": 256,
      "ŀ": 257,
      "Ł": 258,
      "ł": 259,
      "Ń": 260,
      "sĠ": 261,
      "cĠ": 262,
      "rĠ": 263,
      "dĠ": 264,
      "aĠ": 265,
      "NĠ": 266,
      "4Ġ": 267,
      "µĠ": 268,
      "¾Ġ": 269,
      "iĠ": 270,
      "ħĠ": 271,
      "eĠ": 272,
      "ĺĠ": 273,
      "IĠ": 274,
      "ŃĠ": 275,
      "uĠ": 276,
      "jĠ": 277,
      "nĠ": 278,
      "°Ġ": 279,
      "*Ġ": 280,
      "hĠ": 281,
      "oĠ": 282,
      "mĠ": 283,
      "ĥĠ": 284,
      "½Ġ": 285,
      "HĠ": 286,
      "ºĠ": 287,
      "¸Ġ": 288,
      "zĠ": 289,
      "ĬĠ": 290,
      "tĠ": 291,
      "ĤĠ": 292,
      "vĠ": 293,
      "³Ġ": 294,
      "LĠ": 295,
      "´Ġ": 296,
      "¼Ġ": 297,
      "MĠ": 298,
      "ĳĠ": 299,
      "yĠ": 300,
      "gĠ": 301,
      "ĿĠ": 302,
      "7Ġ": 303,
      "²Ġ": 304,
      "YĠ": 305,
      "xĠ": 306,
      "TĠ": 307,
      "ļĠ": 308,
      "2Ġ": 309,
      "OĠ": 310,
      "ĢĠ": 311,
      "¹Ġ": 312,
      "ĲĠ": 313,
      "kĠ": 314,
      "ĨĠ": 315,
      "ŁĠ": 316,
      "CĠ": 317,
      "ģĠ": 318,
      "5Ġ": 319,
      "EĠ": 320,
      "ĩĠ": 321,
      "İĠ": 322,
      "¢Ġ": 323,
      "ĮĠ": 324,
      "6Ġ": 325,
      "1Ġ": 326,
      "AĠ": 327,
      "0Ġ": 328,
      "SĠ": 329,
      "®Ġ": 330,
      "łĠ": 331,
      "¿Ġ": 332,
      "¥Ġ": 333,
      "£Ġ": 334,
      "ĽĠ": 335,
      "qĠ": 336,
      "8Ġ": 337,
      ")Ġ": 338,
      "FĠ": 339,
      "XĠ": 340,
      "lĠ": 341,
      "#Ġ": 342,
      "±Ġ": 343,
      "fĠ": 344,
      "bĠ": 345,
      "ĪĠ": 346,
      "wĠ": 347,
      "įĠ": 348,
      "PĠ": 349,
      "»Ġ": 350,
      "¦Ġ": 351,
      "pĠ": 352,
      "BĠ": 353,
      "GĠ": 354,
      "¶Ġ": 355,
      "3Ġ": 356,
      "¡Ġ": 357,
      "¤Ġ": 358,
      "ĸĠ": 359,
      "ĶĠ": 360,
      "ľĠ": 361,
      "UĠ": 362,
      "¨Ġ": 363,
      "ķĠ": 364,
      "VĠ": 365,
      "`Ġ": 366,
      "ıĠ": 367,
      ".Ġ": 368,
      "ªĠ": 369,
      "9Ġ": 370,
      "¯Ġ": 371,
      "DĠ": 372,
      "JĠ": 373,
      "·Ġ": 374,
      "&Ġ": 375,
      "§Ġ": 376,
      "¬Ġ": 377,
      "ĵĠ": 378,
      "©Ġ": 379,
      "KĠ": 380,
      "_Ġ": 381,
      "īĠ": 382,
      "WĠ": 383,
      "!Ġ": 384,
      "ĦĠ": 385,
      "@Ġ": 386,
      "ŀĠ": 387,
      "ĻĠ": 388,
      "ĴĠ": 389,
      "«Ġ": 390,
      "ĭĠ": 391,
      "QĠ": 392,
      "ĹĠ": 393,
      "ZĠ": 394,
      ",Ġ": 395,
      "/Ġ": 396,
      "RĠ": 397,
      "\"Ġ": 398,
      "?Ġ": 399,
      "+Ġ": 400,
      "ăĠ": 401,
      "ĎĠ": 402,
      "(Ġ": 403,
      ";Ġ": 404,
      ":Ġ": 405,
      "%Ġ": 406,
      "'Ġ": 407,
      "ĈĠ": 408,
      "=Ġ": 409,
      "-Ġ": 410,
      "\\Ġ": 411,
      "ęĠ": 412,
      "|Ġ": 413,
      "~Ġ": 414,
      "āĠ": 415,
      "[Ġ": 416,
      "]Ġ": 417,
      "}Ġ": 418,
      "<Ġ": 419,
      ">Ġ": 420,
      "ďĠ": 421,
      "ēĠ": 422,
      "^Ġ": 423,
      "ĄĠ": 424,
      "đĠ": 425,
      "ćĠ": 426,
      "ĚĠ": 427,
      "ąĠ": 428,
      "ĂĠ": 429,
      "ĕĠ": 430,
      "{Ġ": 431,
      "ěĠ": 432,
      "ĔĠ": 433,
      "ĆĠ": 434,
      "ėĠ": 435,
      "ĒĠ": 436,
      "ġĠ": 437,
      "$Ġ": 438,
      "ĀĠ": 439,
      "ĐĠ": 440,
      "ĖĠ": 441,
      "ĘĠ": 442,
      "Ð¾": 443,
      "Ð°": 444,
      "Ð¸": 445,
      "Ð½": 446,
      "Ðµ": 447,
      "ÑĢ": 448,
      "Ñģ": 449,
      "ÑĤ": 450,
      "Ð¾Ð": 451,
      "Ð°Ġ": 452,
      "Ð°Ð": 453,
      "ÐµĠ": 454,
      "Ðº": 455,
      "Ñĺ": 456,
      "Ð¸Ġ": 457,
      "Ð¿": 458,
      "Ð¸Ð": 459,
      "Ñĥ": 460,
      "jeĠ": 461,
      "st": 462,
      "ra": 463,
      "ÐµÐ": 464,
      "ÑĥĠ": 465,
      "en": 466,
      "an": 467,
      "ko": 468,
      "re": 469,
      "po": 470,
      "Ð¸Ñ": 471,
      "Ð²": 472,
      "Äį": 473,
      "Ð°Ñ": 474,
      "Ð´": 475,
      "ÑģÑĤ": 476,
      "in": 477,
      "Å¡": 478,
      "Ð»": 479,
      "Ð¾Ġ": 480,
      "ov": 481,
      "ri": 482,
      "ni": 483,
      "ro": 484,
      "na": 485,
      "jaĠ": 486,
      "daĠ": 487,
      "ÑĺÐµĠ": 488,
      "no": 489,
      "Ð¼": 490,
      "li": 491,
      "Ð¿ÑĢ": 492,
      "ÐµÑ": 493,
      "ci": 494,
      "Ð¾Ð²": 495,
      "naĠ": 496,
      "ti": 497,
      "ÐµÐ½": 498,
      "Å¾": 499,
      "ka": 500,
      "od": 501,
      "av": 502,
      "Äĩ": 503,
      "Ð°Ð½": 504,
      "maĠ": 505,
      "te": 506,
      "Ð·": 507,
      "al": 508,
      "Ð±": 509,
      "je": 510,
      "Ð¾Ñ": 511,
      "âĢ": 512,
      "Ð¸Ð½": 513,
      "Ð¾Ð´": 514,
      "Ð°Ð²": 515,
      "Ð¸Ñĺ": 516,
      "seĠ": 517,
      "juĠ": 518,
      "Ð³": 519,
      "la": 520,
      "Ð¾ÑĢ": 521,
      "ve": 522,
      "Ð°Ð»": 523,
      "ÑģÐº": 524,
      "sk": 525,
      "neĠ": 526,
      "or": 527,
      "il": 528,
      "ÐµÐ´": 529,
      "ta": 530,
      "Ð°ÑĤ": 531,
      "za": 532,
      "me": 533,
      "lj": 534,
      "ob": 535,
      "pre": 536,
      "va": 537,
      "ne": 538,
      "le": 539,
      "noĠ": 540,
      "vi": 541,
      "Ð°ÑĢ": 542,
      "zaĠ": 543,
      "pro": 544,
      "Ð¸Ð¼": 545,
      "ÐµÑĢ": 546,
      "Ð¾Ñģ": 547,
      "Ð½Ð°Ġ": 548,
      "ma": 549,
      "vo": 550,
      "ru": 551,
      "mo": 552,
      "Ð¸ÑĤ": 553,
      "Ð¾Ð¼Ġ": 554,
      "Ð°Ñļ": 555,
      "sa": 556,
      "kaĠ": 557,
      "de": 558,
      "suĠ": 559,
      "Ð°Ðº": 560,
      "Ð¾Ñĺ": 561,
      "Ð¸Ð²": 562,
      "di": 563,
      "jiĠ": 564,
      "ÑĥÑ": 565,
      "iz": 566,
      "tiĠ": 567,
      "ÑĢÐ°Ð": 568,
      "Ð¸ÑħĠ": 569,
      "Ð¸Ðº": 570,
      "koĠ": 571,
      "taĠ": 572,
      "Ð¸Ð·": 573,
      "ÐµÑĤ": 574,
      "Ð¾Ð½": 575,
      "to": 576,
      "Ð°Ñĺ": 577,
      "saĠ": 578,
      "Ð¸Ð»": 579,
      "Äĳ": 580,
      "Ð¾Ð³Ġ": 581,
      "pri": 582,
      "si": 583,
      "ihĠ": 584,
      "lo": 585,
      "se": 586,
      "ÑģÐµĠ": 587,
      "Ð¾ÑģÑĤ": 588,
      "do": 589,
      "ÐµÐº": 590,
      "men": 591,
      "Ð¸Ñĩ": 592,
      "ÐµÐ»": 593,
      "ÐµÐ¼": 594,
      "Ð´Ð°Ġ": 595,
      "niĠ": 596,
      "Ð¾Ð±": 597,
      "toĠ": 598,
      "ÑĨ": 599,
      "bi": 600,
      "Ð¾Ð»": 601,
      "odĠ": 602,
      "mi": 603,
      "zi": 604,
      "pa": 605,
      "stiĠ": 606,
      "teĠ": 607,
      "Ð¸ÑĺÐµĠ": 608,
      "Ð¾Ð³": 609,
      "Ð¸Ð¼Ġ": 610,
      "da": 611,
      "Ð¸ÑĨ": 612,
      "20": 613,
      "ÑĻ": 614,
      "ja": 615,
      "pi": 616,
      "raĠ": 617,
      "Ð¡": 618,
      "sl": 619,
      "Ð¾Ð¼": 620,
      "Ð¸Ñģ": 621,
      "pe": 622,
      "anjeĠ": 623,
      "ĪÑĤ": 624,
      "Ð°Ð´": 625,
      "omĠ": 626,
      "Ð½ÐµĠ": 627,
      "Ð¸ÑģÑĤ": 628,
      "keĠ": 629,
      "Ñļ": 630,
      "Ð°Ð¼": 631,
      "Ð°ÑĨ": 632,
      "anjaĠ": 633,
      "Ð½Ð¾Ġ": 634,
      "gra": 635,
      "Ð¶": 636,
      "vaĠ": 637,
      "imĠ": 638,
      "Ð¾ÑĤ": 639,
      "moĠ": 640,
      "raz": 641,
      "tu": 642,
      "ku": 643,
      "Ð¾Ðº": 644,
      "sti": 645,
      "stĠ": 646,
      "ÐŁ": 647,
      "nihĠ": 648,
      "ÑģÑĥĠ": 649,
      "Ð¸Ð¼Ð°Ġ": 650,
      "Ð¾Ð´Ġ": 651,
      "Ð°Ñĩ": 652,
      "Ð¾Ð¿": 653,
      "Ð¸ÑĢ": 654,
      "laĠ": 655,
      "ÐºÐ¾Ñĺ": 656,
      "19": 657,
      "ÑĦ": 658,
      "Ð°Ð¾Ġ": 659,
      "pu": 660,
      "su": 661,
      "pra": 662,
      "bo": 663,
      "sta": 664,
      "ÑģÐ²": 665,
      "iliĠ": 666,
      "cijeĠ": 667,
      "ÐµÐ²": 668,
      "Äįi": 669,
      "nogĠ": 670,
      "Ð¸ÑĺÐ°Ġ": 671,
      "Ñĩ": 672,
      "red": 673,
      "kojiĠ": 674,
      "ineĠ": 675,
      "pr": 676,
      "ÄĩeĠ": 677,
      "ÑĢÑĥ": 678,
      "Ð·Ð°Ġ": 679,
      "âĢŀĠ": 680,
      "Ð°Ð·": 681,
      "kaoĠ": 682,
      "ÐµÑļ": 683,
      "stav": 684,
      "sko": 685,
      "be": 686,
      "jed": 687,
      "Ð°Ñģ": 688,
      "caĠ": 689,
      "ÐµÐ·": 690,
      "nj": 691,
      ").Ġ": 692,
      "ÄĩĠ": 693,
      "Äįe": 694,
      "Ðļ": 695,
      "du": 696,
      "Ð¾ÑĺĠ": 697,
      "veĠ": 698,
      "ÑģÐ°Ġ": 699,
      "imaĠ": 700,
      "ÑĥÑĤ": 701,
      "gaĠ": 702,
      "gov": 703,
      "Ð°ÑļÐ°Ġ": 704,
      "nostiĠ": 705,
      "ciĠ": 706,
      "ÑĤĠ": 707,
      "tra": 708,
      "Ð°ÑļÐµĠ": 709,
      "vr": 710,
      "''Ġ": 711,
      "liĠ": 712,
      "nov": 713,
      "Å¾i": 714,
      "meĠ": 715,
      "ar": 716,
      "tiv": 717,
      "deĠ": 718,
      "Ð²ÑĢ": 719,
      "Ðľ": 720,
      "ÑĤÑĢ": 721,
      "ÐĿ": 722,
      "is": 723,
      "cijaĠ": 724,
      "..": 725,
      "kuĠ": 726,
      "ju": 727,
      "inaĠ": 728,
      "ÐµÐ³": 729,
      "ce": 730,
      "sto": 731,
      "os": 732,
      "aliĠ": 733,
      "dru": 734,
      "Äįa": 735,
      "Ð½Ð¸Ġ": 736,
      "zna": 737,
      "stra": 738,
      "âĢĵĠ": 739,
      "ÑĥÑĩ": 740,
      "gu": 741,
      "ÑĢÐ°Ð·": 742,
      "god": 743,
      "Å¡toĠ": 744,
      "ceĠ": 745,
      "kon": 746,
      "ren": 747,
      "ÑģÐ»": 748,
      "voĠ": 749,
      "Ðĳ": 750,
      "Ð°Ð½Ġ": 751,
      "ÑĥÑĢ": 752,
      "Ð½Ð¾Ñģ": 753,
      "Ð¸ÑĩÐº": 754,
      "Ð¸Ð½ÐµĠ": 755,
      "jen": 756,
      "tre": 757,
      "nomĠ": 758,
      "ÐµÑĽ": 759,
      "ÑĥÐ»": 760,
      "ak": 761,
      "ani": 762,
      "ÑĪ": 763,
      "ÐµÑģ": 764,
      "Ñħ": 765,
      "Ð¾ÑģÑĤÐ¸Ġ": 766,
      "),Ġ": 767,
      "ÑĺÐ": 768,
      "ÐºÐ¾ÑĺÐ": 769,
      "ÑģÐ": 770,
      "koj": 771,
      "Ð½Ð": 772,
      "Ð´Ð": 773,
      "Ð³Ð¾Ð´Ð¸Ð½Ð": 774,
      "ÑģÑ": 775,
      "ÐºÐ°Ð": 776,
      "Ð·Ð": 777,
      "godin": 778,
      "Ð±Ð¸Ð»Ð": 779,
      "Å¡t": 780,
      "Srbij": 781,
      "ÑĪÑĤÐ": 782,
      "Ð¸Ð»Ð": 783,
      "Ð¸Ð·Ð¼ÐµÑĴÑ": 784,
      "201": 785,
      "Ð¸ÑģÑĤÑĢÐ°Ð¶Ð¸Ð²Ð°ÑļÐ": 786,
      "bil": 787,
      "Ð½Ð¸ÑĺÐ": 788,
      "Ð¼Ð¾Ð¶Ð": 789,
      "200": 790,
      "ÑģÑĤÑĢÐ°Ð½Ð": 791,
      "Ð¡ÑĢÐ±Ð¸ÑĺÐ": 792,
      "moÅ¾": 793,
      "Ð¾Ð´Ð½Ð¾ÑģÐ½Ð": 794,
      "istraÅ¾ivanj": 795,
      "Ð´ÑĢÑĥÐ³Ð": 796,
      "nij": 797,
      "Ð²ÑĢÐµÐ´Ð½Ð¾ÑģÑĤÐ": 798,
      "vrednost": 799,
      "Ð¿ÑĢÐµÐ´ÑģÑĤÐ°Ð²ÑĻÐ": 800,
      "ÑģÐ°Ð¼Ð": 801,
      "odnos": 802,
      "Ð¿ÑĢÐ°Ð²Ð": 803,
      "Ð¾ÑĢÐ³Ð°Ð½Ð¸Ð·Ð°ÑĨÐ¸ÑĺÐ": 804,
      "Ð¿ÑĢÐµÐ¼Ð": 805,
      "sam": 806,
      "Ð¿Ð¾ÑģÑĤÐ¾ÑĺÐ": 807,
      "viÅ¡": 808,
      "izmeÄĳ": 809,
      "Ð´ÑĢÐ¶Ð°Ð²Ð": 810,
      "drug": 811,
      "odnosn": 812,
      "Ð¾Ð´Ð½Ð¾ÑģÐ": 813,
      "pitanj": 814,
      "ÑĤÐ": 815,
      "stran": 816,
      "kak": 817,
      "ÑģÐ¸ÑģÑĤÐµÐ¼Ð": 818,
      "predstavlj": 819,
      "Ð°Ð»Ð": 820,
      "ÑĢÐµÐ·ÑĥÐ»ÑĤÐ°ÑĤÐ": 821,
      "Ð·Ð½Ð°ÑĩÐ°ÑĺÐ½Ð": 822,
      "Ð¾Ð²Ð¾Ð": 823,
      "Ð¿Ð": 824,
      "rezultat": 825,
      "postoj": 826,
      "ÐºÐ¾ÑĺÐ¸Ð¼Ð": 827,
      "razliÄįiti": 828,
      "ÐºÐ°ÐºÐ": 829,
      "Ð²Ð¸ÑĪÐ": 830,
      "znaÄįajn": 831,
      "organizacij": 832,
      "sv": 833,
      "Ð¾ÑģÐ½Ð¾Ð²Ñ": 834,
      "ÐºÐ¾ÑĢÐ¸ÑģÑĤÐ": 835,
      "Ð³ÑĢÑĥÐ¿Ð": 836,
      "ovo": 837,
      "Ð¾Ð´Ð½Ð¾ÑģÑ": 838,
      "rad": 839,
      "ÐºÐ°Ð´Ð": 840,
      "âĢľ": 841,
      "sistem": 842,
      "ÐºÐ¾Ð": 843,
      "informacij": 844,
      "Ð±Ð¸Ð": 845,
      "osnov": 846,
      "Ð½Ð°ÑĩÐ¸Ð": 847,
      "ÐºÐ°ÑĢÐ°ÐºÑĤÐµÑĢÐ¸ÑģÑĤÐ¸ÐºÐ": 848,
      "Ð´ÐµÐ»Ð": 849,
      "bit": 850,
      "prav": 851,
      "ÑģÐ²Ð": 852,
      "ÑļÐµÐ³Ð¾Ð²Ð": 853,
      "grup": 854,
      "Ð¿Ð¸ÑĤÐ°ÑļÐ": 855,
      "Ð¾Ð½Ð": 856,
      "koncentracij": 857,
      "Ð¿Ð¾ÑģÐµÐ±Ð½Ð": 858,
      "kad": 859,
      "korist": 860,
      "ÑĤÐ°ÐºÐ": 861,
      "Ð±Ð¸ÑĤÐ": 862,
      "Ð¼Ð¾Ð³Ñ": 863,
      "ÑĢÐ°Ð´Ð": 864,
      "Ð½Ð°Ð»Ð°Ð·Ð": 865,
      "ÑĺÐµÐ´Ð½Ð": 866,
      "199": 867,
      "svoj": 868,
      "Ð±Ð": 869,
      "Ð°ÐºÑĤÐ¸Ð²Ð½Ð¾ÑģÑĤÐ": 870,
      "Ð¿ÑĢÐ¾Ð¼ÐµÐ½Ð": 871,
      "ÑĢÐ°Ð·Ð»Ð¸ÑĩÐ¸ÑĤÐ": 872,
      "Ð¸Ð¼Ð": 873,
      "proizvod": 874,
      "promen": 875,
      "Ð½Ð°ÐºÐ¾Ð": 876,
      "aktivnost": 877,
      "ÑģÐ»ÑĥÑĩÐ°ÑĺÑ": 878,
      "prem": 879,
      "naÄįi": 880,
      "treb": 881,
      "Ð°Ð½Ð°Ð»Ð¸Ð·Ð": 882,
      "ÑĤÐ°ÐºÐ¾ÑĴÐ": 883,
      "jedn": 884,
      "Ð¿ÑĢÐ": 885,
      "ÑĺÐµÐ´Ð½Ð¾Ð": 886,
      "Ð¸Ð½ÑĦÐ¾ÑĢÐ¼Ð°ÑĨÐ¸ÑĺÐ": 887,
      "Ð²ÐµÐ»Ð¸ÐºÐ": 888,
      "analiz": 889,
      "zaÅ¡tit": 890,
      ".U": 891,
      "ÑĺÐµÐ´Ð°Ð": 892,
      "razlik": 893,
      "mog": 894,
      "jedno": 895,
      "Ð¾Ð²Ð": 896,
      "nek": 897,
      "Ð½ÐµÐºÐ¾Ð»Ð¸ÐºÐ": 898,
      "velik": 899,
      "proizvodnj": 900,
      "Ð¾Ð´ÑĢÐµÑĴÐµÐ½Ð": 901,
      "karakteristik": 902,
      "sluÄįaj": 903,
      "ÑģÐ²Ð¾ÑĺÐ": 904,
      "ÑĢÐ°Ð·Ð»Ð¸ÑĩÐ¸ÑĤÐ¸Ñ": 905,
      "ÐĪÑĥÐ³Ð¾ÑģÐ»Ð°Ð²Ð¸ÑĺÐ": 906,
      "ÑĤÐ¾ÐºÐ¾Ð": 907,
      "ÑĦÑĥÐ½ÐºÑĨÐ¸ÑĺÐ": 908,
      "tak": 909,
      "Ð´Ð²Ð": 910,
      "njihov": 911,
      "potrebn": 912,
      "Ð²ÑĢÐµÐ¼Ð": 913,
      "ÑģÑĢÐ¿ÑģÐºÐ": 914,
      "ÑģÑĤÑĢÑĥÐºÑĤÑĥÑĢÐ": 915,
      "drugi": 916,
      "kojim": 917,
      "Ð¿ÑĢÐ²Ð": 918,
      "ÑģÑĤÐ°Ð½Ð¾Ð²Ð½Ð¸ÑĪÑĤÐ²Ð": 919,
      "ÑļÐ¸ÑħÐ¾Ð²Ð": 920,
      "obrazovanj": 921,
      "Ð·Ð±Ð¾Ð": 922,
      "Ð¿Ð¾Ð´Ð°ÑĤÐ°ÐºÐ": 923,
      "Ð´Ð¾Ð": 924,
      "ÐłÐµÐ¿ÑĥÐ±Ð»Ð¸ÐºÐ": 925,
      "Beograd": 926,
      "Ð·Ð°ÑĺÐµÐ´Ð½Ð¸ÑĨÐ": 927,
      "Ð¸Ð¼Ð°ÑĺÑ": 928,
      "ÑĤÑĢÐµÐ±Ð": 929,
      "Ð¼ÐµÑģÑĤÐ": 930,
      "on": 931,
      "proces": 932,
      "ljud": 933,
      "ÐĳÐµÐ¾Ð³ÑĢÐ°Ð": 934,
      "Ð¿Ð¾ÑĢÐ¾Ð´Ð¸ÑĨÐ": 935,
      "ÑĢÐ°Ð·Ð»Ð¸ÐºÐ": 936,
      "Ð¸ÑģÐ¿Ð¸ÑĤÐ°Ð½Ð¸ÐºÐ": 937,
      "mest": 938,
      "Ð¾Ð±Ð»Ð°ÑģÑĤÐ": 939,
      "Ð·Ð°ÑĪÑĤÐ¸ÑĤÐ": 940,
      "drÅ¾av": 941,
      "Ð¿ÑĢÐµÐ´ÑģÑĤÐ°Ð²ÑĻÐ°ÑĺÑ": 942,
      "njegov": 943,
      "ÑģÑĤÐ°ÑĤÐ¸ÑģÑĤÐ¸ÑĩÐºÐ": 944,
      "nako": 945,
      "im": 946,
      "materijal": 947,
      "zemlj": 948,
      "Ð±ÑĢÐ¾Ñ": 949,
      "Ð¿Ð¾Ð»Ð¸ÑĤÐ¸ÑĩÐºÐ": 950,
      "nekolik": 951,
      "podatak": 952,
      "veÄ": 953,
      "zbo": 954,
      "Ð´ÑĢÑĥÑĪÑĤÐ²Ð": 955,
      "funkcij": 956,
      "ÑĤÐ¾Ð³Ð": 957,
      "Ð²ÐµÑ": 958,
      "imaj": 959,
      "Ð½Ð¸ÑģÑ": 960,
      "Ð²ÑĢÑģÑĤÐ": 961,
      "jeda": 962,
      "Ð¿ÐµÑĢÐ¸Ð¾Ð´Ñ": 963,
      "Ð²ÑĢÐµÐ´Ð½Ð¾ÑģÑ": 964,
      "Ð¿ÑĢÐ¾ÑĤÐ¸Ð": 965,
      "razliÄįit": 966,
      "problem": 967,
      "situacij": 968,
      "ÑģÑĢÐ¿ÑģÐºÐ¾Ð": 969,
      "temperatur": 970,
      "koriÅ¡Äĩenj": 971,
      "Ð¾ÐºÐ²Ð¸ÑĢÑ": 972,
      "Ð¿Ð¾ÑĤÑĢÐµÐ±Ð½Ð": 973,
      "Ð¿ÑĢÐ¾ÑĨÐµÑģÐ": 974,
      "Ð¿ÑĢÐ¾Ð±Ð»ÐµÐ¼Ð": 975,
      "vrem": 976,
      "Ð¿ÑĢÐµÐ´ÑĥÐ·ÐµÑĽÐ": 977,
      "Ð¿ÑĢÐ¾Ð¸Ð·Ð²Ð¾Ð´Ð": 978,
      "vrednos": 979,
      "vremen": 980,
      "struktur": 981,
      "Ð¿ÑĢÐ¾Ð¸Ð·Ð²Ð¾Ð´ÑļÐ": 982,
      "posebn": 983,
      "dan": 984,
      "Ð¿Ð¾Ð»Ð¸ÑĤÐ¸ÐºÐ": 985,
      ".âĢ": 986,
      "ÑĺÐµÐ·Ð¸ÐºÐ": 987,
      "druÅ¡tv": 988,
      "Ð´ÑĢÑĥÐ³Ð¸Ñ": 989,
      "toko": 990,
      "Ð´Ð¸ÑģÐµÑĢÑĤÐ°ÑĨÐ¸ÑĺÐ": 991,
      "ÑĢÐ°Ð·Ð²Ð¾ÑĺÐ": 992,
      "Ð·Ð½Ð°ÑĩÐµÑļÐ": 993,
      "Ð¸Ð¼Ð°Ð»Ð": 994,
      "ÐºÑĥÐ»ÑĤÑĥÑĢÐ": 995,
      "statistiÄįk": 996,
      "Ð¿Ð¾ÑģÐ»ÐµÐ´Ð¸ÑĨÐ": 997,
      "ÐĳÐµÐ¾Ð³ÑĢÐ°Ð´Ñ": 998,
      "povrÅ¡in": 999,
      "odreÄĳen": 1000,
      "ÐºÑĢÐ¾Ð": 1001,
      "ÑĺÐµÑ": 1002,
      "period": 1003,
      "nalaz": 1004,
      "posl": 1005,
      "mnog": 1006,
      "svak": 1007,
      "Ð·ÐµÐ¼ÑĻÐ": 1008,
      "Ð²ÑĢÐµÐ¼ÐµÐ½Ð": 1009,
      "ÑļÐµÐ³Ð¾Ð²Ð¾Ð": 1010,
      "veÄĩ": 1011,
      "Ð½ÐµÐºÐ": 1012,
      "Ð¶Ð¸Ð²Ð¾ÑĤÐ": 1013,
      "razvoj": 1014,
      "Ð¿Ð¾Ð´ÑĢÐ°Ð·ÑĥÐ¼ÐµÐ²Ð": 1015,
      "stanj": 1016,
      "primen": 1017,
      "ÑģÑĤÑĥÐ´Ð¸ÑĺÐ": 1018,
      "Ð¿ÑĢÐ¸Ð¼ÐµÐ½Ð": 1019,
      "kompanij": 1020,
      "Republik": 1021,
      "Ð´ÑĢÑĥÑĪÑĤÐ²ÐµÐ½Ð": 1022,
      "Å¾ivot": 1023,
      "ÐºÐ°ÑģÐ½Ð¸ÑĺÐ": 1024,
      "bro": 1025,
      "Ð¿ÑĢÐ¸Ð»Ð¸ÐºÐ¾Ð": 1026,
      "Ð¿Ð¾ÑĤÑĢÐµÐ±Ð": 1027,
      "nis": 1028,
      "vrst": 1029,
      "preduzeÄĩ": 1030,
      "Ð¼Ð¾Ð³ÑĥÑĽÐ½Ð¾ÑģÑ": 1031,
      "ÑĥÐ¿Ð¾ÑĤÑĢÐµÐ±Ð": 1032,
      "potreb": 1033,
      ".Ð": 1034,
      "upravljanj": 1035,
      "svi": 1036,
      "Ð³Ð¾Ð²Ð¾ÑĢÐ": 1037,
      "bud": 1038,
      "ÑģÐ¸ÑĤÑĥÐ°ÑĨÐ¸ÑĺÐ": 1039,
      "takoÄĳ": 1040,
      "dobr": 1041,
      "joÅ": 1042,
      "ÑģÐ¼Ð¸ÑģÐ»Ñ": 1043,
      "studij": 1044,
      "Ð¸Ð½ÑģÑĤÐ¸ÑĤÑĥÑĨÐ¸ÑĺÐ": 1045,
      "Ð¿Ð¾Ð²ÑĢÑĪÐ¸Ð½Ð": 1046,
      "Ð¿Ð¾Ð": 1047,
      "predstavljaj": 1048,
      "ÑĺÐ¾Ñ": 1049,
      "svoji": 1050,
      "ÑĥÐ¿ÑĢÐ°Ð²Ð": 1051,
      "ÑĤÐµÑĢÐ¸ÑĤÐ¾ÑĢÐ¸ÑĺÐ": 1052,
      "âĢĿ": 1053,
      "tog": 1054,
      "Ð¼Ð°ÑĤÐµÑĢÐ¸ÑĺÐ°Ð»Ð": 1055,
      ".ÐľÐµÑĴÑĥÑĤÐ¸Ð": 1056,
      "Ð¿ÑĢÐµÐºÐ": 1057,
      "ÑĢÐ°Ð·Ð»Ð¸ÑĩÐ¸ÑĤÐ¸Ð": 1058,
      "ÐºÐ¾Ð½ÑĨÐµÐ½ÑĤÑĢÐ°ÑĨÐ¸ÑĺÐ": 1059,
      "Ð²ÐµÐºÐ": 1060,
      "ÑĥÐ¿ÑĢÐ°Ð²ÑĻÐ°ÑļÐ": 1061,
      "Ð¼Ð¾Ð³ÑĥÑĽÐ½Ð¾ÑģÑĤÐ": 1062,
      "dv": 1063,
      "trÅ¾iÅ¡t": 1064,
      "prv": 1065,
      "Ð¾Ð±ÑĢÐ°Ð·Ð¾Ð²Ð°ÑļÐ": 1066,
      "ÐºÐ¾ÑĺÐ¾Ñ": 1067,
      "Ð´ÑĢÑĥÐ³Ð¾Ð": 1068,
      "ÑĢÐ°Ð·Ð²Ð¾Ñ": 1069,
      "ÑĤÐ¾Ð": 1070,
      "Ð¼Ð½Ð¾Ð³Ð": 1071,
      "ÐºÐ¾ÑĺÑ": 1072,
      "posledic": 1073,
      "reÅ¡enj": 1074,
      "program": 1075,
      "Ð¿ÑĢÐ¸ÐºÐ°Ð·Ð°Ð½Ð": 1076,
      "oblast": 1077,
      "upotreb": 1078,
      "ÑģÐ²Ð°ÐºÐ": 1079,
      "moguÄĩ": 1080,
      "ispitanik": 1081,
      "Ð¼ÐµÑĢÐ": 1082,
      "Ð¾ÑģÐ½Ð¾Ð²Ð½Ð": 1083,
      "ÑĥÐ³Ð»Ð°Ð²Ð½Ð¾Ð": 1084,
      "proti": 1085,
      "Ð¼Ð¾Ð´ÐµÐ»Ð": 1086,
      "ÑĺÐµÐ´Ð¸Ð½Ð¸ÑĨÐ": 1087,
      "Ð½ÐµÐ³Ð": 1088,
      "okvir": 1089,
      "ispitivanj": 1090,
      "politik": 1091,
      "ÑĤÐ¾Ð¼Ð": 1092,
      "vod": 1093,
      "Ð¿ÑĢÐ¸Ð¼ÐµÑ": 1094,
      "pokazuj": 1095,
      "Ð½Ð°ÑĺÑĩÐµÑĪÑĽÐ": 1096,
      "Ð½Ð°ÑĨÐ¸Ð¾Ð½Ð°Ð»Ð½Ð": 1097,
      "koji": 1098,
      "dana": 1099,
      "porodic": 1100,
      "Ð¼Ð¾Ð³Ð»Ð": 1101,
      "svo": 1102,
      "ÑģÐ¸ÑģÑĤÐµÐ": 1103,
      "del": 1104,
      "Ministarstv": 1105,
      "ÑĩÐµÑģÑĤÐ": 1106,
      "ponaÅ¡anj": 1107,
      "energij": 1108,
      "Ð¼Ð¾Ð³ÑĥÑĽÐ": 1109,
      "kojo": 1110,
      "198": 1111,
      "Ð¿Ð¾ÑģÑĤÐ¾ÑĺÐ°ÑļÐ": 1112,
      "Ð²ÐµÐ·Ð": 1113,
      "ÐºÑĢÐ¸Ð²Ð¸ÑĩÐ½Ð¾Ð": 1114,
      "ÐºÐ°ÑĤÐµÐ³Ð¾ÑĢÐ¸ÑĺÐ": 1115,
      "Ð¿Ð¾ÑģÐ»Ð": 1116,
      "Ð¿ÑĢÐµÑĤÑħÐ¾Ð´Ð½Ð": 1117,
      "ÑģÐ²Ð¾ÑĺÐ¸Ð": 1118,
      "ÑĤÐµÐ¼Ð¿ÐµÑĢÐ°ÑĤÑĥÑĢÐ": 1119,
      "Äĩelij": 1120,
      "neg": 1121,
      "ÑĩÐ¸ÑļÐµÐ½Ð¸ÑĨÐ": 1122,
      "sm": 1123,
      "Ð¸ÑģÑĤÐ¾ÑĢÐ¸ÑĺÐ": 1124,
      "ÑģÑĢÐµÐ´Ð¸Ð½Ð": 1125,
      "Ð¿Ð¾Ð½Ð°ÑĪÐ°ÑļÐ": 1126,
      "manj": 1127,
      "pokazal": 1128,
      "nivo": 1129,
      "Ð¼ÐµÑĤÐ¾Ð´Ð": 1130,
      "model": 1131,
      "moguÄĩnos": 1132,
      "Ð½ÐµÐ¾Ð¿ÑħÐ¾Ð´Ð½Ð": 1133,
      "sredin": 1134,
      "drugo": 1135,
      "ÑĦÐ°ÐºÑĤÐ¾ÑĢÐ": 1136,
      "Ð¿ÑĢÐ¸ÑĢÐ¾Ð´Ð": 1137,
      "ÐµÐºÐ¾Ð½Ð¾Ð¼ÑģÐºÐ": 1138,
      "neÅ¡t": 1139,
      ".MeÄĳuti": 1140,
      "prek": 1141,
      "komunikacij": 1142,
      "ÑĽÐ": 1143,
      "Ð²ÐµÐ¾Ð¼Ð": 1144,
      "Ð±ÐµÐ": 1145,
      "Ð½Ð¾Ð²Ð": 1146,
      "Ð´ÑĢÑĥÐ³Ð¸Ð": 1147,
      "ÑĤÐµÐ¾ÑĢÐ¸ÑĺÐ": 1148,
      "ÑĤÑĢÐµÐ±Ð°Ð»Ð": 1149,
      "prikazan": 1150,
      "ÐºÑļÐ¸Ð¶ÐµÐ²Ð½Ð¾ÑģÑĤÐ": 1151,
      "ÑģÐ²Ð¾Ð": 1152,
      "poveÄĩanj": 1153,
      "politiÄįk": 1154,
      "Ð¸ÑģÑĤÐ": 1155,
      "Ð²ÐµÑĽÐ": 1156,
      "trebal": 1157,
      "kontrol": 1158,
      "zajednic": 1159,
      "pacijenat": 1160,
      "komentar": 1161,
      "tehnologij": 1162,
      "uslovim": 1163,
      "Ð½Ð°Ð²Ð¾Ð´Ð": 1164,
      "Ð³Ð´Ð": 1165,
      "kultur": 1166,
      "sklad": 1167,
      "Ð¸ÑģÑĤÐ¾Ð²ÑĢÐµÐ¼ÐµÐ½Ð": 1168,
      "prostor": 1169,
      "Ð·Ð°ÑħÑĤÐµÐ²Ð": 1170,
      "neophodn": 1171,
      "priliko": 1172,
      "najÄįeÅ¡Äĩ": 1173,
      "Äįinjenic": 1174,
      "uslov": 1175,
      "imal": 1176,
      "sadrÅ¾aj": 1177,
      "ÑĪÐºÐ¾Ð»Ð": 1178,
      ".N": 1179,
      "zahtev": 1180,
      "Ð°ÑĥÑĤÐ¾ÑĢÐ": 1181,
      "ÑĥÑģÐ»Ð¾Ð²Ð": 1182,
      "najbolj": 1183,
      "Ð¿Ð¾ÐºÐ°Ð·Ð°Ð»Ð": 1184,
      "Ð¿ÑĢÐ°ÐºÑģÐ": 1185,
      "ÐºÐ¾ÑĢÐ¸ÑĪÑĽÐµÑļÐ": 1186,
      "Ð²Ð»Ð°ÑģÑĤÐ": 1187,
      "metod": 1188,
      "ÐºÐ²Ð°Ð»Ð¸ÑĤÐµÑĤÐ": 1189,
      "sledeÄĩ": 1190,
      "Ð¼ÐµÑĴÑĥÐ½Ð°ÑĢÐ¾Ð´Ð½Ð": 1191,
      "miÅ¡ljenj": 1192,
      "reka": 1193,
      "kvalitet": 1194,
      "ÑĥÑĤÐ¸ÑĨÐ°Ñ": 1195,
      "202": 1196,
      "ÑģÐ»ÐµÐ´ÐµÑĽÐ": 1197,
      "Ð»Ð¸ÑĤÐµÑĢÐ°ÑĤÑĥÑĢÐ": 1198,
      "Ð¾ÑģÑĤÐ°Ð»Ð": 1199,
      "ÑĥÑģÐ»Ð¾Ð²Ð¸Ð¼Ð": 1200,
      "odluk": 1201,
      "moguÄĩnost": 1202,
      "kaÅ¾": 1203,
      "Ð¾Ð±Ð·Ð¸ÑĢÐ¾Ð": 1204,
      "Ð´Ð°Ð½Ð": 1205,
      "ÑģÑĤÐ°Ð½Ð¾Ð²Ð½Ð¸ÐºÐ": 1206,
      "Ð¾Ð´Ð»ÑĥÐºÐ": 1207,
      "najveÄĩ": 1208,
      "koliÄįin": 1209,
      "veom": 1210,
      "njihovo": 1211,
      "ÑĻÑĥÐ´Ð": 1212,
      "druÅ¡tven": 1213,
      "Ð¿Ð¾Ð´ÑĢÑĥÑĩÑĺÐ": 1214,
      "kro": 1215,
      "Ð¾ÐºÐ": 1216,
      "Ð½Ð°ÑĢÐ¾ÑĩÐ¸ÑĤÐ": 1217,
      "Ð¿ÑĢÐ¾ÑģÑĤÐ¾ÑĢÐ": 1218,
      "Ð¾Ð²Ð°Ñ": 1219,
      "iskustv": 1220,
      "kolik": 1221,
      "dalj": 1222,
      "Ð²Ð¾Ð´Ð": 1223,
      "svako": 1224,
      "ÑĩÐ»Ð°Ð½Ð¾Ð²Ð": 1225,
      "Ð»Ð¸ÑĨÐ": 1226,
      "podruÄįj": 1227,
      "svet": 1228,
      "ÑģÑĤÐ°ÑļÐ": 1229,
      "ÑģÑĤÑĢÐ°ÑĤÐµÐ³Ð¸ÑĺÐ": 1230,
      "osob": 1231,
      "saradnj": 1232,
      "zemljiÅ¡t": 1233,
      "tom": 1234,
      "graÄĳan": 1235,
      "Ð¸ÑģÐ¿Ð¸ÑĤÐ¸Ð²Ð°ÑļÐ": 1236,
      "ÑĩÐ¸ÑĺÐ": 1237,
      "ÑĤÑĢÐ": 1238,
      "Ð´ÐµÐ": 1239,
      "kategorij": 1240,
      "ÑĥÑĩÐµÐ½Ð¸ÐºÐ": 1241,
      "ÑĥÐ³Ð¾Ð²Ð¾ÑĢÐ": 1242,
      "odgovarajuÄĩ": 1243,
      "ÑĤÐµÑħÐ½Ð¾Ð»Ð¾Ð³Ð¸ÑĺÐ": 1244,
      "Ð½Ð°Ð²ÐµÐ´ÐµÐ½Ð": 1245,
      "prethodn": 1246,
      "ÑģÐºÐ»Ð°Ð´Ñ": 1247,
      "pomoÄĩ": 1248,
      "Å¡kol": 1249,
      "mogl": 1250,
      "ÑĩÐ¸Ð½Ð": 1251,
      "Ð³Ð»Ð°Ð³Ð¾Ð»Ð": 1252,
      "podrazumev": 1253,
      "ÑĢÐµÑĪÐµÑļÐ": 1254,
      "Ð³ÑĢÐ°Ð½Ð¸ÑĨÐ": 1255,
      "ÑĺÐµÐ·Ð¸ÐºÑ": 1256,
      "podrÅ¡k": 1257,
      "ÑĤÑĢÐ¾ÑĪÐºÐ¾Ð²Ð": 1258,
      "ovi": 1259,
      "Ð½Ð°ÑĺÐ²ÐµÑĽÐ": 1260,
      "vez": 1261,
      "disertacij": 1262,
      "ÑģÐ¾ÑĨÐ¸ÑĺÐ°Ð»Ð½Ð": 1263,
      "naÅ¡": 1264,
      "faktor": 1265,
      "broj": 1266,
      "njegovo": 1267,
      "Ð¿ÑĢÐ°Ð²Ð¸Ð»Ð": 1268,
      "zdravlj": 1269,
      "ÑļÐ¸ÑħÐ¾Ð²Ð¾Ð": 1270,
      "prisustv": 1271,
      "uprav": 1272,
      "ÐķÐ²ÑĢÐ¾Ð¿ÑģÐºÐ": 1273,
      "ÐºÐ¾ÑĺÐ¸Ñ": 1274,
      "ÑĥÐ¼ÐµÑĤÐ½Ð¾ÑģÑĤÐ": 1275,
      "proble": 1276,
      "mal": 1277,
      "Ð¿Ð¾Ð³Ð»ÐµÐ´Ñ": 1278,
      "Ð±ÐµÐ·Ð±ÐµÐ´Ð½Ð¾ÑģÑĤÐ": 1279,
      "postupk": 1280,
      "bolest": 1281,
      "stvar": 1282,
      "uslug": 1283,
      "Ð¿Ð¾ÑĤÐ¿ÑĥÐ½Ð": 1284,
      "dovoljn": 1285,
      "smanjenj": 1286,
      "ist": 1287,
      "ÑĨÑĢÐºÐ²Ð": 1288,
      "mer": 1289,
      "Ð¿ÑĢÐ°Ð²Ð½Ð": 1290,
      "jezik": 1291,
      "sadrÅ¾": 1292,
      "ÐºÐ¾Ð¼ÑĥÐ½Ð¸ÐºÐ°ÑĨÐ¸ÑĺÐ": 1293,
      "ukazuj": 1294,
      "predsedni": 1295,
      "ukolik": 1296,
      "ÐºÐ¾Ð½ÑģÑĤÑĢÑĥÐºÑĨÐ¸ÑĺÐ": 1297,
      "ÑģÑĤÐ²Ð°ÑĢÐ": 1298,
      "ÑģÐ²ÐµÐ³Ð": 1299,
      "dec": 1300,
      "ÑĢÐµÐ·ÑĥÐ»ÑĤÐ°Ñ": 1301,
      "razvo": 1302,
      "ekonomsk": 1303,
      "ÐµÐ½ÐµÑĢÐ³Ð¸ÑĺÐ": 1304,
      "Ð´Ð¾Ð±ÑĢÐ": 1305,
      "potpun": 1306,
      "Ð¾Ð±Ð»Ð¸ÐºÐ": 1307,
      "veliÄįin": 1308,
      "Beogra": 1309,
      "ÑĥÐºÑĻÑĥÑĩÑĥÑĺÑĥÑĽÐ": 1310,
      "ÑģÐ²Ð¸Ñ": 1311,
      "Ð¼Ð°ÑļÐ": 1312,
      "ÑģÐ¼Ð°ÑĤÑĢÐ": 1313,
      "ÑĥÐºÐ¾Ð»Ð¸ÐºÐ": 1314,
      "Ð´Ð¾Ð»Ð°Ð·Ð": 1315,
      "Jugoslavij": 1316,
      "teritorij": 1317,
      "ÑģÐ²Ð¾ÑĺÑ": 1318,
      "institucij": 1319,
      "ÐµÐ»ÐµÐ¼ÐµÐ½ÑĤÐ": 1320,
      "nem": 1321,
      "197": 1322,
      "ÑģÐ°Ð´ÑĢÐ¶Ð°ÑĺÐ": 1323,
      "troÅ¡kov": 1324,
      "populacij": 1325,
      "obavez": 1326,
      "ÑĥÑĤÐ¸ÑĨÐ°ÑĺÐ": 1327,
      "najviÅ¡": 1328,
      "Äįest": 1329,
      "ÐºÐ¾Ð¼Ð¿Ð¾Ð½ÐµÐ½ÑĤÐ": 1330,
      "ostal": 1331,
      "siste": 1332,
      "projekt": 1333,
      "ÐºÐ¾Ð½ÑĤÐµÐºÑģÑĤÑ": 1334,
      ".TakoÄĳ": 1335,
      "sad": 1336,
      "navod": 1337,
      "ÐºÐ¾ÑĺÐµÐ": 1338,
      "poslov": 1339,
      "Ð½Ð¸Ð²Ð¾Ñ": 1340,
      "ÑģÑĢÐµÐ´ÑģÑĤÐ²Ð": 1341,
      "Ð¿ÑĢÐ¾ÑĨÐµÑ": 1342,
      "mesec": 1343,
      "zavisnost": 1344,
      "ÑĩÐµÑĤÐ¸ÑĢÐ": 1345,
      "Ð¿Ð¾ÑģÑĤÑĥÐ¿ÐºÐ": 1346,
      "Ð·Ð°Ð²Ð¸ÑģÐ½Ð¾ÑģÑĤÐ": 1347,
      "ÑĢÐ°Ð·Ð»Ð¸ÐºÑ": 1348,
      "Ð¿Ð¾ÑĢÐµÐ": 1349,
      "ÑģÐ°Ð": 1350,
      "poÄįetk": 1351,
      "Ð¿Ð¾ÑģÐ»Ð¾Ð²Ð": 1352,
      "komponent": 1353,
      "Ð¿ÑĢÐ²Ð¾Ð": 1354,
      "Ð¿Ð¾ÑģÑĤÑĥÐ¿ÐºÑ": 1355,
      "ÑģÐ²ÐµÑĤÑģÐºÐ¾Ð": 1356,
      "osnovn": 1357,
      "predsednik": 1358,
      "Ð¼ÐµÑĴÑ": 1359,
      "Ð¿Ð¸ÑĤÐ°ÑļÑ": 1360,
      "lic": 1361,
      "Ð¿ÑĢÐµÐ´Ð¼ÐµÑĤÐ": 1362,
      "Ð¾ÑģÐ½Ð¾Ð²Ð": 1363,
      "kraj": 1364,
      "Ð¿ÑĢÐ¸ÑģÑĤÑĥÐ": 1365,
      ".ÐĿÐ": 1366,
      "Å¾ivotn": 1367,
      "ÐķÐ²ÑĢÐ¾Ð¿Ð": 1368,
      "socijaln": 1369,
      "procen": 1370,
      "stanovniÅ¡tv": 1371,
      "ÑģÐ»ÑĥÑĩÐ°ÑĺÐµÐ²Ð¸Ð¼Ð": 1372,
      "ÑĢÐ°Ð·Ð»Ð¾Ð³Ð": 1373,
      "Ð¡ÑĢÐ¿ÑģÐºÐ": 1374,
      "Ð³Ð»Ð°Ð²Ð½Ð": 1375,
      "dolaz": 1376,
      "Ð¸Ð½ÑĤÐµÑĢÐµÑģÐ": 1377,
      "Ð¿Ð¾ÑĺÐ°Ð²Ð": 1378,
      "Ð¶ÐµÐ½Ð": 1379,
      "Ð¾Ð´Ð³Ð¾Ð²Ð°ÑĢÐ°ÑĺÑĥÑĽÐ": 1380,
      "istorij": 1381,
      "Ð¼Ð¾ÑĢÐ": 1382,
      "ÐºÑĢÐ¸ÑĤÐµÑĢÐ¸ÑĺÑĥÐ¼Ð": 1383,
      "194": 1384,
      "ÐºÐ¾Ð½ÑĤÑĢÐ¾Ð»Ð": 1385,
      "ÑģÐ½Ð°Ð³Ð": 1386,
      "srpsk": 1387,
      "grad": 1388,
      "Ð¿Ð¾ÐºÐ°Ð·ÑĥÑĺÐ": 1389,
      "''": 1390,
      "ÑĺÐµÑģÑĤÐ": 1391,
      "Ð½Ð°ÑĺÐ²Ð¸ÑĪÐ": 1392,
      "Ð·ÐµÐ¼ÑĻÐ¸ÑĪÑĤÐ": 1393,
      "ÑĢÐ°ÑĤÐ": 1394,
      "ova": 1395,
      "oblik": 1396,
      "ÑĤÐ¸Ð": 1397,
      "Ð´Ð¾Ð³Ð°ÑĴÐ°ÑĺÐ": 1398,
      "poslovanj": 1399,
      "Ð¿ÑĢÐ¾Ð³ÑĢÐ°Ð¼Ð": 1400,
      "Ð²ÐµÐ»Ð¸ÑĩÐ¸Ð½Ð": 1401,
      "Ð¿Ð¾Ð·Ð½Ð°ÑĤÐ": 1402,
      "Ð´Ð¸ÑĢÐµÐºÑĤÐ½Ð": 1403,
      "govor": 1404,
      "Ð¸ÑģÐºÑĥÑģÑĤÐ²Ð": 1405,
      "Ð¿Ð°ÑĨÐ¸ÑĺÐµÐ½Ð°ÑĤÐ": 1406,
      "zdravstven": 1407,
      "ÐµÐ»ÐµÐ¼ÐµÐ½Ð°ÑĤÐ": 1408,
      "sredstv": 1409,
      "moÅ¾et": 1410,
      "ÑģÐ¿Ð¾ÑģÐ¾Ð±Ð½Ð¾ÑģÑĤÐ": 1411,
      "ÑģÐ°Ð´ÑĢÐ¶Ð": 1412,
      "Ð·Ð°ÑĤÐ¸Ð": 1413,
      "Ð±ÑĢÐ¾ÑĺÐ": 1414,
      "Ð½Ð°ÑĩÐ¸Ð½Ð": 1415,
      "ÑĥÐºÐ°Ð·ÑĥÑĺÐ": 1416,
      "ÐľÐµÑĴÑĥÑĤÐ¸Ð": 1417,
      "Ð¾ÑģÐ¾Ð±Ð": 1418,
      "korisnik": 1419,
      "ok": 1420,
      "ÑĢÐµÑĩÐ": 1421,
      "interakcij": 1422,
      "naÄįin": 1423,
      "Ð¿ÐµÑĢÐ¸Ð¾Ð´Ð": 1424,
      "Ð±ÑĥÐ´Ð": 1425,
      "Ð·Ð°ÑĺÐµÐ´Ð½Ð¸ÑĩÐºÐ": 1426,
      "fotografij": 1427,
      "uglavno": 1428,
      "reakcij": 1429,
      "gd": 1430,
      "ÐºÑĢÐ¸Ð²Ð¸ÑĩÐ½Ð": 1431,
      "jedinic": 1432,
      "trenutk": 1433,
      "zakon": 1434,
      "ÑģÐ»ÑĥÑĩÐ°ÑĺÐµÐ²Ð": 1435,
      "Ð·Ð°ÑĺÐµÐ´Ð½Ð": 1436,
      "ÑģÐ²Ð°ÐºÐ¾Ð": 1437,
      "Ð´Ð°Ð½Ð°Ñ": 1438,
      "ÐºÑļÐ¸Ð³Ð": 1439,
      "Ð£Ð½Ð¸Ð²ÐµÑĢÐ·Ð¸ÑĤÐµÑĤÐ": 1440,
      "vid": 1441,
      "prime": 1442,
      "izgradnj": 1443,
      "Ð¿ÑĢÐ¸Ð¼ÐµÑĢÐ": 1444,
      "druÅ¡tveni": 1445,
      "Ð¼Ð¸ÑĪÑĻÐµÑļÐ": 1446,
      "veliko": 1447,
      "ukljuÄįujuÄĩ": 1448,
      "ÑģÐ²ÐµÑĤÐ": 1449,
      "ÑĺÐµÐ´Ð¸Ð½Ð": 1450,
      "ï¿": 1451,
      "mor": 1452,
      "Ð¾Ð´Ð³Ð¾Ð²Ð¾ÑĢÐ": 1453,
      "bolj": 1454,
      "imat": 1455,
      "Ð°ÐºÐ": 1456,
      "najmanj": 1457,
      "ÑĢÐµÐ»Ð°ÑĤÐ¸Ð²Ð½Ð": 1458,
      "znanj": 1459,
      "Äįetir": 1460,
      ".Ð¢Ð°ÐºÐ¾ÑĴÐ": 1461,
      "Ð¼ÐµÑĴÑĥÐ½Ð°ÑĢÐ¾Ð´Ð½Ð¾Ð": 1462,
      "ÐºÑĥÐ»ÑĤÑĥÑĢÐ½Ð": 1463,
      "kiselin": 1464,
      "milion": 1465,
      "Ð¾Ð²Ð¸Ñ": 1466,
      "Ð²ÐµÐ»Ð¸ÐºÐ¾Ð": 1467,
      "Ð¿Ð¾ÑĤÐ¿ÑĥÐ½Ð¾ÑģÑĤÐ": 1468,
      "ÑĺÑĥÐ³Ð¾ÑģÐ»Ð¾Ð²ÐµÐ½ÑģÐºÐ": 1469,
      "postojanj": 1470,
      "ÐľÐ¸Ð½Ð¸ÑģÑĤÐ°ÑĢÑģÑĤÐ²Ð": 1471,
      "ÑģÐµÐ±Ð": 1472,
      "finansijsk": 1473,
      "Ð·Ð½Ð°ÑļÐ": 1474,
      "Ð½ÐµÐ¼Ð": 1475,
      "Å¾en": 1476,
      "Evrop": 1477,
      "Ð¿Ð¾Ð²ÐµÐ·Ð°Ð½Ð": 1478,
      "Ð¿Ð¾ÑģÑĤÐ°Ð»Ð": 1479,
      "Ð¿Ð¾ÑģÑĤÑĥÐ¿Ð°Ð": 1480,
      "odgovor": 1481,
      "Ð¾Ð¿ÑĪÑĤÐ¸Ð½Ð": 1482,
      "utica": 1483,
      "ÑģÑĤÐ²Ð°ÑĢÐ°ÑļÐ": 1484,
      "strategij": 1485,
      "priÄį": 1486,
      "Ð¸ÑģÑĤÐ¾ÑĢÐ¸ÑĺÑģÐºÐ": 1487,
      "Ð´ÑĢÐ¶Ð°Ð²Ð½Ð": 1488,
      "dodatn": 1489,
      "ÑģÐ»Ð¾Ð±Ð¾Ð´Ð": 1490,
      "Ð·Ð°ÐºÐ¾Ð½Ð": 1491,
      "ÑĦÐ¸Ð½Ð°Ð½ÑģÐ¸ÑĺÑģÐºÐ": 1492,
      "dobijen": 1493,
      ".00": 1494,
      "Ð¿ÑĢÐ¾Ð±Ð»ÐµÐ": 1495,
      "Ð¿Ð¾Ð²ÐµÑĽÐ°ÑļÐ": 1496,
      "Ð½ÐµÐ¿Ð¾ÑģÑĢÐµÐ´Ð½Ð": 1497,
      "Äįij": 1498,
      "ÐºÐ¾Ð¼Ð": 1499,
      "odrÅ¾avanj": 1500,
      ".1": 1501,
      "prvo": 1502,
      "Ð½Ð°ÑĨÐ¸Ð¾Ð½Ð°Ð»Ð½Ð¾Ð": 1503,
      "ÑģÐ»Ð¸ÐºÐ": 1504,
      "Ð¿ÑĢÐ¸ÑģÑĤÑĥÐ¿Ð": 1505,
      "obziro": 1506,
      "Ð¿Ð¾Ð·Ð¸ÑĨÐ¸ÑĺÐ": 1507,
      "Ð´Ð°ÑĻÐ": 1508,
      "Ð¿ÑĢÐ¾ÑģÑĤÐ¾ÑĢÑ": 1509,
      "neÄĩ": 1510,
      "direktn": 1511,
      "Ð½ÐµÑĪÑĤÐ": 1512,
      "Ð¼Ð°Ð»Ð": 1513,
      "Ð½Ð°ÑĢÐ¾Ð´Ð": 1514,
      "ÐºÐ¾ÑĺÐ¸Ð": 1515,
      "smisl": 1516,
      "iskljuÄįiv": 1517,
      "Ð²Ð»Ð°Ð´Ð": 1518,
      "Ð½Ð°ÑģÑĤÐ°Ð²Ð": 1519,
      "Ð¿ÑĢÐ¸ÑģÑĥÑģÑĤÐ²Ð": 1520,
      "put": 1521,
      "osiguranj": 1522,
      "mreÅ¾": 1523,
      "ÑĤÑĢÐ°Ð´Ð¸ÑĨÐ¸Ð¾Ð½Ð°Ð»Ð½Ð": 1524,
      "10": 1525,
      "Äįlan": 1526,
      "Ð¥ÐµÑĢÑĨÐµÐ³Ð¾Ð²Ð¸Ð½Ð": 1527,
      "ÐºÑĢÐ°ÑĺÑ": 1528,
      "ÑĥÐ²ÐµÐ": 1529,
      ".Ov": 1530,
      "Ð¾Ð±Ð°Ð²ÐµÐ·Ð": 1531,
      "Ð¾Ð´ÑĢÐµÑĴÐµÐ½Ð¾Ð": 1532,
      "sredstav": 1533,
      "praks": 1534,
      "ÑĺÐµÐ·Ð¸Ð": 1535,
      "seb": 1536,
      "pozitivn": 1537,
      "realizacij": 1538,
      "ÑĺÐ°Ð²Ð½Ð": 1539,
      "uve": 1540,
      "Ð³ÑĢÐ°Ð´Ð": 1541,
      "njihovi": 1542,
      "Ð·Ð°Ð¿Ð¾ÑģÐ»ÐµÐ½Ð¸Ñ": 1543,
      "veÄĩin": 1544,
      "nji": 1545,
      "Äįin": 1546,
      "Ð¶Ð¸Ð²Ð¾Ñ": 1547,
      "Ð¸ÑģÐºÑĻÑĥÑĩÐ¸Ð²Ð": 1548,
      "Ð¸Ð½ÑĤÐµÑĢÐ°ÐºÑĨÐ¸ÑĺÐ": 1549,
      "ÑĽÐµÐ»Ð¸ÑĺÐ": 1550,
      "Äįlanov": 1551,
      "Ð¾Ð¼Ð¾Ð³ÑĥÑĽÐ°Ð²Ð": 1552,
      "Ð²ÐµÑĽÐ¸Ð½Ð": 1553,
      "Ð´ÐµÐ»Ñ": 1554,
      ".Ukolik": 1555,
      "Rusij": 1556,
      "uticaj": 1557,
      "ÐºÐ¾ÑĢÐ¸ÑĪÑĽÐµÐ½Ð": 1558,
      "ÐºÐ¾Ð¼Ð¿Ð°Ð½Ð¸ÑĺÐ": 1559,
      "pojav": 1560,
      "uÄįenik": 1561,
      "proce": 1562,
      "196": 1563,
      "Ð¸Ð½Ð´ÑĥÑģÑĤÑĢÐ¸ÑĺÐ": 1564,
      "sadrÅ¾a": 1565,
      "aktivnos": 1566,
      "Ð³Ð": 1567,
      "znaÄį": 1568,
      "roditelj": 1569,
      "ulog": 1570,
      "(200": 1571,
      "nacionaln": 1572,
      "Ð¾Ð³ÑĢÐ°Ð½Ð¸ÑĩÐµÑļÐ": 1573,
      "ÑĥÐºÑĥÐ¿Ð½Ð": 1574,
      "koriÅ¡Äĩen": 1575,
      "Ð¿ÑĢÐµÐ´ÑģÑĤÐ°Ð²ÑĻÐµÐ½Ð": 1576,
      "ÑĥÐ»Ð¾Ð³Ñ": 1577,
      "sveg": 1578,
      "Ð¿Ð¾ÐºÐ°Ð·ÑĥÑĺÑ": 1579,
      "ÑĢÐ°Ð·ÑĥÐ¼ÐµÐ²Ð°ÑļÐ": 1580,
      "ÑĢÐ°Ð´Ð¾Ð²Ð": 1581,
      "Ð¾Ð´Ð½Ð¾Ñ": 1582,
      "Ð²Ð°ÑĢÐ¸ÑĺÐ°Ð±Ð»Ð": 1583,
      "Ð·ÐµÐ¼Ð°ÑĻÐ": 1584,
      "Ð´ÐµÑĨÐ": 1585,
      "Ð¿Ð¾Ð¿ÑĥÐ»Ð°ÑĨÐ¸ÑĺÐ": 1586,
      "Ð·Ð½Ð°ÑĩÐ": 1587,
      "Ukrajin": 1588,
      "koristit": 1589,
      "poslednj": 1590,
      "nastav": 1591,
      "zaposleni": 1592,
      "merenj": 1593,
      "visok": 1594,
      "nedelj": 1595,
      "istovremen": 1596,
      "okruÅ¾enj": 1597,
      "prirod": 1598,
      "ÐºÑĢÐµÑĤÐ°ÑļÐ": 1599,
      "utiÄį": 1600,
      "Ð½Ð°Ð": 1601,
      "parametar": 1602,
      "Ð¾ÑĢÐ³Ð°Ð½Ð": 1603,
      "iznos": 1604,
      "ÐºÐ¾Ð»Ð¸ÑĩÐ¸Ð½Ð": 1605,
      "ÑģÐ¼Ð": 1606,
      "vaÅ¾n": 1607,
      "pozicij": 1608,
      "Ð¸ÑģÑĤÑĢÐ°Ð¶Ð¸Ð²Ð°ÑļÑ": 1609,
      "Ð¾Ð±ÑĥÑħÐ²Ð°ÑĤÐ": 1610,
      "Ð¿Ð¾Ð·Ð¸ÑĤÐ¸Ð²Ð½Ð": 1611,
      "ÑĤÑĢÐ°Ð´Ð¸ÑĨÐ¸ÑĺÐ": 1612,
      "Ð±Ð¾Ð»ÐµÑģÑĤÐ": 1613,
      "Ð´Ð¾Ð²Ð¾ÑĻÐ½Ð": 1614,
      "Ð¿Ð¾Ð»Ð¾Ð²Ð¸Ð½Ð": 1615,
      "snag": 1616,
      "sluÄįajev": 1617,
      "formiranj": 1618,
      "rezulta": 1619,
      "razumevanj": 1620,
      "Ð¿Ð¾ÑģÑĤÐ°ÑĺÐ": 1621,
      "Å¾ivo": 1622,
      "predmet": 1623,
      "kuÄĩ": 1624,
      "Ð¿Ð¾ÑĺÐµÐ´Ð¸Ð½Ð¸Ñ": 1625,
      "ÐĿÐ": 1626,
      "tr": 1627,
      "ÑļÐµÐ³Ð¾Ð": 1628,
      "ÑĢÐ°Ð´Ñ": 1629,
      "korelacij": 1630,
      "odreÄĳivanj": 1631,
      "izbor": 1632,
      "pravil": 1633,
      "Ð¿ÑĢÐµÐ´ÑģÑĤÐ°Ð²Ð": 1634,
      "razlog": 1635,
      "industrij": 1636,
      "ÑļÐµÐ½Ð": 1637,
      "Ð¿ÑĢÐµÑĤÐ¿Ð¾ÑģÑĤÐ°Ð²ÐºÐ": 1638,
      "granic": 1639,
      "doprinos": 1640,
      "ÑģÐµÐ¿ÑĤÐµÐ¼Ð±ÑĢÐ": 1641,
      "ÑĢÐ°Ð·Ð²Ð¾ÑĺÑ": 1642,
      "ond": 1643,
      "naroÄįit": 1644,
      "ÐºÐ¾ÑĢÐµÐ»Ð°ÑĨÐ¸ÑĺÐ": 1645,
      "meÄĳunarodn": 1646,
      "ÑģÑĢÐµÐ´ÑģÑĤÐ°Ð²Ð": 1647,
      "Ð¢Ð°Ð±ÐµÐ»Ð": 1648,
      "sprovoÄĳenj": 1649,
      "kasnij": 1650,
      "Ð·Ð½Ð°ÑĩÐ°ÑĺÐ": 1651,
      ".ÐŀÐ²Ð": 1652,
      "Ð¿ÐµÑĢÑĦÐ¾ÑĢÐ¼Ð°Ð½ÑģÐ": 1653,
      ".godin": 1654,
      "ÑĺÐ°ÑģÐ½Ð": 1655,
      "Ð¼Ð¾Ð´ÐµÐ": 1656,
      "jednostavn": 1657,
      "Evropsk": 1658,
      "Ð½Ð°ÑĺÐ±Ð¾ÑĻÐ": 1659,
      "Ð¿Ð¾Ð»Ð¸ÑĤÐ¸ÑĩÐºÐ¾Ð": 1660,
      "Ð¿Ð¾ÑģÐ»ÐµÐ´ÑļÐ": 1661,
      "ÑĥÑģÐ»ÑĥÐ³Ð": 1662,
      "ÑĩÐµÐ¼Ñ": 1663,
      "pore": 1664,
      "objekt": 1665,
      "Ð´Ð¾ÑĪÐ»Ð": 1666,
      "Ð¸Ð´ÐµÐ½ÑĤÐ¸ÑĤÐµÑĤÐ": 1667,
      "Ð¿Ð°ÑĢÐ°Ð¼ÐµÑĤÐ°ÑĢÐ": 1668,
      "jest": 1669,
      "Ð·Ð½Ð°ÑĩÐ°Ñ": 1670,
      "Ð¿ÑĢÐµÐ´ÑģÑĤÐ°Ð²ÑĻÐ°Ð»Ð": 1671,
      "ÑģÐ²Ð¾ÑĺÐ¾Ñ": 1672,
      "omoguÄĩav": 1673,
      "ÑģÑĤÑ": 1674,
      "Ð¸Ð·Ð²Ð¾ÑĢÐ": 1675,
      "srpsko": 1676,
      "verovatn": 1677,
      "moÅ¾em": 1678,
      "ÑģÐ²Ð¾ÑĺÐ¸Ñ": 1679,
      "Ð½Ð°ÑĥÐºÐ": 1680,
      "veliki": 1681,
      "Aleksanda": 1682,
      "Ð¿ÑĢÐ¸ÑģÑĥÑĤÐ½Ð": 1683,
      "Ð¿Ð¾Ð½Ð¾Ð²Ð": 1684,
      "ÑĦÐ¾ÑĢÐ¼Ð": 1685,
      "Ð´Ð¾Ð¿ÑĢÐ¸Ð½Ð¾ÑģÐ": 1686,
      "jedin": 1687,
      "Ð·Ð°ÑĪÑĤÐ¸ÑĤÑ": 1688,
      "ÑģÐ²Ð¸Ð": 1689,
      "zajedniÄįk": 1690,
      "ostali": 1691,
      "Ð¿ÐµÑģÐ¼Ð": 1692,
      "zajedn": 1693,
      "Ð½ÐµÐ³Ð°ÑĤÐ¸Ð²Ð½Ð": 1694,
      "Ð³ÑĢÐ°ÑĴÐ°Ð½Ð": 1695,
      "ÑĦÐ¾ÑĢÐ¼Ð¸ÑĢÐ°ÑļÐ": 1696,
      ".T": 1697,
      "Ð´Ð¸Ð¼ÐµÐ½Ð·Ð¸ÑĺÐ": 1698,
      "Ð´Ð¾Ð±Ð¸ÑĺÐµÐ½Ð": 1699,
      "Ð¿Ð¾Ð»Ð¸ÑĤÐ¸ÑĩÐºÐ¸Ñ": 1700,
      "Ð¸Ð·Ð½Ð¾ÑģÐ": 1701,
      "Ð¾Ð´Ð³Ð¾Ð²Ð¾ÑĢÐ½Ð¾ÑģÑĤÐ": 1702,
      "ÑĤÑĢÐ¶Ð¸ÑĪÑĤÐ": 1703,
      "Ð¿ÑĢÐ¾ÑĨÐµÑģÑ": 1704,
      "cen": 1705,
      "fiziÄįk": 1706,
      "teorij": 1707,
      "Ð¿ÑĢÐ¾ÑģÑĤÐ¾Ñ": 1708,
      "neko": 1709,
      "interes": 1710,
      "ÑĥÑģÑĤÐ°Ð½Ð¾Ð²Ð": 1711,
      "ÐľÐ°ÐºÐµÐ´Ð¾Ð½Ð¸ÑĺÐ": 1712,
      "policij": 1713,
      "Ð¸Ð´ÐµÑĺÐ": 1714,
      "sposobnost": 1715,
      "Ð¼ÐµÑģÑĤÑ": 1716,
      "pogled": 1717,
      "Ð¿ÑĢÐ²ÐµÐ½ÑģÑĤÐ²Ð": 1718,
      "Ð´ÐµÐ»Ð¾Ð²Ð°ÑļÐ": 1719,
      "ÑĦÐ°Ð·Ð": 1720,
      "Ð·ÐµÐ¼ÑĻÐ°Ð¼Ð": 1721,
      "Ð½Ð°ÑģÐµÑĻÐ": 1722,
      "ÑģÐ¸ÑģÑĤÐµÐ¼Ñ": 1723,
      "ÑĥÑĤÐ²ÑĢÑĴÐµÐ½Ð": 1724,
      "terapij": 1725,
      "kombinacij": 1726,
      "Ð½Ð°ÑģÑĤÐ°Ð»Ð": 1727,
      "ukupn": 1728,
      "radov": 1729,
      "doÅ¡l": 1730,
      "jedinjenj": 1731,
      "ÑģÐ°ÑĢÐ°Ð´ÑļÐ": 1732,
      "ÐºÐ°ÑĢÐ°ÐºÑĤÐµÑĢÐ¸ÑģÑĤÐ¸ÑĩÐ½Ð": 1733,
      "pojedini": 1734,
      "Å¾ivotinj": 1735,
      "knjig": 1736,
      "Ð´ÐµÐ»Ð¾Ð²Ð": 1737,
      "ÐºÐ¾Ð½ÐºÑĥÑĢÐµÐ½ÑĨÐ¸ÑĺÐ": 1738,
      "teÅ¡k": 1739,
      "Ð¼ÐµÑĴÑĥÑĤÐ¸Ð": 1740,
      "unapreÄĳenj": 1741,
      "srednj": 1742,
      "ÐºÑĥÑĽÐ": 1743,
      "smatr": 1744,
      "slik": 1745,
      "pristu": 1746,
      "ÑģÐ²Ð¾Ñ": 1747,
      "Ð¾Ð´ÑĢÐµÑĴÐ¸Ð²Ð°ÑļÐ": 1748,
      "relativn": 1749,
      "poreÄĳenj": 1750,
      "Ð¿ÑĢÐµÐ´Ð¼ÐµÑ": 1751,
      "Ð¿Ð¾ÑģÑĤÐ¾ÑĺÐ°Ð»Ð": 1752,
      "javn": 1753,
      "Kosov": 1754,
      "drugaÄįij": 1755,
      "autor": 1756,
      "Ð¤ÑĢÐ°Ð½ÑĨÑĥÑģÐºÐ": 1757,
      "Ð¼ÐµÑĴÑĥÑģÐ¾Ð±Ð½Ð": 1758,
      "novi": 1759,
      "opÅ¡tin": 1760,
      "Ð¸ÑģÑĤÐ¾Ð": 1761,
      "Ð¼Ð¾Ð¶ÐµÐ¼Ð": 1762,
      "Ð´Ð¾Ð´Ð°ÑĤÐ½Ð": 1763,
      "odreÄĳeni": 1764,
      "dimenzij": 1765,
      "Ð²Ð¸Ð´Ð": 1766,
      "Ð²ÐµÑĢÐ¾Ð²Ð°ÑĤÐ½Ð": 1767,
      "Ð¶Ð¸Ð²Ð¾ÑĤÐ½Ð": 1768,
      "Ð¿ÑĥÑĤÐ": 1769,
      "dogaÄĳaj": 1770,
      "Vojvodin": 1771,
      "Ð¿Ð¾Ð¿ÑĥÑ": 1772,
      "ÑĨÐ¸ÑĻÐµÐ²Ð": 1773,
      "kriterijum": 1774,
      "oÅ¡teÄĩenj": 1775,
      "Ð·Ð½Ð°ÑĩÐ°ÑĺÐ°Ð": 1776,
      "Ð¾Ð´ÑĢÐ¶Ð°Ð²Ð°ÑļÐ": 1777,
      "Ð´Ð¾Ð²Ð¾Ð´Ð": 1778,
      "Ð½Ð°Ð·Ð¸Ð²Ð": 1779,
      "koje": 1780,
      "ÐµÐºÑģÐ¿ÐµÑĢÐ¸Ð¼ÐµÐ½ÑĤÐ°Ð»Ð½Ð": 1781,
      "faz": 1782,
      "Ð¾Ð±Ð¸ÑĩÐ½Ð": 1783,
      "Ð¿ÐµÑĢÐ¸Ð¾Ð": 1784,
      "neki": 1785,
      "pristup": 1786,
      "stvaranj": 1787,
      "naveden": 1788,
      "Ð²Ð¸ÑģÐ¾ÐºÐ": 1789,
      "svojo": 1790,
      "ÑģÐºÑĥÐ¿ÑĪÑĤÐ¸Ð½Ð": 1791,
      "Ð½Ð¸Ð²Ð¾Ð": 1792,
      "Ð»Ð¸Ð½Ð¸ÑĺÐ": 1793,
      "utvrÄĳen": 1794,
      "Ð¿Ð¾ÑĩÐµÑĤÐºÑ": 1795,
      "Ð·Ð´ÑĢÐ°Ð²ÑģÑĤÐ²ÐµÐ½Ð": 1796,
      "ÑģÐµÐ·Ð¾Ð½Ð": 1797,
      "izveÅ¡taj": 1798,
      "ÑĢÐµÑģÑĥÑĢÑģÐ": 1799,
      "Ð±ÑĥÐ´ÑĥÑĽÐ": 1800,
      "Ð¸Ð¼Ð°Ð": 1801,
      "ÑĺÐ°Ð²Ð½Ð¾Ð": 1802,
      "ÑĢÐ°Ð½Ð¸ÑĺÐ": 1803,
      "Ð´ÐµÑĦÐ¸Ð½Ð¸ÑģÐ°Ð½Ð": 1804,
      "Ð¿ÑĥÑĤÐµÐ": 1805,
      "primenjuj": 1806,
      "ÑģÐ¼Ð°ÑļÐµÑļÐ": 1807,
      "negativn": 1808,
      "ugovor": 1809,
      "(201": 1810,
      "dokumentacij": 1811,
      "Ð°ÐºÑĤÐ¸Ð²Ð½Ð¾ÑģÑ": 1812,
      "ÑģÐ°Ð¼Ð¾Ð": 1813,
      "prodaj": 1814,
      "Ð´ÐµÑĦÐ¸Ð½Ð¸ÑĨÐ¸ÑĺÐ": 1815,
      "ÑĤÐ°ÐºÐ²Ð": 1816,
      "ÑĥÐ½ÑĥÑĤÐ°Ñ": 1817,
      "trajanj": 1818,
      "Ð¼ÐµÑĴÑĥÐ½Ð°ÑĢÐ¾Ð´Ð½Ð¸Ñ": 1819,
      "Ð¿Ð¾Ð´ÑĢÑĥÑĩÑĺÑ": 1820,
      "Ð¿Ð¾ÑĺÐµÐ´Ð¸Ð½Ð°ÑĩÐ½Ð": 1821,
      "poznat": 1822,
      "znaÄįaj": 1823,
      "odreÄĳeno": 1824,
      "Ð¾Ð±Ð»Ð¸Ð": 1825,
      "paÅ¾nj": 1826,
      "Ð»Ð¾ÐºÐ°Ð»Ð½Ð": 1827,
      "protein": 1828,
      "ÑĥÐ»Ð¾Ð³Ð": 1829,
      "meÄĳ": 1830,
      "ÑģÑĤÐ°Ð½Ð´Ð°ÑĢÐ´Ð": 1831,
      "ÑģÑĤÐ°Ð²Ð¾Ð²Ð": 1832,
      "dinar": 1833,
      "ÑĥÐ": 1834,
      "Ð¿ÑĢÐµÐ´ÑģÐµÐ´Ð½Ð¸Ð": 1835,
      "koriÅ¡Äĩenje": 1836,
      "ÑĥÑĩÐµÑļÐ": 1837,
      "glavn": 1838,
      "ÑģÐ»Ð¸ÑĩÐ½Ð": 1839,
      "ÑģÐ»ÑĥÑĩÐ°Ñ": 1840,
      "Ð¿ÑĢÐ°Ð²Ð¾ÑģÐ»Ð°Ð²Ð½Ð": 1841,
      "literatur": 1842,
      "ÑĢÐµÐ°Ð»Ð¸Ð·Ð°ÑĨÐ¸ÑĺÐ": 1843,
      "potencijaln": 1844,
      "Ð·Ð°Ð±ÐµÐ»ÐµÐ¶ÐµÐ½Ð": 1845,
      "ÑģÐ¼ÑĢÑĤÐ": 1846,
      "sluÄįajevim": 1847,
      "lokaln": 1848,
      "ÑĤÐ°Ñ": 1849,
      "ÑĥÑģÐ¿Ð¾ÑģÑĤÐ°Ð²ÑĻÐ°ÑļÐ": 1850,
      ".Prem": 1851,
      "procedur": 1852,
      "priprem": 1853,
      "jasn": 1854,
      "Ð¶Ð¸Ð²Ð¾ÑĤÐ¸ÑļÐ": 1855,
      "Ð½Ð°ÑĢÐ¾Ð´Ð½Ð": 1856,
      "Ð·Ð°Ð¿ÑĢÐ°Ð²Ð": 1857,
      "operacij": 1858,
      "Ð¿ÑĢÐµÐ´Ð²Ð¸ÑĴÐµÐ½Ð": 1859,
      "Ð³Ð¾ÑĤÐ¾Ð²Ð": 1860,
      "Ð¾ÑģÐ¾Ð±Ð¸Ð½Ð": 1861,
      "Ð´ÑĢÑĥÐ³Ð°ÑĩÐ¸ÑĺÐ": 1862,
      "naÅ¡e": 1863,
      "ÑĩÐ»Ð°Ð½Ð¸ÑĨÐ": 1864,
      "ÑĥÑĩÐµÑģÑĤÐ²Ð¾Ð²Ð°Ð»Ð": 1865,
      "ÐºÐ": 1866,
      "ÑĨÐµÐ»Ð¸Ð½Ð": 1867,
      "ustanov": 1868,
      "poslednji": 1869,
      "pacijent": 1870,
      "linij": 1871,
      "Ð¸Ð·ÑĥÐ·ÐµÑĤÐ½Ð": 1872,
      "Ð¿Ð¾ÑĢÐµÐºÐ»Ð": 1873,
      "Ð»Ð¸ÑĩÐ½Ð¾ÑģÑĤÐ": 1874,
      "Ð°ÑģÐ¿ÐµÐºÑĤÐ": 1875,
      "Ð¿Ð¾ÑĩÐµÑĤÐºÐ¾Ð": 1876,
      "kvalite": 1877,
      "Ð¼Ð°Ð½Ð°ÑģÑĤÐ¸ÑĢÐ": 1878,
      "poboljÅ¡anj": 1879,
      "njen": 1880,
      "bolesnik": 1881,
      "ÑĦÑĥÐ½ÐºÑĨÐ¸Ð¾Ð½Ð¸ÑģÐ°ÑļÐ": 1882,
      "ÑļÐ¸Ð¼Ð": 1883,
      "pomoÄ": 1884,
      "Ð¸Ð°ÐºÐ": 1885,
      "bezbednost": 1886,
      "parametr": 1887,
      "ÑĥÐ½ÑĥÑĤÑĢÐ°ÑĪÑļÐ": 1888,
      "Ð¾Ð´ÑĢÐµÑĴÐµÐ½Ð¸Ñ": 1889,
      "Ð¿ÑĢÐ¸ÑĢÐ¾Ð´Ð½Ð": 1890,
      "fakultet": 1891,
      "Ð¿Ð¾ÑĩÐµÑĤÐºÐ": 1892,
      "Ð¿Ð°ÑĢÐ°Ð¼ÐµÑĤÑĢÐ": 1893,
      "elemenat": 1894,
      "Ð¿Ð¾Ð´Ð°ÑĨÐ": 1895,
      "Ð¿ÑĢÐµÐ´ÑģÐµÐ´Ð½Ð¸ÐºÐ": 1896,
      "vozil": 1897,
      "ÐºÐ¾Ð»Ð¸ÐºÐ": 1898,
      "ÑĩÐ¾Ð²ÐµÐºÐ": 1899,
      "uzork": 1900,
      "kretanj": 1901,
      "objavljen": 1902,
      "Ð´ÑĢÑĥÑĪÑĤÐ²ÐµÐ½Ð¾Ð": 1903,
      "Ð¾ÑģÑĤÐ°Ð»Ð¸Ñ": 1904,
      "element": 1905,
      "Ð´ÑĢÑĥÑĪÑĤÐ²ÐµÐ½Ð¸Ñ": 1906,
      "th": 1907,
      "Ð½ÐµÐ·Ð°Ð²Ð¸ÑģÐ½Ð": 1908,
      "Ð¿Ð¾Ð¼ÐµÐ½ÑĥÑĤÐ": 1909,
      "pute": 1910,
      "Ð¿ÑĢÐµÐ´ÑģÑĤÐ°Ð²Ð½Ð¸ÐºÐ": 1911,
      "ÑģÐ°Ð²ÑĢÐµÐ¼ÐµÐ½Ð": 1912,
      "ukljuÄįuj": 1913,
      "finansijski": 1914,
      "javno": 1915,
      "ÐºÐ²Ð°Ð»Ð¸ÑĤÐµÑ": 1916,
      "195": 1917,
      "centr": 1918,
      "raÄįun": 1919,
      "maksimaln": 1920,
      "Ð¿Ð¾ÑģÑĤÐ°Ð²ÑĻÐµÐ½Ð": 1921,
      "ÐºÐ¾ÑĢÐ¸ÑģÐ½Ð¸ÐºÐ": 1922,
      "Ð¾ÐºÐ¾Ð»Ð½Ð¾ÑģÑĤÐ": 1923,
      "ÑģÐ»Ð¾Ð±Ð¾Ð´Ð½Ð": 1924,
      "Ð²Ð¾ÑĺÑģÐºÐ": 1925,
      "ÑģÐµÐ»Ð": 1926,
      "ÐŁÑĢÐµÐ¼Ð": 1927,
      "povezan": 1928,
      "Ð°Ð¼ÐµÑĢÐ¸ÑĩÐºÐ": 1929,
      "ÑĤÐ°Ð´Ð": 1930,
      "investicij": 1931,
      "Ð·Ð°Ð²Ð¸ÑģÐ": 1932,
      "podatk": 1933,
      "ÑļÐ¸ÑħÐ¾Ð²Ð¸Ñ": 1934,
      "Ð²Ð¸Ð´Ñ": 1935,
      "Tabel": 1936,
      "Ð¾ÑģÐ¸Ð³ÑĥÑĢÐ°ÑļÐ": 1937,
      "poslovn": 1938,
      "ÐĴÐµÐ»Ð¸ÐºÐ": 1939,
      "ÑĢÐ¾Ð´Ð¸ÑĤÐµÑĻÐ": 1940,
      "njegovi": 1941,
      "Ð´Ð¾Ð±Ð¸Ð»Ð": 1942,
      "eksperimentaln": 1943,
      "Ð¿Ð¾ÑģÑĤÐ°Ð": 1944,
      "Ð´ÐµÐ»Ð°ÑĤÐ½Ð¾ÑģÑĤÐ": 1945,
      "Ð½Ð°ÑĺÐ¼Ð°ÑļÐ": 1946,
      "Ð¿ÑĢÐ¾ÑĨÐµÐ½Ð": 1947,
      "reÅ¡avanj": 1948,
      "Ð¿ÐµÑĢÑģÐ¿ÐµÐºÑĤÐ¸Ð²Ð": 1949,
      "vlast": 1950,
      ".I": 1951,
      "ÑĨÐµÐ½ÑĤÑĢÐ°Ð»Ð½Ð": 1952,
      "sliÄįn": 1953,
      "ÑĻÑĥÐ´ÑģÐºÐ": 1954,
      "Ð½Ð°Ð´Ð»ÐµÐ¶Ð½Ð¾ÑģÑĤÐ": 1955,
      "dobij": 1956,
      "ÐĵÐ¾Ð´Ð¸Ð½Ð": 1957,
      "ÑĢÐ°Ð´ÑļÐ": 1958,
      "planiranj": 1959,
      "ekspresij": 1960,
      "njim": 1961,
      "razlikuj": 1962,
      "ÑĥÑģÐ»ÐµÐ": 1963,
      "izuzetn": 1964,
      "ÑĢÐµÐ¿ÑĢÐµÐ·ÐµÐ½ÑĤÐ°ÑĨÐ¸ÑĺÐ": 1965,
      "ÑĺÐµÐ´Ð½Ñ": 1966,
      "region": 1967,
      "ÐĳÐµÐ¾Ð³ÑĢÐ°Ð´Ð": 1968,
      "Univerzitet": 1969,
      "potpunost": 1970,
      "ÑĦÐ¸Ð·Ð¸ÑĩÐºÐ": 1971,
      "ÑģÑĢÐµÐ´ÑļÐ": 1972,
      "Ð¾Ð´ÑĢÐµÐ´Ð±Ð": 1973,
      "aplikacij": 1974,
      "ÐĴÐ¾ÑĺÐ²Ð¾Ð´Ð¸Ð½Ð": 1975,
      "Ð¿Ð¾Ð»Ð¸ÑĨÐ¸ÑĺÐ": 1976,
      "uÄįenj": 1977,
      ".Kak": 1978,
      ".ÐŁÑĢÐµÐ¼Ð": 1979,
      "Ð¿ÑĢÐ¸Ð¼ÐµÐ½Ð¾Ð": 1980,
      "rast": 1981,
      "ÑĤÐµÐºÑģÑĤÐ¾Ð²Ð": 1982,
      "zemalj": 1983,
      "ÑģÐ¼Ð°ÑĤÑĢÐ°ÑĺÑ": 1984,
      "optereÄĩenj": 1985,
      "odbran": 1986,
      "proizvoÄĳaÄį": 1987,
      "trenutn": 1988,
      "Ð¾Ð¿ÐµÑĢÐ°ÑĨÐ¸ÑĺÐ": 1989,
      "Ð½Ð°ÑĥÑĩÐ½Ð": 1990,
      "Ð¿Ð¾ÑĺÐµÐ´Ð¸Ð½ÑĨÐ": 1991,
      "postaj": 1992,
      "zavis": 1993,
      "ÑĥÑĤÐ²ÑĢÑĴÐ¸Ð²Ð°ÑļÐ": 1994,
      "ÑļÐ¸Ñ": 1995,
      "tolik": 1996,
      "specifiÄįn": 1997,
      "Ð´ÐµÑĨÐµÐ¼Ð±ÑĢÐ": 1998,
      "Ð¿ÑĢÐ²ÐµÐ½ÑģÑĤÐ²ÐµÐ½Ð": 1999,
      "stepen": 2000,
      "Ð¿Ð¾Ð¼Ð¾Ñ": 2001,
      "brzin": 2002,
      "Ð±Ð¾ÑĢÐ±Ð": 2003,
      "Äįem": 2004,
      "Ð¸ÑģÑĤÑĢÐ°Ð¶Ð¸Ð²Ð°ÑļÐ¸Ð¼Ð": 2005,
      ".On": 2006,
      "ÑĢÐµÐ°ÐºÑĨÐ¸ÑĺÐ": 2007,
      "ÑģÐ°ÑģÑĤÐ¾ÑĺÐ": 2008,
      "ÐĿÐ°ÐºÐ¾Ð": 2009,
      "Ð¸ÑģÑĤÐ¸ÑĩÐ": 2010,
      "Ð²Ð°Ð¶Ð½Ð": 2011,
      "Ð·Ð°ÐºÑĻÑĥÑĩÐ¸ÑĤÐ": 2012,
      "prenos": 2013,
      "Ð¿Ð¾ÑĩÐµÐ»Ð": 2014,
      "Ð¼Ð¾Ð³Ð°Ð": 2015,
      "Ð·Ð°ÑģÐ½Ð¾Ð²Ð°Ð½Ð": 2016,
      "Ð°ÑĢÑħÐ¸ÑĤÐµÐºÑĤÑĥÑĢÐ": 2017,
      "ÑĤÐµÐ»Ð": 2018,
      "Ð¿Ð¾ÑĤÐµÐ½ÑĨÐ¸ÑĺÐ°Ð»Ð½Ð": 2019,
      "slobod": 2020,
      "medij": 2021,
      "standard": 2022,
      "rizik": 2023,
      "kapacitet": 2024,
      "ÑĢÐ¸Ð·Ð¸ÐºÐ": 2025,
      "ÑĤÑĢÐµÐ½ÑĥÑĤÐºÑ": 2026,
      "Ð´Ð¾Ð±Ð¸ÑĺÐ": 2027,
      "generacij": 2028,
      "ÑĥÐ¿Ð¾ÑĤÑĢÐµÐ±Ñ": 2029,
      "Ð¿ÑĢÐµÐ": 2030,
      "Ð²Ð¸ÑģÐ¸Ð½Ð": 2031,
      "dovod": 2032,
      "ÑģÐ°Ð²ÑĢÐµÐ¼ÐµÐ½Ð¾Ð": 2033,
      "ÑģÑĤÐ°Ð": 2034,
      "Ð¿ÑĢÐ¸Ð½ÑĨÐ¸Ð¿Ð": 2035,
      "ÑģÐ¿ÐµÑĨÐ¸ÑĦÐ¸ÑĩÐ½Ð": 2036,
      "hran": 2037,
      "infrastruktur": 2038,
      "transformacij": 2039,
      "takv": 2040,
      "Ð¼ÐµÑĢÐµÑļÐ": 2041,
      "ÑģÐ»ÑĥÐ¶Ð±Ð": 2042,
      "cilj": 2043,
      "putovanj": 2044,
      "Ð½Ð°ÑģÐ¸ÑĻÐ": 2045,
      "liÄįnost": 2046,
      "Ð¸Ð·Ð³ÑĢÐ°Ð´ÑļÐ": 2047,
      "akcij": 2048,
      "VuÄįiÄ": 2049,
      "moraj": 2050,
      "Ð¾Ð±ÑĺÐµÐºÑĤÐ": 2051,
      "kolaÄįiÄĩ": 2052,
      "delovanj": 2053,
      "ciljev": 2054,
      "tekst": 2055,
      "organ": 2056,
      "Ð¾ÑģÑĤÐ²Ð°ÑĢÐ¸Ð²Ð°ÑļÐ": 2057,
      "Ð¾Ð´Ð±ÑĢÐ°Ð½Ð": 2058,
      "Ð½Ð¾Ð²ÐµÐ¼Ð±ÑĢÐ": 2059,
      "ÐĿÐµÐ¼Ð°ÑĩÐºÐ": 2060,
      "ÑģÐ¿ÑĢÐ¾Ð²Ð¾ÑĴÐµÑļÐ": 2061,
      "primeno": 2062,
      "Ð¿Ð¾Ð»Ð¾Ð¶Ð°Ñ": 2063,
      ".Kad": 2064,
      ".O": 2065,
      "ÐºÐ»Ð°ÑģÐ¸ÑĦÐ¸ÐºÐ°ÑĨÐ¸ÑĺÐ": 2066,
      "funkcionisanj": 2067,
      "Ð¾Ð²Ð¾Ñ": 2068,
      "uÄįeÅ¡Äĩ": 2069,
      "ÑļÐµÐ½Ð¾Ð": 2070,
      "izvoÄĳenj": 2071,
      "uÄįestvuj": 2072,
      "Ð²ÑĢÐµÐ¼ÐµÐ½ÑģÐºÐ": 2073,
      "prilik": 2074,
      "Ð¾ÑģÐ½Ð¾Ð²Ð½Ð¸Ñ": 2075,
      "ÑĥÐ½Ð°Ð¿ÑĢÐµÑĴÐµÑļÐ": 2076,
      "minut": 2077,
      "leÄįenj": 2078,
      "ÑĤÐµÐºÑģÑĤÐ": 2079,
      "Ð¸Ð½ÑĤÐµÑĢÐ²ÐµÐ½ÑĨÐ¸ÑĺÐ": 2080,
      "vrednostim": 2081,
      "ispitivani": 2082,
      "Ð¡Ð»Ð¸ÐºÐ": 2083,
      "biÄĩ": 2084,
      "ÐºÐ¾ÑĢÐ¸ÑģÑĤÐ¸ÑĤÐ": 2085,
      "ÑģÐ²ÐµÑĤÑ": 2086,
      "ÑĥÑĤÐ°ÐºÐ¼Ð¸ÑĨÐ": 2087,
      "ÑģÑĤÑĢÐ°Ð½ÐºÐ": 2088,
      "dobijeni": 2089,
      "Ð¾Ð¿ÑĪÑĤÐ": 2090,
      "konstrukcij": 2091,
      "ograniÄįenj": 2092,
      "1.": 2093,
      "ÑģÐµÑĢÐ¸ÑĺÐ": 2094,
      "ekonomij": 2095,
      "ÑĤÑĢÐ¶Ð¸ÑĪÑĤÑ": 2096,
      "Ð¼ÐµÑģÐµÑĨÐ": 2097,
      "ima": 2098,
      "Ð¸ÑģÐ¿Ð¸ÑĤÐ°Ð½Ð¸ÑĨÐ": 2099,
      "ponov": 2100,
      "Ð¿Ð°ÑĢÑĤÐ¸ÑĺÐ": 2101,
      "dobil": 2102,
      "narod": 2103,
      "Ð¸Ð¼Ð°ÑĤÐ": 2104,
      "Ð¾ÐºÑĢÑĥÐ¶ÐµÑļÐ": 2105,
      "Ð²ÑĢÐµÐ´Ð½Ð¾ÑģÑĤÐ¸Ð¼Ð": 2106,
      "tehnik": 2107,
      "sigurn": 2108,
      "kontekst": 2109,
      "predstavljen": 2110,
      "prisutn": 2111,
      "ÑģÐ¿Ð¾ÑģÐ¾Ð±Ð½Ð¾ÑģÑ": 2112,
      "mode": 2113,
      "Ð¾Ð´Ð³Ð¾Ð²Ð¾ÑĢÐ½Ð¾ÑģÑ": 2114,
      "poljoprivred": 2115,
      "Ð¸Ð½ÑĤÐµÑĢÐµÑģÐ¾Ð²Ð°ÑļÐ": 2116,
      "Ð»Ð": 2117,
      "ÑĤÐµÑĪÐºÐ": 2118,
      "drÅ¾avn": 2119,
      "ÑģÐ°Ð¼Ð¾ÑģÑĤÐ°Ð»Ð½Ð": 2120,
      "zemljam": 2121,
      "meÄĳunarodni": 2122,
      "Ð¾Ð±ÑĺÐ°Ð²ÑĻÐµÐ½Ð": 2123,
      "Ð¿ÑĢÐµÑĤÑħÐ¾Ð´Ð½Ð¾Ð": 2124,
      "ÑĥÑĩÐµÑĪÑĽÐ": 2125,
      "politiÄįki": 2126,
      "niÅ¡t": 2127,
      "postupa": 2128,
      "Ð³Ð¾Ð´Ð¸Ð½Ñ": 2129,
      "ÑĤÐµÑħÐ½Ð¸ÐºÐ": 2130,
      "osnovni": 2131,
      "uspeÅ¡n": 2132,
      "Ð°Ð½Ð°Ð»Ð¸Ð·Ñ": 2133,
      "uspostavljanj": 2134,
      "Ð·Ð½Ð°ÑĤÐ½Ð": 2135,
      "isto": 2136,
      "Ð¾Ð´Ð³Ð¾Ð²Ð¾Ñ": 2137,
      "Ð¿ÑĢÐ¸Ð¿Ð°Ð´Ð": 2138,
      "Ð¿Ð»Ð°Ð½Ð¸ÑĢÐ°ÑļÐ": 2139,
      "Ð´Ð°ÑĤÐ": 2140,
      "Ð½Ð¾Ð²Ð¸Ñ": 2141,
      ".ÐŁÐ¾ÑĢÐµÐ": 2142,
      "Ð¾ÐºÑĤÐ¾Ð±ÑĢÐ": 2143,
      "ÑĤÑĥÐ¼Ð°ÑĩÐµÑļÐ": 2144,
      "nastavnik": 2145,
      "Ð´Ð¾Ð½Ð¾ÑĪÐµÑļÐ": 2146,
      "ÑĥÐºÐ°Ð·ÑĥÑĺÑ": 2147,
      "Ð½ÐµÐºÐ¾Ð": 2148,
      "Ð¿Ð¾ÑĺÐµÐ´Ð¸Ð½Ð": 2149,
      "Ð¿ÑĢÐ¸Ð¼ÐµÐ½Ñ": 2150,
      "ÐłÐµÐ¿ÑĥÐ±Ð»Ð¸ÑĨÐ": 2151,
      "ÐºÑĢÐ°ÑĺÐ": 2152,
      "ÑĤÑ": 2153,
      "Ð½Ð°Ð²ÐµÐ´ÐµÐ½Ð¸Ñ": 2154,
      "Ð¿ÑĢÐ°Ð²Ð½Ð¾Ð": 2155,
      "Ð¸Ð·Ð±Ð¾ÑĢÐ": 2156,
      "umetnost": 2157,
      "podac": 2158,
      "Ð¡ÑĢÐ±Ð": 2159,
      "ÑģÑĤÐµÐ¿ÐµÐ": 2160,
      "performans": 2161,
      "ÑļÐµÐ³Ð": 2162,
      "Ð²ÐµÐ·Ð°Ð½Ð": 2163,
      "Ð¾Ð±Ð»Ð¸ÐºÑ": 2164,
      "odgovar": 2165,
      "ÐºÐ¾Ð¼Ð±Ð¸Ð½Ð°ÑĨÐ¸ÑĺÐ": 2166,
      "Ð·Ð°ÑħÐ²Ð°ÑĻÑĥÑĺÑĥÑĽÐ": 2167,
      "Ð¿Ð¾ÑģÐ»Ð¾Ð²Ð°ÑļÐ": 2168,
      ".Ð¢Ð°ÐºÐ": 2169,
      "Ð¿Ð¾ÑĤÐ¾Ð": 2170,
      "ÐºÑļÐ¸Ð¶ÐµÐ²Ð½Ð": 2171,
      "distribucij": 2172,
      "Ð¼Ð¾ÑĢÐ°ÑĺÑ": 2173,
      "odgovo": 2174,
      "ÑĤÐ°Ð±ÐµÐ»Ð": 2175,
      "Ð¿ÑĥÑ": 2176,
      "zati": 2177,
      "finansiranj": 2178,
      "duÅ¾in": 2179,
      "ÑģÐ°Ð´ÑĢÐ¶Ð°Ñ": 2180,
      "saobraÄĩaj": 2181,
      "ÑĢÐµÑĩÐµÐ½Ð¸ÑĨÐ": 2182,
      ".Ak": 2183,
      "stavov": 2184,
      "prosto": 2185,
      "idej": 2186,
      "moÅ¾d": 2187,
      "ÐĺÑĤÐ°Ð»Ð¸ÑĺÐ": 2188,
      "daj": 2189,
      "Ð½Ð°ÑĨÐ¸Ð¾Ð½Ð°Ð»Ð½Ð¸Ñ": 2190,
      "izvor": 2191,
      ".ÐĿÐ°Ð¸Ð¼Ð": 2192,
      "objavljivanj": 2193,
      "sajt": 2194,
      "Ð´ÐµÐ»Ð¸Ð¼Ð¸ÑĩÐ½Ð": 2195,
      "ÐµÐ½Ð³Ð»ÐµÑģÐºÐ¾Ð": 2196,
      "ÐĲÐ»ÐµÐºÑģÐ°Ð½Ð´Ð°Ñ": 2197,
      "istiÄį": 2198,
      "ÑģÑĤÐ°Ð½Ð¾Ð²Ð¸ÑĪÑĤÐ": 2199,
      "definisan": 2200,
      "donoÅ¡enj": 2201,
      "Ð¾Ð²Ð¸Ð": 2202,
      "Ð¾Ð½Ð´Ð": 2203,
      "Ð¢Ð°ÐºÐ¾ÑĴÐ": 2204,
      ".201": 2205,
      "odst": 2206,
      "Ð·Ð´ÑĢÐ°Ð²ÑĻÐ": 2207,
      "ÑĩÐµÐ³Ð": 2208,
      "navedeni": 2209,
      "193": 2210,
      "Ð¾Ð´Ð³Ð¾Ð²Ð°ÑĢÐ": 2211,
      "praÄĩenj": 2212,
      "ÑģÐ¾Ð¿ÑģÑĤÐ²ÐµÐ½Ð": 2213,
      "Ð±ÑĢÐ·Ð¸Ð½Ð": 2214,
      "Ð¿ÑĢÐ¸ÑĩÐ": 2215,
      "ÐºÐ°ÑĢÐ°ÐºÑĤÐµÑĢÐ": 2216,
      "kom": 2217,
      "ÑĦÑĢÐ°Ð½ÑĨÑĥÑģÐºÐ": 2218,
      "njeg": 2219,
      "ranij": 2220,
      "ÑĩÐ°Ð": 2221,
      "Ð½Ð¾Ð²Ð¾Ð": 2222,
      "pretpostavk": 2223,
      "odgovarajuÄĩi": 2224,
      "Ð¼Ð¸Ð»Ð¸Ð¾Ð½Ð": 2225,
      "ÐłÑĥÑģÐ¸ÑĺÐ": 2226,
      "Ð¿Ð¾Ð²ÑĢÐµÐ´Ð": 2227,
      "ÑĢÐµÑĪÐ°Ð²Ð°ÑļÐ": 2228,
      "ÑĦÑĥÐ½ÐºÑĨÐ¸ÑĺÑ": 2229,
      "ÑģÑĤÐµÐ¿ÐµÐ½Ð": 2230,
      "ÑļÐµÐ³Ð¾Ð²Ð¸Ñ": 2231,
      "ostvarivanj": 2232,
      "prirodn": 2233,
      "ÐĺÑģÑĤÐ¾ÑĢÐ¸ÑĺÐ": 2234,
      "Ð¾Ð·Ð½Ð°ÑĩÐ°Ð²Ð": 2235,
      ".Rezultat": 2236,
      "inostranstv": 2237,
      "ponud": 2238,
      "Ð¼Ñ": 2239,
      "taÄįk": 2240,
      "varijabl": 2241,
      "Ð´ÐµÑĨÐµÐ½Ð¸ÑĺÐ": 2242,
      "nacionalno": 2243,
      "agencij": 2244,
      "Ð¾Ð´ÑĢÐµÑĴÐµÐ½Ð¸Ð": 2245,
      "191": 2246,
      "tel": 2247,
      "osobin": 2248,
      "Ð¼ÐµÑĴÑĥÐ½Ð°ÑĢÐ¾Ð´Ð½Ð¸Ð": 2249,
      "znaÄįenj": 2250,
      "Ð¸Ð¼ÐµÐ½Ð¸ÑĨÐ": 2251,
      "Ð¿ÑĢÐ°ÐºÑĤÐ¸ÑĩÐ½Ð": 2252,
      "tretman": 2253,
      "Ð¼ÑĢÐµÐ¶Ð": 2254,
      "Ð½ÐµÐ¼Ð°ÑĩÐºÐ": 2255,
      ".Nako": 2256,
      "Ð²ÑĢÐ»Ð": 2257,
      "infekcij": 2258,
      "utvrÄĳivanj": 2259,
      "poÄįel": 2260,
      "Ð¾Ð±ÑĺÐµÐºÐ°ÑĤÐ": 2261,
      "naÅ¡i": 2262,
      "supstanc": 2263,
      "ÐĶÑĢÑĥÐ³Ð¾Ð": 2264,
      ".Z": 2265,
      "ÑĥÐ¾Ð¿ÑĪÑĤÐ": 2266,
      "Ð¶Ð¸Ð²Ð": 2267,
      "sposobnos": 2268,
      "Ð¿ÑĢÐ¾ÑĪÐ»Ð¾ÑģÑĤÐ": 2269,
      "ÐºÐ°Ð¿Ð°ÑĨÐ¸ÑĤÐµÑĤÐ": 2270,
      "poglavlj": 2271,
      "stranic": 2272,
      "ÑģÑĤÑĥÐ´ÐµÐ½Ð°ÑĤÐ": 2273,
      "delov": 2274,
      "Ð¿Ð¾Ð´Ð°ÑĨÐ¸Ð¼Ð": 2275,
      "praktiÄįn": 2276,
      "rezultatim": 2277,
      "Ð¸Ð½ÑĤÐµÑĢÐ¿ÑĢÐµÑĤÐ°ÑĨÐ¸ÑĺÐ": 2278,
      "perio": 2279,
      "ÑĤÐ¸Ð¿Ð": 2280,
      "Ð±ÑĢÐ¾ÑĺÐ½Ð": 2281,
      "Ð³ÑĢÐ°Ð´Ð¾Ð²Ð": 2282,
      "vrÅ¡": 2283,
      "tradicionaln": 2284,
      "Ð¿ÑĢÐ¸Ð¿Ð°Ð´Ð°ÑĺÑ": 2285,
      "zahvaljujuÄĩ": 2286,
      "Ð°Ð²Ð³ÑĥÑģÑĤÐ": 2287,
      "ÑĤÑĢÐ°Ð½ÑģÑĦÐ¾ÑĢÐ¼Ð°ÑĨÐ¸ÑĺÐ": 2288,
      "elektriÄįn": 2289,
      "Ð¿ÑĢÐ¾ÑģÐµÑĩÐ½Ð": 2290,
      "ÑĢÐµÐ·ÑĥÐ»ÑĤÐ°ÑĤÐ¸Ð¼Ð": 2291,
      "pojedinaÄįn": 2292,
      "Ð¾Ð¿ÑĤÐµÑĢÐµÑĽÐµÑļÐ": 2293,
      "zaposlen": 2294,
      "oÄįekuj": 2295,
      "konferencij": 2296,
      "reÄį": 2297,
      "kulturn": 2298,
      "ÐºÐ°ÑĢÐ°ÐºÑĤÐµÑ": 2299,
      "ÐºÐ¾ÑĢÐ¸ÑģÑĤÐ¸Ð»Ð": 2300,
      "Slik": 2301,
      "ÑģÐ°Ð´Ð": 2302,
      "form": 2303,
      "Ð¸Ð·Ð²ÑĢÑĪÐµÐ½Ð": 2304,
      "Ð¿Ð¾Ð´ÑĢÑĪÐºÐ": 2305,
      "profesionaln": 2306,
      "Å¾iv": 2307,
      "Ð¿Ð¾Ð¼Ð¾ÑĽÑ": 2308,
      "ÑĺÐµÐ´Ð½Ð¾ÑģÑĤÐ°Ð²Ð½Ð": 2309,
      "Ð±ÑĢÐ¾ÑĺÑ": 2310,
      "Ð¾ÑĢÐ³Ð°Ð½Ð¸Ð·Ð¾Ð²Ð°Ð½Ð": 2311,
      "ÐŁÑĢÐ²Ð": 2312,
      "ÐŀÐ²Ð": 2313,
      "sluÄįa": 2314,
      "ÑĢÐµÑĩÐ¸Ð¼Ð": 2315,
      "ÑģÐ¸Ð»Ð": 2316,
      "objekat": 2317,
      "njego": 2318,
      "ÑĢÐ°ÑģÑĤÐ": 2319,
      "Ð¾ÑĤÐ²Ð¾ÑĢÐµÐ½Ð": 2320,
      "Ð¡Ð²ÐµÑĤÐ¾Ð": 2321,
      "potroÅ¡aÄį": 2322,
      "ÐµÑĦÐ¸ÐºÐ°ÑģÐ½Ð¾ÑģÑĤÐ": 2323,
      "tok": 2324,
      "delatnost": 2325,
      "automobil": 2326,
      "identifikacij": 2327,
      "Ð¿Ð¾Ð»Ð¾Ð¶Ð°ÑĺÐ": 2328,
      "Ð²Ð¾ÑĺÐ½Ð": 2329,
      "Ð³ÐµÐ½ÐµÑĢÐ°ÑĨÐ¸ÑĺÐ": 2330,
      "znaÄįaja": 2331,
      "Ð½Ð¸Ð²Ð": 2332,
      "meÄĳuti": 2333,
      "ÑģÐ²Ð°ÐºÐ°ÐºÐ": 2334,
      "javnost": 2335,
      "vrl": 2336,
      "ÑĦÐ°ÐºÑĥÐ»ÑĤÐµÑĤÐ": 2337,
      "Ð¾Ð´Ð»ÑĥÑĩÐ¸Ð²Ð°ÑļÐ": 2338,
      "Ð¸Ð½ÑĤÐµÐ³ÑĢÐ°ÑĨÐ¸ÑĺÐ": 2339,
      "ÐºÐ¾Ð½ÑĨÐµÐ¿ÑĤÐ": 2340,
      "Ð°ÐºÑĨÐ¸ÑĺÐ": 2341,
      "obezbeÄĳuj": 2342,
      "zaprav": 2343,
      "Ð´ÑĥÐ¶Ð¸Ð½Ð": 2344,
      "ÐµÐºÐ¾Ð½Ð¾Ð¼Ð¸ÑĺÐ": 2345,
      "Ð¸ÑģÑĤÑĢÐ°Ð¶Ð¸Ð²Ð°ÑĩÐ": 2346,
      "Ð¿ÑĢÐ¾ÑĥÑĩÐ°Ð²Ð°ÑļÐ": 2347,
      "ÑĤÐ°ÑĩÐºÐ": 2348,
      "prethodno": 2349,
      "lokacij": 2350,
      "Ð¾Ð²Ð»Ð°ÑĪÑĽÐµÑļÐ": 2351,
      "prijatelj": 2352,
      "ÑĻÑĥÐ´ÑģÐºÐ¸Ñ": 2353,
      "Ð¿ÑĢÐ¸Ð²ÑĢÐµÐ´Ð": 2354,
      "gotov": 2355,
      "tim": 2356,
      "materij": 2357,
      "ÐºÑļÐ¸Ð¶ÐµÐ²Ð½Ð¾Ð": 2358,
      "ÑĩÐ¾Ð²ÐµÐ": 2359,
      "Ð´ÑĢÑĥÐ³Ð¾Ñ": 2360,
      ".Ka": 2361,
      "polj": 2362,
      "ÐºÐ¾ÑĺÐ¾Ð": 2363,
      "rastvor": 2364,
      "meÄĳunarodno": 2365,
      "Ð½Ð°ÑģÑĤÐ°Ð²Ð½Ð¸ÐºÐ": 2366,
      "Ð¾Ð±Ð·Ð¸ÑĢÐ": 2367,
      "Hrvatsk": 2368,
      "Å¾el": 2369,
      ".Pore": 2370,
      "Ð¿Ð¾ÐºÑĢÐµÑĤÐ": 2371,
      "istraÅ¾ivanjim": 2372,
      "Ð¥ÑĢÐ²Ð°ÑĤÑģÐºÐ": 2373,
      "radn": 2374,
      "progra": 2375,
      "smanjuj": 2376,
      "ÑĤÑĥÑĢÐ¸ÑģÑĤÐ¸ÑĩÐºÐ": 2377,
      "Ð´ÑĢÑĥÑĪÑĤÐ²Ñ": 2378,
      "novo": 2379,
      "Ð½Ð°ÑĪÐµÐ": 2380,
      "milijard": 2381,
      "princip": 2382,
      "ÑģÐ²Ð¾ÑĺÑģÑĤÐ²Ð": 2383,
      "uzorak": 2384,
      "obiÄįn": 2385,
      "slobodn": 2386,
      "podacim": 2387,
      "predstav": 2388,
      "nacionalni": 2389,
      "ÐļÑĢÐ°ÑĻÐµÐ²Ð¸Ð½Ð": 2390,
      "192": 2391,
      "aktivn": 2392,
      "pojedinaÄįni": 2393,
      "proseÄįn": 2394,
      "Ð¿ÑĢÐ¾ÑĦÐµÑģÐ¸Ð¾Ð½Ð°Ð»Ð½Ð": 2395,
      "ÑĤÐµÐ¾ÑĢÐ¸ÑĺÑģÐºÐ": 2396,
      "Ð¿ÑĢÐ¸Ð¼Ð°ÑĢÐ½Ð": 2397,
      "Ð¼Ð°ÑĤÐµÑĢÐ¸ÑĺÐ°Ð»Ð½Ð": 2398,
      "tabel": 2399,
      "sektor": 2400,
      "ÑĢÐµÑ": 2401,
      "ljudim": 2402,
      "nezavisn": 2403,
      "ÐºÐ°Ð·Ð½Ð": 2404,
      "Ð´ÑĢÐ¶Ð°Ð²Ð°Ð¼Ð": 2405,
      "dozvol": 2406,
      "Ð±Ð¸ÑĽÐ": 2407,
      "ÑĥÑĩÐµÑģÐ½Ð¸ÐºÐ": 2408,
      "Ð¾Ð´ÑĢÐµÑĴÑĥÑĺÐ": 2409,
      "poÅ¡t": 2410,
      "imovin": 2411,
      "liÄįn": 2412,
      "ÐºÐ¾Ð¼Ð¸ÑģÐ¸ÑĺÐ": 2413,
      "popu": 2414,
      "ÑĺÐ°Ð½ÑĥÐ°ÑĢÐ": 2415,
      "ÐºÑĥÐ»ÑĤÑĥÑĢÐ½Ð¾Ð": 2416,
      "Ð¸Ð·Ð²ÑĢÑĪÐµÑļÐ": 2417,
      "politiÄįko": 2418,
      "ÐºÑļÐ¸Ð¶ÐµÐ²Ð½Ð¾ÑģÑ": 2419,
      "Ð¸Ð¼Ð¾Ð²Ð¸Ð½Ð": 2420,
      "godiÅ¡nj": 2421,
      "Ð½Ð°Ð³ÑĢÐ°Ð´Ð": 2422,
      "druÅ¡tveno": 2423,
      "ÑĤÐ¸Ð¼Ð": 2424,
      "poseduj": 2425,
      "ÑĺÐ°Ð²Ð½Ð¾ÑģÑĤÐ": 2426,
      "proÅ¡l": 2427,
      "Ð¸Ð½ÑĦÑĢÐ°ÑģÑĤÑĢÑĥÐºÑĤÑĥÑĢÐ": 2428,
      "odgovornos": 2429,
      "izrad": 2430,
      "moga": 2431,
      "postavljen": 2432,
      "sopstven": 2433,
      "Ð¾ÑģÑĤÐ²Ð°ÑĢÑĥÑĺÐ": 2434,
      "privred": 2435,
      ".ÐłÐµÐ·ÑĥÐ»ÑĤÐ°ÑĤÐ": 2436,
      "ÐºÐ°ÑĢÐ°ÐºÑĤÐµÑĢÐ¸ÑģÑĤÐ¸ÐºÐ°Ð¼Ð": 2437,
      "oprem": 2438,
      "odno": 2439,
      "ÑģÑĢÐ¿ÑģÐºÐ¸Ñ": 2440,
      ".Sv": 2441,
      "primer": 2442,
      "ÑĦÐµÐ±ÑĢÑĥÐ°ÑĢÐ": 2443,
      "uopÅ¡t": 2444,
      "Ð¿Ð¾Ð´Ð°ÑĤÐºÐ": 2445,
      "potroÅ¡nj": 2446,
      "ÐµÐºÐ¾Ð½Ð¾Ð¼ÑģÐºÐ¾Ð": 2447,
      "izgled": 2448,
      "poremeÄĩaj": 2449,
      ".D": 2450,
      "samo": 2451,
      "ÑĥÐºÑĥÐ¿Ð½Ð¾Ð": 2452,
      "Ð½ÐµÐºÐ¸Ð": 2453,
      "usle": 2454,
      "prethodni": 2455,
      "Ð²ÐµÐ»Ð¸ÐºÐ¸Ñ": 2456,
      "Ð´ÐµÑĦÐ¸Ð½Ð¸ÑĪÐ": 2457,
      "ÐłÐµÐ·ÑĥÐ»ÑĤÐ°ÑĤÐ": 2458,
      "unutraÅ¡nj": 2459,
      "otvoren": 2460,
      "ÐľÐµÑĴÑĥÐ½Ð°ÑĢÐ¾Ð´Ð½Ð": 2461,
      "raspodel": 2462,
      "reprezentacij": 2463,
      "Ð·Ð³ÑĢÐ°Ð´Ð": 2464,
      "ÐĿÐ°ÑĢÐ¾Ð´Ð½Ð": 2465,
      "ÐĿÐ¸ÐºÐ¾Ð»Ð": 2466,
      "trgovin": 2467,
      "Ð²Ð»Ð°Ð´Ð°Ð²Ð¸Ð½Ð": 2468,
      "Ð½Ð°Ð»Ð°Ð·Ð¸Ð»Ð": 2469,
      "list": 2470,
      "Ð°ÐºÑĤÐ¸Ð²Ð½Ð": 2471,
      "Ð½Ð°Ð²ÐµÐ´ÐµÐ½Ð¾Ð": 2472,
      "tehniÄįk": 2473,
      "Äįeg": 2474,
      "ÑģÑħÐ²Ð°ÑĤÐ°ÑļÐ": 2475,
      "utakmic": 2476,
      "unuta": 2477,
      ".ÐŀÐ½Ð": 2478,
      "ÐµÑĦÐµÐºÑĤÐ": 2479,
      "ÐºÑĢÐ¸Ð²Ð¸ÑĩÐ½Ð¸Ñ": 2480,
      "zat": 2481,
      "ÑģÐ¿ÑĢÐ¾Ð²ÐµÐ´ÐµÐ½Ð": 2482,
      "sluÅ¾b": 2483,
      "razgovor": 2484,
      "Ð´Ð°ÑĺÐ": 2485,
      ".ÐĿÐ°ÐºÐ¾Ð": 2486,
      "poloÅ¾aj": 2487,
      "ÑĥÑģÐ¿ÐµÑĪÐ½Ð": 2488,
      "postal": 2489,
      "ÑĩÐ»Ð°Ð": 2490,
      "struÄįn": 2491,
      "Ð±Ð¸Ð±Ð»Ð¸Ð¾ÑĤÐµÐºÐ": 2492,
      "ÑĦÐ¸Ð½Ð°Ð½ÑģÐ¸ÑĺÑģÐºÐ¸Ñ": 2493,
      "Ð·Ð°Ð´Ð¾Ð²Ð¾ÑĻÑģÑĤÐ²Ð": 2494,
      "visin": 2495,
      "pravn": 2496,
      "ÑĢÐ°Ð·Ð»Ð¸ÐºÑĥÑĺÑ": 2497,
      "Ð¼ÐµÐ´Ð¸ÑĺÐ": 2498,
      "ÐºÐ¾ÐµÑĦÐ¸ÑĨÐ¸ÑĺÐµÐ½ÑĤÐ": 2499,
      "ÐºÐ¾Ð½ÑĦÐµÑĢÐµÐ½ÑĨÐ¸ÑĺÐ": 2500,
      "ÐºÐ¸ÑģÐµÐ»Ð¸Ð½Ð": 2501,
      "neposredn": 2502,
      "septembr": 2503,
      "Ð¼Ð°ÐºÑģÐ¸Ð¼Ð°Ð»Ð½Ð": 2504,
      "definiÅ¡": 2505,
      "odgovornost": 2506,
      "strank": 2507,
      "ÑĤÑĢÐ³Ð¾Ð²Ð¸Ð½Ð": 2508,
      "ÐĿÐ¾Ð²Ð": 2509,
      "Ð²ÑĢÐµÐ¼ÐµÐ½Ñ": 2510,
      "elektronsk": 2511,
      "vazduh": 2512,
      "ÑĤÐ¾ÐºÑ": 2513,
      "ÑĥÑĩÐµÐ½Ð¸ÑĨÐ": 2514,
      "prijav": 2515,
      "meÄĳusobn": 2516,
      "ÑĢÐµÐ²Ð¾Ð»ÑĥÑĨÐ¸ÑĺÐ": 2517,
      "Ð¿ÑĢÐ¾ÑĺÐµÐºÑĤÐ": 2518,
      "stanovnik": 2519,
      "Ð¿Ð¾ÑĪÑĤÐ": 2520,
      "odreÄĳuj": 2521,
      "nikad": 2522,
      "ÑĤÑĥÑĢÐ¸Ð·Ð¼Ð": 2523,
      "dat": 2524,
      "ÐĳÑĥÐ³Ð°ÑĢÑģÐºÐ": 2525,
      "Äĩem": 2526,
      "ÐĿÐ¾Ð²Ð¾Ð": 2527,
      "Ð¾Ð³ÑĢÐ°Ð½Ð¸ÑĩÐµÐ½Ð": 2528,
      "Ð²Ð°ÑĢÐ¸ÑĺÐ°Ð½ÑĤÐ": 2529,
      "zgrad": 2530,
      "zadovoljstv": 2531,
      "obuhvat": 2532,
      ".ÐļÐ°Ð": 2533,
      "ÐºÐ¾Ð½ÑĨÐµÐ¿Ñ": 2534,
      "objaÅ¡njav": 2535,
      "Äįovek": 2536,
      "ÐĪÐ¾Ð²Ð°Ð½Ð¾Ð²Ð¸Ñ": 2537,
      "registrovan": 2538,
      "ÑģÐµÐ¼Ð°Ð½ÑĤÐ¸ÑĩÐºÐ": 2539,
      "-a": 2540,
      "buduÄĩnost": 2541,
      "ÑļÐµÐ³Ð¾Ð²Ð¸Ð": 2542,
      "implementacij": 2543,
      "tem": 2544,
      "skupÅ¡tin": 2545,
      ".Ð¢Ð": 2546,
      "ÑģÐ¿Ð¾ÑĢÐ°Ð·ÑĥÐ¼Ð": 2547,
      "Srpsk": 2548,
      "nastaj": 2549,
      "efekt": 2550,
      "svetsko": 2551,
      "godinam": 2552,
      "Ð°Ð¿ÑĢÐ¸Ð»Ð": 2553,
      "obrad": 2554,
      "ÐĳÐ¾ÑģÐ½Ð": 2555,
      "Ð¸Ð³ÑĢÐ": 2556,
      "Ð¿ÑĢÐ¾Ð¸Ð·Ð²Ð¾Ð´ÑļÑ": 2557,
      "poveÄĩav": 2558,
      "Novo": 2559,
      "poÄįinj": 2560,
      "Ð¿Ð¾Ð´ÑĢÑĪÐºÑ": 2561,
      "ÐºÑĢÐ°Ñ": 2562,
      "Ð·Ð°Ð´Ð°ÑĤÐ°Ð": 2563,
      "Ð¿Ð¾ÐµÐ·Ð¸ÑĺÐ": 2564,
      "SkupÅ¡tin": 2565,
      "Ð»Ð¸ÑĩÐ½Ð": 2566,
      "svakodnevn": 2567,
      "efikasnost": 2568,
      "vlad": 2569,
      "interesovanj": 2570,
      "svojstv": 2571,
      "ÑĨÐ°ÑĢÑģÑĤÐ²Ð": 2572,
      "zapoÅ¡ljavanj": 2573,
      "vek": 2574,
      "Ð¿Ð¾Ð²ÐµÐ·Ð°Ð½Ð¾ÑģÑ": 2575,
      "ÑĥÐ¼ÐµÑĤÐ½Ð¸ÑĩÐºÐ": 2576,
      "ÑĺÐ°Ð²ÑĻÐ": 2577,
      "predviÄĳen": 2578,
      "Ð¿Ð¾Ð¼Ð¾ÑĽÐ": 2579,
      "resurs": 2580,
      "ÐºÐ¾ÑĢÐ¸ÑĪÑĽÐµÑļÐµÐ": 2581,
      "ÑĺÐµÐ´Ð¸Ð½ÑģÑĤÐ²ÐµÐ½Ð": 2582,
      "Ð²ÑĢÑĪÐ": 2583,
      "Vlad": 2584,
      "ÑĥÑĤÐ¸ÑĩÐ": 2585,
      "ÑĢÐ°Ð·Ð¼Ð°ÑĤÑĢÐ°ÑļÐ": 2586,
      "kupovin": 2587,
      "ÑļÐµÐ¼Ñ": 2588,
      "ÑģÑĤÐ²Ð°ÑĢÐ½Ð¾ÑģÑĤÐ": 2589,
      "Ð¿Ð¾ÑĻÐ¾Ð¿ÑĢÐ¸Ð²ÑĢÐµÐ´Ð": 2590,
      "Ð³Ð¾Ð´Ð¸ÑĪÑļÐ": 2591,
      "radnik": 2592,
      "intervencij": 2593,
      "Ð¿Ð¾ÑĺÐµÐ´Ð¸Ð½Ð¸Ð": 2594,
      "istraÅ£ivanj": 2595,
      "ÑļÐµÐ³Ð¾Ð²Ñ": 2596,
      "Ð´Ð¸ÑģÑĨÐ¸Ð¿Ð»Ð¸Ð½Ð": 2597,
      "posa": 2598,
      "tad": 2599,
      "ÑļÐ¸ÑħÐ¾Ð": 2600,
      "ÑģÑĥÐ´Ð": 2601,
      "Ð¿ÑĢÐ¸ÑħÐ¾Ð´Ð": 2602,
      "ameriÄįk": 2603,
      "ÐµÐ²ÑĢÐ¾Ð¿ÑģÐºÐ": 2604,
      "obavezn": 2605,
      "Ð´Ð¾Ð²ÐµÐ»Ð": 2606,
      ")*": 2607,
      "Ð¾ÐºÐ¾Ð»Ð½Ð¾ÑģÑĤÐ¸Ð¼Ð": 2608,
      "borb": 2609,
      ".Tak": 2610,
      "ÑģÐ°ÑģÐ²Ð¸Ð": 2611,
      "ureÄĳaj": 2612,
      "ukupno": 2613,
      "ÑģÑĤÐ°ÑĤÑĥÑ": 2614,
      "inicijativ": 2615,
      "ÑĺÐµÐ´Ð½Ð°ÑĩÐ¸Ð½Ð": 2616,
      "ÑģÑĤÑĢÑĥÐºÑĤÑĥÑĢÑ": 2617,
      "ostvaruj": 2618,
      "samouprav": 2619,
      "ÑĥÐºÑĻÑĥÑĩÑĥÑĺÐ": 2620,
      "takmiÄįenj": 2621,
      "ispitanic": 2622,
      "smatraj": 2623,
      "ÑĢÐ°Ð´Ð½Ð¾Ð": 2624,
      "znaÄįa": 2625,
      "Ð¼Ð°ÑĤÐµÑĢÐ¸ÑĺÐ°Ð": 2626,
      "Ð¸Ð¿Ð°Ð": 2627,
      "Ð¿ÑĢÐ¸ÑĢÐ¾Ð´Ð½Ð¸Ñ": 2628,
      "niv": 2629,
      "karakter": 2630,
      "ÑĨÐ¸ÑĻÑ": 2631,
      "ÑģÐ²ÐµÑĤÑģÐºÐ": 2632,
      "Ð°ÐºÐ°Ð´ÐµÐ¼Ð¸ÑĺÐ": 2633,
      "mas": 2634,
      "verovatnoÄĩ": 2635,
      "Ð²ÐµÑĢÐ·Ð¸ÑĺÐ": 2636,
      "ÐĶÑĢÑĥÐ³Ð": 2637,
      "ljudsk": 2638,
      "eksperimentalni": 2639,
      "Ð½Ð°ÑĺÐ·Ð½Ð°ÑĩÐ°ÑĺÐ½Ð¸ÑĺÐ": 2640,
      "Ð±ÑĥÐ´ÑĥÑĽÐ½Ð¾ÑģÑĤÐ": 2641,
      "ÑģÑĥÐ±ÑĺÐµÐºÑĤÐ": 2642,
      "Ð¿ÑĢÐ¸Ð¿ÑĢÐµÐ¼Ð": 2643,
      "Ð´Ð¾Ð½Ð¾ÑģÐ": 2644,
      "Ð¿ÑĢÐ¾ÑĨÐµÐ´ÑĥÑĢÐ": 2645,
      "ÑģÐºÐ¾ÑĢÐ": 2646,
      "Ð´ÐµÑĦÐ¸Ð½Ð¸ÑģÐ°ÑļÐ": 2647,
      "rat": 2648,
      "rekl": 2649,
      "ÑĢÐ¾Ð¼Ð°Ð½Ð": 2650,
      "ÑĥÐ½Ð¸ÑĺÐ": 2651,
      "Ð½Ð°ÑĩÐµÐ»Ð": 2652,
      "ÑĥÑĤÐ¸ÑĨÐ°ÑĺÐµÐ": 2653,
      "eksperiment": 2654,
      "Zakon": 2655,
      "Ð¿Ð¾Ð±Ð¾ÑĻÑĪÐ°ÑļÐ": 2656,
      "javni": 2657,
      "ÐºÐ¾Ð½ÑĤÑĢÐ¾Ð»Ñ": 2658,
      "ÑĦÐ°ÐºÑĥÐ»ÑĤÐµÑ": 2659,
      "sezon": 2660,
      "skor": 2661,
      "Ð²Ð°Ð·Ð´ÑĥÑħÐ": 2662,
      "Ð¾Ð±Ð": 2663,
      "Ð¿Ð¾ÑģÐ»Ð¾Ð²Ð½Ð": 2664,
      "ÐºÐ»Ð°ÑģÐ": 2665,
      "Ð´ÐµÑĺÑģÑĤÐ²Ð": 2666,
      "diskriminacij": 2667,
      "evr": 2668,
      ".S": 2669,
      "zaist": 2670,
      "Ð¿Ð¾ÑĺÐµÐ´Ð¸Ð½Ð°ÑĩÐ½Ð¸Ñ": 2671,
      "Ð¸Ð·ÑĢÐ°Ð·Ð": 2672,
      "emisij": 2673,
      "karakteristiÄįn": 2674,
      "komisij": 2675,
      "Aleksandr": 2676,
      "nisa": 2677,
      "pritisk": 2678,
      "kriviÄįn": 2679,
      "ÑĥÐ³Ð¾Ð²Ð¾Ñ": 2680,
      "ÐµÐ»ÐµÐºÑĤÑĢÐ¸ÑĩÐ½Ð": 2681,
      "ÑĩÐ»Ð°Ð½Ð": 2682,
      "Ð¿Ð¾ÑģÐ¼Ð°ÑĤÑĢÐ°Ð½Ð": 2683,
      "Ð¾Ð±Ð»Ð°ÑģÑ": 2684,
      "ÑģÐ¸ÑĤÑĥÐ°ÑĨÐ¸ÑĺÐ°Ð¼Ð": 2685,
      "Ð³ÑĢÐ°Ð": 2686,
      "Ð·Ð°Ð¿Ð¾ÑģÐ»ÐµÐ½Ð": 2687,
      "bank": 2688,
      "Ð¿Ð°ÑĨÐ¸ÑĺÐµÐ½ÑĤÐ": 2689,
      "ÑĩÐ¸Ð¼Ð": 2690,
      "koeficijent": 2691,
      "Ð¾Ð´Ð½Ð¾ÑģÐ¸Ð¼Ð": 2692,
      "Ð²ÐµÐ»Ð¸ÐºÐ¸Ð": 2693,
      "ÐºÐ¾Ð½ÐºÑĢÐµÑĤÐ½Ð": 2694,
      "perspektiv": 2695,
      "ÑĦÑĥÐ½ÐºÑĨÐ¸Ð¾Ð½Ð°Ð»Ð½Ð": 2696,
      "Ð·Ð°ÑģÑĤÑĥÐ¿ÑĻÐµÐ½Ð": 2697,
      "zakljuÄįit": 2698,
      "Ð´Ð¾Ð±Ð¸ÑĺÐµÐ½Ð¸Ñ": 2699,
      "Ð¶Ð¸Ð²Ð¾ÑĤÑ": 2700,
      "ÑĥÑģÐ¼ÐµÑĢÐµÐ½Ð": 2701,
      "Ð¾Ð±ÑĢÐ°Ð´Ð": 2702,
      ".ÐĺÐ°ÐºÐ": 2703,
      "nasilj": 2704,
      "Ð¿ÑĢÐ¸ÐºÐ°Ð·Ð°Ð": 2705,
      "Ð¿Ð¾Ð³Ð»Ð°Ð²ÑĻÐ": 2706,
      "ÐºÐ°ÑĢÐ¸ÑĺÐµÑĢÐ": 2707,
      "buduÄĩ": 2708,
      "svakak": 2709,
      "kljuÄįn": 2710,
      "poruk": 2711,
      "odgovorn": 2712,
      "naknad": 2713,
      "ÑĤÑĢÐµÑĽÐ": 2714,
      "reÄįim": 2715,
      "unutraÅ¡nji": 2716,
      "predstavnik": 2717,
      "Ð³Ð¾Ð´Ð¸Ð½Ð°Ð¼Ð": 2718,
      "izvrÅ¡enj": 2719,
      ".2": 2720,
      "najvaÅ¾nij": 2721,
      "Ð·Ð°ÐºÐ¾Ð½Ð¾Ð´Ð°Ð²ÑģÑĤÐ²Ð": 2722,
      "boj": 2723,
      "Ð¼Ð": 2724,
      "ÐºÐ¾Ð½Ð°ÑĩÐ½Ð": 2725,
      "zakono": 2726,
      "Ð¿ÑĢÐ¾ÑģÑĤÐ¾ÑĢÐ½Ð": 2727,
      "vremensk": 2728,
      "ÑĺÐ°Ð²ÑĻÐ°ÑĺÑ": 2729,
      "ÑģÑĥÐ´Ð¸ÑĺÐ": 2730,
      "ÐºÑĢÐ°ÑĺÐµÐ": 2731,
      "Ð½Ð°ÑĺÐ²Ð°Ð¶Ð½Ð¸ÑĺÐ": 2732,
      "ÐĲÐ»ÐµÐºÑģÐ°Ð½Ð´ÑĢÐ": 2733,
      "Ð½Ð°Ð·Ð¸Ð²Ð¾Ð": 2734,
      "ÐºÐ°Ð¶Ð": 2735,
      "Ð¿ÑĢÐµÑģÑĥÐ´Ð": 2736,
      "njeno": 2737,
      "ÑĢÐ°Ð·Ð»Ð¸ÐºÑĥÑĺÐ": 2738,
      "Ð´Ð¾Ð±Ð¸Ð": 2739,
      "zabeleÅ¾en": 2740,
      "jedinstven": 2741,
      "Ð¿ÑĢÐ¾Ð¿Ð¸ÑģÐ°Ð½Ð": 2742,
      "ÑģÑĤÐ°ÑĢÐ": 2743,
      "klasifikacij": 2744,
      "Ð±Ð¾ÑĻÐ": 2745,
      "kakv": 2746,
      "ÑĢÐ°Ð´Ð½Ð": 2747,
      "Ð°Ð´Ð¼Ð¸Ð½Ð¸ÑģÑĤÑĢÐ°ÑĤÐ¸Ð²Ð½Ð": 2748,
      "energetsk": 2749,
      "Ð´Ð¾ÑģÑĤÑĥÐ¿Ð½Ð": 2750,
      "Internationa": 2751,
      "testiranj": 2752,
      "istorijsk": 2753,
      "Ð²ÐµÑĢÐ¾Ð²Ð°ÑĤÐ½Ð¾ÑĽÐ": 2754,
      "ishran": 2755,
      "ÑģÑĤÐ²Ð°ÑĢÐ°Ð»Ð°ÑĪÑĤÐ²Ð": 2756,
      "ÑĦÐ°ÐºÑĤÐ¾Ñ": 2757,
      "Ð¿Ð¾ÑĤÑĢÐ¾ÑĪÑļÐ": 2758,
      "normaln": 2759,
      "oni": 2760,
      "polovin": 2761,
      "obavljanj": 2762,
      ".Ð£ÐºÐ¾Ð»Ð¸ÐºÐ": 2763,
      "radno": 2764,
      "ÐºÐ°ÑĢÐ°ÐºÑĤÐµÑĢÐ¸ÑĪÐ": 2765,
      "Ð°Ð½Ð°Ð»Ð¸Ð·Ð¸ÑĢÐ°Ð½Ð": 2766,
      "Ð±Ð°Ð½ÐºÐ": 2767,
      "opÅ¡t": 2768,
      "obzir": 2769,
      "ÑĺÐµÐ´Ð½Ð¾Ñ": 2770,
      "ÐĳÑĢÐ¸ÑĤÐ°Ð½Ð¸ÑĺÐ": 2771,
      "ÑĤÐµÐ¼Ð": 2772,
      "Ð¸Ð¼Ð¿Ð»ÐµÐ¼ÐµÐ½ÑĤÐ°ÑĨÐ¸ÑĺÐ": 2773,
      "Ð¾ÐºÐ¾Ð»Ð¸Ð½Ð": 2774,
      "Ð²Ð»Ð°ÑģÑ": 2775,
      "poslovni": 2776,
      ".r": 2777,
      ".0": 2778,
      "Ð±ÐµÐ·Ð±ÐµÐ´Ð½Ð¾ÑģÑ": 2779,
      "Ð¸ÑģÑĤÐ¾ÑĢÐ¸ÑĺÑ": 2780,
      "Ð¸Ð·ÑĢÐ°Ð¶ÐµÐ½Ð": 2781,
      "Ð°ÐºÑĤÐ¸Ð²Ð½Ð¾ÑģÑĤÐ¸Ð¼Ð": 2782,
      "greÅ¡k": 2783,
      "Ð¿Ð¾ÑĻÐ": 2784,
      "vezan": 2785,
      "Ð¿ÑĢÐµÐ´ÑģÑĤÐ°Ð²Ð½Ð¸ÑĨÐ": 2786,
      "Ð´Ð¾Ð¿ÑĢÐ¸Ð½Ð¾Ñ": 2787,
      "nauk": 2788,
      "donos": 2789,
      "objaÅ¡njenj": 2790,
      "Ð¿Ð¾Ð³Ð»Ð°Ð²ÑĻÑ": 2791,
      "plaÄĩanj": 2792,
      "ÑĥÐ¼ÐµÑģÑĤÐ": 2793,
      "nemaj": 2794,
      "Ð´Ð¾ÐºÑĤÐ¾ÑĢÑģÐºÐ": 2795,
      "Ð¿Ð¾ÑĤÐµÐ½ÑĨÐ¸ÑĺÐ°Ð»Ð": 2796,
      "Äįestic": 2797,
      "ÐºÑĢÐ¸Ð·Ð": 2798,
      "ovd": 2799,
      "Ð¿ÑĢÐ°Ð²Ñ": 2800,
      "Ð´Ð°ÐºÐ»Ð": 2801,
      "svetsk": 2802,
      "Ð¿ÑĢÐ¸Ð²ÑĢÐµÐ´Ð½Ð": 2803,
      "pojedinc": 2804,
      "iak": 2805,
      "Ð¿Ð»Ð°Ð½Ð¸Ð½Ð": 2806,
      "ekonomsko": 2807,
      "ÑģÑĢÐµÐ´ÑļÐµÐ": 2808,
      "finansijsko": 2809,
      "poverenj": 2810,
      "nagrad": 2811,
      "kapital": 2812,
      "integracij": 2813,
      "ÑħÐ¸Ð¿Ð¾ÑĤÐµÐ·Ð": 2814,
      "njiho": 2815,
      "Ð¿ÑĢÐ¾Ð³ÑĢÐ°Ð": 2816,
      "ÑĨÐ¸Ñ": 2817,
      "prirodni": 2818,
      "1,": 2819,
      "predme": 2820,
      "Ð¾Ð±Ð·Ð¸Ñ": 2821,
      "serij": 2822,
      "ÑļÐ¸ÑħÐ¾Ð²Ð¸Ð": 2823,
      "portal": 2824,
      ".ÐļÐ°Ð´Ð": 2825,
      "Ð¾Ð±ÐµÐ»ÐµÐ¶ÑĺÐ": 2826,
      "ÐºÐ°Ð¿Ð¸ÑĤÐ°Ð»Ð": 2827,
      "Ð¼Ð°Ð½Ð¸ÑĦÐµÑģÑĤÐ°ÑĨÐ¸ÑĺÐ": 2828,
      "postavljanj": 2829,
      "standardn": 2830,
      "ÑĪÑĤÐµÑĤÐ": 2831,
      "Ð²Ð¸Ð´ÐµÑĤÐ": 2832,
      "materija": 2833,
      "proizvo": 2834,
      "Ð´ÑĥÐ¶Ð½Ð¾ÑģÑĤÐ": 2835,
      "Ð¿Ð¾ÑĺÐ°Ð²ÑĻÑĥÑĺÐ": 2836,
      "Ð¾ÑĢÐ³Ð°Ð½Ð¸Ð·Ð°ÑĨÐ¸Ð¾Ð½Ð": 2837,
      "efeka": 2838,
      "Ð¿Ð¾ÑĢÐµÐ¼ÐµÑĽÐ°ÑĺÐ": 2839,
      "12": 2840,
      "dostupn": 2841,
      "Ð¸Ð½Ð²ÐµÑģÑĤÐ¸ÑĨÐ¸ÑĺÐ": 2842,
      "ÐĳÐ¸Ð¾Ð³ÑĢÐ°ÑĦÐ¸ÑĺÐ": 2843,
      "Ð¿Ð¾ÐºÐ°Ð·Ð°ÑĤÐµÑĻÐ": 2844,
      "igr": 2845,
      "ÑģÑĥÐ´Ð¾Ð²Ð": 2846,
      "hiljad": 2847,
      "organizovan": 2848,
      "Ð´Ð¸ÑģÑĤÑĢÐ¸Ð±ÑĥÑĨÐ¸ÑĺÐ": 2849,
      "Ð°Ð´Ð¼Ð¸Ð½Ð¸ÑģÑĤÑĢÐ°ÑĨÐ¸ÑĺÐ": 2850,
      "Ð¿Ð¾Ð´ÐµÐ»Ð": 2851,
      "Hercegovin": 2852,
      ".ÐĹÐ": 2853,
      "medicinsk": 2854,
      "ÑĤÐ¾Ð»Ð¸ÐºÐ": 2855,
      "pojavljuj": 2856,
      "Ð´Ð¾Ð±Ð": 2857,
      "Ð¸Ð·Ð²Ð¾ÑĴÐµÑļÐ": 2858,
      "2.": 2859,
      "Ð·Ð°Ð²ÑĢÑĪÐ¸Ð": 2860,
      "potencijal": 2861,
      "11": 2862,
      "Ð¸Ð½ÑģÑĤÐ¸ÑĤÑĥÑĤÐ": 2863,
      "Ð¡Ð»ÑĥÐ¶Ð±ÐµÐ½Ð": 2864,
      "dejstv": 2865,
      "Ð¿ÑĢÐ¾ÑĦÐµÑģÐ¾Ñ": 2866,
      "Ð¿Ð¾ÑģÑĤÐ°Ð²ÑĻÐ": 2867,
      "intenzitet": 2868,
      "rekonstrukcij": 2869,
      "Ð½Ð°Ð·Ð¸Ð": 2870,
      "Ð½Ð°ÑĨÐ¸ÑĺÐ": 2871,
      "Ð·Ð²Ð°Ð½Ð¸ÑĩÐ½Ð": 2872,
      "ÑĺÐµÐ·Ð¸ÑĩÐºÐ": 2873,
      "povred": 2874,
      "ÑĥÐ½ÑĥÑĤÑĢÐ°ÑĪÑļÐ¸Ñ": 2875,
      "Ð½Ð°ÑĪÐ": 2876,
      "Ð¾Ð±Ð»Ð°ÑģÑĤÐ¸Ð¼Ð": 2877,
      "Ð´Ð¾Ð¼Ð¸Ð½Ð°Ð½ÑĤÐ½Ð": 2878,
      "Ð¿Ð¾ÑģÐ²ÐµÑĽÐµÐ½Ð": 2879,
      "ÑģÑĤÐ°Ð»Ð½Ð": 2880,
      "Ð»ÐµÐºÑģÐµÐ¼Ð": 2881,
      "aktivnostim": 2882,
      "ÐºÐ¾Ð½Ð²ÐµÐ½ÑĨÐ¸ÑĺÐ": 2883,
      "Ð´ÐµÑĤÐµÑĤÐ": 2884,
      "karakteriÅ¡": 2885,
      "Ð¸Ð½Ð´Ð¸Ð²Ð¸Ð´ÑĥÐ°Ð»Ð½Ð": 2886,
      "(199": 2887,
      "Ð²ÑĢÐµÐ¼ÐµÐ½ÑģÐºÐ¾Ð": 2888,
      "izjavi": 2889,
      "Ð¡Ð": 2890,
      "potencija": 2891,
      "funkcionaln": 2892,
      "porekl": 2893,
      "Ð¿Ð¾ÑĻÐ¾Ð¿ÑĢÐ¸Ð²ÑĢÐµÐ´Ð½Ð": 2894,
      "Ð¿Ð¾Ð·Ð¾ÑĢÐ¸ÑĪÑĤÐ": 2895,
      "Ð·Ð°ÑĤÐ": 2896,
      "sastoj": 2897,
      "ozbiljn": 2898,
      "Äįasov": 2899,
      "aspekt": 2900,
      ".Al": 2901,
      "Ð¿Ð¾ÑĢÐµÑĴÐµÑļÑ": 2902,
      "identitet": 2903,
      "nastal": 2904,
      "Ð¿Ð¾ÑĤÐ²ÑĢÑĴÑĥÑĺÐ": 2905,
      "izvrÅ¡en": 2906,
      "Ð¿Ð¾Ð²ÐµÑĽÐ°Ð²Ð": 2907,
      "produkcij": 2908,
      "Ð½Ð°ÑģÑĤÐ°Ð½ÐºÐ": 2909,
      "evropsk": 2910,
      "ÑĤÐµÐºÑģÑĤÑ": 2911,
      "zaÅ¡t": 2912,
      "Ð¿Ð¾ÑģÑĤÐ¾ÑĺÐµÑĽÐ": 2913,
      "ÑĦÐ¾ÑĢÐ¼Ð°Ð»Ð½Ð": 2914,
      "efikasnos": 2915,
      "Ð¿ÑĢÐ¸Ð¼ÐµÑĢÑ": 2916,
      "ÐĵÐ¾ÑĢÐ": 2917,
      "Ð¾Ð½Ð¸Ñ": 2918,
      "Ð·Ð°ÐºÐ¾Ð½Ð¾Ð": 2919,
      "simptom": 2920,
      "ÑĦÐ¸Ð½Ð°Ð½ÑģÐ¸ÑĢÐ°ÑļÐ": 2921,
      "ÑĥÑĤÐ¸ÑĨÐ°Ð»Ð": 2922,
      "ÑĤÑĢÐ°ÑĺÐ°ÑļÐ": 2923,
      "projeka": 2924,
      "ÑĢÐ°Ð´Ð½Ð¸ÐºÐ": 2925,
      "kontroln": 2926,
      "Ð¿ÑĢÐµÐ½Ð¾ÑģÐ": 2927,
      "Ð¾ÑĪÑĤÐµÑĽÐµÑļÐ": 2928,
      "sat": 2929,
      "Ð´ÑĢÐ¶Ð°Ð²Ð½Ð¾Ð": 2930,
      "veÅ¡tin": 2931,
      "ÑģÐµÐ¿ÑĤÐµÐ¼Ð±Ð°Ñ": 2932,
      "ÑĤÐ°ÐºÐ¼Ð¸ÑĩÐµÑļÐ": 2933,
      "Ð³ÐµÐ½ÐµÑĢÐ°Ð»Ð½Ð": 2934,
      "Ð¿Ð¾ÑĤÑĢÐ¾ÑĪÐ°ÑĩÐ": 2935,
      "Ð¸Ð·Ð²ÐµÑĪÑĤÐ°ÑĺÐ": 2936,
      "misli": 2937,
      "stepe": 2938,
      "Ð¸Ð½Ð´Ð¸ÐºÐ°ÑĤÐ¾ÑĢÐ": 2939,
      "manifestacij": 2940,
      "ÑĢÐµÑĦÐ¾ÑĢÐ¼Ð": 2941,
      "vrat": 2942,
      "moÄĩ": 2943,
      "Ð»Ð¾ÐºÐ°ÑĨÐ¸ÑĺÐ": 2944,
      "prihod": 2945,
      "Ð¿Ð¾ÑĤÐµÐ½ÑĨÐ¸ÑĺÐ°Ð": 2946,
      "ÑģÑĤÐ¾Ð¿Ð": 2947,
      "Ð±Ð»Ð¸Ð·Ð¸Ð½Ð": 2948,
      "Ð·Ð°ÑĺÐµÐ´Ð½Ð¸ÑĩÐºÐ¾Ð": 2949,
      "bezbednos": 2950,
      "Ð½ÐµÐ¼Ð°ÑĩÐºÐ¾Ð": 2951,
      "Ð¸Ð´ÐµÐ½ÑĤÐ¸ÑĤÐµÑ": 2952,
      "karakteristikam": 2953,
      "NemaÄįk": 2954,
      "ÑĺÐµÐ´Ð½Ð°ÐºÐ": 2955,
      "udruÅ¾enj": 2956,
      "ÑģÐ¾Ð¿ÑģÑĤÐ²ÐµÐ½Ð¾Ð": 2957,
      "Ð±ÑĥÐ³Ð°ÑĢÑģÐºÐ": 2958,
      "Äįlanic": 2959,
      "Ð´Ð°Ð": 2960,
      "Ð¸Ð·ÑĢÐ°Ð´Ð": 2961,
      "ÑĢÐ°Ð·Ð²Ð¸ÑĺÐµÐ½Ð": 2962,
      "dobijanj": 2963,
      "oktobr": 2964,
      "Ð¿Ð¾ÑĺÐ¼Ð¾Ð²Ð": 2965,
      ".ÐŁÑĢÐ²Ð": 2966,
      "Ð¸Ð´ÐµÐ¾Ð»Ð¾Ð³Ð¸ÑĺÐ": 2967,
      "Ð´ÐµÐ¼Ð¾ÐºÑĢÐ°ÑĤÐ¸ÑĺÐ": 2968,
      "ÑĤÑĢÐµÐ½ÑĥÑĤÐ½Ð": 2969,
      "Ð¾ÑģÐ¸Ð": 2970,
      "centraln": 2971,
      "ograniÄįen": 2972,
      "ÑģÑĤÐ°Ð½Ð´Ð°ÑĢÐ´Ð½Ð": 2973,
      "Ð¼Ð°ÑĢÑĤÐ": 2974,
      "pregled": 2975,
      "Ð½Ð°ÑĢÐ¾Ð´Ð½Ð¾Ð": 2976,
      "Ð¼ÑĥÐ·Ð¸ÐºÐ": 2977,
      "ÐºÐ¾Ð½ÐºÑĢÐµÑĤÐ½Ð¾Ð": 2978,
      "Srb": 2979,
      "automatsk": 2980,
      "dokument": 2981,
      "samostaln": 2982,
      "Ð¿ÑĢÐµÐ»Ð°Ð·Ð": 2983,
      "Ð±ÑĥÐ´Ñ": 2984,
      "190": 2985,
      "klas": 2986,
      ".ÐŀÐ": 2987,
      "ÑĥÐ·Ð¾ÑĢÐºÐ": 2988,
      "Ð¿ÑĢÐ¸ÑĤÐ¸ÑģÐºÐ": 2989,
      "Ð¡ÐĲÐ": 2990,
      ".ÐļÐ°ÐºÐ": 2991,
      "pruÅ¾": 2992,
      "odluÄįivanj": 2993,
      "definicij": 2994,
      "ÑģÐ°Ð¼Ð¾ÑĥÐ¿ÑĢÐ°Ð²Ð": 2995,
      "ÑĢÐµÐ³Ð¸Ð¾Ð½Ð": 2996,
      "Ð¿Ð¾ÑĩÐ¸ÑļÐ": 2997,
      "znatn": 2998,
      "jo": 2999,
      "Ð¾Ð´ÑĢÐ¶Ð¸Ð²Ð¾Ð": 3000,
      "jednaÄįin": 3001,
      "ÑĦÑĢÐ°Ð½ÑĨÑĥÑģÐºÐ¾Ð": 3002,
      "ÑģÑĤÐ°ÑļÑ": 3003,
      "Äįove": 3004,
      "komenta": 3005,
      "ÑģÐ²ÐµÐ´Ð¾ÑĩÐ": 3006,
      "ÐļÐ¾Ð½Ð²ÐµÐ½ÑĨÐ¸ÑĺÐ": 3007,
      "nauÄįn": 3008,
      "Ð¾Ð±ÐµÐ·Ð±ÐµÑĴÑĥÑĺÐ": 3009,
      "Ð¼ÑĥÐ·Ð¸ÑĩÐºÐ": 3010,
      "frekvencij": 3011,
      "Ð»Ð¸ÑģÑĤÐ": 3012,
      "reÄ": 3013,
      "Ð¸Ð¼ÐµÐ½Ð": 3014,
      "ÑģÐ¼Ð°ÑĤÑĢÐ°ÑĤÐ": 3015,
      "sprovod": 3016,
      "stvarn": 3017,
      "ÑĦÐ¸Ð»Ð¾Ð·Ð¾ÑĦÐ¸ÑĺÐ": 3018,
      "Republic": 3019,
      ".Iak": 3020,
      "ÑģÑĥÐºÐ¾Ð±Ð": 3021,
      "Ð¼Ð°ÑĺÐºÐ": 3022,
      "Ð°Ð¿ÑģÐ¾Ð»ÑĥÑĤÐ½Ð": 3023,
      "decenij": 3024,
      "Ð·Ð°ÐºÑĻÑĥÑĩÐ°Ð": 3025,
      "Ð¿Ð¾ÑĤÐ²ÑĢÑĴÐµÐ½Ð": 3026,
      "informacijam": 3027,
      ".Ova": 3028,
      "vaÅ¡": 3029,
      "Ð¿ÑĢÐ¾Ð¸Ð·Ð²Ð¾ÑĴÐ°ÑĩÐ": 3030,
      "zraÄįenj": 3031,
      "zdravstveni": 3032,
      "Ð¾Ð²Ð´Ð": 3033,
      "ÑĤÐµÐºÑģÑ": 3034,
      "ÑĢÐµÐºÐ": 3035,
      "naselj": 3036,
      "zdravstveno": 3037,
      "direktor": 3038,
      "Ð¿ÑĢÐ²ÐµÐ½ÑģÑĤÐ²Ñ": 3039,
      "Ð½Ð°Ñ": 3040,
      "partner": 3041,
      "ÐºÐ¾Ð¼Ð¿Ð»ÐµÐºÑģÐ": 3042,
      "ÐºÐ¾Ð³Ð": 3043,
      "Ð³Ð»Ð°Ð²Ð½Ð¾Ð": 3044,
      "redovn": 3045,
      ".Naim": 3046,
      "molekul": 3047,
      "ÑĢÐµÐ»Ð°ÑĨÐ¸ÑĺÐ": 3048,
      "ÑĢÐ°Ð´Ð¸Ð": 3049,
      "brojn": 3050,
      "cil": 3051,
      "Ð²ÐµÐ»Ð¸ÐºÐ¾Ñ": 3052,
      "ispitivan": 3053,
      "propisan": 3054,
      "karijer": 3055,
      "visoko": 3056,
      "Ð¼ÐµÑĤÐ¾Ð´Ð¾Ð»Ð¾Ð³Ð¸ÑĺÐ": 3057,
      "filozofij": 3058,
      "Ð¿Ð¾ÑĪÑĤÐ¾Ð²Ð°ÑļÐ": 3059,
      "ÑģÐ¿ÑĢÐ¾Ð²Ð¾Ð´Ð": 3060,
      "nikakv": 3061,
      "Ð¼Ð°ÑĤÐµÑĢÐ¸ÑĺÐ": 3062,
      "Ð¾ÑĩÐ¸Ð³Ð»ÐµÐ´Ð½Ð": 3063,
      "imam": 3064,
      "ÐµÐºÐ¾Ð½Ð¾Ð¼ÑģÐºÐ¸Ñ": 3065,
      "postojeÄĩ": 3066,
      "Ð´ÐµÐ»Ð¾Ð²Ð¸Ð¼Ð": 3067,
      "uvoÄĳenj": 3068,
      "Ð¼Ð¾ÑĢÐ°Ð»Ð": 3069,
      "direkto": 3070,
      "ÑĥÑĤÐ¸ÑĩÑ": 3071,
      "ÐºÑĻÑĥÑĩÐ½Ð": 3072,
      "ÑĨÐµÐ½ÑĤÐ°Ñ": 3073,
      "ÑĥÐ¾Ð±Ð¸ÑĩÐ°ÑĺÐµÐ½Ð": 3074,
      "muÅ¡karc": 3075,
      "Ð°ÑĥÑĤÐ¾Ñ": 3076,
      "ostaj": 3077,
      "struj": 3078,
      "ÐµÑĦÐ¸ÐºÐ°ÑģÐ½Ð¾ÑģÑ": 3079,
      "Ð¿Ð¾Ð»Ð¸ÑĤÐ¸ÐºÑ": 3080,
      "Ð·Ð¾Ð½Ð": 3081,
      "ÑĥÐ¿ÑĢÐ°Ð²Ð½Ð¾Ð": 3082,
      "Ð´Ð¾ÐºÑĥÐ¼ÐµÐ½ÑĤÐ": 3083,
      "Ð³Ð»Ð°ÑģÐ½Ð¸Ð": 3084,
      "kompleks": 3085,
      "privatn": 3086,
      "Ð¾ÑĨÐµÐ½Ð": 3087,
      "Ð¸Ð½ÑĤÐµÐ½Ð·Ð¸ÑĤÐµÑĤÐ": 3088,
      "ÑħÑĢÐ°Ð½Ð": 3089,
      "Ð¢Ð¾ÐºÐ¾Ð": 3090,
      "preÅ¾ivljavanj": 3091,
      "Ð¼Ð¸ÑģÐ»Ð": 3092,
      "Ð½Ð¸ÑĤÐ": 3093,
      "predstavnic": 3094,
      "interne": 3095,
      "poÅ¡tovanj": 3096,
      "Ð¡Ð²ÐµÑĤÐ": 3097,
      "postojeÄĩi": 3098,
      "Ð»Ð¾ÐºÐ°Ð»Ð½Ð¾Ð": 3099,
      "Ð¾ÑģÑĤÐ²Ð°ÑĢÐµÑļÐ": 3100,
      "Ð¾Ð±ÑĺÐ°ÑĪÑļÐµÑļÐ": 3101,
      "moj": 3102,
      "Ð½Ð¸ÐºÐ°Ð´Ð": 3103,
      "staln": 3104,
      "Ð½ÐµÐ´Ð¾Ð²Ð¾ÑĻÐ½Ð": 3105,
      "ÐºÑĢÐ¸ÑĤÐ¸ÐºÐ": 3106,
      "orijentacij": 3107,
      "telefon": 3108,
      "Ð¿Ð¾ÑģÐ»ÐµÐ´ÑļÐ¸Ñ": 3109,
      "ÐķÐ²ÑĢÐ¾Ð¿ÑģÐºÐ¾Ð": 3110,
      "ÐŁÐ¾ÑĢÐµÐ": 3111,
      "Ð¿ÑĢÐ¸Ð¼ÐµÑļÑĥÑĺÐ": 3112,
      "Ð¾ÑĢÐ³Ð°Ð½Ð¸Ð·Ð°ÑĨÐ¸ÑĺÑ": 3113,
      "konaÄįn": 3114,
      "Ð¼Ð¾Ð¶Ð´Ð": 3115,
      "Ð½ÐµÐ´Ð¾ÑģÑĤÐ°ÑĤÐ°Ð": 3116,
      "odma": 3117,
      "Ð¿ÑĢÐ¾Ð¿Ð¸ÑģÐ": 3118,
      "konkurencij": 3119,
      "Ð¾ÑģÑĤÐ°Ð»Ð¾Ð": 3120,
      "Ð¾ÑģÑĤÐ°Ð»Ð¸Ð": 3121,
      "Ð¾ÑĢÐ³Ð°Ð½Ð¸Ð·Ð°ÑĨÐ¸ÑĺÐ°Ð¼Ð": 3122,
      "naravn": 3123,
      "Ð¾Ð¼Ð¾Ð³ÑĥÑĽÐ¸Ð»Ð": 3124,
      "kriviÄįno": 3125,
      "ÐĹÐ°ÐºÐ¾Ð½Ð": 3126,
      "glav": 3127,
      "Ð¿Ð¾ÑĺÐ°Ð": 3128,
      "mnogi": 3129,
      "ÑĢÐµÐ´Ð¾Ð²Ð½Ð": 3130,
      "ÑģÑĤÑĥÐ´ÐµÐ½ÑĤÐ": 3131,
      "Ð¾ÑĢÐ¸ÑĺÐµÐ½ÑĤÐ°ÑĨÐ¸ÑĺÐ": 3132,
      "bakterij": 3133,
      "ÑģÑĤÑĢÐ°Ð½Ð¸Ñ": 3134,
      "ÐłÐµÐ·ÑĥÐ»ÑĤÐ°Ñ": 3135,
      "saradnic": 3136,
      "poto": 3137,
      "Ð½Ð°ÑģÑĤÐ°ÑĺÐ": 3138,
      "studenat": 3139,
      "Ð¸Ð·Ð´Ð°ÑļÐ": 3140,
      "ÐŀÐ": 3141,
      "ÐļÐ°Ð": 3142,
      "sastav": 3143,
      "Ð½Ð°Ð¿Ð¸ÑģÐ°Ð": 3144,
      "ÑĢÐ°ÑģÐ¿Ð¾Ð´ÐµÐ»Ð": 3145,
      "ÑģÐµÐºÑĤÐ¾ÑĢÐ": 3146,
      "Ð³Ð»Ð°Ð²Ð": 3147,
      "ÑļÐ¸ÑħÐ¾Ð²Ñ": 3148,
      "Ð¸ÑģÐ¿Ð¾Ð": 3149,
      "baz": 3150,
      "ocen": 3151,
      "Ð¼ÐµÑħÐ°Ð½Ð¸Ð·Ð¼Ð": 3152,
      "prvenstven": 3153,
      "plan": 3154,
      "Ð¿ÑĢÐ¸Ð¿Ð°Ð´Ð½Ð¸ÐºÐ": 3155,
      "ÐºÐ¾ÐµÑĦÐ¸ÑĨÐ¸ÑĺÐµÐ½Ñ": 3156,
      "Ð½ÐµÑĽÐ": 3157,
      "Ð¸Ð´ÐµÐ½ÑĤÐ¸ÑĦÐ¸ÐºÐ°ÑĨÐ¸ÑĺÐ": 3158,
      "savremen": 3159,
      "Ð½Ð°ÑĺÐ¿ÑĢÐ": 3160,
      "jak": 3161,
      "ÐºÑĢÐ°ÑĻÐ": 3162,
      "organizuj": 3163,
      "Ð²ÐµÑĪÑĤÐ¸Ð½Ð": 3164,
      ".ÐŀÐ²Ð°Ñ": 3165,
      "Ð¿ÑĢÑĥÐ¶Ð": 3166,
      "ÑģÐ¸Ð³Ð½Ð°Ð»Ð": 3167,
      "Ð²ÐµÐºÑ": 3168,
      "prostorij": 3169,
      "bolnic": 3170,
      ".Slik": 3171,
      "ÐµÑĦÐµÐºÐ°Ñ": 3172,
      "adekvatn": 3173,
      "Ð¿Ð¾ÑĩÐµÐ": 3174,
      "Ð´ÑĢÐ¶Ð°Ð²Ð½Ð¸Ñ": 3175,
      "ÐµÐ»ÐµÐºÑĤÑĢÐ¾Ð½ÑģÐºÐ": 3176,
      "Ð´Ð¾ÐºÐ°Ð·Ð": 3177,
      "projekat": 3178,
      "potvrÄĳuj": 3179,
      "dost": 3180,
      "ÑģÐ²ÐµÑ": 3181,
      "Ð¿ÑĢÐ¸ÐºÐ°Ð·ÑĥÑĺÐ": 3182,
      "ÑģÑĥÑĪÑĤÐ¸Ð½ÑģÐºÐ": 3183,
      "zahte": 3184,
      ".Prv": 3185,
      "Ð´ÐµÐ»Ð¾Ð": 3186,
      "radi": 3187,
      "platform": 3188,
      "Ð¸Ð½ÑģÑĤÑĢÑĥÐ¼ÐµÐ½ÑĤÐ": 3189,
      "ÑĺÐ°Ð²Ð½Ð¸Ñ": 3190,
      "definisanj": 3191,
      "Ð±Ð°Ð²Ð": 3192,
      "stop": 3193,
      "Ð¿ÑĢÐ¸ÐºÑĥÐ¿ÑĻÐ°ÑļÐ": 3194,
      "ukljuÄįen": 3195,
      "informisanj": 3196,
      "Ð³ÑĢÐ°ÑĴÐ°Ð½ÑģÐºÐ¾Ð": 3197,
      "deluj": 3198,
      "lokalni": 3199,
      "detet": 3200,
      "situacijam": 3201,
      "Ð¸Ð·Ð²ÐµÐ´ÐµÐ½Ð": 3202,
      "ÑĢÐµÐ³Ð¸Ð¾Ð½Ð°Ð»Ð½Ð": 3203,
      "Ð¿Ð¾Ð»Ð¸ÑĤÐ¸ÑĩÐºÐ¸Ð": 3204,
      "englesko": 3205,
      "ÑĦÑĢÐµÐºÐ²ÐµÐ½ÑĨÐ¸ÑĺÐ": 3206,
      "Ð½Ð°Ð¿Ð°Ð´Ð": 3207,
      "arhitektur": 3208,
      "Ð¸Ð½ÑĤÐµÐ»Ð¸Ð³ÐµÐ½ÑĨÐ¸ÑĺÐ": 3209,
      "Ð¾ÑģÐ½Ð¾Ð²Ð½Ð¾Ð": 3210,
      "Ð´Ð¸ÑģÐºÑĢÐ¸Ð¼Ð¸Ð½Ð°ÑĨÐ¸ÑĺÐ": 3211,
      "Ð·Ð°ÑĤÐ²Ð¾ÑĢÐ": 3212,
      "tuÅ¾ilaÅ¡tv": 3213,
      "Å¡tet": 3214,
      "vide": 3215,
      "Ð·Ð°ÑħÑĤÐµÐ": 3216,
      "Rezultat": 3217,
      "nit": 3218,
      "minista": 3219,
      "kandidat": 3220,
      "Ð¾ÑģÐµÑĽÐ°ÑļÐ": 3221,
      "ÑļÐµÐ³Ð¾Ð²Ð¾Ñ": 3222,
      "Ð¾Ð´ÑģÑĤÑĥÐ¿Ð°ÑļÐ": 3223,
      "student": 3224,
      "sledeÄĩi": 3225,
      "drÅ¾avni": 3226,
      "prelaz": 3227,
      "istraÅ¾ivaÄį": 3228,
      "Ð¸ÑģÑĤÐ¾ÑĢÐ¸ÑĺÑģÐºÐ¾Ð": 3229,
      "Ð²Ð¸ÑģÐ¾ÐºÐ¾Ð": 3230,
      "ljudski": 3231,
      "ÑģÐ¼Ð°ÑĤÑĢÐ°Ð»Ð": 3232,
      "Ð¤ÑĢÐ°Ð½ÑĨÑĥÑģÐºÐ¾Ñ": 3233,
      "Ð¸Ð·Ð½Ð°Ð": 3234,
      "Ð¿Ð¾Ð²Ð¾Ð´Ð¾Ð": 3235,
      "Ð¿ÑĢÐµÐ´Ð½Ð¾ÑģÑĤÐ": 3236,
      ".ÐĶÑĢÑĥÐ³Ð": 3237,
      "pomenut": 3238,
      "treÄĩ": 3239,
      "pokazatelj": 3240,
      "ÑģÑĤÑĢÑĥÑĺÐ": 3241,
      "ÐºÐ¾Ð½ÑĤÑĢÐ¾Ð»Ð½Ð": 3242,
      "sproveden": 3243,
      "tip": 3244,
      "ÑĺÑĥÐ³Ð¾ÑģÐ»Ð¾Ð²ÐµÐ½ÑģÐºÐ¾Ð": 3245,
      "evropski": 3246,
      "ÑĤÐµÐ": 3247,
      "Ð²ÑĢÐ°ÑĤÐ": 3248,
      "Å¡iro": 3249,
      "vaspitanj": 3250,
      "ÑģÐ°Ð¼Ð¸Ð": 3251,
      "ministarstv": 3252,
      "Ð³ÑĢÑĥÐ¿Ñ": 3253,
      "partij": 3254,
      "ÑĻÑĥÐ´ÑģÐºÐ¾Ð": 3255,
      "mehanizm": 3256,
      "izraÅ¾en": 3257,
      "zasnovan": 3258,
      "vlasniÅ¡tv": 3259,
      "ÑģÐ°Ð·Ð½Ð°ÑļÐ": 3260,
      "ÑĦÐ¸Ð½Ð°Ð½ÑģÐ¸ÑĺÑģÐºÐ¾Ð": 3261,
      "Ð°Ð´ÐµÐºÐ²Ð°ÑĤÐ½Ð": 3262,
      "ÑģÐ»ÑĥÑĩÐ°ÑĺÐ": 3263,
      "Evropsko": 3264,
      "ÑģÐ»Ð¸ÑĨÐ": 3265,
      "fakulte": 3266,
      "umest": 3267,
      "analiziran": 3268,
      "prikupljanj": 3269,
      "Ð¿ÑĢÐ²Ð¾Ð±Ð¸ÑĤÐ½Ð": 3270,
      "Ð¿ÑĢÐ¸ÑħÐ²Ð°ÑĤÐ°ÑļÐ": 3271,
      "primenjen": 3272,
      "Ð¾Ð´ÑĢÐµÑĴÐµÐ": 3273,
      "Ð¿ÑĢÐ°ÑĤÐ": 3274,
      "ÑģÐ¸ÑģÑĤÐµÐ¼Ð¸Ð¼Ð": 3275,
      "ÑģÑĥÐ": 3276,
      "Ð¾ÑģÐ½Ð¾Ð²Ð°Ð½Ð": 3277,
      "radni": 3278,
      "Ð½ÐµÐ¼Ð°ÑĺÑ": 3279,
      "Ð¿ÑĢÐ¸Ð²ÑĢÐµÐ¼ÐµÐ½Ð": 3280,
      "individualn": 3281,
      "graÄĳevinsk": 3282,
      "ÐļÐ°Ð´Ð": 3283,
      "funkcioniÅ¡": 3284,
      "izdavanj": 3285,
      "propis": 3286,
      "Ð¿Ð¾ÑĢÐµÑĴÐµÑļÐ": 3287,
      "ÐµÐ²ÑĢÐ¾Ð¿ÑģÐºÐ¸Ñ": 3288,
      "poljoprivredn": 3289,
      "ÑģÑĢÐ¿ÑģÐºÐ¾Ñ": 3290,
      "uÄįestvoval": 3291,
      "Ð¾ÑģÐ²Ð¾ÑĺÐ¸Ð": 3292,
      "Ð¸Ð·Ð±Ð¾Ñ": 3293,
      "ÑĦÐ¸Ð»Ð": 3294,
      "ipa": 3295,
      "pregle": 3296,
      "Ð±Ð¾ÑĺÐ": 3297,
      "ÐŁÐµÑĤÑĢÐ¾Ð²Ð¸Ñ": 3298,
      "Ð¿Ð°Ð¶ÑļÑ": 3299,
      "generaln": 3300,
      "osi": 3301,
      "ÑĨÐµÐ½Ð": 3302,
      "Ð¿Ð¾Ð½ÐµÐºÐ°Ð": 3303,
      "Ð´ÑĢÑĥÑĪÑĤÐ²ÐµÐ½Ð¸Ð": 3304,
      "ÐµÐ¿Ð¸Ð·Ð¾Ð´Ð": 3305,
      "ÑĩÐ¸ÑļÐµÐ½Ð¸ÑĨÑ": 3306,
      "investitor": 3307,
      "Ð·Ð°ÑģÐ½Ð¸Ð²Ð": 3308,
      "Ð¾Ð¼Ð¾Ð³ÑĥÑĽÐ°Ð²Ð°ÑĺÑ": 3309,
      "bism": 3310,
      "modifikacij": 3311,
      "Ð¿Ð¸ÑĤÐ°ÑļÐ¸Ð¼Ð": 3312,
      "Ð°Ð¿Ð»Ð¸ÐºÐ°ÑĨÐ¸ÑĺÐ": 3313,
      "traÅ¾": 3314,
      "prikazuj": 3315,
      "Ð¿ÑĢÐ¸ÑħÐ²Ð°ÑĤÐ": 3316,
      "Å¡es": 3317,
      "ÑĨÐµÐ½ÑĤÑĢÐ": 3318,
      "glasni": 3319,
      "svrh": 3320,
      "Ð»Ð¸ÑĨÐµÐ½ÑĨÐ": 3321,
      "Ð¾ÑģÑĤÐ°ÑĺÐ": 3322,
      "signal": 3323,
      "Ð¿ÑĢÐ¸Ð²Ð°ÑĤÐ½Ð": 3324,
      "Ð¿ÑĢÐ¸Ð¼ÐµÑļÐµÐ½Ð": 3325,
      "Ð±Ð°Ð·Ð": 3326,
      "delimiÄįn": 3327,
      "ekonomski": 3328,
      "turistiÄįk": 3329,
      "pojedin": 3330,
      "ÐºÑĢÐ¸Ð¼Ð¸Ð½Ð°Ð»Ð¸ÑĤÐµÑĤÐ": 3331,
      "3.": 3332,
      "Ð¾ÐºÑĢÑĥÐ¶ÐµÑļÑ": 3333,
      "Ð¾Ð±Ð°Ð²ÐµÐ·Ð½Ð": 3334,
      "promenljiv": 3335,
      "Ð¿ÑĢÐ¸ÐºÐ°Ð": 3336,
      "fakto": 3337,
      "privredn": 3338,
      "ÐŁÐ¾Ð¿Ð¾Ð²Ð¸Ñ": 3339,
      "ÑĥÐºÑĻÑĥÑĩÑĥÑĺÑ": 3340,
      "slic": 3341,
      "ÑĺÐµÐ´Ð¸Ð½ÑģÑĤÐ²Ð": 3342,
      "interpretacij": 3343,
      "poveÄĩan": 3344,
      "Ð¸Ð½ÑģÑĤÐ¸ÑĤÑĥÑĨÐ¸Ð¾Ð½Ð°Ð»Ð½Ð": 3345,
      "ÑģÑĤÐ°Ð½Ð¸ÑĨÐ": 3346,
      "pritisa": 3347,
      "Ð½Ð°ÑģÐ»ÐµÑĴÐ": 3348,
      "ispo": 3349,
      "Ð¿ÑĢÐ¾ÑĦÐµÑģÐ¾ÑĢÐ": 3350,
      "Ð¾Ð±ÑĺÐ°ÑĪÑļÐ°Ð²Ð": 3351,
      "Ð¼ÑĥÑĪÐºÐ°ÑĢÑĨÐ": 3352,
      "tradicij": 3353,
      "ÑĦÐ¾ÑĤÐ¾Ð³ÑĢÐ°ÑĦÐ¸ÑĺÐ": 3354,
      "apsolutn": 3355,
      "Ð¸ÑĤÐ°Ð»Ð¸ÑĺÐ°Ð½ÑģÐºÐ": 3356,
      ".Ð¡Ð»Ð¸ÐºÐ": 3357,
      "ÑģÐ¾ÑĨÐ¸ÑĺÐ°Ð»Ð½Ð¾Ð": 3358,
      "Ð¸Ð½Ð²Ð°Ð»Ð¸Ð´Ð¸ÑĤÐµÑĤÐ¾Ð": 3359,
      "Ð¿ÐµÑ": 3360,
      "Ð¸Ð½Ð´ÑĥÑģÑĤÑĢÐ¸ÑĺÑģÐºÐ": 3361,
      "redakcij": 3362,
      "ÐĺÐ°ÐºÐ": 3363,
      "Ð¿Ð¾ÑģÐ¼Ð°ÑĤÑĢÐ°ÑĤÐ": 3364,
      "sasvi": 3365,
      "Institut": 3366,
      ":/": 3367,
      "Ð¾Ð¿Ð¸ÑģÑĥÑĺÐ": 3368,
      "Ð²ÑĢÐµÐ¼ÐµÐ½Ð¾Ð": 3369,
      "ÑĥÑĩÐµÑģÑĤÐ²ÑĥÑĺÑ": 3370,
      "plat": 3371,
      "Ð¿ÑĢÐ¾Ð¼ÐµÐ½ÑĻÐ¸Ð²Ð": 3372,
      "pol": 3373,
      "preporuk": 3374,
      "oÄįuvanj": 3375,
      "oboljenj": 3376,
      "kompetencij": 3377,
      "ÑĤÑĢÐµÑĽÐµÐ": 3378,
      "Ð¾ÑģÐ½Ð¸Ð²Ð°ÑļÐ": 3379,
      "sporazum": 3380,
      "Ð¾Ð´Ð³Ð¾Ð²Ð°ÑĢÐ°ÑĺÑĥÑĽÐ¸Ñ": 3381,
      "saopÅ¡til": 3382,
      "bitn": 3383,
      "ÑĤÑĢÐµÑĤÐ¼Ð°Ð½Ð": 3384,
      "15": 3385,
      "ÐĲÑĥÑģÑĤÑĢÐ¸ÑĺÐ": 3386,
      "ÑģÐ¿Ð¾Ð¼ÐµÐ½Ð¸ÐºÐ": 3387,
      "otvaranj": 3388,
      "prodavnic": 3389,
      "obezbeÄĳenj": 3390,
      "Ð·Ð½Ð°ÑĩÐµÑļÑ": 3391,
      "ÑĥÐ´ÑĢÑĥÐ¶ÐµÑļÐ": 3392,
      "Ð·Ð°ÐºÐ¾Ð½ÑģÐºÐ": 3393,
      "ÐĶÐ¾ÐºÑĤÐ¾ÑĢÑģÐºÐ": 3394,
      "ÑĢÐ°Ð²Ð½Ð¾ÑĤÐµÐ¶Ð": 3395,
      "prilagoÄĳavanj": 3396,
      "Ð¸Ð·Ð³Ð»ÐµÐ´Ð": 3397,
      "najveÄĩi": 3398,
      "efikasn": 3399,
      "Ð¾Ð±ÐµÐ·Ð±ÐµÐ´Ð": 3400,
      "zvaniÄįn": 3401,
      "Narodn": 3402,
      "dobi": 3403,
      "Ð¿ÑĢÐ¾ÑĨÐµÐ½Ð°Ñ": 3404,
      "pravc": 3405,
      "Ð¾Ð²Ð°ÐºÐ²Ð": 3406,
      "Ð°Ð½Ð°Ð»Ð¸Ð·Ð¾Ð": 3407,
      "ÑĥÐ²Ð¾ÑĴÐµÑļÐ": 3408,
      ".Ipa": 3409,
      "ÐºÐ¾Ð½ÐºÑĥÑĢÐµÐ½ÑĤÐ½Ð¾ÑģÑĤÐ": 3410,
      "uklanjanj": 3411,
      "firm": 3412,
      "ÑģÐ½Ð°Ð±Ð´ÐµÐ²Ð°ÑļÐ": 3413,
      "javlj": 3414,
      "vojsk": 3415,
      "Ð¿Ð¾ÑģÑĤÐ¾ÑĺÐµÑĽÐ¸Ñ": 3416,
      "dnevn": 3417,
      "varijant": 3418,
      "materijaln": 3419,
      "Ð¸Ð½Ð¾ÑģÑĤÑĢÐ°Ð½ÑģÑĤÐ²Ñ": 3420,
      "Ð¿Ð¾ÑģÑĤÐµÐ¿ÐµÐ½Ð": 3421,
      "zajedniÄįko": 3422,
      "koÅ¾": 3423,
      "ÐºÐ¾ÑĢÐ¸ÑģÑ": 3424,
      "star": 3425,
      "Ð½Ð°ÐºÐ½Ð°Ð´Ð": 3426,
      "Ð²Ð¾Ð·Ð¸Ð»Ð": 3427,
      "brz": 3428,
      "Ð¿ÑĢÐµÐ³Ð¾Ð²Ð¾ÑĢÐ": 3429,
      "specifiÄįni": 3430,
      "verzij": 3431,
      "spreÄįavanj": 3432,
      "tkiv": 3433,
      "lokalno": 3434,
      "Ð¿ÑĢÐ¸Ð»Ð¸ÐºÐ": 3435,
      "organizm": 3436,
      ".Postoj": 3437,
      "poÄįetko": 3438,
      "biljak": 3439,
      "Ð¾Ð¿ÑĪÑĤÐµÐ": 3440,
      "Å¾elj": 3441,
      "ÑĢÐ°Ð·Ð²Ð¸ÑĺÐ": 3442,
      "poslovno": 3443,
      "naÅ¡o": 3444,
      "izvo": 3445,
      "ÐĿÐ°ÑĨÐ¸Ð¾Ð½Ð°Ð»Ð½Ð": 3446,
      "Ð¼ÑĥÑĪÐºÐ°ÑĢÐ°ÑĨÐ": 3447,
      "Ð¸Ð½Ð¸ÑĨÐ¸ÑĺÐ°ÑĤÐ¸Ð²Ð": 3448,
      "ÑĦÐ¾ÑĢÐ¼Ð¸ÑĢÐ°Ð½Ð": 3449,
      "ulic": 3450,
      "gradov": 3451,
      "videt": 3452,
      "ÐºÐ¾Ð¼Ð¿Ð¾Ð·Ð¸ÑĨÐ¸ÑĺÐ": 3453,
      "Ð¿ÑĢÐ¸Ð»Ð°Ð³Ð¾ÑĴÐ°Ð²Ð°ÑļÐ": 3454,
      "kredit": 3455,
      "Ð½Ð¸ÑĪÑĤÐ": 3456,
      "taÄįn": 3457,
      "uÄįesnik": 3458,
      "Ð´ÐµÐ»Ð°ÑĤÐ½Ð¾ÑģÑ": 3459,
      "saopÅ¡tenj": 3460,
      "tiÄį": 3461,
      "Makedonij": 3462,
      "Ð´Ð¸Ð²Ð¸Ð·Ð¸ÑĺÐ": 3463,
      ".Zbo": 3464,
      "Ð·Ð°Ð´Ð°ÑĤÐ°ÐºÐ": 3465,
      "Ð¿Ð¾ÑĩÐµÑĤÐ°Ð": 3466,
      "procena": 3467,
      "minimaln": 3468,
      "njem": 3469,
      "Ð³ÑĢÐ°Ð´Ñ": 3470,
      "nabavk": 3471,
      "postrojenj": 3472,
      "Ð¼Ð¾ÑĽÐ": 3473,
      "prednost": 3474,
      "ÑĪÐ¸ÑĢÐ¾Ð": 3475,
      "ÐµÐ¼Ð¸ÑģÐ¸ÑĺÐ": 3476,
      "osnovno": 3477,
      "Ð¿Ð¾ÑģÑĤÐ°Ð²ÑĻÐµÐ": 3478,
      "Ð¸ÑģÑĤÑĢÐ°Ð¶Ð¸Ð²Ð°ÑĩÐºÐ": 3479,
      "uÄįenic": 3480,
      "Ð´Ð¾ÐºÑĥÐ¼ÐµÐ½Ð°ÑĤÐ": 3481,
      ".Åłt": 3482,
      "13": 3483,
      "istin": 3484,
      "ovakv": 3485,
      "televizij": 3486,
      "Nov": 3487,
      "stanic": 3488,
      "ÑģÐ¿ÐµÑĨÐ¸ÑĦÐ¸ÑĩÐ½Ð¾ÑģÑĤÐ": 3489,
      "Ð½Ð°ÑĺÐ²ÐµÑĢÐ¾Ð²Ð°ÑĤÐ½Ð¸ÑĺÐ": 3490,
      "srpski": 3491,
      "omoguÄĩavaj": 3492,
      "projektovanj": 3493,
      "dalek": 3494,
      "konkretn": 3495,
      "poveÄĩanje": 3496,
      "novinar": 3497,
      "primarn": 3498,
      "atmosfer": 3499,
      "ÑĦÐ°ÐºÑĥÐ»ÑĤÐµÑĤÑ": 3500,
      "studijam": 3501,
      "saglasnost": 3502,
      "jezi": 3503,
      "Ð¾ÑģÑĤÐ²Ð°ÑĢÐµÐ½Ð": 3504,
      "Ð¼Ð¸ÑĪÑĻÐµÑļÑ": 3505,
      "domaÄĩi": 3506,
      "ulaganj": 3507,
      "majk": 3508,
      "Ð¾Ð±ÑĺÐµÐºÑĤÐ¸Ð²Ð½Ð": 3509,
      "SluÅ¾ben": 3510,
      "ÑĤÐµÐ½Ð´ÐµÐ½ÑĨÐ¸ÑĺÐ": 3511,
      "celin": 3512,
      "Ð¿ÑĢÐµÑĤÐ¿Ð¾ÑģÑĤÐ°Ð²ÑĻÐ": 3513,
      "muzik": 3514,
      "Ð²Ð°ÑĢÐ¸ÑĺÐ°ÑĨÐ¸ÑĺÐ": 3515,
      "drÅ¾avno": 3516,
      "Ð¸Ð·ÑĢÐ°Ð¶Ð°Ð²Ð°ÑļÐ": 3517,
      "Ð±Ð¸ÑĤÐ½Ð": 3518,
      "ras": 3519,
      "Ð¸ÑĤÐ": 3520,
      "Ð¾Ð³Ð»ÐµÐ´Ð": 3521,
      "posebni": 3522,
      "misl": 3523,
      "adres": 3524,
      "pokret": 3525,
      "lak": 3526,
      "Ð¿ÑĢÐ°Ð²ÑĨÑ": 3527,
      "Ð¿Ð¾ÑģÐ»ÐµÐ´ÑļÐµÐ": 3528,
      "ÑģÐ²Ð¾ÑĺÐ¾Ð": 3529,
      "budÅ¾et": 3530,
      "ÐµÐ¼Ð¾ÑĨÐ¸Ð¾Ð½Ð°Ð»Ð½Ð": 3531,
      ".Drug": 3532,
      "stanoviÅ¡t": 3533,
      "ÑĢÐ°Ð´Ð¸Ð»Ð": 3534,
      "trudnoÄĩ": 3535,
      "Ð¾ÐºÐ²Ð¸ÑĢÐ": 3536,
      "okolin": 3537,
      "obli": 3538,
      "odgovaraj": 3539,
      "Ð³ÑĢÐµÑĪÐºÐ": 3540,
      "ÑĤÐµÑħÐ½Ð¸ÑĩÐºÐ": 3541,
      "ÑģÑĢÐµÐ´ÑļÐ¾Ð²ÐµÐºÐ¾Ð²Ð½Ð": 3542,
      "Ð¾Ð·Ð½Ð°ÑĩÐ°Ð²Ð°ÑĺÑ": 3543,
      ".A": 3544,
      "igraÄį": 3545,
      "JovanoviÄ": 3546,
      "ÑĥÐ¿ÑĢÐ°Ð²Ð½Ð": 3547,
      "Ð¿ÑĢÐ°ÑĽÐµÑļÐ": 3548,
      "ÑĩÐ¸Ð½Ð¸Ð»Ð": 3549,
      "ÑĥÐ±Ð¸ÑģÑĤÐ²Ð": 3550,
      "decembr": 3551,
      "Ð¾ÑĢÐ³Ð°Ð½Ð¸Ð·Ð¾Ð²Ð°Ð½Ð¾Ð": 3552,
      "Ð·Ð´ÑĢÐ°Ð²ÑģÑĤÐ²ÐµÐ½Ð¾Ð": 3553,
      "indikator": 3554,
      "ÑĥÐºÑĻÑĥÑĩÐµÐ½Ð": 3555,
      "ÑĥÐ¼ÐµÑĤÐ½Ð¾ÑģÑ": 3556,
      "sami": 3557,
      "koriÅ¡Äĩe": 3558,
      "ÑģÐ»ÑĥÐ¶Ð": 3559,
      "ÑĦÐ¸Ð·Ð¸ÑĩÐºÐ¾Ð": 3560,
      "ÐłÑĥÐ¼ÑĥÐ½Ð¸ÑĺÐ": 3561,
      "ÑĤÐµÑĢÐ¼Ð¸Ð½Ð": 3562,
      "dozvoljen": 3563,
      "organizacijam": 3564,
      "ÐµÐ½Ð³Ð»ÐµÑģÐºÐ": 3565,
      "obzi": 3566,
      "raspolaganj": 3567,
      "povezanos": 3568,
      "prvenstv": 3569,
      ".Svak": 3570,
      "0,": 3571,
      "prat": 3572,
      "Ð¿ÑĢÐµÐ´Ð»Ð¾Ð": 3573,
      "koristil": 3574,
      "ÐºÑĥÐ»ÑĤÑĥÑĢÐ½Ð¸Ñ": 3575,
      "Ð¿ÑĢÐ°Ð²Ð½Ð¸Ñ": 3576,
      "Ð¿ÑĢÐ¸Ð²ÑĢÐµÐ´Ð½Ð¾Ð": 3577,
      "Ð²ÐµÐ»Ð¸ÐºÑ": 3578,
      "Ð³ÑĢÐ°ÑĴÐ°Ð½ÑģÐºÐ": 3579,
      "ÑģÐ¼Ð°ÑĤÑĢÐ°Ð": 3580,
      "poÄįeta": 3581,
      "Ð±Ð¾Ð»ÐµÑģÐ½Ð¸ÐºÐ": 3582,
      "Ð¿Ð°Ð¶ÑļÐ": 3583,
      "Ð¼ÐµÑĤÐ°ÑĢÐ": 3584,
      "javljaj": 3585,
      "ÑĢÐµÐ»Ð¸Ð³Ð¸ÑĺÐ": 3586,
      "ÑģÐ²ÐµÑģÑĤÐ": 3587,
      "Ð¾ÑĩÑĥÐ²Ð°ÑļÐ": 3588,
      "razmatranj": 3589,
      "Ð¸Ð·ÑĢÐ°Ð·Ð¸ÑĤÐ": 3590,
      ".3": 3591,
      "domaÄĩinstv": 3592,
      "ÐµÐºÑģÐ¿ÑĢÐµÑģÐ¸ÑĺÐ": 3593,
      "(Slik": 3594,
      "ÑĪÐµÑģÑ": 3595,
      "Ð¡Ð²ÐµÑĤÑģÐºÐ": 3596,
      "ÐĶÑĢÐ¶Ð°Ð²Ð": 3597,
      "Ð·Ð°Ð¿Ð°Ð´Ð½Ð": 3598,
      "metal": 3599,
      "Ð½ÐµÐ´Ð¾ÑģÑĤÐ°ÑĤÐºÐ": 3600,
      "Ð¾ÑģÑĤÐ²Ð°ÑĢÐ¸Ð»Ð": 3601,
      "Ð¸ÑģÑĤÐ¾ÑĢÐ¸ÑĺÑģÐºÐ¸Ñ": 3602,
      "jednak": 3603,
      "ÑĥÐ½ÑĥÑĤÑĢÐ°ÑĪÑļÐµÐ": 3604,
      "Ð½Ð¾ÑģÐ": 3605,
      "Ð³Ð»Ð¾Ð±Ð°Ð»Ð½Ð": 3606,
      "ÑĢÐ°Ð·Ð»Ð¾Ð": 3607,
      "ÑĥÐ·Ð¾ÑĢÐ°ÐºÐ": 3608,
      "Ð¼Ð°ÑģÐ": 3609,
      "turizm": 3610,
      "centa": 3611,
      "visoki": 3612,
      "(1": 3613,
      "Ð¿ÑĢÐ¸Ð½ÑĨÐ¸Ð": 3614,
      "ÄįeÅ¡Äĩ": 3615,
      "ÑĥÑĩÐµÑģÑĤÐ²Ð¾Ð²Ð°Ð": 3616,
      "Ð¿Ð¾ÑģÐµÐ´ÑĥÑĺÐ": 3617,
      "nastank": 3618,
      "Ð¸ÑģÐ¿Ð¸ÑĤÐ¸Ð²Ð°Ð½Ð¸Ñ": 3619,
      "ÐµÐ»ÐµÐ¼ÐµÐ½Ñ": 3620,
      "Ð½Ð¾ÑĢÐ¼Ð": 3621,
      "ÑĨÑĢÐºÐ²ÐµÐ½Ð": 3622,
      "Ð¿ÑĢÐ¸Ð²Ð°ÑĤÐ½Ð¾Ð": 3623,
      ".Ð¢Ð°Ð±ÐµÐ»Ð": 3624,
      "rusk": 3625,
      "crkv": 3626,
      "ÑģÑĤÐ°Ð±Ð¸Ð»Ð½Ð¾ÑģÑĤÐ": 3627,
      "Ð³ÑĢÐ°ÑĴÐ": 3628,
      "ÑĤÐµÑģÑĤÐ¸ÑĢÐ°ÑļÐ": 3629,
      "koeficijen": 3630,
      "ÑĢÐ°ÑģÐ¿ÑĢÐ°Ð²Ð": 3631,
      "piÅ¡": 3632,
      "ÐºÐ°Ð½Ð´Ð¸Ð´Ð°ÑĤÐ": 3633,
      "Ð´ÑĥÐ³Ð": 3634,
      "Ð¿Ð»Ð°Ð½Ñ": 3635,
      "ÐºÐ¾Ð»ÐµÐºÑĤÐ¸Ð²Ð½Ð": 3636,
      "ÐºÐ¾ÑĢÑĥÐ¿ÑĨÐ¸ÑĺÐ": 3637,
      "Ð£Ð½Ð¸Ð²ÐµÑĢÐ·Ð¸ÑĤÐµÑ": 3638,
      "napad": 3639,
      "Ð»Ð¾ÐºÐ°Ð»Ð½Ð¸Ñ": 3640,
      "ÑĤÐ¸Ð¿Ð¾Ð²Ð": 3641,
      "proÅ¡lost": 3642,
      "ÑħÑĢÐ¸ÑĪÑĽÐ°Ð½ÑģÐºÐ": 3643,
      "Gor": 3644,
      "statu": 3645,
      ".ÐĹÐ±Ð¾Ð": 3646,
      "Ð¿ÑĢÐ¾Ð¼ÐµÐ½Ð°Ð¼Ð": 3647,
      "nedostata": 3648,
      "Ð¼Ð½Ð¾Ð³Ð¸Ð": 3649,
      "Ð¿ÑĢÐ¾Ð´ÑĥÐºÑĨÐ¸ÑĺÐ": 3650,
      "ÐĹÐ": 3651,
      "izbo": 3652,
      "ÑĥÐ½Ð¸Ð²ÐµÑĢÐ·Ð¸ÑĤÐµÑĤÐ": 3653,
      ".*": 3654,
      "doprino": 3655,
      "eventualn": 3656,
      "radil": 3657,
      "Ð¡Ð»Ð¾Ð²ÐµÐ½Ð¸ÑĺÐ": 3658,
      "ÑģÑĤÐ¾ÑĺÐ": 3659,
      "Ð¾Ð´Ð¼Ð°Ñ": 3660,
      "Ð¿Ð¾ÑģÐµÐ±Ð°Ð": 3661,
      "ÑĨÐ¸ÑĻÐµÐ": 3662,
      "ÑģÑĥÑĪÑĤÐ¸Ð½Ð": 3663,
      "kriz": 3664,
      "ÑĢÐµÑĽÐ": 3665,
      "ÑģÑĤÑĢÑĥÑĩÐ½Ð": 3666,
      "gustin": 3667,
      "ÐĴÐ»Ð°Ð´Ð": 3668,
      "dobit": 3669,
      "ÐĪÐ¾Ð²Ð°Ð": 3670,
      "Ð²ÐµÑĽÐµÐ": 3671,
      "Ð¿ÑĢÐ¸Ð´ÐµÐ²Ð": 3672,
      "ÑĺÑĥÐ½Ð": 3673,
      "lokalitet": 3674,
      "poset": 3675,
      "Äįim": 3676,
      "pandemij": 3677,
      "Ð¿Ð¾Ð·Ð½Ð°Ñ": 3678,
      "Ð¿ÑĢÐ¾Ð¸Ð·Ð²Ð¾Ð": 3679,
      "zvezd": 3680,
      "ÑģÐ»ÑĥÐ¶Ð±ÐµÐ½Ð¸ÐºÐ": 3681,
      "Francusk": 3682,
      "Ð¼Ð°ÑĺÐ": 3683,
      "Ð¿ÑĢÐ¾ÑģÑĤÐ¾ÑĢÐ¸ÑĺÐ": 3684,
      "ÐºÐ°ÐºÐ²Ð": 3685,
      "znaÄįajni": 3686,
      "instrument": 3687,
      "nedostatk": 3688,
      "savremeno": 3689,
      "Ð¸Ð·Ð½Ð¾ÑģÐ¸Ð»Ð": 3690,
      "Ð¿Ð¾Ð´ÑĢÐ°Ð·ÑĥÐ¼ÐµÐ²Ð°ÑĺÑ": 3691,
      "prezentacij": 3692,
      "Hrvatsko": 3693,
      "kliniÄįk": 3694,
      "unij": 3695,
      "postizanj": 3696,
      "Ð¸Ð·Ð²Ð¾Ñ": 3697,
      "ÐºÐ¾ÑĢÐ¸ÑĪÑĽÐµÐ": 3698,
      "internet": 3699,
      "Ð¿ÑĢÐ¾ÑĨÐµÐ½Ñ": 3700,
      "Ð¿ÐµÑģÐ°Ð¼Ð": 3701,
      "administracij": 3702,
      "ÑĤÐµÑĢÐ°Ð¿Ð¸ÑĺÐ": 3703,
      "Ð¿ÑĢÐ¸Ð±Ð»Ð¸Ð¶Ð½Ð": 3704,
      "ÐļÐ¾Ð¼Ð¸ÑģÐ¸ÑĺÐ": 3705,
      "ÐµÑĦÐ¸ÐºÐ°ÑģÐ½Ð": 3706,
      "Ð¿ÑĢÐ¸ÑĺÐ°ÑĤÐµÑĻÐ": 3707,
      "naziv": 3708,
      "potvrÄĳen": 3709,
      "Ð½ÐµÐºÐ¸Ñ": 3710,
      "tekstov": 3711,
      "ÑĢÑĥÑģÐºÐ": 3712,
      "ÑģÐ°ÑģÑĤÐ°Ð²Ñ": 3713,
      "ÑĢÐ°ÑĩÑĥÐ½Ð": 3714,
      "ÑĤÐ°ÐºÐ°Ð": 3715,
      "postavlj": 3716,
      "tvrd": 3717,
      "Ð¿Ð¾ÑģÐµÐ±Ð½Ð¾Ð": 3718,
      "lekov": 3719,
      "pun": 3720,
      "prikaza": 3721,
      "pozoriÅ¡t": 3722,
      "oÄįigledn": 3723,
      "ÑĻÑĥÐ´Ð¸Ð¼Ð": 3724,
      "Ð¸ÑģÑĤÐ°ÐºÐ½ÑĥÑĤÐ": 3725,
      "obezbed": 3726,
      "metodologij": 3727,
      "potrebam": 3728,
      "Ð¿Ð¾Ð²ÐµÐ·Ð¸Ð²Ð°ÑļÐ": 3729,
      "dug": 3730,
      "Ð¿ÑĢÐµÐ´Ð»Ð¾Ð³Ð": 3731,
      "vremensko": 3732,
      "Ð¿ÑĢÐµÐ³Ð»ÐµÐ": 3733,
      "Ð´Ð°Ð»ÐµÐºÐ": 3734,
      "ÑģÑĥÐ±ÑĺÐµÐºÑĤÐ¸Ð²Ð½Ð": 3735,
      "zadata": 3736,
      "Ð¾ÑĢÐ³Ð°Ð½Ð¸Ð·Ð¾Ð²Ð°ÑļÐ": 3737,
      "potraÅ¾ivanj": 3738,
      "Ð¿ÑĢÐ¸ÑĢÐ¾Ð´Ð½Ð¾Ð": 3739,
      "naro": 3740,
      "zarad": 3741,
      "Ð¸Ð½Ð¾Ð²Ð°ÑĨÐ¸ÑĺÐ": 3742,
      "ÑĢÐµÐ»ÐµÐ²Ð°Ð½ÑĤÐ½Ð": 3743,
      "opcij": 3744,
      "istaka": 3745,
      "strani": 3746,
      "buduÄĩnos": 3747,
      "ÑģÑĤÐ°ÑĢÐ¾ÑģÑĤÐ": 3748,
      "Britanij": 3749,
      "spremn": 3750,
      "ÑģÐ°Ð²ÑĢÐµÐ¼ÐµÐ½Ð¸Ñ": 3751,
      "Ð¸Ð½ÑģÑĤÑĢÑĥÐ¼ÐµÐ½Ð°ÑĤÐ": 3752,
      "Äįla": 3753,
      "Ð¿ÑĢÐ²Ð¾Ñ": 3754,
      "brojni": 3755,
      "Ð¦ÑĢÐºÐ²Ð": 3756,
      "ÑģÑĤÐ°ÑĢÐ¸ÑĺÐ": 3757,
      "mladi": 3758,
      "ÑĢÑĥÑģÐºÐ¾Ð": 3759,
      "Ð¢Ð": 3760,
      "Ð»ÐµÑĩÐµÑļÐ": 3761,
      "zon": 3762,
      "Ð¿Ð¾ÑģÐ¼Ð°ÑĤÑĢÐ": 3763,
      "Ð²Ð°ÑģÐ¿Ð¸ÑĤÐ°ÑļÐ": 3764,
      "Ð¾ÑģÐ»Ð¾Ð±Ð¾ÑĴÐµÑļÐ": 3765,
      "demokratij": 3766,
      "Ð¼Ð¾Ð´ÐµÑĢÐ½Ð": 3767,
      "Velik": 3768,
      "predstavljanj": 3769,
      "Ð¿Ð¾Ð¼Ð¸ÑļÐ": 3770,
      "bav": 3771,
      "Ð¿ÑĢÐ¸Ð¼ÐµÑĢÐ¸Ð¼Ð": 3772,
      "Ð¾ÑĤÐ²Ð¾ÑĢÐµÐ½Ð¾Ð": 3773,
      "novc": 3774,
      "pomaÅ¾": 3775,
      "poloÅ¾a": 3776,
      "Ð´ÑĢÐ¶Ð°Ð²ÑĻÐ°Ð½ÑģÑĤÐ²Ð": 3777,
      "Ð¼Ð¸Ð½Ð¸Ð¼Ð°Ð»Ð½Ð": 3778,
      "-1": 3779,
      "Ð¿ÑĢÐ°Ð²Ð¸Ð¼Ð": 3780,
      "privremen": 3781,
      "Ð¼Ð¾Ð´ÐµÐ»Ñ": 3782,
      "ÑģÑĤÐ²Ð°ÑĢÐ½Ð": 3783,
      "14": 3784,
      "odeljenj": 3785,
      "medicin": 3786,
      "/201": 3787,
      "sel": 3788,
      "virus": 3789,
      "Ð¿Ð¾ÑģÑĤÐ¸Ð·Ð°ÑļÐ": 3790,
      "Ð´ÐµÑģÑĤÐ¸Ð½Ð°ÑĨÐ¸ÑĺÐ": 3791,
      "Ð¿ÑĢÐµÐ´Ð½Ð¾ÑģÑ": 3792,
      "ÐľÐµÑĤÐ¾ÑħÐ¸ÑĺÐ": 3793,
      "moment": 3794,
      "Ð¸Ð·Ð²ÐµÑģÐ½Ð": 3795,
      "dominantn": 3796,
      "Ð¼ÐµÐ´Ð¸ÑĨÐ¸Ð½ÑģÐºÐ": 3797,
      "Ð¿ÑĢÐ¸ÑĤÐ¸ÑģÐ°Ð": 3798,
      "Ð¸Ð·Ð°Ð±ÑĢÐ°Ð": 3799,
      "saglasnos": 3800,
      "nastavni": 3801,
      "Ð¿Ð¸ÑģÐ¼Ð": 3802,
      "ÑĥÑĢÐµÑĴÐ°ÑĺÐ": 3803,
      "inteligencij": 3804,
      "ÑĩÐ°ÑģÐ¾Ð¿Ð¸ÑģÐ": 3805,
      "koncept": 3806,
      "Ð´Ð¸ÑģÑĤÑĢÐ¸Ð±ÑĥÑĨÐ¸ÑĺÑ": 3807,
      "ÑĩÐµÑģÑĤÐ¸ÑĨÐ": 3808,
      "izmen": 3809,
      "ÑĪÐ¸ÑĢÐ¾ÐºÐ": 3810,
      "muÅ¡karac": 3811,
      "Ð¿ÑĢÐ¾Ð´Ð°ÑĺÐ": 3812,
      "ÐĪÐ¾Ð²Ð°Ð½Ð": 3813,
      "kontakt": 3814,
      "Doktorsk": 3815,
      "hipotez": 3816,
      "Ð¾Ð±ÑĺÐ°Ð²Ð¸Ð": 3817,
      "postojal": 3818,
      "sopstveno": 3819,
      "Ð¿ÑĢÐ¸Ð¼ÐµÑļÑĥÑĺÑ": 3820,
      "(âĢ": 3821,
      "Ð¼Ð¸ÑģÐ¸ÑĺÐ": 3822,
      "nedovoljn": 3823,
      "razmiÅ¡ljanj": 3824,
      "Ð¸Ð·ÑĢÐ°Ð": 3825,
      "Ð¿Ð¾ÑĢÐµÐ·Ð": 3826,
      "sil": 3827,
      "Ð¸Ð·Ð»Ð¾Ð¶ÐµÐ½Ð": 3828,
      "poljoprivredni": 3829,
      "ÑģÐ²Ð°ÐºÐ¾Ð´Ð½ÐµÐ²Ð½Ð": 3830,
      "izjav": 3831,
      "Ð¿Ð»Ð°Ð½Ð¾Ð²Ð": 3832,
      "kreÄĩ": 3833,
      "prover": 3834,
      "Ð¿Ð¾ÑģÑĤÐ¸Ð³Ð½ÑĥÑĽÐ": 3835,
      "reÄĩ": 3836,
      "ispre": 3837,
      "ÑĤÐ²ÑĢÐ´Ð": 3838,
      "Ð¾Ð´Ð»ÑĥÐºÑ": 3839,
      "rok": 3840,
      "zainteresovan": 3841,
      "domaÄĩ": 3842,
      "ÐµÐ²ÑĢÐ¾Ð¿ÑģÐºÐ¾Ð": 3843,
      "Å¡irenj": 3844,
      "Ð¿Ð¾ÑĺÐµÐ´Ð¸Ð½Ð°ÑĨÐ": 3845,
      "Ð¿Ð°Ð´Ð°Ð²Ð¸Ð½Ð": 3846,
      "sednic": 3847,
      "okolnost": 3848,
      "ÑĥÑĩÐµÑģÑĤÐ²ÑĥÑĺÐ": 3849,
      "Ð´Ð¾ÑģÑĤÐ": 3850,
      "Ð¾Ð´ÐµÑĻÐµÑļÐ": 3851,
      "ÐĹÐ°ÐºÐ¾Ð": 3852,
      "radnj": 3853,
      "specijaln": 3854,
      "Ð·Ð°ÐºÑĻÑĥÑĩÐºÐ": 3855,
      "Ð½Ð¾Ð²ÐµÐ¼Ð±Ð°Ñ": 3856,
      "Ð¼ÐµÑħÐ°Ð½Ð¸Ð·Ð°Ð": 3857,
      "Ð´Ð¾Ð¿ÑĢÐ¸Ð½ÐµÐ»Ð": 3858,
      "Ð¾Ð²Ñ": 3859,
      ".ÐĺÐ¿Ð°Ð": 3860,
      "189": 3861,
      "Ð³Ð¾Ð²Ð¾ÑĢÐ¸Ð¼Ð": 3862,
      "4.": 3863,
      "pripadaj": 3864,
      "sud": 3865,
      "kreiranj": 3866,
      "Ð¾ÑĩÐµÐºÐ¸Ð²Ð°Ð½Ð": 3867,
      "ÑĦÐµÐ±ÑĢÑĥÐ°Ñ": 3868,
      "Ð½ÐµÐ·Ð°Ð²Ð¸ÑģÐ½Ð¾ÑģÑĤÐ": 3869,
      "Ð´Ñ": 3870,
      "Ð´Ð¾Ð±Ð¸ÑĺÐ°ÑļÐ": 3871,
      "ÑĥÑģÐ²Ð°ÑĺÐ°ÑļÐ": 3872,
      "ÐļÐ¾ÑģÐ¾Ð²Ð": 3873,
      "ÑģÑĨÐµÐ½Ð": 3874,
      "ÐµÐ»ÐµÐ¼ÐµÐ½ÑĤÐ¸Ð¼Ð": 3875,
      "starij": 3876,
      "pobed": 3877,
      "Ð¸ÑģÑĤÐ¸Ð½Ð": 3878,
      "Ð¾Ð´ÑĢÐ¶Ð°Ð½Ð": 3879,
      "ÑĤÐµÑĢÐ¼Ð¸Ð": 3880,
      "eksperimentalno": 3881,
      "Ð¿Ð°Ð": 3882,
      "odredb": 3883,
      "Ð·Ð½Ð°ÑĩÐ°ÑĺÐ½Ñ": 3884,
      "menadÅ¾ment": 3885,
      "Ð¿Ð¾Ð½ÑĥÐ´Ð": 3886,
      "par": 3887,
      "blizin": 3888,
      "korupcij": 3889,
      "Ð½Ð°ÑĢÐ¾Ð": 3890,
      "ÑĢÐµÐ¿ÑĥÐ±Ð»Ð¸ÐºÐ": 3891,
      "elektronsko": 3892,
      "Ð°Ð³ÐµÐ½ÑĨÐ¸ÑĺÐ": 3893,
      "Ð³Ð»Ð°ÑģÐ¾Ð²Ð": 3894,
      "razvij": 3895,
      "lekar": 3896,
      "Ð½Ð°Ð¿Ð¾Ð¼ÐµÐ½ÑĥÑĤÐ": 3897,
      "Ð¾ÐºÑĤÐ¾Ð±Ð°Ñ": 3898,
      "elektronski": 3899,
      "ciklus": 3900,
      "destinacij": 3901,
      "kampanj": 3902,
      "uspe": 3903,
      "emocij": 3904,
      "oseÄĩa": 3905,
      "ÑĺÑĥÐ»Ð": 3906,
      "ÑĪÐ¸ÑĢÐ": 3907,
      "cel": 3908,
      "Ð²Ð¾ÑĺÐ½Ð¸ÐºÐ": 3909,
      "nacij": 3910,
      "ÑĢÐµÐ³Ð¸ÑģÑĤÑĢÐ¾Ð²Ð°Ð½Ð": 3911,
      "preporuÄįuj": 3912,
      "ÑĤÐ°ÐºÐ²Ð¾Ð": 3913,
      "ÐºÐ¾Ð»Ð": 3914,
      "ÐĶÐ": 3915,
      "takvi": 3916,
      "Ð¾ÑģÐ²Ð¾ÑĺÐ¸Ð»Ð": 3917,
      "prouÄįavanj": 3918,
      "koncentracijam": 3919,
      "ves": 3920,
      "Ð´ÐµÑĨÐµÐ¼Ð±Ð°Ñ": 3921,
      "mlad": 3922,
      "ÑģÐ°Ð½ÐºÑĨÐ¸ÑĺÐ": 3923,
      "iznosil": 3924,
      "knjiÅ¾evnost": 3925,
      "Äĩet": 3926,
      "ÑģÑĥÐ´ÑģÐºÐ": 3927,
      "ostalo": 3928,
      "karcinom": 3929,
      "pozitivni": 3930,
      "Ð¿ÑĢÐ²Ð¸Ñ": 3931,
      "ÐºÐ¾Ð½ÑĤÐµÐºÑģÑĤÐ": 3932,
      "zastupljen": 3933,
      "deÅ¡av": 3934,
      ".Dakl": 3935,
      "ÑĺÐµÐ´Ð½Ð¸Ð": 3936,
      "Italij": 3937,
      "Ð¾Ð´ÑģÑĥÑģÑĤÐ²Ð": 3938,
      "socijalno": 3939,
      "ÑĤÐµÑĢÐ¸ÑĤÐ¾ÑĢÐ¸ÑĺÐ°Ð»Ð½Ð": 3940,
      "ÑģÐ¸ÑĤÑĥÐ°ÑĨÐ¸ÑĺÑ": 3941,
      "pruÅ¾anj": 3942,
      "Ð¶ÐµÐ»Ð": 3943,
      "Ð±Ñ": 3944,
      "veÄĩi": 3945,
      "alternativ": 3946,
      "Ð·Ð½Ð°ÑĩÐ°ÑĺÐ½Ð¸Ñ": 3947,
      "Ð·Ð°ÐºÐ¾Ð": 3948,
      "Ð¿Ð¾Ð´ÐµÑĻÐµÐ½Ð": 3949,
      "potencijalni": 3950,
      "Ð¿ÑĢÐ¾ÑĨÐµÑģÐ¸Ð¼Ð": 3951,
      "Ð¿Ð¾ÑĢÐµÑģÐºÐ": 3952,
      "Ð¾Ð±Ð»Ð¸ÑĨÐ": 3953,
      "Ð¸Ð·Ð³ÑĢÐ°ÑĴÐµÐ½Ð": 3954,
      "Ð´ÐµÑĦÐ¸Ð½Ð¸ÑģÐ°Ð": 3955,
      "Ð¿ÐµÑĢÑĨÐµÐ¿ÑĨÐ¸ÑĺÐ": 3956,
      "povezivanj": 3957,
      "ÐĳÐ¸Ð": 3958,
      "analizo": 3959,
      "Ð¾Ð¿Ð°ÑģÐ½Ð¾ÑģÑĤÐ": 3960,
      "kulturno": 3961,
      "Ð¿ÑĢÐ¸Ð»Ð¾Ð": 3962,
      "Ð´ÐµÑĤÐ°ÑĻÐ½Ð": 3963,
      "stabilnos": 3964,
      "Ð¾ÑģÐ½Ð¾Ð²Ð°Ð": 3965,
      "Ð¿Ð¾ÑĤÑĢÐµÐ±Ð°Ð¼Ð": 3966,
      "Ð³ÑĢÐ°ÑĴÐµÐ²Ð¸Ð½Ð": 3967,
      "ÐľÐ¸ÑħÐ°Ð¸Ð»Ð": 3968,
      "dodaj": 3969,
      ".ÐĵÐ¾Ð´Ð¸Ð½Ð": 3970,
      "ÑģÐ°Ñ": 3971,
      "Ð½Ð°ÑĥÑĩÐ½Ð¾Ð": 3972,
      "Ð¾ÑģÑĤÑĢÐ²Ð": 3973,
      "Ð·Ð°ÐºÑĻÑĥÑĩÑĥÑĺÐ": 3974,
      "Ð¿Ð¾ÑĤÑĢÐµÐ±Ñ": 3975,
      "hemijsk": 3976,
      "odstupanj": 3977,
      "ÑĤÑĢÐ°Ð¶Ð": 3978,
      "Ð¼Ð¾ÑĢÐ°Ð»Ð½Ð": 3979,
      "globaln": 3980,
      "tam": 3981,
      "ÐľÐ°ÑĢÐ¸ÑĺÐ": 3982,
      "ÑģÑĢÐµÐ´ÑģÑĤÐ²Ð¸Ð¼Ð": 3983,
      "Ð°Ð²Ð¸Ð¾Ð½Ð": 3984,
      "Ð¿Ð¾Ð²ÐµÑĢÐµÑļÐ": 3985,
      "fiziÄįko": 3986,
      "baÅ": 3987,
      "ÐºÑĢÐ¸ÑĤÐµÑĢÐ¸ÑĺÑĥÐ": 3988,
      "ÑģÑĤÐ¾Ð³Ð": 3989,
      "ÑĥÐ»Ð¸ÑĨÐ": 3990,
      "Ð¿ÑĢÐµÐ²Ð°ÑģÑħÐ¾Ð´Ð½Ð": 3991,
      "Ð¨Ð¿Ð°Ð½Ð¸ÑĺÐ": 3992,
      "mali": 3993,
      "srednji": 3994,
      "ÐŀÐ²Ð°Ñ": 3995,
      "finansij": 3996,
      "Ð¸ÑģÐ¿ÑĢÐµÐ": 3997,
      "Ð¾Ð±ÑĺÐ°Ð²ÑĻÐµÐ": 3998,
      "Ð´Ð¾Ð¼Ð°ÑĽÐ": 3999,
      "doÄĳ": 4000,
      "Ð½Ð°Ð³Ð»Ð°ÑĪÐ°Ð²Ð": 4001,
      "ÑģÐ°ÑĢÐ°Ð´Ð½Ð¸ÑĨÐ": 4002,
      "kog": 4003,
      "poslednje": 4004,
      "2,": 4005,
      "Ð½Ð°Ð¼ÐµÑĢÐ": 4006,
      "Ð¡ÑĢÐ±Ð¸ÑĺÑ": 4007,
      "ÑģÑĥÐ¿ÑģÑĤÐ°Ð½ÑĨÐ": 4008,
      "ÑĺÑĥÐ½Ð°ÐºÐ": 4009,
      "ÑĺÐµÑģÑ": 4010,
      "industrijsk": 4011,
      "univerzitet": 4012,
      "Äĩelijam": 4013,
      "Ð·Ð»Ð¾ÑĥÐ¿Ð¾ÑĤÑĢÐµÐ±Ð": 4014,
      "privatno": 4015,
      "Ð¼Ð°Ð½Ð°ÑģÑĤÐ¸Ñ": 4016,
      "teren": 4017,
      "kazn": 4018,
      "potvrd": 4019,
      "MeÄĳuti": 4020,
      "vojn": 4021,
      "detaljn": 4022,
      "obavlj": 4023,
      "ÑģÑĤÐ°Ð±Ð¸Ð»Ð½Ð¾ÑģÑ": 4024,
      "ÐľÐ°ÑĴÐ°ÑĢÑģÐºÐ": 4025,
      "regulacij": 4026,
      "Ð¿ÑĥÑĤÐ¾Ð²Ð°ÑļÐ": 4027,
      "devojÄįic": 4028,
      "moral": 4029,
      "zapremin": 4030,
      "rizi": 4031,
      "predstavljal": 4032,
      "porodiÄįn": 4033,
      "navedeno": 4034,
      "ÑģÐ¿ÑĢÐµÑĩÐ°Ð²Ð°ÑļÐ": 4035,
      "doba": 4036,
      "savremeni": 4037,
      "Ð¿ÑĢÐµÑĤÐµÐ¶Ð½Ð": 4038,
      "ÐĪÑĥÐ³Ð¾ÑģÐ»Ð¾Ð²ÐµÐ½ÑģÐºÐ": 4039,
      "dobijaj": 4040,
      "celo": 4041,
      "ÑĢÐ°Ð·Ð»Ð¸ÑĩÐ¸ÑĤÐ¾Ð": 4042,
      "statistik": 4043,
      "Ð¾Ð´ÑĢÐµÐ´Ð¸ÑĤÐ": 4044,
      "tumaÄįenj": 4045,
      "komplikacij": 4046,
      "ÑģÐ¼Ð°ÑļÑĥÑĺÐ": 4047,
      "Ð´Ð¾Ð²ÐµÑģÑĤÐ": 4048,
      "teorijsk": 4049,
      "ÐºÐ¾ÑĢÐ¸ÑģÑĤÐµÑĽÐ": 4050,
      "Ov": 4051,
      ".Ð¢Ð¾ÐºÐ¾Ð": 4052,
      "Poruk": 4053,
      "domen": 4054,
      "omoguÄĩil": 4055,
      "potreba": 4056,
      "Ð¸ÑģÐ¿Ð¸ÑĤÐ¸Ð²Ð°Ð½Ð": 4057,
      "Ð¾ÑĢÑĥÐ¶ÑĺÐ": 4058,
      "Ð¿ÑĥÐ±Ð»Ð¸ÐºÐ°ÑĨÐ¸ÑĺÐ": 4059,
      ".202": 4060,
      "Ð¾Ð´Ð³Ð¾Ð²Ð¾ÑĢÐ½Ð": 4061,
      "relacij": 4062,
      "Ð»Ð¸Ð³Ð": 4063,
      "Ð¼Ð»Ð°Ð´Ð¸Ñ": 4064,
      "namer": 4065,
      "ÐµÐ¼Ð¾ÑĨÐ¸ÑĺÐ": 4066,
      "Å¡ans": 4067,
      "ÐµÐºÐ¾Ð»Ð¾ÑĪÐºÐ": 4068,
      "Ð¼Ð¸Ð½ÑĥÑĤÐ": 4069,
      "najverovatnij": 4070,
      "Ð¿ÑĢÐ¾Ð¸Ð·Ð¸Ð»Ð°Ð·Ð": 4071,
      "Ð¼Ð°ÑĪÐ¸Ð½Ð": 4072,
      "Sad": 4073,
      "ÑĩÐ¸ÑĤÐ°ÑļÐ": 4074,
      "Ð³Ð»Ð°ÑģÐ": 4075,
      "Ð½ÐµÐ´ÐµÑĻÐ": 4076,
      "Ð´Ð¾Ð±Ð¸ÑĺÐ°ÑĺÑ": 4077,
      "Ð¿Ð¾ÑĢÑĥÐºÐ": 4078,
      "ÐĿÐµÐ¼Ð°ÑĩÐºÐ¾Ñ": 4079,
      "sreÄĩ": 4080,
      "Ð¼Ð¾Ð½Ð¾Ð³ÑĢÐ°ÑĦÐ¸ÑĺÐ": 4081,
      ".)": 4082,
      "pokuÅ¡aj": 4083,
      "Ð¿ÑĢÐµÐ´Ð²Ð¸ÑĴÐ": 4084,
      "Ð¦ÑĢÐ½Ð": 4085,
      "Ð±ÑĢÐ·Ð": 4086,
      "dolar": 4087,
      "Ð·Ð°Ð±ÑĢÐ°Ð½Ð": 4088,
      "ÑĺÐµÐ´Ð¸ÑļÐµÑļÐ": 4089,
      "razlo": 4090,
      "(Tabel": 4091,
      "Ð¿ÑĢÐ°Ð²Ð´Ð": 4092,
      "ÑĤÑĢÐ°Ð´Ð¸ÑĨÐ¸Ð¾Ð½Ð°Ð»Ð½Ð¾Ð": 4093,
      "ww": 4094,
      "poÄįe": 4095,
      "reÅ¾im": 4096,
      "Ð°Ð»Ð³Ð¾ÑĢÐ¸ÑĤÐ¼Ð": 4097,
      "Ð¿ÑĢÐµÑĤÑħÐ¾Ð´Ð½Ð¸Ñ": 4098,
      "bibliotek": 4099,
      "uzrast": 4100,
      "Ð¿ÑĢÐ¸Ð·Ð½Ð°ÑļÐ": 4101,
      "ÐµÐ²ÐµÐ½ÑĤÑĥÐ°Ð»Ð½Ð": 4102,
      "Ð¿ÑĢÐµÐ´Ð²Ð¸ÑĴÐ°ÑļÐ": 4103,
      ".Nij": 4104,
      "naredni": 4105,
      "Ð¸Ð½ÑĦÐµÐºÑĨÐ¸ÑĺÐ": 4106,
      "negativni": 4107,
      ".ÐŀÑģÐ½Ð¾Ð²Ð½Ð": 4108,
      "ÑģÐ°Ð³Ð»ÐµÐ´Ð°Ð²Ð°ÑļÐ": 4109,
      "Ð¿Ð¾ÑĢÐ¾Ð´Ð¸ÑĩÐ½Ð": 4110,
      "Ð¿ÑĢÐµÐ´ÑģÑĤÐ°Ð²ÑĻÐ°ÑļÐ": 4111,
      "Ð¿Ð¾ÑĺÐ°Ð²ÑĻÑĥÑĺÑ": 4112,
      "ÐŁÑĢÐ²Ð¾Ð": 4113,
      "odsustv": 4114,
      "Å¾ivotno": 4115,
      "izdanj": 4116,
      "ugovo": 4117,
      "porez": 4118,
      "prevencij": 4119,
      "ÑĤÐ¸Ñ": 4120,
      "Vladimi": 4121,
      "Ð¿ÑĢÐµÑĤÑħÐ¾Ð´Ð½Ð¸Ð": 4122,
      "ÐĲÑĥÑĤÐ¾ÑĢÑģÑĤÐ²Ð": 4123,
      "odliÄįn": 4124,
      "ÑģÑĥÐ¿ÑĢÐ¾ÑĤÐ½Ð": 4125,
      "ÑĥÑĩÐµÑģÐ½Ð¸ÑĨÐ": 4126,
      "medijim": 4127,
      "Ð¿ÑĢÐµÑĨÐ¸Ð·Ð½Ð": 4128,
      "ÐºÐ¾Ð½ÑĤÐµÐºÑģÑ": 4129,
      "Ð¾Ð±ÑĢÐ°Ð·Ð¾Ð²Ð°ÑļÑ": 4130,
      "ÐļÐ°ÐºÐ": 4131,
      "optimizacij": 4132,
      "opozicij": 4133,
      "ÐĳÐ¾Ð³Ð¾ÑĢÐ¾Ð´Ð¸ÑĨÐ": 4134,
      "evidencij": 4135,
      "ruk": 4136,
      "pokaza": 4137,
      "ïĤ": 4138,
      "prvi": 4139,
      "Ð¾Ð±ÑĺÐ°Ð²ÑĻÐ¸Ð²Ð°ÑļÐ": 4140,
      "Ð¾Ð¿ÑĤÐ¸Ð¼Ð¸Ð·Ð°ÑĨÐ¸ÑĺÐ": 4141,
      "test": 4142,
      "Ð±ÑĢÐ¾ÑĺÐµÐ": 4143,
      "promenam": 4144,
      "Ð¾Ð´ÑĥÐ·Ð¸Ð¼Ð°ÑļÐ": 4145,
      "Ð¿ÑĢÐ¾ÑĤÐµÐ¸Ð½Ð": 4146,
      "ÑģÐ°ÑģÑĤÐ°Ð": 4147,
      "Ð¼Ð¾ÑĤÐ¸Ð²Ð": 4148,
      "Ð¸Ð½ÑģÑĤÐ¸ÑĤÑĥÑĨÐ¸ÑĺÐ°Ð¼Ð": 4149,
      "nova": 4150,
      "ÑģÐ°ÑĢÐ°Ð´ÑļÑ": 4151,
      "Ð¾Ð´Ð³Ð¾Ð²Ð°ÑĢÐ°ÑĺÑĥÑĽÐ¸Ð": 4152,
      "Ð¸Ð·Ð²Ð¾ÑĢÐ¸Ð¼Ð": 4153,
      "regionaln": 4154,
      "Ð½Ð°Ð¿Ð¾Ð½Ð": 4155,
      "reÄįenic": 4156,
      "ureÄĳuj": 4157,
      "ÑĥÐ¿Ð¾ÑĤÑĢÐµÐ±Ð¾Ð": 4158,
      "Ð¼ÐµÑģÑĤÐ¸Ð¼Ð": 4159,
      "receptor": 4160,
      "sankcij": 4161,
      "Ð¿ÑĢÐ°Ð²Ð¸Ð»Ñ": 4162,
      "matric": 4163,
      "ostvarenj": 4164,
      "Ð½ÐµÐ·Ð°Ð²Ð¸ÑģÐ½Ð¾ÑģÑ": 4165,
      "Ð¿Ð¾Ð·Ð¸ÑĨÐ¸ÑĺÑ": 4166,
      "obavestit": 4167,
      "htt": 4168,
      "Ð½Ð°ÑĺÐ·Ð½Ð°ÑĩÐ°ÑĺÐ½Ð¸ÑĺÐ¸Ñ": 4169,
      "pripad": 4170,
      "Ð¶Ð¸Ð²ÐµÐ»Ð": 4171,
      "Ð¼ÐµÐ´Ð¸ÑĨÐ¸Ð½Ð": 4172,
      ".ÐĶÐ°ÐºÐ»Ð": 4173,
      "ÑĪÐºÐ¾Ð»Ñ": 4174,
      "Ð¿ÑĢÐµÐ´Ð»Ð¾Ð¶ÐµÐ½Ð": 4175,
      "zadrÅ¾av": 4176,
      "Ð¿ÑĢÐ¾Ð¼ÐµÐ½Ñ": 4177,
      "ÑĢÐµÐ°Ð»Ð¸Ð·Ð°ÑĨÐ¸ÑĺÑ": 4178,
      "ministr": 4179,
      "Ð½Ð¾Ð²Ð¸Ð½Ð": 4180,
      "Ð½ÐµÐ¿ÑĢÐ¸ÑĺÐ°ÑĤÐµÑĻÐ": 4181,
      "pripadnik": 4182,
      "zavrÅ¡etk": 4183,
      "ÐºÐ¾Ð¼ÑĥÐ½Ð¸ÑģÑĤÐ": 4184,
      "ÑĢÐ°Ð·Ð³Ð¾Ð²Ð¾ÑĢÐ": 4185,
      ".Tabel": 4186,
      ".co": 4187,
      "Th": 4188,
      "nadleÅ¾nost": 4189,
      "opisuj": 4190,
      "ÑĥÑŁÐ±ÐµÐ½Ð¸ÐºÐ": 4191,
      "oÄįekivanj": 4192,
      "ÑĺÑĥÐ³Ð¾ÑģÐ»Ð¾Ð²ÐµÐ½ÑģÐºÐ¸Ñ": 4193,
      "Ð¾Ð´ÑĢÐµÐ´Ð": 4194,
      "Ð¸ÑģÑĤÐ¾ÑĩÐ½Ð": 4195,
      "dokaz": 4196,
      "ÐµÐºÑģÐ¿ÐµÑĢÐ¸Ð¼ÐµÐ½ÑĤÐ": 4197,
      "Ð½Ð°ÑĨÐ¸Ð¾Ð½Ð°Ð»Ð½Ð¸Ð": 4198,
      "Ð¿ÑĢÐµÐ´ÑģÑĤÐ°Ð²ÑĻÐµÐ": 4199,
      "Ð¿Ð¾ÑģÑĤÐ¸Ð³Ð°Ð": 4200,
      "ÑĢÐµÐ¿ÑĢÐµÐ·ÐµÐ½ÑĤÐ°ÑĨÐ¸ÑĺÑ": 4201,
      "ÑĦÐµÐ½Ð¾Ð¼ÐµÐ½Ð": 4202,
      "teÅ¾in": 4203,
      "Slovenij": 4204,
      "Ð³ÐµÐ¾Ð³ÑĢÐ°ÑĦÑģÐºÐ": 4205,
      "oseÄĩanj": 4206,
      "ÑģÐ»ÐµÐ´Ð": 4207,
      "usvajanj": 4208,
      "organizovanj": 4209,
      "Ð²Ð°Ð¶Ð½Ð¾ÑģÑĤÐ": 4210,
      "Ð²Ð¸Ð´ÐµÐ": 4211,
      "shvatanj": 4212,
      "ÑģÐ¿Ð¾ÑĻÐ½Ð": 4213,
      "Ð¿ÑĢÐ¾Ð²Ð¸Ð½ÑĨÐ¸ÑĺÐ": 4214,
      "Ð·Ð°Ð¸ÑģÑĤÐ": 4215,
      "ÑĢÐ°Ð·Ð¼ÐµÐ½Ð": 4216,
      "maÅ¡in": 4217,
      "ÑĤÐµÑģÑĤÐ": 4218,
      "Ð¿Ð¾Ð»Ð¾Ð¶Ð°ÑĺÑ": 4219,
      "tendencij": 4220,
      "Ð°Ð¼ÐµÑĢÐ¸ÑĩÐºÐ¾Ð": 4221,
      "Ð¾Ð±ÑĥÑħÐ²Ð°ÑĽÐµÐ½Ð": 4222,
      "nadleÅ¾n": 4223,
      "ÐĴÐµÐ»Ð¸ÐºÐ¾Ð": 4224,
      "skladiÅ¡tenj": 4225,
      "naredno": 4226,
      "Ð»Ð¸ÐºÐ¾Ð²Ð": 4227,
      "ÐĲÑĥÑģÑĤÑĢÐ°Ð»Ð¸ÑĺÐ": 4228,
      "Ð·Ð±Ð¸ÑĢÐºÐ": 4229,
      "metodo": 4230,
      "Ð·Ð´ÑĢÐ°Ð²ÑģÑĤÐ²ÐµÐ½Ð¸Ñ": 4231,
      "ÑĥÐ¿ÑĥÑĽÑĥÑĺÐ": 4232,
      "izna": 4233,
      "ÑĢÐµÐ¾ÑĢÐ³Ð°Ð½Ð¸Ð·Ð°ÑĨÐ¸ÑĺÐ": 4234,
      "centralno": 4235,
      "kvalitetn": 4236,
      "Balkan": 4237,
      "Ð´ÑĢÑĥÐ³Ñ": 4238,
      "posmatran": 4239,
      "grupam": 4240,
      "Ð¿ÑĢÐ¸Ð»Ð¸ÑĩÐ½Ð": 4241,
      "kontinuiran": 4242,
      ".IstraÅ¾ivanj": 4243,
      "Ð¿Ð¾ÑģÑĤÑĥÐ¿Ð°ÑļÐ": 4244,
      "priliÄįn": 4245,
      "ÑĨÐµÐ½ÑĤÑĢÐ°Ð»Ð½Ð¾Ð": 4246,
      "struÄįnjak": 4247,
      "ÐºÐ¾Ð½ÑĨÐµÐ¿ÑĨÐ¸ÑĺÐ": 4248,
      "Ð·Ð°Ð´Ð°ÑĤÐºÐ": 4249,
      "upotrebo": 4250,
      "lakÅ¡": 4251,
      "Ð´ÑĥÑħÐ¾Ð²Ð½Ð": 4252,
      "nepokretnost": 4253,
      "Ð¶ÐµÐ½ÑģÐºÐ": 4254,
      "ÐŁÐ¾ÑģÑĤÐ¾ÑĺÐ": 4255,
      "novembr": 4256,
      "Ð°Ð½Ð³Ð°Ð¶Ð¾Ð²Ð°ÑļÐ": 4257,
      "ÑģÐ¾ÑĨÐ¸ÑĺÐ°Ð»Ð½Ð¸Ñ": 4258,
      "Ð¾ÐºÑĢÐ¸Ð²ÑĻÐµÐ½Ð¾Ð": 4259,
      "razni": 4260,
      "graÄĳanim": 4261,
      ".Naravn": 4262,
      "Ð¿Ð¾ÑģÑĤÐ°ÑĺÑ": 4263,
      "Ð¿Ð¾ÑĺÐ°Ð²Ð¸Ð»Ð": 4264,
      "PriÅ¡tin": 4265,
      "izveÅ¡ta": 4266,
      "ÑĥÑĢÐµÑĴÐµÑļÐ": 4267,
      "angaÅ¾ovanj": 4268,
      "Ð»Ð°ÐºÐ": 4269,
      "usavrÅ¡avanj": 4270,
      "potvrdil": 4271,
      "Ð¿ÑĢÐµÑĢÐ°Ð´Ð": 4272,
      "korisnicim": 4273,
      "konstantn": 4274,
      "Ð½Ð°Ð»Ð°Ð·Ð¸Ð¼Ð": 4275,
      "stoj": 4276,
      "nist": 4277,
      "podel": 4278,
      "ÐµÐºÑģÐ¿Ð»Ð¸ÑĨÐ¸ÑĤÐ½Ð": 4279,
      "ovlaÅ¡Äĩenj": 4280,
      "ÐĵÐ°Ð»ÐµÑĢÐ¸ÑĺÐ": 4281,
      "oblastim": 4282,
      "razvijen": 4283,
      "starost": 4284,
      "interval": 4285,
      "Ð¾ÑĢÐ¸Ð³Ð¸Ð½Ð°Ð»Ð½Ð": 4286,
      "ÑĩÐµÑĤÐ²ÑĢÑĤÐ": 4287,
      "Ð¿ÑĢÐ°Ð²Ð¸Ð»Ð¸Ð¼Ð": 4288,
      "Ð±Ð¸ÑĻÐ°ÐºÐ": 4289,
      "Ð¾Ð±ÑĺÐµÐºÐ°Ñ": 4290,
      "podstiÄį": 4291,
      "Ð¿Ð¾ÑģÐµÐ±Ð½Ð¸Ð": 4292,
      "prednos": 4293,
      "ÑĨÐ¸Ð²Ð¸Ð»Ð¸Ð·Ð°ÑĨÐ¸ÑĺÐ": 4294,
      ".ÐĶÐ": 4295,
      "Ð´Ð¸ÑģÐºÑĥÑĢÑģÐ": 4296,
      "organizacion": 4297,
      "det": 4298,
      "Ð£Ð½Ð¸Ð²ÐµÑĢÐ·Ð¸ÑĤÐµÑĤÑ": 4299,
      "Ð¿Ð¾ÑģÐ»Ð¾Ð²Ð½Ð¸Ñ": 4300,
      "ÑģÐ»Ð¾Ð±Ð¾Ð´Ñ": 4301,
      "Ð¾Ð´Ð±Ð¾ÑĢÐ": 4302,
      "pregovor": 4303,
      "Ð¿ÑĢÐ¾Ð±Ð»ÐµÐ¼Ð¸Ð¼Ð": 4304,
      "ÑĥÑĺÐµÐ´Ð½Ð": 4305,
      "ÑģÐ°Ð²ÑĢÐµÐ¼ÐµÐ½Ð¸Ð": 4306,
      "Ð¿ÑĢÐ¾ÑĪÐ¸ÑĢÐµÑļÐ": 4307,
      "ÐºÐ²Ð°Ð»Ð¸ÑĦÐ¸ÐºÐ°ÑĨÐ¸ÑĺÐ": 4308,
      "kanal": 4309,
      "Ð¿ÑĢÐµÐ´ÑģÑĤÐ°Ð²ÑĻÐ°Ð": 4310,
      "dovel": 4311,
      "ÑĥÑĩÐµÐ½Ð¸ÑĨÐ¸Ð¼Ð": 4312,
      "stva": 4313,
      "predlo": 4314,
      "januar": 4315,
      "Ð·Ð½Ð°Ð": 4316,
      "Ð·Ð²ÐµÐ·Ð´Ð": 4317,
      "ÐºÑĢÐ¸ÑĤÐ¸ÑĩÐºÐ": 4318,
      "izlaganj": 4319,
      "Universit": 4320,
      "Ð·Ð°ÑģÐ½Ð¾Ð²Ð°Ð": 4321,
      "Ð´Ð¸ÑĢÐµÐºÑĤÐ¾ÑĢÐ": 4322,
      "ÑĻÑĥÐ±Ð°Ð²Ð": 4323,
      "uspel": 4324,
      "ÐºÑĢÐ°ÑĤÐºÐ": 4325,
      "kulturni": 4326,
      ".Nek": 4327,
      "niÅ¾": 4328,
      ".Ð¡ÑĤÐ¾Ð³Ð": 4329,
      "ÑĥÐ¿ÑĢÐºÐ¾Ñ": 4330,
      ".Zat": 4331,
      "16": 4332,
      "Ð¿Ð¾ÑģÑĤÑĥÐ¿Ð°ÐºÐ": 4333,
      "korisnic": 4334,
      "ÐĶÐ¸Ð¼Ð¸ÑĤÑĢÐ¸ÑĺÐ": 4335,
      "Ð¶ÑĢÑĤÐ²Ð": 4336,
      "prirodno": 4337,
      "postan": 4338,
      "tehnoloÅ¡k": 4339,
      "Ð±ÑĢÐ¸ÑĤÐ°Ð½ÑģÐºÐ": 4340,
      "ÑĥÐ¼ÐµÑĤÐ½Ð¸ÑĩÐºÐ¾Ð": 4341,
      "propisim": 4342,
      "kontroliÅ¡": 4343,
      "profil": 4344,
      "davanj": 4345,
      "bist": 4346,
      "Ð¸Ð½ÑĦÐ¾ÑĢÐ¼Ð°ÑĨÐ¸Ð¾Ð½Ð": 4347,
      "obrazovn": 4348,
      "mrÅ¾nj": 4349,
      "ÑĥÑĩÐ¸ÑĤÐµÑĻÐ": 4350,
      "identifikovan": 4351,
      "Ð¶ÑĥÐ¿Ð°Ð½Ð¸ÑĺÐ": 4352,
      "prilagoÄĳen": 4353,
      "videl": 4354,
      "ÑģÐµÐ´Ð°Ð": 4355,
      "ÑĥÐ½Ð¸Ð²ÐµÑĢÐ·Ð°Ð»Ð½Ð": 4356,
      "Ð¿Ð¾Ð·Ð¸ÑĤÐ¸Ð²Ð°Ð": 4357,
      "Ð³ÑĢÑĥÐ¿Ð°Ð¼Ð": 4358,
      "povodo": 4359,
      "Ð¿ÑĢÐ¸Ð¿Ð°Ð´Ð½Ð¸ÑĨÐ": 4360,
      "Ð¿ÑĢÐ°Ð²Ð¾Ð": 4361,
      "Ð¿Ð¾ÐºÑĥÑĪÐ°ÑĺÐ": 4362,
      "ÑģÐµÑĽÐ°ÑļÐ": 4363,
      "Ð¿Ð¾ÐºÐ°Ð·Ð°Ð": 4364,
      "Ð¾Ð¿Ð¸ÑģÐ°Ð½Ð": 4365,
      "Ð·Ð°Ð²Ð¸ÑģÐ½Ð": 4366,
      "Ð¼Ð¸Ð½Ð¸ÑģÑĤÐ°Ñ": 4367,
      "uobiÄįajen": 4368,
      "ukljuÄįivanj": 4369,
      "radit": 4370,
      "Sarajev": 4371,
      "intervju": 4372,
      "sumnj": 4373,
      "SA": 4374,
      "ÐºÐ¾Ð¾ÑĢÐ´Ð¸Ð½Ð°ÑĨÐ¸ÑĺÐ": 4375,
      "glavno": 4376,
      "Ð¿Ð¾ÑģÐ»ÐµÐ´Ð¸ÑĨÑ": 4377,
      "slobodni": 4378,
      "zatvor": 4379,
      "ÑĥÑģÐ¿ÐµÐ»Ð": 4380,
      "promocij": 4381,
      "ÑģÐ¿Ð¾ÑĢÐ¾Ð²Ð": 4382,
      "privredni": 4383,
      "Ð¾Ð±Ð°Ð²ÑĻÐ°ÑļÐ": 4384,
      "priznanj": 4385,
      "oÄįekivan": 4386,
      "eksploatacij": 4387,
      "jugoslovensk": 4388,
      "Ð¿ÑĢÐ¸Ð¼ÐµÐ½Ð¸ÑĤÐ": 4389,
      "Nikol": 4390,
      "temperaturam": 4391,
      "saradnik": 4392,
      "ÑģÐ°Ð³Ð»Ð°ÑģÐ½Ð¾ÑģÑĤÐ": 4393,
      "Ð¥ÑĢÐ²Ð°ÑĤÑģÐºÐ¾Ñ": 4394,
      "zakljuÄįa": 4395,
      "planov": 4396,
      "usmeren": 4397,
      "ÑĺÐµÐ·ÐµÑĢÐ": 4398,
      "ÑĢÐµÑĤÐºÐ": 4399,
      "Ð½Ð¾Ð²Ð¸Ð": 4400,
      "najznaÄįajnij": 4401,
      "Ð¿Ð¸ÑģÐ°ÑļÐ": 4402,
      "najbolji": 4403,
      "struÄįno": 4404,
      "istraÅ¾ivaÄįk": 4405,
      "nik": 4406,
      "Ð³Ð»Ð°Ð²Ð½Ð¸Ñ": 4407,
      "ÐŀÑģÐ½Ð¾Ð²Ð½Ð": 4408,
      "Ð¿ÑĢÐµÐ´ÑĥÐ·ÐµÑĽÐ¸Ð¼Ð": 4409,
      "sintez": 4410,
      "treÄĩe": 4411,
      "Ð·Ð½Ð°ÑĩÐ°ÑĺÐ½Ð¸ÑĺÐ": 4412,
      "ÐºÐ¾Ð³Ð½Ð¸ÑĤÐ¸Ð²Ð½Ð": 4413,
      "Ð¼Ð»Ð°Ð´Ð": 4414,
      "profesionalno": 4415,
      "presud": 4416,
      "raÄįunar": 4417,
      "ÑģÑĢÐ¿ÑģÐºÐ¸Ð": 4418,
      "Ð¿Ð¾ÑģÐ¼Ð°ÑĤÑĢÐ°Ð½Ð¾Ð": 4419,
      "Ð³Ð¾Ð²Ð¾ÑĢÐ¸ÑĤÐ": 4420,
      "Ð½Ð°ÑģÑĤÐ°Ð½Ð°Ð": 4421,
      "ÐºÐ¾Ð½ÑĤÐ¸Ð½ÑĥÐ¸ÑĢÐ°Ð½Ð": 4422,
      "snabdevanj": 4423,
      "ÐľÐ°ÑĢÐºÐ¾Ð²Ð¸Ñ": 4424,
      "Ð¡ÑĤÐ¾ÑĺÐ°Ð½Ð¾Ð²Ð¸Ñ": 4425,
      "bioloÅ¡k": 4426,
      "parlament": 4427,
      "ÑģÐ»Ð¸ÑĩÐ½Ð¾ÑģÑĤÐ": 4428,
      "sve": 4429,
      "Ð¸Ð·Ð²Ð¾Ð´Ð": 4430,
      "nemaÄįk": 4431,
      "smatrat": 4432,
      "sudij": 4433,
      "ÐºÐ¾Ð¼Ð¿ÐµÑĤÐµÐ½ÑĨÐ¸ÑĺÐ": 4434,
      "morat": 4435,
      ".Ð¡Ð²Ð": 4436,
      "simulacij": 4437,
      "sistemim": 4438,
      "Ð½ÐµÐºÐ¾Ð¼ÐµÑĢÑĨÐ¸ÑĺÐ°Ð»Ð½Ð": 4439,
      "ÐµÐºÑģÐ¿ÐµÑĢÐ¸Ð¼ÐµÐ½ÑĤÐ°Ð»Ð½Ð¾Ð": 4440,
      "Ð¾Ð´Ð³Ð¾Ð²Ð°ÑĢÐ°ÑĺÑĥÑĽÐµÐ": 4441,
      "veÄĩe": 4442,
      "institucijam": 4443,
      "Ð²Ð°ÑĢÐ¸ÑĺÐ°Ð½ÑģÐ": 4444,
      "ÑĦÐ¸Ð»Ð¼Ð¾Ð²Ð": 4445,
      "Ð¿Ð¾ÑģÑĢÐµÐ´ÑģÑĤÐ²Ð¾Ð": 4446,
      "Ð¿Ð¾ÑģÐ»Ð°Ð½Ð¸ÐºÐ": 4447,
      "ÑĢÐ°Ð·Ð¼Ð¸ÑĪÑĻÐ°ÑļÐ": 4448,
      "penzij": 4449,
      "âĢĶ": 4450,
      "saznanj": 4451,
      "isti": 4452,
      "suÅ¡tin": 4453,
      "Ð³ÑĢÐ°Ð´ÑģÐºÐ": 4454,
      "delovim": 4455,
      "Ð³Ð»Ð°Ð³Ð¾Ð": 4456,
      "Ð¡ÐºÑĥÐ¿ÑĪÑĤÐ¸Ð½Ð": 4457,
      "status": 4458,
      "transakcij": 4459,
      "Ð´ÐµÐ¼Ð¾ÐºÑĢÐ°ÑĤÑģÐºÐ": 4460,
      "ÐŀÐ½Ð": 4461,
      "Ð¿Ð¾ÑĺÐ¼Ð": 4462,
      "njeni": 4463,
      "Ð´ÐµÑĦÐ¸Ð½Ð¸ÑģÐ°ÑĤÐ": 4464,
      "Ð¿Ð¾ÑģÐ»Ð¾Ð´Ð°Ð²ÑĨÐ": 4465,
      "Ð¸Ð½ÑĤÐµÐ»ÐµÐºÑĤÑĥÐ°Ð»Ð½Ð": 4466,
      "ÐĴÐ»Ð°Ð´Ð¸Ð¼Ð¸Ñ": 4467,
      "zabranjen": 4468,
      "poresk": 4469,
      "umetniÄįk": 4470,
      ".Toko": 4471,
      "Ð¸Ð·Ð¼ÐµÐ½Ð": 4472,
      "socijalni": 4473,
      "oruÅ¾j": 4474,
      "prihvatanj": 4475,
      "pogotov": 4476,
      "pokuÅ¡a": 4477,
      "izloÅ¾en": 4478,
      "slobodno": 4479,
      "zloÄįin": 4480,
      "nekretnin": 4481,
      "Ð¸Ð·Ð»Ð¾Ð¶Ð±Ð": 4482,
      "rasprav": 4483,
      "ÑĤÑĥÐ¶Ð±Ð": 4484,
      "digitaln": 4485,
      "ÑĢÐµÐºÐ¾Ð½ÑģÑĤÑĢÑĥÐºÑĨÐ¸ÑĺÐ": 4486,
      "187": 4487,
      "ÐķÐ": 4488,
      "Ð·ÑĢÐ°ÑĩÐµÑļÐ": 4489,
      "odbor": 4490,
      "ameriÄįko": 4491,
      "ÑħÑĢÐ²Ð°ÑĤÑģÐºÐ": 4492,
      "okolnostim": 4493,
      "Ð¿Ð¾ÑģÐ¼Ð°ÑĤÑĢÐ°ÑļÐ": 4494,
      "nastavit": 4495,
      "zakljuÄįuj": 4496,
      "Ð¿Ð¾Ð±ÐµÐ´Ð": 4497,
      "zajedniÄįki": 4498,
      "Ð¿ÑĢÐµÑĤÐ¿Ð¾ÑģÑĤÐ°Ð²Ð¸ÑĤÐ": 4499,
      "Ð¿Ð¾Ð²ÐµÐ·Ð°Ð½Ð¾ÑģÑĤÐ": 4500,
      "ÑĤÑĢÐ°Ð½Ð·Ð¸ÑĨÐ¸ÑĺÐ": 4501,
      "Ð¾Ð´Ð³Ð¾Ð²Ð°ÑĢÐ°ÑĺÑ": 4502,
      "previÅ¡": 4503,
      "Ð½Ð°ÑĺÐ²ÐµÑĽÐµÐ": 4504,
      "Ð±Ð¸Ð²ÑĪÐ": 4505,
      "motivacij": 4506,
      "Ð¾Ð±Ð°Ð»Ð": 4507,
      "ÑĥÑģÐ»Ð¾Ð²ÑĻÐµÐ½Ð": 4508,
      "privatizacij": 4509,
      "Ð¿Ð¾Ð¼ÐµÐ½ÑĥÑĤÐ¸Ñ": 4510,
      "optimaln": 4511,
      "Ð½Ð°ÑģÐ»Ð¾Ð²Ð¾Ð": 4512,
      "ÑĪÑĥÐ¼Ð": 4513,
      "Ð·Ð°ÑħÑĤÐµÐ²Ð°ÑĺÑ": 4514,
      "doktorsk": 4515,
      ".ÐŁÐ¾ÑģÑĤÐ¾ÑĺÐ": 4516,
      "Ð´Ð¾Ð·Ð²Ð¾ÑĻÐ°Ð²Ð": 4517,
      "nastavk": 4518,
      "Ð°Ð²Ð³ÑĥÑģÑ": 4519,
      "odnosim": 4520,
      "ÑĢÐ°Ð½Ð": 4521,
      "Ð¾ÑĤÐºÑĢÐ¸Ð²Ð°ÑļÐ": 4522,
      "Ð¿ÑĢÐ¾ÑĺÐµÐºÐ°Ñ": 4523,
      "Ð¾Ð´ÑĢÐµÑĴÐµÐ½Ñ": 4524,
      "laboratorij": 4525,
      "ÑģÑĥÐ±ÑĺÐµÐºÐ°ÑĤÐ": 4526,
      "Ð´Ð°Ð½Ð°ÑĪÑļÐ": 4527,
      "Ð·Ð°ÐºÐ¾Ð½Ð¾Ð´Ð°Ð²Ð°Ñ": 4528,
      "ÑĺÑĥÐ": 4529,
      "predlog": 4530,
      "ÑģÐ¸Ð¼Ð±Ð¾Ð»Ð¸ÑĩÐºÐ": 4531,
      "enzim": 4532,
      "celokupn": 4533,
      "ubistv": 4534,
      "izazov": 4535,
      "Ð½Ð°Ð³ÑĢÐ°Ð´Ñ": 4536,
      ".ÐĺÑģÑĤÑĢÐ°Ð¶Ð¸Ð²Ð°ÑļÐ": 4537,
      "ÑģÐ²ÑĢÑħÐ": 4538,
      "Ð¼Ð¸Ð½Ð¸ÑģÑĤÑĢÐ": 4539,
      "Ð¿Ð¾ÑģÑĤÐ°Ð²ÑĻÐ°ÑļÐ": 4540,
      "odgovarajuÄĩe": 4541,
      "Ð¼ÑĥÑģÐ»Ð¸Ð¼Ð°Ð½Ð": 4542,
      "ÑĪÐºÐ¾Ð»ÑģÐºÐ": 4543,
      "namenjen": 4544,
      "ÑģÐ²ÐµÑĤÐ»Ð¾ÑģÑĤÐ": 4545,
      "Ð¿ÑĢÐ¸Ð¿Ð°Ð´Ð½Ð¾ÑģÑĤÐ": 4546,
      "publik": 4547,
      "ÐºÑĢÐµÐ¸ÑĢÐ°ÑļÐ": 4548,
      "ravnoteÅ¾": 4549,
      "prihvat": 4550,
      "kancelarij": 4551,
      "ÑĢÐ¸Ð·Ð¸Ð": 4552,
      "ÑģÐ²Ð°ÐºÐ¾Ð´Ð½ÐµÐ²Ð½Ð¾Ð": 4553,
      "nedavn": 4554,
      "Ð¾Ð´Ð»Ð¸ÐºÐ": 4555,
      "ÐĿÐ°Ð³ÑĢÐ°Ð´Ð": 4556,
      "Ð¸Ð·Ð°Ð±ÑĢÐ°Ð½Ð": 4557,
      "Ð¡Ð°Ð²Ð": 4558,
      "pretnj": 4559,
      "Ð³ÑĢÐ°Ð´Ð¾Ð²Ð¸Ð¼Ð": 4560,
      "ÐµÐºÑģÐ¿ÐµÑĢÐ¸Ð¼ÐµÐ½ÑĤÐ°Ð»Ð½Ð¸Ñ": 4561,
      "ÑģÐµÐºÑĥÐ½Ð´Ð°ÑĢÐ½Ð": 4562,
      "komercijaln": 4563,
      "Ð³Ð»Ð¾Ð±Ð°Ð»Ð½Ð¾Ð": 4564,
      "ekstrakcij": 4565,
      "selekcij": 4566,
      "ÑģÐ¸Ð¼ÑĥÐ»Ð°ÑĨÐ¸ÑĺÐ": 4567,
      "MeÄĳunarodn": 4568,
      "znaÄįajno": 4569,
      "posta": 4570,
      "ÐŁÐ¾ÑģÐ»Ð": 4571,
      "dovest": 4572,
      "ÐµÑĤÐ½Ð¸ÑĩÐºÐ": 4573,
      "ÐļÑĢÐ°Ð³ÑĥÑĺÐµÐ²ÑĨÑ": 4574,
      "zabran": 4575,
      ".NajveÄĩ": 4576,
      "Ð½Ð°ÑģÑĤÐ°ÑĺÑ": 4577,
      "duÅ¾": 4578,
      "5.": 4579,
      "ÑģÑĤÑĢÐ°Ð½Ð¸ÑĨÐ": 4580,
      "loÅ¡": 4581,
      "Å¡kolsk": 4582,
      "ÑģÐ¿ÐµÑĨÐ¸ÑĺÐ°Ð»Ð½Ð": 4583,
      "ÑĤÐ°ÑĩÐ½Ð": 4584,
      "edukacij": 4585,
      "ÑĢÐµÑģÑĥÑĢÑģÐ¸Ð¼Ð": 4586,
      "ulaz": 4587,
      "mehaniza": 4588,
      "tumor": 4589,
      "obaveÅ¡tenj": 4590,
      "Ð¿ÑĢÐ¸ÑģÑĥÑĤÐ°Ð": 4591,
      "Ð½Ð°ÑĥÑĩÐ½Ð¸Ñ": 4592,
      "korisni": 4593,
      "ÑĨÐ¸ÐºÐ»ÑĥÑģÐ": 4594,
      "Metohij": 4595,
      "ÑģÐ»Ð¾Ð±Ð¾Ð´Ð½Ð¾Ð": 4596,
      "napisa": 4597,
      "prolaz": 4598,
      "ÐĳÑĥÐ³Ð°ÑĢÑģÐºÐ¾Ñ": 4599,
      "sukob": 4600,
      "Ð¸ÑģÑĤÐ¸Ð": 4601,
      "subjekt": 4602,
      "ÑĥÐ»Ð°Ð·Ð": 4603,
      "Ð¾Ð¿Ð°ÑģÐ½Ð¾ÑģÑ": 4604,
      "Ð½Ð°Ð·Ð¸Ð²Ð°ÑĺÑ": 4605,
      "Ð¾Ð´Ð²Ð¸ÑĺÐ": 4606,
      "ÑĢÐ°ÑģÑ": 4607,
      "matematik": 4608,
      "Ð´Ð¾Ð·Ð²Ð¾ÑĻÐµÐ½Ð": 4609,
      "pisanj": 4610,
      "Ð¿ÑĢÐ¾ÑĺÐµÐºÑĤÐ¾Ð²Ð°ÑļÐ": 4611,
      "ÐºÐ¾ÑĢÐ¸ÑģÑĤÐ¸Ð": 4612,
      "ÑĥÑģÐ¿Ð¾ÑģÑĤÐ°Ð²ÑĻÐµÐ½Ð": 4613,
      "govori": 4614,
      "izborim": 4615,
      "Ð¿Ð¾ÑģÐ»Ð¾Ð²Ð½Ð¾Ð": 4616,
      "varijacij": 4617,
      "Ð¼ÐµÐ½Ð°ÑŁÐ¼ÐµÐ½ÑĤÐ": 4618,
      "zamen": 4619,
      "Ð²ÑĢÑģÑĤÑ": 4620,
      "Univerzite": 4621,
      "(slik": 4622,
      "Ð´Ð¾Ð»Ð°ÑĢÐ": 4623,
      "Ð´Ð¾ÐºÑĥÐ¼ÐµÐ½ÑĤÐ°ÑĨÐ¸ÑĺÐ": 4624,
      "ÑĥÑĤÐ²ÑĢÐ´Ð¸ÑĤÐ": 4625,
      "sluÅ¾": 4626,
      "Ð´ÐµÑģÐµÑ": 4627,
      "ÑĤÐ°Ð¼Ð": 4628,
      ".ÐĲÐºÐ": 4629,
      "Ð¸Ð·Ð»Ð°Ð³Ð°ÑļÐ": 4630,
      "nos": 4631,
      "Ð²Ð°Ð": 4632,
      "18": 4633,
      "Ð²ÐµÐ·Ñ": 4634,
      "glavni": 4635,
      "moÅ£": 4636,
      "Ð¾Ð±Ð»Ð¸ÑĨÐ¸Ð¼Ð": 4637,
      "ljubav": 4638,
      ".Jeda": 4639,
      "problemim": 4640,
      "Ð½Ð°ÑģÑĤÐ°Ð²Ð¸Ð»Ð": 4641,
      "Ð¸Ð½ÑĦÐ¾ÑĢÐ¼Ð°ÑĨÐ¸ÑĺÐ°Ð¼Ð": 4642,
      "Ð¡Ð°Ð": 4643,
      "kilometar": 4644,
      "ÑĥÐ¿Ð¾ÑĤÑĢÐµÐ±ÑĻÐ°Ð²Ð": 4645,
      "nadleÅ¾no": 4646,
      "prika": 4647,
      "ÑģÐ¸Ð³ÑĥÑĢÐ½Ð": 4648,
      "gubitk": 4649,
      "Ð½Ð°Ð´Ð»ÐµÐ¶Ð½Ð¾ÑģÑ": 4650,
      "ÐºÑĥÐ»ÑĤÑĥÑĢÑ": 4651,
      "Ð¼ÐµÑĤÐ°ÑĦÐ¾ÑĢÐ": 4652,
      "cilje": 4653,
      "zanimljiv": 4654,
      ".Posl": 4655,
      "Ð±ÑĢÐ¸Ð³Ð°Ð´Ð": 4656,
      "ÑĺÐ°Ð½ÑĥÐ°Ñ": 4657,
      "Ð¿Ð¾ÑĤÑĢÐ°Ð¶Ð¸Ð²Ð°ÑļÐ": 4658,
      "ÄĮla": 4659,
      "ÑĨÐµÐ»Ð¾ÐºÑĥÐ¿Ð½Ð": 4660,
      "zadatk": 4661,
      ".PREDSEDNI": 4662,
      "ÑĥÑģÑĤÐ°Ð½Ð¾Ð²ÑĻÐµÐ½Ð": 4663,
      "Agencij": 4664,
      "poneka": 4665,
      "koncep": 4666,
      "Ð¼Ð°ÑĤÑĢÐ¸ÑĨÐ": 4667,
      "naredn": 4668,
      "Ð¿Ð¾ÑĤÐ¸ÑĩÐ": 4669,
      "(Ð½Ð¿Ñ": 4670,
      "Ð¿Ð¾Ð¼ÐµÐ½ÑĥÑĤÐ¾Ð": 4671,
      "varijans": 4672,
      "testov": 4673,
      "nastavlj": 4674,
      "Ð³ÑĥÐ±Ð¸ÑĤÐºÐ": 4675,
      "Ð¾Ð±ÐµÐ·Ð±ÐµÑĴÐµÑļÐ": 4676,
      ".Predsedni": 4677,
      "ÑģÑĤÑĢÑĥÐºÑĤÑĥÑĢÐ½Ð": 4678,
      "Å¡ir": 4679,
      "srednje": 4680,
      "sredstvim": 4681,
      "Ð¿Ð¾Ð»Ð¸ÑĨÐ¸ÑĺÑģÐºÐ": 4682,
      "NemaÄįko": 4683,
      "Ð¿Ð¾Ð´ÑĺÐµÐ´Ð½Ð°ÐºÐ": 4684,
      "ÑĤÐµÑħÐ½Ð¾Ð»Ð¾ÑĪÐºÐ": 4685,
      "Ð¼Ð½Ð¾Ð³Ð¸Ñ": 4686,
      "ÑĪÐ¸ÑĢÐµÑļÐ": 4687,
      "ÐľÐ°ÑĢÐºÐ": 4688,
      "Ð½Ð°ÑĩÐ¸Ð½Ñ": 4689,
      "aktivacij": 4690,
      "sled": 4691,
      "uticaje": 4692,
      "Ð¾ÑĩÐµÐºÐ¸Ð²Ð°ÑļÐ": 4693,
      "ekoloÅ¡k": 4694,
      "razmen": 4695,
      "sopstveni": 4696,
      "Ð¿ÑĢÐ¸ÑħÐ²Ð°ÑĽÐµÐ½Ð": 4697,
      "Ð½Ð°ÑģÑĤÐ°Ð²Ð½Ð": 4698,
      "Ð¿ÑĢÐµÐ¿Ð¾ÑĢÑĥÐºÐ": 4699,
      "Ð±ÑĢÐ¾ÑĺÐ½Ð¸Ñ": 4700,
      "preuzet": 4701,
      "188": 4702,
      "odluÄįil": 4703,
      "taka": 4704,
      "javnos": 4705,
      "Ð¼Ð¸Ð»Ð¸ÑĺÐ°ÑĢÐ´Ð": 4706,
      "(198": 4707,
      "Ð´Ð¾Ð³Ð°ÑĴÐ°Ñ": 4708,
      "id": 4709,
      "ÑģÐ¿Ð°Ð´Ð°ÑĺÑ": 4710,
      "biljk": 4711,
      "danaÅ¡nj": 4712,
      "Ð¸Ð´ÐµÐ½ÑĤÐ¸ÑĦÐ¸ÐºÐ¾Ð²Ð°Ð½Ð": 4713,
      "Ð´ÐµÐ»ÑĥÑĺÐ": 4714,
      "evaluacij": 4715,
      "Ð´Ð¸Ð½Ð°ÑģÑĤÐ¸ÑĺÐ": 4716,
      "ÑĤÐµÐ»ÐµÑģÐ½Ð": 4717,
      "smrt": 4718,
      "ulj": 4719,
      "Ð°Ð»ÑĤÐµÑĢÐ½Ð°ÑĤÐ¸Ð²Ð": 4720,
      "Ð·Ð½Ð°ÑĩÐµÑļÐµÐ": 4721,
      "stabilnost": 4722,
      "ÑģÐ¼ÐµÑĪÑĤÐµÐ½Ð": 4723,
      "Ð¿ÑģÐ¸ÑħÐ¾Ð»Ð¾ÑĪÐºÐ": 4724,
      "izraÄįunat": 4725,
      "ÑĦÐ¾ÑĢÐ¼ÑĥÐ»Ð": 4726,
      "Ð¿Ð°ÑĢÐ»Ð°Ð¼ÐµÐ½ÑĤÐ": 4727,
      "napravil": 4728,
      "Ð½Ð¸Ð": 4729,
      "Ð¿Ð¾Ð´ÑĢÐ°Ð·ÑĥÐ¼ÐµÐ²Ð°Ð»Ð": 4730,
      "rehabilitacij": 4731,
      "Va": 4732,
      "komor": 4733,
      "spoljaÅ¡nj": 4734,
      "ÑĩÐ»Ð°Ð½ÑģÑĤÐ²Ð": 4735,
      "detekcij": 4736,
      "Ð¼Ð¾ÑĤÐ¸Ð²Ð°ÑĨÐ¸ÑĺÐ": 4737,
      "ÑģÐ°Ð³Ð»Ð°ÑģÐ½Ð¾ÑģÑ": 4738,
      "vremeno": 4739,
      "ÑĢÐ°Ñ": 4740,
      "ÑģÑĤÐ°ÑĤÑĥÑģÐ": 4741,
      "Ð¿Ð»Ð°Ð": 4742,
      "Ð²Ð»Ð°Ð´Ð°ÑĢÐ": 4743,
      "ÐµÑĦÐµÐºÐ°ÑĤÐ": 4744,
      ".Pr": 4745,
      "Ð³ÑĥÑģÑĤÐ¸Ð½Ð": 4746,
      "Å¾elit": 4747,
      "Komentar": 4748,
      "Ð½Ð¾ÑĢÐ¼Ð°Ð»Ð½Ð": 4749,
      "obezbeÄĳivanj": 4750,
      "dijagnoz": 4751,
      "osnivanj": 4752,
      "ÑģÐµÐ²ÐµÑĢÐ½Ð": 4753,
      "avion": 4754,
      "ÑĤÑĢÐ°Ð´Ð¸ÑĨÐ¸Ð¾Ð½Ð°Ð»Ð½Ð¸Ñ": 4755,
      "it": 4756,
      "ÑģÑĤÐ°Ð²Ð": 4757,
      "obuk": 4758,
      "besplatn": 4759,
      "pozitiva": 4760,
      "Ð¿ÑĢÐ¾ÑĺÐµÐºÐ°ÑĤÐ": 4761,
      "Ð¸Ð·Ð³ÑĢÐ°Ð´ÑļÑ": 4762,
      "strateÅ¡k": 4763,
      "Ð°ÑĢÑħÐ¸ÑĤÐµÐºÑĤÐ¾Ð½ÑģÐºÐ": 4764,
      "ÑģÑĥÐ¿ÑĢÐ¾ÑĤÐ½Ð¾ÑģÑĤÐ": 4765,
      "ÑģÐ¼ÑĢÑ": 4766,
      "seda": 4767,
      "Å¡irok": 4768,
      "Ð¿ÑĢÐµÑĦÐ¸ÐºÑģÐ": 4769,
      "intenzivn": 4770,
      "kritik": 4771,
      "ljudsko": 4772,
      "podrazumevaj": 4773,
      "Ð·Ð°Ð²ÑĢÑĪÐ°Ð²Ð": 4774,
      "kompletn": 4775,
      "Ð¾ÐºÐ²Ð¸Ñ": 4776,
      "oznaÄįav": 4777,
      "ÑģÑĤÑĢÑĥÑĩÑļÐ°ÐºÐ": 4778,
      "tehniÄįki": 4779,
      "debljin": 4780,
      "Ð·Ð°Ð¿Ð¾ÑĪÑĻÐ°Ð²Ð°ÑļÐ": 4781,
      ".Ko": 4782,
      "Ð°ÑĢÐ¼Ð¸ÑĺÐ": 4783,
      "zavrÅ¡il": 4784,
      "kljuÄįni": 4785,
      "Ð£ÑĺÐµÐ´Ð¸ÑļÐµÐ½Ð¸Ñ": 4786,
      "Ð¿Ð¾ÑģÐ°Ð": 4787,
      "tretma": 4788,
      "reform": 4789,
      "Ð²Ð¸Ð·Ð°Ð½ÑĤÐ¸ÑĺÑģÐºÐ": 4790,
      "profeso": 4791,
      "Ð¾Ð½Ð¾Ð³Ð": 4792,
      "Ð¿Ð¾Ð²ÑĢÑĪÐ¸Ð½Ñ": 4793,
      "ÑģÑĤÐ°Ð½Ð¾Ð²Ð°ÑļÐ": 4794,
      "ÑģÐ»Ð¾Ð¶ÐµÐ½Ð": 4795,
      "ÑģÐ¸Ð³ÑĥÑĢÐ½Ð¾ÑģÑĤÐ": 4796,
      "âĪ": 4797,
      "Ð¿Ð°ÑĢÐ°Ð»ÐµÐ»Ð½Ð": 4798,
      "preuzimanj": 4799,
      "ekstrakt": 4800,
      "praviln": 4801,
      "fiziÄįki": 4802,
      "pravni": 4803,
      "ÑĤÐµÑĢÐ¸ÑĤÐ¾ÑĢÐ¸ÑĺÑ": 4804,
      "procesim": 4805,
      "avgust": 4806,
      "korak": 4807,
      "/1": 4808,
      "Ð¥Ð¾Ð»Ð°Ð½Ð´Ð¸ÑĺÐ": 4809,
      "ÑĤÐºÐ¸Ð²Ð": 4810,
      "organsk": 4811,
      "Ð¿Ð¾Ð»Ð": 4812,
      "tradicionalni": 4813,
      "Smederev": 4814,
      "Ð³ÑĢÐ°Ð½Ð¸ÑĨÐ°Ð¼Ð": 4815,
      "zadovoljn": 4816,
      "Ð¼Ð¸Ð½Ð¸ÑģÑĤÐ°ÑĢÑģÑĤÐ²Ð": 4817,
      "kapacite": 4818,
      "Ð½Ð¾Ð²ÑĨÐ": 4819,
      "Ð¾Ð·Ð½Ð°ÑĩÐµÐ½Ð": 4820,
      "Ð¼Ð°Ð½Ð°ÑģÑĤÐ¸ÑĢÑ": 4821,
      "Ð¾Ð´ÑĢÐµÐ´Ð±Ð°Ð¼Ð": 4822,
      "pribliÅ¾n": 4823,
      "Ð¿Ð¸ÑģÐ°Ñ": 4824,
      "ÑģÐµÐ»Ñ": 4825,
      "ekip": 4826,
      "ÐĬÐµÐ³Ð¾Ð²Ð": 4827,
      "Ð·Ð°Ð²ÑĢÑĪÐ¸Ð»Ð": 4828,
      "Ð¼ÐµÑĴÑĥÐ²ÑĢÐµÐ¼ÐµÐ½Ñ": 4829,
      "ÑĤÐ·Ð": 4830,
      "telesn": 4831,
      "ÐµÐ¿Ð¸ÑģÐºÐ¾Ð¿Ð": 4832,
      "Ð´ÑĢÐ°Ð¼Ð": 4833,
      "ÑĦÐ¾ÑĢÐ¼Ð¸ÑĢÐ°ÑĺÑ": 4834,
      "februar": 4835,
      "ÑģÑĢÐµÐ´Ð¸Ð½Ð¾Ð": 4836,
      "vlas": 4837,
      "relevantn": 4838,
      "ÑĩÐ»Ð°Ð½Ð¾Ð²Ð¸Ð¼Ð": 4839,
      "revolucij": 4840,
      "nauÄįni": 4841,
      "Ð¸Ð·Ð²Ð°Ð": 4842,
      "ÑĤÐµÐ¶Ð¸Ð½Ð": 4843,
      "Ð½Ð°Ð²ÐµÐ´ÐµÐ½Ð¸Ð": 4844,
      "ÐºÑļÐ¸Ð·Ð": 4845,
      "ÑļÐ¸ÑħÐ¾Ð²Ð¾Ñ": 4846,
      "ÐµÐ½ÐµÑĢÐ³ÐµÑĤÑģÐºÐ": 4847,
      "ÐºÑĢÐ¸ÑĤÐ¸ÑĩÐ°ÑĢÐ": 4848,
      "Ð¿Ð¾Ð³ÑĢÐµÑĪÐ½Ð": 4849,
      "ÑĢÐµÑĩÐµÐ½Ð": 4850,
      "profesor": 4851,
      "17": 4852,
      "ÑģÐ²ÐµÑĤÐ¾Ð": 4853,
      "disciplin": 4854,
      "zakljuÄįk": 4855,
      "ÑļÐµÐ": 4856,
      "Ð¿ÑĢÐ¾ÑģÐ²ÐµÑĤÐ": 4857,
      "Ð´ÐµÐ»Ð¸Ð¼Ð": 4858,
      "UdruÅ¾enj": 4859,
      "ÑĢÐ°Ð·ÑĢÐµÐ´Ð": 4860,
      "Ð½Ð¸Ð¶Ð": 4861,
      "(Ð¢Ð°Ð±ÐµÐ»Ð": 4862,
      "traj": 4863,
      "ÑģÐ¿Ð¾ÑĢÐ°Ð·ÑĥÐ": 4864,
      "Ð¿Ð¾ÑĤÐ²ÑĢÑĴÑĥÑĺÑ": 4865,
      "objavil": 4866,
      "Ð°ÑģÐ¾ÑĨÐ¸ÑĺÐ°ÑĨÐ¸ÑĺÐ": 4867,
      "poÄįetn": 4868,
      "struÄįni": 4869,
      "Ð·Ð½Ð°ÑĩÐ°ÑĺÐ½Ð¾ÑģÑĤÐ": 4870,
      "Ð¸Ð´ÐµÐ¾Ð»Ð¾ÑĪÐºÐ": 4871,
      "politiÄįar": 4872,
      "rob": 4873,
      "uzorcim": 4874,
      "bivÅ¡": 4875,
      "konkretno": 4876,
      "Ð¡ÑĤÐµÑĦÐ°Ð½Ð": 4877,
      "ope": 4878,
      "potiÄį": 4879,
      "rukovodstv": 4880,
      "Bosn": 4881,
      "napon": 4882,
      "kriviÄįni": 4883,
      "Nacionaln": 4884,
      "ÐľÐ¸Ð»Ð°Ð": 4885,
      "predavanj": 4886,
      "scen": 4887,
      "Ð¼Ð¾Ð»ÐµÐºÑĥÐ»Ð": 4888,
      "oÄįekivat": 4889,
      "ÑģÐ¿ÐµÑĨÐ¸ÑĦÐ¸ÑĩÐ½Ð¸Ñ": 4890,
      "Ð³Ð¸Ð¼Ð½Ð°Ð·Ð¸ÑĺÐ": 4891,
      "ÐºÑĢÐ¸Ð¼Ð¸Ð½Ð°Ð»Ð": 4892,
      "vakcin": 4893,
      "Ð¿Ð¾Ð²ÐµÑĽÐ°ÑļÐµÐ": 4894,
      "Ð¿ÑĢÐ¾ÑĦÐ¸Ð»Ð": 4895,
      "Ð¾Ð±ÑĥÑħÐ²Ð°ÑĤÐ°ÑĺÑ": 4896,
      "ÐºÐ°Ð½Ð°Ð»Ð": 4897,
      "Ð±ÑĢÐ¾ÑĺÐµÐ²Ð": 4898,
      "Ð½Ð°ÑģÑĤÐ°Ð": 4899,
      "ÐºÐ¾Ð¼ÐµÑĢÑĨÐ¸ÑĺÐ°Ð»Ð½Ð": 4900,
      "Ð·ÐµÐ¼ÑĻÑ": 4901,
      "ÑģÐ½Ð°Ð³Ñ": 4902,
      "Ð¸Ð½Ð´Ð¸ÑĢÐµÐºÑĤÐ½Ð": 4903,
      "saobraÄĩajn": 4904,
      "ÑģÑĤÐ²Ð°ÑĢÐ°ÑļÑ": 4905,
      "pesm": 4906,
      "tes": 4907,
      "izveÅ¡tavanj": 4908,
      "identite": 4909,
      "objeka": 4910,
      "zakonsk": 4911,
      "ÐºÐ¾Ð½ÑģÑĤÐ°Ð½ÑĤÐ½Ð": 4912,
      ".Osnovn": 4913,
      "Ð¿Ð¾Ð²ÐµÐ·ÑĥÑĺÐ": 4914,
      "Ð¿Ð¾Ð»Ð¸ÑĤÐ¸ÑĨÐ": 4915,
      "ÑĥÐºÑĻÑĥÑĩÐ¸Ð²Ð°ÑļÐ": 4916,
      "drugim": 4917,
      "pokazan": 4918,
      "isporuk": 4919,
      ".4": 4920,
      "izraz": 4921,
      "Ð¿ÑĢÐ¸Ð½ÑĨÐ¸Ð¿Ñ": 4922,
      "nism": 4923,
      "Ð¿ÑĢÐ¾Ð»Ð°Ð·Ð": 4924,
      "Ð¿Ð¾Ð²ÐµÑĽÐ°Ð½Ð": 4925,
      "Ð¸Ð½ÑĤÐµÑĢÐµÑ": 4926,
      "ÑĺÐ°ÐºÐ": 4927,
      "april": 4928,
      "Ð°Ð»ÑĤÐµÑĢÐ½Ð°ÑĤÐ¸Ð²Ð½Ð": 4929,
      "evropsko": 4930,
      "detalj": 4931,
      "ÑĥÑģÐ¿ÐµÑħÐ": 4932,
      "ÑģÑĤÐ¸ÑĨÐ°ÑļÐ": 4933,
      "jedink": 4934,
      "svakodnevno": 4935,
      "preduzetniÅ¡tv": 4936,
      "objasnit": 4937,
      "ÐºÐ°ÑĤÐµÐ³Ð¾ÑĢÐ¸ÑĺÑ": 4938,
      "Ð´ÐµÑĤÐ°ÑĻÐ½Ð¸ÑĺÐ": 4939,
      "ÐºÐ¾Ð¼ÑĥÐ½Ð¸ÐºÐ°ÑĨÐ¸ÑĺÑ": 4940,
      "ÑģÐ¿Ð¾ÑĻÐ°ÑĪÑļÐ": 4941,
      "Ð¸Ð·Ð³ÑĥÐ±Ð¸Ð»Ð": 4942,
      "Ð¿ÑĢÐµÐ²ÐµÐ½ÑĨÐ¸ÑĺÐ": 4943,
      "oblas": 4944,
      "proÅ¡lo": 4945,
      "Ð¿Ð¾ÑĩÐµÑĤÐ½Ð": 4946,
      "Ð¿Ð¾Ð´ÑĢÑĥÑĩÑĺÐ¸Ð¼Ð": 4947,
      "utvrÄĳuj": 4948,
      "Ð¼Ð°ÑĤÐµÐ¼Ð°ÑĤÐ¸ÑĩÐºÐ": 4949,
      "Ð¿ÑĢÐµÐ¿Ð¾Ð·Ð½Ð°Ð²Ð°ÑļÐ": 4950,
      "otvoreno": 4951,
      "sastank": 4952,
      "ÑĦÐ¸Ð»Ð¼Ð": 4953,
      "Ð·Ð½Ð°ÑĩÐ°ÑĺÐ½Ð¾Ð": 4954,
      "ÑģÑĤÑĥÐ´Ð¸ÑĺÐ°Ð¼Ð": 4955,
      "pogreÅ¡n": 4956,
      ".Redakcij": 4957,
      "ÑĨÐµÐ»Ð¾ÐºÑĥÐ¿Ð½Ð¾Ð": 4958,
      "kora": 4959,
      "Ð¾Ð¿ÑĢÐ°Ð²Ð´Ð°Ð½Ð": 4960,
      "prepoznaj": 4961,
      "Kak": 4962,
      "ÑģÑĤÐ°Ð½Ð¸ÑĪÑĤÐ": 4963,
      "ovakvi": 4964,
      ".Osi": 4965,
      "Ð½ÐµÐ·Ð°Ð´Ð¾Ð²Ð¾ÑĻÑģÑĤÐ²Ð": 4966,
      "Ð·Ð°Ð¼ÐµÐ½Ð¸ÑĨÐ": 4967,
      "realizuj": 4968,
      "Crn": 4969,
      "Ð¾Ð±ÑĢÐ°Ð·Ð¾Ð²Ð½Ð": 4970,
      "pomogn": 4971,
      "Ð¾ÑģÑĤÐ²Ð°ÑĢÐ": 4972,
      "Ð±Ð¾Ð»Ð½Ð¸ÑĨÐ": 4973,
      "Ð±Ð°Ð½Ð°ÐºÐ": 4974,
      "ÑĤÑĥÑĢÐ¸ÑģÑĤÐ¸ÑĩÐºÐ¸Ñ": 4975,
      "ÑĩÐµÑĪÑĽÐ": 4976,
      "Ð¿ÑĢÐ¸Ð²Ð¸Ð»ÐµÐ³Ð¸ÑĺÐ": 4977,
      "Ð½ÐµÐ¿Ð¾Ð·Ð½Ð°ÑĤÐ": 4978,
      "skup": 4979,
      "delatnos": 4980,
      "Ð´ÐµÑĤÐ": 4981,
      "suÅ¡tinsk": 4982,
      "nastavnic": 4983,
      "odobrenj": 4984,
      "pravo": 4985,
      "Å¾rtv": 4986,
      "Ð¾Ð¿ÑĢÐµÐ¼Ð": 4987,
      "ÐµÐ²ÑĢÐ¾Ð¿ÑģÐºÐ¸Ð": 4988,
      "dokumenat": 4989,
      "Ð¼ÐµÑĤÐ¾Ð´Ð¾Ð": 4990,
      "Ð¿Ð¾ÑĤÐ²ÑĢÐ´Ð": 4991,
      "ÑģÐ¸Ð¼Ð¿ÑĤÐ¾Ð¼Ð": 4992,
      "Ð²ÑĢÐµÐ´Ð½Ð¾Ð²Ð°ÑļÐ": 4993,
      "tehnoloÅ¡ko": 4994,
      "Ð¾Ð½Ð°Ñ": 4995,
      "Ð¿Ð¾Ð³Ð»ÐµÐ": 4996,
      "ÑĥÑĤÐ²ÑĢÐ´Ð¸Ð»Ð": 4997,
      "pretpostavlj": 4998,
      "Ð¿Ð¾ÑĤÐ¿Ð¸ÑģÐ°Ð": 4999,
      ".ÐĺÑģÑĤÐ¾Ð²ÑĢÐµÐ¼ÐµÐ½Ð": 5000,
      "Ð¿ÑĢÐ¾Ð½Ð°ÑĴÐµÐ½Ð": 5001,
      "ÐºÐ¾Ð»ÐµÐºÑĤÐ¸Ð²Ð½Ð¾Ð": 5002,
      "dogodil": 5003,
      "Ð´Ð¾Ð½ÐµÑĤÐ": 5004,
      "znaÄīajn": 5005,
      "Ð½Ð°Ð»Ð°Ð·Ð¸Ð": 5006,
      "raÄįu": 5007,
      "Ð¿ÑĢÐµÐ´ÑģÑĤÐ°Ð²Ð½Ð¸Ð": 5008,
      "percepcij": 5009,
      "korisniÄįk": 5010,
      "Ð¿ÑĢÐ¸ÑĢÐ¾Ð´Ñ": 5011,
      "ÐŁÐ": 5012,
      "ÑģÐ»Ð°Ð±Ð": 5013,
      "ÑģÑĢÐµÐ´Ð¸Ð½Ñ": 5014,
      "posveÄĩen": 5015,
      "Ð¾ÑģÑĤÐ°Ð": 5016,
      "Ð´Ð°Ð»Ð": 5017,
      "Ð¿ÑĢÐ°Ð²Ð½Ð¸Ð": 5018,
      "Ð·Ð°Ð±ÐµÐ»ÐµÐ¶ÐµÐ": 5019,
      "Ð³Ð»Ð¾Ð±Ð°Ð»Ð¸Ð·Ð°ÑĨÐ¸ÑĺÐ": 5020,
      "Ð¾ÑģÑĤÐ²Ð°ÑĢÑĥÑĺÑ": 5021,
      "ÐºÐ»Ð°ÑģÐ¸ÑĩÐ½Ð": 5022,
      "Ð¿Ð¾Ð´Ð°ÑĤÐ°Ð": 5023,
      ".ÐĿÐ°ÑĺÐ²ÐµÑĽÐ": 5024,
      "Ð¿ÑĢÐµÐ´Ð°Ð²Ð°ÑļÐ": 5025,
      "Ð½ÑĥÐ¶Ð½Ð": 5026,
      "diskusij": 5027,
      "invaliditeto": 5028,
      "ÑģÑĤÐ²Ð°ÑĢÐ°ÑĺÑ": 5029,
      "Ð½Ð°ÑĺÐ²Ð°Ð¶Ð½Ð¸ÑĺÐ¸Ñ": 5030,
      "ÑģÐ²Ð°ÐºÑ": 5031,
      "segment": 5032,
      "Ð¿ÑĢÐ¸Ð½ÑĨÐ¸Ð¿Ð¸Ð¼Ð": 5033,
      "privredno": 5034,
      "Ð¾ÐºÐ²Ð¸ÑĢÐ¸Ð¼Ð": 5035,
      "Ð¿Ð¾ÐºÑĢÐµÑĤÐ°ÑļÐ": 5036,
      "graÄĳevinsko": 5037,
      "Ð¿Ð¾ÑģÑĤÑĥÐ¿ÑĨÐ¸Ð¼Ð": 5038,
      "Ð¾Ð¿ÐµÑĢÐ°ÑĤÐ¸Ð²Ð½Ð": 5039,
      "Ð¼Ð¾Ð³ÑĥÑĽÐ½Ð¾ÑģÑĤÐ¸Ð¼Ð": 5040,
      "...": 5041,
      "dalje": 5042,
      "Ð°ÑĥÑĤÐ¾Ð½Ð¾Ð¼Ð¸ÑĺÐ": 5043,
      "sediÅ¡t": 5044,
      "ÑĢÐµÐ´Ð": 5045,
      ".ÐŀÑģÐ¸Ð": 5046,
      "Ð±ÑĢÐ¾ÑĺÐ½Ð¸Ð": 5047,
      "smanjen": 5048,
      "proÅ¡irenj": 5049,
      "ÑģÐ°ÑĢÐ°Ð´Ð½Ð¸ÐºÐ": 5050,
      "Ð¿ÑĢÐµÐ¿Ð¾Ð·Ð½Ð°ÑĤÐ": 5051,
      "ÑħÐ¸ÑĻÐ°Ð´Ð": 5052,
      "postiÅ¾": 5053,
      "Ð¿Ð»Ð°ÑĤÑĦÐ¾ÑĢÐ¼Ð": 5054,
      "ÑģÑĥÑĴÐµÑļÐ": 5055,
      "ÑģÐµÐºÑģÑĥÐ°Ð»Ð½Ð": 5056,
      "pravno": 5057,
      "Ð¸Ð½Ð´ÐµÐºÑģÐ": 5058,
      "pokretanj": 5059,
      "Ð¸Ð½ÑĤÐµÐ½Ð·Ð¸Ð²Ð½Ð": 5060,
      "koron": 5061,
      "preduzeÄĩim": 5062,
      "ÑĢÐ°Ð´Ð¾Ð²Ð¸Ð¼Ð": 5063,
      "doda": 5064,
      "Ð¿ÑĢÐ¸Ð²ÑĢÐµÐ´Ð½Ð¸Ñ": 5065,
      "Ð²Ð¸ÑĪÐµÑģÑĤÑĢÑĥÐºÐ": 5066,
      "broje": 5067,
      "standardim": 5068,
      "nemoguÄĩ": 5069,
      "izvod": 5070,
      "objavljujem": 5071,
      "ÑĽÐµÐ¼Ð": 5072,
      "prosek": 5073,
      "Ð½Ð°ÑģÑĤÐ°Ð²ÑĻÐ": 5074,
      "goriv": 5075,
      "Ð¿Ð¾ÐºÑĢÐ°ÑĺÐ¸Ð½Ð": 5076,
      "menj": 5077,
      "Ð¿Ð¾Ð²ÐµÐ·Ð°Ð": 5078,
      "efekat": 5079,
      "Ð¾ÑĤÐ²Ð°ÑĢÐ°ÑļÐ": 5080,
      "Ð´Ð°ÑĺÑ": 5081,
      "Ð´Ð¸ÑĢÐµÐºÑĤÐ¾Ñ": 5082,
      "takvo": 5083,
      "ÐĹÐµÐ¼ÑĻÐ": 5084,
      "pla": 5085,
      "Ð¸Ð½ÑģÑĤÑĢÑĥÐ¼ÐµÐ½Ñ": 5086,
      "roman": 5087,
      "dugoroÄįn": 5088,
      "uspeh": 5089,
      "Ð·Ð°Ð²ÑĢÑĪÐµÑĤÐºÐ": 5090,
      "aktueln": 5091,
      "utvrdil": 5092,
      "ÑĤÐµÐºÑģÑĤÐ¾Ð²Ð¸Ð¼Ð": 5093,
      "Ð¸Ð·ÑĢÐ°Ð¶Ð°Ð²Ð": 5094,
      "pitanjim": 5095,
      "stres": 5096,
      "Ð¾Ð´ÑĢÐµÑĴÑĥÑĺÑ": 5097,
      "ÑĺÐµÐ´Ð¸Ð½ÑģÑĤÐ²ÐµÐ½Ð¾Ð": 5098,
      "oboleli": 5099,
      "Ð¡Ð²ÐµÑĤÑģÐºÐ¾Ð": 5100,
      "karakte": 5101,
      "Ð¿ÑĢÐ°Ð²Ð¸Ð»Ð½Ð": 5102,
      "Ð¿ÐµÑģÐ½Ð¸ÐºÐ": 5103,
      "mestim": 5104,
      "Ð½Ð°ÑģÑĤÐ°Ð²ÐºÑ": 5105,
      "ÑĤÑĢÐµÐ½ÑĥÑĤÐºÐ": 5106,
      "sasta": 5107,
      "ÑĤÐµÑģÑĤÐ¾Ð²Ð": 5108,
      "Ð¿Ð¸ÑĪÐ": 5109,
      "zaÅ¡tiÄĩen": 5110,
      "src": 5111,
      "njo": 5112,
      "Ð»Ð¾ÐºÐ°Ð»Ð¸ÑĤÐµÑĤÐ": 5113,
      "miÅ¡iÄĩ": 5114,
      "Ð»ÐµÐºÐ¾Ð²Ð": 5115,
      "Ð¸Ð¼Ð¾Ð²Ð¸Ð½ÑģÐºÐ": 5116,
      "globalno": 5117,
      "Ð¾Ð·Ð±Ð¸ÑĻÐ½Ð": 5118,
      "ÑĤÐµÑĢÐ¾ÑĢÐ¸Ð·Ð¼Ð": 5119,
      "diferencijacij": 5120,
      "Ð¿Ð¾Ð·Ð½Ð°Ð²Ð°ÑļÐ": 5121,
      "premijer": 5122,
      "zako": 5123,
      "precizn": 5124,
      "putev": 5125,
      "prenet": 5126,
      "naÅ": 5127,
      "Ð½ÐµÐ¼Ð¾Ð³ÑĥÑĽÐ": 5128,
      "razvijanj": 5129,
      "Ð¾Ð±ÑĺÐ°Ð²Ð¸Ð»Ð": 5130,
      "Ð¸Ð¼Ð°ÑĺÑĥÑĽÐ": 5131,
      "ÑģÑĦÐµÑĢÐ": 5132,
      "gen": 5133,
      "unapre": 5134,
      "Ð¾Ð±ÑĺÐ°ÑģÐ½Ð¸ÑĤÐ": 5135,
      "ÐĹÐ±Ð¾ÑĢÐ½Ð¸Ð": 5136,
      "uraÄĳen": 5137,
      "prepoznavanj": 5138,
      "ÑĢÐµÐ³Ð¸Ð¾Ð½Ð°Ð»Ð½Ð¾Ð": 5139,
      "Ð±Ð¾Ð³Ð°ÑĤÑģÑĤÐ²Ð": 5140,
      "ÑĤÑĥÑĢÑģÐºÐ": 5141,
      "sudov": 5142,
      "obezbedit": 5143,
      "izveden": 5144,
      "domaÄĩin": 5145,
      "naprav": 5146,
      "analizirani": 5147,
      "Ð¼ÐµÑĤÐ¾Ð": 5148,
      "Äĩelijsk": 5149,
      "prinos": 5150,
      "dakl": 5151,
      "ÑĢÐµÐ¶Ð¸Ð¼Ð": 5152,
      "ÑļÐµÐ½Ð¸Ñ": 5153,
      "ÐĺÐ½ÑģÑĤÐ¸ÑĤÑĥÑ": 5154,
      "Ð¼ÐµÐ´Ð¸ÑĺÑģÐºÐ": 5155,
      "(ÑģÐ»Ð¸ÐºÐ": 5156,
      "oznaÄįen": 5157,
      "otpad": 5158,
      "transport": 5159,
      "sportsk": 5160,
      "pravoslavn": 5161,
      "podnoÅ¡enj": 5162,
      "posebno": 5163,
      "ovak": 5164,
      "membran": 5165,
      "ukrajinsk": 5166,
      "zavisn": 5167,
      "ÑĥÐ½Ð°Ð¿ÑĢÐµÐ": 5168,
      "ÑĤÐµÐ¶Ð": 5169,
      "Ð±Ð°Ñ": 5170,
      "mora": 5171,
      "Ð¶ÐµÐ½ÑģÐºÐ¾Ð": 5172,
      "vaÅ¡e": 5173,
      "Ð¿ÑĥÐ±Ð»Ð¸ÐºÐ": 5174,
      "mat": 5175,
      "ostvaril": 5176,
      "Ð½Ð°ÑĺÑģÑĤÐ°ÑĢÐ¸ÑĺÐ": 5177,
      "ÑĢÐµÐ³Ð¸Ð¾Ð½Ñ": 5178,
      "spoljni": 5179,
      "procenjuj": 5180,
      "ÐľÐ¾ÑģÐºÐ²Ð": 5181,
      "ÐµÐºÑģÐ¿Ð»Ð¾Ð°ÑĤÐ°ÑĨÐ¸ÑĺÐ": 5182,
      "Amerik": 5183,
      "napravit": 5184,
      "indeks": 5185,
      "ÑģÐ»Ð¾ÑĺÐµÐ²Ð": 5186,
      "Ð¸Ð·Ð±Ð¾ÑĢÐ¸Ð¼Ð": 5187,
      "Ð½ÐµÐ¿Ð¾ÐºÑĢÐµÑĤÐ½Ð¾ÑģÑĤÐ": 5188,
      "zadovoljavajuÄĩ": 5189,
      "Ð¿Ð¾Ð´Ð¸Ð·Ð°ÑļÐ": 5190,
      "Ð¾Ð´Ð²Ð¾ÑĺÐµÐ½Ð": 5191,
      "Ð¿Ð»Ð°Ð½Ð": 5192,
      "Ð¿Ð¾Ð»Ð¸ÑĤÐ¸ÑĩÐºÑ": 5193,
      "Ð½Ð°ÑģÑĤÑĥÐ¿Ð": 5194,
      "opisan": 5195,
      "ÐĵÐ»Ð°Ð²Ð½Ð": 5196,
      "Ð¿ÑĢÐ¾ÑĪÐ»Ð¾Ð": 5197,
      "kol": 5198,
      "kognitivn": 5199,
      "imen": 5200,
      "ÑĢÐµÐºÐ°Ð": 5201,
      "vest": 5202,
      "oslobaÄĳanj": 5203,
      "vlasnik": 5204,
      ".ÐĪÐµÐ´Ð°Ð": 5205,
      "Ð·Ð°Ð²ÑĢÑĪÐµÐ½Ð": 5206,
      "Ð³Ð»Ð°Ð³Ð¾Ð»ÑģÐºÐ": 5207,
      "Ð²Ð°Ð¶Ð°Ð": 5208,
      "Predsedni": 5209,
      "vremenski": 5210,
      "smeÅ¡": 5211,
      "ÑĦÐ¾ÑĢÐ¼Ð¸ÑĢÐ": 5212,
      "kriv": 5213,
      "pacijentkinj": 5214,
      "Ð´Ð²Ð°Ð´ÐµÑģÐµÑ": 5215,
      "isplat": 5216,
      "poljoprivredno": 5217,
      "dob": 5218,
      "znaj": 5219,
      "ÑĥÐ·ÐµÑĤÐ": 5220,
      "Ð¾ÑģÑĤÐ²Ð°ÑĢÐ¸ÑĤÐ": 5221,
      "Ð·Ð°ÑģÑĤÑĥÐ¿ÑĻÐµÐ½Ð¾ÑģÑ": 5222,
      "Ð¶Ð¸Ð²Ð¾ÑĤÐ½Ð¾Ð": 5223,
      "sticanj": 5224,
      "informacion": 5225,
      "ÑĥÑģÐ¿ÐµÑ": 5226,
      "suprotn": 5227,
      "gor": 5228,
      "kartic": 5229,
      "Ð´Ð¾Ð¼ÐµÐ½Ñ": 5230,
      "Ð¿Ð¾Ð²ÑĢÐµÐ¼ÐµÐ½Ð": 5231,
      "Ð¾Ð´ÑĢÐµÑĴÐµÐ½Ð¾Ñ": 5232,
      "depresij": 5233,
      "realn": 5234,
      "Ð¼Ð¾ÑĢÐ°Ð": 5235,
      "uticat": 5236,
      "ÐºÐ°Ð¿Ð°ÑĨÐ¸ÑĤÐµÑ": 5237,
      "zadatak": 5238,
      "Ð·Ð°ÑħÑĤÐµÐ²Ð¸Ð¼Ð": 5239,
      "Ð³Ð¾Ð": 5240,
      "Ð¾Ð²Ð°ÐºÐ²Ð¾Ð": 5241,
      "nemaÄįko": 5242,
      "ureÄĳenj": 5243,
      "veruj": 5244,
      "ÑĥÐ¼ÐµÑĤÐ½Ð¸ÐºÐ": 5245,
      "Ð¿ÑĢÐ°Ð²ÑĨÐ": 5246,
      "ÑģÑĤÑĢÐ°Ð½Ð¾Ð": 5247,
      "Ð¡Ð¾Ð²ÑĺÐµÑĤÑģÐºÐ¾Ð": 5248,
      "Ð¿Ð¾ÐºÑĥÑĪÐ°Ð²Ð": 5249,
      "Ð´Ð¸Ð½Ð°ÑĢÐ": 5250,
      "Ð¿ÑĢÐ¾ÑģÑĤÐ¾ÑĢÐ¸Ð¼Ð": 5251,
      "antioksidativn": 5252,
      "devojk": 5253,
      "Ð¿ÑĢÐµÐ¿ÑĢÐµÐºÐ": 5254,
      "TakoÄĳ": 5255,
      "fo": 5256,
      "Ð¿Ð°ÑĢÑĤÐ½ÐµÑĢÐ": 5257,
      "ÑĤÑĥÑĢÐ¸ÑģÑĤÐ": 5258,
      "Ð½Ð°ÑĢÐ¾Ð´Ð½Ð¸Ñ": 5259,
      "koris": 5260,
      "Ð¸ÑģÑĤÑĢÐ°Ð¶Ð¸Ð²Ð°ÑĩÐºÐ¾Ð": 5261,
      "povezuj": 5262,
      "ÑģÑĢÐµÐ´ÑļÐ¸Ñ": 5263,
      "Subotic": 5264,
      "ÑģÐ°Ð¾Ð±ÑĢÐ°ÑĽÐ°ÑĺÐ": 5265,
      "asocijacij": 5266,
      "posmatranj": 5267,
      "Ð¿Ð¾Ð·Ð¸ÑĤÐ¸Ð²Ð½Ð¾Ð": 5268,
      "Ð·Ð°Ð¿ÑĢÐµÐ¼Ð¸Ð½Ð": 5269,
      "Äįitanj": 5270,
      "ÑģÐ¾Ð²ÑĺÐµÑĤÑģÐºÐ": 5271,
      "ÑĺÐµÐ·Ð¸ÑĩÐºÐ¾Ð": 5272,
      "dese": 5273,
      "(2": 5274,
      "pravilim": 5275,
      "Ð»ÐµÐºÑģÐ¸ÑĩÐºÐ": 5276,
      "ÄįiÅ¡Äĩenj": 5277,
      "ÐĵÑĢÐ°ÑĦÐ¸ÐºÐ¾Ð": 5278,
      "opseg": 5279,
      "seksualn": 5280,
      "inovacij": 5281,
      "ÑĪÑĤÐ°Ð¼Ð¿Ð": 5282,
      "Ð½Ð°ÑģÑĤÐ°Ð²Ð°Ð": 5283,
      "razliÄįito": 5284,
      "Ð¸Ð½ÑĤÐµÐ½Ð·Ð¸ÑĤÐµÑ": 5285,
      "predviÄĳanj": 5286,
      "Prem": 5287,
      "ÑĢÐ°ÑĤÑ": 5288,
      "odrÅ¾an": 5289,
      "Ð·Ð»Ð¾ÑģÑĤÐ°Ð²ÑĻÐ°ÑļÐ": 5290,
      "ÑĢÐ°Ð·ÑĥÐ¼ÐµÐ²Ð°ÑļÑ": 5291,
      "izolacij": 5292,
      "ustanovljen": 5293,
      "ÑĪÐ¸ÑĢÐ¸Ð½Ð": 5294,
      "ÑĢÐ°Ð´Ð½Ð¸Ñ": 5295,
      "Ð¡ÑĺÐµÐ´Ð¸ÑļÐµÐ½Ð¸Ð": 5296,
      "ÑģÐµÐ³Ð¼ÐµÐ½ÑĤÐ": 5297,
      "putnik": 5298,
      "ÑģÐºÐ°Ð»Ð": 5299,
      "koleg": 5300,
      "Ð´Ð¾Ð±Ð¸ÑĤÐ": 5301,
      "Ð²Ð¸ÑģÐ¾ÐºÐ¸Ð": 5302,
      "demokratsk": 5303,
      "koristeÄĩ": 5304,
      "ÑģÐ¼Ð¸ÑģÐ°Ð": 5305,
      "Ð¿ÑĢÐµÑĤÑļÐ": 5306,
      "Ð¾ÑĤÐºÑĢÐ¸Ð²Ð": 5307,
      "Ð±Ð¸ÑģÐ¼Ð": 5308,
      "30": 5309,
      ".Ð¡Ð": 5310,
      "zasniv": 5311,
      "ÑĢÐ°Ð·Ð²Ð¸ÑĺÐ°ÑĺÑ": 5312,
      "186": 5313,
      "Ð¸Ð·ÑĢÐ°ÑĩÑĥÐ½Ð°Ð²Ð°ÑļÐ": 5314,
      "snimanj": 5315,
      "Kragujevc": 5316,
      "odluÄįuj": 5317,
      "Ð¸Ð·Ð´Ð²Ð¾ÑĺÐµÐ½Ð": 5318,
      "pravd": 5319,
      "narodn": 5320,
      "registracij": 5321,
      "Ð´Ð¸Ð¿Ð»Ð¾Ð¼Ð°ÑĤÐ¸ÑĺÐ": 5322,
      "ÑģÐ²Ð¾ÑĺÐµÐ²ÑĢÑģÐ½Ð": 5323,
      "ÑĺÐµÐ´Ð½Ð°ÐºÐ¾ÑģÑĤÐ": 5324,
      "krv": 5325,
      "Ð½Ð°ÑģÑĤÐ°Ð²Ð½Ð¸Ð": 5326,
      "ÑģÐ°ÑĩÑĥÐ²Ð°Ð½Ð": 5327,
      "Ð¿Ð°ÑĢÑĤÐ¸Ð·Ð°Ð½Ð": 5328,
      "Ð¼ÐµÐ´Ð°ÑĻÐ": 5329,
      "namen": 5330,
      "ÑĢÐµÐ°Ð»Ð¸Ð·ÑĥÑĺÐ": 5331,
      "nje": 5332,
      "ÑĺÐµÐ´Ð¸Ð½Ð¸ÑĨÐ°Ð¼Ð": 5333,
      "film": 5334,
      "VuÄįiÄĩ": 5335,
      "Ð¸ÑģÑĤÐ¾ÑĢÐ¸ÑĩÐ°ÑĢÐ": 5336,
      "zloupotreb": 5337,
      ".ÐŁÑĢÐ": 5338,
      "ÑĥÑĤÐ¸ÑĨÐ°ÑĤÐ": 5339,
      "Ð±ÐµÐ»ÐµÐ¶Ð": 5340,
      "ÑĢÐ°Ð´Ð¾Ð": 5341,
      "Ð°Ð½Ð°Ð»Ð¸ÑĤÐ¸ÑĩÐºÐ": 5342,
      "ÑģÑĤÐ°Ð½Ð´Ð°ÑĢÐ´Ð¸Ð¼Ð": 5343,
      "sirovin": 5344,
      "Ð¿Ð¾ÑĤÐµÐ½ÑĨÐ¸ÑĺÐ°Ð»Ð½Ð¸Ñ": 5345,
      "vezivanj": 5346,
      "ÑģÑĤÑĢÐ°Ð½Ð°ÐºÐ": 5347,
      ",0": 5348,
      "Ð¿ÑĢÐ¸ÑģÑĥÑģÑĤÐ²Ñ": 5349,
      "lep": 5350,
      "Ð·Ð°Ð¸Ð½ÑĤÐµÑĢÐµÑģÐ¾Ð²Ð°Ð½Ð": 5351,
      "nam": 5352,
      "ÐºÑĢÐ¸ÑĤÐµÑĢÐ¸ÑĺÑĥÐ¼Ð¸Ð¼Ð": 5353,
      "neposredno": 5354,
      "Ð²Ð¾ÑĻÐ": 5355,
      "Ð¢Ð°ÐºÐ": 5356,
      "Komisij": 5357,
      "radionic": 5358,
      "Ð¿Ð¾ÐºÑĥÑĪÐ°Ñ": 5359,
      "ÑĢÐ°Ð·Ð½Ð": 5360,
      "3,": 5361,
      "ÐºÑĢÐ°ÑĺÑļÐ": 5362,
      "karakterizacij": 5363,
      ".Posebn": 5364,
      "Ð·Ð°Ð¿Ð¸ÑģÐ": 5365,
      "Ð¿Ð¾ÑģÑĤÐ°Ð½Ð": 5366,
      "uverenj": 5367,
      "sekvenc": 5368,
      "Naslo": 5369,
      "Ð°ÐºÑĤÐµÑĢÐ": 5370,
      "ÐºÐ¾ÑĢÐ¿ÑĥÑģÐ": 5371,
      "Ð·Ð°Ð¿Ð¾ÑģÐ»ÐµÐ½Ð¾Ð": 5372,
      "kiseonik": 5373,
      "ÑĨÐµÐ»Ð¾Ð": 5374,
      "Ð°ÐºÑĤÑĥÐµÐ»Ð½Ð": 5375,
      "ÐĲÐ¼ÐµÑĢÐ¸ÐºÐ": 5376,
      "donet": 5377,
      "Ð¾Ð±Ð°Ð²ÑĻÐ": 5378,
      "svojin": 5379,
      "ÑģÐ°ÑģÑĤÐ°Ð²Ð": 5380,
      "Ð½Ð¸Ð²Ð¾Ð¸Ð¼Ð": 5381,
      "obeleÅ¾j": 5382,
      "administrativn": 5383,
      "tipov": 5384,
      "relevantni": 5385,
      "nika": 5386,
      "Ð¿ÑĢÐ¾Ð¼ÐµÐ½ÑĻÐ¸Ð²Ð¸Ñ": 5387,
      "ÑĢÐ°Ð²Ð½Ð": 5388,
      "ÐµÐ²Ð°Ð»ÑĥÐ°ÑĨÐ¸ÑĺÐ": 5389,
      "Ð·Ð»Ð¾ÑĩÐ¸Ð½Ð": 5390,
      "Ð¿Ð¾Ð½Ð°Ð²ÑĻÐ°ÑļÐ": 5391,
      "ÑĨÐ°ÑĢÐ": 5392,
      "Ð²Ð¾Ð´Ð¸Ð»Ð": 5393,
      "ÑģÐºÑĥÐ": 5394,
      "poslodavc": 5395,
      "vis": 5396,
      "preparat": 5397,
      "specifiÄįnost": 5398,
      "Ð´ÑĥÐ±Ð¾ÐºÐ": 5399,
      "funkcionalni": 5400,
      "ÑģÐ¸ÑģÑĤÐµÐ¼Ð¾Ð": 5401,
      "Ð¿ÑĢÐ¸ÑĢÐ¾Ð´Ð½Ð¸Ð": 5402,
      "uoÄįen": 5403,
      "Ð¼Ð¸Ð³ÑĢÐ°ÑĨÐ¸ÑĺÐ": 5404,
      "jedni": 5405,
      "Ð¸Ð¼ÐµÐ½Ð¾Ð": 5406,
      "uÄįenicim": 5407,
      "Ð´ÐµÐ²ÐµÐ´ÐµÑģÐµÑĤÐ¸Ñ": 5408,
      "roditeljim": 5409,
      "ÐŁÐ°Ð²Ð»Ð": 5410,
      ".Sam": 5411,
      "filmov": 5412,
      "pozitivno": 5413,
      "ÑģÐ°ÑģÑĤÐ°Ð²Ð½Ð": 5414,
      "Ð¸Ð³ÑĢÐ°ÑĩÐ": 5415,
      "savet": 5416,
      "ÐºÐ¾Ð¼Ð¸ÑĤÐµÑĤÐ": 5417,
      "iznenaÄĳenj": 5418,
      "instalacij": 5419,
      "privatnost": 5420,
      "utical": 5421,
      "zahtevim": 5422,
      "zahtevaj": 5423,
      "Ð³Ð¾ÑĢÐ": 5424,
      "Partizan": 5425,
      "ÑĤÐ¸ÑĩÐ": 5426,
      "6.": 5427,
      "Ð¾Ð´ÑĢÐµÑĴÐµÑļÐ": 5428,
      "Ð¿Ð¾ÑĤÐ²ÑĢÐ´Ð¸Ð»Ð": 5429,
      "ÐºÐ¾Ð¼ÑĥÐ½Ð¸ÑģÑĤÐ¸ÑĩÐºÐ": 5430,
      "Ð¡Ð°ÑĢÐ°ÑĺÐµÐ²Ð": 5431,
      "Kad": 5432,
      "ÐĹÐ±Ð¾Ð": 5433,
      "Ð¾Ð±ÐµÐ·Ð±ÐµÑĴÐ¸Ð²Ð°ÑļÐ": 5434,
      "Ð¾Ð¿ÑĤÐ¸Ð¼Ð°Ð»Ð½Ð": 5435,
      "namirnic": 5436,
      "mreÅ¾am": 5437,
      "Ð´ÐµÑĦÐ¸Ð½Ð¸ÑĪÑ": 5438,
      "otkrivanj": 5439,
      "Ð·Ð°ÐºÐ¾Ð½Ð¸ÑĤÐ¾ÑģÑĤÐ": 5440,
      "Ukolik": 5441,
      "znat": 5442,
      ".Komentar": 5443,
      "pomenuti": 5444,
      "ÑĦÐ¸Ð³ÑĥÑĢÐ": 5445,
      "kratk": 5446,
      "ÑģÐ²ÐµÐ´Ð¾ÐºÐ": 5447,
      "korisn": 5448,
      "Ð°ÑĤÐ¼Ð¾ÑģÑĦÐµÑĢÐ": 5449,
      "poziv": 5450,
      "ÑģÑĥÐ´Ð±Ð¸Ð½Ð": 5451,
      "prostorn": 5452,
      "teks": 5453,
      "ukupni": 5454,
      "spektr": 5455,
      "Ð³Ð¾Ð²Ð¾ÑĢÑ": 5456,
      "individualni": 5457,
      "rastojanj": 5458,
      "ÑĥÑģÐ°Ð²ÑĢÑĪÐ°Ð²Ð°ÑļÐ": 5459,
      "ÐĶÑĢÑĥÑĪÑĤÐ²Ð": 5460,
      "ÐºÐ²Ð°Ð½ÑĤÐ¸ÑĤÐ°ÑĤÐ¸Ð²Ð½Ð": 5461,
      "metar": 5462,
      "ÑģÐ¾ÑĨÐ¸ÑĺÐ°Ð»Ð¸ÑģÑĤÐ¸ÑĩÐºÐ": 5463,
      "Ð¶ÐµÑĻÐ": 5464,
      "Ð¾ÑģÐ½Ð¾Ð²Ð½Ð¸Ð": 5465,
      "Ð¼Ð°ÑĢÐºÐµÑĤÐ¸Ð½Ð": 5466,
      "ÑĥÑģÐ¿Ð¾ÑģÑĤÐ°Ð²ÑĻÐ": 5467,
      "ÐĺÑģÑĤÑĢÐ°Ð¶Ð¸Ð²Ð°ÑļÐ": 5468,
      "dal": 5469,
      "ÐºÑĻÑĥÑĩÐ½Ð¸Ñ": 5470,
      "Ð½Ð¾ÑģÐ¸Ð¾ÑĨÐ": 5471,
      "ÑĤÐ²ÑĢÐ´ÑļÐ": 5472,
      "intelektualn": 5473,
      "automatizovan": 5474,
      "Ð´Ð¾ÑĪÐ°Ð": 5475,
      "ÑĢÐ°Ð·Ð²Ð¸Ð»Ð": 5476,
      "predloÅ¾en": 5477,
      "izlaz": 5478,
      "Ð¿ÑĢÑĥÐ¶Ð°ÑĺÑ": 5479,
      "ÐºÐ°ÑĢÐ°ÐºÑĤÐµÑĢÐ¸ÑģÑĤÐ¸ÑĩÐ°Ð": 5480,
      "najveÄĩe": 5481,
      "Ð¿Ð¾ÑģÐµÑĤÐ": 5482,
      "zdrav": 5483,
      "Ð¼ÑĥÐ·Ð¸ÑĩÐºÐ¾Ð": 5484,
      "Ð¿Ð¾Ð¼ÐµÑĢÐ°ÑļÐ": 5485,
      "Ð¿ÑĥÑĤÐµÐ²Ð": 5486,
      "ÑħÐ¸ÑĺÐµÑĢÐ°ÑĢÑħÐ¸ÑĺÐ": 5487,
      "organizovano": 5488,
      "ÐļÑĢÐ°ÑĻÐµÐ²ÑģÑĤÐ²Ð": 5489,
      "francusk": 5490,
      "ocenjivanj": 5491,
      "Ð¿Ð¾Ð¿ÑĥÐ»Ð°ÑĢÐ½Ð": 5492,
      "svim": 5493,
      "ÑģÐ»Ð¸ÐºÑ": 5494,
      "povezanost": 5495,
      "raspoloÅ¾enj": 5496,
      "gubita": 5497,
      "zakonodavstv": 5498,
      "Ð¸Ð·ÑĢÐ°ÑĩÑĥÐ½Ð°ÑĤÐ": 5499,
      "doÅ¡a": 5500,
      "doÄĩ": 5501,
      "proizvodim": 5502,
      "psihologij": 5503,
      "âĢĻ": 5504,
      "Ð¿ÑĢÐ¸Ð¿Ð¾Ð²ÐµÑĤÐºÐ": 5505,
      "Ð¼Ð¾Ñ": 5506,
      "ÑģÐ¿Ð¾ÑĢÑĤÑģÐºÐ": 5507,
      "ÐµÐ»ÐµÐºÑĤÑĢÐ¾Ð½ÑģÐºÐ¾Ð": 5508,
      "ÑĥÐ»Ð°Ð³Ð°ÑļÐ": 5509,
      "ostvaren": 5510,
      "vitamin": 5511,
      "termin": 5512,
      "prisuta": 5513,
      "skal": 5514,
      "zavrÅ¡en": 5515,
      "algoritm": 5516,
      "ÑģÐºÑĥÐ¿Ð": 5517,
      "Ð¾Ð´Ð»ÑĥÑĩÑĥÑĺÐ": 5518,
      "Ð´Ð¾Ð¼Ð°ÑĽÐµÐ": 5519,
      "ÐĲÐ»Ð±Ð°Ð½Ð¸ÑĺÐ": 5520,
      "ogled": 5521,
      "ÑģÑĤÑĢÐ°Ð½Ñ": 5522,
      "izolat": 5523,
      "Ð¿Ð¾ÑģÐ»Ð¾Ð²Ð¸Ð¼Ð": 5524,
      "Ð¾ÑĤÐºÑĢÐ¸Ð²ÐµÐ½Ð": 5525,
      "Ð°ÑĥÑĤÐ¾Ð¼Ð°ÑĤÑģÐºÐ": 5526,
      "Ð²Ð¸Ð·ÑĥÐµÐ»Ð½Ð": 5527,
      "Ð¸Ð·Ð°Ð·Ð¾Ð²Ð": 5528,
      "Ð¿ÑĢÐ¾Ð¿Ð¸ÑģÐ¸Ð¼Ð": 5529,
      "Ð¼ÐµÑħÐ°Ð½Ð¸Ð·Ð°Ð¼Ð": 5530,
      "ÑĥÐ¾ÑĩÐ°Ð²Ð": 5531,
      "ÑģÐ°Ð¾Ð¿ÑĪÑĤÐ°Ð²Ð°ÑļÐ": 5532,
      "ÑĩÐ¸ÑĤÐ°Ð²Ð¾Ð": 5533,
      "strano": 5534,
      "Ð¿Ð¾ÑĺÐ°Ð²Ñ": 5535,
      "Ð´ÐµÑĦÐ¾ÑĢÐ¼Ð°ÑĨÐ¸ÑĺÐ": 5536,
      "deformacij": 5537,
      "Ð¸Ð½Ð¾ÑģÑĤÑĢÐ°Ð½Ð¸Ñ": 5538,
      "obuhvaÄĩen": 5539,
      "Politik": 5540,
      "meseÄįn": 5541,
      "Ð¿ÑĢÐ¸ÑħÐ²Ð°ÑĤÐ¸Ð»Ð": 5542,
      ".Istovremen": 5543,
      "Ð´ÐµÐ²Ð¾ÑĺÐºÐ": 5544,
      "Ð¾ÑĩÐµÐºÐ¸Ð²Ð°ÑĤÐ": 5545,
      "ÑĤÐµÑħÐ½Ð¾Ð»Ð¾ÑĪÐºÐ¾Ð": 5546,
      "Ð·Ð½Ð°ÑĩÐ°ÑĺÑ": 5547,
      "vaÅ¾": 5548,
      "pripadnic": 5549,
      "ploÄį": 5550,
      "Ð·Ð°ÐºÐ¾Ð½Ð¾Ð´Ð°Ð²Ð½Ð": 5551,
      "ÑĢÐµÐ³ÑĥÐ»Ð°ÑĨÐ¸ÑĺÐ": 5552,
      "Ð¼Ð°ÑĤÐµÑĢÐ¸ÑĺÐ°Ð»Ð½Ð¾Ð": 5553,
      "svetlost": 5554,
      "hrvatsk": 5555,
      "ÑĢÐµÐ°Ð»Ð½Ð": 5556,
      "Ð¸Ð·Ð²ÑĢÑĪÐ¸ÑĤÐ": 5557,
      "ÑģÐ¾ÑĢÑĤÐ": 5558,
      "Ð¿ÑĢÑĥÐ¶Ð°ÑļÐ": 5559,
      "Ð¼Ð¾Ð´ÐµÑĢÐ½Ð¾Ð": 5560,
      "Ð´Ð²Ð¾ÑģÑĤÑĢÑĥÐºÐ": 5561,
      "Ð¿ÑĢÐµÐ¿Ð¾Ð·Ð½Ð°ÑĺÐ": 5562,
      "Ð½Ð°ÑĺÐ²ÐµÑĽÐ¸Ñ": 5563,
      "promenljivi": 5564,
      "Ð²ÐµÑĽÐ¸Ð": 5565,
      "Ð¿Ð¾ÑģÑĤÐ¸Ð¶Ð": 5566,
      "kraje": 5567,
      "ÐºÐ°Ð½ÑĨÐµÐ»Ð°ÑĢÐ¸ÑĺÐ": 5568,
      "Ð´Ð½ÐµÐ²Ð½Ð": 5569,
      "Ð¿Ð¾ÑĢÐµÑĤÐºÐ": 5570,
      "Ð¾Ð´ÑĢÐµÐ´Ð½Ð¸ÑĨÐ": 5571,
      "odrasli": 5572,
      "odlaganj": 5573,
      "Ð·Ð°ÑĺÐµÐ´Ð½Ð¸ÑĨÑ": 5574,
      "odredit": 5575,
      "Ð¾Ð½Ð¾Ð": 5576,
      "Ð´ÑĢÐ¶Ð°Ð²Ð½Ð¸Ð": 5577,
      "muziÄįk": 5578,
      "ÑģÐ¾Ð±Ð¾Ð": 5579,
      "Ð¾Ð²Ð¾Ð³Ð": 5580,
      "Ð³ÐµÐ½ÐµÑĢÐ°Ð": 5581,
      "ÐºÑĢÐ¸Ð²Ð¸ÑĩÐ½Ð¸Ð": 5582,
      "ÑģÐ»ÐµÐ´ÐµÑĽÐµÐ": 5583,
      "boles": 5584,
      "sort": 5585,
      "ÑĤÑĢÐ¶Ð¸ÑĪÐ½Ð": 5586,
      "emocionaln": 5587,
      "Ð¿Ð¾ÑĻÐ¾Ð¿ÑĢÐ¸Ð²ÑĢÐµÐ´Ð½Ð¸Ñ": 5588,
      "ÑĻÑĥÐ´ÑģÐºÐ¸Ð": 5589,
      ".P": 5590,
      "postepen": 5591,
      "svetl": 5592,
      "Ð½Ð°Ð¿ÑĢÐ°Ð²ÑĻÐµÐ½Ð": 5593,
      "Ð¾Ð¿Ð¾Ð·Ð¸ÑĨÐ¸ÑĺÐ": 5594,
      "ÑĤÑĥÐ¼Ð°ÑĩÐ": 5595,
      "Ð¿ÑĢÐ¸ÑģÑĤÑĥÐ¿Ñ": 5596,
      "ÑĪÐºÐ¾Ð»Ð¾Ð²Ð°ÑļÐ": 5597,
      "(ÐºÐ¾ÑĺÐ": 5598,
      "postignuÄĩ": 5599,
      "Äįas": 5600,
      "Ð»Ð¸Ð½ÐµÐ°ÑĢÐ½Ð": 5601,
      "fabrik": 5602,
      "ÑģÐ»Ð¸ÑĩÐ°Ð": 5603,
      "Ð°ÑģÐ¿ÐµÐºÑ": 5604,
      "ÑĢÐµÐ°Ð»Ð¸Ð·Ð¾Ð²Ð°Ð½Ð": 5605,
      "Ð¿Ð¾ÑģÐµÐ±Ð½Ñ": 5606,
      "obezbedil": 5607,
      "govoril": 5608,
      "ÑĢÐ°Ð·Ð½Ð¸Ñ": 5609,
      "manjin": 5610,
      "Ð¿ÑĢÐ¸Ð½Ð¾ÑģÐ": 5611,
      "ÐŁÐ°Ð²Ð»Ð¾Ð²Ð¸Ñ": 5612,
      "psiholoÅ¡k": 5613,
      "inaÄį": 5614,
      "elektron": 5615,
      "izabran": 5616,
      "ÑģÐµÐ´Ð¸ÑĪÑĤÐ": 5617,
      "postupanj": 5618,
      "ÐĺÑģÑĤÐ": 5619,
      "Ð¿Ð¾Ð¿Ð¸ÑģÑ": 5620,
      "Ð´Ð²Ð°Ð´ÐµÑģÐµÑĤÐ¾Ð": 5621,
      "Ð½Ð°ÑĢÐµÐ´Ð½Ð": 5622,
      "Ð²Ð¸ÑģÐ¾Ð": 5623,
      "Ð¡ÐĲÐĿÐ": 5624,
      "moguÄĩnostim": 5625,
      "Ð½ÐµÐ¿Ð¾ÑģÑĢÐµÐ´Ð½Ð¾Ð": 5626,
      "odreÄĳe": 5627,
      "Ð¿ÑĢÐ¸ÐºÐ°Ð·Ð¸Ð²Ð°ÑļÐ": 5628,
      "ÑĢÐ¾Ð¼Ð°Ð½Ñ": 5629,
      "suzbijanj": 5630,
      "ÑĤÑĥÑĢÐ¸ÑģÑĤÐ¸ÑĩÐºÐ¾Ð": 5631,
      "Ð¾Ð±Ð°Ð²ÐµÐ·Ñ": 5632,
      "revizij": 5633,
      "pojedinac": 5634,
      "Ð½Ð°Ð¼ÐµÑļÐµÐ½Ð": 5635,
      "Ð¸Ð·Ð°Ð·Ð¸Ð²Ð": 5636,
      "uzora": 5637,
      "upuÄĩuj": 5638,
      "ogromn": 5639,
      "Ð¼ÐµÑĴÑĥÐ½Ð°ÑĢÐ¾Ð´Ð½Ð¾Ñ": 5640,
      "Ð¾ÑĢÐ³Ð°Ð½Ð¸Ð·Ð¾Ð²Ð°Ð": 5641,
      "teÄįnost": 5642,
      "kvalifikacij": 5643,
      ".Mnog": 5644,
      "izrazit": 5645,
      "hotel": 5646,
      "Ð½Ð°ÑĪÐ¾Ñ": 5647,
      "duÅ¾nost": 5648,
      "Ð£ÐºÑĢÐ°ÑĺÐ¸Ð½Ð": 5649,
      "Å¡irin": 5650,
      "vezani": 5651,
      "intenzite": 5652,
      "Ð´Ð¾Ð³Ð°ÑĴÐ°ÑĺÐ¸Ð¼Ð": 5653,
      "Ð½Ð°ÑģÑĤÐ¾ÑĺÐ": 5654,
      "ÐºÐ¸ÑģÐµÐ¾Ð½Ð¸ÐºÐ": 5655,
      "Ð¾Ð´Ð±ÑĢÐ°Ð½Ñ": 5656,
      "sliÄįni": 5657,
      "Ð²ÐµÑĢÐ¾Ð²Ð°ÑļÐ": 5658,
      "Ð²Ð¸Ð´ÑĻÐ¸Ð²Ð": 5659,
      "struÄįnjac": 5660,
      "komentarim": 5661,
      "izloÅ¾enost": 5662,
      "tvrdnj": 5663,
      "ÑģÐµÐ¼ÐµÐ½Ð": 5664,
      "Ð´Ð°ÑĻÐµÐ": 5665,
      "ÑĦÐ¸Ð½Ð°Ð½ÑģÐ¸ÑĺÐ": 5666,
      "teÅ¡ki": 5667,
      "ÐĵÑĢÑĩÐºÐ": 5668,
      "Ð·Ð°Ð¿Ð¾ÑĩÐµÐ»Ð": 5669,
      "crven": 5670,
      "vaÅ¾nost": 5671,
      "Ð´ÑĢÑĥÐ³Ð¸Ð¼Ð": 5672,
      ".Jedn": 5673,
      "ÑĥÐ³Ð¾Ð²Ð¾ÑĢÐ½Ð": 5674,
      "Ð¿ÑĥÐ½Ð": 5675,
      "Ð¿ÑĢÐµÐ·ÐµÐ½ÑĤÐ°ÑĨÐ¸ÑĺÐ": 5676,
      "Ð¿Ð¾ÑĢÐ¾Ð´Ð¸ÑĩÐ½Ð¾Ð": 5677,
      "Ð½Ð°ÑĪÐ»Ð": 5678,
      "Ð´Ð¾Ð½ÐµÐ»Ð": 5679,
      "glas": 5680,
      "ÑģÐ²ÐµÑĪÑĤÐµÐ½Ð¸ÐºÐ": 5681,
      "gradsk": 5682,
      "http": 5683,
      "ostan": 5684,
      "definitivn": 5685,
      "Ð¸Ð·Ð»Ð°Ð·Ð": 5686,
      "ÑĦÑĥÐ½ÐºÑĨÐ¸Ð¾Ð½Ð¸ÑĪÐ": 5687,
      "ÐºÐ¾ÑĢÐ°Ð": 5688,
      "Ð¼Ð¸ÑĤÑĢÐ¾Ð¿Ð¾Ð»Ð¸ÑĤÐ": 5689,
      "Ð»Ð¸ÑĩÐ½Ð¾ÑģÑ": 5690,
      ".200": 5691,
      "krajnj": 5692,
      "ÐĵÐµÐ½ÐµÑĢÐ°Ð»Ð½Ð": 5693,
      "Ð³ÑĥÐ±Ð¸ÑĤÐ°Ð": 5694,
      "nisk": 5695,
      "ÑĢÐµÐ³ÑĥÐ»Ð¸ÑģÐ°Ð½Ð": 5696,
      "ÑĤÐ°ÐºÐ²Ð¸Ñ": 5697,
      "Albanij": 5698,
      "preprek": 5699,
      "Ð¿Ð°ÑĤÑĢÐ¸ÑĺÐ°ÑĢÑĪÐ¸ÑĺÐ": 5700,
      "Ð°Ð´Ð°Ð¿ÑĤÐ°ÑĨÐ¸ÑĺÐ": 5701,
      "ÑģÑĤÐ°ÑĢÐ¾Ð": 5702,
      "Ð¸Ð·Ð²ÐµÑĪÑĤÐ°Ñ": 5703,
      "koordinacij": 5704,
      "navodn": 5705,
      "ÑģÐ»ÐµÐ´ÐµÑĽÐ¸Ð": 5706,
      "Ð¿ÑģÐ¸ÑħÐ¾Ð»Ð¾Ð³Ð¸ÑĺÐ": 5707,
      "Ð±Ð¸ÑĻÐºÐ": 5708,
      "stvarnost": 5709,
      "Ð¼Ð¾Ð½ÐµÑĤÐ°ÑĢÐ½Ð": 5710,
      "Ð°Ð»Ð³Ð¾ÑĢÐ¸ÑĤÐ°Ð": 5711,
      "profesionalni": 5712,
      "Ð¸Ð½Ð´Ð¸Ð²Ð¸Ð´ÑĥÐ°Ð»Ð½Ð¸Ñ": 5713,
      "naglaÅ¡av": 5714,
      "ÐĿÐ°ÑĢÐ¾Ð´Ð½Ð¾Ð¾ÑģÐ»Ð¾Ð±Ð¾Ð´Ð¸Ð»Ð°ÑĩÐºÐ": 5715,
      "napomenut": 5716,
      "Ð²ÑĢÐ°ÑĤÐ¸Ð": 5717,
      "retk": 5718,
      "Ð¸Ð·Ð´Ð²Ð°ÑĺÐ": 5719,
      "Ð½Ð°ÑģÑĤÐ°Ð²Ð½Ð¸ÑĨÐ": 5720,
      "Ð½Ð°ÑģÑĤÐ°Ð²Ð¸Ð": 5721,
      "marketin": 5722,
      "Ð¾Ð±ÐµÐ·Ð±ÐµÐ´Ð¸ÑĤÐ": 5723,
      "ljuba": 5724,
      "Ð¿Ð¾Ð²ÐµÑĻÐ": 5725,
      "glasov": 5726,
      "(Ð¡Ð»Ð¸ÐºÐ": 5727,
      "ÐºÐ¸Ð»Ð¾Ð¼ÐµÑĤÐ°ÑĢÐ": 5728,
      "ameriÄįki": 5729,
      "ÐĪÐµÐ»ÐµÐ½Ð": 5730,
      "Ð¸Ð·Ð²ÐµÑĪÑĤÐ°Ð²Ð°ÑļÐ": 5731,
      "obavljaj": 5732,
      "formiraj": 5733,
      "pojavil": 5734,
      "mart": 5735,
      "Ð½Ð°Ð¿Ð°Ð": 5736,
      "opasnost": 5737,
      "prikazivanj": 5738,
      "Ð³Ð¾Ð²Ð¾ÑĢÐ¸Ð»Ð": 5739,
      "Ð´Ð¸Ð³Ð¸ÑĤÐ°Ð»Ð½Ð": 5740,
      ".Stog": 5741,
      "servis": 5742,
      "ÐºÐ»Ð¸Ð½Ð¸ÑĩÐºÐ": 5743,
      "VaÅ¡": 5744,
      "meÄĳuvremen": 5745,
      "Ð´ÐµÑĤÐ°ÑĻÐ": 5746,
      "ÑģÐµÐºÑĤÐ¾ÑĢÑ": 5747,
      "Ð¸Ð·Ð²ÑĢÑĪÐ": 5748,
      "Ð½ÐµÐ³Ð°ÑĤÐ¸Ð²Ð°Ð": 5749,
      "Ð³Ð»ÐµÐ´Ð¸ÑĪÑĤÐ": 5750,
      "linearn": 5751,
      "ÑĥÑģÐ»Ð¾Ð": 5752,
      "Ð¿Ð¸ÑģÑĨÐ": 5753,
      "nezavisnos": 5754,
      "Ð¿ÑĢÐµÑĥÐ·ÐµÑĤÐ": 5755,
      "Ð³ÑĢÐ°Ð½Ð": 5756,
      "Ð½ÐµÐ³Ð°ÑĤÐ¸Ð²Ð½Ð¸Ñ": 5757,
      "ÑĢÐ¾ÑĴÐµÑļÐ": 5758,
      "Ð´Ð¾ÐºÑĥÐ¼ÐµÐ½ÑĤÐ¸Ð¼Ð": 5759,
      "instrumenat": 5760,
      ".ÐŁÐ¾ÑģÐµÐ±Ð½Ð": 5761,
      "oseÄĩaj": 5762,
      "tranzicij": 5763,
      "Å¡tamp": 5764,
      "opredeljenj": 5765,
      "vidim": 5766,
      "Ð½Ð°ÑĺÐ¿Ð¾Ð·Ð½Ð°ÑĤÐ¸ÑĺÐ": 5767,
      "Ð¿ÑĢÐ¾Ð´ÑĥÐºÑĤÐ¸Ð²Ð½Ð¾ÑģÑĤÐ": 5768,
      "Ð¿ÐµÑģÐ½Ð¸ÑĩÐºÐ": 5769,
      "predlaÅ¾": 5770,
      "Ð¸ÑģÑĤÐ¾ÑĢÐ¸ÑĺÑģÐºÐ¸Ð": 5771,
      "Ð²ÑĢÑĪÐµÑļÐ": 5772,
      "ÑģÑĤÐ²Ð°ÑĢÐ°Ð»Ð°ÑĩÐºÐ": 5773,
      "ÑģÐ°Ð´ÑĢÐ¶Ð¸Ð½Ð": 5774,
      "postignut": 5775,
      "suprug": 5776,
      "negativno": 5777,
      "Ð¿Ð¾ÐºÐ°Ð·Ð°Ð½Ð": 5778,
      "ÑĤÑĢÑĥÐ¿Ð": 5779,
      "planiran": 5780,
      "Ð³ÑĢÑĩÐºÐ": 5781,
      "ÑĤÐµÐ»ÐµÐ²Ð¸Ð·Ð¸ÑĺÐ": 5782,
      "omoguÄĩit": 5783,
      "ÑģÑĤÐµÐ¿ÐµÐ½Ñ": 5784,
      "Ð²ÐµÑĽÑ": 5785,
      "ÑĥÐ¿Ð¾ÑĤÑĢÐµÐ±ÑĻÐµÐ½Ð": 5786,
      "vaÅ¾a": 5787,
      "Ð¡ÑĤÐ°ÑĢÐ": 5788,
      "istorijski": 5789,
      "Ð±Ð»Ð¸ÑģÐºÐ": 5790,
      "dobro": 5791,
      "ÑĥÐ±ÑĢÐ·Ð": 5792,
      "Ð¾ÑĢÐ³Ð°Ð½Ð¸Ð¼Ð": 5793,
      "objavi": 5794,
      "vakcinacij": 5795,
      "ÑģÐµÑģÑĤÑĢÐ": 5796,
      "Ð¾ÑĢÐ³Ð°Ð½Ð¸Ð·ÑĥÑĺÐ": 5797,
      "kaka": 5798,
      "spoljn": 5799,
      "ÑĢÐ¾Ð´Ð": 5800,
      "garancij": 5801,
      "razvijeni": 5802,
      "Ð½Ð°ÑĢÐµÐ´Ð½Ð¾Ð": 5803,
      "viÅ¡estruk": 5804,
      "Telegra": 5805,
      "ÐºÑļÐ¸Ð¶ÐµÐ²Ð½Ð¸Ñ": 5806,
      "Ð²Ð¸Ð´ÐµÐ»Ð": 5807,
      "ba": 5808,
      "stariji": 5809,
      "ÐĤÐ¾ÑĢÑĴÐµÐ²Ð¸Ñ": 5810,
      "zadrÅ¾avanj": 5811,
      "Ð·Ð°ÑĪÑĤÐ": 5812,
      "opasnos": 5813,
      "Ð¿ÑĢÐ¾ÑĺÐµÐºÑĨÐ¸ÑĺÐ": 5814,
      "nazivo": 5815,
      "Ð¿Ð¾Ð·Ð¸Ð²Ð": 5816,
      "Ð´Ð¾Ð¼Ð°ÑĽÐ¸Ð½ÑģÑĤÐ²Ð": 5817,
      "Ð¼Ð¾Ð¼ÐµÐ½ÑĤÐ": 5818,
      "Ð¿ÑĢÐ¸Ð¿Ð°Ð´Ð°Ð»Ð": 5819,
      ".ÐļÐ¾Ð": 5820,
      "jes": 5821,
      "Ð´ÑĢÐ¶Ð°Ð²Ñ": 5822,
      "detaljnij": 5823,
      "Ð¿Ð¾Ð´Ð½Ð¾ÑĪÐµÑļÐ": 5824,
      "Ð¿Ð¾Ð³Ð»ÐµÐ´Ð": 5825,
      "PetroviÄ": 5826,
      "voÄĳenj": 5827,
      "ÑĢÐ¾Ð¼Ð°Ð": 5828,
      "Ð¿ÑĢÐµÐ²Ð¾Ð´Ð": 5829,
      "moguÄĩi": 5830,
      "ÑħÐµÐ¼Ð¸ÑĺÑģÐºÐ": 5831,
      "toplot": 5832,
      "Ð±ÐµÐ·Ð±ÐµÐ´Ð½Ð¾ÑģÐ½Ð": 5833,
      "Ð£Ð´ÑĢÑĥÐ¶ÐµÑļÐ": 5834,
      "mikroorganizam": 5835,
      "Ð½Ð°Ð¿ÑĢÐµÐ´Ð°Ð": 5836,
      "Ð¾Ð¿Ð¸ÑģÐ°Ð": 5837,
      "moram": 5838,
      "Ð¡Ð°Ð²ÐµÑĤÐ": 5839,
      "Ð½Ð°Ð´Ð»ÐµÐ¶Ð½Ð": 5840,
      "Ð¸ÑģÑĤÑĢÐ°Ð¶Ð¸Ð²Ð°ÑļÐµÐ": 5841,
      "promenil": 5842,
      "sigurnost": 5843,
      "ÐŁÑĢÐ°Ð²Ð½Ð": 5844,
      "ÐľÐ°ÑĤÐ¸ÑĨÐ": 5845,
      "Ð£ÐºÑĥÐ¿Ð½Ð": 5846,
      "poznavanj": 5847,
      "Crven": 5848,
      "ÑģÐ°Ð²ÐµÑĤÐ": 5849,
      "kvantitativn": 5850,
      "prostorim": 5851,
      "sadrÅ£aj": 5852,
      "ÑĢÐµÐ³ÑĥÐ»Ð°ÑĤÐ¸Ð²Ð": 5853,
      "reÄįen": 5854,
      "ÐļÐ²Ð°Ð»Ð¸ÑĦÐ¸ÐºÐ°ÑĨÐ¸ÑĺÐ": 5855,
      "i/il": 5856,
      "dodatni": 5857,
      "ÑĺÑĥÐ¶Ð½Ð": 5858,
      "ÑĢÐ°Ð·Ð²Ð¾ÑĺÐµÐ": 5859,
      "Ð±ÑĥÐ´ÑĥÑĽÐ½Ð¾ÑģÑ": 5860,
      "spor": 5861,
      "Ð´ÐµÐ²Ð¸ÑĺÐ°ÑĨÐ¸ÑĺÐ": 5862,
      "Ð¸Ð·Ð": 5863,
      "Ð¡ÑĺÐµÐ´Ð¸ÑļÐµÐ½Ð¸Ñ": 5864,
      "Ð¼Ð°Ð´Ð": 5865,
      "kontak": 5866,
      "Ð¸Ð½Ð²ÐµÑģÑĤÐ¸ÑĤÐ¾ÑĢÐ": 5867,
      "Ð¼ÑĥÐ·ÐµÑĺÐ": 5868,
      "Ð¿Ð¸ÑģÐ°Ð": 5869,
      "izgubil": 5870,
      "Ð½ÐµÐºÐ°Ð´Ð": 5871,
      "ÑģÑĤÐ°ÑĤÐ¸ÑģÑĤÐ¸ÐºÐ": 5872,
      "ÐĿÐ°ÑĺÐ²ÐµÑĽÐ": 5873,
      "kaÅ¾e": 5874,
      "Ð¼Ð°Ð½Ð´Ð°ÑĤÐ": 5875,
      "preduzetnik": 5876,
      "operativn": 5877,
      "kra": 5878,
      "Ð½Ð¸ÐºÐ°ÐºÐ²Ð": 5879,
      "zagaÄĳenj": 5880,
      "ÑĥÑĤÐ²ÑĢÐ´Ð": 5881,
      "pokrajin": 5882,
      "drÅ¾avam": 5883,
      "naÄĩ": 5884,
      "(ÑĤÐ°Ð±ÐµÐ»Ð": 5885,
      "tradicionalno": 5886,
      "Nako": 5887,
      "roÄĳenj": 5888,
      "ÑĥÐ¾ÑĩÐµÐ½Ð": 5889,
      "ÑĢÐµÑĦÐµÑĢÐµÐ½ÑĤÐ½Ð": 5890,
      "M.": 5891,
      "ran": 5892,
      "frakcij": 5893,
      "napravljen": 5894,
      "Ð¾Ð±Ð¸ÑĩÐ°ÑĺÐ": 5895,
      "unutraÅ¡nje": 5896,
      "Ð¸ÑģÐºÐ°Ð·Ð": 5897,
      "Ð¿ÑĢÐ¾ÑģÑĤÐ¾ÑĢÐ½Ð¾Ð": 5898,
      "Ð·Ð°Ð¼ÐµÐ½Ð": 5899,
      "Ð»ÐµÑĤÐ": 5900,
      "Ð¸Ð·Ð°Ð·Ð²Ð°Ð»Ð": 5901,
      "Ð´Ð°Ð²Ð°ÑļÐ": 5902,
      "Ð±Ð¸Ð²ÑģÑĤÐ²Ð¾Ð²Ð°ÑļÐ": 5903,
      "Ð¿Ð¾ÑģÑĢÐµÐ´Ð½Ð": 5904,
      "Ð¸Ð½ÑĤÐµÑĢÐ½ÐµÑ": 5905,
      "opÅ¡te": 5906,
      ".Priliko": 5907,
      "MarkoviÄ": 5908,
      "Ð°Ð½Ð°Ð»Ð¸Ð·Ð¸ÑĢÐ°Ð½Ð¸Ñ": 5909,
      "Ð¸Ð½ÑģÑĤÐ¸ÑĤÑĥÑ": 5910,
      "podizanj": 5911,
      "ÑĢÐ°ÑģÐ¿Ð¾ÑĢÐµÑĴÐµÐ½Ð": 5912,
      "teÅ¾": 5913,
      "ÐĳÐµÐ¾Ð³ÑĢÐ°Ð´ÑģÐºÐ": 5914,
      "ÑĢÐµÐºÐ¾ÑĢÐ": 5915,
      "ÑĤÐ¾ÐºÐ¾Ð²Ð": 5916,
      "ÑģÑĤÑĢÐ°ÑĤÐµÑĪÐºÐ": 5917,
      "Ð¾Ð´Ð½Ð¾ÑģÐ¸Ð»Ð": 5918,
      "ÑĥÐ·ÑĢÐ°ÑģÑĤÐ": 5919,
      "ÑĻÑĥÐ±Ð°Ð": 5920,
      "Ð¿ÑĢÐµÑĥÐ·Ð¸Ð¼Ð°ÑļÐ": 5921,
      "stan": 5922,
      "izraÄįunavanj": 5923,
      "ÑĥÑĤÐ²ÑĢÑĴÑĥÑĺÐ": 5924,
      "Ð¿ÑĢÐ¾Ð¿Ð¸ÑģÑĥÑĺÐ": 5925,
      "Ð¿Ð¾ÐºÑĢÐµÑ": 5926,
      "ÐºÐ¾Ð½ÑĤÐ°ÐºÑĤÐ": 5927,
      "izraÅ¾avanj": 5928,
      "ÐļÐ¸Ð½Ð": 5929,
      "Ð½ÐµÐ´Ð²Ð¾ÑģÐ¼Ð¸ÑģÐ»ÐµÐ½Ð": 5930,
      "rezolucij": 5931,
      "ÐºÑĢÐµÐ´Ð¸ÑĤÐ": 5932,
      "odrÅ¾av": 5933,
      "ÑĤÐ¾Ð¿Ð»Ð¾ÑĤÐ": 5934,
      ".Ð£Ð¿ÑĢÐ°Ð²Ð": 5935,
      "ÐĲÐ¼ÐµÑĢÐ¸ÑĩÐºÐ": 5936,
      "degradacij": 5937,
      "vrednovanj": 5938,
      "Ð¸ÑģÑħÑĢÐ°Ð½Ð": 5939,
      "svesn": 5940,
      "Ð¾ÑĤÐ°Ñ": 5941,
      "Ð´ÐµÑģÐ½Ð": 5942,
      "Ð¢ÑĥÑĢÑģÐºÐ": 5943,
      "manji": 5944,
      "ÑħÑĢÐ¸ÑĪÑĽÐ°Ð½ÑģÑĤÐ²Ð": 5945,
      "objavljuj": 5946,
      "Informe": 5947,
      "Ð½Ð¿Ñ": 5948,
      "referentn": 5949,
      "Ð¿ÑĢÐ¾Ð³ÑĢÐ°Ð¼Ñ": 5950,
      "prijateljim": 5951,
      "izloÅ¾b": 5952,
      "ÑģÐ¸Ð¼Ð±Ð¾Ð»Ð": 5953,
      "poruÄįi": 5954,
      "porodiÄįno": 5955,
      "ÐºÐ°ÑĤÐµÐ³Ð¾ÑĢÐ¸ÑĺÐ°Ð¼Ð": 5956,
      "ÑĺÐµÐ·Ð¸ÑĨÐ¸Ð¼Ð": 5957,
      "interesantn": 5958,
      "ÐķÐ½Ð³Ð»ÐµÑģÐºÐ": 5959,
      "Ð¸ÑģÑĤÐ¸ÑĩÑ": 5960,
      "regionalno": 5961,
      "Äįetvrt": 5962,
      "organski": 5963,
      "Ð¡ÑĤÐ°Ð½Ð¾Ð²Ð½Ð¸ÑĪÑĤÐ²Ð": 5964,
      "Ð´Ð¾Ð¼Ð°ÑĽÐ¸Ñ": 5965,
      "podjednak": 5966,
      "ÑĢÐ°Ð·Ð²Ð¸ÑĺÐ°ÑļÐ": 5967,
      "Ð¸ÑĤÐ°Ð»Ð¸ÑĺÐ°Ð½ÑģÐºÐ¾Ð": 5968,
      "ÐµÐºÐ¾Ð½Ð¾Ð¼ÑģÐºÐ¸Ð": 5969,
      "ÑĦÑĥÐ´Ð±Ð°Ð»ÑģÐºÐ": 5970,
      "ÑģÐ²Ð¾ÑĺÑģÑĤÐ°Ð²Ð": 5971,
      "postupak": 5972,
      "ÐĺÑģÑĤÐ¾ÑĩÐ½Ð": 5973,
      "privatni": 5974,
      "ÐºÑĢÐµÑĽÐ": 5975,
      ".Velik": 5976,
      "ÑģÐ¿ÐµÑĨÐ¸ÑĦÐ¸ÑĩÐ½Ð¾Ð": 5977,
      "ÑĪÐºÐ¾Ð»Ð°Ð¼Ð": 5978,
      "ÑĤÐµÐ»ÐµÐ²Ð¸Ð·Ð¸ÑĺÑģÐºÐ": 5979,
      "Ð²ÐµÑĢÑģÐºÐ": 5980,
      "slab": 5981,
      "25": 5982,
      "Ð·Ð°Ð¿Ð°Ð´Ð½Ð¾Ð": 5983,
      "ÑģÑĤÐ²Ð°ÑĢÐ½Ð¾ÑģÑ": 5984,
      "sledeÄĩe": 5985,
      "formul": 5986,
      "zavisnos": 5987,
      "gradonaÄįelnik": 5988,
      "najvaÅ¾niji": 5989,
      "Ð½Ð°ÑģÐµÑĻÐµÐ½Ð": 5990,
      "ÑĤÑĢÐ°Ð½ÑģÐ°ÐºÑĨÐ¸ÑĺÐ": 5991,
      "ÑģÐ²Ð¾ÑĺÐ¸Ð½Ð": 5992,
      "primenit": 5993,
      ".ÐŁÐ¾ÑģÐ»Ð": 5994,
      "ostvarit": 5995,
      "ispit": 5996,
      "ÑģÑĤÐ²Ð°Ñ": 5997,
      "21": 5998,
      "podlog": 5999,
      ".5": 6000,
      "ÐµÐ½ÑĤÐ¸ÑĤÐµÑĤÐ": 6001,
      "Ð²ÐµÐ·ÑĥÑĺÐ": 6002,
      ".ÐŁÑĢÐ¸Ð»Ð¸ÐºÐ¾Ð": 6003,
      "-2": 6004,
      "Ð´Ð¾Ð»Ð°Ð·Ð¸Ð»Ð": 6005,
      "ÑĥÐ²ÐµÑĢÐµÑļÐ": 6006,
      "moz": 6007,
      "izmeÄĬ": 6008,
      "É«É": 6009,
      "odvij": 6010,
      "ÐºÐ°ÑĢÑĨÐ¸Ð½Ð¾Ð¼Ð": 6011,
      "trÅ¾iÅ¡n": 6012,
      "Ð°ÐºÐ°Ð´ÐµÐ¼ÑģÐºÐ": 6013,
      "ÑĩÐ°ÑģÐ¾Ð²Ð": 6014,
      "festival": 6015,
      "Ð¿ÐµÑģÐ½Ð¸Ð": 6016,
      "ÐºÑļÐ¸Ð¶ÐµÐ²Ð½Ð¸Ð": 6017,
      "vladavin": 6018,
      "Ð¿ÑĢÐ¸ÑģÑĤÑĥÐ¿ÑĻÐµÐ½Ð": 6019,
      "Ð·Ð°ÑģÑĤÑĥÐ¿ÑĻÐµÐ½Ð¾ÑģÑĤÐ": 6020,
      "redukcij": 6021,
      "softver": 6022,
      "prijateljstv": 6023,
      "ÑĤÐµÑģÑ": 6024,
      "Ð»ÐµÐºÐ°ÑĢÐ": 6025,
      "ÑĢÑĥÐºÐ¾Ð²Ð¾Ð´ÑģÑĤÐ²Ð": 6026,
      "zastupljenos": 6027,
      "Ð¿Ð¾ÑģÐµÐ´ÑĥÑĺÑ": 6028,
      "Ð²Ð»Ð°ÑģÐ½Ð¸ÑĪÑĤÐ²Ð": 6029,
      "zlostavljanj": 6030,
      ".ÐĿÐ°Ð²ÐµÐ´ÐµÐ½Ð": 6031,
      "detektovan": 6032,
      "Ð´ÑĥÐ¶Ð½Ð¾ÑģÑ": 6033,
      "podata": 6034,
      "tehnoloÅ¡ki": 6035,
      "ÑģÐ°Ð´ÑĢÐ¶Ð°Ð½Ð": 6036,
      "poja": 6037,
      "dvostruk": 6038,
      "Ð¼ÐµÑļÐ": 6039,
      "Ð²ÐµÑĢÐ": 6040,
      "izvrÅ¡it": 6041,
      "II": 6042,
      "ÑĩÐ¸ÑģÑĤÐ": 6043,
      "ÑĩÐµÑĤÐ²ÑĢÑĤÐ¾Ð": 6044,
      "Ð¦ÑĢÐ²ÐµÐ½Ð": 6045,
      "ÑĥÐ¼Ð½Ð¾Ð¶Ð°Ð²Ð°ÑļÐ": 6046,
      ".Bil": 6047,
      "Ð¸Ð·Ð´Ð²Ð°ÑĺÐ°ÑĺÑ": 6048,
      "poseba": 6049,
      "IstraÅ¾ivanj": 6050,
      "Ð¸Ð·Ð²ÑĢÑĪÐ¸Ð»Ð": 6051,
      "kriteriju": 6052,
      "Ð¿Ð¾Ð´Ð¸Ð³Ð½ÑĥÑĤÐ": 6053,
      "liÄįni": 6054,
      "Ð¿ÑĢÐ¾Ð¸Ð·Ð²Ð¾Ð´Ð½Ð": 6055,
      "neprijatelj": 6056,
      "Ð¿Ð¾Ð²Ð»Ð°ÑĩÐµÑļÐ": 6057,
      "povrÅ¡insk": 6058,
      "turistiÄįki": 6059,
      "predstavlje": 6060,
      "jaÄįanj": 6061,
      ".ÐŀÐ²Ð°ÐºÐ²Ð": 6062,
      "ÑģÑĤÐ²Ð¾ÑĢÐµÐ½Ð": 6063,
      "prevo": 6064,
      "ÐŁÐµÑĤÐ°Ñ": 6065,
      "Ð¿ÑĢÐ¸Ð»Ð¾Ð³Ð": 6066,
      "Ð³ÑĢÐ°Ð½Ð¸ÑĩÐ½Ð": 6067,
      "ÑģÑĥÐ¿ÑĢÑĥÐ³Ð": 6068,
      "Ð¼Ð¾Ð´Ð¸ÑĦÐ¸ÐºÐ°ÑĨÐ¸ÑĺÐ": 6069,
      "Ð²ÐµÐ": 6070,
      "ÐĹÐ°Ð¿Ð°Ð´Ð½Ð": 6071,
      "Ð´Ð¸ÑĦÐµÑĢÐµÐ½ÑĨÐ¸ÑĺÐ°ÑĨÐ¸ÑĺÐ": 6072,
      "pritisko": 6073,
      "pojmov": 6074,
      "pronaÄĳen": 6075,
      ".Ð¡Ð²Ð°ÐºÐ": 6076,
      "ÑģÐ²Ð°ÐºÐ¾Ñ": 6077,
      "modern": 6078,
      "Ð½ÐµÑģÑĥÐ¼ÑļÐ¸Ð²Ð": 6079,
      "Ð½ÐµÐºÐ°Ð´Ð°ÑĪÑļÐ": 6080,
      "inicijaln": 6081,
      "Ð¿Ð¾ÑģÑĤÐ°Ð²Ð¸Ð": 6082,
      "inhibicij": 6083,
      "Ð¿Ð»Ð¾ÑĩÐ": 6084,
      "Federacij": 6085,
      "Ð¾ÑĦÐ¸ÑĨÐ¸ÑĢÐ": 6086,
      "Ð²Ð¾ÑĺÐ½Ð¾Ð": 6087,
      "direktno": 6088,
      "Ð½Ð°ÐºÐ½Ð°Ð´Ñ": 6089,
      "Ð¿Ð¾Ð·Ð¸ÑĤÐ¸Ð²Ð½Ð¸Ñ": 6090,
      "7.": 6091,
      "Äįist": 6092,
      "domaÄĩe": 6093,
      "Ð¿ÑĢÐ¾Ð»ÐµÑĽÐ": 6094,
      "ÑģÐµÐºÑĥÐ½Ð´Ð": 6095,
      "ÐºÑĢÐµÐ°ÑĤÐ¸Ð²Ð½Ð¾ÑģÑĤÐ": 6096,
      "ÐºÐ¾Ð¼Ð¿Ð»Ð¸ÐºÐ°ÑĨÐ¸ÑĺÐ": 6097,
      "modernizacij": 6098,
      "popularn": 6099,
      "Ð¾Ð´Ð»ÑĥÑĩÐ¸Ð": 6100,
      "volj": 6101,
      "ÑĤÐµÐ¾ÑĢÐ¸ÑĺÑģÐºÐ¾Ð": 6102,
      "sluÄįajn": 6103,
      "ÑĨÐµÐ½ÑĤÑĢÑ": 6104,
      "Ð±Ð°Ð²Ð¸Ð»Ð": 6105,
      "Ð¸Ð½ÑĤÐµÑĢÐµÑģÐ¸Ð¼Ð": 6106,
      "Ð¾ÑģÐ»Ð¾Ð±Ð°ÑĴÐ°ÑļÐ": 6107,
      "adsorpcij": 6108,
      "voÅ¾nj": 6109,
      "radnic": 6110,
      "Ð¾Ð±Ð²ÐµÐ·Ð½Ð¸ÑĨÐ": 6111,
      "ÐľÐ¸Ð½Ð¸ÑģÑĤÐ°ÑĢÑģÑĤÐ²Ñ": 6112,
      "Ð¡Ð²Ð": 6113,
      "nasleÄĳ": 6114,
      "doz": 6115,
      "NAT": 6116,
      "Ð´ÑĢÑĥÑĪÑĤÐ°Ð²Ð": 6117,
      "Ð°Ð¿ÑĢÐ¸Ð": 6118,
      "ÑĪÐ¸ÑĢÐµÐ": 6119,
      "svem": 6120,
      "ÑĩÐ¾Ð²ÐµÑĩÐ°Ð½ÑģÑĤÐ²Ð": 6121,
      "Ð¿ÑĢÐµÐ´ÑģÑĤÐ°Ð²ÑĻÐ°ÑĤÐ": 6122,
      "Äįasopis": 6123,
      "Ð¼Ð°Ð»Ð¸Ñ": 6124,
      "ÑģÐ²ÐµÑģÐ½Ð": 6125,
      "ÑģÐ»Ð¾Ð²Ð": 6126,
      "Å¡um": 6127,
      "brojev": 6128,
      "Ð½Ð°ÑģÑĤÐ°Ð²Ð½Ð¾Ð": 6129,
      "Ð·Ð°Ð²Ð¸ÑģÐ½Ð¾ÑģÑ": 6130,
      "ÑģÐ¿Ð¾ÑĢÐ": 6131,
      "Ð³ÐµÐ¾Ð¼ÐµÑĤÑĢÐ¸ÑĺÐ": 6132,
      "Ð¾ÑĢÐ³Ð°Ð½ÑģÐºÐ": 6133,
      "pronaÄĩ": 6134,
      "ÑĥÑģÐ²Ð¾ÑĺÐµÐ½Ð": 6135,
      "ÑļÐ¾Ñ": 6136,
      "pomeranj": 6137,
      "prepoznat": 6138,
      "podeljen": 6139,
      "medicinski": 6140,
      "Ð¾ÑģÑĤÐ²Ð°ÑĢÐ¸Ð": 6141,
      "Ð¿Ð»Ð°ÑĽÐ°ÑļÐ": 6142,
      "Ð´Ð¾Ð·Ð²Ð¾Ð»Ð": 6143,
      "objavljeni": 6144,
      "predstavnicim": 6145,
      "kriminal": 6146,
      "stvaralaÅ¡tv": 6147,
      "alternativn": 6148,
      "ÑĤÐ°ÐºÐ²Ð¸Ð": 6149,
      "gradovim": 6150,
      "Ð¸Ð½ÑĦÐ¾ÑĢÐ¼Ð¸ÑģÐ°ÑļÐ": 6151,
      "ÑģÐ½Ð°Ð¶Ð½Ð": 6152,
      "ÐŀÑĢÐ³Ð°Ð½Ð¸Ð·Ð°ÑĨÐ¸ÑĺÐ": 6153,
      "Ð´ÑĥÐ¶Ð": 6154,
      "formiran": 6155,
      "Ð¼Ð°Ð»Ð¾Ð": 6156,
      "Ð¼Ð°ÑĢÑ": 6157,
      "Ð¾ÐºÑĢÑĥÐ³Ð": 6158,
      "vrijednost": 6159,
      "doprinel": 6160,
      "svest": 6161,
      "ÐĪÐµÐ²ÑĢÐµÑĺÐ": 6162,
      "ÐºÐ¾Ð½ÑĤÑĢÐ¾Ð»Ð¾Ð": 6163,
      "Ð¸Ð½Ð´Ð¸Ð²Ð¸Ð´ÑĥÐ°Ð»Ð½Ð¾Ð": 6164,
      "ÐºÐ²Ð°Ð»Ð¸ÑĦÐ¸ÐºÐ¾Ð²Ð°Ð»Ð": 6165,
      "uprko": 6166,
      "stigl": 6167,
      "Ð¿Ð¾ÑģÑĤÐ¸Ð³Ð½ÑĥÑĤÐ": 6168,
      "prijem": 6169,
      "sportist": 6170,
      "PoÅ¡aljit": 6171,
      "premije": 6172,
      "Ð´ÐµÑĢÐ¸Ð²Ð°ÑĤÐ¸Ð²Ð½Ð": 6173,
      "Ð¼Ð¾ÑĤÐ¾ÑĢÐ": 6174,
      "istorijsko": 6175,
      "Ð²Ð»Ð°ÑģÐ½Ð¸ÐºÐ": 6176,
      "ÐºÐ½ÐµÐ·Ð": 6177,
      "poslovim": 6178,
      "turist": 6179,
      "ÑĤÐµÑĢÐ¼Ð¸Ð½Ð¾Ð»Ð¾Ð³Ð¸ÑĺÐ": 6180,
      "Ð½Ð°ÑĺÐ±Ð¾ÑĻÐµÐ": 6181,
      "ÐºÐ¾Ð¼Ð°Ð½Ð´Ð°Ð½ÑĤÐ": 6182,
      "Ð¾Ð±Ð½Ð¾Ð²Ð": 6183,
      "Ð¿ÑĢÐ¸Ð¿Ð¾Ð²ÐµÐ´Ð°ÑļÐ": 6184,
      "Austrij": 6185,
      "Ð·Ð°ÑĪÑĤÐ¸ÑĽÐµÐ½Ð": 6186,
      "Ð¾Ð±Ð»Ð¸ÐºÐ¾Ð²Ð°ÑļÐ": 6187,
      "povremen": 6188,
      "ÑĢÐµÐ»ÐµÐ²Ð°Ð½ÑĤÐ½Ð¸Ñ": 6189,
      "Ð¸Ð·ÑĺÐ°Ð²Ð": 6190,
      "ÑĦÐ¸Ð»Ð¼ÑģÐºÐ": 6191,
      "rusko": 6192,
      "definisa": 6193,
      "Ð¤Ð¸Ð»Ð¾Ð·Ð¾ÑĦÑģÐºÐ¾Ð": 6194,
      "Ð¿Ð¾ÑģÑĤÐ¸Ð³Ð»Ð": 6195,
      "kontrolo": 6196,
      "ÑģÐµÐ»ÐµÐºÑĨÐ¸ÑĺÐ": 6197,
      "ÐºÐ¾ÑĢÐ¸ÑģÐ½Ð": 6198,
      ".PoÅ¡t": 6199,
      "(197": 6200,
      "Ak": 6201,
      "Ð¿ÑĢÐ¾ÑĦÐµÑģÐ¸Ð¾Ð½Ð°Ð»Ð½Ð¾Ð": 6202,
      "ÑĢÐ°ÑĤÐ½Ð": 6203,
      "Äįlanovim": 6204,
      "Ð·Ð°Ð±ÑĢÐ°ÑļÐµÐ½Ð": 6205,
      "ÐĿÐ°ÑĢÐ¾Ð´Ð½Ð¾Ð": 6206,
      "Ð¾Ð´Ð»Ð¸ÐºÑĥÑĺÐ": 6207,
      "Mark": 6208,
      "Ð¸Ð½Ð°ÑĩÐ": 6209,
      "raÄįunajuÄĩ": 6210,
      "ÐºÐ¾Ð¼Ð°Ð½Ð´Ð°Ð½Ñ": 6211,
      "Ð´Ð¾Ð¼Ð°ÑĽÐ¸Ð": 6212,
      "napravi": 6213,
      "ÑģÑĥÐ¼ÑļÐ": 6214,
      "ÐºÑĢÐ²Ð": 6215,
      "uÄįestalos": 6216,
      "ÑģÐ»ÑĥÑĩÐ°ÑĺÐ½Ð": 6217,
      "ÑĤÐµÑĢÐµÐ½Ñ": 6218,
      "ÐºÐ²Ð°Ð»Ð¸ÑĤÐ°ÑĤÐ¸Ð²Ð½Ð": 6219,
      ".NajÄįeÅ¡Äĩ": 6220,
      "ÑĥÑģÐ¿ÐµÐ": 6221,
      "Ð¤ÐµÐ´ÐµÑĢÐ°ÑĨÐ¸ÑĺÐ": 6222,
      ".ÐĹÐ°ÑĤÐ": 6223,
      "ÐļÑĢÐ°Ð³ÑĥÑĺÐµÐ²Ð°Ñ": 6224,
      "Ð¿ÑĢÐ¸Ð¼ÐµÑĽÑĥÑĺÐ": 6225,
      "vidljiv": 6226,
      "trenuta": 6227,
      "znaÄįajnost": 6228,
      "Ð¿ÑĢÐ¾ÑĦÐµÑģÐ¸Ð¾Ð½Ð°Ð»Ð½Ð¸Ñ": 6229,
      "Ð¾Ð´ÑĢÐ¶Ð°Ð²Ð": 6230,
      "Ð²Ð¾ÑĺÐ²Ð¾Ð´Ð": 6231,
      "ÄĲokoviÄ": 6232,
      "najznaÄįajniji": 6233,
      "mehanizam": 6234,
      "Ð°ÑĥÑĤÐ¾Ð¼Ð¾Ð±Ð¸Ð»Ð": 6235,
      "Ð·Ð°ÑĺÐµÐ´Ð½Ð¸ÑĩÐºÐ¸Ñ": 6236,
      "ÑĤÐµÐ¾ÑĢÐ¸ÑĺÑ": 6237,
      "Ð¾ÑĩÐµÐºÑĥÑĺÐ": 6238,
      "ÑģÐºÐ»Ð°Ð´Ð¸ÑĪÑĤÐ": 6239,
      "Ð¿Ð¾ÑĺÐµÐ´Ð¸Ð½Ð°ÑĩÐ½Ð¾Ð": 6240,
      "Ð¾Ð±ÐµÐ·Ð±ÐµÐ´Ð¸Ð»Ð": 6241,
      "Ujedinjeni": 6242,
      "ÐĪÐµÐ´Ð°Ð": 6243,
      "zaposlenim": 6244,
      "praÄĩen": 6245,
      "Europea": 6246,
      "veÅ¾b": 6247,
      "ÑĨÑĢÐ²ÐµÐ½Ð": 6248,
      "ÑĦÐ¾ÑĢÐ¼Ð¸ÑĢÐ°Ð": 6249,
      "ÑĦÐ¾ÑĢÐ¼Ð¸ÑĢÐ°ÑļÑ": 6250,
      "indirektn": 6251,
      "Ð»Ð¸Ð½Ð³Ð²Ð¸ÑģÑĤÐ¸ÑĩÐºÐ": 6252,
      "rezistencij": 6253,
      "ÑĤÐµÐ¼Ð¿ÐµÑĢÐ°ÑĤÑĥÑĢÐ°Ð¼Ð": 6254,
      "donel": 6255,
      "porast": 6256,
      "ÑĤÑĥÐ¶Ð¸Ð¾ÑĨÐ": 6257,
      "veÅ¡taÄįk": 6258,
      "ÑĥÑģÐ¿Ð¾ÑģÑĤÐ°Ð²Ð": 6259,
      "akademij": 6260,
      "ÐĺÐ½ÑģÑĤÐ¸ÑĤÑĥÑĤÐ": 6261,
      "ÑĥÐ¿Ð¾ÑĤÑĢÐµÐ±ÑĻÐ°Ð²Ð°ÑĺÑ": 6262,
      "saopÅ¡ti": 6263,
      "nastana": 6264,
      "Ð½Ð°ÑĽÐ": 6265,
      "ÑģÑĤÐ°Ð½Ð´Ð°ÑĢÐ´Ð½Ð¾Ð": 6266,
      "ÐĳÐ°Ð»ÐºÐ°Ð½Ñ": 6267,
      "ÐłÐµÐ¿ÑĢÐµÐ·ÐµÐ½ÑĤÐ°ÑĨÐ¸ÑĺÐ": 6268,
      "ÑĦÐµÐ½Ð¾Ð¼ÐµÐ": 6269,
      "ÑģÐ¸Ð½Ð": 6270,
      "ÑĤÑĥÑĢÐ¸Ð·Ð°Ð": 6271,
      "Ð´Ð°ÑĤÐ¾Ð": 6272,
      "Ð¿Ð¾ÑģÐµÐ±Ð½Ð¸Ñ": 6273,
      "ustanovam": 6274,
      "Ð¾ÑĢÐ³Ð°Ð": 6275,
      "Ð¡Ð»Ð¾Ð±Ð¾Ð´Ð°Ð": 6276,
      "Ð¾ÑĢÐ³Ð°Ð½Ð¸Ð·Ð°ÑĨÐ¸Ð¾Ð½Ð¸Ñ": 6277,
      "Ð½Ð°ÑĥÑĩÐ½Ð¸Ð": 6278,
      "ÑģÐ»ÐµÐ´ÐµÑĽÐ¸Ñ": 6279,
      "Ð¿ÑĢÐµÐ³Ð»ÐµÐ´Ð": 6280,
      "1)": 6281,
      "Ð¥ÑĢÐ²Ð°ÑĤÐ": 6282,
      "svojstav": 6283,
      "Ð±ÑĥÐ³Ð°ÑĢÑģÐºÐ¾Ð": 6284,
      "familij": 6285,
      "Ð³Ð¾Ð²Ð¾Ñ": 6286,
      "dogovor": 6287,
      "nekad": 6288,
      "Ð½Ð°Ð³Ð»Ð°ÑģÐ¸ÑĤÐ": 6289,
      "Ð¾Ð¿ÐµÑ": 6290,
      "ÑĥÐ¾ÑĩÐ¸ÑĤÐ": 6291,
      "preÄįiÅ¡Äĩavanj": 6292,
      "mehaniÄįk": 6293,
      "kolon": 6294,
      "napreda": 6295,
      "Ð¾ÑĪÑĤÐµÑĽÐµÐ½Ð": 6296,
      "mese": 6297,
      "deÅ¡avanj": 6298,
      "ÑĤÐµÐ¼Ð°ÑĤÑģÐºÐ": 6299,
      "naÅ¡l": 6300,
      "proverit": 6301,
      "ÑģÐ¾Ð¿ÑģÑĤÐ²ÐµÐ½Ð¸Ð": 6302,
      "ÑģÐ¸Ð½ÑĤÐµÐ·Ð": 6303,
      "ÑĢÐµÑĪÐ°Ð²Ð°ÑļÑ": 6304,
      "Ð¿Ð¾ÑģÑĤÐ¾ÑĺÐ°Ð": 6305,
      "negativa": 6306,
      "Ð¿ÑĢÐ°ÑĽÐµÐ½Ð": 6307,
      "ÑĢÐ°Ð·Ð²Ð¾ÑĺÐ½Ð": 6308,
      "Ð¼ÐµÐ½Ð°ÑŁÐ¼ÐµÐ½Ñ": 6309,
      "Ð¿Ð¾ÑģÑĤÐ¾ÑĺÐµÑĽÐµÐ": 6310,
      "ÑģÐµÐºÑĢÐµÑĤÐ°Ñ": 6311,
      "aerodrom": 6312,
      "razgovo": 6313,
      "teritorijaln": 6314,
      "Ð²ÐµÑĽÐ¸Ð½Ñ": 6315,
      "motor": 6316,
      "planin": 6317,
      "sporazu": 6318,
      "ÐºÑĢÐ°ÑĺÐµÐ²Ð¸Ð¼Ð": 6319,
      ".Uprav": 6320,
      "22": 6321,
      "ÐĿÐ¸ÑĺÐ": 6322,
      "ÑģÐµÐ´Ð°Ð¼Ð´ÐµÑģÐµÑĤÐ¸Ñ": 6323,
      "podruÄįjim": 6324,
      "ovakvo": 6325,
      "Ð·Ð°Ð´Ð¾Ð²Ð¾ÑĻÐ°Ð²Ð°ÑĺÑĥÑĽÐ": 6326,
      "ÐºÐ¾Ð¼Ð¿Ð»ÐµÐºÑģÐ½Ð": 6327,
      "autonomij": 6328,
      "Savet": 6329,
      "pokuÅ¡av": 6330,
      "projektim": 6331,
      "Kin": 6332,
      "ÑģÐ»Ð¸ÐºÐ°ÑĢÑģÑĤÐ²Ð": 6333,
      "Ð¸Ð³ÑĢÐ°Ð¼Ð": 6334,
      "ÑģÐ¿Ð¾ÑĢÑĤÐ¸ÑģÑĤÐ": 6335,
      "ponavljanj": 6336,
      "Ð¾Ð´ÑĢÐ¶Ð°Ð": 6337,
      "Ð´ÑĥÐ³Ð¾ÑĢÐ¾ÑĩÐ½Ð": 6338,
      "Ð¾ÐºÑĥÐ¿Ð°ÑĨÐ¸ÑĺÐ": 6339,
      "aktivni": 6340,
      "ÑĥÑĤÐ¸ÑģÐ°Ð": 6341,
      "ÐĵÑĢÑĥÐ¿Ð": 6342,
      "Ð´ÑĥÐ±Ð¸Ð½Ð": 6343,
      "Ð½Ð°Ð¿Ð¾ÑĢÐ": 6344,
      "oksidacij": 6345,
      "sekund": 6346,
      "ÑĤÑĢÐ°Ð´Ð¸ÑĨÐ¸ÑĺÑ": 6347,
      "industrijski": 6348,
      "Ð·Ð°ÑĥÐ·Ð¸Ð¼Ð": 6349,
      "MaÄĳarsk": 6350,
      "sloj": 6351,
      "ÑģÐ¸ÑģÑĤÐµÐ¼Ð°ÑĤÑģÐºÐ": 6352,
      "vidi": 6353,
      "razred": 6354,
      "detinjstv": 6355,
      "policijsk": 6356,
      "izno": 6357,
      "Ð°Ð¼ÐµÑĢÐ¸ÑĩÐºÐ¸Ñ": 6358,
      "sestr": 6359,
      "ÐºÐ°ÑĢÐ¸ÑĺÐµÑĢÑ": 6360,
      "Jelen": 6361,
      "uÄįestalost": 6362,
      "Ð¿ÑĢÐ¾ÑģÐµÑĩÐ½Ð¾Ð": 6363,
      "Äįvrst": 6364,
      "objektivn": 6365,
      "ÑĢÐ°Ð´Ð½Ð¸Ð": 6366,
      "sport": 6367,
      "Ð¿Ð¾ÑĻÑ": 6368,
      "identifikuj": 6369,
      "standar": 6370,
      "ideologij": 6371,
      "viso": 6372,
      "poÅ¡tuj": 6373,
      "ÑĩÐ¸ÑĤÐ°Ð²Ð": 6374,
      "ÑĥÑĩÐµÑģÑĤÐ°Ð»Ð¾ÑģÑĤÐ": 6375,
      "presek": 6376,
      "stotin": 6377,
      "Å¡kolovanj": 6378,
      "ÑģÐ°ÑģÑĤÐ°Ð²ÑĻÐµÐ½Ð": 6379,
      "kontrolno": 6380,
      "ÑĤÐµÐ¾ÑĢÐµÑĤÐ¸ÑĩÐ°ÑĢÐ": 6381,
      "Ð¾ÑĪÑĤÐµÑĽÐµÐ½Ð¾Ð": 6382,
      "posmatrat": 6383,
      "formaln": 6384,
      "Äįlanstv": 6385,
      "Ð²ÐµÑĢÑĤÐ¸ÐºÐ°Ð»Ð½Ð": 6386,
      "Ð£ÐºÐ¾Ð»Ð¸ÐºÐ": 6387,
      "ÐµÐ³Ð·Ð¸ÑģÑĤÐµÐ½ÑĨÐ¸ÑĺÐ": 6388,
      "ÑĥÐ½ÑĥÑĤÑĢÐ°ÑĪÑļÐ¾ÑģÑĤÐ": 6389,
      "ÑĺÐµÐ´Ð¸Ð½ÐºÐ": 6390,
      "NiÅ¡": 6391,
      "uputstv": 6392,
      "migracij": 6393,
      "nastavn": 6394,
      "Ð¿Ð¸ÑģÐ°Ð½Ð": 6395,
      "pogle": 6396,
      "Journa": 6397,
      "podsticanj": 6398,
      "ÐĤÐ¾ÑĢÑĴÐ": 6399,
      "Ð³Ð¾Ð²Ð¾ÑĢÐ½Ð¸ÐºÐ": 6400,
      "graniÄįn": 6401,
      "saobraÄĩa": 6402,
      "Ð¸ÑģÑĤÐ°ÑĽÐ": 6403,
      "Ð¾ÑĢÐ¸ÑĺÐµÐ½ÑĤÐ¸ÑģÐ°Ð½Ð": 6404,
      "neverovatn": 6405,
      "stanov": 6406,
      "Svetsk": 6407,
      "ÐĿÐµÐºÐ": 6408,
      "konvencij": 6409,
      "republik": 6410,
      ".MoÅ¾d": 6411,
      "sadrÅ¾aje": 6412,
      "Ð¼ÐµÐ´Ð¸ÑĨÐ¸Ð½ÑģÐºÐ¸Ñ": 6413,
      "Ð¿Ð°ÑĢÐ°Ð´Ð¸Ð³Ð¼Ð": 6414,
      "ÑĤÑĢÐ°Ð½ÑģÐ¿Ð¾ÑĢÑĤÐ": 6415,
      "ÑģÑĤÐ²Ð¾ÑĢÐ¸Ð»Ð": 6416,
      "Ð£Ð¿ÑĢÐ°Ð²Ð": 6417,
      "zainteresovani": 6418,
      "ÐķÐ²ÑĢÐ¾Ð¿ÑģÐºÐ¾Ñ": 6419,
      "ÑĢÐ°ÑĤÐ¾Ð²Ð": 6420,
      "Ð½Ð°ÑĢÐ¾Ð´Ñ": 6421,
      "nesreÄĩ": 6422,
      "ÑĢÐ°Ð·ÑĥÐ¼Ð": 6423,
      "krenul": 6424,
      "Ð¿Ð¾ÑĢÐµÑģÐºÐ¸Ñ": 6425,
      "Ð¿Ð¾ÑģÑĤÐ°Ð²ÐºÐ": 6426,
      "ÑĦÐ¸Ð»Ð¼Ñ": 6427,
      "Ð¿Ð¾ÐºÐ°Ð·Ð°ÑĤÐµÑ": 6428,
      "Ð´Ð¾ÑģÑĤÐ¾ÑĺÐ°Ð½ÑģÑĤÐ²Ð": 6429,
      "pokazatel": 6430,
      "ÐºÐ¾ÑĢÐµÐ½Ð": 6431,
      "Ð±Ð¾Ð»ÐµÑģÑ": 6432,
      "elektriÄįno": 6433,
      "Ð°ÑĢÑħÐ¸ÑĤÐµÐºÑĤÐ¾Ð½ÑģÐºÐ¾Ð": 6434,
      "nave": 6435,
      "nadleÅ¾ni": 6436,
      "Ð¿ÑĢÐ¾Ð±Ð»ÐµÐ¼Ð°ÑĤÐ¸ÐºÐ": 6437,
      "Ð¿ÑĢÐµÑĨÐ¸Ð·Ð½Ð¸ÑĺÐ": 6438,
      "veÄĩo": 6439,
      "kart": 6440,
      "Ð£ÑĺÐµÐ´Ð¸ÑļÐµÐ½Ð": 6441,
      "mlek": 6442,
      "pravim": 6443,
      "razn": 6444,
      "Ð°ÐºÑĤÐ": 6445,
      "Ð°ÑģÐ¿ÐµÐºÐ°ÑĤÐ": 6446,
      "ÑĩÐ¸ÑĤÐ°Ð": 6447,
      "Americ": 6448,
      "najpr": 6449,
      "Pitanj": 6450,
      "Ð¼Ð¸ÑĤÑĢÐ¾Ð¿Ð¾Ð»Ð¸Ñ": 6451,
      "ostvar": 6452,
      "ÐµÑĦÐ¸ÐºÐ°ÑģÐ½Ð¸ÑĺÐ": 6453,
      "objavlje": 6454,
      "smatra": 6455,
      "ÑĤÐ¾Ñ": 6456,
      "Ð¿Ð°ÑĤÑĢÐ¸ÑĺÐ°ÑĢÑħÐ": 6457,
      "Ð±Ð¾Ð³Ð°ÑĤÐ": 6458,
      "ishod": 6459,
      "hemijski": 6460,
      "Ð¾ÑģÐ°Ð": 6461,
      "novÄįan": 6462,
      "Ð¿Ð¾ÑģÑĤÐ¾ÑĺÐ°ÑļÑ": 6463,
      "Ð¿Ð°ÑĢÐ": 6464,
      "standardno": 6465,
      "ÑģÐµÐ´Ð½Ð¸ÑĨÐ": 6466,
      "seksualno": 6467,
      "odredbam": 6468,
      "ÑĤÐ°ÑĺÐ½Ð": 6469,
      "ÑģÐµÐ¼Ð°Ð½ÑĤÐ¸ÑĩÐºÐ¾Ð": 6470,
      "-a,": 6471,
      "Ð¾Ð´Ð»ÑĥÑĩÐ¸Ð»Ð": 6472,
      "(ÐµÐ½Ð³Ð": 6473,
      "Ð¦ÐµÐ½ÑĤÑĢÐ°Ð»Ð½Ð": 6474,
      "Ð´Ð¾Ð»Ð¸Ð½Ð": 6475,
      "ÑĢÐ°ÑģÐ¿ÑĢÐ¾ÑģÑĤÑĢÐ°ÑļÐµÐ½Ð": 6476,
      "Ð¿ÑĢÐ¸ÐºÐ°Ð·Ð": 6477,
      "Ð²Ð°Ð¶Ð": 6478,
      "znaÄįajnij": 6479,
      "sekundarn": 6480,
      ".ÐĺÐ¼Ð°ÑĺÑĥÑĽÐ": 6481,
      "Ð¸Ð½Ð¸ÑĨÐ¸ÑĺÐ°Ð»Ð½Ð": 6482,
      "pruÅ¾aj": 6483,
      "ÑĢÐ°Ð·Ð»Ð¸ÐºÐ¾Ð²Ð°ÑĤÐ": 6484,
      "zapadn": 6485,
      "ÑģÐ¿ÐµÑĨÐ¸ÑĺÐ°Ð»Ð¸Ð·Ð¾Ð²Ð°Ð½Ð": 6486,
      "sob": 6487,
      "ÑģÐ²ÐµÑģÑ": 6488,
      "restoran": 6489,
      "ÑģÐ¸ÑģÑĤÐµÐ¼ÑģÐºÐ": 6490,
      "kriterijumim": 6491,
      "delo": 6492,
      "Zako": 6493,
      "manastir": 6494,
      "institucionaln": 6495,
      "napredovanj": 6496,
      "Ð´Ð¾Ð¼ÐµÐ½Ð": 6497,
      "ÑĨÐµÐ»Ð": 6498,
      "elemen": 6499,
      "ÑĢÐµÑĩÐ½Ð¸ÐºÐ": 6500,
      "Ð¿ÑĢÐµÐ´Ð¼ÐµÑĤÑ": 6501,
      "ÐºÑĢÐ°ÑĺÐµÐ²Ð": 6502,
      "klijent": 6503,
      "godiÅ¡nje": 6504,
      "alkohol": 6505,
      "ÑĺÑĥÐ³Ð¾Ð¸ÑģÑĤÐ¾ÑĩÐ½Ð": 6506,
      "Bi": 6507,
      "Ð½ÐµÐ³Ð°ÑĤÐ¸Ð²Ð½Ð¾Ð": 6508,
      "Ð³ÑĢÐ°Ð´ÑģÐºÐ¾Ð": 6509,
      "Ð·Ð°ÐºÐ¾Ð½Ð¾Ð´Ð°Ð²ÑģÑĤÐ²Ñ": 6510,
      "klasiÄįn": 6511,
      "propisuj": 6512,
      "podrÅ¾av": 6513,
      "Ð´Ð¾ÐºÑĥÐ¼ÐµÐ½Ñ": 6514,
      "ÑĥÑĩÐ¸Ð½Ð¸Ð»Ð": 6515,
      "Ð½Ð°ÑģÐ»ÐµÐ´Ð½Ð¸ÐºÐ": 6516,
      "ÑģÐ¿ÐµÑĨÐ¸ÑĦÐ¸ÑĩÐ°Ð": 6517,
      "Ova": 6518,
      "razvijaj": 6519,
      "Prv": 6520,
      "Ð¡Ð°Ð²ÐµÐ·Ð": 6521,
      "ono": 6522,
      "stadijum": 6523,
      "izvesn": 6524,
      "Ð²ÑĢÐ¸ÑĺÐµÐ¼Ð": 6525,
      "Ð¿Ð°ÑĢÑĤÐ½ÐµÑĢÑģÑĤÐ²Ð": 6526,
      "proizvodni": 6527,
      "snaÅ¾n": 6528,
      "istrag": 6529,
      "Ð¸Ð¼Ð°Ð¼Ð": 6530,
      "ÑģÐµÐºÐ²ÐµÐ½ÑĨÐ": 6531,
      "ÐĪÑĥÐ¶Ð½Ð": 6532,
      "Institu": 6533,
      "ÐļÐ°ÑģÐ½Ð¸ÑĺÐ": 6534,
      "sudbin": 6535,
      "Ð²Ð°Ð¶Ð½Ð¾ÑģÑ": 6536,
      "religij": 6537,
      "Ð¾ÑģÐ°Ð¼Ð´ÐµÑģÐµÑĤÐ¸Ñ": 6538,
      "malo": 6539,
      "Ð½Ð¸ÑģÐºÐ": 6540,
      "ÐºÐ¾Ð¼ÐµÑĢÑĨÐ¸ÑĺÐ°Ð»Ð½Ñ": 6541,
      "Ka": 6542,
      "recim": 6543,
      "Ð¸Ð½ÑĦÐ»Ð°ÑĨÐ¸ÑĺÐ": 6544,
      "Ð¿Ð¾ÑģÐ²ÐµÑĽÐµÐ": 6545,
      "Ð°Ð½Ð°Ð»Ð¸Ð·Ð¸ÑĢÐ": 6546,
      "ÑĩÐ¸ÑĤÐ°Ð¾ÑĨÐ": 6547,
      "Ð¼ÐµÑħÐ°Ð½Ð¸ÑĩÐºÐ": 6548,
      "Ð´Ð¾Ð±Ð°Ñ": 6549,
      "ÑģÐ¸Ð³ÑĥÑĢÐ½Ð¾ÑģÑ": 6550,
      "dostav": 6551,
      "komentarisanj": 6552,
      "ÑħÐ¾ÑĢÐ¸Ð·Ð¾Ð½ÑĤÐ°Ð»Ð½Ð": 6553,
      "Å¾ensk": 6554,
      "sagledavanj": 6555,
      "sigurnos": 6556,
      "govorit": 6557,
      "uradil": 6558,
      "ÑĤÐµÑĢÐµÐ½Ð": 6559,
      "direktni": 6560,
      "Ð¿Ð°ÑĢÑĤÐ¸Ð·Ð°Ð½ÑģÐºÐ": 6561,
      "ÑĢÐ°Ð·Ð½Ð¸Ð": 6562,
      "stabiln": 6563,
      "ÐŁÐ¾ÑĻÑģÐºÐ": 6564,
      "uÄįesnic": 6565,
      "ÐĺÐ": 6566,
      "Ð´Ð¾Ð³Ð¾Ð´Ð¸Ð»Ð": 6567,
      "Ð¾Ð±Ð°Ð²ÑĻÐ°ÑĺÑ": 6568,
      "ÑĢÐ¾ÑĴÐµÐ½Ð": 6569,
      "Ð´Ð¸ÑĢÐµÐºÑĤÐ½Ð¾Ð": 6570,
      "Ð¸Ð´ÐµÐ½ÑĤÐ¸ÑĦÐ¸ÐºÐ°ÑĨÐ¸ÑĺÑ": 6571,
      "Ð½Ð¾ÑĢÐ¼Ð°ÑĤÐ¸Ð²Ð½Ð": 6572,
      "ÑĤÐµÑħÐ½Ð¸ÑĩÐºÐ¸Ñ": 6573,
      "Ð¿Ð°Ð´Ð": 6574,
      "(1)": 6575,
      "ÐµÐºÐ¾Ð»Ð¾ÑĪÐºÐ¸Ñ": 6576,
      "definisani": 6577,
      "moraln": 6578,
      "(u": 6579,
      "ÑĢÐµÐ²Ð¾Ð»ÑĥÑĨÐ¸Ð¾Ð½Ð°ÑĢÐ½Ð": 6580,
      "ÐľÐµÑĴÑĥÐ½Ð°ÑĢÐ¾Ð´Ð½Ð¾Ð": 6581,
      "crn": 6582,
      "(tabel": 6583,
      "(3": 6584,
      "ÐļÐ¾Ð½ÑģÑĤÐ°Ð½ÑĤÐ¸Ð": 6585,
      "Åłpanij": 6586,
      "ÑĤÑĢÐµÑĤÐ¼Ð°Ð": 6587,
      "ÑĢÐµÐ°Ð»Ð½Ð¾ÑģÑĤÐ": 6588,
      "objav": 6589,
      "Ð¸Ð·Ð±ÐµÐ³Ð°Ð²Ð°ÑļÐ": 6590,
      "ÑĺÐµÐ·Ð¸ÐºÐ¾Ð": 6591,
      "koren": 6592,
      "ÑĥÐ²Ð¾Ð´Ð": 6593,
      "promenit": 6594,
      "Ð¡ÑĢÐ¿ÑģÐºÐ¾Ð": 6595,
      "PredsedniÅ¡tv": 6596,
      "Ð¼Ð¾ÑĺÐ": 6597,
      "reguliÅ¡": 6598,
      "zatvoren": 6599,
      "Ð½ÐµÐ·Ð°Ð¿Ð¾ÑģÐ»ÐµÐ½Ð¾ÑģÑĤÐ": 6600,
      "Ð·Ð°ÐºÐ¾Ð½Ð¸ÐºÐ": 6601,
      "bombardovanj": 6602,
      "Ð°ÑĥÑĤÐ¾ÑĢÐºÐ": 6603,
      "medijsk": 6604,
      "ÑĥÐ½Ð¸Ð²ÐµÑĢÐ·Ð¸ÑĤÐµÑĤÑ": 6605,
      "Ð¿ÑĢÐµÐ¾ÑģÑĤÐ°Ð»Ð": 6606,
      "ÑĢÐ°Ð·Ð¼Ð°ÑĤÑĢÐ°Ð½Ð": 6607,
      "Ð¿ÑĢÐ¸ÑģÑĤÐ°Ð»Ð¸ÑĨÐ": 6608,
      "ÑģÑĤÑĢÑĥÑĩÐ½Ð¾Ð": 6609,
      "desil": 6610,
      "Ð¡ÑĤÐµÑĦÐ°Ð": 6611,
      "Ð¾Ð¼Ð»Ð°Ð´Ð¸Ð½Ð": 6612,
      "Ð¿ÑĢÐµÐ²Ð°Ð·Ð¸Ð»Ð°Ð·Ð": 6613,
      "Ð·Ð°ÑĤÐ²Ð¾ÑĢÐµÐ½Ð": 6614,
      "devedeseti": 6615,
      "Ð¼ÐµÑĤÐ°Ð»Ð": 6616,
      "Ð²ÑĢÐ°ÑĤÐ¸Ð»Ð": 6617,
      "Ð¼Ð°ÑļÐ¸Ð½Ð": 6618,
      "trening": 6619,
      "vanredn": 6620,
      "menadÅ¾er": 6621,
      "nud": 6622,
      "uzet": 6623,
      "Ð¿ÑĢÐ¾ÑģÐµÐºÑ": 6624,
      "ÐĿÐ°ÑĺÐ±Ð¾ÑĻÐ": 6625,
      "razliÄīiti": 6626,
      "ÐĲÐ": 6627,
      ".ZahvaljujuÄĩ": 6628,
      "ÑĤÐ°ÑĩÐ°ÐºÐ": 6629,
      "Francusko": 6630,
      "ÐºÐ¾ÑĢÐ°ÐºÐ": 6631,
      "Ð¸Ð·Ð²ÑĢÑĪÐ½Ð": 6632,
      "funkcionalnost": 6633,
      "24": 6634,
      "Ð¼ÑĺÐµÑģÑĤÐ": 6635,
      "let": 6636,
      "ÑģÑĢÑĨÐ": 6637,
      "englesk": 6638,
      "Ð´ÐµÑĪÐ°Ð²Ð": 6639,
      "Ð¿ÑĢÐµÑģÑĤÐ¾Ð½Ð¸ÑĨÐ": 6640,
      "Ð´Ð²Ð¾ÑĢÐ°Ð½Ð": 6641,
      "izaziv": 6642,
      "odgovora": 6643,
      "ÐļÐ": 6644,
      "politic": 6645,
      "MiloÅ¡eviÄ": 6646,
      "Ð·Ð°Ð¿Ð¾ÑĩÐµÐ": 6647,
      "ÑĤÑĢÐ°ÑĺÐ°ÑļÑ": 6648,
      "Ð±Ð¾ÑĢÐ±Ñ": 6649,
      "Ð¿ÑĢÐ¸Ð¼Ð°ÑĢÐ½Ð¾Ð": 6650,
      "ÑģÐ¿Ð¾Ð¼ÐµÐ½Ð¸Ð": 6651,
      "Zakono": 6652,
      "ÐĳÑĥÐ³Ð°ÑĢÐ": 6653,
      "ÑģÑĥÐ¿ÑĢÐ¾ÑĤÐ½Ð¾Ð": 6654,
      "ÑħÑĢÐ¸ÑĪÑĽÐ°Ð½Ð": 6655,
      "Sjedinjeni": 6656,
      "Ð¼ÐµÐ½Ð": 6657,
      "ÑĺÐ°Ð²Ð½Ð¸Ð": 6658,
      "Ð¿Ð¾ÑģÑĤÐ°Ð²Ð¸Ð»Ð": 6659,
      "radikal": 6660,
      ",5": 6661,
      "dijagnostik": 6662,
      "poslanik": 6663,
      "partnerstv": 6664,
      ".Dana": 6665,
      "Ð´Ð°Ð½Ð°ÑĪÑļÐµÐ": 6666,
      "proizvodn": 6667,
      "ÑģÑĤÐ°Ð½Ð´Ð°ÑĢÐ": 6668,
      "procent": 6669,
      "ÐľÐ¸Ð»Ð°Ð½Ð": 6670,
      "ÑĦÐ¸Ð½Ð°Ð»Ð": 6671,
      "Ð²Ð°Ð·Ð´ÑĥÑħÐ¾Ð¿Ð»Ð¾Ð²ÑģÑĤÐ²Ð": 6672,
      "greÅ¡ak": 6673,
      "40": 6674,
      "noÄĩ": 6675,
      "ÑģÑĤÐ°ÑĢÐ¸Ñ": 6676,
      "Ð±Ð¸Ð¾Ð»Ð¾ÑĪÐºÐ": 6677,
      "(ÐµÐ½Ð": 6678,
      "ÑģÐ¸Ð½ÑĤÐ°Ð³Ð¼Ð": 6679,
      "modelovanj": 6680,
      "posmatr": 6681,
      "ÐĪÑĥÐ³Ð¾ÑģÐ»Ð°Ð²Ð¸ÑĺÑ": 6682,
      "jetr": 6683,
      "Ð¡Ð»Ð¾Ð²ÐµÐ½Ð": 6684,
      "gradonaÄįelni": 6685,
      "ÑģÐ°ÑĤÐ": 6686,
      "kompozicij": 6687,
      "ÑĥÐ·ÑĢÐ¾ÐºÐ": 6688,
      "obeleÅ¾avanj": 6689,
      "A.": 6690,
      "stvaraj": 6691,
      "Ð´Ð¸Ð¿Ð»Ð¾Ð¼Ð°ÑĤÑģÐºÐ": 6692,
      "Ð°ÑĤÑĢÐ¸Ð±ÑĥÑĤÐ": 6693,
      "Ð¸Ð·Ð²ÐµÑĪÑĤÐ°ÑĺÑ": 6694,
      "nastavno": 6695,
      "Ð¡ÑĤÐµÑĦÐ°Ð½Ð¾Ð²Ð¸Ñ": 6696,
      "Ð·Ð½Ð°ÑĩÐ°ÑĺÐ½Ð¾ÑģÑ": 6697,
      "ÑĤÑĢÐ°ÑĺÐ½Ð": 6698,
      "dokazan": 6699,
      "investicion": 6700,
      "Ð¸Ð½Ð¸ÑĨÐ¸ÑĺÐ°ÑĤÐ¸Ð²Ñ": 6701,
      "ÑģÐ»Ð¾Ð²ÐµÐ½ÑģÐºÐ": 6702,
      "ÐĲÐ¼ÐµÑĢÐ¸ÑĨÐ": 6703,
      "reaguj": 6704,
      "vodit": 6705,
      "predviÄĳ": 6706,
      "Ð¿ÑĢÐµÐ²Ð¾Ð": 6707,
      "ÐºÑļÐ¸Ð³Ñ": 6708,
      "prevoz": 6709,
      "skladiÅ¡t": 6710,
      "ÑĥÐ·Ð¾ÑĢÐºÑ": 6711,
      "2)": 6712,
      "jon": 6713,
      "Ð¿Ð»Ð°Ð½Ð¸ÑĢÐ°Ð½Ð": 6714,
      "ÑģÑĤÐµÑĩÐ°ÑĺÐ½Ð¾Ð": 6715,
      "Ð¼Ð¾Ð½Ð°ÑĢÑħÐ¸ÑĺÐ": 6716,
      "Ð½Ð°Ð³Ð»Ð°ÑĪÐµÐ½Ð": 6717,
      "uradit": 6718,
      "Ð¼Ð¾Ð³ÑĥÑĽÐ¸Ñ": 6719,
      "S.": 6720,
      "smeÅ¡ten": 6721,
      "kontrolni": 6722,
      "protokol": 6723,
      "Ð·Ð½Ð°ÑĩÐ¸Ð»Ð": 6724,
      "ÑĢÐ°ÑģÑĤÐ²Ð¾ÑĢÐ": 6725,
      "efikasnij": 6726,
      "Ð¿ÑĢÐµÐ´ÑģÑĤÐ°Ð²Ð½Ð¸ÑĨÐ¸Ð¼Ð": 6727,
      "poveÄĩa": 6728,
      "Ð¿Ð¾ÐºÑĥÑĪÐ°Ð»Ð": 6729,
      "veruje": 6730,
      ".ÐĲÐ½Ð°Ð»Ð¸Ð·Ð": 6731,
      "pozna": 6732,
      "ÑĢÐ°Ð·Ð¼Ð°ÑĤÑĢÐ": 6733,
      "koeficijenat": 6734,
      "Ð¾Ð±ÐµÐ»ÐµÐ¶Ð°Ð²Ð°ÑļÐ": 6735,
      "statistiÄīk": 6736,
      "Ð±ÐµÐ¾Ð³ÑĢÐ°Ð´ÑģÐºÐ": 6737,
      "originaln": 6738,
      "Ð¿Ð¾ÑĤÑĢÐµÐ±Ð°Ð": 6739,
      "Ð¿ÑĢÐ¸Ð·Ð½Ð°ÑĤÐ": 6740,
      "ÑĥÑĢÐµÐ´Ð½Ð¸Ð": 6741,
      "razdvajanj": 6742,
      "Ð³Ð¾ÑĢÐ¸Ð²Ð": 6743,
      "sagorevanj": 6744,
      "ÑģÐ½Ð¸Ð¼Ð°ÑļÐ": 6745,
      "Ð¡ÐµÐ²ÐµÑĢÐ½Ð": 6746,
      "Ð½Ð°ÑĺÐ²ÐµÑĽÐ¸Ð": 6747,
      "Ð²ÐµÐ³ÐµÑĤÐ°ÑĨÐ¸ÑĺÐ": 6748,
      "Ð¸Ð¼Ð¿Ð»ÐµÐ¼ÐµÐ½ÑĤÐ°ÑĨÐ¸ÑĺÑ": 6749,
      "Ð°ÑĢÑħÐ¸ÑĤÐµÐºÑĤÐ": 6750,
      "Ð¸Ð·Ð²Ð¾ÑĢÐ½Ð": 6751,
      "Ð´Ð¾Ð¼Ð¸Ð½Ð°ÑĨÐ¸ÑĺÐ": 6752,
      "ÑĢÐ¾ÑĴÐµÐ": 6753,
      "podeÅ¡avanj": 6754,
      "ispitivano": 6755,
      "ÑģÐµÐ¿ÑĤÐµÐ¼Ð±ÑĢÑ": 6756,
      "Ð¸Ð½ÑĤÐµÑĢÐµÑģÐ°Ð½ÑĤÐ½Ð": 6757,
      "ÑĦÐ°Ð±ÑĢÐ¸ÐºÐ": 6758,
      "ÑģÐ¸Ð¼Ð±Ð¾Ð": 6759,
      "ÑĥÐ»Ð¾Ð·Ð": 6760,
      "ÑĤÑĢÐµÐ½ÑĥÑĤÐ°Ð": 6761,
      "prioritet": 6762,
      "zatvaranj": 6763,
      "akumulacij": 6764,
      "transpor": 6765,
      "svetski": 6766,
      "Ð°ÑĥÑģÑĤÑĢÐ¸ÑĺÑģÐºÐ": 6767,
      "gradsko": 6768,
      "ÐĶÑĢÐ¶Ð°Ð²Ð°Ð¼Ð": 6769,
      "stamben": 6770,
      "Ð¿ÑĢÐ¸Ð»Ð¸ÐºÑ": 6771,
      "Ð»Ð°ÐºÑĪÐ": 6772,
      "prestonic": 6773,
      "Ð¿Ð¾ÑĢÐµÐ´Ð°Ð": 6774,
      "proseÄįno": 6775,
      "Ð¸ÑģÑĤÐ¾ÑĢÐ¸Ð¾Ð³ÑĢÐ°ÑĦÐ¸ÑĺÐ": 6776,
      "nedostaj": 6777,
      "ÑĢÐ¸Ð¼ÑģÐºÐ": 6778,
      "vizueln": 6779,
      "konstant": 6780,
      "50": 6781,
      "formir": 6782,
      "ÐºÐ¾Ð»Ð¸ÑĩÐ¸Ð½Ñ": 6783,
      "Ð´Ð¾Ð½ÐµÐºÐ»Ð": 6784,
      "ÑĢÐ°Ð·Ð»Ð¾Ð·Ð": 6785,
      "ÑĤÑĢÐ°ÑĺÐ°Ð»Ð": 6786,
      "Ð¿Ð¾ÑĺÐµÐ´Ð¸Ð½Ð°Ñ": 6787,
      "Ð¼Ð°Ñ": 6788,
      "Ð½Ð°ÑĢÐ°Ð²Ð½Ð": 6789,
      "Ð¿ÑĢÐ¾Ð¼ÐµÐ½Ð¸Ð»Ð": 6790,
      "izolovan": 6791,
      "obrazovni": 6792,
      "ÐºÐ»Ð°ÑģÐ¸ÑĦÐ¸ÐºÐ°ÑĨÐ¸ÑĺÑ": 6793,
      "ÑĤÑĥÐ¼Ð¾ÑĢÐ": 6794,
      "Osnovn": 6795,
      "paraleln": 6796,
      "ÑģÑĤÐ²Ð°ÑĢÐ¸Ð¼Ð": 6797,
      "ÑģÑĤÐ°Ð½Ð¾Ð²Ð½Ð¸ÑĨÐ": 6798,
      "Ð¨Ð²Ð°ÑĺÑĨÐ°ÑĢÑģÐºÐ": 6799,
      "ÑĢÐµÑħÐ°Ð±Ð¸Ð»Ð¸ÑĤÐ°ÑĨÐ¸ÑĺÐ": 6800,
      "ÐŁÐ°ÑĢÐ¸Ð·Ñ": 6801,
      "Ð¾ÑĢÐ³Ð°Ð½Ð¸Ð·Ð¾Ð²Ð°Ð»Ð": 6802,
      "treÄĩin": 6803,
      "Ð¾ÑģÐ²Ð°ÑĺÐ°ÑļÐ": 6804,
      "Ð¼Ð°ÑģÐ¾Ð²Ð½Ð": 6805,
      "Ð´ÐµÑĨÑ": 6806,
      "civilizacij": 6807,
      "Ð¸Ð´ÐµÐ½ÑĤÐ¸ÑĩÐ½Ð": 6808,
      "toplotn": 6809,
      "ÑĥÐ¿ÑĢÐ°Ð²Ð½Ð¸Ð": 6810,
      "laboratorijski": 6811,
      "Ð´ÑĥÑĪÐ": 6812,
      "zavrÅ¡i": 6813,
      "regulativ": 6814,
      "institut": 6815,
      "Ð¸Ð¼ÐµÐ½Ð¾Ð²Ð°ÑļÐ": 6816,
      "ÐµÐ¼Ð¿Ð¸ÑĢÐ¸ÑĺÑģÐºÐ": 6817,
      "ÑģÐ¾ÑĨÐ¸ÑĺÐ°Ð»Ð¸ÑģÑĤÐ¸ÑĩÐºÐ¾Ð": 6818,
      "poras": 6819,
      "Ð¸Ð½Ð´ÑĥÑģÑĤÑĢÐ¸ÑĺÑģÐºÐ¸Ñ": 6820,
      "adaptacij": 6821,
      "Ð·Ð°ÐºÑĻÑĥÑĩÐµÑļÐ": 6822,
      ".Dobijen": 6823,
      "elementim": 6824,
      "ÑĥÐ·Ð¸Ð¼Ð": 6825,
      "ÑĤÐ¸Ð¿Ð¸ÑĩÐ½Ð": 6826,
      "dijalog": 6827,
      "dogaÄĳa": 6828,
      "Ð½Ð¾Ð²ÑĩÐ°Ð½Ð": 6829,
      "Ð¿Ð¾Ð»Ð¸ÑĤÐ¸ÑĩÐ°ÑĢÐ": 6830,
      "Ð¾Ð´Ð»Ð°Ð·Ð": 6831,
      "Ð´ÐµÐ¼Ð¾ÐºÑĢÐ°ÑĤÑģÐºÐ¾Ð": 6832,
      "Ð½ÐµÐ¿Ð¾ÑģÑĢÐµÐ´Ð½Ð¾Ñ": 6833,
      "kvalitativn": 6834,
      "Ð¾ÑģÐ½Ð¾Ð": 6835,
      "dubok": 6836,
      "ÑĢÐµÐ°Ð»Ð½Ð¾Ð": 6837,
      "ÐĳÑĢÐ°Ð½ÐºÐ": 6838,
      "specifikacij": 6839,
      "Ð½ÐµÐ¸Ð·Ð²ÐµÑģÐ½Ð¾ÑģÑĤÐ": 6840,
      "ÐºÑĢÐ¸Ð¼Ð¸Ð½Ð°Ð»Ð½Ð": 6841,
      "ÐºÐ¾Ð¼Ð¿Ð°ÑĢÐ°ÑĤÐ¸Ð²Ð½Ð": 6842,
      "dodat": 6843,
      "ÑĥÑģÑĤÐ°Ð½Ð¾Ð²Ð°Ð¼Ð": 6844,
      "strukturn": 6845,
      "ÑĤÐ°ÑĩÐ½Ð¸ÑĺÐ": 6846,
      "ÐļÐ¾ÑģÐ¾Ð²Ñ": 6847,
      "185": 6848,
      "Ð¿Ð°ÑĢÐ»Ð°Ð¼ÐµÐ½ÑĤÐ°ÑĢÐ½Ð": 6849,
      "Ð´Ð¾ÑĽÐ": 6850,
      "Ð¸Ð·ÑĢÐ°Ð´Ñ": 6851,
      "ÐºÐ¾ÑĢÐ¸ÑģÐ½Ð¸ÑĨÐ¸Ð¼Ð": 6852,
      "dubin": 6853,
      "Ð¿Ð¾ÑĢÐµÐºÐ»Ð¾Ð": 6854,
      "Ð¿ÑĢÐ¾Ð²ÐµÑĢÐ": 6855,
      "ÑĥÑĩÐ¸ÑļÐµÐ½Ð": 6856,
      ".ÐĬÐµÐ³Ð¾Ð²Ð": 6857,
      "postavit": 6858,
      "wit": 6859,
      "lider": 6860,
      "ÑĤÐ°Ð´Ð°ÑĪÑļÐ": 6861,
      "Ð¸Ð½Ð¸ÑĨÐ¸ÑĺÐ°Ð»Ð½Ð¾Ð": 6862,
      "ÑģÐ¾Ð¿ÑģÑĤÐ²ÐµÐ½Ð¸Ñ": 6863,
      "ÐºÐ²Ð°Ð»Ð¸ÑĤÐµÑĤÑ": 6864,
      "ÑĢÐµÐ·ÐµÑĢÐ²Ð": 6865,
      "Grafiko": 6866,
      "mes": 6867,
      "Mitrovic": 6868,
      "ÑģÐ²ÐµÐ´Ð¾ÑĩÐ°Ð½ÑģÑĤÐ²Ð": 6869,
      "Ð±Ð»Ð°Ð³Ð¾ÑģÑĤÐ°ÑļÐ": 6870,
      "obuhvataj": 6871,
      "Ð±ÐµÐ¾Ð³ÑĢÐ°Ð´ÑģÐºÐ¾Ð": 6872,
      "snima": 6873,
      "poznati": 6874,
      "ÑģÑĤÐ°Ð±Ð¸Ð»Ð¸Ð·Ð°ÑĨÐ¸ÑĺÐ": 6875,
      "Ð²Ð»Ð°ÑģÐ½Ð¸ÑĪÑĤÐ²Ñ": 6876,
      "postojeÄĩe": 6877,
      "onog": 6878,
      "ÐºÑĢÐµÐ°ÑĤÐ¸Ð²Ð½Ð": 6879,
      "vlasni": 6880,
      "Ð¸ÑģÐ¿Ð¾ÑĻÐ°Ð²Ð°ÑļÐ": 6881,
      "antitel": 6882,
      "inflacij": 6883,
      "nezavisnost": 6884,
      "sobo": 6885,
      "zastupljenost": 6886,
      "Ð¾Ð±ÑĢÐ°ÑģÑĨÐ": 6887,
      "upitnik": 6888,
      "ÑģÐ°Ð¼Ð¾ÑĥÐ±Ð¸ÑģÑĤÐ²Ð": 6889,
      "ÑĢÑĥÐºÐ": 6890,
      "/200": 6891,
      "ÐºÐ°ÑĤÐ°ÑģÑĤÑĢÐ¾ÑĦÐ": 6892,
      "dvoriÅ¡t": 6893,
      "Å¡kolsko": 6894,
      "dijagram": 6895,
      "tuÅ¾ioc": 6896,
      "stanovanj": 6897,
      "seÄĩanj": 6898,
      "suÅ¡enj": 6899,
      "postavljaj": 6900,
      "francusko": 6901,
      "pretpostavit": 6902,
      "knjiÅ¾evnos": 6903,
      "StojanoviÄ": 6904,
      "Ð¿Ð¾Ð²ÑĢÐ°ÑĤÐ°Ð": 6905,
      "ÐĳÑĥÐ´Ð¸Ð¼Ð¿ÐµÑĪÑĤÐ": 6906,
      "graÄĳevinski": 6907,
      "duÅ¾a": 6908,
      "Ð¼ÐµÑĤÐ¾Ð´Ð¾Ð»Ð¾ÑĪÐºÐ": 6909,
      "ÑģÐµÐ³Ð¼ÐµÐ½Ñ": 6910,
      "organizacioni": 6911,
      "Ð´Ð¾ÐºÐ°Ð·Ð¸Ð²Ð°ÑļÐ": 6912,
      "devijacij": 6913,
      "usklaÄĳivanj": 6914,
      "komentariÅ¡e": 6915,
      "pism": 6916,
      ".ÄĮla": 6917,
      "Ð¾Ð¼Ð±ÑĥÐ´ÑģÐ¼Ð°Ð½Ð": 6918,
      "Ð²Ð¸Ð´Ð¸Ð¼Ð": 6919,
      "staniÅ¡t": 6920,
      "ÑĺÑĥÑĢÐ¸ÑģÐ´Ð¸ÐºÑĨÐ¸ÑĺÐ": 6921,
      "jun": 6922,
      "ÐĲÐºÐ": 6923,
      "ponedelja": 6924,
      "ÑĨÐ¸ÑĻÐ": 6925,
      "knjiÅ¾evn": 6926,
      "pripremljen": 6927,
      "osoblj": 6928,
      "ona": 6929,
      "Äįetvrto": 6930,
      "objasni": 6931,
      "Ð¾Ð´ÑĢÐ¶Ð¸Ð²Ð": 6932,
      "ÑĨÑĢÐºÐ²ÐµÐ½Ð¸Ñ": 6933,
      "Ð¿Ð»Ð¾Ð´Ð¾Ð²Ð": 6934,
      ".ÐŁÐ": 6935,
      "udÅ¾benik": 6936,
      "Ð¼ÐµÐ´Ð¸ÑĺÐ¸Ð¼Ð": 6937,
      "Ð¼Ð¾ÑĢÑĦÐ¾Ð»Ð¾ÑĪÐºÐ": 6938,
      "organim": 6939,
      "ÐºÐ¾Ð½ÑģÑĤÐ°ÑĤÐ¾Ð²Ð°ÑĤÐ": 6940,
      "slojev": 6941,
      "Ð¶Ð¸Ð²Ð¾ÑĤÐ½Ñ": 6942,
      "Ð¿ÑĢÐ¾ÑĪÐ»Ð": 6943,
      "protok": 6944,
      "italijansk": 6945,
      "sastavn": 6946,
      "ÐĳÐ°Ð»ÐºÐ°Ð½Ð": 6947,
      "ÐºÐ¾Ð¼Ð¾ÑĢÐ": 6948,
      "Ð¼ÐµÑĤÐ¾Ð´Ð°Ð¼Ð": 6949,
      "kolektivn": 6950,
      "Ð´Ð¾ÑĴÐ": 6951,
      "otkril": 6952,
      "Äįitav": 6953,
      "Å¡kolam": 6954,
      "predsednic": 6955,
      "Ð¿ÑĢÐ°ÐºÑģÑ": 6956,
      "realizovan": 6957,
      "klub": 6958,
      "ÑģÐ²ÑĢÑħÑ": 6959,
      "Ð¿Ð»ÐµÐ¼ÐµÐ½Ð": 6960,
      "Australij": 6961,
      "ÐºÐ¾Ð½ÑĦÐ¸Ð³ÑĥÑĢÐ°ÑĨÐ¸ÑĺÐ": 6962,
      "vrÅ¡enj": 6963,
      "Ð¸Ð·ÑĥÐ·ÐµÑĤÐ°Ð": 6964,
      "Ð½Ð°ÐºÐ½Ð°Ð´Ð½Ð": 6965,
      "pakovanj": 6966,
      "Ð¿ÑĢÐ¾Ð¿Ð¾ÑĢÑĨÐ¸Ð¾Ð½Ð°Ð»Ð½Ð": 6967,
      "Ð·Ð°ÑħÑĤÐµÐ²Ð°Ð»Ð": 6968,
      "izdaj": 6969,
      "Ð²Ð¾ÑĺÐ½Ð¸Ñ": 6970,
      "Äĩelijsko": 6971,
      "Ð¿Ð¾ÑģÐ¼Ð°ÑĤÑĢÐ°ÑĺÑ": 6972,
      "ÐºÑĢÐ¸Ð²Ð": 6973,
      "koncepcij": 6974,
      "ÐµÐºÐ¸Ð¿Ð": 6975,
      "Ð¿ÑĢÐ¾ÑĪÐ»Ð¾ÑģÑ": 6976,
      "Ð¿Ð¾ÑģÑĤÐ°ÑĤÐ": 6977,
      "ÑģÐ¿ÑĢÐµÐ¼Ð½Ð": 6978,
      ".ÐŁÐ¾ÑĪÑĤÐ": 6979,
      "-Ð¸Ñ": 6980,
      "bogat": 6981,
      "objektim": 6982,
      "najkasnij": 6983,
      "koristi": 6984,
      "Ð´ÐµÐ±ÑĻÐ¸Ð½Ð": 6985,
      ".Misli": 6986,
      "Ð²Ð¾ÑĴÐµÑļÐ": 6987,
      "Ð¸ÑģÑħÐ¾Ð´Ð": 6988,
      "ÐĿÐ¸ÐºÐ¾Ð»Ð¸Ñ": 6989,
      "Ð»Ð¸ÑĩÐ½Ð¾Ð": 6990,
      "menjaj": 6991,
      "Ð£Ð»Ð¾Ð³Ð": 6992,
      "Ð¿ÑĢÐ¾ÑĪÐ¸ÑĢÐµÐ½Ð": 6993,
      "vol": 6994,
      "ÐºÐ°ÑĢÐ°ÐºÑĤÐµÑĢÐ¸ÑĪÑ": 6995,
      "organizova": 6996,
      "odvojen": 6997,
      "Äįitavo": 6998,
      "ÑļÐµÐ½Ð¸Ð": 6999,
      "definisat": 7000,
      "ÑģÑĤÑĢÐ¾Ð³Ð": 7001,
      "Ð¼Ð°Ð»Ð¸Ð": 7002,
      "Ð´ÐµÑĤÐµÑĢÐ¼Ð¸Ð½Ð°Ð½ÑĤÐ": 7003,
      "Ð»Ð¸ÑģÑĤÐ¾Ð²Ð": 7004,
      "paket": 7005,
      "ÑģÐ¼Ð°ÑĤÑĢÐ°Ð¼Ð": 7006,
      "supstrat": 7007,
      "ÑĤÐ²ÑĢÑĴÐ°Ð²Ð": 7008,
      "drzav": 7009,
      "ÑģÑĢÐµÑĽÐ": 7010,
      "Ð¡Ð°ÑĢÐ°ÑĺÐµÐ²Ñ": 7011,
      "ispunjav": 7012,
      "Ð¡Ð¾ÑĦÐ¸ÑĺÐ": 7013,
      "ÑģÑĤÐ°Ð²Ð¾Ð²Ð¸Ð¼Ð": 7014,
      "standardni": 7015,
      "Ð´Ð¸ÑģÐºÑĥÑģÐ¸ÑĺÐ": 7016,
      "Ð´ÐµÑĢÐ¸Ð²Ð°ÑĤÐ": 7017,
      "ÑĥÑĩÐµÑģÑĤÐ°Ð»Ð¾ÑģÑ": 7018,
      "odgovori": 7019,
      "4,": 7020,
      "ÑģÑĤÑĢÐ°ÑĤÐµÐ³Ð¸ÑĺÑ": 7021,
      "ÐĶÐ°ÐºÐ»Ð": 7022,
      "Ð½ÐµÐ·Ð°Ð²Ð¸ÑģÐ½Ð¸Ñ": 7023,
      "ÑĦÑĥÐ´Ð±Ð°Ð»ÐµÑ": 7024,
      "kompleksn": 7025,
      "jeziÄįk": 7026,
      "talas": 7027,
      "ÑĤÑĥÐ¶Ð¸Ð»Ð°Ñ": 7028,
      "Ð¾ÑģÐµÑĽÐ°Ñ": 7029,
      "Ð·Ð°Ð´ÑĢÐ¶Ð°Ð²Ð°ÑļÐ": 7030,
      "Ð¸Ð·Ð½Ð¾ÑģÐ¸Ð": 7031,
      "odabrani": 7032,
      "nuklearn": 7033,
      "ÐľÐ¸ÑĤÑĢÐ¾Ð²Ð¸ÑĨÐ": 7034,
      "ÑĤÐ¸ÑĤÑĥÐ»Ð": 7035,
      "Ð½ÐµÐ¼Ð¾Ð³ÑĥÑĽÐ½Ð¾ÑģÑĤÐ": 7036,
      "uÄįinit": 7037,
      "procenjen": 7038,
      "ÐĺÐ¿Ð°Ð": 7039,
      "Ð½Ð°ÑĺÐ·Ð°ÑģÑĤÑĥÐ¿ÑĻÐµÐ½Ð¸ÑĺÐ": 7040,
      "ÑĢÐ°Ð·Ð²Ð¸ÑĺÐµÐ½Ð¸Ð": 7041,
      "DrÅ¾av": 7042,
      "ujedn": 7043,
      "Å¾elel": 7044,
      "Ð½Ð°Ð¿Ð¸ÑģÐ°Ð½Ð": 7045,
      "ÑĦÐµÐ´ÐµÑĢÐ°ÑĨÐ¸ÑĺÐ": 7046,
      "ÑĤÐµÐ¼ÐµÑĻÐ": 7047,
      "Ð½Ð¾Ð²Ñ": 7048,
      "prosvet": 7049,
      "aparat": 7050,
      "paÅ¾ljiv": 7051,
      "ÐµÐ»ÐµÐºÑĤÑĢÐ¾Ð½Ð": 7052,
      "ÐĺÑģÑĤÐ¾ÑĢÐ¸ÑĺÑģÐºÐ": 7053,
      "Ð¿Ð¾ÑģÑĤÐ°Ð²ÑĻÐ°ÑĺÑ": 7054,
      "specijalizovan": 7055,
      "bogatstv": 7056,
      "priznaj": 7057,
      "ÑĦÐ¾ÑĢÐ¼ÑĥÐ»Ð°ÑĨÐ¸ÑĺÐ": 7058,
      "Ð¿ÑĢÐ¾ÑĨÐµÑģÐ½Ð": 7059,
      "Ð½Ð°Ð·Ð²Ð°Ð": 7060,
      "posetioc": 7061,
      "pokuÅ¡avaj": 7062,
      "Ð¸ÑģÑĤÐ°ÐºÐ°Ð": 7063,
      "ÐºÑĥÐ»ÑĤÑĥÑĢÐ½Ð¸Ð": 7064,
      "posmatrano": 7065,
      "Ð¸Ð·Ð²ÑĢÑĪÐ°Ð²Ð°ÑļÐ": 7066,
      "jedinstv": 7067,
      "nekadaÅ¡nj": 7068,
      "vlakan": 7069,
      "Ð»Ð¾ÐºÐ°Ð»Ð¸ÑĤÐµÑĤÑ": 7070,
      "ÐºÑĢÐ°ÑĤÐºÐ¾Ð": 7071,
      "zabeleÅ¾e": 7072,
      "ÑĢÐ°ÑģÐ¿Ð¾Ð»Ð°Ð³Ð°ÑļÑ": 7073,
      "Ð¾Ð±ÐµÐ·Ð±ÐµÑĴÑĥÑĺÑ": 7074,
      "23": 7075,
      "Ð¿Ð¾ÑĢÐ°ÑģÑ": 7076,
      "Ð½Ð°Ð²Ð¾Ð´Ð½Ð": 7077,
      "Ð¿ÑĢÐµÐ¶Ð¸Ð²ÑĻÐ°Ð²Ð°ÑļÐ": 7078,
      "profi": 7079,
      "ÑģÑĤÑĢÑĥÑĺÐ°ÑļÐ": 7080,
      "pronalaÅ¾enj": 7081,
      "ÑĢÐµÐ·Ð¾Ð»ÑĥÑĨÐ¸ÑĺÐ": 7082,
      ".ÐĺÐ": 7083,
      "reprodukcij": 7084,
      "Ð¡Ð°Ð´Ñ": 7085,
      "ÑĥÑĩÐ¸Ð½Ð¸Ð¾ÑĨÐ": 7086,
      "Ð°Ð»Ð°ÑĤÐ": 7087,
      "ÑĪÑĤÐ°Ð¼Ð¿Ð°Ð½Ð": 7088,
      "naelektrisanj": 7089,
      "Ð±Ð¾ÑĢÐ°Ð²ÐºÐ": 7090,
      "Ð¾ÑĨÐµÐ½Ñ": 7091,
      ".ÐĪÐµÐ´Ð½Ð": 7092,
      "Ð·ÐµÐ¼ÑĻÐ¸ÑĪÑĤÑ": 7093,
      "Ð½Ð°ÑģÑĥÐ¿ÑĢÐ¾Ñ": 7094,
      "ÐºÑĢÐ¸Ð²Ð¸ÑĨÐ": 7095,
      "takozvan": 7096,
      "vezuj": 7097,
      "imajuÄĩ": 7098,
      "ÑĨÐ¸ÑĻÐµÐ²Ð¸Ð¼Ð": 7099,
      "Ð½ÐµÐºÑ": 7100,
      "ÐºÐ°ÐºÐ°Ð": 7101,
      "Ð¼ÐµÑĴÑĥÐ½Ð°ÑĢÐ¾Ð´Ð½Ñ": 7102,
      "Ð´ÐµÐ²Ð¾ÑĺÑĩÐ¸ÑĨÐ": 7103,
      "iskoristit": 7104,
      "ÑĽÐµÐ»Ð¸ÑĺÐ°Ð¼Ð": 7105,
      "fenomen": 7106,
      "mentaln": 7107,
      "najbolje": 7108,
      "utvrdit": 7109,
      "Äįita": 7110,
      "dokumen": 7111,
      "ÑģÑĥÐ±ÑĺÐµÐºÑ": 7112,
      "Nacionalno": 7113,
      "ÑĥÐ¼ÐµÑĢÐµÐ½Ð": 7114,
      "dostupni": 7115,
      "Ð¿ÑĢÐµÐ½Ð¾ÑĪÐµÑļÐ": 7116,
      ".ÐĶÑĢÑĥÐ³Ð¸Ð": 7117,
      "ÐľÐ°ÑĴÐ°ÑĢÑģÐºÐ¾Ñ": 7118,
      "ÑģÐ¾ÑĦÑĤÐ²ÐµÑĢÐ": 7119,
      "porta": 7120,
      "normalno": 7121,
      ".ÐĺÑģÑĤÐ": 7122,
      "nezadovoljstv": 7123,
      "ÑĥÑģÑĤÐ°Ð½ÐºÐ": 7124,
      "tretiran": 7125,
      "Ð¿ÑĢÐ²Ð¸Ð": 7126,
      "Ð¾Ð²Ð°ÐºÐ": 7127,
      "menadÅ¾men": 7128,
      "ÐľÐ¸Ð»Ð¾Ñ": 7129,
      "ÑģÑĤÐ°ÑĢÐ¸ÑĺÐ¸Ñ": 7130,
      "stimulacij": 7131,
      "nastup": 7132,
      "ÑģÐ°Ð²ÐµÐ·Ð": 7133,
      "8.": 7134,
      "rastvaraÄį": 7135,
      "Ð½ÐµÐ¿ÑĢÐ¸ÑĺÐ°ÑĤÐµÑĻÑģÐºÐ": 7136,
      "Ð¾Ð¿Ð¸Ñ": 7137,
      "Ð¸Ð·Ð±Ð¾ÑĢÑ": 7138,
      "preteÅ¾n": 7139,
      "omoguÄĩ": 7140,
      "ÐŁÐ¾ÑģÐ»ÐµÐ´ÑļÐ": 7141,
      "Ð·Ð°ÐºÐ¾Ð½Ð¸Ð¼Ð": 7142,
      "ÐºÐ¾Ð½ÑĨÐµÐ½ÑĤÑĢÐ°ÑĨÐ¸ÑĺÐ°Ð¼Ð": 7143,
      "Ð·Ð°Ð½Ð¸Ð¼ÑĻÐ¸Ð²Ð": 7144,
      "ÑĦÐ°ÐºÑĤÐ¾ÑĢÐ¸Ð¼Ð": 7145,
      "Ð±Ð»Ð¸Ð·Ñ": 7146,
      "ÑģÐ°Ð¾Ð±ÑĢÐ°ÑĽÐ°ÑĺÐ½Ð¸Ñ": 7147,
      "Ð½ÐµÐ¿Ð¾ÑģÑĤÐ¾ÑĺÐ°ÑļÐ": 7148,
      "Ð¿Ð¾ÑĻÐ¾Ð¿ÑĢÐ¸Ð²ÑĢÐµÐ´Ð½Ð¾Ð": 7149,
      "navel": 7150,
      "Ð·Ð½Ð°ÑĩÐ°ÑĺÐ½Ð¸Ð": 7151,
      "Ð¿Ð¾Ð´ÑģÑĤÐ¸ÑĨÐ°ÑļÐ": 7152,
      "siromaÅ¡tv": 7153,
      "ÑģÐµÐºÑĢÐµÑĤÐ°ÑĢÐ": 7154,
      "omoguÄĩen": 7155,
      "celokupno": 7156,
      "nazi": 7157,
      "Drugo": 7158,
      "ÑģÐ¿ÐµÑĨÐ¸ÑĦÐ¸ÑĩÐ½Ð¸Ð": 7159,
      "ÑĺÐµÐ·Ð³ÑĢÐ": 7160,
      "Ð¸Ð½ÑĦÐ¾ÑĢÐ¼Ð°ÑĨÐ¸Ð¾Ð½Ð¸Ñ": 7161,
      "akademsk": 7162,
      ".ÐĶÐ¾Ð·Ð²Ð¾ÑĻÐ°Ð²Ð°ÑĤÐ": 7163,
      "ÐĲÐºÐ°Ð´ÐµÐ¼Ð¸ÑĺÐ": 7164,
      "nastavil": 7165,
      "ÑĨÑĢÐ½Ð": 7166,
      "savrÅ¡en": 7167,
      "buduÄĩi": 7168,
      "Ð´Ð¾Ð¶Ð¸Ð²ÐµÐ»Ð": 7169,
      "naglasi": 7170,
      "ÐĳÐ¾Ð": 7171,
      "odluÄįi": 7172,
      "planet": 7173,
      ".Vrednost": 7174,
      "izgle": 7175,
      "povezani": 7176,
      "energetsko": 7177,
      "znal": 7178,
      "sistemo": 7179,
      "dobri": 7180,
      "Ð·Ð°ÐºÑĻÑĥÑĩÐ¸Ð²Ð°ÑļÐ": 7181,
      "vozaÄį": 7182,
      "predstavni": 7183,
      "zelen": 7184,
      "ÑģÑħÐ²Ð°ÑĤÐ": 7185,
      "ÐĲÐ½Ð°Ð»Ð¸Ð·Ð": 7186,
      "Ð³Ð¾Ð²Ð¾ÑĢÐ¸Ð": 7187,
      "ÑħÑĢÐ¸ÑĪÑĽÐ°Ð½ÑģÐºÐ¾Ð": 7188,
      "ÑĢÐµÐ³Ð¸Ð¾Ð½Ð°Ð»Ð½Ð¸Ñ": 7189,
      "korekcij": 7190,
      "ÐºÐ¾ÑĢÐ¿ÑĥÑģÑ": 7191,
      "ÑĥÐ²ÐµÐ´ÐµÐ½Ð": 7192,
      "Ð¿ÑĢÐµÑĤÐ¿Ð¾ÑģÑĤÐ°Ð²ÐºÑ": 7193,
      "ÑĩÐ»Ð°Ð½Ñ": 7194,
      "Ð¸Ð·ÑĺÐ°Ð²Ð¸Ð": 7195,
      "prevod": 7196,
      "vratil": 7197,
      "ÑĤÑĢÐ³Ð¾Ð²Ð¸Ð½ÑģÐºÐ": 7198,
      "osa": 7199,
      "spadaj": 7200,
      "pravosuÄĳ": 7201,
      "ÐºÐ°Ð¼ÐµÐ½Ð": 7202,
      "Draga": 7203,
      "Ð¸Ð·ÑĢÐ¸ÑĩÐ¸ÑĤÐ": 7204,
      "vrÅ¡en": 7205,
      "Ð¾Ð´Ð³Ð¾Ð²Ð¾ÑĢÐ¸Ð»Ð": 7206,
      "ÑĢÐµÐ³ÑĥÐ»Ð¸ÑģÐ°ÑļÐ": 7207,
      "desn": 7208,
      "Ð±ÑĢÐ¾Ð´Ð¾Ð²Ð": 7209,
      "predstavljat": 7210,
      "ÐºÐ¾Ð½ÐºÑĥÑĢÐµÐ½ÑĤÐ½Ð¾ÑģÑ": 7211,
      "Ð¿ÑĢÐ¸Ð»Ð°Ð³Ð¾ÑĴÐµÐ½Ð": 7212,
      "Ð¿Ð¾ÑģÐ»Ð¾Ð²Ð¸ÑĨÐ": 7213,
      "beogradsko": 7214,
      "ÑģÑĢÐµÐ´Ð¸ÑĪÑĤÐ": 7215,
      "maj": 7216,
      "ÐºÑĢÐ°ÑĻÐµÐ²ÑģÑĤÐ²Ð": 7217,
      "protest": 7218,
      "mozg": 7219,
      "Ð¾Ð²Ð°ÐºÐ°Ð": 7220,
      "Ð´Ð°Ñ": 7221,
      "sluÅ¾benik": 7222,
      "zaposleno": 7223,
      "Å¡eÄĩer": 7224,
      "Ð¿ÑĢÐµÐ²Ð¸ÑĪÐ": 7225,
      "Ð½ÐµÐ¿ÑĢÐµÑģÑĤÐ°Ð½Ð": 7226,
      "konkretni": 7227,
      "ÐºÐ¾ÑĢÐ¸ÑģÐ½Ð¸Ð": 7228,
      "neophoda": 7229,
      "stari": 7230,
      "Ð¿Ð¾Ð³Ð¾ÑĤÐ¾Ð²Ð": 7231,
      "Ð¿ÑĢÐ¸Ð¿Ð°Ð´Ð½Ð¾ÑģÑ": 7232,
      "arterij": 7233,
      "nikak": 7234,
      "meÅ¡avin": 7235,
      "prerad": 7236,
      "nest": 7237,
      "znam": 7238,
      "Ð¾Ð¿ÐµÑĢÐ°ÑĤÐ¸Ð²Ð½Ð¾Ð": 7239,
      "ÑĥÑģÐ»Ð¾Ð²Ð½Ð": 7240,
      "Marij": 7241,
      "ÐĵÑĢÐ¸Ð³Ð¾ÑĢÐ¸ÑĺÐ": 7242,
      "britansk": 7243,
      "ÑģÐ°Ð¾Ð±ÑĢÐ°ÑĽÐ°ÑĺÐ½Ð": 7244,
      "Sv": 7245,
      "Ð´ÑĥÐ": 7246,
      "ÑģÐ¼Ð°ÑļÐµÐ½Ð": 7247,
      "jugoslovensko": 7248,
      "Ð¸Ð½ÑĤÐµÑĢÐµÑģÑ": 7249,
      "Ð¼Ð°ÑĴÐ°ÑĢÑģÐºÐ": 7250,
      "subjekat": 7251,
      "poveza": 7252,
      "Ð¿ÑĢÐ¸Ð¼ÐµÑĤÐ¸ÑĤÐ": 7253,
      "zaÅ¡titn": 7254,
      "Ð´Ð¸Ð½Ð°Ð¼Ð¸ÐºÐ": 7255,
      "ÐļÐ°Ð½Ð°Ð´Ð": 7256,
      ".Ð¡Ð»Ð¸ÑĩÐ½Ð": 7257,
      "Ð¸Ð»ÑĥÑģÑĤÑĢÐ°ÑĨÐ¸ÑĺÐ": 7258,
      "gradnj": 7259,
      "Ð¿ÑĢÐ¸ÑĺÐ°Ð²Ð": 7260,
      "organizator": 7261,
      "ÐŁÐ¾ÑĪÑĤÐ": 7262,
      ".2.": 7263,
      "hroniÄįn": 7264,
      "184": 7265,
      "ÐĴÑĢÑħÐ¾Ð²Ð½Ð¾Ð": 7266,
      "Veliko": 7267,
      "karakteristiÄįni": 7268,
      "opÅ¡ti": 7269,
      "Ð¾Ð³ÑĢÐ°Ð½Ð¸ÑĩÐ°Ð²Ð": 7270,
      "/0": 7271,
      "prilo": 7272,
      "sistemsk": 7273,
      "konfiguracij": 7274,
      "kliniÄįki": 7275,
      "Ð¸Ð·Ð³Ð»ÐµÐ": 7276,
      "Ð»Ð¾ÐºÐ°Ð»Ð½Ð¸Ð": 7277,
      "Ð¾ÑĨÐµÑļÐ¸Ð²Ð°ÑļÐ": 7278,
      "prihvaÄĩen": 7279,
      "Analiz": 7280,
      "Ð¿ÑĢÐµÑģÐµÐºÐ": 7281,
      "zavrÅ¡av": 7282,
      "Å¡ampion": 7283,
      "ÐºÐ¾Ð¼ÐµÐ½ÑĤÐ°ÑĢÐ": 7284,
      "Ð¾Ð±ÐµÐ»ÐµÐ¶ÐµÐ½Ð": 7285,
      "Ð¿Ð¾ÑģÑĤÑĢÐ¾ÑĺÐµÑļÐ": 7286,
      "ÑĢÐ¾ÐºÑ": 7287,
      "ÑĦÐ¸Ð½Ð°Ð½ÑģÐ¸ÑĺÑģÐºÐ¸Ð": 7288,
      "laboratorijsk": 7289,
      "ÐºÐ¾Ð½ÑģÑĤÐ°Ð½ÑĤÐ": 7290,
      "suprotno": 7291,
      "ÑĩÐ²ÑĢÑģÑĤÐ": 7292,
      "Ð¾Ð½ÑĤÐ¾Ð»Ð¾Ð³Ð¸ÑĺÐ": 7293,
      "Ð½Ð°ÑģÐ»Ð¾Ð²Ð": 7294,
      "postigl": 7295,
      "Ð¾Ð¼Ð¾Ð³ÑĥÑĽÐ": 7296,
      "oznak": 7297,
      "Ð¸Ð½ÑģÑĤÐ¸ÑĤÑĥÑĨÐ¸Ð¾Ð½Ð°Ð»Ð½Ð¾Ð": 7298,
      "Ð¸Ð·Ð´Ð°Ð²Ð°ÑļÐ": 7299,
      "Postoj": 7300,
      "ÐĴÐ¸Ð´ÐµÑĤÐ": 7301,
      "Ð¿Ð°ÑĢÐ°Ð¼ÐµÑĤÐ°Ñ": 7302,
      "elektrod": 7303,
      "razvojn": 7304,
      "Ð´ÐµÐ²ÐµÑ": 7305,
      "Ð¼Ð°ÑĤÐµÐ¼Ð°ÑĤÐ¸ÐºÐ": 7306,
      "Ð¼Ð¸ÑĪÐ¸ÑĽÐ": 7307,
      "marketing": 7308,
      "Ð¼ÑĥÑĪÐºÐ¾Ð": 7309,
      "kratko": 7310,
      "Ð³ÑĢÐ°Ð¼Ð°ÑĤÐ¸ÑĩÐºÐ": 7311,
      "Ð¸Ð³ÑĢÐ°Ð": 7312,
      "Ð´Ð¸Ð½Ð°Ð¼Ð¸ÑĩÐºÐ": 7313,
      "kilogram": 7314,
      "utisa": 7315,
      "Ð¸Ð½ÑĦÐ¾ÑĢÐ¼Ð°ÑĨÐ¸ÑĺÑ": 7316,
      "Ð½Ð°ÑĨÐ¸Ð¾Ð½Ð°Ð»Ð½Ñ": 7317,
      "razum": 7318,
      "ÐºÐ¾Ð¼ÐµÐ´Ð¸ÑĺÐ": 7319,
      "Ð¿ÑĢÐ¾ÑĥÑĩÐ°Ð²Ð°ÑļÑ": 7320,
      "licenc": 7321,
      "organizoval": 7322,
      "Ð¿Ð¾Ð²ÐµÐ·Ð°Ð½Ð¸Ñ": 7323,
      "poreklo": 7324,
      "instrumen": 7325,
      "Ð¾Ð±ÑĢÐ°Ð·Ð»Ð¾Ð¶ÐµÑļÐ": 7326,
      ".SadrÅ¾a": 7327,
      "Ð½ÐµÐ¼Ð°ÑĩÐºÐ¸Ñ": 7328,
      "Ð¿ÑĢÐ¸ÑĤÐ¸ÑģÐºÐ¾Ð": 7329,
      "ÐºÐ¾Ð¼Ð¿Ð»ÐµÐºÑ": 7330,
      "ÑģÐ°Ð²ÑĢÐµÐ¼ÐµÐ½Ð¾Ñ": 7331,
      "ÑĢÐ¾Ð±Ð": 7332,
      "Ð²ÑĢÑģÑĤÐ°Ð¼Ð": 7333,
      "urad": 7334,
      "Ð½Ð¾Ð²Ð¸Ð½Ð°ÑĢÐ": 7335,
      "nastava": 7336,
      "ÐŁÐµÑĤÑĢÐ": 7337,
      "prekid": 7338,
      "tolerancij": 7339,
      "ÑĢÐµÐ´ÑĥÐºÑĨÐ¸ÑĺÐ": 7340,
      "ÑĪÑĤÐµÑĤÑ": 7341,
      "(Ð½Ð": 7342,
      "ÑĢÐ°Ð´Ð¸ÐºÐ°Ð»Ð": 7343,
      "parameta": 7344,
      "Ð¿ÑĢÐ¸Ð²Ð°ÑĤÐ½Ð¸Ñ": 7345,
      "dinamik": 7346,
      "ÑĥÐ·ÑĢÐ¾Ð": 7347,
      "Ð·Ð½Ð°ÐºÐ¾Ð²Ð": 7348,
      "ÑģÐºÐ»Ð¾Ð¿Ñ": 7349,
      ".Njegov": 7350,
      "nauÄįno": 7351,
      "ÐºÐ¾Ð½ÑģÑĤÐ°ÑĤÐ¾Ð²Ð°Ð½Ð": 7352,
      "ÐºÑĥÐ¿Ð¾Ð²Ð¸Ð½Ð": 7353,
      "Ð·Ð½Ð": 7354,
      "novin": 7355,
      "nezaposlenost": 7356,
      "Ð³ÑĢÑĩÐºÐ¾Ð": 7357,
      "Drug": 7358,
      "Ð²Ð¸Ð·Ð°Ð½ÑĤÐ¸ÑĺÑģÐºÐ¾Ð": 7359,
      "Ð½Ð°ÑĺÐ±Ð¾ÑĻÐ¸Ñ": 7360,
      "Ð¿ÑĢÐ¾Ð½Ð°Ð»Ð°Ð·Ð": 7361,
      "Uprav": 7362,
      "trak": 7363,
      "ÐµÐ²Ð¸Ð´ÐµÐ½ÑĨÐ¸ÑĺÐ": 7364,
      "ÑĥÐºÑĥÐ¿Ð°Ð": 7365,
      "opravdan": 7366,
      "Ð´ÐµÐ»ÑĥÑĺÑ": 7367,
      "epizod": 7368,
      "ÐĶÑĥÐ½Ð°Ð²Ð": 7369,
      "otkriv": 7370,
      "govorim": 7371,
      "ÑģÐ²Ð¾Ð³Ð": 7372,
      "Ð½Ð¾Ð²Ð°Ñ": 7373,
      "Ð°Ð»Ð±ÑĥÐ¼Ð": 7374,
      "pokuÅ¡al": 7375,
      "ÑģÐ¸Ð": 7376,
      "ÑĢÐµÐ·ÑĥÐ»ÑĤÐ¸ÑĢÐ°Ð»Ð": 7377,
      "formulacij": 7378,
      "Ð´Ð²Ð¾ÑĺÐ¸ÑĨÐ": 7379,
      "programim": 7380,
      "ÑĤÑĢÐµÑĤÐ¸ÑĢÐ°Ð½Ð": 7381,
      "ÐĹÐ°ÐºÐ¾Ð½Ð¾Ð": 7382,
      "prvobitn": 7383,
      "dobije": 7384,
      "ÐŁÑĢÐ¸ÑĪÑĤÐ¸Ð½Ð": 7385,
      "Ð¸ÑģÑĤÐ¾Ñ": 7386,
      "gran": 7387,
      "grejanj": 7388,
      "univerzaln": 7389,
      "Ð¿Ð¾ÑĤÐ¿ÑĥÐ½Ð¾Ð": 7390,
      "fudbaler": 7391,
      "analitiÄįk": 7392,
      "ÑģÐ»Ð°Ð²Ð": 7393,
      "ÑĥÐ´Ð°ÑĻÐµÐ½Ð¾ÑģÑĤÐ": 7394,
      "ÐºÐ¾Ð½ÑĤÑĢÐ¾Ð»Ð¸ÑĪÐ": 7395,
      "Äįuvanj": 7396,
      "Ð¿Ð¾Ð´ÑģÑĤÐ¸ÑĩÐ": 7397,
      "ÐĴÐ°ÑģÐ¸Ð»Ð¸ÑĺÐ": 7398,
      "Ð½Ð°Ð¿ÑĥÑģÑĤÐ¸Ð": 7399,
      "Å¾eljen": 7400,
      "Ð¿ÑĢÐ²Ñ": 7401,
      "Ð±ÑĥÐ´ÑĥÑĽÐµÐ": 7402,
      "jednostava": 7403,
      "povlaÄįenj": 7404,
      "ÐºÐ°Ð¿Ð¸ÑĤÐ°Ð": 7405,
      "ÑĺÐ°ÑĩÐ°ÑļÐ": 7406,
      "izvrÅ¡": 7407,
      "ÐºÑĢÐ¸Ð»Ð": 7408,
      "granicam": 7409,
      "Äįetvrta": 7410,
      "Interne": 7411,
      "ÑĤÐµÐ¾ÑĢÐ¸ÑĺÑģÐºÐ¸Ñ": 7412,
      "Ð¾Ð´ÑĢÐ°Ð¶Ð°Ð²Ð": 7413,
      "Ð¡ÑĤÑĢÐ°ÑĤÐµÐ³Ð¸ÑĺÐ": 7414,
      "matematiÄįk": 7415,
      "Ð¿ÑĢÐµÐ²Ð°Ð·Ð¸Ð»Ð°Ð¶ÐµÑļÐ": 7416,
      "tajn": 7417,
      "ÑĢÐ¾Ð": 7418,
      "Ð´Ð¾Ð¶Ð¸Ð²ÑĻÐ°Ð²Ð": 7419,
      "proliferacij": 7420,
      "Ð³Ð»Ð°Ð³Ð¾Ð»Ð¸Ð¼Ð": 7421,
      "Ð½Ð°ÑĪÐ¸Ñ": 7422,
      "Ð¿ÐµÑģÐ¼Ð°Ð¼Ð": 7423,
      "obrasc": 7424,
      "pojedinaÄįno": 7425,
      "ÑĨÑĢÐºÐ²ÐµÐ½Ð¾Ð": 7426,
      "Ð¸Ð½Ð¾ÑģÑĤÑĢÐ°Ð½ÑģÑĤÐ²Ð": 7427,
      "Ð¼Ð°ÑĤÐµÑĢÐ¸ÑĺÐ°Ð»Ð½Ð¸Ñ": 7428,
      "ÐµÐºÐ¾Ð½Ð¾Ð¼ÑģÐºÑ": 7429,
      "jedinstveno": 7430,
      "Ð½Ð°Ð´Ð»ÐµÐ¶Ð½Ð¾Ð": 7431,
      "Ð¾Ð³ÑĢÐ°Ð½Ð¸ÑĩÐµÐ": 7432,
      "Ð¿ÑĢÐ¸ÐºÐ°Ð·ÑĥÑĺÑ": 7433,
      "predsedniko": 7434,
      "dijagnostiÄįk": 7435,
      "pomenuto": 7436,
      "Ð¿ÑĢÐµÐ´Ð»Ð°Ð¶Ð": 7437,
      "ÑĢÐ°Ð·Ð»Ð¸ÐºÐ¾Ð²Ð°ÑļÐ": 7438,
      "Ð³ÐµÐ½ÐµÑĢÐ°Ð»Ð½Ð¾Ð": 7439,
      ".ÐĿÐµÐºÐ": 7440,
      "ÐĶÐ¸ÑģÑĨÐ¸Ð¿Ð»Ð¸Ð½Ð": 7441,
      "Ð¾Ð±ÑĺÐ°Ð²ÑĻÑĥÑĺÐ": 7442,
      "Ð¸Ð½ÑģÑĤÑĢÑĥÐºÑĨÐ¸ÑĺÐ": 7443,
      "ÑĢÐ°Ð´Ð¸ÐºÐ°Ð»Ð½Ð": 7444,
      "ÑĥÑģÐ¿Ð¾ÑģÑĤÐ°Ð²ÑĻÐ°ÑļÑ": 7445,
      "aktivno": 7446,
      "protei": 7447,
      "Ð·Ð°Ð²ÑĢÑĪÐµÑĤÐºÑ": 7448,
      "parametrim": 7449,
      "Ð´ÑĥÑħÐ¾Ð²Ð½Ð¾Ð": 7450,
      "istakl": 7451,
      "boravk": 7452,
      "Å¾ivotni": 7453,
      "Ð¿ÑĢÐ¸ÑħÐ²Ð°ÑĤÑĻÐ¸Ð²Ð": 7454,
      "dozvoljav": 7455,
      "Ð±Ð¸ÑĤÐºÐ": 7456,
      "%)": 7457,
      "Ð½Ð°Ð¼ÐµÐ½Ð": 7458,
      "ravnopravnost": 7459,
      "Ð±Ð»Ð°Ð³Ð": 7460,
      "ÑĥÑģÐ¿ÐµÑĪÐ½Ð¾ÑģÑĤÐ": 7461,
      "ÐŁÐ¾Ð»Ð¸ÑĤÐ¸ÐºÐ": 7462,
      "alat": 7463,
      "(ÑĩÐ»Ð°Ð": 7464,
      "prostorijam": 7465,
      "Å¾ensko": 7466,
      "ÑģÐºÐ»Ð°Ð´Ð¸ÑĪÑĤÐµÑļÐ": 7467,
      "odgovoril": 7468,
      "Ð¿ÑĢÐ°Ð²Ð¾ÑģÐ»Ð°Ð²Ð½Ð¸Ñ": 7469,
      "Ð²Ð¸Ð": 7470,
      "ÑĢÐ°ÑģÑĤÐ¾ÑĺÐ°ÑļÐ": 7471,
      "Ð±Ð»Ð¸Ð¶Ð": 7472,
      "Ð²ÐµÐ·Ð°Ð½Ð¸Ñ": 7473,
      "blagostanj": 7474,
      "ÑģÐ¾Ð¿ÑģÑĤÐ²ÐµÐ½Ñ": 7475,
      "Rumunij": 7476,
      "neÄįij": 7477,
      "Ð°ÐºÑĤÐ¸Ð²Ð°ÑĨÐ¸ÑĺÐ": 7478,
      "NikoliÄ": 7479,
      "naÄįel": 7480,
      ".Kolik": 7481,
      "sugeriÅ¡": 7482,
      "osetljiv": 7483,
      "varijabilnost": 7484,
      "ÑģÑĤÐ¸ÑħÐ¾Ð²Ð": 7485,
      "Ð¾Ð¿Ð¸ÑģÑĥÑĺÑ": 7486,
      "Ð¿ÑĢÐ¾Ð³Ð»Ð°ÑĪÐµÐ½Ð": 7487,
      "Ð´Ð¾Ð´Ð°ÑĤÐ": 7488,
      "pokre": 7489,
      "ÐĹÐ°Ð³ÑĢÐµÐ±Ñ": 7490,
      "ÑģÑĤÐ°Ð²ÑĻÐ": 7491,
      "snimk": 7492,
      "9.": 7493,
      "Ð²ÑĢÑĪÐµÐ½Ð": 7494,
      "izazval": 7495,
      "inhibitor": 7496,
      "proizilaz": 7497,
      "Ð»ÐµÐ²Ð": 7498,
      "Ð¸ÑģÐ¿ÑĥÑļÐµÐ½Ð": 7499,
      "ÄĲorÄĳeviÄ": 7500,
      "pisa": 7501,
      "graÄĳevinarstv": 7502,
      "rado": 7503,
      "Ð°ÑģÐ¿ÐµÐºÑĤÐ¸Ð¼Ð": 7504,
      "kvadrat": 7505,
      "ÑģÑĥÐ´ÑģÐºÐ¾Ð": 7506,
      "Pore": 7507,
      "izbeglic": 7508,
      "ÐķÑĤÐ½Ð¾Ð³ÑĢÐ°ÑĦÑģÐºÐ¾Ð": 7509,
      "ÑģÑĥÐ³ÐµÑĢÐ¸ÑĪÐ": 7510,
      "odrÅ¾a": 7511,
      "Moskv": 7512,
      "Ð¼Ð¾Ð´ÐµÑĢÐ½Ð¸Ð·Ð°ÑĨÐ¸ÑĺÐ": 7513,
      "Ð±Ð¸Ð±Ð»Ð¸Ð¾Ð³ÑĢÐ°ÑĦÐ¸ÑĺÐ": 7514,
      "PopoviÄ": 7515,
      "ÑĥÐºÐ°Ð·Ð°Ð»Ð": 7516,
      "sliÄįnost": 7517,
      "ÑģÑĤÐ": 7518,
      "Ð¸Ð·Ð°Ð·Ð²Ð°Ð½Ð": 7519,
      "omoguÄĩuj": 7520,
      "jezer": 7521,
      "ÑģÐ¼Ð¸ÑģÐ»Ð": 7522,
      "Ð¿ÑĢÐ¸Ð¼ÐµÑĢÐ°ÐºÐ": 7523,
      "postavljeni": 7524,
      "ÑĤÑĢÐ°Ð´Ð¸ÑĨÐ¸Ð¾Ð½Ð°Ð»Ð½Ð¸Ð": 7525,
      "ÑģÑĢÐµÐ´ÑļÐ¾Ð²ÐµÐºÐ¾Ð²Ð½Ð¾Ð": 7526,
      "Ð´ÑĢÑĥÑĪÑĤÐ²ÐµÐ½Ñ": 7527,
      "participacij": 7528,
      "rezerv": 7529,
      "kupc": 7530,
      "princi": 7531,
      "Ð¿ÑĢÐµÐ´ÑĥÐ·Ð¸Ð¼Ð°ÑļÐ": 7532,
      "ÐĳÐ¸Ð±Ð»Ð¸Ð¾ÑĤÐµÐºÐ": 7533,
      "ÑĥÐºÑĥÐ¿Ð½Ð¸Ñ": 7534,
      "nepoznat": 7535,
      "Ð¿Ð¾ÑģÑĤÐ¸ÑĽÐ": 7536,
      "Ð´ÐµÑĨÐµÐ½ÑĤÑĢÐ°Ð»Ð¸Ð·Ð°ÑĨÐ¸ÑĺÐ": 7537,
      "Ð¿Ð¾ÐµÐ½Ð": 7538,
      "praÅ¾njenj": 7539,
      "Ð¶ÐµÐ»ÐµÐ·Ð½Ð¸ÑĩÐºÐ": 7540,
      "Ð±Ð°Ð·Ð¸ÑĢÐ°Ð½Ð": 7541,
      "mad": 7542,
      "Ð´ÐµÑĨÐµÐ½Ð¸ÑĺÐ°Ð¼Ð": 7543,
      "scenarij": 7544,
      "najveÄĩo": 7545,
      "ÐµÐ»ÐµÐºÑĤÑĢÐ¸ÑĩÐ½Ð¾Ð": 7546,
      "Ð´Ð¾ÐºÑĤÑĢÐ¸Ð½Ð": 7547,
      "ÐļÐ¾Ð¼ÑĥÐ½Ð¸ÑģÑĤÐ¸ÑĩÐºÐ": 7548,
      "proveren": 7549,
      "Äįinil": 7550,
      "brÅ¾": 7551,
      "suÄĳenj": 7552,
      "izgraÄĳen": 7553,
      "Ð·Ð°ÑĥÐ·ÐµÐ»Ð": 7554,
      "ÑĥÑģÐ»ÐµÐ´Ð¸Ð»Ð": 7555,
      "blag": 7556,
      "Ð¿Ð¾ÑĺÐµÐ´Ð¸Ð½Ð°ÑĩÐ½Ð¸Ð": 7557,
      "Ð¾ÑģÐ½Ð¾Ð²Ð½Ñ": 7558,
      "Ð´ÐµÐºÐ»Ð°ÑĢÐ°ÑĨÐ¸ÑĺÐ": 7559,
      "ÄįoveÄįanstv": 7560,
      "Narodno": 7561,
      "RepubliÄįko": 7562,
      "ÑĤÐµÐ¶ÑļÐ": 7563,
      "sliÄįa": 7564,
      "Åłt": 7565,
      "ovog": 7566,
      "ÑĦÑĥÐ½ÐºÑĨÐ¸Ð¾Ð½Ð¸ÑģÐ°ÑļÑ": 7567,
      "termi": 7568,
      "ÑĦÐ¸Ð·Ð¸ÑĩÐºÐ¸Ñ": 7569,
      "183": 7570,
      "vertikaln": 7571,
      "Ð½ÐµÐ¾Ð¿ÑħÐ¾Ð´Ð°Ð": 7572,
      "Ð¿Ð¾Ð½Ð°ÑĪÐ°ÑļÑ": 7573,
      "ÑĤÐµÐ¼Ñ": 7574,
      "ÑĥÐ·Ð¾ÑĢÐ°Ð": 7575,
      "ÑĩÐ°ÑģÐ¾Ð¿Ð¸Ñ": 7576,
      "ÑĥÐ³ÑĢÐ¾Ð¶ÐµÐ½Ð": 7577,
      "ÐºÐ¾Ð½ÑĤÐ°ÐºÑ": 7578,
      "specifiÄįno": 7579,
      "ÑĥÑĢÐ°ÑĴÐµÐ½Ð": 7580,
      "ÑħÑĢÐ²Ð°ÑĤÑģÐºÐ¾Ð": 7581,
      "ÑĤÑĢÐ°Ð½ÑģÐ¿Ð¾ÑĢÑ": 7582,
      "Ð²ÑĢÐ¸ÑĺÐµÐ´Ð½Ð¾ÑģÑĤÐ": 7583,
      "onlin": 7584,
      "pojm": 7585,
      "stabilizacij": 7586,
      "Äįlano": 7587,
      "Centr": 7588,
      "Ð¾Ð´ÑĢÐ°ÑģÐ»Ð¸Ñ": 7589,
      "Ð¡Ð°Ð²ÑĢÐµÐ¼ÐµÐ½Ð": 7590,
      "navijaÄį": 7591,
      "Ð¿Ð¾Ð²ÐµÑĽÐ°Ð": 7592,
      "ÑĢÑĥÐºÐ¾Ð¿Ð¸ÑģÐ": 7593,
      "ÑĥÐ¼ÐµÑĤÐ½Ð¸ÑĩÐºÐ¸Ñ": 7594,
      "bezbednosn": 7595,
      "ÑĺÐµÐ´Ð¸Ð½ÑģÑĤÐ²ÐµÐ": 7596,
      "regionalni": 7597,
      "ÑģÐ¿Ð¾ÑĻÐ°ÑĪÑļÐµÐ": 7598,
      "Ð¿Ð¾Ð·Ð½Ð°ÑĤÐ¾Ð": 7599,
      "ÑĥÑģÑĤÐ°Ð²Ð½Ð": 7600,
      "koalicij": 7601,
      "Partiza": 7602,
      "zanimanj": 7603,
      "nedeljn": 7604,
      "publikacij": 7605,
      "Ð¾ÑģÑĤÐ²Ð°ÑĢÐ¸Ð²Ð°ÑļÑ": 7606,
      ".VeÄĩin": 7607,
      "ÐºÐ¾Ð½Ð°ÑĩÐ½Ð¾Ð": 7608,
      "(eng": 7609,
      "ÐĴÐµÐ»Ð¸ÐºÐ¾Ñ": 7610,
      "sindikat": 7611,
      "zakljuÄįi": 7612,
      "Ð³ÐµÐ¾Ð³ÑĢÐ°ÑĦÐ¸ÑĺÐ": 7613,
      "Ð¿ÑĢÐµÐ´ÑĥÐ·ÐµÑĤÐ": 7614,
      "utvrd": 7615,
      "intere": 7616,
      "mutacij": 7617,
      "automobi": 7618,
      "realno": 7619,
      "ÑĥÑĤÐ¸ÑĨÐ°ÑĺÑ": 7620,
      "Ð´Ð¾Ð¼Ð°ÑĽÐ¸Ð½ÑģÑĤÐ°Ð²Ð": 7621,
      "Ð¾Ð¿ÑģÑĤÐ°Ð½Ð°Ð": 7622,
      "ÐºÐ¾Ð½ÐºÑĢÐµÑĤÐ½Ð¸Ñ": 7623,
      "poen": 7624,
      "ÐºÐ¾Ð¼Ð°Ð½Ð´Ð": 7625,
      "Ð¿Ð¾Ð»ÑĥÐ¾ÑģÑĤÑĢÐ²Ð": 7626,
      ".Zakon": 7627,
      "umetniÄįko": 7628,
      "Ð¸ÑģÑĤÐ¾ÑĢÐ¸ÑĩÐ°Ñ": 7629,
      "unapreÄĳivanj": 7630,
      "Ð³Ð¾Ð²Ð¾ÑĢÐ½Ð¾Ð": 7631,
      "ÑĢÐµÐ³Ð¸ÑĺÐ": 7632,
      "prikazani": 7633,
      "Ð¼Ð»Ð°ÑĴÐ": 7634,
      "Tursk": 7635,
      "Ð¿ÑĢÐ¾ÑģÑĤÐ": 7636,
      "manipulacij": 7637,
      "specijalizacij": 7638,
      "oÅ¡teÄĩen": 7639,
      "vaÅ¾ni": 7640,
      "Ð¡Ð¾Ð²ÑĺÐµÑĤÑģÐºÐ": 7641,
      "intern": 7642,
      "ÐĿÐ¸ÑĪÑ": 7643,
      "Ð¼Ð°ÑĢÐºÐµÑĢÐ": 7644,
      "samopouzdanj": 7645,
      "pad": 7646,
      "telefo": 7647,
      ".Ist": 7648,
      "Ð½ÑĥÐ´Ð": 7649,
      "0,0": 7650,
      "ÐľÐµÑģÑĤÐ": 7651,
      "preno": 7652,
      "ÑģÐ¼ÐµÑĢÐ½Ð¸ÑĨÐ": 7653,
[...]
