{
  "version": "1.0",
  "truncation": null,
  "padding": null,
  "added_tokens": [
    {
      "id": 0,
      "content": "[PAD]",
      "single_word": false,
      "lstrip": false,
      "rstrip": false,
      "normalized": false,
      "special": true
    },
    {
      "id": 1,
      "content": "[UNK]",
      "single_word": false,
      "lstrip": false,
      "rstrip": false,
      "normalized": false,
      "special": true
    },
    {
      "id": 2,
      "content": "[CLS]",
      "single_word": false,
      "lstrip": false,
      "rstrip": false,
      "normalized": false,
      "special": true
    },
    {
      "id": 3,
      "content": "[SEP]",
      "single_word": false,
      "lstrip": false,
      "rstrip": false,
      "normalized": false,
      "special": true
    },
    {
      "id": 4,
      "content": "[MASK]",
      "single_word": false,
      "lstrip": false,
      "rstrip": false,
      "normalized": false,
      "special": true
    }
  ],
  "normalizer": null,
  "pre_tokenizer": {
    "type": "ByteLevel",
    "add_prefix_space": false,
    "trim_offsets": true,
    "use_regex": true
  },
  "post_processor": null,
  "decoder": null,
  "model": {
    "type": "BPE",
    "dropout": null,
    "unk_token": null,
    "continuing_subword_prefix": null,
    "end_of_word_suffix": null,
    "fuse_unk": false,
    "byte_fallback": false,
    "ignore_merges": true,
    "vocab": {
      "[PAD]": 0,
      "[UNK]": 1,
      "[CLS]": 2,
      "[SEP]": 3,
      "[MASK]": 4,
      "!": 5,
      "\"": 6,
      "#": 7,
      "$": 8,
      "%": 9,
      "&": 10,
      "'": 11,
      "(": 12,
      ")": 13,
      "*": 14,
      "+": 15,
      ",": 16,
      "-": 17,
      ".": 18,
      "/": 19,
      "0": 20,
      "1": 21,
      "2": 22,
      "3": 23,
      "4": 24,
      "5": 25,
      "6": 26,
      "7": 27,
      "8": 28,
      "9": 29,
      ":": 30,
      ";": 31,
      "<": 32,
      "=": 33,
      ">": 34,
      "?": 35,
      "@": 36,
      "A": 37,
      "B": 38,
      "C": 39,
      "D": 40,
      "E": 41,
      "F": 42,
      "G": 43,
      "H": 44,
      "I": 45,
      "J": 46,
      "K": 47,
      "L": 48,
      "M": 49,
      "N": 50,
      "O": 51,
      "P": 52,
      "Q": 53,
      "R": 54,
      "S": 55,
      "T": 56,
      "U": 57,
      "V": 58,
      "W": 59,
      "X": 60,
      "Y": 61,
      "Z": 62,
      "[": 63,
      "\\": 64,
      "]": 65,
      "^": 66,
      "_": 67,
      "`": 68,
      "a": 69,
      "b": 70,
      "c": 71,
      "d": 72,
      "e": 73,
      "f": 74,
      "g": 75,
      "h": 76,
      "i": 77,
      "j": 78,
      "k": 79,
      "l": 80,
      "m": 81,
      "n": 82,
      "o": 83,
      "p": 84,
      "q": 85,
      "r": 86,
      "s": 87,
      "t": 88,
      "u": 89,
      "v": 90,
      "w": 91,
      "x": 92,
      "y": 93,
      "z": 94,
      "{": 95,
      "|": 96,
      "}": 97,
      "~": 98,
      "¡": 99,
      "¢": 100,
      "£": 101,
      "¤": 102,
      "¥": 103,
      "¦": 104,
      "§": 105,
      "¨": 106,
      "©": 107,
      "ª": 108,
      "«": 109,
      "¬": 110,
      "®": 111,
      "¯": 112,
      "°": 113,
      "±": 114,
      "²": 115,
      "³": 116,
      "´": 117,
      "µ": 118,
      "¶": 119,
      "·": 120,
      "¸": 121,
      "¹": 122,
      "º": 123,
      "»": 124,
      "¼": 125,
      "½": 126,
      "¾": 127,
      "¿": 128,
      "À": 129,
      "Á": 130,
      "Â": 131,
      "Ã": 132,
      "Ä": 133,
      "Å": 134,
      "Æ": 135,
      "Ç": 136,
      "È": 137,
      "É": 138,
      "Ê": 139,
      "Ë": 140,
      "Ì": 141,
      "Í": 142,
      "Î": 143,
      "Ï": 144,
      "Ð": 145,
      "Ñ": 146,
      "Ò": 147,
      "Ó": 148,
      "Ô": 149,
      "Õ": 150,
      "Ö": 151,
      "×": 152,
      "Ø": 153,
      "Ù": 154,
      "Ú": 155,
      "Û": 156,
      "Ü": 157,
      "Ý": 158,
      "Þ": 159,
      "ß": 160,
      "à": 161,
      "á": 162,
      "â": 163,
      "ã": 164,
      "ä": 165,
      "å": 166,
      "æ": 167,
      "ç": 168,
      "è": 169,
      "é": 170,
      "ê": 171,
      "ë": 172,
      "ì": 173,
      "í": 174,
      "î": 175,
      "ï": 176,
      "ð": 177,
      "ñ": 178,
      "ò": 179,
      "ó": 180,
      "ô": 181,
      "õ": 182,
      "ö": 183,
      "÷": 184,
      "ø": 185,
      "ù": 186,
      "ú": 187,
      "û": 188,
      "ü": 189,
      "ý": 190,
      "þ": 191,
      "ÿ": 192,
      "Ā": 193,
      "ā": 194,
      "Ă": 195,
      "ă": 196,
      "Ą": 197,
      "ą": 198,
      "Ć": 199,
      "ć": 200,
      "Ĉ": 201,
      "ĉ": 202,
      "Ċ": 203,
      "ċ": 204,
      "Č": 205,
      "č": 206,
      "Ď": 207,
      "ď": 208,
      "Đ": 209,
      "đ": 210,
      "Ē": 211,
      "ē": 212,
      "Ĕ": 213,
      "ĕ": 214,
      "Ė": 215,
      "ė": 216,
      "Ę": 217,
      "ę": 218,
      "Ě": 219,
      "ě": 220,
      "Ĝ": 221,
      "ĝ": 222,
      "Ğ": 223,
      "ğ": 224,
      "Ġ": 225,
      "ġ": 226,
      "Ģ": 227,
      "ģ": 228,
      "Ĥ": 229,
      "ĥ": 230,
      "Ħ": 231,
      "ħ": 232,
      "Ĩ": 233,
      "ĩ": 234,
      "Ī": 235,
      "ī": 236,
      "Ĭ": 237,
      "ĭ": 238,
      "Į": 239,
      "į": 240,
      "İ": 241,
      "ı": 242,
      "Ĳ": 243,
      "ĳ": 244,
      "Ĵ": 245,
      "ĵ": 246,
      "Ķ": 247,
      "ķ": 248,
      "ĸ": 249,
      "Ĺ": 250,
      "ĺ": 251,
      "Ļ": 252,
      "ļ": 253,
      "Ľ": 254,
      "ľ": 255,
      "Ŀ": 256,
      "ŀ": 257,
      "Ł": 258,
      "ł": 259,
      "Ń": 260,
      "Ġs": 261,
      "je": 262,
      "Ġp": 263,
      "na": 264,
      "Ġi": 265,
      "ra": 266,
      "ni": 267,
      "ko": 268,
      "no": 269,
      "st": 270,
      "Ġo": 271,
      "re": 272,
      "Ġd": 273,
      "Ġu": 274,
      "ja": 275,
      "Äį": 276,
      "va": 277,
      "li": 278,
      "ne": 279,
      "ri": 280,
      "ma": 281,
      "Å¡": 282,
      "ka": 283,
      "ti": 284,
      "Ġpo": 285,
      "ta": 286,
      "la": 287,
      "ro": 288,
      "Ġna": 289,
      "Ġje": 290,
      "ve": 291,
      "za": 292,
      "te": 293,
      "vo": 294,
      "ci": 295,
      "vi": 296,
      "me": 297,
      "Ġko": 298,
      "Äĩ": 299,
      "ju": 300,
      "Å¾": 301,
      "to": 302,
      "ji": 303,
      "Ġb": 304,
      "lo": 305,
      "Ġda": 306,
      "Ġza": 307,
      "mo": 308,
      "di": 309,
      "Ġse": 310,
      "le": 311,
      "nje": 312,
      "da": 313,
      "Ġa": 314,
      "Ġsa": 315,
      "Ġod": 316,
      "ru": 317,
      "Ġg": 318,
      "sti": 319,
      "ki": 320,
      "de": 321,
      "Ġne": 322,
      "nja": 323,
      "Ġdo": 324,
      "Ġsu": 325,
      "sta": 326,
      "Ġka": 327,
      "mi": 328,
      "ku": 329,
      "Ġra": 330,
      "âĢ": 331,
      "zi": 332,
      "Ġpre": 333,
      "Ġpro": 334,
      "ke": 335,
      "Ġiz": 336,
      "Äĳ": 337,
      "Ġ(": 338,
      "nu": 339,
      "po": 340,
      "ce": 341,
      "Ġpri": 342,
      "tu": 343,
      "go": 344,
      "Ġ1": 345,
      "ĠS": 346,
      "si": 347,
      "Äįi": 348,
      "Ġbi": 349,
      "ga": 350,
      "Ġmo": 351,
      "Äįe": 352,
      "Ġre": 353,
      "nih": 354,
      "bi": 355,
      "sa": 356,
      "Äĩe": 357,
      "Ġk": 358,
      "se": 359,
      "Ġt": 360,
      "Å¾e": 361,
      "lu": 362,
      "nog": 363,
      "Ġe": 364,
      "Ġf": 365,
      "ca": 366,
      "Ġz": 367,
      "pa": 368,
      "Ġ2": 369,
      "Ġve": 370,
      "Ġde": 371,
      "ba": 372,
      "Äįa": 373,
      "Ġme": 374,
      "du": 375,
      "sto": 376,
      "Ġte": 377,
      "ski": 378,
      "lja": 379,
      "ĠP": 380,
      "ĠâĢ": 381,
      "Å¾i": 382,
      "pi": 383,
      "sko": 384,
      "ĠÅ¡": 385,
      "Ġkoji": 386,
      "lje": 387,
      "Ġv": 388,
      "nom": 389,
      "Ġto": 390,
      "cija": 391,
      "Ġni": 392,
      "pe": 393,
      "cije": 394,
      "or": 395,
      "Ġob": 396,
      "ĠM": 397,
      "nosti": 398,
      "Å¡e": 399,
      "Ġin": 400,
      "tra": 401,
      "gu": 402,
      "ĠB": 403,
      "do": 404,
      "Ġgo": 405,
      "Ġma": 406,
      "Äĳe": 407,
      "Äĩi": 408,
      "Ġraz": 409,
      "nim": 410,
      "be": 411,
      "nji": 412,
      "gi": 413,
      "red": 414,
      "Å¾a": 415,
      "mu": 416,
      "Ġkao": 417,
      "gra": 418,
      "su": 419,
      "ĠK": 420,
      "Ġpa": 421,
      "bo": 422,
      "Ġta": 423,
      "nju": 424,
      "Ġsta": 425,
      "tiv": 426,
      "Ġvi": 427,
      "00": 428,
      "Äĩa": 429,
      "Ġ,": 430,
      "ze": 431,
      "ho": 432,
      "so": 433,
      "lju": 434,
      "jo": 435,
      "ĠD": 436,
      "fi": 437,
      "ĠN": 438,
      "ĠA": 439,
      "ste": 440,
      "zu": 441,
      "Ġsi": 442,
      "nost": 443,
      "vr": 444,
      "..": 445,
      "pu": 446,
      "ĠR": 447,
      "Ġpra": 448,
      "ske": 449,
      "Ġdru": 450,
      "vu": 451,
      "Ġgodi": 452,
      "Ġli": 453,
      "ge": 454,
      "ĠV": 455,
      "ĠI": 456,
      "sno": 457,
      "Ġsve": 458,
      "vanje": 459,
      "Ġdi": 460,
      "zo": 461,
      "Ġkon": 462,
      "Å¡a": 463,
      "Ġ.": 464,
      "Äĳu": 465,
      "Ġili": 466,
      "Ġh": 467,
      "stav": 468,
      "ĠT": 469,
      "Ġmi": 470,
      "Ġpred": 471,
      "vanja": 472,
      ").": 473,
      "men": 474,
      "Ġkoje": 475,
      "''": 476,
      "ĠÅ¡to": 477,
      "Ġis": 478,
      "Ġima": 479,
      "kom": 480,
      "Å¡i": 481,
      "Ġ19": 482,
      "lj": 483,
      "lji": 484,
      "Ġno": 485,
      "Ġpos": 486,
      "ĠâĢŀ": 487,
      "Ġzna": 488,
      "nika": 489,
      "Ġva": 490,
      "stu": 491,
      "Ġus": 492,
      "Ġpe": 493,
      "ĠÉ": 494,
      "Ġsvo": 495,
      "ĠO": 496,
      "cio": 497,
      "Ġm": 498,
      "Ġst": 499,
      "Ġvo": 500,
      "Ġpod": 501,
      "Äįki": 502,
      "ĠU": 503,
      "Ġnaj": 504,
      "ska": 505,
      "ĠG": 506,
      "rÅ¾a": 507,
      "Ġodno": 508,
      "Ġ20": 509,
      "pre": 510,
      "ĠÄĩe": 511,
      "ĠE": 512,
      "skog": 513,
      "ar": 514,
      "âĢľ": 515,
      "Ġja": 516,
      "Ġ3": 517,
      "rija": 518,
      "nt": 519,
      "pra": 520,
      "Äįu": 521,
      "),": 522,
      "Ġtre": 523,
      "fe": 524,
      "ĠL": 525,
      "Ġpot": 526,
      "Ġgra": 527,
      "Ġnje": 528,
      "ĠC": 529,
      "dno": 530,
      "Ġgodine": 531,
      "Éļ": 532,
      "ĠSr": 533,
      "Ġbo": 534,
      "nti": 535,
      "Ġkoja": 536,
      "Na": 537,
      "Ġbe": 538,
      "ran": 539,
      "ĠJ": 540,
      "Ġpu": 541,
      "viÄĩ": 542,
      "dni": 543,
      "nal": 544,
      "stra": 545,
      "Ġnije": 546,
      "reme": 547,
      "ĠH": 548,
      "Ġpi": 549,
      "ĠmoÅ¾e": 550,
      "zna": 551,
      "Ġsamo": 552,
      "ĠâĢĵ": 553,
      "skih": 554,
      "govo": 555,
      "Ġku": 556,
      "on": 557,
      "Ġstra": 558,
      "Åł": 559,
      "sni": 560,
      "Za": 561,
      "Ġkori": 562,
      "ĠÄįi": 563,
      "ciju": 564,
      "Ġti": 565,
      "Ġmogu": 566,
      "liko": 567,
      "Ġ-": 568,
      "Po": 569,
      "cu": 570,
      "kto": 571,
      "Ġfi": 572,
      "an": 573,
      "Å¡ta": 574,
      "Ġali": 575,
      "Ġce": 576,
      "Ġovo": 577,
      "Å¡ti": 578,
      "ĠF": 579,
      "Ġinte": 580,
      "ĠSrbi": 581,
      "lika": 582,
      "noj": 583,
      "Ġnji": 584,
      "ĠÄįe": 585,
      "lek": 586,
      "Ġ4": 587,
      "stva": 588,
      "É¢": 589,
      "Ġbro": 590,
      "bra": 591,
      "Ġpr": 592,
      "ÉŁ": 593,
      "vih": 594,
      "stvo": 595,
      "al": 596,
      "Äĳa": 597,
      "tro": 598,
      "bu": 599,
      "Ġ201": 600,
      "vima": 601,
      "Ġjed": 602,
      "ha": 603,
      "gle": 604,
      "Ġkom": 605,
      "Ġbu": 606,
      "ĠÅ¾i": 607,
      "kon": 608,
      "Ġdu": 609,
      "Ġak": 610,
      "Ġpla": 611,
      "Ġprime": 612,
      "É¨": 613,
      "Ġslu": 614,
      "Ġmu": 615,
      "Å¡t": 616,
      "stavlja": 617,
      "he": 618,
      "Ġc": 619,
      "vlja": 620,
      "Ġ200": 621,
      "zvo": 622,
      "tno": 623,
      "Å¡te": 624,
      "Ġtako": 625,
      "nije": 626,
      "Ġba": 627,
      "Äįko": 628,
      "Ġproce": 629,
      "Ġ5": 630,
      "rije": 631,
      "Ġle": 632,
      "Ġvr": 633,
      "Ġosno": 634,
      "hi": 635,
      "Ġor": 636,
      "Ġbio": 637,
      "Äĩu": 638,
      "ĠÄį": 639,
      "for": 640,
      "vni": 641,
      "ako": 642,
      "Ġrazli": 643,
      "nta": 644,
      "skom": 645,
      "ĠMi": 646,
      "Ġro": 647,
      "nali": 648,
      "Ġfa": 649,
      "Ġci": 650,
      "ĠPo": 651,
      "pro": 652,
      "Ġtu": 653,
      "jom": 654,
      "Ġuz": 655,
      "Ġkako": 656,
      "eo": 657,
      "nda": 658,
      "Ġpoli": 659,
      "Ġkod": 660,
      "nd": 661,
      "Ġso": 662,
      "gla": 663,
      "Äįke": 664,
      "Ġop": 665,
      "Ġspo": 666,
      "raju": 667,
      "Äįno": 668,
      "Ġkri": 669,
      "Ġsva": 670,
      "Äįaj": 671,
      "Ġizme": 672,
      "Ġvred": 673,
      "ĠviÅ¡e": 674,
      "Ġlo": 675,
      "Ġ\"": 676,
      "Ġorga": 677,
      "njem": 678,
      "Ġze": 679,
      "vim": 680,
      "Ġot": 681,
      "ciji": 682,
      "ĠÅł": 683,
      "vali": 684,
      "Ġlju": 685,
      "klju": 686,
      "rak": 687,
      "Ġposto": 688,
      "tni": 689,
      "Ġpove": 690,
      "Ġ''": 691,
      "vaju": 692,
      "tim": 693,
      "Ġga": 694,
      "20": 695,
      "menta": 696,
      "sku": 697,
      "kla": 698,
      "Ġtra": 699,
      "kaza": 700,
      "dan": 701,
      "rio": 702,
      ".,": 703,
      "ng": 704,
      "Ġsiste": 705,
      "hva": 706,
      "Å¡Äĩe": 707,
      "ĠÅ¾e": 708,
      "er": 709,
      "Ġodre": 710,
      "pri": 711,
      "Ġgru": 712,
      "lta": 713,
      "rom": 714,
      "Ġproi": 715,
      "Ġdana": 716,
      "lazi": 717,
      "skim": 718,
      "Ġisto": 719,
      "rt": 720,
      "ven": 721,
      "kre": 722,
      "Ġbiti": 723,
      "Ġkada": 724,
      "loÅ¡": 725,
      "cima": 726,
      "Ġ6": 727,
      "Ġvreme": 728,
      "ĠNa": 729,
      "ĠuÄįe": 730,
      "kup": 731,
      "Ġau": 732,
      "ĠMa": 733,
      "un": 734,
      "É¨É": 735,
      "âĢĿ": 736,
      "Ġgla": 737,
      "vom": 738,
      "nica": 739,
      "Ġnjiho": 740,
      "spo": 741,
      "ÉļÉ": 742,
      "Ġbez": 743,
      "ĠÅ¾ivo": 744,
      "Ġvla": 745,
      "Ġdobi": 746,
      "ksi": 747,
      "lne": 748,
      "matra": 749,
      "van": 750,
      "Ġtreba": 751,
      "ĠKo": 752,
      "vno": 753,
      "Ġjo": 754,
      "Ġru": 755,
      "Ġistra": 756,
      "ÄĮ": 757,
      "ĠdrÅ¾a": 758,
      "Ġoba": 759,
      "teri": 760,
      "Ġek": 761,
      "Ġova": 762,
      "ver": 763,
      "Ġuti": 764,
      "Ġposle": 765,
      "lan": 766,
      "Ġosta": 767,
      "Ġdrugi": 768,
      "É¢É": 769,
      "bog": 770,
      "Ġbilo": 771,
      "sle": 772,
      "rod": 773,
      "mena": 774,
      "cional": 775,
      "ter": 776,
      "Ġpose": 777,
      "19": 778,
      "om": 779,
      "ĠnaÄįi": 780,
      "Ġsam": 781,
      "Ġorgani": 782,
      "Ġ0": 783,
      "teta": 784,
      "ĠZ": 785,
      "zulta": 786,
      "Ġdok": 787,
      "ĠizmeÄĳu": 788,
      "tom": 789,
      "Ġproizvo": 790,
      "bli": 791,
      "gova": 792,
      "Ġobra": 793,
      "Ġkra": 794,
      "spe": 795,
      "Ġjer": 796,
      "Ġradi": 797,
      "tak": 798,
      "Ġbroj": 799,
      "ĠSa": 800,
      "ÄĨ": 801,
      "tre": 802,
      "ĠRe": 803,
      "vog": 804,
      "vlje": 805,
      "Ġprema": 806,
      "Ġveli": 807,
      "ĠveÄĩ": 808,
      "Ġfor": 809,
      "tri": 810,
      "....": 811,
      "Ġok": 812,
      "Ġsr": 813,
      "Ġpita": 814,
      "lni": 815,
      "ĠmeÄĳu": 816,
      "Ġzem": 817,
      "Ġide": 818,
      "Ġpotre": 819,
      "ruk": 820,
      "Ġsad": 821,
      "eogra": 822,
      "ble": 823,
      "Ġslo": 824,
      "forma": 825,
      "in": 826,
      "Äįne": 827,
      "Ġmode": 828,
      "Ġispi": 829,
      "slo": 830,
      "stup": 831,
      "Å¡to": 832,
      "ĠZa": 833,
      "lno": 834,
      "Ġanali": 835,
      "Ġauto": 836,
      "Ġpoliti": 837,
      "voj": 838,
      "dra": 839,
      "Ġ7": 840,
      "ÉŁÉ": 841,
      "skoj": 842,
      "Ġhi": 843,
      "ĠistraÅ¾i": 844,
      "vede": 845,
      "Ġoko": 846,
      "Ġste": 847,
      "Ġla": 848,
      "ĠznaÄįaj": 849,
      "Ġstva": 850,
      "Äįka": 851,
      "Ġgodina": 852,
      "Ġpoda": 853,
      "sla": 854,
      "Ġju": 855,
      "vro": 856,
      "pisa": 857,
      "ĠrazliÄįi": 858,
      "joj": 859,
      "tet": 860,
      "rni": 861,
      "redi": 862,
      "Ġupo": 863,
      "Ġrad": 864,
      "jedi": 865,
      "Äįni": 866,
      "ÂŃ": 867,
      "koliko": 868,
      "Ġpredstavlja": 869,
      "juÄĩi": 870,
      "jek": 871,
      "Ġ18": 872,
      "vanju": 873,
      "Ġzbog": 874,
      "rne": 875,
      "ĠdruÅ¡t": 876,
      "Ġodnosno": 877,
      "vodi": 878,
      "ranje": 879,
      "nima": 880,
      "Ġpret": 881,
      "vne": 882,
      "kra": 883,
      "Ġbila": 884,
      "unk": 885,
      "Ġvrednosti": 886,
      "Ġal": 887,
      "bno": 888,
      "Ġnasta": 889,
      "rÅ¾i": 890,
      "Ġizra": 891,
      "Ġjedi": 892,
      "fika": 893,
      "Ġstu": 894,
      "logi": 895,
      "Ġge": 896,
      "ĠSrbije": 897,
      "Ġrezulta": 898,
      "Ġsto": 899,
      "op": 900,
      "Ġupra": 901,
      "kri": 902,
      "Ġ8": 903,
      "Ġnema": 904,
      "ltu": 905,
      "ĠBo": 906,
      "ren": 907,
      "Ka": 908,
      "nici": 909,
      "ĠBeogra": 910,
      "rti": 911,
      "niji": 912,
      "log": 913,
      "ĠKa": 914,
      "rta": 915,
      "Äĳi": 916,
      "Äįkih": 917,
      "Å¡ko": 918,
      "vati": 919,
      "Ġaktiv": 920,
      "Äįkog": 921,
      "Ġposlo": 922,
      "Ġ10": 923,
      "nija": 924,
      "Ġuslo": 925,
      "Ġtri": 926,
      "tvr": 927,
      "tne": 928,
      "Ġjezi": 929,
      "Ġobja": 930,
      "Äī": 931,
      "Ġsred": 932,
      "Ġsrp": 933,
      "Ġnivo": 934,
      "Ġfunk": 935,
      "jem": 936,
      "kazu": 937,
      "rno": 938,
      "Ġstrane": 939,
      "Ġsmo": 940,
      "lija": 941,
      "ner": 942,
      "...": 943,
      "ak": 944,
      "Å¾u": 945,
      "nice": 946,
      "Ġobe": 947,
      "Ġdva": 948,
      "ĠpoÄįe": 949,
      "Ġ199": 950,
      "ĠsluÄįa": 951,
      "ĠNe": 952,
      "Ġmora": 953,
      "ĠRa": 954,
      "ĠnaÄįin": 955,
      "tima": 956,
      "bro": 957,
      "Ġproble": 958,
      "ĠMe": 959,
      "ranja": 960,
      "liza": 961,
      "pera": 962,
      "man": 963,
      "Ġutica": 964,
      "Ġnisu": 965,
      "Ġon": 966,
      "Ġprosto": 967,
      "ntra": 968,
      "Ġtoga": 969,
      "ĠodreÄĳe": 970,
      "vrÅ¡i": 971,
      "stve": 972,
      "dom": 973,
      "Ġzaje": 974,
      "ĠÄįa": 975,
      "vreme": 976,
      "lom": 977,
      "Ne": 978,
      "rima": 979,
      "Ġri": 980,
      "ĠjoÅ¡": 981,
      "Ġ9": 982,
      "Ġperio": 983,
      "Ġim": 984,
      "__": 985,
      "Ġnakon": 986,
      "roz": 987,
      "Ġbr": 988,
      "Ġpoja": 989,
      "rek": 990,
      "Ġsli": 991,
      "Ġkre": 992,
      "vao": 993,
      "«É": 994,
      "10": 995,
      "Ġodgovo": 996,
      "Ġposta": 997,
      "vnog": 998,
      "Ġpozi": 999,
      "Å£": 1000,
      "Ġove": 1001,
      "sli": 1002,
      "tih": 1003,
      "lnih": 1004,
      "Ġgde": 1005,
      "ona": 1006,
      "Ġpomo": 1007,
      "Ġjedan": 1008,
      "nosi": 1009,
      "rva": 1010,
      "vnih": 1011,
      "Me": 1012,
      "nsi": 1013,
      "tor": 1014,
      "Ġosnovu": 1015,
      "Ġodnosu": 1016,
      "ruktu": 1017,
      "Ġodlu": 1018,
      "Ġkarak": 1019,
      "tar": 1020,
      "pada": 1021,
      "Ġgovo": 1022,
      "Ġkonce": 1023,
      "Ġorganiza": 1024,
      "Ġako": 1025,
      "Ġiza": 1026,
      "rij": 1027,
      "rodi": 1028,
      "Ġovog": 1029,
      "Ġoso": 1030,
      "terija": 1031,
      "Ġspe": 1032,
      "gre": 1033,
      "Ġkojima": 1034,
      "Ġnjego": 1035,
      "nzi": 1036,
      "Ġimaju": 1037,
      "met": 1038,
      "Äįnih": 1039,
      "Ġkultu": 1040,
      "Ġtokom": 1041,
      "Ġnad": 1042,
      "dne": 1043,
      "stupa": 1044,
      "Å½": 1045,
      "ĠzaÅ¡ti": 1046,
      "vani": 1047,
      "Éª": 1048,
      "Ġljudi": 1049,
      "Ġknji": 1050,
      "ĠÄįla": 1051,
      "Sa": 1052,
      "Ġizvo": 1053,
      "Ġsvoje": 1054,
      "ĠPa": 1055,
      "Ġeko": 1056,
      "Ġteh": 1057,
      "âĢĵ": 1058,
      "Ko": 1059,
      "Ġtak": 1060,
      "Ġisti": 1061,
      "Ġmeto": 1062,
      "tera": 1063,
      "Ġki": 1064,
      "nik": 1065,
      "Å¡u": 1066,
      "lnog": 1067,
      "kih": 1068,
      "Ġdela": 1069,
      "Ġar": 1070,
      "Ġtek": 1071,
      "Ġkoristi": 1072,
      "ndar": 1073,
      "nski": 1074,
      "ĠÅ¡ko": 1075,
      "To": 1076,
      "lna": 1077,
      "Ġnau": 1078,
      "Ġuve": 1079,
      "Ġtran": 1080,
      "fini": 1081,
      "pla": 1082,
      "nova": 1083,
      "oj": 1084,
      "Pre": 1085,
      "volj": 1086,
      "nte": 1087,
      "meri": 1088,
      "mina": 1089,
      "Ġnego": 1090,
      "ĠâĢľ": 1091,
      "fa": 1092,
      "Ġdruge": 1093,
      "dija": 1094,
      "fo": 1095,
      "Ġsti": 1096,
      "Ġloka": 1097,
      "Ġsle": 1098,
      "kao": 1099,
      "nci": 1100,
      "kog": 1101,
      "ktor": 1102,
      "Ġkroz": 1103,
      "Å¡nje": 1104,
      "nera": 1105,
      "000": 1106,
      "Ġobave": 1107,
      "Ġpojedi": 1108,
      "taka": 1109,
      "rova": 1110,
      "Ġdeo": 1111,
      "gleda": 1112,
      "hte": 1113,
      "Ġho": 1114,
      "Ġdoda": 1115,
      "ĠÅ¡i": 1116,
      "Ġfo": 1117,
      "Äįna": 1118,
      "Ġkvali": 1119,
      "ÉŃ": 1120,
      "vnom": 1121,
      "ncija": 1122,
      "manje": 1123,
      "Ġdrugo": 1124,
      "Ġsna": 1125,
      "Ġpara": 1126,
      "vio": 1127,
      "oma": 1128,
      "ĠÅ¡ta": 1129,
      "nata": 1130,
      "tka": 1131,
      "Ġkoju": 1132,
      "ĠveÄĩi": 1133,
      "ĠDe": 1134,
      "Êģ": 1135,
      "Ġos": 1136,
      "Da": 1137,
      "Ġsistema": 1138,
      "Ġpredu": 1139,
      "kim": 1140,
      "Ġokvi": 1141,
      "Ġof": 1142,
      "ĠEvro": 1143,
      "Ġpopu": 1144,
      "ĠpoveÄĩa": 1145,
      "Ġ15": 1146,
      "Ġdelo": 1147,
      "stitu": 1148,
      "Ġzako": 1149,
      "ĠPe": 1150,
      "Ġobla": 1151,
      "kova": 1152,
      "Ġsvet": 1153,
      "Ġzapo": 1154,
      "Ġprava": 1155,
      "ĠNo": 1156,
      "mogu": 1157,
      "Ġtome": 1158,
      "nske": 1159,
      "Ġprome": 1160,
      "novi": 1161,
      "stvu": 1162,
      "dna": 1163,
      "Ġprotiv": 1164,
      "ur": 1165,
      "Ġkontro": 1166,
      "Ġih": 1167,
      "tek": 1168,
      "12": 1169,
      "Ġjedna": 1170,
      "Ġsmatra": 1171,
      "dio": 1172,
      "rati": 1173,
      "Äįnog": 1174,
      "Ġpravo": 1175,
      "ĠNi": 1176,
      "Ġbude": 1177,
      "ĠÄĮ": 1178,
      "Ġovom": 1179,
      "Ġinforma": 1180,
      "Ġona": 1181,
      "Ġzahte": 1182,
      "Re": 1183,
      "rna": 1184,
      "Ġkla": 1185,
      "Ġuspe": 1186,
      "cijama": 1187,
      "Ġregi": 1188,
      "Ġsme": 1189,
      "âĢľ,": 1190,
      "Ġpreko": 1191,
      "Do": 1192,
      "vija": 1193,
      "ĠVe": 1194,
      "vla": 1195,
      "ĠVi": 1196,
      "ĠkoriÅ¡Äĩe": 1197,
      "tiva": 1198,
      "vna": 1199,
      "Ġzdra": 1200,
      "Ġpravi": 1201,
      "Ġutvr": 1202,
      "riji": 1203,
      "Ġupotre": 1204,
      "Ġ:": 1205,
      "Ġzajedni": 1206,
      "Ġsvoji": 1207,
      "mati": 1208,
      "sne": 1209,
      "ĠIn": 1210,
      "ĠBa": 1211,
      "Ġjedno": 1212,
      "Ġsla": 1213,
      "Ġhe": 1214,
      "11": 1215,
      "Ġbudu": 1216,
      "Ġ12": 1217,
      "Ġdr": 1218,
      "Ġdefini": 1219,
      "Ġprogra": 1220,
      "ĠRu": 1221,
      "Ġmaterija": 1222,
      "ĠVa": 1223,
      "loga": 1224,
      "ĠsadrÅ¾a": 1225,
      "vije": 1226,
      "Ġnepo": 1227,
      "ĠGo": 1228,
      "Ġpore": 1229,
      "Ġkarakteri": 1230,
      "klo": 1231,
      "stru": 1232,
      "ove": 1233,
      "Ġbili": 1234,
      "Ġzavi": 1235,
      "Ġand": 1236,
      "Ġtaj": 1237,
      "Ġvoj": 1238,
      "Ġdve": 1239,
      "Ġviso": 1240,
      "vre": 1241,
      "Ġfina": 1242,
      "uze": 1243,
      "Ġfe": 1244,
      "Ġcr": 1245,
      "Ġuklju": 1246,
      "Ġpokaza": 1247,
      "ĠSrbiji": 1248,
      "Ra": 1249,
      "Ġrazvo": 1250,
      "dova": 1251,
      "Ġpostoji": 1252,
      "AN": 1253,
      "Pri": 1254,
      "Ġtro": 1255,
      "tna": 1256,
      "rani": 1257,
      "Ta": 1258,
      "en": 1259,
      "cijom": 1260,
      "Ġstruktu": 1261,
      "tua": 1262,
      "Pro": 1263,
      "Ġgu": 1264,
      "rad": 1265,
      "bri": 1266,
      "stavlje": 1267,
      "ĠJu": 1268,
      "Ġostva": 1269,
      "tivno": 1270,
      "Tako": 1271,
      "zova": 1272,
      "ĠTa": 1273,
      "kti": 1274,
      "tan": 1275,
      "dite": 1276,
      "slu": 1277,
      "ĠMo": 1278,
      "ĠmoguÄĩ": 1279,
      "Ġdece": 1280,
      "plo": 1281,
      "ÄĲ": 1282,
      "Äĳenje": 1283,
      "Ġmno": 1284,
      "Ġper": 1285,
      "noviÄĩ": 1286,
      "menu": 1287,
      "Ġnalazi": 1288,
      "Ġstru": 1289,
      "vina": 1290,
      "Ġobzi": 1291,
      "Ġbole": 1292,
      "Ġrada": 1293,
      "ĠDa": 1294,
      "bor": 1295,
      "kro": 1296,
      "vrÅ¡e": 1297,
      "stava": 1298,
      "razu": 1299,
      "sije": 1300,
      "18": 1301,
      "ch": 1302,
      "Ġprili": 1303,
      "Ġtr": 1304,
      "Ġovaj": 1305,
      "vine": 1306,
      "Ġprisu": 1307,
      "tivne": 1308,
      "Ġn": 1309,
      "É§": 1310,
      "Ġsada": 1311,
      "ment": 1312,
      "15": 1313,
      "rs": 1314,
      "ĠBe": 1315,
      "ĠDo": 1316,
      "kva": 1317,
      "13": 1318,
      "zma": 1319,
      "godi": 1320,
      "Ġobli": 1321,
      "ĠtakoÄĳe": 1322,
      "Å¡ka": 1323,
      "Ġproizvod": 1324,
      "star": 1325,
      "Ġsvoj": 1326,
      "publi": 1327,
      "Ġpreduze": 1328,
      "Ova": 1329,
      "Ġporodi": 1330,
      "Ġmeta": 1331,
      "Ġelek": 1332,
      "ĠistraÅ¾ivanja": 1333,
      "Ġsvi": 1334,
      "ĠdruÅ¡tve": 1335,
      "Ġobi": 1336,
      "tion": 1337,
      "Ġodgova": 1338,
      "lije": 1339,
      "kata": 1340,
      "14": 1341,
      "Ġnajve": 1342,
      "Ġaktivnosti": 1343,
      "zbe": 1344,
      "spi": 1345,
      "ĠÃ": 1346,
      "Ġele": 1347,
      "vanjem": 1348,
      "vesti": 1349,
      "tem": 1350,
      "koviÄĩ": 1351,
      "Ġ13": 1352,
      "Ġfinansi": 1353,
      "Ġ14": 1354,
      "Ġpozna": 1355,
      "Ġskla": 1356,
      "ĠsluÄįaju": 1357,
      "Ġzaklju": 1358,
      "Äįuna": 1359,
      "co": 1360,
      "ĠBi": 1361,
      "Äįenja": 1362,
      "laze": 1363,
      "Ġ)": 1364,
      "nskog": 1365,
      "Ġsvih": 1366,
      "Ġdanas": 1367,
      "Ġsredi": 1368,
      "Ġispita": 1369,
      "Ġinter": 1370,
      "njima": 1371,
      "nama": 1372,
      "Mo": 1373,
      "Ġobu": 1374,
      "mije": 1375,
      "Ġoni": 1376,
      "Å¾be": 1377,
      "hvata": 1378,
      "........": 1379,
      "mat": 1380,
      "Ġoblasti": 1381,
      "Å¡nji": 1382,
      "Ġnaro": 1383,
      "ĠPro": 1384,
      "Äįkim": 1385,
      "snosti": 1386,
      "Ġmedi": 1387,
      "Mi": 1388,
      "Ġosi": 1389,
      "Ġunu": 1390,
      "zima": 1391,
      "Ġpretho": 1392,
      "viÅ¡e": 1393,
      "Ġono": 1394,
      "Ġrea": 1395,
      "ktora": 1396,
      "bora": 1397,
      "Äįkom": 1398,
      "Ġformi": 1399,
      "Ġslede": 1400,
      "janje": 1401,
      "Ġteo": 1402,
      "Ġpona": 1403,
      "âĢĻ": 1404,
      "rvi": 1405,
      "kazuje": 1406,
      "Äįan": 1407,
      "Äĳenja": 1408,
      "Ġ198": 1409,
      "vore": 1410,
      "ljivo": 1411,
      "Ġveoma": 1412,
      "vala": 1413,
      "Ġener": 1414,
      "meta": 1415,
      "Ġ17": 1416,
      "ĠSe": 1417,
      "Ġpotpu": 1418,
      "bar": 1419,
      "ĠÅ¡e": 1420,
      "Ġnu": 1421,
      "Ġgrupe": 1422,
      "tku": 1423,
      "Å¾no": 1424,
      "Ġca": 1425,
      "onal": 1426,
      "ĠJo": 1427,
      "Ġnas": 1428,
      "Ġslobo": 1429,
      "Ġkomp": 1430,
      "Ġpostoje": 1431,
      "tisti": 1432,
      "Ġpodataka": 1433,
      "Ġsmi": 1434,
      "Ġdobro": 1435,
      "Ġmere": 1436,
      "ladi": 1437,
      "rma": 1438,
      "Ġdalje": 1439,
      "Ġvode": 1440,
      "Ġ/": 1441,
      "Ġomogu": 1442,
      "cioni": 1443,
      "ĠDi": 1444,
      "Ġtom": 1445,
      "Ġkarakteristi": 1446,
      "gao": 1447,
      "rane": 1448,
      "200": 1449,
      "Ġkojoj": 1450,
      "Ġime": 1451,
      "Ġtim": 1452,
      "16": 1453,
      "lim": 1454,
      "Ġose": 1455,
      "Ġmnogo": 1456,
      "Od": 1457,
      "Ġsitua": 1458,
      "ĠW": 1459,
      "ĠÄįu": 1460,
      "risti": 1461,
      "sob": 1462,
      "tnih": 1463,
      "tnog": 1464,
      "Ġnekoliko": 1465,
      "Ġigra": 1466,
      "Ġpolo": 1467,
      "Ġobrazo": 1468,
      "Ġ16": 1469,
      "Ġkome": 1470,
      "zni": 1471,
      "Ġraspo": 1472,
      "bela": 1473,
      "tora": 1474,
      "kle": 1475,
      "vra": 1476,
      "grad": 1477,
      "ĠpovrÅ¡i": 1478,
      "Ġukup": 1479,
      "Ġefe": 1480,
      "Ġnjegovo": 1481,
      "Ġokviru": 1482,
      "zije": 1483,
      "sija": 1484,
      "kat": 1485,
      "Ġstano": 1486,
      "Ġdija": 1487,
      "ĠPri": 1488,
      "lnim": 1489,
      "sna": 1490,
      "Ġkomu": 1491,
      "vred": 1492,
      "Ġrazvoj": 1493,
      "vet": 1494,
      "Ġizve": 1495,
      "Ġpote": 1496,
      "ĠRepubli": 1497,
      "Ġspro": 1498,
      "ruÅ¾e": 1499,
      "lih": 1500,
      "ĠLa": 1501,
      "ĠodrÅ¾a": 1502,
      "AD": 1503,
      "Ġnavede": 1504,
      "vana": 1505,
      "Ġneza": 1506,
      "ĠLi": 1507,
      "Ġugovo": 1508,
      "ĠSi": 1509,
      "Ġanti": 1510,
      "ĠreÅ¡e": 1511,
      "ĠVu": 1512,
      "Ġintere": 1513,
      "17": 1514,
      "rana": 1515,
      "mom": 1516,
      "mini": 1517,
      "II": 1518,
      "gije": 1519,
      "Ġspre": 1520,
      "Ġpar": 1521,
      "sao": 1522,
      "Ġpokre": 1523,
      "jske": 1524,
      "kve": 1525,
      "Ġsocija": 1526,
      "Ġdrugih": 1527,
      "Ġprikaza": 1528,
      "pli": 1529,
      "snika": 1530,
      "MeÄĳu": 1531,
      "zija": 1532,
      "Ġidenti": 1533,
      "Ma": 1534,
      "Ġfil": 1535,
      "Ġtrenu": 1536,
      "Ġume": 1537,
      "janja": 1538,
      "22": 1539,
      "ĠtrÅ¾i": 1540,
      "lacije": 1541,
      "Ġkompa": 1542,
      "grani": 1543,
      "nskih": 1544,
      "Ġdobije": 1545,
      "Å¡tu": 1546,
      "stan": 1547,
      "Ġrizi": 1548,
      "Ġan": 1549,
      "jan": 1550,
      "Äĳuje": 1551,
      "lima": 1552,
      "Ġad": 1553,
      "Ni": 1554,
      "Ġput": 1555,
      "Äįku": 1556,
      "pr": 1557,
      "Ġneu": 1558,
      "ĠJe": 1559,
      "âĢľ.": 1560,
      "Ġvrednost": 1561,
      "Ġzemlji": 1562,
      "Ġputa": 1563,
      "ĠuÄįi": 1564,
      "jski": 1565,
      "Ġkad": 1566,
      "lnom": 1567,
      "Ġw": 1568,
      "Ġsistem": 1569,
      "Ġprija": 1570,
      "ĠTe": 1571,
      "Ġdoma": 1572,
      "ĠreÄįi": 1573,
      "Ġmese": 1574,
      "ĠJa": 1575,
      "ST": 1576,
      "Ġvarija": 1577,
      "Ġuvek": 1578,
      "Äįnim": 1579,
      "ĠkaÅ¾e": 1580,
      "ĠÄįita": 1581,
      "Ġprvi": 1582,
      "Ġulo": 1583,
      "Ġgrupa": 1584,
      "Ġdelu": 1585,
      "Ġobezbe": 1586,
      "Ġnam": 1587,
      "Ġprepo": 1588,
      "\",": 1589,
      "laga": 1590,
      "Ġuo": 1591,
      "dnik": 1592,
      "ĠBeograd": 1593,
      "Ġstandar": 1594,
      "Äįnosti": 1595,
      "Ġkrivi": 1596,
      "pad": 1597,
      "Ġnacional": 1598,
      "Ġizda": 1599,
      "ĠnaÅ¡e": 1600,
      "Ġfizi": 1601,
      "Iz": 1602,
      "âĢŀ": 1603,
      "hu": 1604,
      "Ġuslu": 1605,
      "Ġveza": 1606,
      "com": 1607,
      "viti": 1608,
      "Ġposebno": 1609,
      "Je": 1610,
      "Ġvide": 1611,
      "Ġeks": 1612,
      "Ġupravlja": 1613,
      "Ġispo": 1614,
      "stri": 1615,
      "gli": 1616,
      "nistar": 1617,
      "Ġtele": 1618,
      "Ġpru": 1619,
      "Ġstatisti": 1620,
      "Ġekonom": 1621,
      "ĠneÅ¡to": 1622,
      "Ġnazi": 1623,
      "vnim": 1624,
      "Äįenje": 1625,
      "nad": 1626,
      "Ġusta": 1627,
      "Ġpredse": 1628,
      "ĠÅ½": 1629,
      "Ġet": 1630,
      "ĠÄĲ": 1631,
      "ĠPre": 1632,
      "Ġposti": 1633,
      "liti": 1634,
      "ĠTo": 1635,
      "Ġrazu": 1636,
      "niver": 1637,
      "Ġnedo": 1638,
      "Ġvremena": 1639,
      "Ġap": 1640,
      "Ġnastav": 1641,
      "nde": 1642,
      "ndi": 1643,
      "Ġnjih": 1644,
      "Ġthe": 1645,
      "Ġneko": 1646,
      "tori": 1647,
      "snije": 1648,
      "ĠÎ": 1649,
      "Ġone": 1650,
      "pak": 1651,
      "Ġnika": 1652,
      "Ve": 1653,
      "Ġ30": 1654,
      "Ġovih": 1655,
      "ĠBu": 1656,
      "Ġname": 1657,
      "narod": 1658,
      "ĠMar": 1659,
      "lnosti": 1660,
      "Ġpoveza": 1661,
      "Ġdvo": 1662,
      "Äĩih": 1663,
      "kuje": 1664,
      "Ġodnosi": 1665,
      "Å¡nja": 1666,
      "Ġnove": 1667,
      "Ġkompo": 1668,
      "ljo": 1669,
      "RA": 1670,
      "tivni": 1671,
      "risa": 1672,
      "im": 1673,
      "Ġveka": 1674,
      "Ġpacije": 1675,
      "rnog": 1676,
      "Ġmre": 1677,
      "ï¿": 1678,
      "ĠÂ": 1679,
      "Ġvezi": 1680,
      "ï¿½": 1681,
      "tke": 1682,
      "Ġtem": 1683,
      "kul": 1684,
      "Ġskladu": 1685,
      "il": 1686,
      "Ġpotvr": 1687,
      "Ġmalo": 1688,
      "Ġplani": 1689,
      "Ġras": 1690,
      "ĠLe": 1691,
      "Å¡Äĩu": 1692,
      "____": 1693,
      "Äĳena": 1694,
      "vod": 1695,
      "per": 1696,
      "rnih": 1697,
      "Ġneka": 1698,
      "Å¡ava": 1699,
      "stro": 1700,
      "od": 1701,
      "Ġmanje": 1702,
      "diti": 1703,
      "50": 1704,
      "Ġnajbo": 1705,
      "Äĳen": 1706,
      "Ġonda": 1707,
      "vez": 1708,
      "nos": 1709,
      "ĠÄįesto": 1710,
      "Ġinstitu": 1711,
      "Ġkr": 1712,
      "niza": 1713,
      "ĠÄįove": 1714,
      "tog": 1715,
      "Ġpostup": 1716,
      "ĠoÄįe": 1717,
      "Ġgrad": 1718,
      "Ġstepe": 1719,
      "Ġtrans": 1720,
      "dije": 1721,
      "Ġposledi": 1722,
      "kav": 1723,
      "Ġsar": 1724,
      "duk": 1725,
      "Ġdina": 1726,
      "ruÄį": 1727,
      "Ġure": 1728,
      "Ġpitanje": 1729,
      "Ġperiodu": 1730,
      "snost": 1731,
      "Ġposled": 1732,
      "grafi": 1733,
      "Å¡ke": 1734,
      "ĠponaÅ¡a": 1735,
      "ĠÄįini": 1736,
      "Ġindi": 1737,
      "tivnih": 1738,
      "Äĩem": 1739,
      "Ġ197": 1740,
      "ĠÄįak": 1741,
      "obra": 1742,
      "Ġkoncentra": 1743,
      "Ġsub": 1744,
      "Ġdopri": 1745,
      "ĠÉ©": 1746,
      "Å¡lje": 1747,
      "loÅ¾e": 1748,
      "21": 1749,
      "Ġelektro": 1750,
      "el": 1751,
      "ĠKi": 1752,
      "vde": 1753,
      "Äįkoj": 1754,
      "tio": 1755,
      "tin": 1756,
      "som": 1757,
      "Ġprojek": 1758,
      "Ġisku": 1759,
      "sam": 1760,
      "Ġdruga": 1761,
      "'',": 1762,
      "EN": 1763,
      "Ġzaposle": 1764,
      "gnu": 1765,
      "ĠopÅ¡ti": 1766,
      "Ġprimer": 1767,
      "Ġlica": 1768,
      "Ġoce": 1769,
      "ture": 1770,
      "leksa": 1771,
      "Ġneop": 1772,
      "ĠSta": 1773,
      "Å¡tva": 1774,
      "line": 1775,
      "liÄįi": 1776,
      "Ġbra": 1777,
      "kazuju": 1778,
      "ĠOd": 1779,
      "Ġter": 1780,
      "Ġsvim": 1781,
      "Äĩeg": 1782,
      "uz": 1783,
      "Ġposmatra": 1784,
      "ĠHa": 1785,
      "cifi": 1786,
      "Ġproda": 1787,
      "MeÄĳutim": 1788,
      "ĠÅ¾ivota": 1789,
      "pred": 1790,
      "IJ": 1791,
      "Ġrekao": 1792,
      "Ġmesto": 1793,
      "Ġprote": 1794,
      "Äįnom": 1795,
      "Ġpoku": 1796,
      "Ġmnog": 1797,
      "lago": 1798,
      "Å¡ao": 1799,
      "Ġsvega": 1800,
      "jskih": 1801,
      "Ġkli": 1802,
      "Ġljud": 1803,
      "ks": 1804,
      "Ġkomenta": 1805,
      "Ġsvojim": 1806,
      "Å¡lo": 1807,
      "Ġprofe": 1808,
      "ĠÅ¾ivot": 1809,
      "Ġneopho": 1810,
      "Ġpono": 1811,
      "Ġkojih": 1812,
      "Ġsko": 1813,
      "Ġgovori": 1814,
      "ĠDu": 1815,
      "ĠÄįinje": 1816,
      "Ġodgovor": 1817,
      "Ġjednom": 1818,
      "ĠBeogradu": 1819,
      "san": 1820,
      "Ġbezbe": 1821,
      "ĠX": 1822,
      "Ġtehno": 1823,
      "Ġ11": 1824,
      "Ġsmanje": 1825,
      "vac": 1826,
      "Ġsud": 1827,
      "kovi": 1828,
      "bre": 1829,
      "Ġrazvoja": 1830,
      "bina": 1831,
      "sor": 1832,
      "Ġkoriste": 1833,
      "Ġnapo": 1834,
      "ĠSo": 1835,
      "ime": 1836,
      "Ġograni": 1837,
      "Ġsvoju": 1838,
      "smo": 1839,
      "menata": 1840,
      "Ġodgovaraju": 1841,
      "ĠrazliÄįitih": 1842,
      "Ġzada": 1843,
      "ĠRo": 1844,
      "OV": 1845,
      "Ġtvr": 1846,
      "kama": 1847,
      "âĢ¦": 1848,
      "«É¬": 1849,
      "Ġnivou": 1850,
      "kta": 1851,
      "AT": 1852,
      "Ġobjek": 1853,
      "lac": 1854,
      "ĠSu": 1855,
      "laz": 1856,
      "drÅ¾a": 1857,
      "Ġbli": 1858,
      "Ġbroja": 1859,
      "Ġneki": 1860,
      "ĠâĢĶ": 1861,
      "telj": 1862,
      "Ġsm": 1863,
      "vlju": 1864,
      "De": 1865,
      "Naj": 1866,
      "ĠznaÄįa": 1867,
      "voje": 1868,
      "sova": 1869,
      "Ġgenera": 1870,
      "Ako": 1871,
      "Ġgre": 1872,
      "Ġtempera": 1873,
      "Ġuticaj": 1874,
      "RE": 1875,
      "pske": 1876,
      "ksa": 1877,
      "tivna": 1878,
      "Ġizo": 1879,
      "nce": 1880,
      "zom": 1881,
      "Ġpromene": 1882,
      "ple": 1883,
      "tvo": 1884,
      "Ġozna": 1885,
      "rke": 1886,
      "Ġdirek": 1887,
      "Ġdis": 1888,
      "ĠpodruÄį": 1889,
      "Ġkate": 1890,
      "Ġuna": 1891,
      "gaÄĳa": 1892,
      "gne": 1893,
      "glo": 1894,
      "Ġpotencija": 1895,
      "struk": 1896,
      "Ġefika": 1897,
      "kraji": 1898,
      "Ġsvako": 1899,
      "gled": 1900,
      "Ġdrugim": 1901,
      "Ġopre": 1902,
      "Ġmodela": 1903,
      "Ġvrsta": 1904,
      "Ġzi": 1905,
      "Ġdoku": 1906,
      "Ġuzor": 1907,
      "razume": 1908,
      "Ġtada": 1909,
      "bije": 1910,
      "lnu": 1911,
      "Ġpodr": 1912,
      "ĠdrÅ¾ave": 1913,
      "30": 1914,
      "Ġstrate": 1915,
      "Ġarhi": 1916,
      "Ġkore": 1917,
      "Ġha": 1918,
      "Ġvidi": 1919,
      "Ġprocesa": 1920,
      "ĠgraÄĳa": 1921,
      "Pa": 1922,
      "nska": 1923,
      "Ġindu": 1924,
      "Ġjeste": 1925,
      "voji": 1926,
      "Ġuspo": 1927,
      "ĠmoguÄĩe": 1928,
      "25": 1929,
      "Ġsarad": 1930,
      "Ġradu": 1931,
      "Ġen": 1932,
      "pisu": 1933,
      "bru": 1934,
      "pis": 1935,
      "ĠneÄĩe": 1936,
      "feren": 1937,
      "ina": 1938,
      "Ġkva": 1939,
      "Ġvre": 1940,
      "Ġ24": 1941,
      "jskog": 1942,
      "Ġ25": 1943,
      "Slika": 1944,
      "Ġcilje": 1945,
      "mpa": 1946,
      "tetu": 1947,
      "rvat": 1948,
      "blje": 1949,
      "Ġzemlje": 1950,
      "Ġuda": 1951,
      "Ġopera": 1952,
      "ĠznaÄįajno": 1953,
      "Äĳeno": 1954,
      "rske": 1955,
      "Ġmuzi": 1956,
      "Ġprilikom": 1957,
      "tiri": 1958,
      "lisa": 1959,
      "Ġ194": 1960,
      "Ġekspe": 1961,
      "Ġsmislu": 1962,
      "Ġjednog": 1963,
      "Ġvlasti": 1964,
      "Ġjezika": 1965,
      "Ġtrebalo": 1966,
      "ĠznaÄįi": 1967,
      "vila": 1968,
      "ĠvaÅ¾": 1969,
      "Ġstr": 1970,
      "Ġposeb": 1971,
      "Ġproces": 1972,
      "gen": 1973,
      "pita": 1974,
      "Ġvlada": 1975,
      "Ġpriro": 1976,
      "um": 1977,
      "Ġpredvi": 1978,
      "Ġdolazi": 1979,
      "Ġveliki": 1980,
      "Ġpode": 1981,
      "Ġsup": 1982,
      "ĠdrÅ¾ava": 1983,
      "Ġrela": 1984,
      "vremeno": 1985,
      "Ġpored": 1986,
      "vje": 1987,
      "Ġlu": 1988,
      "Ġsre": 1989,
      "âĢĿ,": 1990,
      "Ġban": 1991,
      "jeva": 1992,
      "Ġoda": 1993,
      "Ġposla": 1994,
      "vnosti": 1995,
      "renja": 1996,
      "sima": 1997,
      "Ġpotrebno": 1998,
      "ĠknjiÅ¾e": 1999,
      "ĠJugo": 2000,
      "logije": 2001,
      "nak": 2002,
      "tivnog": 2003,
      "mer": 2004,
      "jte": 2005,
      ".-": 2006,
      "snik": 2007,
      "leÅ¾": 2008,
      "ĠKra": 2009,
      "Ġprose": 2010,
      "tura": 2011,
      "Ġvodi": 2012,
      "Ġzado": 2013,
      "ĠAl": 2014,
      "Ġ&": 2015,
      "Ġugla": 2016,
      "ĠukljuÄįu": 2017,
      "Ġobo": 2018,
      "Ġbor": 2019,
      "TakoÄĳe": 2020,
      "njuje": 2021,
      "vode": 2022,
      "Kako": 2023,
      "Ġanalizi": 2024,
      "Ġug": 2025,
      "Ġmesta": 2026,
      "Å¾an": 2027,
      ");": 2028,
      "Ġteri": 2029,
      "kar": 2030,
      "Ġtehni": 2031,
      "Ġpodrazume": 2032,
      "Ġkise": 2033,
      "Ġmaj": 2034,
      "us": 2035,
      "Äįnu": 2036,
      "Ġspecifi": 2037,
      "É¬": 2038,
      "Ġcentra": 2039,
      "Ġvrste": 2040,
      "tivi": 2041,
      "rancu": 2042,
      "Ġkoliko": 2043,
      "Ġpisa": 2044,
      "Ã©": 2045,
      "Ġkar": 2046,
      "metri": 2047,
      "tt": 2048,
      "vca": 2049,
      "ĠraÄįuna": 2050,
      "Ġpogo": 2051,
      "Ġneo": 2052,
      "tko": 2053,
      "Ġvra": 2054,
      "Ġneke": 2055,
      "Ġmili": 2056,
      "IN": 2057,
      "Ġpitanju": 2058,
      "ĠmeÄĳunarod": 2059,
      "lina": 2060,
      "ĠÉ¢": 2061,
      "Ġnega": 2062,
      "logija": 2063,
      "rao": 2064,
      "ĠÄįemu": 2065,
      "cep": 2066,
      "Ġam": 2067,
      "Ġkatego": 2068,
      "Ġnase": 2069,
      "Ġtradi": 2070,
      "zuje": 2071,
      "titi": 2072,
      "riti": 2073,
      "ĠreÄį": 2074,
      "Ġpitanja": 2075,
      "Prema": 2076,
      "Ġsim": 2077,
      "Ġevro": 2078,
      "uma": 2079,
      "iz": 2080,
      "Äįiti": 2081,
      "Ġkriti": 2082,
      "Ġsposob": 2083,
      "rovatno": 2084,
      "ĠSrbija": 2085,
      "voljno": 2086,
      "23": 2087,
      "Ġrazume": 2088,
      "Äįava": 2089,
      "ĠdogaÄĳa": 2090,
      "ÄįiÄĩ": 2091,
      "Ġproblem": 2092,
      "ĠRepublike": 2093,
      "Ġista": 2094,
      "Vi": 2095,
      "24": 2096,
      "dro": 2097,
      "Bi": 2098,
      "qu": 2099,
      "ww": 2100,
      "Ġ196": 2101,
      "Ġpripre": 2102,
      "Ġdefinisa": 2103,
      "laza": 2104,
      "mima": 2105,
      "Ġdone": 2106,
      "Ìģ": 2107,
      "Ġukoliko": 2108,
      "Ëĩ": 2109,
      "Ġiznosi": 2110,
      "Ġkru": 2111,
      "Ġplo": 2112,
      "Ġbile": 2113,
      "ĠGa": 2114,
      "th": 2115,
      "Ġpotro": 2116,
      "Ġreak": 2117,
      "Ġdozvo": 2118,
      "sio": 2119,
      "Ġparti": 2120,
      "Ġmeha": 2121,
      "jima": 2122,
      "ĠEU": 2123,
      "Kada": 2124,
      "dnosti": 2125,
      "Ġregu": 2126,
      "Ġpromena": 2127,
      "Kao": 2128,
      "ĠpomoÄĩ": 2129,
      "Ġkoncep": 2130,
      "Ġdugo": 2131,
      "Ġnarod": 2132,
      "Ġrazliku": 2133,
      "Ġosigu": 2134,
      "Ġklasi": 2135,
      "Ġtj": 2136,
      "Te": 2137,
      "loÅ¡ki": 2138,
      "Ġnavodi": 2139,
      "son": 2140,
      "Ġispiti": 2141,
      "Ġepi": 2142,
      "Ġpojedina": 2143,
      "Ġmeri": 2144,
      "riju": 2145,
      "ĠÅ¾": 2146,
      "Å¾da": 2147,
      "mana": 2148,
      "Ġcilj": 2149,
      "Ġkojim": 2150,
      "ber": 2151,
      "Ġkraju": 2152,
      "Ġsigu": 2153,
      "ban": 2154,
      "Ġuslovima": 2155,
      "dese": 2156,
      "lacija": 2157,
      "tere": 2158,
      "Ġmisli": 2159,
      "mera": 2160,
      "lova": 2161,
      "Ġisklju": 2162,
      "Ġzdrav": 2163,
      "ĠizveÅ¡ta": 2164,
      "ÄįeÅ¡Äĩe": 2165,
      "Ġbolesti": 2166,
      "Ġzatim": 2167,
      "Ġizja": 2168,
      "Ġstvari": 2169,
      "Ġgle": 2170,
      "Ġupu": 2171,
      "Ġodnosa": 2172,
      "Ġmodel": 2173,
      "Ġbri": 2174,
      "laÅ¾e": 2175,
      "Ġstanovni": 2176,
      "Ġpsi": 2177,
      "Ġrata": 2178,
      "Ġproizvoda": 2179,
      "ĠAu": 2180,
      "Ġprima": 2181,
      "Ġkasnije": 2182,
      "Ġ50": 2183,
      "Ġizuze": 2184,
      "Ġspa": 2185,
      "lnost": 2186,
      "kli": 2187,
      "Ġ=": 2188,
      "nio": 2189,
      "Ġvrlo": 2190,
      "ĠkoliÄįi": 2191,
      "mor": 2192,
      "Äĳivanje": 2193,
      "Ġunutra": 2194,
      "tova": 2195,
      "zora": 2196,
      "Ġsvr": 2197,
      "ĠÄįetiri": 2198,
      "bom": 2199,
      "Ġkomunika": 2200,
      "Ġsave": 2201,
      "Ġura": 2202,
      "niverzi": 2203,
      "ĠKu": 2204,
      "ĠTi": 2205,
      "Ġpora": 2206,
      "Ġpostupa": 2207,
      "niti": 2208,
      "Ã¨": 2209,
      "ty": 2210,
      "Ġovoj": 2211,
      "Ġmikro": 2212,
      "Ġsavreme": 2213,
      "Ġjedne": 2214,
      "Ġimao": 2215,
      "Ġpriti": 2216,
      "Å¡lja": 2217,
      "ud": 2218,
      "Ġdobija": 2219,
      "Ġveliko": 2220,
      "tira": 2221,
      "renje": 2222,
      "Ġispitanika": 2223,
      "kcije": 2224,
      "ĠmoguÄĩnost": 2225,
      "rka": 2226,
      "Ġputem": 2227,
      "Ġproje": 2228,
      "Ġtog": 2229,
      "tnosti": 2230,
      "Äĩim": 2231,
      "rent": 2232,
      "Ġsami": 2233,
      "gija": 2234,
      "dina": 2235,
      "Ġterito": 2236,
      "Ãł": 2237,
      "Ġopa": 2238,
      "vnu": 2239,
      "ĠÅ¡a": 2240,
      "tnom": 2241,
      "ĠoseÄĩa": 2242,
      "Ġdemo": 2243,
      "Ġrazlika": 2244,
      "ĠmiÅ¡lje": 2245,
      "ĠIz": 2246,
      "Ġpobe": 2247,
      "bija": 2248,
      "dovi": 2249,
      "Ġmla": 2250,
      "Ġlice": 2251,
      "Ġobzirom": 2252,
      "Ġprinci": 2253,
      "Å¡Äĩa": 2254,
      "ĠnaÅ¡": 2255,
      "dnih": 2256,
      "tual": 2257,
      "Ġrodite": 2258,
      "jum": 2259,
      "Ġâ": 2260,
      "ĠpreduzeÄĩa": 2261,
      "tnim": 2262,
      "ĠtroÅ¡ko": 2263,
      "Ġsvom": 2264,
      "ĠpaÅ¾": 2265,
      "Ġprona": 2266,
      "Ġnorma": 2267,
      "Ġponu": 2268,
      "Ġotkri": 2269,
      "zdu": 2270,
      "Ġglu": 2271,
      "ili": 2272,
      "led": 2273,
      "Ġmanji": 2274,
      "es": 2275,
      "Ġproblema": 2276,
      "ĠSve": 2277,
      "Ġslika": 2278,
      "bele": 2279,
      "ÉŃÉ": 2280,
      "ljopri": 2281,
      "ĠpruÅ¾a": 2282,
      "Ġeksperi": 2283,
      "ĠpoÅ¡to": 2284,
      "Ġode": 2285,
      "Ġvam": 2286,
      "Ġinvesti": 2287,
      "gledu": 2288,
      "dnog": 2289,
      "tkom": 2290,
      "Ġnjima": 2291,
      "Ġstav": 2292,
      "Ġovim": 2293,
      "Ġbrzi": 2294,
      "Ġsaj": 2295,
      "Ġnovi": 2296,
      "Ġsma": 2297,
      "Ġpretpo": 2298,
      "Ġprvo": 2299,
      "ranju": 2300,
      "ĠCr": 2301,
      "Ġanalize": 2302,
      "Ġzapa": 2303,
      "ĠNema": 2304,
      "Ġosoba": 2305,
      "ĠRi": 2306,
      "nicu": 2307,
      "ĠistraÅ¾iva": 2308,
      "kvi": 2309,
      "Ġtru": 2310,
      "rena": 2311,
      "Ġdra": 2312,
      "pravo": 2313,
      "Ġispu": 2314,
      "Ġiako": 2315,
      "Å¡enje": 2316,
      "opÅ¡te": 2317,
      "Ġgubi": 2318,
      "NI": 2319,
      "formi": 2320,
      "Ja": 2321,
      "Ġ100": 2322,
      "Ġzahteva": 2323,
      "cama": 2324,
      "tovo": 2325,
      "RI": 2326,
      "Ġgrada": 2327,
      "Ġinf": 2328,
      "Ã¡": 2329,
      "Ġuglavnom": 2330,
      "ĠJugosla": 2331,
      "Ġkompone": 2332,
      "Ġnede": 2333,
      "Ġvan": 2334,
      "Ġindust": 2335,
      "nka": 2336,
      "Ġzemlja": 2337,
      "stoji": 2338,
      "Ġpet": 2339,
      "Ġklju": 2340,
      "ÑĮ": 2341,
      "Ġ23": 2342,
      "Ã¥": 2343,
      "rba": 2344,
      "No": 2345,
      "ciona": 2346,
      "ĠLu": 2347,
      "ĠmoguÄĩnosti": 2348,
      "Ġzato": 2349,
      "Ġï": 2350,
      "Ġkontek": 2351,
      "Ġdise": 2352,
      "bio": 2353,
      "Ġmestu": 2354,
      "viÄĩa": 2355,
      "Ġjavlja": 2356,
      "Ġskup": 2357,
      "ĠÄįlan": 2358,
      "Ġnapra": 2359,
      "Äĳeni": 2360,
      "Äįar": 2361,
      "ĠizvrÅ¡e": 2362,
      "Ġvidu": 2363,
      "vili": 2364,
      "ĠzaÅ¡tite": 2365,
      "Å£e": 2366,
      "Ġpriva": 2367,
      "ĠpokuÅ¡a": 2368,
      "Ġsveta": 2369,
      "ĠÄĩelija": 2370,
      "Äįito": 2371,
      "br": 2372,
      "Ovo": 2373,
      "snih": 2374,
      "Ġbolje": 2375,
      "ĠÄįlana": 2376,
      "Å¾io": 2377,
      "Ġfoto": 2378,
      "ÄĬ": 2379,
      "zam": 2380,
      "menti": 2381,
      "Ġpredstavljaju": 2382,
      "Ġnjega": 2383,
      "Ġsvaki": 2384,
      "RO": 2385,
      "Ġizd": 2386,
      "Ġrezultata": 2387,
      "leksi": 2388,
      "lar": 2389,
      "lin": 2390,
      "Ġpripada": 2391,
      "Ġodnos": 2392,
      "Ġdete": 2393,
      "zor": 2394,
      "dam": 2395,
      "Ġjedin": 2396,
      "tica": 2397,
      "mija": 2398,
      "Ġdan": 2399,
      "der": 2400,
      "ĠAleksa": 2401,
      "ĠrazliÄįite": 2402,
      "vlji": 2403,
      "ĠveliÄįi": 2404,
      "den": 2405,
      "Å¡enja": 2406,
      "Ġanaliza": 2407,
      "tus": 2408,
      "Tabela": 2409,
      "Ġaspe": 2410,
      "Ġzlo": 2411,
      "Ġnezavi": 2412,
      "ali": 2413,
      "tnu": 2414,
      "Ġsop": 2415,
      "Ġstaro": 2416,
      "ĠdruÅ¡tva": 2417,
      "Ġprihva": 2418,
      "Ġfakul": 2419,
      "Äĳenju": 2420,
      "ĠKon": 2421,
      "ĠpoloÅ¾a": 2422,
      "ol": 2423,
      "Ġ2011": 2424,
      "gar": 2425,
      "Ġmaterijala": 2426,
      "On": 2427,
      "zne": 2428,
      "Ġumet": 2429,
      "sak": 2430,
      "SK": 2431,
      "kna": 2432,
      "Ġstabi": 2433,
      "Ġvozi": 2434,
      "Ġpristup": 2435,
      "dnici": 2436,
      "Ġporu": 2437,
      "Ġsaobra": 2438,
      "Ġkolo": 2439,
      "Ġud": 2440,
      "sre": 2441,
      "26": 2442,
      "Ġkonku": 2443,
      "Ġzdravstve": 2444,
      "prav": 2445,
      "vale": 2446,
      "Äĳuju": 2447,
      "Ġodnose": 2448,
      "Ġupravo": 2449,
      "Ġotvore": 2450,
      "Ġimati": 2451,
      "Ġobavlja": 2452,
      "Ġpotrebe": 2453,
      "mbra": 2454,
      "nat": 2455,
      "is": 2456,
      "ĠsadrÅ¾i": 2457,
      "Ġsebe": 2458,
      "Äįnost": 2459,
      "Ġsvetu": 2460,
      "Ġtera": 2461,
      "ĠÅ¾ena": 2462,
      "Ġrezultati": 2463,
      "ksima": 2464,
      "Ġverovatno": 2465,
      "graf": 2466,
      "ĠSte": 2467,
      "Ġorganizacije": 2468,
      "vaja": 2469,
      "Ġoslo": 2470,
      "Sve": 2471,
      "Ġuzro": 2472,
      "</": 2473,
      "Ġmetoda": 2474,
      "Ġprove": 2475,
      "NO": 2476,
      "ĠVla": 2477,
      "Ġpodrazumeva": 2478,
      "nove": 2479,
      "ðĿ": 2480,
      "Ġpoljopri": 2481,
      "Ġpotpuno": 2482,
      "Ġ2012": 2483,
      "Ġ2010": 2484,
      "lizacije": 2485,
      "Ġjasno": 2486,
      "Ġvazdu": 2487,
      "Ġsvog": 2488,
      "Ġprizna": 2489,
      "Ġ21": 2490,
      "Äįio": 2491,
      "Ġdiserta": 2492,
      "Ġodra": 2493,
      "min": 2494,
      "ĠÅ¾ele": 2495,
      "Å¡tvo": 2496,
      "movi": 2497,
      "kr": 2498,
      "zbi": 2499,
      "ĠvrÅ¡i": 2500,
      "Ġsvaka": 2501,
      "ĠduÅ¾": 2502,
      "Ġpreda": 2503,
      "Ġpredstav": 2504,
      "ĠsluÄįaj": 2505,
      "Ġsopstve": 2506,
      "MA": 2507,
      "Ġstude": 2508,
      "Ġulogu": 2509,
      "Ġkola": 2510,
      "Ġtoku": 2511,
      "ĠDra": 2512,
      "Ġnovo": 2513,
      "Ġodred": 2514,
      "Ġrazlike": 2515,
      "lama": 2516,
      "ara": 2517,
      "mlje": 2518,
      "sme": 2519,
      "jska": 2520,
      "Ġum": 2521,
      "rali": 2522,
      "ĠomoguÄĩa": 2523,
      "199": 2524,
      "\".": 2525,
      "zacije": 2526,
      "ĠÄįega": 2527,
      "rala": 2528,
      "njih": 2529,
      "kaz": 2530,
      "ĠDru": 2531,
      "mir": 2532,
      "ĠÉ¨": 2533,
      "Ġpomenu": 2534,
      "Ġforma": 2535,
      "Dru": 2536,
      "Ġdeta": 2537,
      "Ġpola": 2538,
      "kupa": 2539,
      "Ġkvaliteta": 2540,
      "sloven": 2541,
      "Ġopo": 2542,
      "ss": 2543,
      "Ġpoput": 2544,
      "Ġprirod": 2545,
      "Ġzakona": 2546,
      "Ġpobo": 2547,
      "ft": 2548,
      "Ġnjihove": 2549,
      "NA": 2550,
      "vÅ¡i": 2551,
      "Ġpolu": 2552,
      "grada": 2553,
      "Å£i": 2554,
      "Ñı": 2555,
      "ĠsaobraÄĩa": 2556,
      "ĠVoj": 2557,
      "É¢Êģ": 2558,
      "Ġredo": 2559,
      "Äĳene": 2560,
      "ĠduÅ¾i": 2561,
      "ĠFe": 2562,
      "Ġkapita": 2563,
      "27": 2564,
      "Ġpotreb": 2565,
      "zenta": 2566,
      "Ġodbra": 2567,
      "Ġkojem": 2568,
      "rem": 2569,
      "Ġkulture": 2570,
      "Ġvremen": 2571,
      "Ġimali": 2572,
      "ĠCe": 2573,
      "cione": 2574,
      "Ġnovih": 2575,
      "Éľ": 2576,
      "ksu": 2577,
      "dje": 2578,
      "Ġnasi": 2579,
      "Ġameri": 2580,
      "Pored": 2581,
      "Äĩenja": 2582,
      "dima": 2583,
      "ĠNiko": 2584,
      "pto": 2585,
      "Ġkreta": 2586,
      "Ġposve": 2587,
      "Ġit": 2588,
      "ĠstatistiÄįki": 2589,
      "Ġznanja": 2590,
      "ĠSAD": 2591,
      "ĠrazliÄįitim": 2592,
      "29": 2593,
      "Ġradio": 2594,
      "ĠGra": 2595,
      "ĠnajviÅ¡e": 2596,
      "Ġ28": 2597,
      "Ġemi": 2598,
      "Ġruko": 2599,
      "ĠnajÄįeÅ¡Äĩe": 2600,
      "Di": 2601,
      "ĠuspeÅ¡": 2602,
      "ĠteÅ¡ko": 2603,
      "Ġnared": 2604,
      "nin": 2605,
      "Nakon": 2606,
      "Ġ2013": 2607,
      "kazi": 2608,
      "lnoj": 2609,
      "turi": 2610,
      "Ġnedosta": 2611,
      "Ġglo": 2612,
      "Ġ2014": 2613,
      "loÅ¡ke": 2614,
      "dnika": 2615,
      "28": 2616,
      "Ġsce": 2617,
      "sve": 2618,
      "Ġusluga": 2619,
      "Iako": 2620,
      "Ġdaje": 2621,
      "ficije": 2622,
      "Ġovde": 2623,
      "Ġintenzi": 2624,
      "ler": 2625,
      "Ġzajedno": 2626,
      "Å¡ku": 2627,
      "liÄĩ": 2628,
      "Ġnalaze": 2629,
      "Ġnjegove": 2630,
      "ljenja": 2631,
      "Ġobje": 2632,
      "Ġkraj": 2633,
      "dili": 2634,
      "ĠsluÅ¾be": 2635,
      "stica": 2636,
      "rita": 2637,
      "Ġminu": 2638,
      "Ġmenja": 2639,
      "Ġcilju": 2640,
      "Ġ27": 2641,
      "ĠPra": 2642,
      "LI": 2643,
      "Sta": 2644,
      "Ġgleda": 2645,
      "Ġnagla": 2646,
      "nskom": 2647,
      "nose": 2648,
      "Ġver": 2649,
      "roma": 2650,
      "Å¾o": 2651,
      "Ġovu": 2652,
      "Ġpogledu": 2653,
      "Ġjednu": 2654,
      "Ġkriteri": 2655,
      "Ġunapre": 2656,
      "Ġ26": 2657,
      "Ġzakon": 2658,
      "ĠZe": 2659,
      "Ġ40": 2660,
      "Ġ2008": 2661,
      "neti": 2662,
      "ĠAmeri": 2663,
      "gom": 2664,
      "ĠpoÄįi": 2665,
      "govi": 2666,
      "ĠZako": 2667,
      "Ġgrupi": 2668,
      "kcija": 2669,
      "njen": 2670,
      "dila": 2671,
      "ĠoÄįeki": 2672,
      "Ġpobolj": 2673,
      "ns": 2674,
      "Ġ2009": 2675,
      "ĠÄįiji": 2676,
      "tina": 2677,
      ".\"": 2678,
      "vrede": 2679,
      "ĠPi": 2680,
      "................": 2681,
      "ĠmoÅ¾emo": 2682,
      "ĠuÄįenika": 2683,
      "Ġvisi": 2684,
      "kade": 2685,
      "Ġusled": 2686,
      "Êĥ": 2687,
      "Ġmiliona": 2688,
      "Ovaj": 2689,
      "Ġmogao": 2690,
      "Ġzara": 2691,
      "ĠMinistar": 2692,
      "ĠpriÄįa": 2693,
      "Ġtipa": 2694,
      "Ġfaktora": 2695,
      "Äįeno": 2696,
      "Ġvas": 2697,
      "ĠokruÅ¾e": 2698,
      "Ġbazi": 2699,
      "Ġprepozna": 2700,
      "sred": 2701,
      "Ġobjavlje": 2702,
      "ul": 2703,
      "Ġkvalitet": 2704,
      "Ġostvari": 2705,
      "In": 2706,
      "Ġnivoa": 2707,
      "nike": 2708,
      "Ġsebi": 2709,
      "vcu": 2710,
      "Ġprostora": 2711,
      "sur": 2712,
      "Ġrezultat": 2713,
      "Ġizgrad": 2714,
      "Bo": 2715,
      "ĠHo": 2716,
      "05": 2717,
      "Ġsig": 2718,
      "Ġprven": 2719,
      "Ġrazloga": 2720,
      "klu": 2721,
      "dnom": 2722,
      "bine": 2723,
      "kuplja": 2724,
      "Ġzema": 2725,
      "Ġuticaja": 2726,
      "Ġreal": 2727,
      "ksida": 2728,
      "Å¡tine": 2729,
      "ton": 2730,
      "pote": 2731,
      "Ali": 2732,
      "Go": 2733,
      "nicama": 2734,
      "Ġnjegov": 2735,
      "Ġpacijenata": 2736,
      "Ġstudija": 2737,
      "ĠÉ§": 2738,
      "laca": 2739,
      "Ġjugo": 2740,
      "ĠÉŃ": 2741,
      "ly": 2742,
      "ĠoÄįi": 2743,
      "Ġdoba": 2744,
      "Ġkonsta": 2745,
      "Ġstvar": 2746,
      "Äįen": 2747,
      "Ġunutar": 2748,
      "bili": 2749,
      "ĠnaÅ¡i": 2750,
      "oni": 2751,
      "Ġprograma": 2752,
      "Ġzame": 2753,
      "TA": 2754,
      "Ġuvo": 2755,
      "isto": 2756,
      "Ġstre": 2757,
      "metara": 2758,
      "bla": 2759,
      "Ġmera": 2760,
      "kula": 2761,
      "Ġuni": 2762,
      "tive": 2763,
      "stvom": 2764,
      "LA": 2765,
      "Ġstanja": 2766,
      "Ġlitera": 2767,
      "terna": 2768,
      "ĠsadrÅ¾aja": 2769,
      "ster": 2770,
      "Ġgr": 2771,
      "//": 2772,
      "Ġukazuje": 2773,
      "ĠPO": 2774,
      "ĠmoÅ¾da": 2775,
      "Ġ195": 2776,
      "Ġpodaci": 2777,
      "Ġsupro": 2778,
      "Ġpsiho": 2779,
      "ĠÉŀ": 2780,
      "loÅ¡kih": 2781,
      "Ġklu": 2782,
      "Ġevrop": 2783,
      "Ġizbor": 2784,
      "Ġsezo": 2785,
      "Ġsredine": 2786,
      "zaj": 2787,
      "para": 2788,
      "Ġljuba": 2789,
      "fu": 2790,
      "lini": 2791,
      "É¤": 2792,
      "ĠAr": 2793,
      "stima": 2794,
      "Ġteme": 2795,
      "veo": 2796,
      "Ġniti": 2797,
      "vnika": 2798,
      "Ġinformacija": 2799,
      "tski": 2800,
      "sim": 2801,
      "Ġprofi": 2802,
      "Ġrazvija": 2803,
      "juma": 2804,
      "Ġpoe": 2805,
      "Ġipak": 2806,
      "35": 2807,
      "Ġprostor": 2808,
      "Ġisko": 2809,
      "Ġenergije": 2810,
      ".âĢľ": 2811,
      "bama": 2812,
      "Ġpoj": 2813,
      "Ġdovoljno": 2814,
      "ts": 2815,
      "Ġposledica": 2816,
      "Ġjoj": 2817,
      "Ġcelo": 2818,
      "Ġizbo": 2819,
      "Ġizne": 2820,
      "Ġmoraju": 2821,
      "39": 2822,
      "Ġjezik": 2823,
      "Se": 2824,
      "ĠFa": 2825,
      "ÉŁÉ§": 2826,
      "Ġinformacije": 2827,
      "Ġtret": 2828,
      "paci": 2829,
      "40": 2830,
      "ĠÉ¤": 2831,
      "lica": 2832,
      "Ġiste": 2833,
      "Äįena": 2834,
      "ntro": 2835,
      "nicija": 2836,
      "ry": 2837,
      "ruje": 2838,
      "nosa": 2839,
      "Ġponovo": 2840,
      "Ġgodinu": 2841,
      "Ġ22": 2842,
      "Ġimala": 2843,
      "vidu": 2844,
      "38": 2845,
      "listi": 2846,
      "ttp": 2847,
      "vane": 2848,
      "Ġ2015": 2849,
      "Ġstanje": 2850,
      "nskim": 2851,
      "ĠLo": 2852,
      "Ġpodi": 2853,
      "alka": 2854,
      "mbe": 2855,
      "Ġkonkre": 2856,
      "ĠSlo": 2857,
      "âĢĿ.": 2858,
      "stribu": 2859,
      "Ġperiod": 2860,
      "stom": 2861,
      "ĠnadleÅ¾": 2862,
      "Ġformu": 2863,
      "ÉļÉ§": 2864,
      "Ġzavisnosti": 2865,
      "TE": 2866,
      "Ġmladi": 2867,
      "Ġistorij": 2868,
      "://": 2869,
      "ĠoÅ¡te": 2870,
      "Ġ...": 2871,
      "Ġzemalja": 2872,
      "nijih": 2873,
      "che": 2874,
      "Ġpostavlja": 2875,
      "Ġspecija": 2876,
      "ravno": 2877,
      "É«É": 2878,
      "dru": 2879,
      "Ġsvojih": 2880,
      "lite": 2881,
      "Å¡li": 2882,
      "Ġsazna": 2883,
      ".)": 2884,
      "Ġrastvo": 2885,
      "Pred": 2886,
      "ĠnaroÄįito": 2887,
      "ĠreÅ¡enja": 2888,
      "Ġ2007": 2889,
      "ris": 2890,
      "Ġprimene": 2891,
      "Ġispitiva": 2892,
      "Ġnosi": 2893,
      "Ukoliko": 2894,
      "tske": 2895,
      "Ġoblika": 2896,
      "Ġdosta": 2897,
      "lata": 2898,
      "Ġekstra": 2899,
      "Å¡iÄĩ": 2900,
      "ranih": 2901,
      "Ġprivred": 2902,
      "fiko": 2903,
      "Ġopisa": 2904,
      "Ġranije": 2905,
      "Ġproto": 2906,
      "Ġzavisi": 2907,
      "mpi": 2908,
      "Ġmedici": 2909,
      "stuplje": 2910,
      "ĠCa": 2911,
      "Ġdimen": 2912,
      "Ġpotom": 2913,
      "zultati": 2914,
      "ptem": 2915,
      "nicima": 2916,
      "Ġkor": 2917,
      "ĠHe": 2918,
      "Ġosim": 2919,
      "zno": 2920,
      "É¥": 2921,
      "ĠopÅ¡te": 2922,
      "por": 2923,
      "govor": 2924,
      "Ġple": 2925,
      "Ġrazvije": 2926,
      "ĠII": 2927,
      "jevima": 2928,
      "tuje": 2929,
      "Äįuje": 2930,
      "Ġkorisni": 2931,
      "Ġboga": 2932,
      "Ġstavo": 2933,
      "dar": 2934,
      "rin": 2935,
      "volu": 2936,
      "Ġ29": 2937,
      "Ġitd": 2938,
      "ĠÄįine": 2939,
      "rina": 2940,
      "dÅ¾e": 2941,
      "njenja": 2942,
      "Ġpokazuje": 2943,
      "Ġizbe": 2944,
      "Ġprogram": 2945,
      "Ġope": 2946,
      "dekva": 2947,
      "É¨Éľ": 2948,
      "blja": 2949,
      "Ġosu": 2950,
      "Ġjeziku": 2951,
      "boli": 2952,
      "Ġ2006": 2953,
      "Pe": 2954,
      "Ġzahva": 2955,
      "snog": 2956,
      "ĠpoboljÅ¡a": 2957,
      "Ġpropisa": 2958,
      "Ġdrugom": 2959,
      "Ġcrkve": 2960,
      "JE": 2961,
      "ĠFi": 2962,
      "Äįeni": 2963,
      "Ġpolitike": 2964,
      "Î±": 2965,
      "ĠmuÅ¡ka": 2966,
      "Ġrazmatra": 2967,
      "njena": 2968,
      "Ġsvojoj": 2969,
      "Ġdese": 2970,
      "Ġonih": 2971,
      "Ġpart": 2972,
      "Ġinterak": 2973,
      "Ġkonstruk": 2974,
      "Ġprakti": 2975,
      "vaj": 2976,
      "Ġtela": 2977,
      "Ġhra": 2978,
      "ĠsadrÅ¾aj": 2979,
      "Ġpristupa": 2980,
      "tlji": 2981,
      "vajuÄĩi": 2982,
      "Ġ+": 2983,
      "jskim": 2984,
      "ĠÅ¾a": 2985,
      "tivnim": 2986,
      "ljno": 2987,
      "Ġobuhvata": 2988,
      "ĠbiÄĩe": 2989,
      "vnoj": 2990,
      "Ġprodu": 2991,
      "telja": 2992,
      "Ġtih": 2993,
      "Ġkomi": 2994,
      "sional": 2995,
      "gita": 2996,
      "eficije": 2997,
      "Ġbilj": 2998,
      "Ġdrugog": 2999,
      "lost": 3000,
      "ih": 3001,
      "spita": 3002,
      "cionih": 3003,
      "ÃŃ": 3004,
      "snu": 3005,
      "volja": 3006,
      "36": 3007,
      "vid": 3008,
      "ziju": 3009,
      "mje": 3010,
      "Ġ%": 3011,
      "**": 3012,
      "Ġnasle": 3013,
      "Ġnovina": 3014,
      "Ġodli": 3015,
      "ĠGe": 3016,
      "Ġrepre": 3017,
      "ĠniÅ¡ta": 3018,
      "ĠgraÄĳe": 3019,
      "Ġstrana": 3020,
      "lozo": 3021,
      "Ġmani": 3022,
      "Ġumetni": 3023,
      "IV": 3024,
      "Ġsubjek": 3025,
      "ĠiskljuÄįi": 3026,
      "Ġr": 3027,
      "Ġzasno": 3028,
      "Ġrizika": 3029,
      "Ġterapi": 3030,
      "Ġkona": 3031,
      "Ġresur": 3032,
      "lici": 3033,
      "Ġhemi": 3034,
      "Ġodu": 3035,
      "ĠHrvat": 3036,
      "Ġgodini": 3037,
      "ĠMilo": 3038,
      "kse": 3039,
      "telji": 3040,
      "Ġdne": 3041,
      "Ġgro": 3042,
      "Ġpostoja": 3043,
      "OR": 3044,
      "Ġmetode": 3045,
      "ĠreÅ¾i": 3046,
      "mora": 3047,
      "jedna": 3048,
      "beli": 3049,
      ".âĢŀ": 3050,
      "Ġjuna": 3051,
      "Ġpravila": 3052,
      "jih": 3053,
      "Ġmenad": 3054,
      "Ġperioda": 3055,
      "nto": 3056,
      "Ġautora": 3057,
      "ĠEvrop": 3058,
      "34": 3059,
      "ĠdomaÄĩi": 3060,
      "roj": 3061,
      "ĠMeÄĳu": 3062,
      "Ġdire": 3063,
      "Ġdostup": 3064,
      "Å¡ki": 3065,
      "Ġvelike": 3066,
      "Ġeksperimenta": 3067,
      "Éŀ": 3068,
      "Ġorganizacija": 3069,
      "Ġosobe": 3070,
      "Ġgloba": 3071,
      "ut": 3072,
      "ĠveÄĩe": 3073,
      "vori": 3074,
      "Ġkapaci": 3075,
      "nala": 3076,
      "ĠSto": 3077,
      "dera": 3078,
      "ĠdoÅ¾i": 3079,
      "Sva": 3080,
      "Ġglago": 3081,
      "ĠveÄĩa": 3082,
      "dnost": 3083,
      "37": 3084,
      "Be": 3085,
      "niju": 3086,
      "zuju": 3087,
      "pisi": 3088,
      "Ġsklo": 3089,
      "Ġ2016": 3090,
      "ĠteÅ¾i": 3091,
      "Ġzabra": 3092,
      "Ġdinara": 3093,
      "Ġokto": 3094,
      "rac": 3095,
      "ĠÅ¡kole": 3096,
      "Ġpreva": 3097,
      "Å¡taj": 3098,
      "Ġtuma": 3099,
      "Ġpostavlje": 3100,
      "Ġsara": 3101,
      "Ġfunkcije": 3102,
      "udba": 3103,
      "vrÅ¡": 3104,
      "Ġjednostav": 3105,
      "ld": 3106,
      "Äįnoj": 3107,
      "ðĿĳ": 3108,
      "ntar": 3109,
      "dnoj": 3110,
      "miÅ¡lja": 3111,
      "tinu": 3112,
      "Ġvrati": 3113,
      "Ġnjegova": 3114,
      "ĠNA": 3115,
      "Ba": 3116,
      "Va": 3117,
      "ĠIsto": 3118,
      "Ġstudi": 3119,
      "Ġrazvoju": 3120,
      "sci": 3121,
      "ĠmoÅ¾ete": 3122,
      "Å¡tina": 3123,
      "Å¾en": 3124,
      "KA": 3125,
      "lti": 3126,
      "Äīe": 3127,
      "Ġaktivnost": 3128,
      "ĠÉ©Éª": 3129,
      "Ġskoro": 3130,
      "Ġodma": 3131,
      "Ġpokazuju": 3132,
      "Ġkata": 3133,
      "Ġproizvodnje": 3134,
      "Äįak": 3135,
      "nke": 3136,
      "ĠÄįetvr": 3137,
      "njeg": 3138,
      "Si": 3139,
      "Ġinstru": 3140,
      "ĠzaÅ¡titu": 3141,
      "Ġtime": 3142,
      "Ġoblik": 3143,
      "lice": 3144,
      "slov": 3145,
      "Ġfeno": 3146,
      "Ġgotovo": 3147,
      "Ġ2005": 3148,
      "Ġmehani": 3149,
      "Ġpoma": 3150,
      "Jo": 3151,
      "Tre": 3152,
      "Ġzabele": 3153,
      "njuju": 3154,
      "len": 3155,
      "Ġsredstava": 3156,
      "Ġgeo": 3157,
      "Ġekono": 3158,
      "Ġprevo": 3159,
      "Ġzvani": 3160,
      "SA": 3161,
      "ĠÅ¾ene": 3162,
      "ĠHer": 3163,
      "grade": 3164,
      "Ġreda": 3165,
      "Ġpreci": 3166,
      "):": 3167,
      "Ġprocesu": 3168,
      "Ġusme": 3169,
      "Ġzau": 3170,
      "OD": 3171,
      "sanje": 3172,
      "Ima": 3173,
      "________": 3174,
      "Ġnjihovog": 3175,
      "rano": 3176,
      "Ġneposred": 3177,
      "Ġdovodi": 3178,
      "Ġ60": 3179,
      "jedinje": 3180,
      "Ġpredsednik": 3181,
      "Ġpreporu": 3182,
      "Ġfilm": 3183,
      "Ġdej": 3184,
      "lizova": 3185,
      "Ñĭ": 3186,
      "Ġsadr": 3187,
      "tivan": 3188,
      "Ġstudije": 3189,
      "Ġ?": 3190,
      "ĠPar": 3191,
      "Ġindividu": 3192,
      "Ġmogli": 3193,
      "Ġnajbolje": 3194,
      "ĠutiÄįe": 3195,
      "Ġkraja": 3196,
      "Ġstrukture": 3197,
      "Ġmarke": 3198,
      "nisti": 3199,
      "uro": 3200,
      "Äĩuje": 3201,
      "Ġdopu": 3202,
      "Ġturisti": 3203,
      "Ġevra": 3204,
      "Ġemo": 3205,
      "Ġstruktura": 3206,
      "Ã®": 3207,
      "tacije": 3208,
      "pom": 3209,
      "Ġblo": 3210,
      "ĠzavrÅ¡e": 3211,
      "vena": 3212,
      "Ġkoga": 3213,
      "Ġpogla": 3214,
      "Ġsnage": 3215,
      "Ġtki": 3216,
      "rica": 3217,
      "Ġfakto": 3218,
      "Ġturi": 3219,
      "Ġnjegovog": 3220,
      "Ġpredsta": 3221,
      "Äĩena": 3222,
      "zori": 3223,
      "Ġnekim": 3224,
      "njo": 3225,
      "Ġsuko": 3226,
      "ck": 3227,
      "Ġ2000": 3228,
      "veta": 3229,
      "Ġdeli": 3230,
      "Naime": 3231,
      "sen": 3232,
      "ĠRS": 3233,
      "ljeni": 3234,
      "raz": 3235,
      "ĠPu": 3236,
      "ĠUniverzi": 3237,
      "Kod": 3238,
      "Le": 3239,
      "Å¾ava": 3240,
      "Ġsredstva": 3241,
      "Zbog": 3242,
      "ĠVo": 3243,
      "ĠMu": 3244,
      "dine": 3245,
      "Ġvid": 3246,
      "Ġtoliko": 3247,
      "Ġinicija": 3248,
      "Ġnaroda": 3249,
      "kt": 3250,
      "nasti": 3251,
      "ĠdrugaÄįi": 3252,
      "rava": 3253,
      "60": 3254,
      "leko": 3255,
      "ĠraÄįu": 3256,
      "Äĩenje": 3257,
      "Ġprvom": 3258,
      "ĠizvrÅ¡i": 3259,
      "ĠznaÄįaja": 3260,
      "âĢĶ": 3261,
      "dnim": 3262,
      "Ġtakmi": 3263,
      "Ġobrazovanja": 3264,
      "ote": 3265,
      "Ġozbi": 3266,
      "Ġnjemu": 3267,
      "Ġinterne": 3268,
      "Ġfunkcioni": 3269,
      "ntno": 3270,
      "ĠÄĩemo": 3271,
      "Äĩen": 3272,
      "leva": 3273,
      "Ġvoda": 3274,
      "Ġveze": 3275,
      "Ġmate": 3276,
      "ĠKoso": 3277,
      "Ġravno": 3278,
      "Ġmole": 3279,
      "vgu": 3280,
      "fikacije": 3281,
      "ista": 3282,
      "ĠSrp": 3283,
      "Ġat": 3284,
      "Ġkole": 3285,
      "Ġkredi": 3286,
      "Ġkontak": 3287,
      "tine": 3288,
      "33": 3289,
      "ĠÅ¾ivoti": 3290,
      "reni": 3291,
      "Ġseptem": 3292,
      "Ġkarakteristike": 3293,
      "AR": 3294,
      "cionog": 3295,
      "tije": 3296,
      "Ġkoeficije": 3297,
      "nov": 3298,
      "Ġsasta": 3299,
      "loviÄĩ": 3300,
      "fici": 3301,
      "Ġ<": 3302,
      "ĠdoÅ¡lo": 3303,
      "blika": 3304,
      "manti": 3305,
      "Å¾ena": 3306,
      "aj": 3307,
      "Ġmaksima": 3308,
      "Ġdisku": 3309,
      "din": 3310,
      "Ġodluka": 3311,
      "ĠplaÄĩa": 3312,
      "ĠÅ¾ive": 3313,
      "Ġbroju": 3314,
      "Ġzemljama": 3315,
      "ljenje": 3316,
      "sniva": 3317,
      "ĠUkraji": 3318,
      "Raz": 3319,
      "struktu": 3320,
      "deo": 3321,
      "ĠÉ«É": 3322,
      "Ġdistribu": 3323,
      "ĠÉ«": 3324,
      "ĠzadrÅ¾a": 3325,
      "Ġugovora": 3326,
      "rvo": 3327,
      "Äĳan": 3328,
      "Ġsvakog": 3329,
      "Ġcent": 3330,
      "eng": 3331,
      "Ġnapu": 3332,
      "pova": 3333,
      "ĠreÅ¡a": 3334,
      "ĠponaÅ¡anja": 3335,
      "ĠpomoÄĩu": 3336,
      "Äĳivanja": 3337,
      "Ġlako": 3338,
      "ĠuopÅ¡te": 3339,
      "Ġpredmet": 3340,
      "Äİ": 3341,
      "Ġporodice": 3342,
      "rona": 3343,
      "like": 3344,
      "É¢É¦": 3345,
      "Ġ2017": 3346,
      "Ġposao": 3347,
      "Ġ2004": 3348,
      "Ġizgleda": 3349,
      "KO": 3350,
      "Ġrade": 3351,
      "Ġmali": 3352,
      "ĠBeograda": 3353,
      "dove": 3354,
      "ĠtraÅ¾i": 3355,
      "ĠmoÄĩi": 3356,
      "ima": 3357,
      "Ġtrenutku": 3358,
      "45": 3359,
      "Ġinteresa": 3360,
      "ĠPred": 3361,
      "Ġreci": 3362,
      "jedno": 3363,
      "Ġpomi": 3364,
      "Ipak": 3365,
      "Ġtradicional": 3366,
      "zacija": 3367,
      "VI": 3368,
      "Ġelemenata": 3369,
      "Ġproduk": 3370,
      "ĠproÅ¡i": 3371,
      "Ġpopula": 3372,
      "rnu": 3373,
      "Ġlogi": 3374,
      "pora": 3375,
      "ĠodreÄĳene": 3376,
      "Å¡njeg": 3377,
      "Ġsrpskog": 3378,
      "Ġfon": 3379,
      "Ġodsto": 3380,
      "Ġpodatke": 3381,
      "Ġprisustvo": 3382,
      "tue": 3383,
      "Ġnapre": 3384,
      "ll": 3385,
      "njoj": 3386,
      "Ġsrpske": 3387,
      "IJA": 3388,
      "Ġposlu": 3389,
      "Ġsuda": 3390,
      "Li": 3391,
      "rp": 3392,
      "ĠstanovniÅ¡tva": 3393,
      "ÉļÉľ": 3394,
      "Ġsum": 3395,
      "Ġtesti": 3396,
      "pove": 3397,
      "ĠzavrÅ¡i": 3398,
      "Ġenerge": 3399,
      "ĠodluÄįi": 3400,
      "80": 3401,
      "Ġvisoko": 3402,
      "Ġministar": 3403,
      "Ġoru": 3404,
      "ĠnajveÄĩi": 3405,
      "Ġtamo": 3406,
      "naÄįe": 3407,
      "Ġfunkcija": 3408,
      "fikova": 3409,
      "Ġispra": 3410,
      "Posle": 3411,
      "Ġuze": 3412,
      "Ġzat": 3413,
      "ĠukljuÄįujuÄĩi": 3414,
      "Ġobliku": 3415,
      "vencije": 3416,
      "gan": 3417,
      "sma": 3418,
      "Ġstanju": 3419,
      "Ġzajednice": 3420,
      "Ġpostaje": 3421,
      "Ġnakna": 3422,
      "Ġhidro": 3423,
      "Ġpone": 3424,
      "Å¾ne": 3425,
      "prija": 3426,
      "Ġopse": 3427,
      "Ġnapisa": 3428,
      "pti": 3429,
      "vnost": 3430,
      "Ġuzima": 3431,
      "Ġneophodno": 3432,
      "ĠÄįime": 3433,
      "Ġtere": 3434,
      "mino": 3435,
      "net": 3436,
      "Ġpreo": 3437,
      "nca": 3438,
      "Ġakade": 3439,
      "Ġdomina": 3440,
      "ĠomoguÄĩava": 3441,
      "ER": 3442,
      "Ġovak": 3443,
      "Ġke": 3444,
      "Ġsposobnosti": 3445,
      "Ġpovra": 3446,
      "ĠFrancu": 3447,
      "Ġkompanije": 3448,
      "Ġsistemu": 3449,
      "lazak": 3450,
      "Ġdokumenta": 3451,
      "Ġprvog": 3452,
      "Ġprve": 3453,
      "Ġsvakom": 3454,
      "Su": 3455,
      "Å¾enje": 3456,
      "Ġizgu": 3457,
      "Ġanga": 3458,
      "gram": 3459,
      "talija": 3460,
      "kte": 3461,
      "Äįara": 3462,
      "Ġposlova": 3463,
      "Ġuslova": 3464,
      "Ġbezbednosti": 3465,
      "dovima": 3466,
      "Ġobaveza": 3467,
      "Ġprilago": 3468,
      "it": 3469,
      "%)": 3470,
      "Ġfotografi": 3471,
      "Ġarhitek": 3472,
      "jim": 3473,
      "Gra": 3474,
      "ĠÏ": 3475,
      "nuo": 3476,
      "Ġgod": 3477,
      "Å¡la": 3478,
      "Ġprva": 3479,
      "stoje": 3480,
      "vite": 3481,
      "vara": 3482,
      "Ġfunkcional": 3483,
      "Ġkrei": 3484,
      "ĠomoguÄĩi": 3485,
      "ĠÅ¡iro": 3486,
      "Ġzaposlenih": 3487,
      "jskom": 3488,
      "ĠpomoÄĩi": 3489,
      "Ġska": 3490,
      "Ġnjihov": 3491,
      "Ġdemokra": 3492,
      "Î½": 3493,
      "Ġmar": 3494,
      "uÄįa": 3495,
      "Ã±": 3496,
      "ljena": 3497,
      "Ġkoncentracije": 3498,
      "Ġx": 3499,
      "Ġ2018": 3500,
      "Ġkontekstu": 3501,
      "Ġprofesional": 3502,
      "Äīi": 3503,
      "njom": 3504,
      "Ġporeme": 3505,
      "48": 3506,
      "Ġperforma": 3507,
      "ĠÄĮe": 3508,
      "Ġumetnosti": 3509,
      "Ĥ·": 3510,
      "Ġknjiga": 3511,
      "Ġpokreta": 3512,
      "Ġupravljanja": 3513,
      "tili": 3514,
      "Sto": 3515,
      "Ġkojom": 3516,
      "Ġautor": 3517,
      "Ġzapravo": 3518,
      "Ġispod": 3519,
      "Ġintegra": 3520,
      "ED": 3521,
      "ĠCo": 3522,
      "Ġpostupak": 3523,
      "ĠâĢ¢": 3524,
      "zem": 3525,
      "Ġmogla": 3526,
      "Ġsrpski": 3527,
      "nac": 3528,
      "sanja": 3529,
      "hoda": 3530,
      "Ġapri": 3531,
      "Ġprese": 3532,
      "Ġsport": 3533,
      "ĠzemljiÅ¡ta": 3534,
      "ĠgraÄĳana": 3535,
      "Ġsinte": 3536,
      "Ġodluke": 3537,
      "Ġinde": 3538,
      "Ġrezultate": 3539,
      "Ġprojekta": 3540,
      "Ġprimenom": 3541,
      "Ġengle": 3542,
      "Ġco": 3543,
      "Ġtranspo": 3544,
      "ĠnaÄįina": 3545,
      "Ġstepen": 3546,
      "loÅ¡kog": 3547,
      "Ġsvedo": 3548,
      "sce": 3549,
      "Ġ2002": 3550,
      "JA": 3551,
      "É¨Êģ": 3552,
      "Ġnekog": 3553,
      "Ġzo": 3554,
      "Ġ2003": 3555,
      "takmi": 3556,
      "Ġpada": 3557,
      "Ġzatvo": 3558,
      "Ġkomplek": 3559,
      "ĠÅ¡est": 3560,
      "vano": 3561,
      "Ġautori": 3562,
      "Ġcar": 3563,
      "tivnu": 3564,
      "tivnom": 3565,
      "Ġradova": 3566,
      "Ġrasta": 3567,
      "Ġnov": 3568,
      "snim": 3569,
      "É¨É¦": 3570,
      "gro": 3571,
      "Ġseg": 3572,
      "ntu": 3573,
      "Ġputo": 3574,
      "Å¡njih": 3575,
      "Ġdola": 3576,
      "Ġkorisnika": 3577,
      "ĠÅ¾eli": 3578,
      "Ġniko": 3579,
      "Å¾ila": 3580,
      "%,": 3581,
      "rd": 3582,
      "Ġvozila": 3583,
      "Ġistovremeno": 3584,
      "Ġ;": 3585,
      "Ġfudba": 3586,
      "ĠÄįovek": 3587,
      "ĠpovrÅ¡ine": 3588,
      "ĠiskljuÄįivo": 3589,
      "ĠâĢĺ": 3590,
      "Ġadekva": 3591,
      "Ġkog": 3592,
      "Ġdirektno": 3593,
      "nsko": 3594,
      "ĠKe": 3595,
      "kida": 3596,
      "Ġubi": 3597,
      "Ġprostoru": 3598,
      "Ġbrzo": 3599,
      "stupi": 3600,
      "Ġnajbolji": 3601,
      "kuju": 3602,
      "ten": 3603,
      "ĠpotroÅ¡a": 3604,
      "ĠpodrÅ¾a": 3605,
      "laganja": 3606,
      "gh": 3607,
      "mova": 3608,
      "É¨ÉĿ": 3609,
      "Ġobzir": 3610,
      "ĠreÅ¡enje": 3611,
      "Ġviru": 3612,
      "Ġsagla": 3613,
      "Ġodgovara": 3614,
      "gru": 3615,
      "naro": 3616,
      "Ġpredstavlje": 3617,
      "70": 3618,
      "Ġkompanija": 3619,
      "gor": 3620,
      "*''": 3621,
      "akle": 3622,
      "Ġusluge": 3623,
      "Ġnajmanje": 3624,
      "TI": 3625,
      "mbar": 3626,
      "Ġkupo": 3627,
      "ĠTu": 3628,
      "Ġnesta": 3629,
      "Ġpoljoprivred": 3630,
      "Ġhttp": 3631,
      "Ġsamou": 3632,
      "ĠobiÄįno": 3633,
      "zmu": 3634,
      "Ġreprezenta": 3635,
      "ĠEvrope": 3636,
      "Ġnjihova": 3637,
      "Ġpredi": 3638,
      "gri": 3639,
      "Äĩemo": 3640,
      "Ġreze": 3641,
      "siju": 3642,
      "Ġjanu": 3643,
      "ĠmeÄĳutim": 3644,
      "Ġprocedu": 3645,
      "Ġobzira": 3646,
      "Ġrekla": 3647,
      "ĠnaÄįe": 3648,
      "Kon": 3649,
      "ljen": 3650,
      "ĠTur": 3651,
      "pisuje": 3652,
      "mene": 3653,
      "jne": 3654,
      "Ġtekstu": 3655,
      "tila": 3656,
      "SS": 3657,
      "ljive": 3658,
      "Ġpraksi": 3659,
      "lio": 3660,
      "Ġminuta": 3661,
      "ĠtrÅ¾iÅ¡tu": 3662,
      "ljiva": 3663,
      "kad": 3664,
      "Ġodmah": 3665,
      "Ġmeseci": 3666,
      "Ġovla": 3667,
      "vica": 3668,
      "vaÅ¾": 3669,
      "Ġstrani": 3670,
      "Ġparametara": 3671,
      "veni": 3672,
      "Ġsvakodne": 3673,
      "tija": 3674,
      "Ġ35": 3675,
      "Ġokru": 3676,
      "stina": 3677,
      "Ġseku": 3678,
      "Ġfazi": 3679,
      "Ã³": 3680,
      "lozi": 3681,
      "Ġnikada": 3682,
      "Ġsprovo": 3683,
      "Ġvelika": 3684,
      "ĠznaÄįajna": 3685,
      "Ġkarakteristika": 3686,
      "riÄĩ": 3687,
      "Ġjavnog": 3688,
      "Ġzastuplje": 3689,
      "Ġmini": 3690,
      "nas": 3691,
      "rea": 3692,
      "ĠistiÄįe": 3693,
      "Ġostalih": 3694,
      "vide": 3695,
      "Ġsmrti": 3696,
      "Ġsan": 3697,
      "Ġmedija": 3698,
      "Ġdosti": 3699,
      "rnim": 3700,
      "Ġcena": 3701,
      "Ġpresu": 3702,
      "ĠJugoslavije": 3703,
      "ĠliÄįnosti": 3704,
      "uzda": 3705,
      "ĠkuÄĩe": 3706,
      "Ġukazuju": 3707,
      "Ġpost": 3708,
      "Ġbih": 3709,
      "Ġkolek": 3710,
      "pravda": 3711,
      "Ġugro": 3712,
      "lus": 3713,
      "Ġbibli": 3714,
      "Ġspek": 3715,
      "mobi": 3716,
      "rhi": 3717,
      "ĠY": 3718,
      "fera": 3719,
      "kove": 3720,
      "ĠBalka": 3721,
      "ĠâĢĿ": 3722,
      "godine": 3723,
      "ĠZA": 3724,
      "slav": 3725,
      "Î¿": 3726,
      "ĠreÄĩi": 3727,
      "SP": 3728,
      "Ġglavni": 3729,
      "Äįene": 3730,
      "31": 3731,
      "tivnost": 3732,
      "Ð¹": 3733,
      "Ġorgana": 3734,
      "ĠpoÄįetka": 3735,
      "mentu": 3736,
      "Ġelektri": 3737,
      "Ġsporazu": 3738,
      "gno": 3739,
      "ĠureÄĳa": 3740,
      "Rezultati": 3741,
      "!!": 3742,
      "mira": 3743,
      "Ġ2001": 3744,
      "Ġsedi": 3745,
      "rene": 3746,
      "dela": 3747,
      "raka": 3748,
      "Å¾bi": 3749,
      "Ġdonosi": 3750,
      "tru": 3751,
      "Ġ2020": 3752,
      "ĠbuduÄĩ": 3753,
      "siji": 3754,
      "zv": 3755,
      "Ġhro": 3756,
      "tivnosti": 3757,
      "nse": 3758,
      "Ġznatno": 3759,
      "Ġboje": 3760,
      "we": 3761,
      "ĠVojvodi": 3762,
      "Ġfra": 3763,
      "Ġjugosloven": 3764,
      "vski": 3765,
      "Ġsku": 3766,
      "Ġavgu": 3767,
      "Ġurba": 3768,
      "Ġpoti": 3769,
      "Ġkombina": 3770,
      "minal": 3771,
      "Ġregula": 3772,
      "Ġpotra": 3773,
      "nuti": 3774,
      "ĠpoÄįetku": 3775,
      "Ġfilozo": 3776,
      "Ġhipote": 3777,
      "ĠsledeÄĩe": 3778,
      "mp": 3779,
      "wa": 3780,
      "Ġslici": 3781,
      "ÉŁÉŀ": 3782,
      "ĠÅ¡te": 3783,
      "Ġrast": 3784,
      "ĠÅ¾u": 3785,
      "Ġizaz": 3786,
      "Ġfaktor": 3787,
      "Ġdinami": 3788,
      "Ġdigita": 3789,
      "Ġnjihovo": 3790,
      "ĠVladi": 3791,
      "Ġsnaga": 3792,
      "Ġmor": 3793,
      "Ġdono": 3794,
      "duje": 3795,
      "Ġopti": 3796,
      "ziji": 3797,
      "lizacija": 3798,
      "44": 3799,
      "Å¾eni": 3800,
      "svim": 3801,
      "Ġdizaj": 3802,
      "Ġizbora": 3803,
      "Ġuspostavlja": 3804,
      "É¢É§": 3805,
      "chi": 3806,
      "lena": 3807,
      "Äĳenih": 3808,
      "fikacija": 3809,
      "ntne": 3810,
      "ĠSlika": 3811,
      "É¨Éª": 3812,
      "losti": 3813,
      "ĠbaÅ¡": 3814,
      "ĠuÄįestvo": 3815,
      "ministra": 3816,
      "stova": 3817,
      "Å¾ba": 3818,
      "Ġekspre": 3819,
      "Ġpostupku": 3820,
      "Ġdiplo": 3821,
      "ĠKar": 3822,
      "Äįenju": 3823,
      "Ġizvora": 3824,
      "Ġprethodno": 3825,
      "Nije": 3826,
      "ĠÅ¡kol": 3827,
      "01": 3828,
      "É©": 3829,
      "Ġprimenu": 3830,
      "Ġporta": 3831,
      "Ġredu": 3832,
      "Ġsedam": 3833,
      "Ġobjekata": 3834,
      "Ġsl": 3835,
      "Ġanalizu": 3836,
      "Ona": 3837,
      "Ġdeca": 3838,
      "Ġutakmi": 3839,
      "meti": 3840,
      "kci": 3841,
      "Ġnjihovih": 3842,
      "ĠvaÅ¾no": 3843,
      "rit": 3844,
      "vanoviÄĩ": 3845,
      "Ġmase": 3846,
      "Ġodo": 3847,
      "Ġmerenja": 3848,
      "ĠÄįaso": 3849,
      "32": 3850,
      "ĠÅ½i": 3851,
      "Ġpotpunosti": 3852,
      "Ġvodo": 3853,
      "ĠodrÅ¾i": 3854,
      "Pi": 3855,
      "Ġpostupka": 3856,
      "Ġmr": 3857,
      "ĠuÅ¾i": 3858,
      "Ġsprovede": 3859,
      "Ġefekat": 3860,
      "ĠpoveÄĩanje": 3861,
      "Ġprirode": 3862,
      "Ġnovog": 3863,
      "riÅ¡Äĩa": 3864,
      "ĠÅ¾ivotne": 3865,
      "Ġblago": 3866,
      "solu": 3867,
      "Ġaku": 3868,
      "Ġslike": 3869,
      "Ġnapa": 3870,
      "Ġnaja": 3871,
      "logiju": 3872,
      "Ġshvata": 3873,
      "naliza": 3874,
      "ĠFo": 3875,
      "pozi": 3876,
      "ĠpodrÅ¡ku": 3877,
      "ĠpiÅ¡e": 3878,
      "vama": 3879,
      "Ġ2019": 3880,
      "tskog": 3881,
      "mente": 3882,
      "ĠÄįoveka": 3883,
      "Ġokolnosti": 3884,
      "ĠGr": 3885,
      "ĠSrbiju": 3886,
      "hodno": 3887,
      "198": 3888,
      "Ro": 3889,
      "ĠkoriÅ¡Äĩenje": 3890,
      "Ġspolj": 3891,
      "loge": 3892,
      "ziste": 3893,
      "Ġsnima": 3894,
      "Ġkoma": 3895,
      "Ġbes": 3896,
      "Ġnisam": 3897,
      "ĠproÅ¡": 3898,
      "vljuje": 3899,
      "ljivost": 3900,
      "Ġnaba": 3901,
      "ĠmreÅ¾e": 3902,
      "Ġsvakako": 3903,
      "guje": 3904,
      "Ġpotreba": 3905,
      "Isto": 3906,
      "Ġlek": 3907,
      "Ġupozna": 3908,
      "ĠznaÄįajan": 3909,
      "meni": 3910,
      "tnik": 3911,
      "Ġobele": 3912,
      "Ġpoz": 3913,
      "Ġ31": 3914,
      "Ġzbi": 3915,
      "Ġsamosta": 3916,
      "zan": 3917,
      "ĠistraÅ¾ivanje": 3918,
      "Ġtur": 3919,
      "Ġnaselja": 3920,
      "Äĩeno": 3921,
      "75": 3922,
      "Å¾ni": 3923,
      "Ġispitivanja": 3924,
      "ĠreÄįima": 3925,
      "Ġshva": 3926,
      "Ġnemaju": 3927,
      "stre": 3928,
      "Ġreli": 3929,
      "rigi": 3930,
      "Ġl": 3931,
      "Ġjavno": 3932,
      "Ġgene": 3933,
      "Ġzao": 3934,
      "ĠNovi": 3935,
      "Zna": 3936,
      "NK": 3937,
      "kos": 3938,
      "baci": 3939,
      "Ġmanasti": 3940,
      "Ġana": 3941,
      "neta": 3942,
      "Ġuslovi": 3943,
      "Ġdje": 3944,
      "ser": 3945,
      "Ġizuzetno": 3946,
      "Ġnaziva": 3947,
      "loÅ¡ka": 3948,
      "Ġdevoj": 3949,
      "Ġupotrebe": 3950,
      "ĠPla": 3951,
      "Ġbismo": 3952,
      "Ġimamo": 3953,
      "Oni": 3954,
      "Ġfaza": 3955,
      "Ġkm": 3956,
      "ĠproÅ¡lo": 3957,
      "Ġfrancu": 3958,
      "tnost": 3959,
      "ĠoÄįu": 3960,
      "Ġpredmeta": 3961,
      "ĠporemeÄĩa": 3962,
      "Ġkarije": 3963,
      "veli": 3964,
      "hra": 3965,
      "jn": 3966,
      "Ġiskustva": 3967,
      "Ġinost": 3968,
      "Ġmje": 3969,
      "stoja": 3970,
      "ĠutiÄįu": 3971,
      "Ġdobio": 3972,
      "Ġtip": 3973,
      "49": 3974,
      "ĠÅ¾ivi": 3975,
      "Ġvideo": 3976,
      "prave": 3977,
      "Ġoptere": 3978,
      "www": 3979,
      "Å¾nje": 3980,
      "vice": 3981,
      "ĠKralje": 3982,
      "Ġmoglo": 3983,
      "Ġoptu": 3984,
      "ĠSR": 3985,
      "Ġleka": 3986,
      "Ġniz": 3987,
      "valo": 3988,
      "Ġpredsednika": 3989,
      "Ġpretpostav": 3990,
      "Äĳar": 3991,
      "Ġinfe": 3992,
      "Ġideja": 3993,
      "La": 3994,
      "ĠbudÅ¾e": 3995,
      "Ġzaista": 3996,
      "ĠpodruÄįja": 3997,
      "ĠÄįvr": 3998,
      "Ġkontinu": 3999,
      "Ġteorij": 4000,
      "Ġ[": 4001,
      "tali": 4002,
      "Ġsor": 4003,
      "Äįnja": 4004,
      "mentima": 4005,
      "Ġiznad": 4006,
      "stepe": 4007,
      "Ġimu": 4008,
      "Ġuslove": 4009,
      "NE": 4010,
      "ruka": 4011,
      "Ġdoktor": 4012,
      "Ġgradu": 4013,
      "É¨Éŀ": 4014,
      "Ġukupno": 4015,
      "tel": 4016,
      "Ġbora": 4017,
      "Ġvlasni": 4018,
      "Ġdokaza": 4019,
      "ĠznaÄįajne": 4020,
      "Äįina": 4021,
      "Ġsastav": 4022,
      "Ġosnovne": 4023,
      "zio": 4024,
      "ĠThe": 4025,
      "Ġsastoji": 4026,
      "ĠÅ¡kola": 4027,
      "ĠmreÅ¾a": 4028,
      "Ġizgra": 4029,
      "Ġubr": 4030,
      "Ġtraja": 4031,
      "Ġuzora": 4032,
      "biÄįa": 4033,
      "jni": 4034,
      "CA": 4035,
      "Ġsituacija": 4036,
      "Ġured": 4037,
      "Ġnekih": 4038,
      "ĠkoriÅ¡Äĩenja": 4039,
      "stvima": 4040,
      "Ġknjige": 4041,
      "Ġnjen": 4042,
      "Ġkontrole": 4043,
      "Ġodvija": 4044,
      "rnom": 4045,
      "OM": 4046,
      "Ġjedinica": 4047,
      "klanja": 4048,
      "ljene": 4049,
      "ĪĴ": 4050,
      "Ġorije": 4051,
      "ĠBer": 4052,
      "CI": 4053,
      "ÉļÉ¬": 4054,
      "ganiza": 4055,
      "Ġkandi": 4056,
      "Dakle": 4057,
      "Ġpodacima": 4058,
      "Ġosam": 4059,
      "Ġ45": 4060,
      "Ġjedinstve": 4061,
      "Ġsasvim": 4062,
      "Ġnavode": 4063,
      "Ġeg": 4064,
      "loÅ¾i": 4065,
      "potre": 4066,
      "Ġgrupu": 4067,
      "Ġstanovnika": 4068,
      "65": 4069,
      "Ã°": 4070,
      "ĠLju": 4071,
      "dnu": 4072,
      "Ġkompe": 4073,
      "dri": 4074,
      "Ġpovre": 4075,
      "ljivosti": 4076,
      "Ġovi": 4077,
      "Ġproteina": 4078,
      "ĠAleksandar": 4079,
      "Ġostale": 4080,
      "ĠÅ¾rt": 4081,
      "Ġciklu": 4082,
      "Ġrevi": 4083,
      "Ġfaze": 4084,
      "Ġbar": 4085,
      "ĠOr": 4086,
      "kov": 4087,
      "Ġkak": 4088,
      "Ġoslobo": 4089,
      "ĠÄĩelije": 4090,
      "Ġsmanji": 4091,
      "Ġkoristiti": 4092,
      "sada": 4093,
      "ljaka": 4094,
      "Ġsmanjenje": 4095,
      "Ġizabra": 4096,
      "Ġdati": 4097,
      "Ġmodi": 4098,
      "Ġhrane": 4099,
      "ĠSvet": 4100,
      "blji": 4101,
      "tiÄĩ": 4102,
      "Ġy": 4103,
      "ĠAnd": 4104,
      "VA": 4105,
      "Ġmulti": 4106,
      "ĠreÄįe": 4107,
      "ntima": 4108,
      "ĠPetro": 4109,
      "á½": 4110,
      "Ġsin": 4111,
      "Ġpenzi": 4112,
      "ljeno": 4113,
      "Ġtoj": 4114,
      "Ġpolitika": 4115,
      "Ġvelikog": 4116,
      "Ġcm": 4117,
      "Ġdecu": 4118,
      "Ġfoku": 4119,
      "vosti": 4120,
      "Ġnova": 4121,
      "ĠMiha": 4122,
      "Ġpostao": 4123,
      "Å¾ene": 4124,
      "ĠEn": 4125,
      "Au": 4126,
      "Ġhar": 4127,
      "Ġ!": 4128,
      "njeno": 4129,
      "Ġzu": 4130,
      "Ġkompozi": 4131,
      "Ġjako": 4132,
      "Ġteksta": 4133,
      "ĠÄįlanova": 4134,
      "Ġrat": 4135,
      "É¢É¬": 4136,
      "Ġfebru": 4137,
      "ĠEvropi": 4138,
      "Ġnapada": 4139,
      "ĠdruÅ¡tvo": 4140,
      "Ġljudima": 4141,
      "Ġage": 4142,
      "ĠuÄįestvu": 4143,
      "Ġsigurno": 4144,
      "Ġupotrebu": 4145,
      "Ġzvez": 4146,
      "ĠsluÄįajevima": 4147,
      "riva": 4148,
      "ger": 4149,
      "ÉļÉ¥": 4150,
      "Ġbolesnika": 4151,
      "Ġpojave": 4152,
      "Ġjavnosti": 4153,
      "Ġpat": 4154,
      "cionali": 4155,
      "Ġpojedinih": 4156,
      "nema": 4157,
      "BA": 4158,
      "Ġtest": 4159,
      "Ġzadovolj": 4160,
      "ksual": 4161,
      "Ġsmatraju": 4162,
      "Ġuzoraka": 4163,
      "njeni": 4164,
      "Ġpostignu": 4165,
      "Ġumesto": 4166,
      "Å¾nja": 4167,
      "Ġtzv": 4168,
      "ĠsuÅ¡ti": 4169,
      "noda": 4170,
      "46": 4171,
      "Ġfrek": 4172,
      "90": 4173,
      "Ġneprija": 4174,
      "hibi": 4175,
      "kiÄĩ": 4176,
      "ĠizloÅ¾e": 4177,
      "Ci": 4178,
      "ÊĦ": 4179,
      "Ġsvake": 4180,
      "ĠHerce": 4181,
      "straÅ¾i": 4182,
      "Ġ80": 4183,
      "OG": 4184,
      "Ġparame": 4185,
      "ĠpaÅ¾nju": 4186,
      "Ġsoft": 4187,
      "Ġtala": 4188,
      "Ġmanife": 4189,
      "lizaciju": 4190,
      "Ġopravda": 4191,
      "Ġizvede": 4192,
      "ĠÄįinjenica": 4193,
      "Ġmm": 4194,
      "Ġoti": 4195,
      "Ġpribli": 4196,
      "Ġkomple": 4197,
      "kedo": 4198,
      "Ġplan": 4199,
      "Ġvremenu": 4200,
      "ĠAn": 4201,
      "rve": 4202,
      "stali": 4203,
      "Ġuloga": 4204,
      "Ġklini": 4205,
      "noma": 4206,
      "Ġzvu": 4207,
      "Ġgor": 4208,
      "Ġmeseca": 4209,
      "Ġregional": 4210,
      "Ġprera": 4211,
      "The": 4212,
      "Ġstari": 4213,
      "Ġindividual": 4214,
      "ĠÅ¾ivotu": 4215,
      "Ġvest": 4216,
      "ĠsledeÄĩi": 4217,
      "Ġupravljanje": 4218,
      "47": 4219,
      "ĠmaÅ¡i": 4220,
      "Nje": 4221,
      "Ġteritoriji": 4222,
      "ljujuÄĩi": 4223,
      "ĠÄįija": 4224,
      "tum": 4225,
      "kreta": 4226,
      "Ġobjasni": 4227,
      "ziva": 4228,
      "Ġreleva": 4229,
      "misli": 4230,
      "govora": 4231,
      "ĠponaÅ¡anje": 4232,
      "Ġorganizo": 4233,
      "Ġvlast": 4234,
      "Ġmono": 4235,
      "Ġpremije": 4236,
      "math": 4237,
      "Ġtema": 4238,
      "Ġstatu": 4239,
      "vencija": 4240,
      "Ġusa": 4241,
      "Äĩeni": 4242,
      "Ġbavi": 4243,
      "ĠobjaÅ¡nja": 4244,
      "socija": 4245,
      "ĠÄįije": 4246,
      "Ġprati": 4247,
      "Ġ70": 4248,
      "jevi": 4249,
      "ine": 4250,
      "nila": 4251,
      "ĠTabela": 4252,
      "Ġagre": 4253,
      "Ã¢": 4254,
      "ĠEvropske": 4255,
      "tika": 4256,
      "Ġpreuze": 4257,
      "Ġreali": 4258,
      "Osim": 4259,
      "ĠsluÄįajeva": 4260,
      "Ġdrugoj": 4261,
      "ssi": 4262,
      "reno": 4263,
      "Ġogleda": 4264,
      "njene": 4265,
      "Ġcene": 4266,
      "Ġcivi": 4267,
      "Ġcentar": 4268,
      "Å¡avanja": 4269,
      "ĠNaj": 4270,
      "mula": 4271,
      "Ġzahtev": 4272,
      "Ġ1999": 4273,
      "fer": 4274,
      "É«É¤": 4275,
      "Ġservi": 4276,
      "Tokom": 4277,
      "tela": 4278,
      "Ġzakonom": 4279,
      "Ġadministra": 4280,
      "Ġminima": 4281,
      "Ġbele": 4282,
      "Ġdode": 4283,
      "Ġspolja": 4284,
      "ĠZakona": 4285,
      "Ġtoplo": 4286,
      "Ġaplika": 4287,
      "ĠVuÄįiÄĩ": 4288,
      "Ġuzra": 4289,
      "Ġnekada": 4290,
      "Ġvideti": 4291,
      "Ġpolja": 4292,
      "ÐĮ": 4293,
      "ĠÊģ": 4294,
      "Ġeksplo": 4295,
      "Ġleksi": 4296,
      "ori": 4297,
      "ker": 4298,
      "Ġkoor": 4299,
      "ferencija": 4300,
      "ĠVr": 4301,
      "ron": 4302,
      "Ġkomentara": 4303,
      "Ġtemperature": 4304,
      "Ġupi": 4305,
      "konom": 4306,
      "Bu": 4307,
      "ĠvaÅ¡e": 4308,
      "Ġ90": 4309,
      "Ġpokazala": 4310,
      "Tu": 4311,
      "ĠNovom": 4312,
      "LE": 4313,
      "É¢É¯": 4314,
      "tes": 4315,
      "ĠNarod": 4316,
      "55": 4317,
      "Ġvelikim": 4318,
      "Å¡o": 4319,
      "Ġrelativno": 4320,
      "ĠÄĨ": 4321,
      "Zato": 4322,
      "Ġradni": 4323,
      "ĠBra": 4324,
      "tr": 4325,
      "Ġstatus": 4326,
      "ĠzaÅ¡to": 4327,
      "Pra": 4328,
      "Ġiskustvo": 4329,
      "Ġkontra": 4330,
      "Ġsrednje": 4331,
      "Ġgrani": 4332,
      "Ġmatri": 4333,
      "PS": 4334,
      "Ġautomobi": 4335,
      "ĠHi": 4336,
      "Ġideo": 4337,
      "lak": 4338,
      "Ġsrpskom": 4339,
      "É¡": 4340,
      "Ġsprem": 4341,
      "67": 4342,
      "vnik": 4343,
      "Ġsaop": 4344,
      "ĠnajvaÅ¾": 4345,
      "ĠDrÅ¾a": 4346,
      "hemi": 4347,
      "ĠtrÅ¾iÅ¡ta": 4348,
      "ĠdogaÄĳaja": 4349,
      "ting": 4350,
      "ĠâĢĻ": 4351,
      "ĠÅ¡u": 4352,
      "Ġodgovora": 4353,
      "vini": 4354,
      "mos": 4355,
      "Ġenzi": 4356,
      "Ġhla": 4357,
      "giju": 4358,
      "Ġroku": 4359,
      "ĠudruÅ¾e": 4360,
      "Ġpozori": 4361,
      "gde": 4362,
      "Ġpostojanje": 4363,
      "Ġinfra": 4364,
      "ĠKri": 4365,
      "OS": 4366,
      "ĠpredviÄĳa": 4367,
      "Ġ'": 4368,
      "nili": 4369,
      "Ġugovor": 4370,
      "Ġalterna": 4371,
      "Ġizvor": 4372,
      "ntna": 4373,
      "Ġosvoji": 4374,
      "jno": 4375,
      "ĠTre": 4376,
      "lis": 4377,
      "Ġmobi": 4378,
      "Ġobrazovanje": 4379,
      "ranjem": 4380,
      "zanje": 4381,
      "ĠÅ¡iri": 4382,
      "Ġjednoj": 4383,
      "nsku": 4384,
      "Ġjedini": 4385,
      "ATO": 4386,
      "Ġsituacije": 4387,
      "ĠÄĩu": 4388,
      "riÅ¡e": 4389,
      "Ġispla": 4390,
      "ĠÉ¡": 4391,
      "mio": 4392,
      "Ġobuhva": 4393,
      "rov": 4394,
      "ĠuÄįenja": 4395,
      "ĠInstitu": 4396,
      "Ġ190": 4397,
      "Ġkandida": 4398,
      "Ġmatemati": 4399,
      "Ġpokri": 4400,
      "ĠveÄĩina": 4401,
      "ĠSave": 4402,
      "Äįnik": 4403,
      "ĠpolitiÄįke": 4404,
      "Ġmle": 4405,
      "ĠovlaÅ¡Äĩe": 4406,
      "vene": 4407,
      "Ġdaju": 4408,
      "Ġtrgo": 4409,
      "--": 4410,
      "Ġistom": 4411,
      "Ġlak": 4412,
      "ĠZo": 4413,
      "Ġsmrt": 4414,
      "Ġmg": 4415,
      "Ġrizik": 4416,
      "Ġregio": 4417,
      "prkos": 4418,
      "Ġnauka": 4419,
      "ĠStra": 4420,
      "Äĩoj": 4421,
      "Ġpuno": 4422,
      "ĠÉ¬": 4423,
      "Ġbibliote": 4424,
      "Ġuzorka": 4425,
      "Ġsamim": 4426,
      "Å¾eno": 4427,
      "Ġkrea": 4428,
      "Ġnjene": 4429,
      "ĠmoÄĩ": 4430,
      "Drugi": 4431,
      "ĠSrba": 4432,
      "Ġ*": 4433,
      "ĠpodruÄįju": 4434,
      "Ġnaru": 4435,
      "ĠistraÅ¾ivanju": 4436,
      "ĠvrÅ¡e": 4437,
      "ljenih": 4438,
      "Ġosnovnih": 4439,
      "Ġtelevi": 4440,
      "stavi": 4441,
      "Ġsusre": 4442,
      "Ġopet": 4443,
      "Ġmene": 4444,
      "Ġpodne": 4445,
      "Ġsamog": 4446,
      "zanja": 4447,
      "Äįaka": 4448,
      "ljiv": 4449,
      "ĠTra": 4450,
      "snom": 4451,
      "Ġprihvata": 4452,
      "ĠtroÅ¡kova": 4453,
      "Ġlokalne": 4454,
      "siste": 4455,
      "Ġimo": 4456,
      "Ġdelatnosti": 4457,
      "loÅ¡kim": 4458,
      "Ġeli": 4459,
      "ÊĤ": 4460,
      "Åłta": 4461,
      "Ġhilja": 4462,
      "Ġdodatno": 4463,
      "Ti": 4464,
      "Ġzla": 4465,
      "Ġindika": 4466,
      "Ġpodu": 4467,
      "78": 4468,
      "logu": 4469,
      "Ġjedinjenja": 4470,
      "Ġzdravlje": 4471,
      "Ġnjegovom": 4472,
      "ncije": 4473,
      "Ġpromen": 4474,
      "Ġdaleko": 4475,
      "nite": 4476,
      "Ġgodinama": 4477,
      "Ã«": 4478,
      "kaÅ¾e": 4479,
      "Ġnepri": 4480,
      "slika": 4481,
      "ces": 4482,
      "ĠveliÄįine": 4483,
      "Ġljude": 4484,
      "Ġnekom": 4485,
      "Å¡an": 4486,
      "Ġnovca": 4487,
      "Å¡no": 4488,
      "ĠuÄįeÅ¡Äĩe": 4489,
      "Ġostali": 4490,
      "deset": 4491,
      "Du": 4492,
      "ĠnaÅ¡em": 4493,
      "68": 4494,
      "Äįita": 4495,
      "Ġjedino": 4496,
      "ida": 4497,
      "ms": 4498,
      "tacija": 4499,
      "Ġrecep": 4500,
      "vela": 4501,
      "oca": 4502,
      "Ġtransforma": 4503,
      "Å£a": 4504,
      "jsko": 4505,
      "jana": 4506,
      "jsku": 4507,
      "ĠbuduÄĩi": 4508,
      "Ġsati": 4509,
      "Å¾na": 4510,
      "Ġgospo": 4511,
      "%.": 4512,
      "rme": 4513,
      "dnja": 4514,
      "Ġkupa": 4515,
      "biÄįaje": 4516,
      "Ġznam": 4517,
      "Ġizazo": 4518,
      "Ġsvetskog": 4519,
      "Ġozbilj": 4520,
      "Ġae": 4521,
      "Ġmnogi": 4522,
      "Ġneuro": 4523,
      "ÉŁÉª": 4524,
      "gnosti": 4525,
      "pije": 4526,
      "Ġbanke": 4527,
      "Ġcon": 4528,
      "Ġobjekta": 4529,
      "Ġoktobra": 4530,
      "lit": 4531,
      "Ġprikazani": 4532,
      "rup": 4533,
      "Ġjedinice": 4534,
      "ĠÅ¾ivotinja": 4535,
      "vljena": 4536,
      "ĠSrpske": 4537,
      "Ġsela": 4538,
      "ĠangaÅ¾o": 4539,
      "Ġog": 4540,
      "Ġtakav": 4541,
      "ĠobjaÅ¡nje": 4542,
      "ÉļÊĥ": 4543,
      "41": 4544,
      "Ġposlovanja": 4545,
      "58": 4546,
      "pija": 4547,
      "koj": 4548,
      "Ġduho": 4549,
      "Ġapsolu": 4550,
      "vor": 4551,
      "ÉĽ": 4552,
      "Ġsagleda": 4553,
      "cipli": 4554,
      "ĠOp": 4555,
      "ÄĬe": 4556,
      "vera": 4557,
      "vka": 4558,
      "Ġinhibi": 4559,
      "Ġinfrastruktu": 4560,
      "ramo": 4561,
      "teo": 4562,
      "99": 4563,
      "knu": 4564,
      "ĠAleksand": 4565,
      "tur": 4566,
      "Ġizrazi": 4567,
      "Ġgranice": 4568,
      "Ġkoncentracija": 4569,
      "Å¡en": 4570,
      "Osno": 4571,
      "Å¡kog": 4572,
      "orÄĳe": 4573,
      "IS": 4574,
      "Ġtabeli": 4575,
      "ĠvraÄĩa": 4576,
      "Äĩima": 4577,
      "matski": 4578,
      "krimina": 4579,
      "Ġtero": 4580,
      "niÄĩ": 4581,
      "ĠÄĩeli": 4582,
      "VO": 4583,
      "tero": 4584,
      "Sr": 4585,
      "Svi": 4586,
      "Ġlan": 4587,
      "Ġobaveze": 4588,
      "ĠrazmiÅ¡lja": 4589,
      "ĠopÅ¡tine": 4590,
      "Ġtelef": 4591,
      "ET": 4592,
      "Ġpravu": 4593,
      "Ġkapitala": 4594,
      "Ġaktue": 4595,
      "Äįima": 4596,
      "rum": 4597,
      "Ġstava": 4598,
      "plici": 4599,
      "Ġ2021": 4600,
      "Ġindustrij": 4601,
      "ĠtiÄįe": 4602,
      "stveno": 4603,
      "viji": 4604,
      "tnika": 4605,
      "Ġnes": 4606,
      "ĠpoÄįinje": 4607,
      "Ġeti": 4608,
      "ĠÅłe": 4609,
      "sama": 4610,
      "Ġpogre": 4611,
      "her": 4612,
      "Ġsen": 4613,
      "''.": 4614,
      "Ġdisertacija": 4615,
      "kola": 4616,
      "Ġorganizova": 4617,
      "Ġpripa": 4618,
      "ĠAlba": 4619,
      "Ġdakle": 4620,
      "ie": 4621,
      "ĠÅła": 4622,
      "rmi": 4623,
      "Ġpravosla": 4624,
      "Ġfu": 4625,
      "ĠdomaÄĩin": 4626,
      "ĠdruÅ¡tvu": 4627,
      "Ġinova": 4628,
      "Äįine": 4629,
      "Ġimple": 4630,
      "ĠznaÄįenja": 4631,
      "Ġpokazali": 4632,
      "ĠproizvoÄĳa": 4633,
      "han": 4634,
      "Ġsupru": 4635,
      "Ġtemperatura": 4636,
      "ĠSan": 4637,
      "ĠBiH": 4638,
      "ĠIII": 4639,
      "ĠnaÅ¡eg": 4640,
      "znaÄįaj": 4641,
      "Ġdeteta": 4642,
      "gencije": 4643,
      "ĠdruÅ¡tvene": 4644,
      "ir": 4645,
      "seÄĩa": 4646,
      "id": 4647,
      "Ġparla": 4648,
      "Ġnastavi": 4649,
      "Ġprenosi": 4650,
      "ĠmeÅ¡a": 4651,
      ".).": 4652,
      "Ġsposobnost": 4653,
      "kada": 4654,
      "gura": 4655,
      "Ġpropa": 4656,
      "Ġnpr": 4657,
      "Ġcu": 4658,
      "Ġeki": 4659,
      "É¦": 4660,
      "59": 4661,
      "posle": 4662,
      "Ce": 4663,
      "sis": 4664,
      "Ġodabra": 4665,
      "ÉļÊģ": 4666,
      "tosti": 4667,
      "Ġlepo": 4668,
      "Å¾avanje": 4669,
      "Ġpoklo": 4670,
      "Ġinstitucija": 4671,
      "Ã¶": 4672,
      "Pod": 4673,
      "lega": 4674,
      "ĠÅ¡tampa": 4675,
      "rajuÄĩi": 4676,
      "Ġorigi": 4677,
      "ĠdoÄĳe": 4678,
      "luÅ¾be": 4679,
      "Äįari": 4680,
      "ÉļÉª": 4681,
      "ĠkolaÄįi": 4682,
      "Ġposlove": 4683,
      "Ġodbrane": 4684,
      "ĠviÅ¡i": 4685,
      "ljava": 4686,
      "Ġvezu": 4687,
      "Ġkrvi": 4688,
      "Ġadre": 4689,
      "Ġprije": 4690,
      "ĠÄĮa": 4691,
      "III": 4692,
      "Ġstopa": 4693,
      "Ġdobar": 4694,
      "Î¹": 4695,
      "ĠRusije": 4696,
      "liki": 4697,
      "Ġzdravlja": 4698,
      "del": 4699,
      "Å¾iti": 4700,
      "hy": 4701,
      "Ġpresta": 4702,
      "Ġjavnih": 4703,
      "ĠïĤ·": 4704,
      "Ġsama": 4705,
      "Ġ36": 4706,
      "npr": 4707,
      "Ġzaga": 4708,
      "Ġprogla": 4709,
      "PA": 4710,
      "Ġkup": 4711,
      "Ġkretanja": 4712,
      "njim": 4713,
      "Ġzad": 4714,
      "Ġmnoge": 4715,
      "Ġ2022": 4716,
      "Ġtekst": 4717,
      "Ġtelo": 4718,
      "Ġogla": 4719,
      "mit": 4720,
      "voda": 4721,
      "Ġneku": 4722,
      "Ġpreu": 4723,
      "Ġtesta": 4724,
      "snici": 4725,
      "Ġvaspita": 4726,
      "ljima": 4727,
      "dak": 4728,
      "Ġteorije": 4729,
      "Ġkojeg": 4730,
      "ĠukljuÄįi": 4731,
      "Ġaktivi": 4732,
      "ĠznaÄįenje": 4733,
      "Ã¼": 4734,
      "ĠpoloÅ¾aj": 4735,
      "gene": 4736,
      "sobno": 4737,
      "tnoj": 4738,
      "fri": 4739,
      "ĠkuÄĩa": 4740,
      "Ġdiscipli": 4741,
      "Ġ,,": 4742,
      "Jedan": 4743,
      "Ġhuma": 4744,
      "ntni": 4745,
      "cita": 4746,
      "Ġdesi": 4747,
      "Ġpouzda": 4748,
      "nizam": 4749,
      "Ġzakonoda": 4750,
      "Ru": 4751,
      "hod": 4752,
      "jka": 4753,
      "Ġvelikih": 4754,
      "Ġprojekto": 4755,
      "42": 4756,
      "Ġradnika": 4757,
      "Äįavaju": 4758,
      "Ġflu": 4759,
      "Ġciljeva": 4760,
      "ĠizraÄįuna": 4761,
      "Ġgovore": 4762,
      "ĠInter": 4763,
      "ria": 4764,
      "Ġ37": 4765,
      "Ġkultura": 4766,
      "ĠDÅ¾e": 4767,
      "ĠsadrÅ¾e": 4768,
      "ĠodreÄĳeni": 4769,
      "ĠÄįeka": 4770,
      "Ġkontrolu": 4771,
      "nina": 4772,
      "ct": 4773,
      "Ġstepena": 4774,
      "ĠpriÄįe": 4775,
      "Ġnjegovu": 4776,
      "MS": 4777,
      "Ġperspe": 4778,
      "Ġkategorija": 4779,
      "Ġvrije": 4780,
      "PO": 4781,
      "Ġrazre": 4782,
      "pozna": 4783,
      "ruju": 4784,
      "Ġscena": 4785,
      "Ġsocio": 4786,
      "Ġobjavlji": 4787,
      "É¢Éľ": 4788,
      "est": 4789,
      "ĠprouÄįa": 4790,
      "Ġgaran": 4791,
      "ĠmiÅ¡ljenje": 4792,
      "É¨É«É¬": 4793,
      "É¢É¤": 4794,
      "velo": 4795,
      "Ġavi": 4796,
      "Ġmotiva": 4797,
      "grafija": 4798,
      "Ġradika": 4799,
      "Ġselek": 4800,
      "vljen": 4801,
      "intere": 4802,
      "nogra": 4803,
      "Ġnjoj": 4804,
      "Ġnastavnika": 4805,
      "Ġborbe": 4806,
      "valu": 4807,
      "Ġost": 4808,
      "Ġtrenutno": 4809,
      "Vo": 4810,
      "Ġulja": 4811,
      "liÅ¡e": 4812,
      "Ġvrednostima": 4813,
      "Ġpubli": 4814,
      "43": 4815,
      "Ġostaje": 4816,
      "lovi": 4817,
      "Ġraste": 4818,
      "Ġplu": 4819,
      "Ġporek": 4820,
      "Ġprimena": 4821,
      "100": 4822,
      "Ġfar": 4823,
      "noÅ¡Äĩu": 4824,
      "znog": 4825,
      "ĠzapoÄįe": 4826,
      "Ġkategorije": 4827,
      "Ġhomo": 4828,
      "Ġinterpre": 4829,
      "Ġpredme": 4830,
      "Ġzra": 4831,
      "Ġsimpto": 4832,
      "ls": 4833,
      "ntnih": 4834,
      "tnije": 4835,
      "ĠsloÅ¾e": 4836,
      "Ġnovac": 4837,
      "Ġrazno": 4838,
      "sorp": 4839,
      "Ġvizu": 4840,
      "Å¡ne": 4841,
      "mpe": 4842,
      "ĠMeto": 4843,
      "Ġpute": 4844,
      "Ġkontinui": 4845,
      "ĠsaobraÄĩaj": 4846,
      "ĠkuÄĩi": 4847,
      "laska": 4848,
      "nskoj": 4849,
      "Å¡njem": 4850,
      "Ġtehnologija": 4851,
      "Ġ38": 4852,
      "lijar": 4853,
      "Ġvero": 4854,
      "Ġukaza": 4855,
      "dia": 4856,
      "Ġfunkciju": 4857,
      "ĠÈ": 4858,
      "Uz": 4859,
      "ĠmuÅ¡kar": 4860,
      "Ġbre": 4861,
      "69": 4862,
      "Ġspada": 4863,
      "pisima": 4864,
      "ĠDÅ¾": 4865,
      "Ġnjihovu": 4866,
      "znih": 4867,
      "Ġsuo": 4868,
      "ĠÉª": 4869,
      "tac": 4870,
      "doc": 4871,
      "Ġdobijenih": 4872,
      "ou": 4873,
      "Ġimena": 4874,
      "Ġsvaku": 4875,
      "Ġï¿½": 4876,
      "mno": 4877,
      "Ġpodstica": 4878,
      "laganje": 4879,
      "feri": 4880,
      "ĠpoÄįetkom": 4881,
      "ĠRepublici": 4882,
      "Ġsemanti": 4883,
      "Å¡avanje": 4884,
      "ard": 4885,
      "Ġpromo": 4886,
      "Ġvlade": 4887,
      "snoj": 4888,
      "Ġbolji": 4889,
      "Ġsever": 4890,
      "DA": 4891,
      "Äĩene": 4892,
      "Ġpojava": 4893,
      "Ġmetodo": 4894,
      "EM": 4895,
      "Ġ48": 4896,
      "smi": 4897,
      "Ã²": 4898,
      "Ġreakcije": 4899,
      "logiji": 4900,
      "57": 4901,
      "rsa": 4902,
      "ĠhriÅ¡Äĩa": 4903,
      "Ġ1998": 4904,
      "ĠzaÅ¡titi": 4905,
      "Ġveliku": 4906,
      "Ġhrvat": 4907,
      "naca": 4908,
      "Ġonaj": 4909,
      "ĠPr": 4910,
      "ĠpoveÄĩava": 4911,
      "Ġnemogu": 4912,
      "OVI": 4913,
      "ĠÉ¦": 4914,
      "Prvi": 4915,
      "Îµ": 4916,
      "Ġproiz": 4917,
      "tional": 4918,
      "ĠNATO": 4919,
      "Ġrazlog": 4920,
      "nga": 4921,
      "Ġodi": 4922,
      "sk": 4923,
      "Å¡tvu": 4924,
      "Ġski": 4925,
      "ĠoÄįekuje": 4926,
      "Ġzadatak": 4927,
      "kupi": 4928,
      "ÉļÉ¤": 4929,
      "ĠknjiÅ¾evnosti": 4930,
      "Ġodsu": 4931,
      "Ġnauke": 4932,
      "ĠGla": 4933,
      "ction": 4934,
      "Ġkriteriju": 4935,
      "ranog": 4936,
      "Ġalgo": 4937,
      "zda": 4938,
      "Ġseptembra": 4939,
      "vodom": 4940,
      "Ġgeno": 4941,
      "Ãª": 4942,
      "Ġistog": 4943,
      "ad": 4944,
      "Å¡kih": 4945,
      "ĠCi": 4946,
      "Ġresursa": 4947,
      "ticaj": 4948,
      "Ġposlednjih": 4949,
      "Ġnama": 4950,
      "Ġseksual": 4951,
      "linu": 4952,
      "Ġpripad": 4953,
      "ĠodreÄĳenih": 4954,
      "Ġpregled": 4955,
      "manu": 4956,
      "66": 4957,
      "govori": 4958,
      "ĠmiÅ¡ljenja": 4959,
      "Ġnovim": 4960,
      "Ġproizvodi": 4961,
      "Äįica": 4962,
      "bur": 4963,
      "ĠporeÄĳenju": 4964,
      "Ġbolni": 4965,
      "Ġdrugu": 4966,
      "ĠveÄĩu": 4967,
      "ĠdoÅ¾ivlja": 4968,
      "ĠgraÄĳan": 4969,
      "ĠkriviÄįnog": 4970,
      "Ono": 4971,
      "Ġref": 4972,
      "Ġprakse": 4973,
      "Ġodgovornosti": 4974,
      "Ġnaziv": 4975,
      "Ġveku": 4976,
      "Ġekonomske": 4977,
      "ĠnaÅ¡oj": 4978,
      "Ġglasa": 4979,
      "mske": 4980,
      "noviÄĩa": 4981,
      "ĠpreÅ¾i": 4982,
      "IJE": 4983,
      "Ġciljem": 4984,
      "Ġnepre": 4985,
      "ning": 4986,
      "Ġprikuplja": 4987,
      "Ġzadovolja": 4988,
      "Ġtkiva": 4989,
      "ntan": 4990,
      "Ġdalji": 4991,
      "ĠdeÅ¡ava": 4992,
      "ĠpovrÅ¡ina": 4993,
      "Ġputu": 4994,
      "ĠBar": 4995,
      "Ġnaz": 4996,
      "Ġglasnik": 4997,
      "Ġispred": 4998,
      "Ġnjenog": 4999,
      "ĠRado": 5000,
      "Ġqu": 5001,
      "Ġrevolu": 5002,
      "Ġposledice": 5003,
      "Ġtehnologije": 5004,
      "Ġosnova": 5005,
      "Ġlinija": 5006,
      "Ġpogleda": 5007,
      "Ġprave": 5008,
      "sov": 5009,
      "Ġgeogra": 5010,
      "Ġzatvore": 5011,
      "ĠnovÄįa": 5012,
      "Ġbiv": 5013,
      "Ġ(âĢŀ": 5014,
      "vlada": 5015,
      "Ġintelek": 5016,
      "var": 5017,
      "forme": 5018,
      "Ġnjegovim": 5019,
      "ĠkoriÅ¡Äĩenjem": 5020,
      "ĠmenadÅ¾": 5021,
      "publika": 5022,
      "É¨É§": 5023,
      "Pose": 5024,
      "dor": 5025,
      "ĠÅ¡irom": 5026,
      "ĠQ": 5027,
      "ĠSer": 5028,
      "Ġproizvodnju": 5029,
      "Ġmaja": 5030,
      "Ġkilo": 5031,
      "Å¾nog": 5032,
      "gradu": 5033,
      "lnik": 5034,
      "Ġwe": 5035,
      "Ġkvanti": 5036,
      "Ġstranke": 5037,
      "roviÄĩ": 5038,
      "ĠzakljuÄįiti": 5039,
      "ĠTako": 5040,
      "ĠAko": 5041,
      "77": 5042,
      "ĠÅ½e": 5043,
      "Ġvakci": 5044,
      "ĠdruÅ¡tvenih": 5045,
      "tskih": 5046,
      "Ġnjegovih": 5047,
      "Ġilu": 5048,
      "Ġblizi": 5049,
      "raca": 5050,
      "Ġj": 5051,
      "Ġmuze": 5052,
      "Ġboja": 5053,
      "Ġuprave": 5054,
      "Ġuniverzi": 5055,
      "Ġdetalj": 5056,
      "ĠBrita": 5057,
      "lov": 5058,
      "Äĳenjem": 5059,
      "Ġoptima": 5060,
      "Ġotva": 5061,
      "Ġtvrdi": 5062,
      "ĠSpo": 5063,
      "Ġvazduha": 5064,
      "as": 5065,
      "ĠSara": 5066,
      "ÉŁÉ¦": 5067,
      "ĠstruÄįnja": 5068,
      "politi": 5069,
      "Ġzapre": 5070,
      "Ġline": 5071,
      "Ġklije": 5072,
      "Ġimate": 5073,
      "Ġnastave": 5074,
      "Ġjavljaju": 5075,
      "ĠkoliÄįine": 5076,
      "Äįili": 5077,
      "Ġmodu": 5078,
      "Ġoblast": 5079,
      "rovi": 5080,
      "Â°": 5081,
      "ĠNje": 5082,
      "toj": 5083,
      "Ġmilijar": 5084,
      "Ġcelokup": 5085,
      "Ġdobra": 5086,
      "ĠUniverziteta": 5087,
      "Ġnavedenih": 5088,
      "É«É¬": 5089,
      "zmi": 5090,
      "Ġdelom": 5091,
      "Ġkupi": 5092,
      "ĠNikola": 5093,
      "ĠSad": 5094,
      "Ġrezultatima": 5095,
      "Ġmarta": 5096,
      "Ġroditelja": 5097,
      "Ġpojam": 5098,
      "ĠoruÅ¾": 5099,
      "Ġnaslo": 5100,
      "Ġ1990": 5101,
      "Ġzele": 5102,
      "Ġzadu": 5103,
      "Ġetni": 5104,
      "Ġstavlja": 5105,
      "Ġkomponente": 5106,
      "Samo": 5107,
      "Ġex": 5108,
      "cem": 5109,
      "ĠBio": 5110,
      "limo": 5111,
      "niku": 5112,
      "miÄįno": 5113,
      "Ġzavr": 5114,
      "ĠOdg": 5115,
      "Ġdirektor": 5116,
      "nijim": 5117,
      "Ġsile": 5118,
      "cal": 5119,
      "Ku": 5120,
      "Ġdeset": 5121,
      "les": 5122,
      "desetih": 5123,
      "Ġtende": 5124,
      "tovi": 5125,
      "Ġlokali": 5126,
      "Ġprate": 5127,
      "kor": 5128,
      "Ġistorije": 5129,
      "Ġdelova": 5130,
      "56": 5131,
      "don": 5132,
      "Ġnukle": 5133,
      "ĠtreÄĩi": 5134,
      "pan": 5135,
      "ĠSA": 5136,
      "ferent": 5137,
      "98": 5138,
      "kru": 5139,
      "hom": 5140,
      "ĠSla": 5141,
      "RED": 5142,
      "Ġideje": 5143,
      "Ġkorak": 5144,
      "Ġnjihovim": 5145,
      "dana": 5146,
      "Ġefek": 5147,
      "sani": 5148,
      "Ġnavi": 5149,
      "ÄįeviÄĩ": 5150,
      "Ġvita": 5151,
      "Ġgena": 5152,
      "Ġ1996": 5153,
      "Ġdimenzija": 5154,
      "ĠMinistarstva": 5155,
      "Ġnano": 5156,
      "Ġsnim": 5157,
      "ÏĦ": 5158,
      "Ġmorfo": 5159,
      "Ġvrata": 5160,
      "TO": 5161,
      "Å¾avaju": 5162,
      "Ġsoli": 5163,
      "kovima": 5164,
      "Ġ1997": 5165,
      "Ġfakultet": 5166,
      "rtu": 5167,
      "put": 5168,
      "Ġpotpisa": 5169,
      "sub": 5170,
      "Ġusvoje": 5171,
      "ot": 5172,
      "Ġstro": 5173,
      "Al": 5174,
      "Ġprocenu": 5175,
      "RU": 5176,
      "jna": 5177,
      "ĠveÄįe": 5178,
      "jemo": 5179,
      "lati": 5180,
      "Ġstrategije": 5181,
      "Ġponavlja": 5182,
      "Mar": 5183,
      "Ġatmos": 5184,
      "Ġizvr": 5185,
      "Stoga": 5186,
      "Ġuskla": 5187,
      "Ġgore": 5188,
      "fikon": 5189,
      "tite": 5190,
      "Ġjavne": 5191,
      "Ġstri": 5192,
      "ÉļÉŀ": 5193,
      "DÐĮ": 5194,
      "Äĩom": 5195,
      "Ġprocene": 5196,
      "Ġsezone": 5197,
      "bran": 5198,
      "Ju": 5199,
      "nula": 5200,
      "Ġinformi": 5201,
      "Ġoptimi": 5202,
      "09": 5203,
      "rizo": 5204,
      "Ġdiskrimina": 5205,
      "Ġkratko": 5206,
      "ĠÉľ": 5207,
      "des": 5208,
      "ÄĮe": 5209,
      "Ġtakve": 5210,
      "Ġsmanjuje": 5211,
      "Ġdolara": 5212,
      "lla": 5213,
      "sednik": 5214,
      "krip": 5215,
      "Ġkrajem": 5216,
      "vajanje": 5217,
      "ĠGru": 5218,
      "Ġmigra": 5219,
      "Ġdobiti": 5220,
      "Ġupotrebi": 5221,
      "âĢ¢": 5222,
      "Ġprikaz": 5223,
      "ĠGor": 5224,
      "Ġ1991": 5225,
      "Ġporekla": 5226,
      "Ġzabora": 5227,
      "lizam": 5228,
      "Ġprete": 5229,
      "Ã¤": 5230,
      "ĠuspeÅ¡no": 5231,
      "SI": 5232,
      "ĠGore": 5233,
      "Ġprobleme": 5234,
      "Ġslobode": 5235,
      "dap": 5236,
      "dÅ¾i": 5237,
      "ĠMakedo": 5238,
      "Ġpropu": 5239,
      "bde": 5240,
      "miju": 5241,
      "rijar": 5242,
      "Ġsocijalne": 5243,
      "So": 5244,
      "Ġporodica": 5245,
      "ĠLon": 5246,
      "ĠOva": 5247,
      "ĠMila": 5248,
      "Ġpato": 5249,
      "ĠGu": 5250,
      "53": 5251,
      "koho": 5252,
      "ĠdefiniÅ¡e": 5253,
      "Ġodgovornost": 5254,
      "ĠgraÄĳevi": 5255,
      "leo": 5256,
      "Ġnere": 5257,
      "Ġoprede": 5258,
      "Ġkomunikacije": 5259,
      "Å¡ten": 5260,
      "Ġsamom": 5261,
      "rski": 5262,
      "dama": 5263,
      "ĠloÅ¡e": 5264,
      "Ġvoza": 5265,
      "at": 5266,
      "Ġprojekat": 5267,
      "vljeno": 5268,
      "Ġpopulacije": 5269,
      "MI": 5270,
      "Ġkazne": 5271,
      "Ġustav": 5272,
      "Ġstambe": 5273,
      "fija": 5274,
      "Ġukupnog": 5275,
      "visti": 5276,
      "JU": 5277,
      "Ġprvih": 5278,
      "zaciju": 5279,
      "Ġperi": 5280,
      "Ġmale": 5281,
      "Ġkiseline": 5282,
      "gog": 5283,
      "diÄĩ": 5284,
      "Ġish": 5285,
      "ĠpolitiÄįkih": 5286,
      "Ġkombi": 5287,
      "Ġgranica": 5288,
      "Ġcito": 5289,
      "Ġas": 5290,
      "tona": 5291,
      "bilnost": 5292,
      "Ġiznena": 5293,
      "Ġ32": 5294,
      "ted": 5295,
      "Ġimovi": 5296,
      "ĠNakon": 5297,
      "ÉŁÉ¬": 5298,
      "rcija": 5299,
      "Ġtrgovi": 5300,
      "Ġzemlju": 5301,
      "elek": 5302,
      "ĠFran": 5303,
      "Ġpolici": 5304,
      "Ġpregleda": 5305,
      "ĠVlade": 5306,
      "Ġsek": 5307,
      "NS": 5308,
      "Ġmoze": 5309,
      "Å¡tava": 5310,
      "Ġmodeli": 5311,
      "Ġkvadra": 5312,
      "Ġnacionalne": 5313,
      "Ġkaraktera": 5314,
      "Ġhiper": 5315,
      "Ġplanu": 5316,
      "Ge": 5317,
      "tki": 5318,
      "Ġigre": 5319,
      "Ġkance": 5320,
      "Ġkne": 5321,
      "Ġteorija": 5322,
      "ĠodreÄĳuje": 5323,
      "76": 5324,
      "Ġsila": 5325,
      "Ïģ": 5326,
      "ĠsaÄįu": 5327,
      "Ġaprila": 5328,
      "likom": 5329,
      "stanka": 5330,
      "Å¾avanja": 5331,
      "Ġnjihovom": 5332,
      "Ġosnovi": 5333,
      "ĠuÄįesta": 5334,
      "Ġfunkciji": 5335,
      "Ġizlo": 5336,
      "Ġizjavio": 5337,
      "Ġtretmana": 5338,
      "Ġbaze": 5339,
      "Äįavanje": 5340,
      "Ġdubo": 5341,
      "ltra": 5342,
      "Ġpritiska": 5343,
      "diÅ¡te": 5344,
      "gena": 5345,
      "ĠpH": 5346,
      "izvo": 5347,
      "povi": 5348,
      "Ġkoncept": 5349,
      "val": 5350,
      "tska": 5351,
      "sh": 5352,
      "ĠduÅ¾e": 5353,
      "ĠtaÄįke": 5354,
      "zama": 5355,
      "Ġposred": 5356,
      "tivu": 5357,
      "Ġspome": 5358,
      "ĠCrne": 5359,
      "poviÄĩ": 5360,
      "Ġtranzi": 5361,
      "DE": 5362,
      "pravi": 5363,
      "rur": 5364,
      "Ġodluku": 5365,
      "Ġradnog": 5366,
      "Ġbezbedno": 5367,
      "au": 5368,
      "Ġustanova": 5369,
      "Å¡kom": 5370,
      "ĠÅ¡an": 5371,
      "ĠPRO": 5372,
      "ĠPan": 5373,
      "ĠukljuÄįuje": 5374,
      "Ġvari": 5375,
      "ram": 5376,
      "lep": 5377,
      "Å¡eviÄĩ": 5378,
      "ĠdoÄĩi": 5379,
      "riÅ¡Äĩe": 5380,
      "Ġostalim": 5381,
      "rijski": 5382,
      "Ġoksida": 5383,
      "Ġ188": 5384,
      "vju": 5385,
      "Ġsame": 5386,
      "Ġspi": 5387,
      "Ġpredsedni": 5388,
      "Ġnedelje": 5389,
      "Ġmoje": 5390,
      "Äīa": 5391,
      "Ġsnagu": 5392,
      "stio": 5393,
      "Ðİ": 5394,
      "zanti": 5395,
      "STI": 5396,
      "znu": 5397,
      "Â´": 5398,
      "ĠTri": 5399,
      "Ġreke": 5400,
      "Ġkorona": 5401,
      "Ġpesme": 5402,
      "Ġstimu": 5403,
      "ĠdrÅ¾avne": 5404,
      "Ġraspode": 5405,
      "Ġmladih": 5406,
      "Ġsekto": 5407,
      "borato": 5408,
      "vanih": 5409,
      "teh": 5410,
      "ĠuobiÄįaje": 5411,
      "ĠuÄįenici": 5412,
      "Ġnapred": 5413,
      "Ġstanovi": 5414,
      "gov": 5415,
      "gani": 5416,
      "ed": 5417,
      "Ġzajednica": 5418,
      "Ġkomercija": 5419,
      "ĠNova": 5420,
      "ĠÅ¡ire": 5421,
      "ĠÅ¡uma": 5422,
      "Ġamba": 5423,
      "ini": 5424,
      "95": 5425,
      "Ġparametri": 5426,
      "tost": 5427,
      "Ġanaliti": 5428,
      "bera": 5429,
      "ktorska": 5430,
      "Ġdao": 5431,
      "Ġbiljaka": 5432,
      "Ġpolju": 5433,
      "Ġbrzine": 5434,
      "ÏĤ": 5435,
      "Ġsprovodi": 5436,
      "Ġitalija": 5437,
      "Ġosobine": 5438,
      "Ġendo": 5439,
      "jskoj": 5440,
      "Ġstoji": 5441,
      "Ġmaterijal": 5442,
      "Ġargu": 5443,
      "Ġeta": 5444,
      "rku": 5445,
      "Ġsata": 5446,
      "ĠÅ¡koli": 5447,
      "ljivi": 5448,
      "Gla": 5449,
      "Ġbrojne": 5450,
      "Ġkarci": 5451,
      "Ġpripadaju": 5452,
      "Ġmenta": 5453,
      "pravlja": 5454,
      "Ġsektora": 5455,
      "DP": 5456,
      "Ġcom": 5457,
      "ĠpoveÄĩanja": 5458,
      "Ġ1995": 5459,
      "ĠÄĩete": 5460,
      "CE": 5461,
      "Ġdobili": 5462,
      "Ġstvara": 5463,
      "92": 5464,
      "Ġsiroma": 5465,
      "Ġupotreba": 5466,
      "Ġstalno": 5467,
      "LO": 5468,
      "lon": 5469,
      "Ġfaktori": 5470,
      "Ġopozi": 5471,
      "ĠpolitiÄįki": 5472,
      "Ġefikasnosti": 5473,
      "hro": 5474,
      "Ġdecembra": 5475,
      "Ġnajpre": 5476,
      "veÄĩa": 5477,
      "Ġnaravno": 5478,
      "Ġinstitucije": 5479,
      "°É¢Êģ": 5480,
      "Ġovako": 5481,
      "ĠOD": 5482,
      "Ġregiona": 5483,
      "Ġnju": 5484,
      "Ġbak": 5485,
      "Ġstariji": 5486,
      "Ġunije": 5487,
      "Ġliteraturi": 5488,
      "Ġosnovni": 5489,
      "kupan": 5490,
      "ĠStu": 5491,
      "ĠtaÄįka": 5492,
      "Ġjula": 5493,
      "Ġidentiteta": 5494,
      "á¼": 5495,
      "Ñķ": 5496,
      "risto": 5497,
      "Ġprevazi": 5498,
      "ĠZakon": 5499,
      "Ġneposredno": 5500,
      "Ġdoprine": 5501,
      "Ġcilja": 5502,
      "Ġbira": 5503,
      "Ġmodelu": 5504,
      "Ġostalog": 5505,
      "ĠnaÅ¡ih": 5506,
      "novima": 5507,
      "Ġsiro": 5508,
      "Ġkorpu": 5509,
      "Ġsajta": 5510,
      "koviÄĩa": 5511,
      "Ġnepozna": 5512,
      "ĠtaÄįno": 5513,
      "Ġljudskih": 5514,
      "Ġotvo": 5515,
      "Ġvrstu": 5516,
      "ĠÅ¡kolu": 5517,
      "Ġmagne": 5518,
      "Ġzaintere": 5519,
      "Ġlinije": 5520,
      "Ġizvan": 5521,
      "Ġodgovori": 5522,
      "Ġprvoj": 5523,
      "Ġodigra": 5524,
      "Ġmada": 5525,
      "let": 5526,
      "Ġpriprema": 5527,
      "ĠseÄĩa": 5528,
      "Ġradnje": 5529,
      "ĠograniÄįenja": 5530,
      "Ġmetara": 5531,
      "Ġkiselina": 5532,
      "Å¾nih": 5533,
      "Ġokre": 5534,
      "ĠÄĲu": 5535,
      "Ġmemo": 5536,
      "ĠKosova": 5537,
      "Ġsrpskih": 5538,
      "Ġteritorija": 5539,
      "ĠKada": 5540,
      "ĠkoliÄįina": 5541,
      "nosu": 5542,
      "cy": 5543,
      "Ġpome": 5544,
      "Ġpravcu": 5545,
      "Äįnika": 5546,
      "Ġproizvode": 5547,
      "Ġjanuara": 5548,
      "ved": 5549,
      "Ġnastaje": 5550,
      "Ovi": 5551,
      "Ġnado": 5552,
      "VE": 5553,
      "Ġdoprinosi": 5554,
      "Ġserija": 5555,
      "vinu": 5556,
      "spira": 5557,
      "Ġkonkurent": 5558,
      "cionalni": 5559,
      "ĠsliÄįno": 5560,
      "Ġsimboli": 5561,
      "Ġprocenat": 5562,
      "Äįin": 5563,
      "Lo": 5564,
      "ĠbuduÄĩnosti": 5565,
      "vci": 5566,
      "ÑĬ": 5567,
      "dju": 5568,
      "ĠnaÄĩi": 5569,
      "klapa": 5570,
      "Åłto": 5571,
      "ĠÄįesti": 5572,
      "Ġpolicije": 5573,
      "Ġgovor": 5574,
      "Ġuvi": 5575,
      "Ġnovu": 5576,
      "Ġiko": 5577,
      "Ġdelovanja": 5578,
      "gore": 5579,
      "Ġrekon": 5580,
      "mila": 5581,
      "rus": 5582,
      "ĠâĢĶ,": 5583,
      "ÄĬu": 5584,
      "Ġdeter": 5585,
      "08": 5586,
      "Ġosiguranja": 5587,
      "Ġsaradnje": 5588,
      "Ġlista": 5589,
      "Ġvelikoj": 5590,
      "par": 5591,
      "Ġpotrebna": 5592,
      "Ġbol": 5593,
      "%),": 5594,
      "Nema": 5595,
      "Å¡avaju": 5596,
      "ĠKO": 5597,
      "Ġsmanjenja": 5598,
      "ĠPrema": 5599,
      "Ġnajvi": 5600,
      "Ġodstupa": 5601,
      "ĠAna": 5602,
      "ii": 5603,
      "Ġeste": 5604,
      "Ġznanje": 5605,
      "Ġstavove": 5606,
      "Ġzanima": 5607,
      "Ġtehnika": 5608,
      ".),": 5609,
      "Ġstrategija": 5610,
      "Ġpostala": 5611,
      "Ġfabri": 5612,
      "Ġdobijeni": 5613,
      "Ġnastavlja": 5614,
      "ĠobjaÅ¡njava": 5615,
      "ĠHu": 5616,
      "anta": 5617,
      "Ġekonomski": 5618,
      "naj": 5619,
      "Ġdijagnosti": 5620,
      "Ġinostran": 5621,
      "Ġolak": 5622,
      "Ġnepro": 5623,
      "Ġpovla": 5624,
      "cionalne": 5625,
      "UP": 5626,
      "Ġdoprinos": 5627,
      "cionim": 5628,
      "Kra": 5629,
      "Ġcrno": 5630,
      "nar": 5631,
      "vaÄįa": 5632,
      "Ġkoordina": 5633,
      "Ġrazlikuju": 5634,
      "Ġzanim": 5635,
      "ĠSadu": 5636,
      "Ġbeo": 5637,
      "Ġstandarda": 5638,
      "Ġplat": 5639,
      "Ġimovine": 5640,
      "Ġpapi": 5641,
      "skop": 5642,
      "ĠÉĽ": 5643,
      "stog": 5644,
      "ventual": 5645,
      "Ġoriginal": 5646,
      "Ġdisertacije": 5647,
      "ĠTV": 5648,
      "deÄĩi": 5649,
      "Ġdes": 5650,
      "Ġkonzu": 5651,
      "Ġnasilja": 5652,
      "ĠpodrÅ¡ke": 5653,
      "Ġnai": 5654,
      "52": 5655,
      "ĠsaopÅ¡ti": 5656,
      "ĠÊģÉŁ": 5657,
      "ĠBan": 5658,
      "poli": 5659,
      "RS": 5660,
      "Ġ33": 5661,
      "Ġkapaciteta": 5662,
      "ĠKako": 5663,
      "zad": 5664,
      "79": 5665,
      "bilnosti": 5666,
      "ĠpoÄįeo": 5667,
      "Ġzaba": 5668,
      "64": 5669,
      "................................": 5670,
      "Ġdobila": 5671,
      "Ġobole": 5672,
      "Ġpak": 5673,
      "Ġforme": 5674,
      "Ġvise": 5675,
      "ĠÄįasova": 5676,
      "Ġizdvaja": 5677,
      "jer": 5678,
      "land": 5679,
      "ĠPav": 5680,
      "Ġkompleksa": 5681,
      "sje": 5682,
      "jiÄĩ": 5683,
      "Ġnara": 5684,
      "Ġneda": 5685,
      "ĠodreÄĳivanje": 5686,
      "nis": 5687,
      "gledno": 5688,
      "Ġintereso": 5689,
      "Ġosla": 5690,
      "ĠÂµ": 5691,
      "ĠzahvaljujuÄĩi": 5692,
      "zvor": 5693,
      "Ġstvaranje": 5694,
      "Ġrezu": 5695,
      "Fi": 5696,
      "tekto": 5697,
      "taciju": 5698,
      "ĠLaza": 5699,
      "vek": 5700,
      "Ġtrajanja": 5701,
      "ljivih": 5702,
      "cka": 5703,
      "Ġ1992": 5704,
      "He": 5705,
      "Ġprosve": 5706,
      "Ġuticajem": 5707,
      "Å¡njim": 5708,
      "Ġedu": 5709,
      "Ġkampa": 5710,
      "Ġdeluje": 5711,
      "ĠkriviÄįno": 5712,
      "Ġkarakter": 5713,
      "Ġuloge": 5714,
      "Ġosni": 5715,
      "Ġprodaje": 5716,
      "Ġport": 5717,
      "rtika": 5718,
      "Ġstica": 5719,
      "Ġprofesor": 5720,
      "02": 5721,
      "Ġzaslu": 5722,
      "Ġpartner": 5723,
      "ĠuÄįenje": 5724,
      "kultu": 5725,
      "Ġnovembra": 5726,
      "cs": 5727,
      "ĠPod": 5728,
      "Ġsigur": 5729,
      "Ġvesti": 5730,
      "Ġfakulteta": 5731,
      "Ġprene": 5732,
      "ĠSkup": 5733,
      "ĠParti": 5734,
      "Ġintelektual": 5735,
      "Ġstrukturi": 5736,
      "Ġpriori": 5737,
      "ĠmeÄĳusobno": 5738,
      "Ġmala": 5739,
      "Ġblizini": 5740,
      "Ġvu": 5741,
      "Ġrastu": 5742,
      "Beogra": 5743,
      "fije": 5744,
      "MoÅ¾e": 5745,
      "jnih": 5746,
      "63": 5747,
      "Ġbave": 5748,
      "Ġmolekula": 5749,
      "Ġubije": 5750,
      "Ġnjena": 5751,
      "govara": 5752,
      "ĠreÅ¡i": 5753,
      "dimo": 5754,
      "luÅ¾beni": 5755,
      "Ġkogni": 5756,
      "Ġputovanja": 5757,
      "Ġote": 5758,
      "Ġrezo": 5759,
      "Fo": 5760,
      "fikaciju": 5761,
      "tanje": 5762,
      "Ġuniver": 5763,
      "ĠoznaÄįava": 5764,
      "vost": 5765,
      "sup": 5766,
      "Ġjednostavno": 5767,
      "Ġvec": 5768,
      "zme": 5769,
      "tions": 5770,
      "Ġavgusta": 5771,
      "Ġ@": 5772,
      "ÉļÉ¡": 5773,
      "54": 5774,
      "Ġospo": 5775,
      "Ġregionu": 5776,
      "Ġalkoho": 5777,
      "vile": 5778,
      "ĠjaÄįa": 5779,
      "Ġinterva": 5780,
      "jeviÄĩ": 5781,
      "Äįila": 5782,
      "OP": 5783,
      "Ġpredlog": 5784,
      "Ġpritisak": 5785,
      "ĠpoÄįetak": 5786,
      "Ġuza": 5787,
      "nus": 5788,
      "Ġtraje": 5789,
      "kako": 5790,
      "vaÄį": 5791,
      "fina": 5792,
      "ĠpredloÅ¾e": 5793,
      "Ġupa": 5794,
      "Ġsuse": 5795,
      "ĠnajznaÄįaj": 5796,
      "ĠVas": 5797,
      "Kad": 5798,
      "Ġgi": 5799,
      "Ġbrojem": 5800,
      "Ġmakro": 5801,
      "ĠodreÄĳenim": 5802,
      "cha": 5803,
      "ĠÄįlanovi": 5804,
      "Ġsaradnju": 5805,
      "ĠPor": 5806,
      "Ġbitno": 5807,
      "ĠÄįinjenice": 5808,
      "Ã¾": 5809,
      "Ġpovodom": 5810,
      "Ġdobri": 5811,
      "Ġjeze": 5812,
      "Ġceo": 5813,
      "Ġraspore": 5814,
      "Ġgrafi": 5815,
      "51": 5816,
      "Ġposeduje": 5817,
      "Ġstudiji": 5818,
      "Ġpreki": 5819,
      "jera": 5820,
      "Ġporodici": 5821,
      "Ġtima": 5822,
      "Ġneiz": 5823,
      "Ġstadi": 5824,
      "Ġotpor": 5825,
      "Ġmetodom": 5826,
      "Ġtermi": 5827,
      "Ġistoriji": 5828,
      "Ġ500": 5829,
      "Ġkorist": 5830,
      "Ġodnosima": 5831,
      "Ġupisa": 5832,
      "jeve": 5833,
      "Ha": 5834,
      "Ġsvojom": 5835,
      "ĠodreÄĳena": 5836,
      "Ġuspeh": 5837,
      "Ġprista": 5838,
      "PoÅ¡to": 5839,
      "Ġparale": 5840,
      "Ġpake": 5841,
      "72": 5842,
      "Ġeventual": 5843,
      "Ġispitivanje": 5844,
      "Ġnavo": 5845,
      "ĠSre": 5846,
      "Ġplana": 5847,
      "04": 5848,
      "Ġstoga": 5849,
      "Ġzgrade": 5850,
      "Ġogrom": 5851,
      "druÅ¾e": 5852,
      "Ġpolitiku": 5853,
      "Ġulaz": 5854,
      "Ġimalo": 5855,
      "Ġmnogim": 5856,
      "Ġmeni": 5857,
      "ĠGrad": 5858,
      "Ġlinear": 5859,
      "Ġmislim": 5860,
      "ĠdrugaÄįije": 5861,
      "Ġukra": 5862,
      "Ġposlednje": 5863,
      "ĠSE": 5864,
      "Ġruke": 5865,
      "ZA": 5866,
      "Ġom": 5867,
      "tva": 5868,
      "Ġponekad": 5869,
      "Ġratu": 5870,
      "ĠmeÄĳunaro": 5871,
      "dini": 5872,
      "Ġaspekta": 5873,
      "dÅ¾a": 5874,
      "Ġgovora": 5875,
      "ĠXX": 5876,
      "Ġpotencijal": 5877,
      "Ġkralje": 5878,
      "Ġstarosti": 5879,
      "ĠoÅ¡teÄĩenja": 5880,
      "teti": 5881,
      "ÉŁÉ¤": 5882,
      "Ġzapad": 5883,
      "ntropo": 5884,
      "Å¡kol": 5885,
      "Ġcentru": 5886,
      "ranim": 5887,
      "tip": 5888,
      "Å¾ili": 5889,
      "Ġinternet": 5890,
      "03": 5891,
      "jenja": 5892,
      "Ġefikasnost": 5893,
      "73": 5894,
      "ĠKao": 5895,
      "Ġnada": 5896,
      "Ġorganizaciji": 5897,
      "tle": 5898,
      "Ġsituaciji": 5899,
      "Ca": 5900,
      "Ġprednosti": 5901,
      "vljeni": 5902,
      "Ġbiste": 5903,
      "mili": 5904,
      "Ġtakva": 5905,
      "Ġuzo": 5906,
      "Ġjednako": 5907,
      "Ġrije": 5908,
      "Ġustano": 5909,
      "Ġstudenata": 5910,
      "ĠStefa": 5911,
      "Ġmanja": 5912,
      "Ġbezbednost": 5913,
      "Ġdije": 5914,
      "lik": 5915,
      "Ġvojske": 5916,
      "Ġklase": 5917,
      "Ġslabo": 5918,
      "Pu": 5919,
      "strova": 5920,
      "Ġtehnike": 5921,
      "Ġvredno": 5922,
      "ĠUN": 5923,
      "Ġ39": 5924,
      "strui": 5925,
      "Ġsvesti": 5926,
      "Ġuklo": 5927,
      "ĠlakÅ¡e": 5928,
      "ĠmenadÅ¾e": 5929,
      "Ġopreme": 5930,
      "Ġminera": 5931,
      "ĠZagre": 5932,
      "lat": 5933,
      "Ġvisoke": 5934,
      "Ġiskoristi": 5935,
      "ĠmoÅ£e": 5936,
      "ĠKr": 5937,
      "Ġ34": 5938,
      "Ġapo": 5939,
      "Ġkora": 5940,
      "Ġzasniva": 5941,
      "Kom": 5942,
      "Ġdogodi": 5943,
      "jam": 5944,
      "71": 5945,
      "Ġprikazan": 5946,
      "nk": 5947,
      "Å¾uje": 5948,
      "Ġvelikom": 5949,
      "Ġsvojstva": 5950,
      "har": 5951,
      "Ġkonver": 5952,
      "rakteri": 5953,
      "Ġopada": 5954,
      "Ġelementi": 5955,
      "Ġstare": 5956,
      "Ove": 5957,
      "Ġsredini": 5958,
      "Ġnao": 5959,
      "06": 5960,
      "tice": 5961,
      "Ġmaso": 5962,
      "leta": 5963,
      "Ġrepro": 5964,
      "Ġwi": 5965,
      "Ġkal": 5966,
      "naka": 5967,
      "Ġgeograf": 5968,
      "Å¡na": 5969,
      "sana": 5970,
      "ĠBran": 5971,
      "Ġzase": 5972,
      "dÅ¾": 5973,
      "cki": 5974,
      "duju": 5975,
      "Ġniza": 5976,
      "ĠCentra": 5977,
      "2011": 5978,
      "bila": 5979,
      "Äĩina": 5980,
      "Ġsuge": 5981,
      "Ġuklanja": 5982,
      "Ġprvenstveno": 5983,
      "Ġrazlikuje": 5984,
      "Ġkonkuren": 5985,
      "turu": 5986,
      "Ġkrize": 5987,
      "psi": 5988,
      "ĠniÅ¾i": 5989,
      "Ġstvarala": 5990,
      "Ġnismo": 5991,
      "Ġprijatelj": 5992,
      "stance": 5993,
      "Ġsimbo": 5994,
      "rska": 5995,
      "Ġsignala": 5996,
      "Ġformiranje": 5997,
      "Lju": 5998,
      "Ġisporu": 5999,
      "Ġosobina": 6000,
      "cke": 6001,
      "ĠMan": 6002,
      "Ġmanifesta": 6003,
      "Ġprimera": 6004,
      "cena": 6005,
      "ĠMitro": 6006,
      "ĠKomi": 6007,
      "Ġnabav": 6008,
      "kne": 6009,
      "Beograd": 6010,
      "ĠMeÄĳutim": 6011,
      "ĠPoruka": 6012,
      "Ġrobe": 6013,
      "stiÄįke": 6014,
      "ngvisti": 6015,
      "kvu": 6016,
      "Ġvisok": 6017,
      "ĠMaÄĳar": 6018,
      "Ġnazivom": 6019,
      "ANU": 6020,
      "Å¡ena": 6021,
      ".âĢĿ": 6022,
      "ĠduÅ¾ine": 6023,
      "Ġprimenjuje": 6024,
      "ĠtraÅ¾e": 6025,
      "Å½e": 6026,
      "njenje": 6027,
      "Ġseve": 6028,
      "Äįenih": 6029,
      "ĠCom": 6030,
      "Ġostavlja": 6031,
      "Ġneod": 6032,
      "ĠBog": 6033,
      "Ġonoga": 6034,
      "Ġoperacije": 6035,
      "engl": 6036,
      "ĠveÅ¡ta": 6037,
      "Ġbeograd": 6038,
      "Ġpodnosi": 6039,
      "Ġzgrada": 6040,
      "Ġmasa": 6041,
      "07": 6042,
      "Ġprimeni": 6043,
      "ĠvaÅ¾an": 6044,
      "ĠBri": 6045,
      "ĠdrÅ¾avi": 6046,
      "EÐİ": 6047,
      "bje": 6048,
      "Ġ1994": 6049,
      "ĠproÅ¡losti": 6050,
      "Ġske": 6051,
      "Ġdugoro": 6052,
      "Ġotpada": 6053,
      "Ġveb": 6054,
      "Ġprora": 6055,
      "Ġposloda": 6056,
      "dilo": 6057,
      "ĠsluÄįaja": 6058,
      "vajanja": 6059,
      "Ġrazumevanje": 6060,
      "Ġfinansijskih": 6061,
      "ĠOn": 6062,
      "Ġvizue": 6063,
      "tpu": 6064,
      "Dok": 6065,
      "Ġostvaruje": 6066,
      "Å¡nju": 6067,
      "Ġnesre": 6068,
      "tike": 6069,
      "Ġsja": 6070,
      "ĠRE": 6071,
      "veÄĩi": 6072,
      "Ġakcije": 6073,
      "gio": 6074,
      "Å¡iÄĩa": 6075,
      "ĠSP": 6076,
      "ĠVojvodine": 6077,
      "Ġistim": 6078,
      "Ġakcija": 6079,
      "Ġteksto": 6080,
      "É¢É±": 6081,
      "Ġobrade": 6082,
      "2010": 6083,
      "Ġprojekata": 6084,
      "ĠNE": 6085,
      "62": 6086,
      "Ġznaju": 6087,
      "Ġbrani": 6088,
      "Ġproblemi": 6089,
      "fan": 6090,
      "Ġsinta": 6091,
      "Äĳenog": 6092,
      "Äĩuju": 6093,
      "Ġtipi": 6094,
      "Ġalbu": 6095,
      "Ġane": 6096,
      "ĠpoÄįela": 6097,
      "Ġistakao": 6098,
      "ĠgodiÅ¡nje": 6099,
      "vske": 6100,
      "Ġuli": 6101,
      "ĠÉ¨Éŀ": 6102,
      "ĠJovanoviÄĩ": 6103,
      "Ġosniva": 6104,
      "ĠtrÅ¾iÅ¡te": 6105,
      "Ġkame": 6106,
      "kinja": 6107,
      "jke": 6108,
      "74": 6109,
      "ĠutvrÄĳeno": 6110,
      "ĠâĢ¦": 6111,
      "ĠmeÄĳusob": 6112,
      "ĠnaÅ¡u": 6113,
      "Ġorijenta": 6114,
      "Tak": 6115,
      "Ġnaf": 6116,
      "nita": 6117,
      "zin": 6118,
      "ĠMinistarstvo": 6119,
      "Ġgrupama": 6120,
      "ĠpotroÅ¡aÄįa": 6121,
      "Ġmoderni": 6122,
      "Ho": 6123,
      "Ġsnabde": 6124,
      "dere": 6125,
      "ĠkaÅ¾u": 6126,
      "Ġdovesti": 6127,
      "ila": 6128,
      "Ġintervju": 6129,
      "ĠistraÅ¾ivanjima": 6130,
      "Ġsina": 6131,
      "Ġmoj": 6132,
      "ktori": 6133,
      "upotre": 6134,
      "Ġfer": 6135,
      "Ġzadovo": 6136,
      "ĠSever": 6137,
      "grama": 6138,
      "2012": 6139,
      "stiti": 6140,
      "Ġodbora": 6141,
      "ĠpovrÅ¡ini": 6142,
      "IM": 6143,
      "loÅ¡kom": 6144,
      "Ġmeda": 6145,
      "ok": 6146,
      "ĠÄįestica": 6147,
      "Ġjesu": 6148,
      "ĠobeleÅ¾": 6149,
      "61": 6150,
      "Ġvrh": 6151,
      "lski": 6152,
      "Ġevide": 6153,
      "mon": 6154,
      "Ġpostojanja": 6155,
      "daci": 6156,
      "Ġnapla": 6157,
      "Ġanalizom": 6158,
      "Ġjednim": 6159,
      "Ġstrukturu": 6160,
      "ĠgreÅ¡ke": 6161,
      "2013": 6162,
      "ĠÅłpa": 6163,
      "ĠDuna": 6164,
      "Ġpokazao": 6165,
      "Ġosloba": 6166,
      "ĠnaÅ¡im": 6167,
      "ĠOvo": 6168,
      "Ġkg": 6169,
      "Ġtitu": 6170,
      "Ġimplementa": 6171,
      "Ġrazd": 6172,
      "oksida": 6173,
      "Ġpoglavlju": 6174,
      "Ġhor": 6175,
      "ljak": 6176,
      "noge": 6177,
      "Ġkriterijuma": 6178,
      "vljuju": 6179,
      "ljka": 6180,
      "ĠnaÅ¡a": 6181,
      "Ġzanema": 6182,
      "Ġepizo": 6183,
      "ĠEuro": 6184,
      "Op": 6185,
      "zer": 6186,
      "Ġispunja": 6187,
      "ĠodrÅ¾avanje": 6188,
      "Ġvanred": 6189,
      "Ġsavez": 6190,
      "Ġuma": 6191,
      "fek": 6192,
      "ĠokruÅ¾enju": 6193,
      "Danas": 6194,
      "Ġobraz": 6195,
      "AS": 6196,
      "reo": 6197,
      "lia": 6198,
      "Ġnikad": 6199,
      "lizaciji": 6200,
      "Ġnapisao": 6201,
      "gama": 6202,
      "Ġrazliko": 6203,
      "Pla": 6204,
      "Å¾em": 6205,
      "Ġotac": 6206,
      "Ġpretra": 6207,
      "Vu": 6208,
      "Ġpis": 6209,
      "Ġpromeni": 6210,
      "Ġ300": 6211,
      "lt": 6212,
      "mski": 6213,
      "Å¾ivanja": 6214,
      "sigu": 6215,
      "Ġprirodi": 6216,
      "ĠTeo": 6217,
      "Ġkakav": 6218,
      "rili": 6219,
      "Treba": 6220,
      "tici": 6221,
      "Ġlim": 6222,
      "sora": 6223,
      "Ġsimu": 6224,
      "Ġfesti": 6225,
      "TS": 6226,
      "Ġlegi": 6227,
      "Ġelementa": 6228,
      "Ġokvir": 6229,
      "Ġkine": 6230,
      "Ġpoznat": 6231,
      "Ġpm": 6232,
      "Ġpatrijar": 6233,
      "rine": 6234,
      "Ġravnote": 6235,
      "Ġlaborato": 6236,
      "skula": 6237,
      "Äİe": 6238,
      "Ġradne": 6239,
      "Ġodredbe": 6240,
      "Ġsaradnji": 6241,
      "Ġdetek": 6242,
      "Co": 6243,
      "Ã£": 6244,
      "rila": 6245,
      "lera": 6246,
      "kin": 6247,
      "Ġpercep": 6248,
      "ork": 6249,
      "puÅ¡ta": 6250,
      "ĠdoÅ¡ao": 6251,
      "ÉŁÉ¥": 6252,
      "ĠMilan": 6253,
      "prava": 6254,
      "ĠPari": 6255,
      "ÉļÉ¦": 6256,
      "Ġdepo": 6257,
      "dbe": 6258,
      "ntri": 6259,
      "ĠkoÅ¡ta": 6260,
      "ĠsluÅ¡a": 6261,
      "Ġprimje": 6262,
      "Ġizraz": 6263,
      "Ġhirur": 6264,
      "zovani": 6265,
      "2014": 6266,
      "Ġupla": 6267,
      "Ġdolaze": 6268,
      "Å¡tima": 6269,
      "dnje": 6270,
      "Ġprikazana": 6271,
      "ĠRumu": 6272,
      "stala": 6273,
      "Ġmetala": 6274,
      "Ġprincipa": 6275,
      "Ġpokraji": 6276,
      "Å¡tini": 6277,
      "rama": 6278,
      "Ġskra": 6279,
      "ĠprilagoÄĳa": 6280,
      "lnika": 6281,
      "ang": 6282,
      "ĠPoliti": 6283,
      "Ġtemu": 6284,
      "Ġnajma": 6285,
      "Bio": 6286,
      "Ġpresto": 6287,
      "ĠÄĮlan": 6288,
      "Ġkomentar": 6289,
      "Ġsliku": 6290,
      "Ġrado": 6291,
      "Ġmetaboli": 6292,
      "Ġdepre": 6293,
      "CR": 6294,
      "Å¡ni": 6295,
      "IstraÅ¾i": 6296,
      "zana": 6297,
      "Ġnastanka": 6298,
      "Ġnei": 6299,
      "Ġregre": 6300,
      "²É¬": 6301,
      "Ġ(''": 6302,
      "Sli": 6303,
      "96": 6304,
      "mani": 6305,
      "Ġadap": 6306,
      "tuju": 6307,
      "Ġpolje": 6308,
      "tnici": 6309,
      "É¢É¡": 6310,
      "ĠkreÄĩe": 6311,
      "wi": 6312,
      "Ġodobre": 6313,
      "Ġfilma": 6314,
      "É«": 6315,
      "ĠDrugog": 6316,
      "ĠdruÅ¡tveno": 6317,
      "Ġpovezanost": 6318,
      "ĠMetohi": 6319,
      "Ġcelu": 6320,
      "Ġimale": 6321,
      "fere": 6322,
      "Ġneutra": 6323,
      "Ġnastupa": 6324,
      "renih": 6325,
      "Ġsituacijama": 6326,
      "Ġdelovima": 6327,
      "sman": 6328,
      "Ġkosti": 6329,
      "ĠodgovarajuÄĩe": 6330,
      "Ġljubavi": 6331,
      "grisa": 6332,
      "Ġpojma": 6333,
      "Ġosnovna": 6334,
      "tribu": 6335,
      "Ġsobom": 6336,
      "ĠinaÄįe": 6337,
      "ps": 6338,
      "cho": 6339,
      "Ġvisine": 6340,
      ".(": 6341,
      "âĢķ": 6342,
      "boj": 6343,
      "Ġhu": 6344,
      "dici": 6345,
      "Ġciklusa": 6346,
      "Ġsituaciju": 6347,
      "Ġpromenu": 6348,
      "mato": 6349,
      "Ġred": 6350,
      "ĠÅ¾al": 6351,
      "ĠvaÅ¾i": 6352,
      "Ġsrednjo": 6353,
      "miÅ¡lje": 6354,
      "Ġlekse": 6355,
      "Ġkorup": 6356,
      "Ġsvemu": 6357,
      "Ġuku": 6358,
      "em": 6359,
      "Ġobjekat": 6360,
      "Ġdobre": 6361,
      "ĠMla": 6362,
      "ĠpoloÅ¾aja": 6363,
      "Ġovoga": 6364,
      "timo": 6365,
      "Ġkonferen": 6366,
      "Ġ1993": 6367,
      "bna": 6368,
      "Ġmetod": 6369,
      "SO": 6370,
      "ĠvaÅ¾e": 6371,
      "Ġprihoda": 6372,
      "Ġborbi": 6373,
      "DI": 6374,
      "zimanje": 6375,
      "Ġpripove": 6376,
      "Äįuju": 6377,
      "ĠOsno": 6378,
      "âĢ¦âĢ¦": 6379,
      "Ġsvima": 6380,
      "tivnoj": 6381,
      "Ġsed": 6382,
      "dnica": 6383,
      "ĠSlobo": 6384,
      "Ġpovezi": 6385,
      "Ġljubav": 6386,
      "Ġmajka": 6387,
      "bne": 6388,
      "Ġprelazi": 6389,
      "Ġpotrebu": 6390,
      "hat": 6391,
      "ĠâĪĴ": 6392,
      "Broj": 6393,
      "Ġinvali": 6394,
      "ĠÄįeÅ¡Äĩe": 6395,
      "ciono": 6396,
      "Ġturizma": 6397,
      "Äįnije": 6398,
      "ĠÉ©É¨É": 6399,
      "veno": 6400,
      "spiti": 6401,
      "Ġhorizo": 6402,
      "ĠgraÄĳani": 6403,
      "LU": 6404,
      "Fa": 6405,
      "Ġpobu": 6406,
      "sati": 6407,
      "ĠsluÅ¾i": 6408,
      "Ġnosio": 6409,
      "ĠÄįlanica": 6410,
      "cro": 6411,
      "res": 6412,
      "Ġiznos": 6413,
      "KT": 6414,
      "Ġnepokre": 6415,
      "vredi": 6416,
      "Ġzauzima": 6417,
      "gara": 6418,
      "FR": 6419,
      "Ġispitivanih": 6420,
      "tove": 6421,
      "Ġdobijaju": 6422,
      "Ġreferent": 6423,
      "ĠveliÄįina": 6424,
      "pen": 6425,
      "Ġsredstvo": 6426,
      "Ġroda": 6427,
      "Ġgusti": 6428,
      "ruÅ¾a": 6429,
      "Ġtermin": 6430,
      "Ġsledi": 6431,
      "nes": 6432,
      "bja": 6433,
      "et": 6434,
      "ĠIV": 6435,
      "miÄĩ": 6436,
      "ĠuÄįesnika": 6437,
      "Ġsaradnici": 6438,
      "jk": 6439,
      "ĠzapoÅ¡lja": 6440,
      "ĠRusija": 6441,
      "Ġpovu": 6442,
      "ĠsaopÅ¡te": 6443,
      "Ġnastava": 6444,
      "Ġproblemati": 6445,
      "ht": 6446,
      "Äĳivanju": 6447,
      "Ġsni": 6448,
      "Ġpride": 6449,
      "Ġpojedinim": 6450,
      "Ġstandardi": 6451,
      "Ġsuve": 6452,
      "Ġpravni": 6453,
      "ĠOvaj": 6454,
      "Ġpovrede": 6455,
      "Ġgradi": 6456,
      "valua": 6457,
      "oci": 6458,
      "Ġkarti": 6459,
      "znosti": 6460,
      "________________": 6461,
      "lum": 6462,
      "Ġznak": 6463,
      "Ġpristu": 6464,
      "Ġduga": 6465,
      "88": 6466,
      "Ġnacionalnih": 6467,
      "ĠdruÅ¡tvenim": 6468,
      "ĠdelimiÄįno": 6469,
      "ĠkoÅ¡a": 6470,
      "ĠveÄĩim": 6471,
      "Ġdro": 6472,
      "Ġpriliku": 6473,
      "jednako": 6474,
      "rnice": 6475,
      "ĠPer": 6476,
      "Ġteritorije": 6477,
      "siti": 6478,
      "Ġkriminal": 6479,
      "Äĩenih": 6480,
      "ĠAleksandra": 6481,
      "bova": 6482,
      "Ġpremi": 6483,
      "Ġpoznato": 6484,
      "Ġprivla": 6485,
      "Ġprednost": 6486,
      "ranu": 6487,
      "Ġuvede": 6488,
      "ĠraÄįun": 6489,
      "Ġistoriju": 6490,
      "Ġpovr": 6491,
      "Ġzakoni": 6492,
      "Ġsajtu": 6493,
      "Ġcrkva": 6494,
      "âĢĺ": 6495,
      "Ġposlovnih": 6496,
      "Ġreakcija": 6497,
      "stoj": 6498,
      "ĠtroÅ¡kove": 6499,
      "Hi": 6500,
      "Ġvirusa": 6501,
      "Ġ42": 6502,
      "rove": 6503,
      "ĠizveÅ¡taja": 6504,
      "ĠÅ¡tete": 6505,
      "Ġprekr": 6506,
      "Ġnjim": 6507,
      "Ġmestima": 6508,
      "ĠCon": 6509,
      "Ġkro": 6510,
      "ĠuÄįini": 6511,
      "ĠNovog": 6512,
      "ĠobezbeÄĳuje": 6513,
      "Ġmuzike": 6514,
      "Äįice": 6515,
      "Ġukupne": 6516,
      "Ġstvaranja": 6517,
      "Ġstrada": 6518,
      "Ġprirodnih": 6519,
      "zao": 6520,
      "ĠKosovu": 6521,
      "ĠopÅ¡tina": 6522,
      "Ġube": 6523,
      "ÉĿ": 6524,
      "ĠTele": 6525,
      "Ġdug": 6526,
      "Ġprisustvu": 6527,
      "tetom": 6528,
      "Ġmona": 6529,
      "ĠÉ«ÉŁ": 6530,
      "Ġgramati": 6531,
      "Ġoblastima": 6532,
      "loÅ¡ko": 6533,
      "ĠudÅ¾be": 6534,
      "vin": 6535,
      "Ġkontrola": 6536,
      "Ġpreven": 6537,
      "Ġdata": 6538,
      "Ġfebruara": 6539,
      "Ġuse": 6540,
      "ĠsaobraÄĩaja": 6541,
      "2015": 6542,
      "Naravno": 6543,
      "limpi": 6544,
      "moÄĩ": 6545,
      "Ġstranih": 6546,
      "Ġuprkos": 6547,
      "Ġpoto": 6548,
      "ĠSvetog": 6549,
      "Ġsrpska": 6550,
      "Ġrok": 6551,
      "stiÄĩ": 6552,
      "Ġizbega": 6553,
      "tore": 6554,
      "Î»": 6555,
      "Ġprav": 6556,
      "Ġhroni": 6557,
      "Ġprilog": 6558,
      "Ġosobi": 6559,
      "jiho": 6560,
      "Ġinterakcije": 6561,
      "Ġpravno": 6562,
      "Ġposlovne": 6563,
      "ml": 6564,
      "pula": 6565,
      "93": 6566,
      "ĠÄĲorÄĳe": 6567,
      "Ġskri": 6568,
      "Ġradom": 6569,
      "ĠST": 6570,
      "Ġinteli": 6571,
      "zen": 6572,
      "Ġideal": 6573,
      "2009": 6574,
      "reti": 6575,
      "Ġiskaza": 6576,
      "Ġpreuzima": 6577,
      "Ġdestina": 6578,
      "ĠukljuÄįuju": 6579,
      "ana": 6580,
      "Ġbanka": 6581,
      "ĠokruÅ¾enja": 6582,
      "Ñİ": 6583,
      "king": 6584,
      "Ġaktivnostima": 6585,
      "Ġvje": 6586,
      "vskog": 6587,
      "love": 6588,
      "Ġbubre": 6589,
      "nomi": 6590,
      "BI": 6591,
      "Ġnjeno": 6592,
      "Ġuslov": 6593,
      "ĠkoriÅ¡Äĩen": 6594,
      "lasti": 6595,
      "Ġstope": 6596,
      "Ġpozicije": 6597,
      "Ġmanda": 6598,
      "Ġvremenom": 6599,
      "Ġkorela": 6600,
      "Ïĥ": 6601,
      "Ġprimenjuju": 6602,
      "mokra": 6603,
      "Ġjavni": 6604,
      "gove": 6605,
      "Ġeduka": 6606,
      "Ġidu": 6607,
      "Ġzadataka": 6608,
      "Ġmerenje": 6609,
      "ĠDNK": 6610,
      "Ġinspe": 6611,
      "Vred": 6612,
      "Ġanke": 6613,
      "Ġpotrebama": 6614,
      "dago": 6615,
      "staviti": 6616,
      "siÄĩ": 6617,
      "Ġterapije": 6618,
      "ljan": 6619,
      "Ġgradova": 6620,
      "mr": 6621,
      "Ġlokalnih": 6622,
      "pp": 6623,
      "Å¡tena": 6624,
      "ĠinÅ¾enje": 6625,
      "ĠZapa": 6626,
      "Ġnapad": 6627,
      "more": 6628,
      "ĠtroÅ¡kovi": 6629,
      "Ġidentitet": 6630,
      "Ġ75": 6631,
      "Mu": 6632,
      "Ġretko": 6633,
      "ÄįiÄĩa": 6634,
      "cno": 6635,
      "Ġnapomenu": 6636,
      "Ġruku": 6637,
      "udo": 6638,
      "telje": 6639,
      "ĠÅ¡ampi": 6640,
      "Ġostala": 6641,
      "ras": 6642,
      "Ġuzorku": 6643,
      "Ġsekven": 6644,
      "Ġsuper": 6645,
      "Ġkonf": 6646,
      "mine": 6647,
      "Ġnavedene": 6648,
      "Ġujedno": 6649,
      "Ġavio": 6650,
      "Jedna": 6651,
      "liÅ¡u": 6652,
      "js": 6653,
      "ĠuveÄĩa": 6654,
      "Ġtrudno": 6655,
      "É¢É¥": 6656,
      "Ġvodu": 6657,
      "Ġopis": 6658,
      "Ġobavezu": 6659,
      "mskog": 6660,
      "Ġpostepe": 6661,
      "ĠzaÅ¡tita": 6662,
      "Ġselu": 6663,
      "Ġ65": 6664,
      "cus": 6665,
      "heo": 6666,
      "ĠodreÄĳen": 6667,
      "Ġsvrhe": 6668,
      "Ġspra": 6669,
      "Ġantropo": 6670,
      "Ġnez": 6671,
      "Ġslobodno": 6672,
      "cin": 6673,
      "Ġsvoja": 6674,
      "ME": 6675,
      "ĠoslobaÄĳa": 6676,
      "peri": 6677,
      "Ġodvoje": 6678,
      "Ġravni": 6679,
      "Ġopisuje": 6680,
      "ĠduÅ¾nosti": 6681,
      "ĠUjedinje": 6682,
      "Ġkralja": 6683,
      "ĠKraguje": 6684,
      "Ġperformansi": 6685,
      "ĠDan": 6686,
      "Ġsukoba": 6687,
      "ĠAust": 6688,
      "Doda": 6689,
      "OVA": 6690,
      "Ġlicu": 6691,
      "ĠKla": 6692,
      "krea": 6693,
      "Ġmnogih": 6694,
      "Ġbriga": 6695,
      "Ġsvu": 6696,
      "ĠrazliÄįiti": 6697,
      "Ġaktiva": 6698,
      "Å¾nim": 6699,
      "stem": 6700,
      "ĠHercego": 6701,
      "Ġromana": 6702,
      "Ġparlamenta": 6703,
      "ĠÄįinjenicu": 6704,
      "Ġnedostatak": 6705,
      "Ġnadzor": 6706,
      "Ġ\\": 6707,
      "Ġulazi": 6708,
      "Ġpraksa": 6709,
      "Å¾nom": 6710,
      "toksi": 6711,
      "89": 6712,
      "ĠKosovo": 6713,
      "Ġlj": 6714,
      "ĠJan": 6715,
      "Ġbrzina": 6716,
      "Ġnudi": 6717,
      "Ġkorek": 6718,
      "Ġnjegovoj": 6719,
      "kg": 6720,
      "Ġpodsti": 6721,
      "bert": 6722,
      "Or": 6723,
      "Ġcenu": 6724,
      "ĠodreÄĳenog": 6725,
      "Ġstil": 6726,
      "Ste": 6727,
      "ljuje": 6728,
      "Ġdovolj": 6729,
      "ĠNor": 6730,
      "ĠpojaÄįa": 6731,
      "Ġdobijene": 6732,
      "Ġzone": 6733,
      "Ġmotivi": 6734,
      "ĠneÄįi": 6735,
      "Ġapara": 6736,
      "Å¡nih": 6737,
      "EÑķ": 6738,
      "Ġkorpora": 6739,
      "Ġakce": 6740,
      "Ġgasa": 6741,
      "ĠkonaÄįno": 6742,
      "Ġefekata": 6743,
      "nuli": 6744,
      "pela": 6745,
      "Ġmati": 6746,
      "ĠÅ": 6747,
      "ĠPosle": 6748,
      "Ġsoftver": 6749,
      "Ġsvrhu": 6750,
      "ekonom": 6751,
      "Ġotpo": 6752,
      "Ġhiljada": 6753,
      "ĠuÄįestvuju": 6754,
      "JoÅ¡": 6755,
      "njenih": 6756,
      "Ġrukovodi": 6757,
      "ĠGori": 6758,
      "Ġlist": 6759,
      "Ġelement": 6760,
      "Äĳenim": 6761,
      "biti": 6762,
      "Ġnaju": 6763,
      "Ġpristupi": 6764,
      "Ġjavnom": 6765,
      "Ġsistemi": 6766,
      "Ġsubje": 6767,
      "jt": 6768,
      "ĠHrvatske": 6769,
      "ĠKru": 6770,
      "Ã¬": 6771,
      "Ġran": 6772,
      "Å¡im": 6773,
      "verzi": 6774,
      ".âĢĵ": 6775,
      "up": 6776,
      "ĠdrÅ¾avnih": 6777,
      "Ġfinansijske": 6778,
      "500": 6779,
      "Ġprikazane": 6780,
      "Ġelemente": 6781,
      "zavi": 6782,
      "ĠNju": 6783,
      "Ġseo": 6784,
      "Ġupotreblja": 6785,
      "Ġuto": 6786,
      "ĠVI": 6787,
      "ĠsprovoÄĳenje": 6788,
      "Ġfos": 6789,
      "Ġ150": 6790,
      "Inte": 6791,
      "Ġpromenama": 6792,
      "ĠpraÄĩenje": 6793,
      "Ġdodaje": 6794,
      "Ã§": 6795,
      "ĠÎ¼": 6796,
      "tenti": 6797,
      "Å¾iÄĩ": 6798,
      "Ġdeci": 6799,
      "jama": 6800,
      "teli": 6801,
      "sisti": 6802,
      "ĠpraktiÄįno": 6803,
      "spa": 6804,
      "Ġobjavio": 6805,
      "Ġglagola": 6806,
      "Ġpisme": 6807,
      "ĠnaÄįinu": 6808,
      "Ġsektoru": 6809,
      "Ġizvodi": 6810,
      "Ġprogramu": 6811,
      "Å¡eni": 6812,
      "Ġponude": 6813,
      "ĠzakljuÄįak": 6814,
      "Ġzdravstvene": 6815,
      "Ġkupu": 6816,
      "Ġjos": 6817,
      "AP": 6818,
      "Ġperspekti": 6819,
      "Ġprilika": 6820,
      "Ġprivrede": 6821,
      "Ġroditelji": 6822,
      "ĠSlove": 6823,
      "Ġbolest": 6824,
      "Â»": 6825,
      "BS": 6826,
      "ĠÉŀÉļ": 6827,
      "Ġrura": 6828,
      "ĠJovan": 6829,
      "Ġtretman": 6830,
      "Ġrastvora": 6831,
      "Ġhibri": 6832,
      "stanci": 6833,
      "ĠnadleÅ¾nosti": 6834,
      "Ġekvi": 6835,
      "Ġokri": 6836,
      "Ġdejstvo": 6837,
      "lovanja": 6838,
      "Ġtok": 6839,
      "Ġprvobi": 6840,
      "Ġ1989": 6841,
      "Ġtransport": 6842,
      "ĠÉļ": 6843,
      "ĠIma": 6844,
      "znost": 6845,
      "imna": 6846,
      "Ġfrag": 6847,
      "ĠmiÅ¡ljenju": 6848,
      "kupno": 6849,
      "ĠistiÄįu": 6850,
      "Ġ55": 6851,
      "Ġpogled": 6852,
      "Ġistori": 6853,
      "ide": 6854,
      "ĠizvrÅ¡": 6855,
      "ĠIZ": 6856,
      "Ġostao": 6857,
      "Ġusko": 6858,
      "ĠureÄĳaja": 6859,
      "Ġobliko": 6860,
      "ĠÅ¾elje": 6861,
      "Ġ44": 6862,
      "Ġposeban": 6863,
      "lli": 6864,
      "deli": 6865,
      "ĠÅ¡eÄĩe": 6866,
      "lovanje": 6867,
      "ĠPD": 6868,
      "Spo": 6869,
      "97": 6870,
      "rami": 6871,
      "Ġsekre": 6872,
      "ĠFor": 6873,
      "Ġregulisa": 6874,
      "Ġoslanja": 6875,
      "Ġtreti": 6876,
      "Ġzloupotre": 6877,
      "Ġuticati": 6878,
      "sane": 6879,
      "sona": 6880,
      "Ġukraji": 6881,
      "ĠpodruÄįje": 6882,
      "ĠpojedinaÄįnih": 6883,
      "Ġhipo": 6884,
      "ĠodrÅ¾avanja": 6885,
      "ĠkoÅ¾e": 6886,
      "Ġupore": 6887,
      "Ġknjizi": 6888,
      "ĠSko": 6889,
      "ĠbivÅ¡i": 6890,
      "ĠniÅ¾e": 6891,
      "Ġdat": 6892,
      "Ġsastavu": 6893,
      "Å¡kim": 6894,
      "ĠBr": 6895,
      "Ġkomponenti": 6896,
      "nijeg": 6897,
      "Ġporeza": 6898,
      "Ġmusli": 6899,
      "Ġpublika": 6900,
      "vanog": 6901,
      "niÅ¡ta": 6902,
      "Ġplasti": 6903,
      "ĠmuÅ¡karaca": 6904,
      "KE": 6905,
      "Ġ>": 6906,
      "Ġtoksi": 6907,
      "Ġradnih": 6908,
      "Ġstvarno": 6909,
      "Ġusvoji": 6910,
      "Ġnasilje": 6911,
      "Ġunapred": 6912,
      "ĠpoÅ¾e": 6913,
      "Ġglagol": 6914,
      "Ġposlednji": 6915,
      "âĢ¡": 6916,
      "ĠsluÅ¾bi": 6917,
      "Ġpartije": 6918,
      "Ġstruje": 6919,
      "Ġcelini": 6920,
      "Ġobno": 6921,
      "ĠVeliko": 6922,
      "Ġindustrije": 6923,
      "pne": 6924,
      "Ġkanala": 6925,
      "ĠHar": 6926,
      "Ġpsihi": 6927,
      "ĠÂ°": 6928,
      "Ġpostane": 6929,
      "Ġnuklear": 6930,
      "ĠveÄĩeg": 6931,
      "Ġzaposleni": 6932,
      "ĠveÄĩini": 6933,
      "cionalna": 6934,
      "Ġrepubli": 6935,
      "Ġskupa": 6936,
      "Ġpoznati": 6937,
      "Ġdeblji": 6938,
      "Ġnaveo": 6939,
      "Ġarti": 6940,
      "Ġdokaz": 6941,
      "Ġkorelacije": 6942,
      "Ġsistemima": 6943,
      "CIJA": 6944,
      "Ġformiranja": 6945,
      "dika": 6946,
      "slava": 6947,
      "Ġ.-": 6948,
      "Ġaviona": 6949,
      "IH": 6950,
      "Ġjez": 6951,
      "Ġmesec": 6952,
      "ĠmeÄĳunarodne": 6953,
      "janoviÄĩ": 6954,
      "sum": 6955,
      "ny": 6956,
      "ĠÅłi": 6957,
      "laÅ¾u": 6958,
      "Ġportala": 6959,
      "Ġstatusa": 6960,
      "Å¾enih": 6961,
      "Ġpravom": 6962,
      "Ġmalole": 6963,
      "Ġsrpsko": 6964,
      "ĠpoÅ¡tu": 6965,
      "ĠvaÅ¡": 6966,
      "ĠVladimir": 6967,
      "ĠDO": 6968,
      "94": 6969,
      "cionalno": 6970,
      "Ġ64": 6971,
      "Ġodrasli": 6972,
      "vilo": 6973,
      "ĠCu": 6974,
      "voljan": 6975,
      "Ġizre": 6976,
      "ĠFili": 6977,
      "Ġvidimo": 6978,
      "Ġ400": 6979,
      "Dra": 6980,
      "plika": 6981,
      "ziv": 6982,
      "Ġizvori": 6983,
      "Ġgvo": 6984,
      "Ri": 6985,
      "ĠzavrÅ¡io": 6986,
      "biÄĩ": 6987,
      "Naslov": 6988,
      "ĠEngle": 6989,
      "dora": 6990,
      "Ġizgradnje": 6991,
      "Ġ1941": 6992,
      "Äįenjem": 6993,
      "Ġbogat": 6994,
      "Ġkoman": 6995,
      "ĠSubo": 6996,
      "ĠnaÄįine": 6997,
      "ljom": 6998,
      "Ġudeo": 6999,
      "Ġfrak": 7000,
      "Ġarhitekto": 7001,
      "ĠnauÄįni": 7002,
      "rice": 7003,
      "ght": 7004,
      "Ġpravne": 7005,
      "koji": 7006,
      "Ġdecenija": 7007,
      "Ġfro": 7008,
      "Ġpogi": 7009,
      "Ġdoprinose": 7010,
      "Ġute": 7011,
      "Ġosvr": 7012,
      "ktom": 7013,
      "Ġintra": 7014,
      "Ġizgradnju": 7015,
      "dim": 7016,
      "Ġdovode": 7017,
      "ĠpoÅ¾a": 7018,
      "Ġistu": 7019,
      "ĠÄĲo": 7020,
      "Ġjavnost": 7021,
      "Ġveruje": 7022,
      "Ġwith": 7023,
      "glu": 7024,
      "Ġsmatrati": 7025,
      "Ġnose": 7026,
      "Ġposebne": 7027,
      "Ġvojne": 7028,
      "Ġuniverza": 7029,
      "Ġispitanici": 7030,
      "ntnog": 7031,
      "ĠSpa": 7032,
      "Ġnavedeno": 7033,
      "ĠSjedinje": 7034,
      "Ġglave": 7035,
      "Ġzatvora": 7036,
      "veko": 7037,
      "ĠRusiji": 7038,
      "Ġsun": 7039,
      "stavljanje": 7040,
      "Ġmin": 7041,
      "garske": 7042,
      "Ġveru": 7043,
      "Ġ41": 7044,
      "Ġstranu": 7045,
      "ĠobeÄĩa": 7046,
      "ĠrazliÄįita": 7047,
      "Ga": 7048,
      "ĠreÄįeno": 7049,
      "Ġintegrisa": 7050,
      "ĠoseÄĩaj": 7051,
      "lle": 7052,
      "cide": 7053,
      "ĠJE": 7054,
      "Ġzona": 7055,
      "Ġsudija": 7056,
      "ia": 7057,
      "Analiza": 7058,
      "Mogu": 7059,
      "lori": 7060,
      "ĠdrÅ¾i": 7061,
      "sad": 7062,
      "Ġoca": 7063,
      "Ġorgan": 7064,
      "Ġobim": 7065,
      "gy": 7066,
      "Ġproceni": 7067,
      "Ġostalo": 7068,
      "cionom": 7069,
      "prot": 7070,
      "Ġ43": 7071,
      "Ġdosada": 7072,
      "Ġimam": 7073,
      "Ġzali": 7074,
      "Ġzrna": 7075,
      "Ġnastaju": 7076,
      "Ġnjegovi": 7077,
      "Ġprole": 7078,
      "ĠproÅ¡le": 7079,
      "Ġraznovr": 7080,
      "Stra": 7081,
      "mica": 7082,
      "cipi": 7083,
      "ĠdoÅ¡li": 7084,
      "Ġnovom": 7085,
      "Ġmoz": 7086,
      "gana": 7087,
      "Ġvarijabli": 7088,
      "pisuju": 7089,
      "ĠDA": 7090,
      "ff": 7091,
      "uzro": 7092,
      "ĠÄįvo": 7093,
      "Ġpad": 7094,
      "zar": 7095,
      "ura": 7096,
      "bin": 7097,
      "Ġimi": 7098,
      "ANJE": 7099,
      "cionalnog": 7100,
      "deti": 7101,
      "Ġrazum": 7102,
      "MP": 7103,
      "Ġpodzem": 7104,
      "Ġnjenom": 7105,
      "Ġeksploa": 7106,
      "Ġdvostru": 7107,
      "Ġmedijima": 7108,
      "Ġekonomije": 7109,
      "ĠznaÄįajnu": 7110,
      "the": 7111,
      "stao": 7112,
      "Ġizrade": 7113,
      "Ġglavnih": 7114,
      "drav": 7115,
      "ĠVlada": 7116,
      "rstvo": 7117,
      "nder": 7118,
      "Ġsredinu": 7119,
      "mb": 7120,
      "Ġder": 7121,
      "Ġreduk": 7122,
      "Ġprincip": 7123,
      "Ġ120": 7124,
      "ĠWe": 7125,
      "ĠkriviÄįnih": 7126,
      "Ġobezbedi": 7127,
      "Ġbespla": 7128,
      "veza": 7129,
      "Ġprikazuje": 7130,
      "viÄĩe": 7131,
      "Ġinsu": 7132,
      "ĠpriliÄįno": 7133,
      "Ġpostaju": 7134,
      "Ġpredlo": 7135,
      "Ġazo": 7136,
      "Upravo": 7137,
      "riÅ¡u": 7138,
      "stero": 7139,
      "Ġmaksi": 7140,
      "Ġnjihovi": 7141,
      "ĠBogo": 7142,
      "2008": 7143,
      "Ġserije": 7144,
      "ĠreÅ¡avanje": 7145,
      "Ġsignal": 7146,
      "Ġizdvoji": 7147,
      "Ġformira": 7148,
      "ĠSpe": 7149,
      "Ġregistrova": 7150,
      "Ġoka": 7151,
      "tis": 7152,
      "Ġzagre": 7153,
      "vrop": 7154,
      "obu": 7155,
      "ĠKara": 7156,
      "Ġsino": 7157,
      "ĠSaraje": 7158,
      "Ġdimenzije": 7159,
      "Ġpam": 7160,
      "Ġtakvih": 7161,
      "Ġterenu": 7162,
      "ĠMos": 7163,
      "Ġpredstavnika": 7164,
      "Ġprvu": 7165,
      "Ġmal": 7166,
      "Ġpoznata": 7167,
      "Ġune": 7168,
      "Ġpojedinca": 7169,
      "ĠIako": 7170,
      "Ġmalih": 7171,
      "ĠBosne": 7172,
      "Prvo": 7173,
      "Ġdetekto": 7174,
      "Ġfokusi": 7175,
      "Ġ.\"": 7176,
      "Ġtemperaturi": 7177,
      "Ġvole": 7178,
      "Ġbla": 7179,
      "Ġekvivale": 7180,
      "kretni": 7181,
      "Ġasocija": 7182,
      "ĠObra": 7183,
      "Ġkama": 7184,
      "Ġdrugima": 7185,
      "vljene": 7186,
      "ĠdrÅ¾avama": 7187,
      "Ġcre": 7188,
      "Ġsrca": 7189,
      "ĠzavrÅ¡": 7190,
      "Ġfla": 7191,
      "Ġkoncepta": 7192,
      "org": 7193,
      "Ġnjenih": 7194,
      "ĠÄĮi": 7195,
      "Ġidentifiko": 7196,
      "ĠMarko": 7197,
      "Ġprijatelji": 7198,
      "prema": 7199,
      "Ã¦": 7200,
      "rci": 7201,
      "Ġtumora": 7202,
      "Ġonim": 7203,
      "Ġbiljke": 7204,
      "moni": 7205,
      "ĠÅ¡o": 7206,
      "Å½i": 7207,
      "ĠÎ±": 7208,
      "Ġfizio": 7209,
      "Ġenti": 7210,
      "Ġprezi": 7211,
      "dovolj": 7212,
      "Ġpokret": 7213,
      "Ġpitanjima": 7214,
      "move": 7215,
      "Ġsporazuma": 7216,
      "stanti": 7217,
      "ys": 7218,
      "%).": 7219,
      "Ovde": 7220,
      "Ġefekti": 7221,
      "Fe": 7222,
      "Ġprogrami": 7223,
      "ding": 7224,
      "Ġnacionalnog": 7225,
      "Å¡njo": 7226,
      "Ġtesto": 7227,
      "Ġpozitivno": 7228,
      "Ġpojavu": 7229,
      "2016": 7230,
      "ĠIN": 7231,
      "Ġpovolj": 7232,
      "Ġteku": 7233,
      "Ġkancela": 7234,
      "Ġstvori": 7235,
      "Ġvisokim": 7236,
      "LJ": 7237,
      "ĠmeÄĳunarodnih": 7238,
      "ĠunutraÅ¡njih": 7239,
      "Ġpokazalo": 7240,
      "Ġubrza": 7241,
      "ĠDE": 7242,
      "Ġpreduzetni": 7243,
      "Ġfarma": 7244,
      "meÄĳu": 7245,
      "ĠnajveÄĩa": 7246,
      "gr": 7247,
      "ĠGre": 7248,
      "Ġfotografije": 7249,
      "Ġmajke": 7250,
      "Ġuspeha": 7251,
      "ĠdruÅ¡tvenog": 7252,
      "ĠUstav": 7253,
      "kol": 7254,
      "Ġgeneracije": 7255,
      "ĠbivÅ¡e": 7256,
      "Ġkapi": 7257,
      "Å¡aka": 7258,
      "ĠTr": 7259,
      "Ġpretpostavlja": 7260,
      "ĠSt": 7261,
      "âĪĴ": 7262,
      "Ġzasta": 7263,
      "Cilj": 7264,
      "rata": 7265,
      "Ġpodatak": 7266,
      "ĠleÅ¾i": 7267,
      "Ġopi": 7268,
      "ĠudruÅ¾enja": 7269,
      "Ġprocesi": 7270,
      "Ġuzorak": 7271,
      "slim": 7272,
      "Ġadvo": 7273,
      "Ġprikazi": 7274,
      "Ġmediji": 7275,
      "Grafikon": 7276,
      "gradi": 7277,
      "Ġkoeficijent": 7278,
      "Ġprepre": 7279,
      "ĠRA": 7280,
      "Ġdiferencija": 7281,
      "Ġprijem": 7282,
      "tskom": 7283,
      "GA": 7284,
      "91": 7285,
      "Ġpravnog": 7286,
      "Ġrase": 7287,
      "Ġzauze": 7288,
      "Ġzajednici": 7289,
      "stite": 7290,
      "nts": 7291,
      "Ġredovno": 7292,
      "ĠÉ§Éļ": 7293,
      "stavljena": 7294,
      "mar": 7295,
      "suprot": 7296,
      "ntnim": 7297,
      "ljenosti": 7298,
      "Ġindeksa": 7299,
      ".:": 7300,
      "Taj": 7301,
      "prostra": 7302,
      "MO": 7303,
      "Ġatribu": 7304,
      "Ġonima": 7305,
      "Ġkontrolisa": 7306,
      "Ġpriho": 7307,
      "Ġlisti": 7308,
      "Ġlet": 7309,
      "mak": 7310,
      "Ġleta": 7311,
      "É¨É¥": 7312,
      "mskih": 7313,
      "Ġstabilnost": 7314,
      "ĠAP": 7315,
      "sijom": 7316,
      "ĠizveÅ¡taj": 7317,
      "Ġosigura": 7318,
      "Ġevolu": 7319,
      "stiÄįki": 7320,
      "Ġprethodne": 7321,
      "ĠKan": 7322,
      "Anali": 7323,
      "Ġpotencijala": 7324,
      "Ġmito": 7325,
      "stanak": 7326,
      "Ġprincipi": 7327,
      "Ġsamouprave": 7328,
      "ĠunapreÄĳenje": 7329,
      "Ġuzeti": 7330,
      "Ġulaganja": 7331,
      "Ġempi": 7332,
      "ĠÄįl": 7333,
      "Ġnajpo": 7334,
      "dnice": 7335,
      "lana": 7336,
      "Ġkulturu": 7337,
      "Ġusavr": 7338,
      "FA": 7339,
      "Ġvarijable": 7340,
      "ae": 7341,
      "Ġustanove": 7342,
      "É¢É°": 7343,
      "ĠnoÄĩi": 7344,
      "Ġenzima": 7345,
      "Ġkonven": 7346,
      "ĠistraÅ£i": 7347,
      "Ġgubitak": 7348,
      "ov": 7349,
      "Ġkali": 7350,
      "Ġmembra": 7351,
      "diji": 7352,
      "Ġprotek": 7353,
      "Ġsinteti": 7354,
      "Ġvertika": 7355,
      "Ġmir": 7356,
      "DS": 7357,
      "Tra": 7358,
      "Ġobvez": 7359,
      "Ġdate": 7360,
      "Ġostvare": 7361,
      "Ġraznih": 7362,
      "Ġbru": 7363,
      "Ġefekte": 7364,
      "fil": 7365,
      "Ġhetero": 7366,
      "Ġklub": 7367,
      "ĠFakul": 7368,
      "85": 7369,
      "Ġporast": 7370,
      "Ġnastala": 7371,
      "Ġvremenski": 7372,
      "Ġvisokog": 7373,
      "ĠJugoslaviji": 7374,
      "Ġese": 7375,
      "Ġsvakoj": 7376,
      "Ġomladi": 7377,
      "Sl": 7378,
      "Ġprivreme": 7379,
      "Ġdomini": 7380,
      "ďă": 7381,
      "godiÅ¡nji": 7382,
      "Ġagencija": 7383,
      "ĠIL": 7384,
      "blo": 7385,
      "ĠnajveÄĩe": 7386,
      "Ġfinal": 7387,
      "Ġproizvodnji": 7388,
      "Ġmesa": 7389,
      "ĠÅłta": 7390,
      "Ġpolicija": 7391,
      "Ġrazne": 7392,
      "Ġpojavljuje": 7393,
      "Ġprimeru": 7394,
      "Ġambasa": 7395,
      "ĠMI": 7396,
      "Ġonog": 7397,
      "ĠCar": 7398,
      "Ġrake": 7399,
      "Ġprste": 7400,
      "nj": 7401,
      "Ġprolazi": 7402,
      "Ġdodao": 7403,
      "Ġdirektora": 7404,
      "ĠpotiÄįe": 7405,
      "ĠÄĳa": 7406,
      "spek": 7407,
      "proda": 7408,
      "Äįavanja": 7409,
      "ĠtreÄĩe": 7410,
      "Ġprimenji": 7411,
      "Ġtop": 7412,
      "Ġroditelj": 7413,
      "Ġevropskih": 7414,
      "cina": 7415,
      "Ġrezi": 7416,
      "rskog": 7417,
      "Ġuspeo": 7418,
      "Äįun": 7419,
      "Ġprisutna": 7420,
      "Ġpriklju": 7421,
      "ĠpotvrÄĳuje": 7422,
      "zde": 7423,
      "gula": 7424,
      "Ġposebnim": 7425,
      "Ġby": 7426,
      "nogo": 7427,
      "Vr": 7428,
      "Ġparo": 7429,
      "Ġprouzro": 7430,
      "Ġrastva": 7431,
      "ĠVer": 7432,
      "ĠporemeÄĩaja": 7433,
      "Ġsaznanja": 7434,
      "ĠuoÄįava": 7435,
      "Ġosnove": 7436,
      "Ġuzrok": 7437,
      "Ġokvira": 7438,
      "sila": 7439,
      "Ġpovezana": 7440,
      "Ġblizu": 7441,
      "ĠpodrÅ¡ka": 7442,
      "ĠleÄįenja": 7443,
      "Ġkomisije": 7444,
      "Ġarhitekture": 7445,
      "Ġ46": 7446,
      "Ġprekida": 7447,
      "Ġupotrebom": 7448,
      "ĠproÄįita": 7449,
      "ring": 7450,
      "Ġpoziva": 7451,
      "Ġroman": 7452,
      "Ġflo": 7453,
      "Ġpridru": 7454,
      "miji": 7455,
      "Ġkonstitu": 7456,
      "torima": 7457,
      "Ġdobru": 7458,
      "ĠpostojeÄĩih": 7459,
      "Ġosetlji": 7460,
      "ĠPravi": 7461,
      "ĠmeÄĳunarodnim": 7462,
      "Ġkonstrukcije": 7463,
      "Bez": 7464,
      "Ġpravde": 7465,
      "Ġproizvodnja": 7466,
      "Ġstvarnosti": 7467,
      "organiza": 7468,
      "ret": 7469,
      "Ġtrgovine": 7470,
      "Ġinteresu": 7471,
      "ĠÉĿ": 7472,
      "Ġ95": 7473,
      "Ġaerod": 7474,
      "Ġresto": 7475,
      "ĠPetroviÄĩ": 7476,
      "Ġpotrebne": 7477,
      "Âł": 7478,
      "rista": 7479,
      "Ġsuprot": 7480,
      "dovanja": 7481,
      "Ê¼": 7482,
      "str": 7483,
      "bornik": 7484,
      "tana": 7485,
      "tala": 7486,
      "moviÄĩ": 7487,
      "sp": 7488,
      "Ġprethodnih": 7489,
      "ĠStan": 7490,
      "ĠkarakteriÅ¡e": 7491,
      "Ġpoena": 7492,
      "ĠBel": 7493,
      "Ġizborima": 7494,
      "Ġdele": 7495,
      "Ġrealizacije": 7496,
      "ĠPopoviÄĩ": 7497,
      "Ġá¼": 7498,
      "Godine": 7499,
      "ĠoptereÄĩenja": 7500,
      "kana": 7501,
      "nulo": 7502,
      "ĠBugar": 7503,
      "seudo": 7504,
      "Ġuput": 7505,
      "ĠMon": 7506,
      "mentari": 7507,
      "Ġlekova": 7508,
      "Ġdaljem": 7509,
      "toviÄĩ": 7510,
      "US": 7511,
      "ĠRaz": 7512,
      "Ġjavnim": 7513,
      "Ġdevet": 7514,
      "Ġkompete": 7515,
      "Neki": 7516,
      "zmom": 7517,
      "Ġepide": 7518,
      "Ġiznosila": 7519,
      "á¿": 7520,
      "Ġotvori": 7521,
      "Ġvek": 7522,
      "ĠodreÄĳenom": 7523,
      "Ġreproduk": 7524,
      "inte": 7525,
      "Ġ1988": 7526,
      "ĠzakljuÄįuje": 7527,
      "Ġpartne": 7528,
      "Ġnosa": 7529,
      "CD": 7530,
      "ĠCD": 7531,
      "îĢ": 7532,
      "Ġinva": 7533,
      "Ġvalja": 7534,
      "Ġdelovi": 7535,
      "Ġokupa": 7536,
      "ds": 7537,
      "Ġtelefona": 7538,
      "Ġosiguranje": 7539,
      "Ġnapona": 7540,
      "ĠsaÄįi": 7541,
      "Ġora": 7542,
      "Tada": 7543,
      "fra": 7544,
      "Äįem": 7545,
      "Ġprodaju": 7546,
      "Ġvege": 7547,
      "ĠmeÄĳunarodnog": 7548,
      "tama": 7549,
      "Ġrazgova": 7550,
      "Ġmotor": 7551,
      "ĠigraÄįa": 7552,
      "Ġ1980": 7553,
      "sr": 7554,
      "Ġpostro": 7555,
      "Ġprocedura": 7556,
      "Ġbizni": 7557,
      "Ġprinu": 7558,
      "Ġpostav": 7559,
      "Ġjona": 7560,
      "Ġkomentare": 7561,
      "ĠviÅ¡estru": 7562,
      "Ġevalua": 7563,
      "Ġmarketin": 7564,
      "Ġkulturi": 7565,
      "Ġzakonodav": 7566,
      "broj": 7567,
      "ĠBor": 7568,
      "Ġrekonstruk": 7569,
      "Ġkasni": 7570,
      "jerarhi": 7571,
      "ĠuÄįestvuje": 7572,
      "stavljen": 7573,
      "Ġpacijenta": 7574,
      "ĠÅ¾rtve": 7575,
      "Ġpravnih": 7576,
      "Ġfakultetu": 7577,
      "ON": 7578,
      "Ġzove": 7579,
      "lili": 7580,
      "Ġpesma": 7581,
      "ĠÉĭ": 7582,
      "Ġkretanje": 7583,
      "Ġtrgova": 7584,
      "Äİu": 7585,
      "zovan": 7586,
      "Ġpp": 7587,
      "Ġpande": 7588,
      "ĠpodseÄĩa": 7589,
      "Ġizaziva": 7590,
      "ĠItali": 7591,
      "tete": 7592,
      "dovanje": 7593,
      "Ġliga": 7594,
      "Å¡njoj": 7595,
      "Ġdomenu": 7596,
      "ĠCrnoj": 7597,
      "Ġpasi": 7598,
      "Ġbaza": 7599,
      "Ġistaknu": 7600,
      "Ġintegri": 7601,
      "Ġpoziciju": 7602,
      "Pret": 7603,
      "ĠliÄįno": 7604,
      "sse": 7605,
      "ĠPolj": 7606,
      "vot": 7607,
      "zina": 7608,
      "minali": 7609,
      "Ġmehanizam": 7610,
      "Ġkardio": 7611,
      "stojanje": 7612,
      "2007": 7613,
      "Ġher": 7614,
      "MEN": 7615,
      "Ġpodno": 7616,
      "Ġato": 7617,
      "Ġuvid": 7618,
      "Ġborbu": 7619,
      "Ġvodom": 7620,
      "ĠomoguÄĩavaju": 7621,
      "Å¾enja": 7622,
      "Äĩete": 7623,
      "urnal": 7624,
      "Ġdelatnost": 7625,
      "ĠPA": 7626,
      "ya": 7627,
      "Ġsastava": 7628,
      "Ġsmr": 7629,
      "Ġstudent": 7630,
      "ĠkoriÅ¡Äĩena": 7631,
      "ĠDoktorska": 7632,
      "vajca": 7633,
      "ĠobraÄĩa": 7634,
      "jev": 7635,
      "rskih": 7636,
      "Ġizdvoje": 7637,
      "Ġslobodu": 7638,
      "Ġekste": 7639,
      "Ġdevi": 7640,
      "Ġliterature": 7641,
      "nut": 7642,
      "ĠvaÅ¾na": 7643,
      "ĠpreviÅ¡e": 7644,
      "jaÄįa": 7645,
      "Ġtretira": 7646,
      "Ġpeva": 7647,
      "Ġ72": 7648,
      "Ġprogre": 7649,
      "Ġintenziteta": 7650,
      "¬ģ": 7651,
      "Ġdokazi": 7652,
      "Ġvama": 7653,
      "ranom": 7654,
      "znom": 7655,
      "Ġobraza": 7656,
      "Ġizraza": 7657,
      "Ġodrediti": 7658,
      "Sada": 7659,
      "Ġprotein": 7660,
      "Ġmetafo": 7661,
      "Ġneuspe": 7662,
      "Ġuva": 7663,
      "Ġizbegli": 7664,
      "Ġnastavku": 7665,
      "Ġmlade": 7666,
      "Ġneve": 7667,
      "njama": 7668,
      "Ġmateri": 7669,
      "ĠizraÅ¾e": 7670,
      "ĠÅ¾an": 7671,
      "ĠpolitiÄįkog": 7672,
      "ĠizvrÅ¡ena": 7673,
      "Ġoblici": 7674,
      "Ġtopo": 7675,
      "ĠHrvatskoj": 7676,
      "ĠplaÄĩanja": 7677,
      "Srbija": 7678,
      "Ġteoriji": 7679,
      "Ġizradu": 7680,
      "Ġvrhu": 7681,
      "Ġstvore": 7682,
      "2022": 7683,
      "Ġfudbal": 7684,
      "gna": 7685,
      "Postoje": 7686,
      "Î·": 7687,
      "ĠÏĦ": 7688,
      "Ġindirek": 7689,
      "sanih": 7690,
      "Ġpozitivan": 7691,
      "Postoji": 7692,
      "Ġdelovanje": 7693,
      "tara": 7694,
      "Ñī": 7695,
      "ĠskladiÅ¡te": 7696,
      "tovanje": 7697,
      "Ġpominje": 7698,
      "Ġvalu": 7699,
      "Ġveri": 7700,
      "Njiho": 7701,
      "ĠunutraÅ¡nje": 7702,
      "Å¡teni": 7703,
      "Ġokolnostima": 7704,
      "ĠduÅ¾ina": 7705,
      "novod": 7706,
      "Ġprimi": 7707,
      "Äįeva": 7708,
      "ĠdrÅ¾avni": 7709,
      "Ġdejstva": 7710,
      "vici": 7711,
      "Ġpojedine": 7712,
      "Ġpare": 7713,
      "ĠNarodne": 7714,
      "Ġuha": 7715,
      "ĠpreduzeÄĩe": 7716,
      "ovek": 7717,
      "Å¡ih": 7718,
      "toli": 7719,
      "ĠpoboljÅ¡anje": 7720,
      "lor": 7721,
      "Ġnacija": 7722,
      "Ġbrojnih": 7723,
      "Ġopasnosti": 7724,
      "CC": 7725,
      "ĠproizvoÄĳaÄįa": 7726,
      "rstva": 7727,
      "86": 7728,
      "Ġispolja": 7729,
      "Å¾bu": 7730,
      "Ġ47": 7731,
      "dnji": 7732,
      "ĠÄĩelijama": 7733,
      "Ġvoka": 7734,
      "ĠMarija": 7735,
      "rijske": 7736,
      "Ġselo": 7737,
      "Äīaj": 7738,
      "ĠutvrÄĳivanje": 7739,
      "Ġfleksi": 7740,
      "que": 7741,
      "Stu": 7742,
      "ĠVol": 7743,
      "funk": 7744,
      "loÅ¡ku": 7745,
      "laganju": 7746,
      "Ġekonomskih": 7747,
      "ĠÉ¢É¡": 7748,
      "STA": 7749,
      "Ġorijenti": 7750,
      "leni": 7751,
      "can": 7752,
      "jnog": 7753,
      "Ġutisak": 7754,
      "É§É¨": 7755,
      "Ġpedago": 7756,
      "Ġsloven": 7757,
      "Ġmlado": 7758,
      "ĠAd": 7759,
      "Prva": 7760,
      "ĠUkrajini": 7761,
      "zultat": 7762,
      "ĠodgovarajuÄĩi": 7763,
      "Ġrazgovo": 7764,
      "PP": 7765,
      "Ġkuku": 7766,
      "ĠpokuÅ¡ava": 7767,
      "Ġtermina": 7768,
      "Ġmoramo": 7769,
      "Ġimeno": 7770,
      "til": 7771,
      "Ġov": 7772,
      "Ġprocedure": 7773,
      "tskim": 7774,
      "Ġpozicija": 7775,
      "ĠÉ¤É¨Êģ": 7776,
      "ĠtuÅ¾ila": 7777,
      "ĠTro": 7778,
      "Smatra": 7779,
      "lazu": 7780,
      "Ġprisutan": 7781,
      "Ġkulturne": 7782,
      "Ġlingvisti": 7783,
      "menom": 7784,
      "Ġprivre": 7785,
      "2018": 7786,
      "ĠreÅ¾ima": 7787,
      "Ġpravima": 7788,
      "Ġuzrasta": 7789,
      "http": 7790,
      "Ġkonsu": 7791,
      "donaÄįe": 7792,
      "Ġmalim": 7793,
      "Ġporo": 7794,
      "ĠÅ¡tet": 7795,
      "Ġplate": 7796,
      "Ġalu": 7797,
      "geni": 7798,
      "Ġtrajanju": 7799,
      "mac": 7800,
      "Ġnjihovoj": 7801,
      "Ġostane": 7802,
      "Ġznamo": 7803,
      "matskih": 7804,
      "stati": 7805,
      "Ġmagi": 7806,
      "ĠpoveÄĩanjem": 7807,
      "ĠÉ«É¬": 7808,
      "Ġproizvede": 7809,
      "pati": 7810,
      "ĠBosni": 7811,
      "Ġevropske": 7812,
      "Ġvali": 7813,
      "Ġhemo": 7814,
      "Prilikom": 7815,
      "ĠMer": 7816,
      "Ġotpad": 7817,
      "ĠIstorija": 7818,
      "Ġ1986": 7819,
      "Ġodbor": 7820,
      "Ġrastvor": 7821,
      "Ġnat": 7822,
      "jor": 7823,
      "nzije": 7824,
      "Ġtermo": 7825,
      "IX": 7826,
      "ĠpotroÅ¡nje": 7827,
      "ÄĮi": 7828,
      "Å¡ak": 7829,
      "ĠdrÅ¾avlja": 7830,
      "Ġmaterije": 7831,
      "Ġglavne": 7832,
      "SluÅ¾beni": 7833,
      "niÄįke": 7834,
      "Ġcelog": 7835,
      "Ġgenoti": 7836,
      "ĠÅ¡tetu": 7837,
      "Ġnajsta": 7838,
      "lizma": 7839,
      "Ġpredstavnici": 7840,
      "ĠPRI": 7841,
      "Ġmogle": 7842,
      "Ġmilijardi": 7843,
      "Ġzida": 7844,
      "Ġpolovine": 7845,
      "Ġtrend": 7846,
      "xi": 7847,
      "INA": 7848,
      "Ġuzme": 7849,
      "Ġfirme": 7850,
      "ĠÄįuva": 7851,
      "Ġkakve": 7852,
      "Ġlep": 7853,
      "mail": 7854,
      "samo": 7855,
      "Ġreferen": 7856,
      "Ġtelefon": 7857,
      "ĠpomaÅ¾e": 7858,
      "Ġbogo": 7859,
      "ĠFu": 7860,
      "kona": 7861,
      "ĠAfri": 7862,
      "Ġobavezno": 7863,
      "ĠnauÄįno": 7864,
      "novo": 7865,
      "Ġnedelja": 7866,
      "ĠÄįlanu": 7867,
      "dnicima": 7868,
      "Ġbici": 7869,
      "ĠvaÅ¾nosti": 7870,
      "Ġpomogne": 7871,
      "ĠdonoÅ¡enja": 7872,
      "Ġporuke": 7873,
      "Jer": 7874,
      "2006": 7875,
      "lf": 7876,
      "rite": 7877,
      "ĠÄįvrsto": 7878,
      "sin": 7879,
      "Ġ52": 7880,
      "Ġsutra": 7881,
      "ĠVaÅ¡e": 7882,
      "Ġponi": 7883,
      "ĠelektriÄįne": 7884,
      "ĠsliÄįne": 7885,
      "Ġugra": 7886,
      "Ġnjenu": 7887,
      "Ġuzorcima": 7888,
      "Ġradovi": 7889,
      "ĠÅ£i": 7890,
      "Svaki": 7891,
      "Ġdijagno": 7892,
      "berg": 7893,
      "Ġnaknade": 7894,
      "Ġstara": 7895,
      "Ġkiseo": 7896,
      "Ġspor": 7897,
      "Ġkomanda": 7898,
      "sled": 7899,
      "logy": 7900,
      "Ġnezavisno": 7901,
      "Ġaktivno": 7902,
      "Ġperspektive": 7903,
      "con": 7904,
      "ĠsavrÅ¡e": 7905,
      "ĠMeÄĳunarod": 7906,
      "Ġokon": 7907,
      "Ġdoka": 7908,
      "Ġultra": 7909,
      "Ġzoni": 7910,
      "Ġgimna": 7911,
      "Ġpesni": 7912,
      "Ġglavnog": 7913,
      "Ġprezenta": 7914,
      "Ġpreno": 7915,
      "Uticaj": 7916,
      "Ġnastao": 7917,
      "Ġizgled": 7918,
      "ĠTokom": 7919,
      "Ġprisustva": 7920,
      "2017": 7921,
      "Ġalgorit": 7922,
      "Ġobrazovanju": 7923,
      "ĠTabeli": 7924,
      "Ġ1987": 7925,
      "Ġdivi": 7926,
      "ternational": 7927,
      "ĠBre": 7928,
      "Ġprocese": 7929,
      "ĠSva": 7930,
      "Ġdovede": 7931,
      "ĠkuÄĩu": 7932,
      "Ġtoka": 7933,
      "ĠKor": 7934,
      "83": 7935,
      "Ġsind": 7936,
      "Ġstudijama": 7937,
      "Ä¸": 7938,
      "Ġset": 7939,
      "Ġsudova": 7940,
      "tuma": 7941,
      "Ġpoza": 7942,
      "Ġiskre": 7943,
      "âĢĻ.": 7944,
      "Ġlider": 7945,
      "Ġljudska": 7946,
      "Ġvolje": 7947,
      "Ġcari": 7948,
      "Ġpravilima": 7949,
      "IT": 7950,
      "Ġkontakt": 7951,
      "ĠkoriÅ¡Äĩeni": 7952,
      "Å¡enju": 7953,
      "Ġprosla": 7954,
      "ÅĦ": 7955,
      "ĠveÅ¡tine": 7956,
      "vljenje": 7957,
      "Ġosve": 7958,
      "Ġprenos": 7959,
      "ĠbuduÄĩnost": 7960,
      "liÄĩa": 7961,
      "Ġistoj": 7962,
      "ViÅ¡e": 7963,
      "ĠKP": 7964,
      "Vla": 7965,
      "ĠKine": 7966,
      "dy": 7967,
      "Äįani": 7968,
      "Lj": 7969,
      "Ġocene": 7970,
      "dara": 7971,
      "crta": 7972,
      "ĠRezultati": 7973,
      "Ġspadaju": 7974,
      "drÅ¾aj": 7975,
      "ĠSaveta": 7976,
      "ĠTakoÄĳe": 7977,
      "pul": 7978,
      "Â±": 7979,
      "Ġinfekcije": 7980,
      "ĠÄĩi": 7981,
      "87": 7982,
      "zvoj": 7983,
      "Ġgenerisa": 7984,
      "Ġplaniranja": 7985,
      "Ġpozitivne": 7986,
      "Ġkarcinoma": 7987,
      "ĠIvan": 7988,
      "part": 7989,
      "ĠpriÄįu": 7990,
      "Ġmoja": 7991,
      "Ġhttps": 7992,
      "Ġautomobila": 7993,
      "phi": 7994,
      "Îº": 7995,
      "mane": 7996,
      "rko": 7997,
      "ĠUniverzitet": 7998,
      "Ġlikvi": 7999,
      "É¢É¦Éļ": 8000,
      "Ġdecenije": 8001,
      "ĠraspoloÅ¾i": 8002,
      "Ġsamostalno": 8003,
      "Ġenergija": 8004,
      "ĠfiziÄįke": 8005,
      "ĠSK": 8006,
      "ĠdrÅ¾avu": 8007,
      "Ġnajo": 8008,
      "ĠzajedniÄįki": 8009,
      "St": 8010,
      "Ġkul": 8011,
      "Ġmorao": 8012,
      "Ġpredstava": 8013,
      "ws": 8014,
      "Ġsvije": 8015,
      "Ëĩc": 8016,
      "cipa": 8017,
      "mba": 8018,
      "nsis": 8019,
      "Ġsv": 8020,
      "RAN": 8021,
      "Ġciljeve": 8022,
      "ĠnoÄĩ": 8023,
      "ĠsliÄįan": 8024,
      "ÄĮlan": 8025,
      "Ġizlaz": 8026,
      "nuta": 8027,
      "Ġstarije": 8028,
      "Ġautobu": 8029,
      "ĠNemaÄįke": 8030,
      "Ġtekstova": 8031,
      "Ġzahteve": 8032,
      "Ġruske": 8033,
      "Ġustanovi": 8034,
      "tov": 8035,
      "Ġ49": 8036,
      "Ġpodsta": 8037,
      "ĠstanoviÅ¡ta": 8038,
      "Ġprivati": 8039,
      "Ġfonda": 8040,
      "Ġprvenstvo": 8041,
      "gni": 8042,
      "ĠBanja": 8043,
      "Ġmrt": 8044,
      "Ġnaselje": 8045,
      "Ġlistu": 8046,
      "Ġstavova": 8047,
      "Ġdio": 8048,
      "ĠstanovniÅ¡tvo": 8049,
      "ĠðĿĳ": 8050,
      "Ġtakvim": 8051,
      "'')": 8052,
      "matske": 8053,
      "diÅ¡ta": 8054,
      "bni": 8055,
      "ĠoÄįigledno": 8056,
      "Ġokuplja": 8057,
      "Ġprocena": 8058,
      "Lu": 8059,
      "tal": 8060,
      "ĠIzra": 8061,
      "ĠzadrÅ¾ava": 8062,
      "Ġopasnost": 8063,
      "nciju": 8064,
      "82": 8065,
      "Å¡koj": 8066,
      "ĠjuÄįe": 8067,
      "RAD": 8068,
      "ĠkoristeÄĩi": 8069,
      "komu": 8070,
      "Ġizlazi": 8071,
      "ĠleÄįenje": 8072,
      "Ġsaglasnost": 8073,
      "nogi": 8074,
      "2020": 8075,
      "2005": 8076,
      "Ġsindi": 8077,
      "Ġber": 8078,
      "Ġosvet": 8079,
      "nÑĭ": 8080,
      "Ġosvojio": 8081,
      "Ġnezaposle": 8082,
      "dole": 8083,
      "Ġjedni": 8084,
      "ĠÉ«ÉŃ": 8085,
      "ĠteÅ¾e": 8086,
      "genera": 8087,
      "Ġobjavljuje": 8088,
      "ĠpoviÅ¡e": 8089,
      "ĠJevre": 8090,
      "Ġnastanak": 8091,
      "Ġantioksida": 8092,
      "ĠNemaÄįkoj": 8093,
      "grafije": 8094,
      "ĠodrÅ¾ava": 8095,
      "Ġsporazum": 8096,
      "elektri": 8097,
      "Ġsektor": 8098,
      "Ġnagrada": 8099,
      "klara": 8100,
      "Ġvojska": 8101,
      "stara": 8102,
      "Ġinsisti": 8103,
      "ĠZapad": 8104,
      "Äįenog": 8105,
      "Ġdelove": 8106,
      "znim": 8107,
      "speri": 8108,
      "Ġhijerarhi": 8109,
      "tabela": 8110,
      "Ġstana": 8111,
      "ĠGro": 8112,
      "Ġistica": 8113,
      "vremenu": 8114,
      "Ġhorizonta": 8115,
      "Ġporuka": 8116,
      "SC": 8117,
      "ĠkaÅ¾em": 8118,
      "Ġopsegu": 8119,
      "Ġkomunikacija": 8120,
      "Ġfanta": 8121,
      "lajn": 8122,
      "Politi": 8123,
      "ditelj": 8124,
      "Ġregistra": 8125,
      "Å¾uju": 8126,
      "Ñĳ": 8127,
      "Ġljudskog": 8128,
      "stor": 8129,
      "Ġpredstave": 8130,
      "Ġsrednja": 8131,
      "Ġpropisima": 8132,
      "Ġotvara": 8133,
      "Ġdali": 8134,
      "Ġsrod": 8135,
      "tam": 8136,
      "Ġnavedenog": 8137,
      "rusa": 8138,
      "Ġ51": 8139,
      "ĠmenadÅ¾menta": 8140,
      "PoÄįe": 8141,
      "ĠAli": 8142,
      "ÉªÉŃÉ": 8143,
      "ĠpaÅ¾nje": 8144,
      "Ġstabilnosti": 8145,
      "Ide": 8146,
      "rumu": 8147,
      "blu": 8148,
      "ziti": 8149,
      "ĠPrvi": 8150,
      "Ġulici": 8151,
      "Ġodabi": 8152,
      "Î¼": 8153,
      "ĠÅ¾elezni": 8154,
      "Ġala": 8155,
      "Ġkredita": 8156,
      "Ġsvetlosti": 8157,
      "Ġmom": 8158,
      "movima": 8159,
      "rovatnije": 8160,
      "Ġsloboda": 8161,
      "ĠGenera": 8162,
      "sanju": 8163,
      "Ġnedavno": 8164,
      "Ġlik": 8165,
      "Ġprocesima": 8166,
      "strem": 8167,
      "001": 8168,
      "Ġprof": 8169,
      "Ġotkriva": 8170,
      "Novi": 8171,
      "Ġknjigu": 8172,
      "Å¡eno": 8173,
      "ĠuÄįinio": 8174,
      "ĠduÅ¾an": 8175,
      "Ġslova": 8176,
      "ljana": 8177,
      "Ġhrani": 8178,
      "Ar": 8179,
      "bula": 8180,
      "Ġistorija": 8181,
      "ph": 8182,
      "mol": 8183,
      "ĠSada": 8184,
      "ĠproÅ¡log": 8185,
      "Ġsavet": 8186,
      "ïĤ·": 8187,
      "Ġkulturnog": 8188,
      "jali": 8189,
      "É¢Éª": 8190,
      "Ġumetnost": 8191,
      "Izvor": 8192,
      "??": 8193,
      "Ġtam": 8194,
      "ĠtakmiÄįenja": 8195,
      "njivanje": 8196,
      "Ġano": 8197,
      "ĠZvez": 8198,
      "pta": 8199,
      "ĠUkrajine": 8200,
      "Ġnavija": 8201,
      "Ġsloja": 8202,
      "ĠMora": 8203,
      "centra": 8204,
      "Ġproblemima": 8205,
      "Ġotpa": 8206,
      "ĠTE": 8207,
      "aru": 8208,
      "Ġsredstvima": 8209,
      "Ġsopstvene": 8210,
      "Ġbakterija": 8211,
      "Ġdobara": 8212,
      "Ġsavremene": 8213,
      "Ġzahtevaju": 8214,
      "----": 8215,
      "MoÅ¾da": 8216,
      "Ġnacionali": 8217,
      "Ġizazi": 8218,
      "ĠodreÄĳeno": 8219,
      "Ġoperacija": 8220,
      "Ġkorelacija": 8221,
      "Ġglavna": 8222,
      "84": 8223,
      "Ġsovje": 8224,
      "nku": 8225,
      "Ġvidim": 8226,
      "Ġ53": 8227,
      "Ġbrat": 8228,
      "Äĩnost": 8229,
      "hidro": 8230,
      "ĠNiÅ¡u": 8231,
      "roza": 8232,
      "cida": 8233,
      "Ġcele": 8234,
      "Ġizdanja": 8235,
      "mla": 8236,
      "lic": 8237,
      "gori": 8238,
      "Ġkomponenta": 8239,
      "Srp": 8240,
      "SD": 8241,
      "Ġsumnje": 8242,
      "81": 8243,
      "ĠizvrÅ¡enja": 8244,
      "nicom": 8245,
      "sper": 8246,
      "ĠpruÅ¾aju": 8247,
      "Ġkandidata": 8248,
      "Ġpripreme": 8249,
      "Bilo": 8250,
      "Ġotk": 8251,
      "Ġpole": 8252,
      "Ġposetio": 8253,
      "Ġemisije": 8254,
      "metni": 8255,
      "É§ÉŁ": 8256,
      "Ġukupan": 8257,
      "Ġcara": 8258,
      "Å¡alji": 8259,
      "ntom": 8260,
      "Ġnemo": 8261,
      "Ġavan": 8262,
      "ĠveÅ¡tina": 8263,
      "Ġnagrade": 8264,
      "zerva": 8265,
      "Ġstresa": 8266,
      "ĠRepublika": 8267,
      "ĠveÅ¾ba": 8268,
      "zovane": 8269,
      "ĠNemaÄįka": 8270,
      "Ġgeneti": 8271,
      "Ġgoriva": 8272,
      "lila": 8273,
      "Ġdefici": 8274,
      "Ġmehaniza": 8275,
      "Ġnespo": 8276,
      "ĠAustra": 8277,
      "Ġsrpskoj": 8278,
      "ĠGodine": 8279,
      "Ġpovezani": 8280,
      "Ġrecimo": 8281,
      "Äįeki": 8282,
      "ĠSANU": 8283,
      "Ġsvest": 8284,
      "Druga": 8285,
      "ĠdogaÄĳaj": 8286,
      "ĠovlaÅ¡Äĩenja": 8287,
      "Ġdre": 8288,
      "giji": 8289,
      "Ġinostranstvu": 8290,
      "jde": 8291,
      "feru": 8292,
      "Å¾alost": 8293,
      "Ġusmera": 8294,
      "Ġkvantita": 8295,
      "Ġovakve": 8296,
      "nalne": 8297,
      "ĠMarkoviÄĩ": 8298,
      "Ġdodi": 8299,
      "Ġverzija": 8300,
      "stike": 8301,
      "govorni": 8302,
      "Å¡teno": 8303,
      "nia": 8304,
      "fal": 8305,
      "Ġautomatski": 8306,
      "ĠzemljiÅ¡te": 8307,
      "Ġoset": 8308,
      "Ġposlovanje": 8309,
      "Ġise": 8310,
      "nista": 8311,
      "ĠskupÅ¡tine": 8312,
      "Ġsudu": 8313,
      "pio": 8314,
      "Ġrealizaciju": 8315,
      "jica": 8316,
      "Å¡nog": 8317,
      "ĠJovana": 8318,
      "tetima": 8319,
      "poru": 8320,
      "nijom": 8321,
      "Ġdose": 8322,
      "Ġrukovod": 8323,
      "Ġperformanse": 8324,
      "Ġvezane": 8325,
      "ĠZem": 8326,
      "Ġpartija": 8327,
      "ĠtuÅ¾i": 8328,
      "dig": 8329,
      "loka": 8330,
      "Ġzastupa": 8331,
      "Ġinteres": 8332,
      "ĠHercegovine": 8333,
      "dr": 8334,
      "Par": 8335,
      "Ġsavlada": 8336,
      "Ġnavedeni": 8337,
      "Ġsekundar": 8338,
      "niÄįki": 8339,
      "Ġ54": 8340,
      "ĠVam": 8341,
      "stera": 8342,
      "Ġindeks": 8343,
      "ĠnaglaÅ¡ava": 8344,
      "Ġekonomskog": 8345,
      "kciju": 8346,
      "plje": 8347,
      "Ġnajni": 8348,
      "Ġkukuru": 8349,
      "Ġinfrastrukture": 8350,
      "doviÄĩ": 8351,
      "SR": 8352,
      "Ġsvetlo": 8353,
      "Ġindustrija": 8354,
      "ĠzraÄįenja": 8355,
      "uza": 8356,
      "ĠliÄįne": 8357,
      "Å¡Äĩi": 8358,
      "Ġpravilu": 8359,
      "Ġizmene": 8360,
      "ravak": 8361,
      "ĠÎ²": 8362,
      "gencija": 8363,
      "Ġdokumenata": 8364,
      "Ġ.</": 8365,
      "Å¡taja": 8366,
      "Ġkorisnici": 8367,
      "ĠuÄįeÅ¡Äĩa": 8368,
      "Ġprosti": 8369,
      "Ġpotreban": 8370,
      "Ġsekreta": 8371,
      "Ġnjenim": 8372,
      "vaca": 8373,
      "ZI": 8374,
      "Ġnikako": 8375,
      "Ġnegde": 8376,
      "vimo": 8377,
      "ĠBroj": 8378,
      "ĠbudÅ¾eta": 8379,
      "Ġpesama": 8380,
      "Ġinterna": 8381,
      "Ä¿": 8382,
      "Ġpostojala": 8383,
      "Ġsaradnika": 8384,
      "Ġpartnera": 8385,
      "Ġekspresije": 8386,
      "Ġciljevi": 8387,
      "ĠpoloÅ¾aju": 8388,
      "mona": 8389,
      "ĠGi": 8390,
      "UÄįe": 8391,
      "Ġdemon": 8392,
      "Ġinstrumenta": 8393,
      "ĠdomaÄĩe": 8394,
      "Ġ1985": 8395,
      "FI": 8396,
      "Ġkarakteristikama": 8397,
      "obuhva": 8398,
      "vanu": 8399,
      "ĠMiloÅ¡": 8400,
      "Ġkur": 8401,
      "ĠFedera": 8402,
      "Ġac": 8403,
      "Ġfilozof": 8404,
      "Ġopu": 8405,
      "juÄĩih": 8406,
      "tovima": 8407,
      "pru": 8408,
      "TV": 8409,
      "Ġistih": 8410,
      "Ġpostepeno": 8411,
      "Åłe": 8412,
      "ĠimajuÄĩi": 8413,
      "Ġovakav": 8414,
      "Ġml": 8415,
      "Ġtakoz": 8416,
      "Ġzvezda": 8417,
      "Ġarheo": 8418,
      "leti": 8419,
      "Ġkluba": 8420,
      "Äįla": 8421,
      "Ġkazna": 8422,
      "ĠpovrÅ¡inu": 8423,
      "ĠÅ¾ivotinje": 8424,
      "Ġkulturnih": 8425,
      "Ġtipova": 8426,
      "ĠopÅ¡teg": 8427,
      "ĠÄįetvo": 8428,
      "Ġpodse": 8429,
      "Ġdomena": 8430,
      "Ġnarodne": 8431,
      "Ġradno": 8432,
      "ĠprekrÅ¡a": 8433,
      "Ġinvesticija": 8434,
      "Ġsk": 8435,
      "ĠpreÅ¾ivlja": 8436,
      "njavanje": 8437,
      "Ġpokazano": 8438,
      "Ġlekara": 8439,
      "ĠInte": 8440,
      "ĠPRE": 8441,
      "Ġzate": 8442,
      "Ġzre": 8443,
      "ĠDar": 8444,
      "Ġugo": 8445,
      "Ġkoli": 8446,
      "ĠkuÄĩ": 8447,
      "Ġnegativne": 8448,
      "BC": 8449,
      "gn": 8450,
      "Ġgori": 8451,
      "ĠdruÅ¡tveni": 8452,
      "Ġpaco": 8453,
      "metar": 8454,
      "ÉļÉ°É¢Êģ": 8455,
      "Ġepo": 8456,
      "Ġmasti": 8457,
      "Ġkriterijum": 8458,
      "vska": 8459,
      "Ġmore": 8460,
      "Ġnekoj": 8461,
      "ĠEr": 8462,
      "ĠveÄĩine": 8463,
      "Ġkralj": 8464,
      "ĠCO": 8465,
      "Ġfrekven": 8466,
      "ĠÅ¾elja": 8467,
      "Ġposeduju": 8468,
      "ĠduÅ¡e": 8469,
      "ĠbiÄĩa": 8470,
      "ĠdomaÄĩih": 8471,
      "ĠAmerika": 8472,
      "Ġdetaljno": 8473,
      "Ġterori": 8474,
      "Ġnezna": 8475,
      "Ġ56": 8476,
      "Ġ1981": 8477,
      "Ġspisa": 8478,
      "Ġutvrdi": 8479,
      "Å¾nju": 8480,
      "Ġweb": 8481,
      "ĠpostiÅ¾e": 8482,
      "ĠMihai": 8483,
      "Ġodba": 8484,
      "Ġstupa": 8485,
      "ĠupuÄĩuje": 8486,
      "ĠÅ¡pa": 8487,
      "Ġpripoveda": 8488,
      "Ġideju": 8489,
      "fizi": 8490,
      "povima": 8491,
      "ĠameriÄįki": 8492,
      "Spe": 8493,
      "Ġstan": 8494,
      "stije": 8495,
      "Ġdnevno": 8496,
      "Ġzadru": 8497,
      "ĠtuÅ¾io": 8498,
      "Ġpripadnika": 8499,
      "ĠfiziÄįki": 8500,
      "ĠXV": 8501,
      "Ġljudske": 8502,
      "ters": 8503,
      "ĠÂ«": 8504,
      "Ġglas": 8505,
      "Ġiznosu": 8506,
      "Ġministra": 8507,
      "am": 8508,
      "Ġenergiju": 8509,
      "ĠFon": 8510,
      "Ġprinosa": 8511,
      "Ġzaro": 8512,
      "Ġgrob": 8513,
      "Ġobjekti": 8514,
      "Ġdijabe": 8515,
      "Ġ1970": 8516,
      "Ġfrom": 8517,
      "Ġsaglasnosti": 8518,
      "Ġbrojnim": 8519,
      "ĠOde": 8520,
      "TP": 8521,
      "ĠEurope": 8522,
      "ĠPored": 8523,
      "Ġsajt": 8524,
      "Ġteren": 8525,
      "ĠbrÅ¾e": 8526,
      "Ġoboljenja": 8527,
      "ĠInfor": 8528,
      "Ġkulturno": 8529,
      "Ġprethodnom": 8530,
      "bal": 8531,
      "Ġkoristili": 8532,
      "Ġbilan": 8533,
      "ĠBI": 8534,
      "Ġvije": 8535,
      "ĠnuÅ¾no": 8536,
      "fti": 8537,
      "ĠAnti": 8538,
      "cela": 8539,
      "dre": 8540,
      "Ġupotreblje": 8541,
      "Ġokupi": 8542,
      "Ġbankar": 8543,
      "Ġbioma": 8544,
      "Ġpoziciji": 8545,
      "Ġvideli": 8546,
      "Ġpogotovo": 8547,
      "bave": 8548,
      "ĠkljuÄįnih": 8549,
      "Ġprinos": 8550,
      "Ġdeluju": 8551,
      "Ġproseku": 8552,
      "blem": 8553,
      "Ġnumeri": 8554,
      "Ġostvarivanje": 8555,
      "ence": 8556,
      "Ġocenu": 8557,
      "Ġkakva": 8558,
      "Ġmanastira": 8559,
      "Ġosnov": 8560,
      "Ġkapacitet": 8561,
      "ĠEx": 8562,
      "Ġsveti": 8563,
      "Ġpripremlje": 8564,
      "Ġkonstrui": 8565,
      "Ġstvo": 8566,
      "Ġinterakcija": 8567,
      "TU": 8568,
      "Ġkompju": 8569,
      "Neo": 8570,
      "Ġ1984": 8571,
      "Ġlega": 8572,
      "Ġneophodna": 8573,
      "ĠpribliÅ¾no": 8574,
      "Ġleve": 8575,
      "Ġzainteresova": 8576,
      "novog": 8577,
      "ĠfiziÄįko": 8578,
      "ĠÄĳ": 8579,
      "ĠSFR": 8580,
      "Ġglasi": 8581,
      "pola": 8582,
      "Ġrece": 8583,
      "Ġaplikacije": 8584,
      "Ġpli": 8585,
      "Ġnarodu": 8586,
      "Ġdodatne": 8587,
      "Ġgrana": 8588,
      "ĠokruÅ¾enje": 8589,
      "Ġobolelih": 8590,
      "ĠRim": 8591,
      "Ġatra": 8592,
      "ĠuÄįenicima": 8593,
      "âĢĻ,": 8594,
      "mesto": 8595,
      "Ġstvaraju": 8596,
      "ĠTer": 8597,
      "toriju": 8598,
      "ImajuÄĩi": 8599,
      "ĠNaro": 8600,
      "zvu": 8601,
      "Ġispa": 8602,
      "Ġpovezan": 8603,
      "Ġpol": 8604,
      "Ġraditi": 8605,
      "hal": 8606,
      "Dobije": 8607,
      "Ġorganizaciju": 8608,
      "Ġjedina": 8609,
      "ĠÅ¡kolama": 8610,
      "2019": 8611,
      "Ġuspostavljanje": 8612,
      "ĠSrpska": 8613,
      "Ġgdje": 8614,
      "Ġdevija": 8615,
      "Ġpreosta": 8616,
      "Ġsloj": 8617,
      "Ġodse": 8618,
      "sus": 8619,
      "Ġpacijent": 8620,
      "ĠznaÄįajnih": 8621,
      "nel": 8622,
      "ĠToma": 8623,
      "Ġobjasniti": 8624,
      "leme": 8625,
      "Ä¼": 8626,
      "zaciji": 8627,
      "ĠItalija": 8628,
      "Ġkrimina": 8629,
      "Ġliste": 8630,
      "mus": 8631,
      "Ġsrpskim": 8632,
      "ĠViÅ¡e": 8633,
      "Ġautenti": 8634,
      "ĠpoÅ¡tovanje": 8635,
      "Ġobjavljen": 8636,
      "ĠKne": 8637,
      "ĠDragan": 8638,
      "ĠuvoÄĳenje": 8639,
      "ĠÄĮu": 8640,
      "ben": 8641,
      "ĠÂ±": 8642,
      "Ġtabela": 8643,
      "Ġprisutni": 8644,
      "luka": 8645,
      "stojan": 8646,
      "SKA": 8647,
      "Ġdogovo": 8648,
      "Ġdeforma": 8649,
      "duÄĩi": 8650,
      "Ġmleka": 8651,
      "Ġimenom": 8652,
      "Ġzglo": 8653,
      "ĠLuka": 8654,
      "Ġpravosu": 8655,
      "É¢ÊģÉŁ": 8656,
      "Potre": 8657,
      "Ġraznim": 8658,
      "deri": 8659,
      "Ġprou": 8660,
      "Ġpoljoprivrede": 8661,
      "Ak": 8662,
      "Ġkoali": 8663,
      "lita": 8664,
      "ĠtreÄĩeg": 8665,
      "Ġgol": 8666,
      "ĠmlaÄĳi": 8667,
      "ÉŁÉľ": 8668,
      "ĠÄįelu": 8669,
      "Ġruski": 8670,
      "Ġobavljanje": 8671,
      "KI": 8672,
      "ffe": 8673,
      "ĠobeleÅ¾ja": 8674,
      "Å¡aljite": 8675,
      "tiji": 8676,
      "Ġklasa": 8677,
      "ntnom": 8678,
      "NajveÄĩi": 8679,
      "Ġvrhun": 8680,
      "piju": 8681,
      "ĠÄįlanice": 8682,
      "KS": 8683,
      "ÉļÉ±": 8684,
      "Ġsemena": 8685,
      "Ġvisini": 8686,
      "Ġregistro": 8687,
      "Ġukupnih": 8688,
      "Ġsubjekta": 8689,
      "Ġtrenutka": 8690,
      "Ġoblike": 8691,
      "Ġtermino": 8692,
      "Ġprincipu": 8693,
      "Ġsrednjeg": 8694,
      "Ġumi": 8695,
      "Ġpoziv": 8696,
      "ĠpoÄįeli": 8697,
      "Ġstudenti": 8698,
      "Ġzasni": 8699,
      "Ġoktobar": 8700,
      "ena": 8701,
      "ĠtaÄįaka": 8702,
      "Ġpija": 8703,
      "Ġvojnika": 8704,
      "lona": 8705,
      "Ġcentri": 8706,
      "ĠAnto": 8707,
      "Ġama": 8708,
      "Ġdobijanje": 8709,
      "Ġsredina": 8710,
      "Ġprimeri": 8711,
      "Ġplaniranje": 8712,
      "Ġulozi": 8713,
      "ĠDÅ¾o": 8714,
      "njaka": 8715,
      "koni": 8716,
      "Ġtren": 8717,
      "Ġzvezde": 8718,
      "Ġgeneralno": 8719,
      "site": 8720,
      "hranje": 8721,
      "minje": 8722,
      "Ġkontrolne": 8723,
      "Ġmorala": 8724,
      "Ġprovi": 8725,
      "ĠVasi": 8726,
      "ĠraÄįunovod": 8727,
      "Ġalba": 8728,
      "rale": 8729,
      "Prose": 8730,
      "pho": 8731,
      "toru": 8732,
      "ANJA": 8733,
      "Ġreflek": 8734,
      "Ġgubitka": 8735,
      "ĠnaÄįela": 8736,
      "Ġzuba": 8737,
      "tla": 8738,
      "ĠÂ»": 8739,
      "viju": 8740,
      "Ġnesto": 8741,
      "Ġposebna": 8742,
      "Ġprevodi": 8743,
      "ljuju": 8744,
      "Foto": 8745,
      "Ġgovorio": 8746,
      "set": 8747,
      "ĠUdruÅ¾e": 8748,
      "Ġmargi": 8749,
      "Ġzabri": 8750,
      "Ġubrzo": 8751,
      "Ġnepokretnosti": 8752,
      "ĠutvrÄĳena": 8753,
      "Ġosnovnog": 8754,
      "Ġpromovi": 8755,
      "Ġagencije": 8756,
      "tovao": 8757,
      "Ġkontekst": 8758,
      "Äĩenog": 8759,
      "Ġocena": 8760,
      "Ġprijave": 8761,
      "ĠSU": 8762,
      "ĠnauÄįnih": 8763,
      "Ġlege": 8764,
      "ĠdrÅ¾avnog": 8765,
      "ĠmaÄĳar": 8766,
      "Ġraspodele": 8767,
      "Is": 8768,
      "ĠKata": 8769,
      "Ġisho": 8770,
      "ĠspecifiÄįne": 8771,
      "Ġstarih": 8772,
      "ĠfiziÄįkog": 8773,
      "Ġnivoima": 8774,
      "Ġambije": 8775,
      "Ġpojedinaca": 8776,
      "Ġcrta": 8777,
      "rnoj": 8778,
      "Tri": 8779,
      "Sle": 8780,
      "Ġobradu": 8781,
      "Ġrazumevanja": 8782,
      "ĠÅ¾elite": 8783,
      "Ġinformacijama": 8784,
      "Ġprofila": 8785,
      "Ġkale": 8786,
      "ĠmoguÄĩa": 8787,
      "Ġ57": 8788,
      "Koliko": 8789,
      "ĠoÄįekivanja": 8790,
      "Ġofici": 8791,
      "ĠÅ¡ampiona": 8792,
      "Ġliko": 8793,
      "mode": 8794,
      "ĠHercegovi": 8795,
      "ĠpostojeÄĩe": 8796,
      "ĠAutor": 8797,
      "tuda": 8798,
      "ĠFrancuske": 8799,
      "ĠveÄĩinu": 8800,
      "Ġzahtevima": 8801,
      "Ġproba": 8802,
      "Ġpredo": 8803,
      "Ġkuhi": 8804,
      "Podaci": 8805,
      "Ġsvojevr": 8806,
      "Ġinformaciju": 8807,
      "ĠpodrÅ¾ava": 8808,
      "Ġkoeficijenta": 8809,
      "Ġsubo": 8810,
      "Ġlekovi": 8811,
      "Ġusagla": 8812,
      "VeÄĩ": 8813,
      "Ġimuno": 8814,
      "cionalnih": 8815,
      "Ġprostorija": 8816,
      "Ġhipoteza": 8817,
      "Ġmira": 8818,
      "Ġorganizacijama": 8819,
      "Ġzave": 8820,
      "Ġprethodnog": 8821,
      "SKI": 8822,
      "ĠuoÄįiti": 8823,
      "ĠdonoÅ¡enje": 8824,
      "BE": 8825,
      "Ġizgradnji": 8826,
      "Ġputnika": 8827,
      "Ġkvalita": 8828,
      "ĠoÄįekivati": 8829,
      "ksio": 8830,
      "Zatim": 8831,
      "stin": 8832,
      "njak": 8833,
      "Ġizolova": 8834,
      "ĠmiÅ¡iÄĩ": 8835,
      "ĠÅ¾ivotnu": 8836,
      "sniji": 8837,
      "Ġkriminali": 8838,
      "Ġlokaliteta": 8839,
      "ĠkoliÄįinu": 8840,
      "Å¡taju": 8841,
      "tinj": 8842,
      "Ġpodignu": 8843,
      "Ġ-,": 8844,
      "Ġpostupaka": 8845,
      "ntara": 8846,
      "ĠAra": 8847,
      "slobo": 8848,
      "Ġturni": 8849,
      "venog": 8850,
      "Ġmen": 8851,
      "ĠnajveÄĩih": 8852,
      "Ġspektra": 8853,
      "Ġalata": 8854,
      "Ġdrza": 8855,
      "kali": 8856,
      "Ministar": 8857,
      "Ġimplici": 8858,
      "Ġusle": 8859,
      "Ġuporedi": 8860,
      "Ġstandard": 8861,
      "Ġnapredak": 8862,
      "Ġtakvog": 8863,
      "Ġnegativno": 8864,
      "Ġposmatrati": 8865,
      "KU": 8866,
      "Ġkatastro": 8867,
      "Ġnavedenim": 8868,
      "Ġonemogu": 8869,
      "Å¡io": 8870,
      "stim": 8871,
      "For": 8872,
      "ĠMiro": 8873,
      "ĠRadi": 8874,
      "Ġefekta": 8875,
      "ĠJapa": 8876,
      "Napo": 8877,
      "ĠpokuÅ¡aj": 8878,
      "ĠsluÅ¾e": 8879,
      "Ġplasi": 8880,
      "Å¡le": 8881,
      "pravni": 8882,
      "Ġrezul": 8883,
      "ew": 8884,
      "Ġsvje": 8885,
      "ÉŁÉĿ": 8886,
      "ĠpolitiÄįka": 8887,
      "Ġnedovoljno": 8888,
      "Ġsocijalisti": 8889,
      "menzi": 8890,
      "Ġfraze": 8891,
      "Ġgeometri": 8892,
      "tiÄįki": 8893,
      "Ġengleskog": 8894,
      "Ġfilmu": 8895,
      "ĠDirek": 8896,
      "Ġinku": 8897,
      "ĠSin": 8898,
      "Ġkontine": 8899,
      "ĠSovje": 8900,
      "Ġagrega": 8901,
      "Ġstrah": 8902,
      "Å¡tanja": 8903,
      "ĠMari": 8904,
      "sion": 8905,
      "Ġkonfi": 8906,
      "Ġutvrditi": 8907,
      "ntnost": 8908,
      "Ġceni": 8909,
      "Ġodraslih": 8910,
      "Ġformiraju": 8911,
      "Ġlicima": 8912,
      "Ġhidra": 8913,
      "Ġruskog": 8914,
      "ĠsveÅ¡te": 8915,
      "Ġmenjaju": 8916,
      "ĠDÅ¾on": 8917,
      "Ġvladavine": 8918,
      "Ġsaveta": 8919,
      "Ġpolitici": 8920,
      "Ġposebnu": 8921,
      "Ġefikasno": 8922,
      "Ġnajnovi": 8923,
      "ï¬ģ": 8924,
      "ĠUniver": 8925,
      "stila": 8926,
      "Ġobrnu": 8927,
      "liji": 8928,
      "Ġgaz": 8929,
      "jl": 8930,
      "Ġkrista": 8931,
      "Ġkomplika": 8932,
      "Ġisla": 8933,
      "Ġkonstrukcija": 8934,
      "ĠÃ±": 8935,
      "Ġosnovnim": 8936,
      "Ġljubi": 8937,
      "Ġpopulacija": 8938,
      "É§É¨É«É¬": 8939,
      "Ġkilometara": 8940,
      "sca": 8941,
      "Ġkapital": 8942,
      "Å¾om": 8943,
      "ĠArhi": 8944,
      "Ġusvaja": 8945,
      "fikuje": 8946,
      "Ġ85": 8947,
      "ĠPetar": 8948,
      "Ġalgorita": 8949,
      "ova": 8950,
      "hoplo": 8951,
      "ĠsediÅ¡te": 8952,
      "Ġobavljaju": 8953,
      "Ġpero": 8954,
      "ÌĮ": 8955,
      "Ġpovezane": 8956,
      "ĠAmerici": 8957,
      "Ġnaji": 8958,
      "Kri": 8959,
      "ĠZakonom": 8960,
      "Â²": 8961,
      "Ġprevoz": 8962,
      "ĠveÄĩoj": 8963,
      "Ġsmisao": 8964,
      "Ġglavu": 8965,
      "habili": 8966,
      "Ġtan": 8967,
      "ntnosti": 8968,
      "ĠznaÄīaj": 8969,
      "Ġperife": 8970,
      "Slo": 8971,
      "Ġostrva": 8972,
      "ĠdoÄįe": 8973,
      "Ġseptembar": 8974,
      "Ġgluko": 8975,
      "ĠknjiÅ¾evnost": 8976,
      "SE": 8977,
      "Ġparametra": 8978,
      "ĠBoga": 8979,
      "ÄĮak": 8980,
      "Ġrasprostra": 8981,
      "Ġara": 8982,
      "É¢É«É¬": 8983,
      "ĠnemoguÄĩe": 8984,
      "cionu": 8985,
      "Ġprimeniti": 8986,
      "Ġpolovini": 8987,
      "Ġvratio": 8988,
      "ĠÄįitao": 8989,
      "ĠkolaÄįiÄĩe": 8990,
      "Ġekspo": 8991,
      "Ġnm": 8992,
      "ĠLondo": 8993,
      "ĠsteÄįaj": 8994,
      "Ġjun": 8995,
      "ĠobiÄįa": 8996,
      "Ġhotel": 8997,
      "Ġdospe": 8998,
      "Ġdoneo": 8999,
      "ĠpaÅ¾nja": 9000,
      "nae": 9001,
      "ĠIta": 9002,
      "Ġ</": 9003,
      "Î²": 9004,
      "Ġglasova": 9005,
      "Ġdoktorske": 9006,
      "Ġaspekt": 9007,
      "Ġprvim": 9008,
      "metrije": 9009,
      "Ġserti": 9010,
      "Ġner": 9011,
      "fro": 9012,
      "Ġcve": 9013,
      "Ġgovoriti": 9014,
      "ĠZna": 9015,
      "Ġutakmice": 9016,
      "ĠpoboljÅ¡anja": 9017,
      "Å¾nu": 9018,
      "Ġorganizuje": 9019,
      "jeg": 9020,
      "Ġvezuje": 9021,
      "mm": 9022,
      "ĠoseÄĩanja": 9023,
      "ĠdÅ¾e": 9024,
      "Ġspoljnih": 9025,
      "Ġsmet": 9026,
      "Zahva": 9027,
      "Ġapstra": 9028,
      "Ġpisac": 9029,
      "Ġderiva": 9030,
      "Ġbanaka": 9031,
      "zak": 9032,
      "planta": 9033,
      "INE": 9034,
      "Ġdozvole": 9035,
      "Ġminim": 9036,
      "Ġlogo": 9037,
      "ĠNikoliÄĩ": 9038,
      "ĠhoÄĩe": 9039,
      "Ġkana": 9040,
      "Å¡enjem": 9041,
      "sl": 9042,
      "laÅ¾enje": 9043,
      "Ġcrkvi": 9044,
      "nimi": 9045,
      "Ġulice": 9046,
      "ĠKonstanti": 9047,
      "nete": 9048,
      "ĠÄįo": 9049,
      "navlja": 9050,
      "Ġprikup": 9051,
      "Å¡tenje": 9052,
      "metra": 9053,
      "ĠgraÄĳanima": 9054,
      "ĠteÄįnosti": 9055,
      "Ġdrveta": 9056,
      "jena": 9057,
      "ĠsmeÅ¡taj": 9058,
      "Cl": 9059,
      "ĠzemljiÅ¡tu": 9060,
      "Proce": 9061,
      "Ġrezolu": 9062,
      "Ġrezervi": 9063,
      "Ġfiska": 9064,
      "Ġimenu": 9065,
      "Ġdostavlja": 9066,
      "ĠÄįisto": 9067,
      "ÉŁÊĥ": 9068,
      "Ġneprijatelj": 9069,
      "Äįana": 9070,
      "Jedno": 9071,
      "Ġdato": 9072,
      "ĠVE": 9073,
      "Ġposete": 9074,
      "ĠBE": 9075,
      "Ġistina": 9076,
      "Ġ58": 9077,
      "Ġvisina": 9078,
      "njivanja": 9079,
      "Ġpravilo": 9080,
      "stih": 9081,
      "Ġrealizova": 9082,
      "ĠodreÄĳenu": 9083,
      "Ġeksplici": 9084,
      "Ġporeklo": 9085,
      "Ġzatra": 9086,
      "ljem": 9087,
      "Ġreka": 9088,
      "2004": 9089,
      "Ġtrom": 9090,
      "ĠÄįitav": 9091,
      "Ġputeva": 9092,
      "Ġïģ": 9093,
      "Ġmoni": 9094,
      "Ġdonose": 9095,
      "sena": 9096,
      "Ġkomisija": 9097,
      "ĠDrago": 9098,
      "Ġsaradnja": 9099,
      "Å¡tenja": 9100,
      "Ġglavi": 9101,
      "Ġnapi": 9102,
      "ÉªÉ": 9103,
      "cia": 9104,
      "ĠgvoÅ¾": 9105,
      "ĠodluÄįivanja": 9106,
      "Ġsisteme": 9107,
      "ĠSme": 9108,
      "Uo": 9109,
      "Äįlan": 9110,
      "rÅ¡a": 9111,
      "ĠzapaÅ¾a": 9112,
      "Ġodredbama": 9113,
      "Ġlokacije": 9114,
      "kluzi": 9115,
      "Ġpovreda": 9116,
      "Ġdelega": 9117,
      "ĠunapreÄĳenja": 9118,
      "VeÄĩina": 9119,
      "tanja": 9120,
      "Ġvisoka": 9121,
      "2021": 9122,
      "Ġekstrem": 9123,
      "Ġprovo": 9124,
      "Ġsupstance": 9125,
      "ĠStrate": 9126,
      "Ġvisokom": 9127,
      "Ġniste": 9128,
      "Ġprojektu": 9129,
      "ĠTaj": 9130,
      "Ġnormalno": 9131,
      "Navede": 9132,
      "Ġasi": 9133,
      "Ġkrat": 9134,
      "ĠGri": 9135,
      "Ġuki": 9136,
      "Ġpes": 9137,
      "Ġprodavni": 9138,
      "Ġkorisnicima": 9139,
      "ĠzavrÅ¡ava": 9140,
      "Ġdom": 9141,
      "binu": 9142,
      "ĠnaÄĳe": 9143,
      "Ġnagradu": 9144,
      "mota": 9145,
      "Ġpomenuti": 9146,
      "Ġneobi": 9147,
      "Ġprilike": 9148,
      "Ġfol": 9149,
      "KP": 9150,
      "Radi": 9151,
      "Ġmol": 9152,
      "ĠJelena": 9153,
      "caju": 9154,
      "Ġrobo": 9155,
      "CT": 9156,
      "Ġnavodno": 9157,
      "caj": 9158,
      "Ġbalka": 9159,
      "Ġgustine": 9160,
      "Ġpolj": 9161,
      "Ġsuspe": 9162,
      "vljeviÄĩ": 9163,
      "ĠpolitiÄįkim": 9164,
      "Å¡ene": 9165,
      "stili": 9166,
      "Ġfinansijski": 9167,
      "Ġtradicije": 9168,
      "nzija": 9169,
      "dja": 9170,
      "Ġnazna": 9171,
      "NIK": 9172,
      "rej": 9173,
      "Ġljto": 9174,
      ")-": 9175,
      "Ġpje": 9176,
      "Ġsastoja": 9177,
      "Ġvoli": 9178,
      "Ġrazreda": 9179,
      "qa": 9180,
      "Ġpolazi": 9181,
      "Ġposeti": 9182,
      "Ġtelesne": 9183,
      "Ġpropor": 9184,
      "Äĩeva": 9185,
      "ljenju": 9186,
      "sed": 9187,
      "ĠMihaj": 9188,
      "gel": 9189,
      "Ġkomunisti": 9190,
      "Tek": 9191,
      "ĠRoma": 9192,
      "Ġrukama": 9193,
      "Ġpoglavlja": 9194,
      "Osta": 9195,
      "Ġ250": 9196,
      "Ġceline": 9197,
      "Ġmart": 9198,
      "Ġpravna": 9199,
      "Ġ89": 9200,
      "ncima": 9201,
      "Ġpovezanosti": 9202,
      "Ġvlasnik": 9203,
      "Ġsne": 9204,
      "Ġelasti": 9205,
      "Ġstranka": 9206,
      "Ġpojavljuju": 9207,
      "Ġprei": 9208,
      "Ġsveobuhva": 9209,
      "Ġcije": 9210,
      "Ġinvesticije": 9211,
      "merno": 9212,
      "ĠFil": 9213,
      "Ek": 9214,
      "ĠZoran": 9215,
      "Ġlekar": 9216,
      "Ġkrsta": 9217,
      "mbru": 9218,
      "Ġreko": 9219,
      "Ġautonom": 9220,
      "zovana": 9221,
      "tovanja": 9222,
      "ĠzakljuÄįi": 9223,
      "Ġpostati": 9224,
      "Ġjest": 9225,
      "mis": 9226,
      "ĠizvoÄĳenje": 9227,
      "plji": 9228,
      "Å¡tanje": 9229,
      "Ġsporti": 9230,
      "Ġorganima": 9231,
      "ĠDimit": 9232,
      "Ġuvodi": 9233,
      "ĠÅ¡iroko": 9234,
      "Ġinflama": 9235,
      "ĠTran": 9236,
      "ĠizvoÄĳenja": 9237,
      "Ġvladi": 9238,
      "Ġpodvr": 9239,
      "Ġposu": 9240,
      "Ġdrago": 9241,
      "Ġizboru": 9242,
      "Ġprirodnog": 9243,
      "Ġbombar": 9244,
      "Ġvezana": 9245,
      "ĠDrugi": 9246,
      "roda": 9247,
      "tvore": 9248,
      "opera": 9249,
      "Ġradili": 9250,
      "ĠzvaniÄįno": 9251,
      "Ġpilo": 9252,
      "ĠGospo": 9253,
      "Ġdvoje": 9254,
      "Ġvarijanse": 9255,
      "gure": 9256,
      "ĠpraÄĩenja": 9257,
      "Mislim": 9258,
      "Å¾noj": 9259,
      "Ġmetodi": 9260,
      "Ġodlazi": 9261,
      "Ġhranu": 9262,
      "Ġfinansiranja": 9263,
      "Ġmakar": 9264,
      "Ġsklopu": 9265,
      "Ġposre": 9266,
      "Ġsastavni": 9267,
      "Ïħ": 9268,
      "stanku": 9269,
      "ĠmreÅ¾ama": 9270,
      "Ġsvetske": 9271,
      "Ġnacionalni": 9272,
      "Ġtona": 9273,
      "mpu": 9274,
      "boru": 9275,
      "Ġvaspitanja": 9276,
      "Ġpovezuje": 9277,
      "Ġdostignu": 9278,
      "ÉļÊĥÉļ": 9279,
      "Ġzapisa": 9280,
      "Ġpopulaciji": 9281,
      "stven": 9282,
      "vamo": 9283,
      "sel": 9284,
      "Ġrazgovora": 9285,
      "Ġpoverenja": 9286,
      "Ġfinansijskog": 9287,
      "Ġmotora": 9288,
      "Ġpisao": 9289,
      "Ġcrte": 9290,
      "Ġnastupi": 9291,
      "Ġosci": 9292,
      "Ġobjavljena": 9293,
      "ÏĢ": 9294,
      "Ġsocijalnog": 9295,
      "ĠmiÅ¡iÄĩa": 9296,
      "Ġlibera": 9297,
      "Ġukida": 9298,
      "Ġagen": 9299,
      "Ġpromet": 9300,
      "Ġpostavljen": 9301,
      "Ġfunkcionisanje": 9302,
      "one": 9303,
      "Ġistorijski": 9304,
      "Inter": 9305,
      "lazni": 9306,
      "ĠgreÅ¡ka": 9307,
      "Ġodbaci": 9308,
      "ĠoruÅ¾ja": 9309,
      "Ġsrednjih": 9310,
      "ĠMA": 9311,
      "ĠHan": 9312,
[...]
