{
  "version": "1.0",
  "truncation": null,
  "padding": null,
  "added_tokens": [
    {
      "id": 0,
      "content": "[PAD]",
      "single_word": false,
      "lstrip": false,
      "rstrip": false,
      "normalized": false,
      "special": true
    },
    {
      "id": 1,
      "content": "[UNK]",
      "single_word": false,
      "lstrip": false,
      "rstrip": false,
      "normalized": false,
      "special": true
    },
    {
      "id": 2,
      "content": "[CLS]",
      "single_word": false,
      "lstrip": false,
      "rstrip": false,
      "normalized": false,
      "special": true
    },
    {
      "id": 3,
      "content": "[SEP]",
      "single_word": false,
      "lstrip": false,
      "rstrip": false,
      "normalized": false,
      "special": true
    },
    {
      "id": 4,
      "content": "[MASK]",
      "single_word": false,
      "lstrip": false,
      "rstrip": false,
      "normalized": false,
      "special": true
    }
  ],
  "normalizer": null,
  "pre_tokenizer": {
    "type": "Sequence",
    "pretokenizers": [
      {
        "type": "Whitespace"
      },
      {
        "type": "ByteLevel",
        "add_prefix_space": false,
        "trim_offsets": true,
        "use_regex": false
      }
    ]
  },
  "post_processor": null,
  "decoder": null,
  "model": {
    "type": "BPE",
    "dropout": null,
    "unk_token": null,
    "continuing_subword_prefix": null,
    "end_of_word_suffix": "Ġ",
    "fuse_unk": false,
    "byte_fallback": false,
    "ignore_merges": true,
    "vocab": {
      "[PAD]": 0,
      "[UNK]": 1,
      "[CLS]": 2,
      "[SEP]": 3,
      "[MASK]": 4,
      "!": 5,
      "\"": 6,
      "#": 7,
      "$": 8,
      "%": 9,
      "&": 10,
      "'": 11,
      "(": 12,
      ")": 13,
      "*": 14,
      "+": 15,
      ",": 16,
      "-": 17,
      ".": 18,
      "/": 19,
      "0": 20,
      "1": 21,
      "2": 22,
      "3": 23,
      "4": 24,
      "5": 25,
      "6": 26,
      "7": 27,
      "8": 28,
      "9": 29,
      ":": 30,
      ";": 31,
      "<": 32,
      "=": 33,
      ">": 34,
      "?": 35,
      "@": 36,
      "A": 37,
      "B": 38,
      "C": 39,
      "D": 40,
      "E": 41,
      "F": 42,
      "G": 43,
      "H": 44,
      "I": 45,
      "J": 46,
      "K": 47,
      "L": 48,
      "M": 49,
      "N": 50,
      "O": 51,
      "P": 52,
      "Q": 53,
      "R": 54,
      "S": 55,
      "T": 56,
      "U": 57,
      "V": 58,
      "W": 59,
      "X": 60,
      "Y": 61,
      "Z": 62,
      "[": 63,
      "\\": 64,
      "]": 65,
      "^": 66,
      "_": 67,
      "`": 68,
      "a": 69,
      "b": 70,
      "c": 71,
      "d": 72,
      "e": 73,
      "f": 74,
      "g": 75,
      "h": 76,
      "i": 77,
      "j": 78,
      "k": 79,
      "l": 80,
      "m": 81,
      "n": 82,
      "o": 83,
      "p": 84,
      "q": 85,
      "r": 86,
      "s": 87,
      "t": 88,
      "u": 89,
      "v": 90,
      "w": 91,
      "x": 92,
      "y": 93,
      "z": 94,
      "{": 95,
      "|": 96,
      "}": 97,
      "~": 98,
      "¡": 99,
      "¢": 100,
      "£": 101,
      "¤": 102,
      "¥": 103,
      "¦": 104,
      "§": 105,
      "¨": 106,
      "©": 107,
      "ª": 108,
      "«": 109,
      "¬": 110,
      "®": 111,
      "¯": 112,
      "°": 113,
      "±": 114,
      "²": 115,
      "³": 116,
      "´": 117,
      "µ": 118,
      "¶": 119,
      "·": 120,
      "¸": 121,
      "¹": 122,
      "º": 123,
      "»": 124,
      "¼": 125,
      "½": 126,
      "¾": 127,
      "¿": 128,
      "À": 129,
      "Á": 130,
      "Â": 131,
      "Ã": 132,
      "Ä": 133,
      "Å": 134,
      "Æ": 135,
      "Ç": 136,
      "È": 137,
      "É": 138,
      "Ê": 139,
      "Ë": 140,
      "Ì": 141,
      "Í": 142,
      "Î": 143,
      "Ï": 144,
      "Ð": 145,
      "Ñ": 146,
      "Ò": 147,
      "Ó": 148,
      "Ô": 149,
      "Õ": 150,
      "Ö": 151,
      "×": 152,
      "Ø": 153,
      "Ù": 154,
      "Ú": 155,
      "Û": 156,
      "Ü": 157,
      "Ý": 158,
      "Þ": 159,
      "ß": 160,
      "à": 161,
      "á": 162,
      "â": 163,
      "ã": 164,
      "ä": 165,
      "å": 166,
      "æ": 167,
      "ç": 168,
      "è": 169,
      "é": 170,
      "ê": 171,
      "ë": 172,
      "ì": 173,
      "í": 174,
      "î": 175,
      "ï": 176,
      "ð": 177,
      "ñ": 178,
      "ò": 179,
      "ó": 180,
      "ô": 181,
      "õ": 182,
      "ö": 183,
      "÷": 184,
      "ø": 185,
      "ù": 186,
      "ú": 187,
      "û": 188,
      "ü": 189,
      "ý": 190,
      "þ": 191,
      "ÿ": 192,
      "Ā": 193,
      "ā": 194,
      "Ă": 195,
      "ă": 196,
      "Ą": 197,
      "ą": 198,
      "Ć": 199,
      "ć": 200,
      "Ĉ": 201,
      "ĉ": 202,
      "Ċ": 203,
      "ċ": 204,
      "Č": 205,
      "č": 206,
      "Ď": 207,
      "ď": 208,
      "Đ": 209,
      "đ": 210,
      "Ē": 211,
      "ē": 212,
      "Ĕ": 213,
      "ĕ": 214,
      "Ė": 215,
      "ė": 216,
      "Ę": 217,
      "ę": 218,
      "Ě": 219,
      "ě": 220,
      "Ĝ": 221,
      "ĝ": 222,
      "Ğ": 223,
      "ğ": 224,
      "Ġ": 225,
      "ġ": 226,
      "Ģ": 227,
      "ģ": 228,
      "Ĥ": 229,
      "ĥ": 230,
      "Ħ": 231,
      "ħ": 232,
      "Ĩ": 233,
      "ĩ": 234,
      "Ī": 235,
      "ī": 236,
      "Ĭ": 237,
      "ĭ": 238,
      "Į": 239,
      "į": 240,
      "İ": 241,
      "ı": 242,
      "Ĳ": 243,
      "ĳ": 244,
      "Ĵ": 245,
      "ĵ": 246,
      "Ķ": 247,
      "ķ": 248,
      "ĸ": 249,
      "Ĺ": 250,
      "ĺ": 251,
      "Ļ": 252,
      "ļ": 253,
      "Ľ": 254,
      "ľ": 255,
      "Ŀ": 256,
      "ŀ": 257,
      "Ł": 258,
      "ł": 259,
      "Ń": 260,
      "xĠ": 261,
      "UĠ": 262,
      "eĠ": 263,
      "uĠ": 264,
      "oĠ": 265,
      "nĠ": 266,
      "EĠ": 267,
      "iĠ": 268,
      "gĠ": 269,
      "FĠ": 270,
      "zĠ": 271,
      "TĠ": 272,
      "aĠ": 273,
      "sĠ": 274,
      "XĠ": 275,
      "0Ġ": 276,
      "vĠ": 277,
      "7Ġ": 278,
      "ŃĠ": 279,
      "mĠ": 280,
      "OĠ": 281,
      "hĠ": 282,
      "tĠ": 283,
      "jĠ": 284,
      "2Ġ": 285,
      "ļĠ": 286,
      "AĠ": 287,
      "rĠ": 288,
      "8Ġ": 289,
      "kĠ": 290,
      "dĠ": 291,
      "lĠ": 292,
      "HĠ": 293,
      "łĠ": 294,
      "ĿĠ": 295,
      "1Ġ": 296,
      "¥Ġ": 297,
      "_Ġ": 298,
      "¼Ġ": 299,
      "RĠ": 300,
      "ĢĠ": 301,
      "ĩĠ": 302,
      "³Ġ": 303,
      "cĠ": 304,
      "ĬĠ": 305,
      "¡Ġ": 306,
      "¨Ġ": 307,
      "ĨĠ": 308,
      "CĠ": 309,
      "©Ġ": 310,
      "²Ġ": 311,
      "ŁĠ": 312,
      "ģĠ": 313,
      "4Ġ": 314,
      "¯Ġ": 315,
      "ıĠ": 316,
      "NĠ": 317,
      "GĠ": 318,
      "*Ġ": 319,
      "IĠ": 320,
      "3Ġ": 321,
      "yĠ": 322,
      "5Ġ": 323,
      "ĤĠ": 324,
      "PĠ": 325,
      "¢Ġ": 326,
      "6Ġ": 327,
      "MĠ": 328,
      "-Ġ": 329,
      "ĮĠ": 330,
      "ĴĠ": 331,
      "¹Ġ": 332,
      "YĠ": 333,
      "ĶĠ": 334,
      "ĵĠ": 335,
      "9Ġ": 336,
      "JĠ": 337,
      "bĠ": 338,
      "±Ġ": 339,
      "¸Ġ": 340,
      "İĠ": 341,
      "qĠ": 342,
      "°Ġ": 343,
      "½Ġ": 344,
      "¦Ġ": 345,
      "(Ġ": 346,
      "pĠ": 347,
      "§Ġ": 348,
      "ĥĠ": 349,
      "£Ġ": 350,
      "įĠ": 351,
      "¿Ġ": 352,
      "ZĠ": 353,
      "VĠ": 354,
      "!Ġ": 355,
      "fĠ": 356,
      ".Ġ": 357,
      "ĹĠ": 358,
      ",Ġ": 359,
      "ĸĠ": 360,
      "SĠ": 361,
      "ĦĠ": 362,
      "KĠ": 363,
      "®Ġ": 364,
      "ĲĠ": 365,
      "+Ġ": 366,
      "BĠ": 367,
      ":Ġ": 368,
      "»Ġ": 369,
      "¾Ġ": 370,
      "ĭĠ": 371,
      "DĠ": 372,
      "LĠ": 373,
      "¬Ġ": 374,
      ">Ġ": 375,
      "¶Ġ": 376,
      "·Ġ": 377,
      "ĳĠ": 378,
      "wĠ": 379,
      "ºĠ": 380,
      "ĺĠ": 381,
      "¤Ġ": 382,
      "ŀĠ": 383,
      "ĽĠ": 384,
      "ªĠ": 385,
      "ĐĠ": 386,
      "´Ġ": 387,
      "µĠ": 388,
      "ĪĠ": 389,
      "WĠ": 390,
      "īĠ": 391,
      "ľĠ": 392,
      "%Ġ": 393,
      "ăĠ": 394,
      "<Ġ": 395,
      "«Ġ": 396,
      "ķĠ": 397,
      "ħĠ": 398,
      "ĻĠ": 399,
      ")Ġ": 400,
      "\"Ġ": 401,
      "QĠ": 402,
      "ĔĠ": 403,
      "\\Ġ": 404,
      "/Ġ": 405,
      "đĠ": 406,
      "ėĠ": 407,
      "^Ġ": 408,
      "=Ġ": 409,
      "'Ġ": 410,
      ";Ġ": 411,
      "ĈĠ": 412,
      "ĆĠ": 413,
      "?Ġ": 414,
      "[Ġ": 415,
      "ďĠ": 416,
      "]Ġ": 417,
      "#Ġ": 418,
      "$Ġ": 419,
      "`Ġ": 420,
      "āĠ": 421,
      "ĒĠ": 422,
      "ġĠ": 423,
      "{Ġ": 424,
      "ĚĠ": 425,
      "ěĠ": 426,
      "@Ġ": 427,
      "ĘĠ": 428,
      "&Ġ": 429,
      "ĖĠ": 430,
      "}Ġ": 431,
      "ąĠ": 432,
      "ēĠ": 433,
      "ęĠ": 434,
      "ĕĠ": 435,
      "~Ġ": 436,
      "|Ġ": 437,
      "ćĠ": 438,
      "ĄĠ": 439,
      "ĎĠ": 440,
      "ĂĠ": 441,
      "ĀĠ": 442,
      "jeĠ": 443,
      "st": 444,
      "ra": 445,
      "en": 446,
      "ko": 447,
      "an": 448,
      "re": 449,
      "po": 450,
      "Äį": 451,
      "Å¡": 452,
      "in": 453,
      "ov": 454,
      "ri": 455,
      "ni": 456,
      "ro": 457,
      "na": 458,
      "jaĠ": 459,
      "no": 460,
      "li": 461,
      "daĠ": 462,
      "Å¾": 463,
      "ci": 464,
      "naĠ": 465,
      "ti": 466,
      "od": 467,
      "av": 468,
      "ka": 469,
      "je": 470,
      "Äĩ": 471,
      "maĠ": 472,
      "te": 473,
      "al": 474,
      "seĠ": 475,
      "juĠ": 476,
      "la": 477,
      "sk": 478,
      "ve": 479,
      "or": 480,
      "neĠ": 481,
      "il": 482,
      "za": 483,
      "ta": 484,
      "lj": 485,
      "me": 486,
      "ob": 487,
      "pre": 488,
      "vi": 489,
      "va": 490,
      "le": 491,
      "noĠ": 492,
      "vo": 493,
      "ne": 494,
      "ru": 495,
      "kaĠ": 496,
      "pro": 497,
      "zaĠ": 498,
      "ma": 499,
      "âĢ": 500,
      "suĠ": 501,
      "de": 502,
      "mo": 503,
      "jiĠ": 504,
      "iz": 505,
      "Äĳ": 506,
      "sa": 507,
      "di": 508,
      "tiĠ": 509,
      "taĠ": 510,
      "to": 511,
      "ihĠ": 512,
      "pri": 513,
      "saĠ": 514,
      "koĠ": 515,
      "lo": 516,
      "si": 517,
      "se": 518,
      "do": 519,
      "men": 520,
      "niĠ": 521,
      "zi": 522,
      "stiĠ": 523,
      "Å¡t": 524,
      "ar": 525,
      "bi": 526,
      "odĠ": 527,
      "mi": 528,
      "sl": 529,
      "pi": 530,
      "pe": 531,
      "omĠ": 532,
      "anjeĠ": 533,
      "vaĠ": 534,
      "ja": 535,
      "keĠ": 536,
      "gra": 537,
      "anjaĠ": 538,
      "pa": 539,
      "da": 540,
      "imĠ": 541,
      "raz": 542,
      "tu": 543,
      "sti": 544,
      "ku": 545,
      "nihĠ": 546,
      "teĠ": 547,
      "raĠ": 548,
      "stĠ": 549,
      "pra": 550,
      "sko": 551,
      "laĠ": 552,
      "ineĠ": 553,
      "nogĠ": 554,
      "Äįi": 555,
      "su": 556,
      "moĠ": 557,
      "pu": 558,
      "cijeĠ": 559,
      "kaoĠ": 560,
      "stav": 561,
      "iliĠ": 562,
      "pr": 563,
      "red": 564,
      "kojiĠ": 565,
      "bo": 566,
      "nj": 567,
      "jed": 568,
      "Äįe": 569,
      "ÄĩĠ": 570,
      "sta": 571,
      "caĠ": 572,
      "be": 573,
      "20": 574,
      "gov": 575,
      "gaĠ": 576,
      "Å¾i": 577,
      "nostiĠ": 578,
      "ÄĩeĠ": 579,
      "du": 580,
      "nov": 581,
      "tiv": 582,
      "vr": 583,
      "imaĠ": 584,
      "tra": 585,
      "sto": 586,
      "ciĠ": 587,
      "ju": 588,
      "Äįa": 589,
      "meĠ": 590,
      "kuĠ": 591,
      "god": 592,
      "dru": 593,
      "os": 594,
      "inaĠ": 595,
      "cijaĠ": 596,
      "toĠ": 597,
      "veĠ": 598,
      "zna": 599,
      "stra": 600,
      "is": 601,
      "deĠ": 602,
      "liĠ": 603,
      "kon": 604,
      "aliĠ": 605,
      "voĠ": 606,
      "nomĠ": 607,
      "enaĠ": 608,
      "Å¡toĠ": 609,
      "gu": 610,
      "ce": 611,
      "ani": 612,
      "er": 613,
      "19": 614,
      "ceĠ": 615,
      "go": 616,
      "skeĠ": 617,
      "ak": 618,
      "tre": 619,
      "nimĠ": 620,
      "ÄĩiĠ": 621,
      "anaĠ": 622,
      "fi": 623,
      "nuĠ": 624,
      "jen": 625,
      "Å¾eĠ": 626,
      "pred": 627,
      "gi": 628,
      "lu": 629,
      "izĠ": 630,
      "lju": 631,
      "nijeĠ": 632,
      "dr": 633,
      "âĢŀĠ": 634,
      "kiĠ": 635,
      "skiĠ": 636,
      "nostĠ": 637,
      ").Ġ": 638,
      "ga": 639,
      "ogĠ": 640,
      "bil": 641,
      "biĠ": 642,
      "komĠ": 643,
      "tr": 644,
      "ze": 645,
      "jemĠ": 646,
      "ran": 647,
      "enjaĠ": 648,
      "..": 649,
      "kojeĠ": 650,
      "oraĠ": 651,
      "Å¡eĠ": 652,
      "so": 653,
      "stu": 654,
      "doĠ": 655,
      "svo": 656,
      "vod": 657,
      "naj": 658,
      "ste": 659,
      "cen": 660,
      "ini": 661,
      "duĠ": 662,
      "mu": 663,
      "âĢĵĠ": 664,
      "ovaĠ": 665,
      "treb": 666,
      "zu": 667,
      "diĠ": 668,
      "ana": 669,
      "jav": 670,
      "alaĠ": 671,
      "enjeĠ": 672,
      "ven": 673,
      "cio": 674,
      "tuĠ": 675,
      "bu": 676,
      "odno": 677,
      "spo": 678,
      "''Ġ": 679,
      "Po": 680,
      "viĠ": 681,
      "sve": 682,
      "for": 683,
      "skogĠ": 684,
      "ljaĠ": 685,
      "leĠ": 686,
      "Å¾e": 687,
      "ba": 688,
      "tiÄį": 689,
      "paĠ": 690,
      "),Ġ": 691,
      "op": 692,
      "godineĠ": 693,
      "Sr": 694,
      "skaĠ": 695,
      "drÅ¾": 696,
      "tro": 697,
      "ÄĩaĠ": 698,
      "ojĠ": 699,
      "slu": 700,
      "dob": 701,
      "kojaĠ": 702,
      "man": 703,
      "stan": 704,
      "prav": 705,
      "muĠ": 706,
      "201": 707,
      "Na": 708,
      "reĠ": 709,
      "spe": 710,
      "ova": 711,
      "nje": 712,
      "staĠ": 713,
      "meÄĳ": 714,
      "drug": 715,
      "ek": 716,
      "skihĠ": 717,
      "nji": 718,
      "eneĠ": 719,
      "Äĩe": 720,
      "riĠ": 721,
      "kori": 722,
      "teri": 723,
      "avaĠ": 724,
      "hi": 725,
      "vred": 726,
      "kri": 727,
      "poĠ": 728,
      "âĢľĠ": 729,
      "ca": 730,
      "guĠ": 731,
      "kra": 732,
      "on": 733,
      "inte": 734,
      "eniĠ": 735,
      "van": 736,
      "oveĠ": 737,
      "cijuĠ": 738,
      "ziĠ": 739,
      "Åł": 740,
      "vre": 741,
      "loĠ": 742,
      "bro": 743,
      "ilaĠ": 744,
      "ina": 745,
      "iniĠ": 746,
      "nikaĠ": 747,
      "200": 748,
      "Äįu": 749,
      "nu": 750,
      "stru": 751,
      "posl": 752,
      "ver": 753,
      "ovi": 754,
      "sle": 755,
      "ok": 756,
      "Å¡Ġ": 757,
      "cij": 758,
      "lji": 759,
      "eni": 760,
      "zeĠ": 761,
      "Srbi": 762,
      "enoĠ": 763,
      "koj": 764,
      "razli": 765,
      "lek": 766,
      "moÅ¾eĠ": 767,
      "godin": 768,
      "Srbij": 769,
      "istraÅ¾ivanj": 770,
      "moÅ¾": 771,
      "odnos": 772,
      "izmeÄĳ": 773,
      "nij": 774,
      "vrednost": 775,
      "predstavlj": 776,
      "stran": 777,
      "odnosn": 778,
      "sam": 779,
      "viÅ¡": 780,
      "organizacij": 781,
      "pitanj": 782,
      "razliÄįiti": 783,
      "znaÄįajn": 784,
      "postoj": 785,
      "rezultat": 786,
      "sistem": 787,
      "kak": 788,
      "osnov": 789,
      "ovo": 790,
      "rad": 791,
      "prem": 792,
      "grup": 793,
      "informacij": 794,
      "svoj": 795,
      "naÄįi": 796,
      "korist": 797,
      "drÅ¾av": 798,
      "bit": 799,
      "kad": 800,
      "jedn": 801,
      "aktivnost": 802,
      "sluÄįaj": 803,
      "razlik": 804,
      "analiz": 805,
      "promen": 806,
      "karakteristik": 807,
      "njegov": 808,
      "zaÅ¡tit": 809,
      ".U": 810,
      "njihov": 811,
      "velik": 812,
      "drugi": 813,
      "kojim": 814,
      "jedno": 815,
      "mog": 816,
      "proizvodnj": 817,
      "koncentracij": 818,
      "proizvod": 819,
      "tak": 820,
      "mest": 821,
      "funkcij": 822,
      "razliÄįit": 823,
      "Beograd": 824,
      "proces": 825,
      "struktur": 826,
      "posebn": 827,
      "period": 828,
      "nek": 829,
      "potrebn": 830,
      "odreÄĳen": 831,
      "podatak": 832,
      "veÄ": 833,
      "nako": 834,
      "nekolik": 835,
      "obrazovanj": 836,
      "im": 837,
      "druÅ¡tv": 838,
      "zemlj": 839,
      "nalaz": 840,
      "âĢľ": 841,
      "del": 842,
      "jeda": 843,
      "takoÄĳ": 844,
      "koriÅ¡Äĩenj": 845,
      "vremen": 846,
      "razvoj": 847,
      "problem": 848,
      "vrem": 849,
      "statistiÄįk": 850,
      "zbo": 851,
      "imaj": 852,
      "toko": 853,
      "preduzeÄĩ": 854,
      "situacij": 855,
      "vrednos": 856,
      "Å¾ivot": 857,
      "ljud": 858,
      "predstavljaj": 859,
      "primen": 860,
      "upravljanj": 861,
      "vrst": 862,
      "povrÅ¡in": 863,
      "Republik": 864,
      "potreb": 865,
      "veÄĩ": 866,
      "upotreb": 867,
      "materijal": 868,
      "ponaÅ¡anj": 869,
      "stanj": 870,
      "prv": 871,
      "svoji": 872,
      "okvir": 873,
      "199": 874,
      "prostor": 875,
      "politik": 876,
      "svak": 877,
      "dv": 878,
      "temperatur": 879,
      "politiÄįk": 880,
      "posledic": 881,
      "oblast": 882,
      "nis": 883,
      "svi": 884,
      "stanovniÅ¡tv": 885,
      "Äįinjenic": 886,
      "zajednic": 887,
      "trÅ¾iÅ¡t": 888,
      "jezik": 889,
      "studij": 890,
      "mnog": 891,
      "tog": 892,
      "ispitanik": 893,
      "koji": 894,
      "kompanij": 895,
      "pokazuj": 896,
      "joÅ": 897,
      "porodic": 898,
      "proti": 899,
      "kojo": 900,
      "model": 901,
      "kultur": 902,
      "moguÄĩ": 903,
      "Jugoslavij": 904,
      "dan": 905,
      "reÅ¡enj": 906,
      "najÄįeÅ¡Äĩ": 907,
      "drugo": 908,
      ".MeÄĳuti": 909,
      "moguÄĩnos": 910,
      "bud": 911,
      "druÅ¡tven": 912,
      "podruÄįj": 913,
      "njegovo": 914,
      "nivo": 915,
      "disertacij": 916,
      "program": 917,
      "Beogra": 918,
      "Å¡kol": 919,
      "miÅ¡ljenj": 920,
      "sadrÅ¾aj": 921,
      "dobr": 922,
      "ispitivanj": 923,
      "sredin": 924,
      "imal": 925,
      "priliko": 926,
      "manj": 927,
      "komunikacij": 928,
      "moguÄĩnost": 929,
      "prek": 930,
      "prikazan": 931,
      "srpsk": 932,
      "kontrol": 933,
      "podrazumev": 934,
      "neg": 935,
      "pokazal": 936,
      "njihovo": 937,
      "teritorij": 938,
      "poveÄĩanj": 939,
      "neophodn": 940,
      "kategorij": 941,
      "kro": 942,
      "metod": 943,
      "tehnologij": 944,
      "sledeÄĩ": 945,
      "Ministarstv": 946,
      "najveÄĩ": 947,
      "trebal": 948,
      "zemljiÅ¡t": 949,
      "energij": 950,
      "kvalitet": 951,
      "postupk": 952,
      "neÅ¡t": 953,
      "dana": 954,
      "vez": 955,
      "Äįest": 956,
      "ukazuj": 957,
      "zahtev": 958,
      "Äĩelij": 959,
      "svet": 960,
      "prethodn": 961,
      "uprav": 962,
      "uslov": 963,
      "broj": 964,
      "govor": 965,
      "institucij": 966,
      "faktor": 967,
      "veom": 968,
      "mogl": 969,
      "osnovn": 970,
      "ekonomsk": 971,
      "odluk": 972,
      "uslovim": 973,
      "tom": 974,
      "znaÄįenj": 975,
      "sklad": 976,
      "razvo": 977,
      "poÄįetk": 978,
      "jedinic": 979,
      "koliÄįin": 980,
      "najbolj": 981,
      "istorij": 982,
      "mer": 983,
      "srpsko": 984,
      "troÅ¡kov": 985,
      "oblik": 986,
      "odgovarajuÄĩ": 987,
      "ist": 988,
      "saradnj": 989,
      "dalj": 990,
      "komponent": 991,
      "pacijenat": 992,
      "siste": 993,
      "pomoÄĩ": 994,
      "podrÅ¡k": 995,
      "ukljuÄįujuÄĩ": 996,
      "sm": 997,
      "postojanj": 998,
      "svako": 999,
      "veliÄįin": 1000,
      ".âĢ": 1001,
      "uslug": 1002,
      "smanjenj": 1003,
      "Å¾en": 1004,
      "navod": 1005,
      "prisustv": 1006,
      "kraj": 1007,
      "iskustv": 1008,
      "potpun": 1009,
      "uglavno": 1010,
      "ostal": 1011,
      "sadrÅ¾": 1012,
      "uÄįenik": 1013,
      "stvar": 1014,
      "lic": 1015,
      "smisl": 1016,
      ".TakoÄĳ": 1017,
      "strategij": 1018,
      "obavez": 1019,
      "Äįij": 1020,
      "naÄįin": 1021,
      "ukolik": 1022,
      "zavisnost": 1023,
      "graÄĳan": 1024,
      "socijaln": 1025,
      "prime": 1026,
      "najviÅ¡": 1027,
      "Äįin": 1028,
      "nacionaln": 1029,
      "dec": 1030,
      "dovoljn": 1031,
      "kasnij": 1032,
      "utica": 1033,
      "populacij": 1034,
      "procen": 1035,
      "osob": 1036,
      "proble": 1037,
      "prirod": 1038,
      "poslov": 1039,
      "grad": 1040,
      "pravil": 1041,
      "veliko": 1042,
      "meÄĳunarodn": 1043,
      "ulog": 1044,
      "kaÅ¾": 1045,
      "sredstv": 1046,
      "mal": 1047,
      "poslovanj": 1048,
      "praks": 1049,
      "Äįetir": 1050,
      "vid": 1051,
      "kolik": 1052,
      "uticaj": 1053,
      "okruÅ¾enj": 1054,
      "dolaz": 1055,
      "gd": 1056,
      "naroÄįit": 1057,
      "nem": 1058,
      "prvo": 1059,
      "teorij": 1060,
      "znanj": 1061,
      "Evrop": 1062,
      "druÅ¡tveni": 1063,
      "bolest": 1064,
      "obziro": 1065,
      "Äįlanov": 1066,
      "projekt": 1067,
      "izgradnj": 1068,
      "njihovi": 1069,
      "veÄĩin": 1070,
      "finansijsk": 1071,
      "mor": 1072,
      "istovremen": 1073,
      "naÅ¡": 1074,
      "Å¾ivotn": 1075,
      "zakon": 1076,
      "odreÄĳeni": 1077,
      "âĢĿ": 1078,
      "zdravlj": 1079,
      "predsedni": 1080,
      "odrÅ¾avanj": 1081,
      "pojav": 1082,
      "pogled": 1083,
      "198": 1084,
      "realizacij": 1085,
      "knjig": 1086,
      "granic": 1087,
      "bezbednost": 1088,
      "odgovor": 1089,
      "iskljuÄįiv": 1090,
      "komentar": 1091,
      "koriÅ¡Äĩen": 1092,
      "pozicij": 1093,
      "pojedini": 1094,
      "odreÄĳivanj": 1095,
      "dogaÄĳaj": 1096,
      "snag": 1097,
      "opÅ¡tin": 1098,
      "korisnik": 1099,
      "autor": 1100,
      "interakcij": 1101,
      "direktn": 1102,
      "formiranj": 1103,
      "zajedniÄįk": 1104,
      "poslednj": 1105,
      "rezulta": 1106,
      "predsednik": 1107,
      "trenutk": 1108,
      "razumevanj": 1109,
      "utiÄį": 1110,
      "vek": 1111,
      "stvaranj": 1112,
      "reakcij": 1113,
      "literatur": 1114,
      "priÄį": 1115,
      "reka": 1116,
      "naveden": 1117,
      "sluÄįajev": 1118,
      "predmet": 1119,
      "mreÅ¾": 1120,
      "kuÄĩ": 1121,
      "proce": 1122,
      "sveg": 1123,
      "pozitivn": 1124,
      ".Ov": 1125,
      "Evropsk": 1126,
      "znaÄį": 1127,
      "interes": 1128,
      "odreÄĳeno": 1129,
      "put": 1130,
      "Äįlan": 1131,
      "mesec": 1132,
      "znaÄįaj": 1133,
      "osiguranj": 1134,
      "Å¾ivo": 1135,
      "dodatn": 1136,
      "razlog": 1137,
      "kontekst": 1138,
      "smatr": 1139,
      "sad": 1140,
      "aktivnos": 1141,
      "zaposleni": 1142,
      "sposobnost": 1143,
      "roditelj": 1144,
      "kriterijum": 1145,
      "sredstav": 1146,
      "pristup": 1147,
      "vaÅ¾n": 1148,
      "dobijen": 1149,
      "nastav": 1150,
      "poreÄĳenj": 1151,
      "omoguÄĩav": 1152,
      "slik": 1153,
      "ostali": 1154,
      "najmanj": 1155,
      "pore": 1156,
      "bolj": 1157,
      "sprovoÄĳenj": 1158,
      "iznos": 1159,
      "sadrÅ¾a": 1160,
      "zdravstven": 1161,
      "meÄĳunarodni": 1162,
      "jest": 1163,
      "uve": 1164,
      "milion": 1165,
      "relativn": 1166,
      "industrij": 1167,
      "konstrukcij": 1168,
      "njen": 1169,
      "glavn": 1170,
      "sluÄįajevim": 1171,
      "seb": 1172,
      "imat": 1173,
      "korelacij": 1174,
      "zajedn": 1175,
      "poznat": 1176,
      "svojo": 1177,
      "meÄĳunarodno": 1178,
      "pristu": 1179,
      "doprinos": 1180,
      "ugovor": 1181,
      "merenj": 1182,
      "element": 1183,
      "doÅ¡l": 1184,
      "202": 1185,
      "jedin": 1186,
      "njegovi": 1187,
      "koje": 1188,
      "dimenzij": 1189,
      "ukupn": 1190,
      "veliki": 1191,
      "uÄįenj": 1192,
      "politiÄįki": 1193,
      "ukljuÄįuj": 1194,
      "parametar": 1195,
      "utvrÄĳen": 1196,
      "novi": 1197,
      "Rusij": 1198,
      "Univerzitet": 1199,
      "moÅ¾em": 1200,
      "vlast": 1201,
      "Å¾ivotinj": 1202,
      "unapreÄĳenj": 1203,
      "paÅ¾nj": 1204,
      "kiselin": 1205,
      "fiziÄįk": 1206,
      "elemenat": 1207,
      "postaj": 1208,
      "fotografij": 1209,
      "objekt": 1210,
      "drÅ¾avn": 1211,
      "visok": 1212,
      "drugaÄįij": 1213,
      "slobod": 1214,
      "policij": 1215,
      "izveÅ¡taj": 1216,
      "javn": 1217,
      "izbor": 1218,
      "verovatn": 1219,
      "koristit": 1220,
      "stanovnik": 1221,
      "reÄį": 1222,
      "neÄĩ": 1223,
      "primenjuj": 1224,
      "povezan": 1225,
      "poboljÅ¡anj": 1226,
      "uÄįeÅ¡Äĩ": 1227,
      "Äįem": 1228,
      "ograniÄįenj": 1229,
      "primer": 1230,
      "potpunost": 1231,
      "teÅ¡k": 1232,
      "uspostavljanj": 1233,
      "razlikuj": 1234,
      "faz": 1235,
      "srednj": 1236,
      "kretanj": 1237,
      "delovanj": 1238,
      "negativn": 1239,
      "Tabel": 1240,
      "umetnost": 1241,
      "sv": 1242,
      "ciljev": 1243,
      "kriviÄįno": 1244,
      "predstavljen": 1245,
      "neki": 1246,
      "sliÄįn": 1247,
      "neko": 1248,
      "standard": 1249,
      "performans": 1250,
      "jasn": 1251,
      "narod": 1252,
      "Aleksanda": 1253,
      "zemalj": 1254,
      "radov": 1255,
      "lokaln": 1256,
      "jednostavn": 1257,
      "kombinacij": 1258,
      ".Ukolik": 1259,
      "197": 1260,
      "reÅ¡avanj": 1261,
      "operacij": 1262,
      "pravn": 1263,
      "poglavlj": 1264,
      ".Prem": 1265,
      "potencijaln": 1266,
      "trajanj": 1267,
      "tekst": 1268,
      "knjiÅ¾evnost": 1269,
      "funkcionisanj": 1270,
      "zemljam": 1271,
      "ond": 1272,
      "arhitektur": 1273,
      ".T": 1274,
      "njim": 1275,
      "koriÅ¡Äĩenje": 1276,
      "javno": 1277,
      "distribucij": 1278,
      "finansijski": 1279,
      "zati": 1280,
      "istiÄį": 1281,
      "cilj": 1282,
      "varijabl": 1283,
      "fakultet": 1284,
      "linij": 1285,
      "prosto": 1286,
      "utvrÄĳivanj": 1287,
      "pretpostavk": 1288,
      "jedinjenj": 1289,
      "mode": 1290,
      "objavljen": 1291,
      "svetsko": 1292,
      "pomoÄ": 1293,
      "specifiÄįn": 1294,
      "nedelj": 1295,
      "ostvarivanj": 1296,
      "rizik": 1297,
      "kulturn": 1298,
      "reprezentacij": 1299,
      "infrastruktur": 1300,
      "princip": 1301,
      "rat": 1302,
      "pute": 1303,
      "izuzetn": 1304,
      "izvor": 1305,
      "navedeni": 1306,
      "takv": 1307,
      "liÄįnost": 1308,
      "''": 1309,
      "isto": 1310,
      "nacionalno": 1311,
      "osnovni": 1312,
      "organ": 1313,
      "Kosov": 1314,
      "postupa": 1315,
      "sluÅ¾b": 1316,
      "dobij": 1317,
      "Vojvodin": 1318,
      "naÅ¡e": 1319,
      "parametr": 1320,
      "tradicionaln": 1321,
      "Srpsk": 1322,
      "kvalite": 1323,
      "planiranj": 1324,
      "kriviÄįn": 1325,
      "protein": 1326,
      "politiÄįko": 1327,
      "odbran": 1328,
      "dovod": 1329,
      "idej": 1330,
      "moÅ¾et": 1331,
      "transformacij": 1332,
      "znaÄįaja": 1333,
      "region": 1334,
      "njego": 1335,
      "kom": 1336,
      "zavis": 1337,
      "predstav": 1338,
      "prodaj": 1339,
      "primeno": 1340,
      "prisutn": 1341,
      "naselj": 1342,
      "Hercegovin": 1343,
      "bolesnik": 1344,
      "unutraÅ¡nj": 1345,
      "maksimaln": 1346,
      "ponov": 1347,
      "form": 1348,
      "duÅ¾in": 1349,
      "uÄįestvuj": 1350,
      "postal": 1351,
      "osobin": 1352,
      "priprem": 1353,
      "oÅ¡teÄĩenj": 1354,
      "poljoprivred": 1355,
      "meÄĳusobn": 1356,
      "odgovornost": 1357,
      "neposredn": 1358,
      "kapacitet": 1359,
      "ekonomij": 1360,
      "poslednji": 1361,
      "podatk": 1362,
      "ustanov": 1363,
      "nastavnik": 1364,
      "potroÅ¡aÄį": 1365,
      "poloÅ¾aj": 1366,
      "sluÄįa": 1367,
      "podac": 1368,
      "definisan": 1369,
      "ima": 1370,
      "meÄĳuti": 1371,
      "stepen": 1372,
      "donoÅ¡enj": 1373,
      "taÄįk": 1374,
      "druÅ¡tveno": 1375,
      "prirodn": 1376,
      "obiÄįn": 1377,
      "klasifikacij": 1378,
      "istraÅ¾ivanjim": 1379,
      "rast": 1380,
      "terapij": 1381,
      "znaÄįa": 1382,
      "pojedinaÄįn": 1383,
      "brzin": 1384,
      "moraj": 1385,
      "polj": 1386,
      "njeg": 1387,
      "eksperimentaln": 1388,
      "stavov": 1389,
      "vrednostim": 1390,
      "centr": 1391,
      ".00": 1392,
      ".On": 1393,
      "odgovarajuÄĩi": 1394,
      "194": 1395,
      "poslovn": 1396,
      "odreÄĳuj": 1397,
      "uzork": 1398,
      ".1": 1399,
      "nacionalni": 1400,
      "perio": 1401,
      "dobil": 1402,
      "definiÅ¡": 1403,
      "generacij": 1404,
      "10": 1405,
      "procedur": 1406,
      "vlad": 1407,
      "Ukrajin": 1408,
      "ranij": 1409,
      "poÄįel": 1410,
      ".O": 1411,
      "karakteristiÄįn": 1412,
      "uspeÅ¡n": 1413,
      "dobijeni": 1414,
      "proseÄįn": 1415,
      "prvenstv": 1416,
      "delov": 1417,
      "nezavisn": 1418,
      "tel": 1419,
      "obuhvat": 1420,
      "daj": 1421,
      "septembr": 1422,
      "zahvaljujuÄĩ": 1423,
      "saobraÄĩaj": 1424,
      "Äįovek": 1425,
      "unuta": 1426,
      "tehnik": 1427,
      "postavljen": 1428,
      "istorijsk": 1429,
      "potroÅ¡nj": 1430,
      "crkv": 1431,
      "buduÄĩ": 1432,
      "pojedinaÄįni": 1433,
      "vozil": 1434,
      "objekat": 1435,
      "akcij": 1436,
      ".I": 1437,
      "sposobnos": 1438,
      "zakljuÄįit": 1439,
      "proizvoÄĳaÄį": 1440,
      "predviÄĳen": 1441,
      "biÄĩ": 1442,
      "medij": 1443,
      "(200": 1444,
      "praktiÄįn": 1445,
      "odgovar": 1446,
      "prethodno": 1447,
      "skupÅ¡tin": 1448,
      "dokumentacij": 1449,
      "trenutn": 1450,
      "odgovo": 1451,
      "pacijent": 1452,
      "polovin": 1453,
      "ljudsk": 1454,
      "raÄįun": 1455,
      "sopstven": 1456,
      ".Kak": 1457,
      "njeno": 1458,
      "sektor": 1459,
      "ekspresij": 1460,
      "Äįeg": 1461,
      "investicij": 1462,
      "prilik": 1463,
      "rezultatim": 1464,
      "obezbeÄĳuj": 1465,
      "samo": 1466,
      "putovanj": 1467,
      "nauk": 1468,
      "gotov": 1469,
      "Å¾iv": 1470,
      "izvrÅ¡enj": 1471,
      "slobodn": 1472,
      "popu": 1473,
      "ameriÄįk": 1474,
      "konferencij": 1475,
      "Slik": 1476,
      "profesionaln": 1477,
      "optereÄĩenj": 1478,
      "leÄįenj": 1479,
      "tolik": 1480,
      "prenos": 1481,
      "zgrad": 1482,
      "visin": 1483,
      "196": 1484,
      "zaprav": 1485,
      "novo": 1486,
      "aplikacij": 1487,
      "delatnost": 1488,
      ".Kad": 1489,
      ".godin": 1490,
      "dinar": 1491,
      "praÄĩenj": 1492,
      "jugoslovensk": 1493,
      "utakmic": 1494,
      "sezon": 1495,
      ".Pore": 1496,
      "porekl": 1497,
      "opÅ¡t": 1498,
      "ostvaruj": 1499,
      "identitet": 1500,
      "resurs": 1501,
      "diskriminacij": 1502,
      "tradicij": 1503,
      "ispitivani": 1504,
      "borb": 1505,
      "MeÄĳuti": 1506,
      "definicij": 1507,
      "odgovornos": 1508,
      "godiÅ¡nj": 1509,
      "poÄįinj": 1510,
      "finansiranj": 1511,
      "imovin": 1512,
      "interesovanj": 1513,
      "nasilj": 1514,
      "takmiÄįenj": 1515,
      ".Rezultat": 1516,
      "identifikacij": 1517,
      "strank": 1518,
      "vremensk": 1519,
      "perspektiv": 1520,
      "podacim": 1521,
      "moÅ¾d": 1522,
      "pojavljuj": 1523,
      "niÅ¡t": 1524,
      "verovatnoÄĩ": 1525,
      "izvoÄĳenj": 1526,
      "intervencij": 1527,
      "hran": 1528,
      "nauÄįn": 1529,
      "ukupno": 1530,
      ".Nako": 1531,
      "lokacij": 1532,
      "nastal": 1533,
      "liÄįn": 1534,
      "uopÅ¡t": 1535,
      "tabel": 1536,
      "poÅ¡t": 1537,
      "vrÅ¡": 1538,
      "usle": 1539,
      "moga": 1540,
      "tok": 1541,
      "prethodni": 1542,
      "karakter": 1543,
      "otvoren": 1544,
      "karakteriÅ¡": 1545,
      "nastaj": 1546,
      "privred": 1547,
      "integracij": 1548,
      "smatraj": 1549,
      "zadovoljstv": 1550,
      "NemaÄįk": 1551,
      "zabeleÅ¾en": 1552,
      "predme": 1553,
      "radnj": 1554,
      "objavljivanj": 1555,
      ".Z": 1556,
      "minut": 1557,
      "tretman": 1558,
      "implementacij": 1559,
      "javnost": 1560,
      "inostranstv": 1561,
      "efikasnost": 1562,
      "elektriÄįn": 1563,
      ".Ka": 1564,
      "kljuÄįn": 1565,
      "Hrvatsk": 1566,
      "vrl": 1567,
      "zaposlen": 1568,
      "pojedinc": 1569,
      "aspekt": 1570,
      "poseduj": 1571,
      "poremeÄĩaj": 1572,
      "nagrad": 1573,
      "obrad": 1574,
      "list": 1575,
      ".Tak": 1576,
      "savremen": 1577,
      "izrad": 1578,
      "ljudski": 1579,
      "unutraÅ¡nji": 1580,
      "tim": 1581,
      "svojstv": 1582,
      "buduÄĩnost": 1583,
      "materij": 1584,
      "(201": 1585,
      "Äįlanic": 1586,
      "radn": 1587,
      "predstavnik": 1588,
      "jedinstven": 1589,
      "tad": 1590,
      "centraln": 1591,
      "savremeno": 1592,
      "tem": 1593,
      "serij": 1594,
      "prirodni": 1595,
      "povred": 1596,
      "izvrÅ¡en": 1597,
      "jezi": 1598,
      "objaÅ¡njenj": 1599,
      "efekt": 1600,
      "kapital": 1601,
      "progra": 1602,
      "dat": 1603,
      "potencijal": 1604,
      "jednaÄįin": 1605,
      "ponud": 1606,
      "uÄįestvoval": 1607,
      "svakak": 1608,
      "aktivn": 1609,
      "celin": 1610,
      "smanjuj": 1611,
      "pomenut": 1612,
      "odluÄįivanj": 1613,
      "reÄ": 1614,
      "sigurn": 1615,
      "drÅ¾avni": 1616,
      "objaÅ¡njav": 1617,
      "niv": 1618,
      "javni": 1619,
      "vojsk": 1620,
      "tumaÄįenj": 1621,
      "zasnovan": 1622,
      "oktobr": 1623,
      "tehniÄįk": 1624,
      "Republic": 1625,
      "raspodel": 1626,
      "reÄįim": 1627,
      "poÄįetko": 1628,
      "naÅ¡i": 1629,
      ".Ak": 1630,
      "definisanj": 1631,
      "iak": 1632,
      "inicijativ": 1633,
      "trgovin": 1634,
      "vezan": 1635,
      "srpski": 1636,
      "sastoj": 1637,
      "manifestacij": 1638,
      "prvenstven": 1639,
      "Francusk": 1640,
      "Zakon": 1641,
      "potvrÄĳuj": 1642,
      "ekonomsko": 1643,
      "agencij": 1644,
      "samouprav": 1645,
      "turistiÄįk": 1646,
      "stranic": 1647,
      "godinam": 1648,
      "funkcionaln": 1649,
      "Å¡tet": 1650,
      "Å¾el": 1651,
      "poveÄĩav": 1652,
      "njiho": 1653,
      "varijant": 1654,
      "najvaÅ¾nij": 1655,
      "kompleks": 1656,
      "reÄįenic": 1657,
      "decenij": 1658,
      "predstavljal": 1659,
      "komisij": 1660,
      "interpretacij": 1661,
      "koeficijent": 1662,
      "karijer": 1663,
      "greÅ¡k": 1664,
      "izgled": 1665,
      ".S": 1666,
      ".Naim": 1667,
      "Äįove": 1668,
      "prijatelj": 1669,
      "ograniÄįen": 1670,
      "samostaln": 1671,
      "Äįestic": 1672,
      "Novo": 1673,
      "stepe": 1674,
      "znatn": 1675,
      "konkurencij": 1676,
      "-a": 1677,
      "veÅ¡tin": 1678,
      "radnik": 1679,
      "poslovni": 1680,
      "postojeÄĩi": 1681,
      "evropski": 1682,
      "skor": 1683,
      "igr": 1684,
      "supstanc": 1685,
      "organizacion": 1686,
      "poÅ¡tovanj": 1687,
      "oÄįekuj": 1688,
      "tip": 1689,
      "istraÅ¾ivaÄį": 1690,
      "Aleksandr": 1691,
      "ispitanic": 1692,
      "oni": 1693,
      "decembr": 1694,
      "zat": 1695,
      "naziv": 1696,
      "prouÄįavanj": 1697,
      "partij": 1698,
      "obavljanj": 1699,
      "standardn": 1700,
      "sastav": 1701,
      "dejstv": 1702,
      "evropsk": 1703,
      "organizovan": 1704,
      "ljudim": 1705,
      "infekcij": 1706,
      "pritisk": 1707,
      "uzorak": 1708,
      "obzir": 1709,
      "treÄĩ": 1710,
      "postojeÄĩ": 1711,
      "pojedin": 1712,
      "produkcij": 1713,
      "stanoviÅ¡t": 1714,
      "naknad": 1715,
      "konaÄįn": 1716,
      "elektronsk": 1717,
      "dostupn": 1718,
      "nikad": 1719,
      "brojn": 1720,
      "1.": 1721,
      "razgovor": 1722,
      "sel": 1723,
      "VuÄįiÄ": 1724,
      "postojal": 1725,
      "pokret": 1726,
      "aktivnostim": 1727,
      "struÄįn": 1728,
      "cil": 1729,
      "lokalitet": 1730,
      "poloÅ¾a": 1731,
      "pokazatelj": 1732,
      "odredb": 1733,
      "ekonomski": 1734,
      "poljoprivredn": 1735,
      "pesm": 1736,
      "195": 1737,
      "svakodnevn": 1738,
      "karakteristikam": 1739,
      "udruÅ¾enj": 1740,
      "th": 1741,
      "obli": 1742,
      "mnogi": 1743,
      "finansijsko": 1744,
      "milijard": 1745,
      "zapoÅ¡ljavanj": 1746,
      "zakono": 1747,
      "delimiÄįn": 1748,
      "stop": 1749,
      ".Sv": 1750,
      "kolaÄįiÄĩ": 1751,
      "oprem": 1752,
      "lokalni": 1753,
      "frekvencij": 1754,
      "Vlad": 1755,
      "pruÅ¾": 1756,
      "vazduh": 1757,
      "donos": 1758,
      "boj": 1759,
      ".D": 1760,
      "poto": 1761,
      "razmatranj": 1762,
      "moÄĩ": 1763,
      "automobil": 1764,
      "situacijam": 1765,
      "odgovorn": 1766,
      "novembr": 1767,
      "Evropsko": 1768,
      "potencija": 1769,
      ".Iak": 1770,
      "efikasnos": 1771,
      "kakv": 1772,
      "Velik": 1773,
      "uvoÄĳenj": 1774,
      "bezbednos": 1775,
      "englesko": 1776,
      "materijaln": 1777,
      "drÅ¾avno": 1778,
      "bank": 1779,
      "svetsk": 1780,
      "rastvor": 1781,
      "glav": 1782,
      "prikupljanj": 1783,
      "materija": 1784,
      "ureÄĳaj": 1785,
      "poverenj": 1786,
      "izdanj": 1787,
      "prikazuj": 1788,
      "mas": 1789,
      "radno": 1790,
      "dokument": 1791,
      "izraÅ¾en": 1792,
      "kriviÄįni": 1793,
      "ostaj": 1794,
      "ovlaÅ¡Äĩenj": 1795,
      "javlj": 1796,
      "efeka": 1797,
      "kontroln": 1798,
      "tekstov": 1799,
      "obezbeÄĳenj": 1800,
      "Rezultat": 1801,
      "muÅ¡karc": 1802,
      "plaÄĩanj": 1803,
      "eksperimentalni": 1804,
      "sproveden": 1805,
      "zvaniÄįn": 1806,
      "Italij": 1807,
      "testiranj": 1808,
      "njem": 1809,
      "Äĩem": 1810,
      "ovd": 1811,
      "proÅ¡l": 1812,
      "bibliotek": 1813,
      "Makedonij": 1814,
      "plan": 1815,
      "uÄįenic": 1816,
      "pravc": 1817,
      "proÅ¡lost": 1818,
      "zajedniÄįko": 1819,
      "staln": 1820,
      ".Ova": 1821,
      "primarn": 1822,
      "vrat": 1823,
      "obavezn": 1824,
      "SkupÅ¡tin": 1825,
      "Å¡iro": 1826,
      "poruk": 1827,
      ".Prv": 1828,
      "klas": 1829,
      "energetsk": 1830,
      "postavljanj": 1831,
      "narodn": 1832,
      "ukljuÄįen": 1833,
      "koncept": 1834,
      "nemaj": 1835,
      "detet": 1836,
      "intenzitet": 1837,
      "kazn": 1838,
      "koristil": 1839,
      "registrovan": 1840,
      "ï¿": 1841,
      "Äįla": 1842,
      "dozvol": 1843,
      "nadleÅ¾nost": 1844,
      "javljaj": 1845,
      "ishran": 1846,
      "znaÄįajni": 1847,
      "propisan": 1848,
      "metodologij": 1849,
      "uÄįesnik": 1850,
      "shvatanj": 1851,
      "savremeni": 1852,
      "mehanizm": 1853,
      "193": 1854,
      "prihod": 1855,
      "dobijanj": 1856,
      "normaln": 1857,
      "ocen": 1858,
      "posa": 1859,
      "zaist": 1860,
      "visoko": 1861,
      "projektovanj": 1862,
      "okolnost": 1863,
      "muzik": 1864,
      "verzij": 1865,
      "proizvo": 1866,
      "pozoriÅ¡t": 1867,
      "individualn": 1868,
      "spreÄįavanj": 1869,
      "sporazum": 1870,
      "pripadaj": 1871,
      "rekonstrukcij": 1872,
      "majk": 1873,
      "adekvatn": 1874,
      "JovanoviÄ": 1875,
      "191": 1876,
      "star": 1877,
      "prilagoÄĳavanj": 1878,
      "sprovod": 1879,
      "Narodn": 1880,
      "privatn": 1881,
      "oÄįuvanj": 1882,
      "navedeno": 1883,
      "vlasniÅ¡tv": 1884,
      "eksperiment": 1885,
      "manastir": 1886,
      "Nov": 1887,
      "sasvi": 1888,
      "filozofij": 1889,
      "gradov": 1890,
      "redovn": 1891,
      "januar": 1892,
      "predstavnic": 1893,
      "privredn": 1894,
      "Äįim": 1895,
      "orijentacij": 1896,
      "prijav": 1897,
      "analiziran": 1898,
      "povezanos": 1899,
      "sledeÄĩi": 1900,
      "primenjen": 1901,
      "socijalno": 1902,
      "medicinsk": 1903,
      "lokalno": 1904,
      "projeka": 1905,
      "posta": 1906,
      "pripad": 1907,
      "deluj": 1908,
      "hipotez": 1909,
      "kompetencij": 1910,
      "statu": 1911,
      "doktorsk": 1912,
      "menadÅ¾ment": 1913,
      "emisij": 1914,
      "fakto": 1915,
      "MeÄĳunarodn": 1916,
      "apsolutn": 1917,
      "odst": 1918,
      "konkretn": 1919,
      "najveÄĩi": 1920,
      "studenat": 1921,
      "prelaz": 1922,
      "sami": 1923,
      "stvarn": 1924,
      "hiljad": 1925,
      "potvrÄĳen": 1926,
      "umest": 1927,
      "vremensko": 1928,
      "ipa": 1929,
      "ispitivan": 1930,
      "nit": 1931,
      "okolin": 1932,
      "fakulte": 1933,
      "kupovin": 1934,
      "posebni": 1935,
      "pravno": 1936,
      "baz": 1937,
      "industrijsk": 1938,
      "ispo": 1939,
      "domaÄĩi": 1940,
      "dobi": 1941,
      "umetniÄįk": 1942,
      ".Slik": 1943,
      "nastank": 1944,
      "Britanij": 1945,
      "specifiÄįni": 1946,
      "oznaÄįav": 1947,
      "stanic": 1948,
      "generaln": 1949,
      "funkcioniÅ¡": 1950,
      "vojn": 1951,
      "odeljenj": 1952,
      "pravoslavn": 1953,
      "ozbiljn": 1954,
      "napad": 1955,
      "sajt": 1956,
      "vaspitanj": 1957,
      "univerzitet": 1958,
      "svrh": 1959,
      "prostorij": 1960,
      "Å¡es": 1961,
      "radi": 1962,
      "kulturno": 1963,
      "dominantn": 1964,
      "TakoÄĳ": 1965,
      "jednak": 1966,
      "promenljiv": 1967,
      "avgust": 1968,
      "Gor": 1969,
      "brojni": 1970,
      "sud": 1971,
      "nedovoljn": 1972,
      "domaÄĩinstv": 1973,
      "Å¾elj": 1974,
      "februar": 1975,
      "disciplin": 1976,
      "postizanj": 1977,
      "omoguÄĩavaj": 1978,
      "sopstveno": 1979,
      "postavlj": 1980,
      "kriz": 1981,
      "zaÅ¡t": 1982,
      "projekat": 1983,
      "zdravstveno": 1984,
      "traÅ¾": 1985,
      "obzi": 1986,
      "nemaÄįk": 1987,
      ".Drug": 1988,
      "osi": 1989,
      "videt": 1990,
      "zdravstveni": 1991,
      "koriÅ¡Äĩe": 1992,
      "sil": 1993,
      "najznaÄįajnij": 1994,
      "tendencij": 1995,
      "minimaln": 1996,
      "oÄįigledn": 1997,
      "teorijsk": 1998,
      "zastupljen": 1999,
      "demokratij": 2000,
      "zadata": 2001,
      "procena": 2002,
      "ovakv": 2003,
      "predstavljanj": 2004,
      "zahte": 2005,
      "192": 2006,
      "tkiv": 2007,
      "prikaza": 2008,
      "nedostata": 2009,
      "osnovno": 2010,
      "pokuÅ¡aj": 2011,
      "glasni": 2012,
      "odma": 2013,
      "signal": 2014,
      "koeficijen": 2015,
      ".201": 2016,
      "Prem": 2017,
      "posmatran": 2018,
      "poveÄĩan": 2019,
      "automatsk": 2020,
      "unij": 2021,
      "centa": 2022,
      "poljoprivredni": 2023,
      "izvo": 2024,
      "zakljuÄįa": 2025,
      "doprino": 2026,
      "smrt": 2027,
      "SluÅ¾ben": 2028,
      "podel": 2029,
      "organizacijam": 2030,
      "molekul": 2031,
      "informisanj": 2032,
      "ÄįeÅ¡Äĩ": 2033,
      "radni": 2034,
      "efikasn": 2035,
      "platform": 2036,
      "administracij": 2037,
      "indikator": 2038,
      "zakljuÄįuj": 2039,
      "prednost": 2040,
      "Ov": 2041,
      "kreiranj": 2042,
      "ostvarenj": 2043,
      "simptom": 2044,
      "destinacij": 2045,
      "nedostatk": 2046,
      "kandidat": 2047,
      "otvaranj": 2048,
      "jo": 2049,
      ".Zbo": 2050,
      "uticaje": 2051,
      "bitn": 2052,
      "elektronsko": 2053,
      "opisuj": 2054,
      "omoguÄĩil": 2055,
      "bakterij": 2056,
      "dost": 2057,
      "glagol": 2058,
      "blizin": 2059,
      "muÅ¡karac": 2060,
      "potraÅ¾ivanj": 2061,
      "preÅ¾ivljavanj": 2062,
      "saradnic": 2063,
      "direktor": 2064,
      "kulturni": 2065,
      "struj": 2066,
      "privatno": 2067,
      "instrument": 2068,
      "poÄįeta": 2069,
      "slic": 2070,
      "evr": 2071,
      "student": 2072,
      "pruÅ¾anj": 2073,
      "nikakv": 2074,
      "taÄįn": 2075,
      "Äįasov": 2076,
      "sat": 2077,
      "pravni": 2078,
      "raspolaganj": 2079,
      "organizovanj": 2080,
      "reÄĩ": 2081,
      "pritisa": 2082,
      "povezivanj": 2083,
      "Nikol": 2084,
      "roman": 2085,
      "ras": 2086,
      "odnosim": 2087,
      "inteligencij": 2088,
      "uobiÄįajen": 2089,
      ".Ipa": 2090,
      "prostorn": 2091,
      "Bosn": 2092,
      "april": 2093,
      "domen": 2094,
      "televizij": 2095,
      "ulaganj": 2096,
      "ulic": 2097,
      "domaÄĩ": 2098,
      "razvijen": 2099,
      "vide": 2100,
      "takvi": 2101,
      "rekl": 2102,
      "visoki": 2103,
      "direkto": 2104,
      "sukob": 2105,
      "suÅ¡tin": 2106,
      "subjekt": 2107,
      "organizuj": 2108,
      "prat": 2109,
      "knjiÅ¾evn": 2110,
      "dovel": 2111,
      "dalek": 2112,
      "minista": 2113,
      "jak": 2114,
      "rusk": 2115,
      "atmosfer": 2116,
      "odstupanj": 2117,
      "nauÄįni": 2118,
      "fiziÄįko": 2119,
      "usmeren": 2120,
      "ostalo": 2121,
      "uspe": 2122,
      "starost": 2123,
      "nisa": 2124,
      "misl": 2125,
      "privremen": 2126,
      "propis": 2127,
      "interne": 2128,
      "obezbed": 2129,
      "razvij": 2130,
      "nacij": 2131,
      "razmiÅ¡ljanj": 2132,
      "ciklus": 2133,
      "istin": 2134,
      "veÄĩi": 2135,
      "investitor": 2136,
      "zakonodavstv": 2137,
      "igraÄį": 2138,
      "Doktorsk": 2139,
      "pregle": 2140,
      "revolucij": 2141,
      ".Al": 2142,
      "slobodno": 2143,
      "bolnic": 2144,
      "komercijaln": 2145,
      "statistik": 2146,
      "ugovo": 2147,
      "dozvoljen": 2148,
      "informacijam": 2149,
      "pobed": 2150,
      "okolnostim": 2151,
      "poslovno": 2152,
      "strani": 2153,
      "oblastim": 2154,
      "francusk": 2155,
      "Å¡irenj": 2156,
      "prvi": 2157,
      "njeni": 2158,
      "dug": 2159,
      "naÅ¡o": 2160,
      "teren": 2161,
      "socijalni": 2162,
      "potiÄį": 2163,
      "zon": 2164,
      "zatvor": 2165,
      "test": 2166,
      "zraÄįenj": 2167,
      "izjavi": 2168,
      "motivacij": 2169,
      "imam": 2170,
      "osnivanj": 2171,
      ")*": 2172,
      "koncep": 2173,
      "istraÅ¾ivaÄįk": 2174,
      "poÄįe": 2175,
      "(Slik": 2176,
      "Nako": 2177,
      "radil": 2178,
      "moj": 2179,
      "kreÄĩ": 2180,
      "portal": 2181,
      "ministarstv": 2182,
      "iznosil": 2183,
      "brz": 2184,
      "preporuk": 2185,
      "bav": 2186,
      "piÅ¡": 2187,
      ".Tabel": 2188,
      "(Tabel": 2189,
      "posveÄĩen": 2190,
      "teÅ¾in": 2191,
      "partner": 2192,
      "moral": 2193,
      "ljudsko": 2194,
      "glavno": 2195,
      "priznanj": 2196,
      "pripadnik": 2197,
      ".Postoj": 2198,
      "poveÄĩanje": 2199,
      "najverovatnij": 2200,
      "usvajanj": 2201,
      "bism": 2202,
      "izbo": 2203,
      "zakljuÄįk": 2204,
      "potrebam": 2205,
      "odsustv": 2206,
      "treÄĩe": 2207,
      "karakte": 2208,
      "oÄįekivanj": 2209,
      "percepcij": 2210,
      "internet": 2211,
      "sankcij": 2212,
      "nastavni": 2213,
      "Institut": 2214,
      "kog": 2215,
      "pol": 2216,
      "biljak": 2217,
      "Kraljevin": 2218,
      "stabilnos": 2219,
      "naravn": 2220,
      "kritik": 2221,
      "zavrÅ¡etk": 2222,
      "modifikacij": 2223,
      "ukljuÄįivanj": 2224,
      "pregled": 2225,
      "izna": 2226,
      "eventualn": 2227,
      "lak": 2228,
      "pokuÅ¡a": 2229,
      "izveÅ¡tavanj": 2230,
      "odgovaraj": 2231,
      "obeleÅ¾j": 2232,
      "srednje": 2233,
      "usavrÅ¡avanj": 2234,
      "razni": 2235,
      "potencijalni": 2236,
      "smatrat": 2237,
      "detaljn": 2238,
      "snabdevanj": 2239,
      "globaln": 2240,
      "analizo": 2241,
      "reÅ¾im": 2242,
      "dokaz": 2243,
      "izraz": 2244,
      "regionaln": 2245,
      "eksploatacij": 2246,
      "presud": 2247,
      "Å¾ivotno": 2248,
      "turizm": 2249,
      "namer": 2250,
      "Balkan": 2251,
      "starij": 2252,
      "specijaln": 2253,
      "promenam": 2254,
      "tradicionalni": 2255,
      "kanal": 2256,
      "gustin": 2257,
      "reform": 2258,
      "veÄĩe": 2259,
      ".Dakl": 2260,
      "oseÄĩanj": 2261,
      "poslednje": 2262,
      "mladi": 2263,
      "Hrvatsko": 2264,
      "misli": 2265,
      "muziÄįk": 2266,
      "stvarnost": 2267,
      "telefon": 2268,
      "izlaganj": 2269,
      "mlad": 2270,
      "centralno": 2271,
      "saznanj": 2272,
      "organizm": 2273,
      "kampanj": 2274,
      "Internationa": 2275,
      ".2": 2276,
      "tvrd": 2277,
      "znaÄįajno": 2278,
      "pisanj": 2279,
      "istraÅ£ivanj": 2280,
      "Äįasopis": 2281,
      "prirodno": 2282,
      "dnevn": 2283,
      "status": 2284,
      "vladavin": 2285,
      "suÅ¡tinsk": 2286,
      "pozitivni": 2287,
      "stabilnost": 2288,
      "porodiÄįn": 2289,
      "sluÅ¾": 2290,
      "sudij": 2291,
      "novc": 2292,
      "naro": 2293,
      "komenta": 2294,
      "plat": 2295,
      "2.": 2296,
      "akademij": 2297,
      "SA": 2298,
      "razlo": 2299,
      "uzrast": 2300,
      "napisa": 2301,
      "priliÄįn": 2302,
      "sistemim": 2303,
      "optimizacij": 2304,
      "Å¡irok": 2305,
      "uklanjanj": 2306,
      "delovim": 2307,
      "redakcij": 2308,
      "zvezd": 2309,
      "isti": 2310,
      "potvrd": 2311,
      "izmen": 2312,
      "poset": 2313,
      "ameriÄįko": 2314,
      ".r": 2315,
      "administrativn": 2316,
      "zabran": 2317,
      "kontakt": 2318,
      ".IstraÅ¾ivanj": 2319,
      "ekoloÅ¡k": 2320,
      "matric": 2321,
      "konkretno": 2322,
      "zajedniÄįki": 2323,
      "relacij": 2324,
      "privredno": 2325,
      "ravnoteÅ¾": 2326,
      "vlas": 2327,
      "danaÅ¡nj": 2328,
      "oruÅ¾j": 2329,
      "Å¡ir": 2330,
      "ministr": 2331,
      "korupcij": 2332,
      "Å¡kolsk": 2333,
      "lekov": 2334,
      "prihvatanj": 2335,
      "cilje": 2336,
      "stvaralaÅ¡tv": 2337,
      "ispre": 2338,
      "niÅ¾": 2339,
      "otvoreno": 2340,
      "dobijaj": 2341,
      "Sarajev": 2342,
      "graÄĳevinsk": 2343,
      "naÄįel": 2344,
      "prihvat": 2345,
      "razmen": 2346,
      "12": 2347,
      "knjiÅ¾evnos": 2348,
      "maÅ¡in": 2349,
      "nepokretnost": 2350,
      "predviÄĳanj": 2351,
      "Slovenij": 2352,
      "prevencij": 2353,
      "glavni": 2354,
      "koÅ¾": 2355,
      "upuÄĩuj": 2356,
      "imen": 2357,
      "oÄįekivan": 2358,
      "duÅ¾nost": 2359,
      "kljuÄįni": 2360,
      "Metohij": 2361,
      "tuÅ¾ilaÅ¡tv": 2362,
      "postrojenj": 2363,
      "privatizacij": 2364,
      "eksperimentalno": 2365,
      "predlo": 2366,
      ".Svak": 2367,
      "izjav": 2368,
      "11": 2369,
      "digitaln": 2370,
      ".N": 2371,
      "alternativ": 2372,
      "skladiÅ¡tenj": 2373,
      "istorijski": 2374,
      "prednos": 2375,
      "prepoznaj": 2376,
      "pomaÅ¾": 2377,
      "identite": 2378,
      "NemaÄįko": 2379,
      "prezentacij": 2380,
      "povodo": 2381,
      "zainteresovan": 2382,
      "kliniÄįk": 2383,
      "drÅ¾avam": 2384,
      "mart": 2385,
      ".0": 2386,
      "metodo": 2387,
      "utical": 2388,
      "pribliÅ¾n": 2389,
      "ruk": 2390,
      "relevantn": 2391,
      "ureÄĳenj": 2392,
      "profeso": 2393,
      "poneka": 2394,
      "predlog": 2395,
      "knjiÅ¾evno": 2396,
      "pitanjim": 2397,
      "izloÅ¾en": 2398,
      "firm": 2399,
      "oblas": 2400,
      "imenic": 2401,
      "rasprav": 2402,
      "pretpostavlj": 2403,
      "stoj": 2404,
      "doÄĳ": 2405,
      "prover": 2406,
      "postan": 2407,
      "evropsko": 2408,
      "planov": 2409,
      "medicin": 2410,
      "tehnoloÅ¡k": 2411,
      "Prv": 2412,
      "angaÅ¾ovanj": 2413,
      "dolar": 2414,
      "kontinuiran": 2415,
      "podrazumevaj": 2416,
      "naredni": 2417,
      "zloupotreb": 2418,
      "planin": 2419,
      "Nacionaln": 2420,
      "celo": 2421,
      "spoljaÅ¡nj": 2422,
      "saglasnost": 2423,
      "zapremin": 2424,
      "nastavk": 2425,
      "zakonsk": 2426,
      "sopstveni": 2427,
      "prepoznavanj": 2428,
      "interval": 2429,
      "intelektualn": 2430,
      "podstiÄį": 2431,
      "scen": 2432,
      "zadatk": 2433,
      "kredit": 2434,
      "sreÄĩ": 2435,
      "(199": 2436,
      "nos": 2437,
      "izdavanj": 2438,
      "buduÄĩnos": 2439,
      "izveden": 2440,
      "sintez": 2441,
      "profesor": 2442,
      "vremeno": 2443,
      "zadatak": 2444,
      "190": 2445,
      "pokaza": 2446,
      "saopÅ¡tenj": 2447,
      "novinar": 2448,
      "oseÄĩa": 2449,
      "trudnoÄĩ": 2450,
      "karcinom": 2451,
      "film": 2452,
      "izraÅ¾avanj": 2453,
      ".Toko": 2454,
      "varijacij": 2455,
      "pregovor": 2456,
      "dobit": 2457,
      "obezbeÄĳivanj": 2458,
      "kraje": 2459,
      "vaÅ¡": 2460,
      "Äįitanj": 2461,
      "transakcij": 2462,
      "oboljenj": 2463,
      ".Åłt": 2464,
      "pun": 2465,
      "obrazovn": 2466,
      "rizi": 2467,
      "zarad": 2468,
      "odreÄĳe": 2469,
      "privredni": 2470,
      "Drugo": 2471,
      "koristeÄĩ": 2472,
      "prika": 2473,
      "naredno": 2474,
      "rok": 2475,
      "struÄįno": 2476,
      "mali": 2477,
      "Sjedinjeni": 2478,
      "nazivo": 2479,
      "saglasnos": 2480,
      "tam": 2481,
      "pomenuti": 2482,
      "celokupn": 2483,
      "hemijsk": 2484,
      "ideologij": 2485,
      "moment": 2486,
      ".Osnovn": 2487,
      "srednji": 2488,
      "cel": 2489,
      "zavrÅ¡i": 2490,
      "struÄįnjak": 2491,
      "semantiÄįk": 2492,
      "budÅ¾et": 2493,
      "profesionalno": 2494,
      "upotrebo": 2495,
      "istorijsko": 2496,
      "ulaz": 2497,
      "1,": 2498,
      "zasniv": 2499,
      "Vladimi": 2500,
      "razvijanj": 2501,
      "Crn": 2502,
      "takvo": 2503,
      "specifiÄįnost": 2504,
      "nasleÄĳ": 2505,
      "nabavk": 2506,
      "preporuÄįuj": 2507,
      "opozicij": 2508,
      "negativni": 2509,
      "neposredno": 2510,
      "istaka": 2511,
      "par": 2512,
      "Poruk": 2513,
      "odgovarajuÄĩe": 2514,
      ".NajveÄĩ": 2515,
      "avion": 2516,
      "posebno": 2517,
      "jeziÄįk": 2518,
      "vremenski": 2519,
      "problemim": 2520,
      "elektronski": 2521,
      "sredstvim": 2522,
      ".A": 2523,
      "kvalifikacij": 2524,
      "selekcij": 2525,
      "finansij": 2526,
      "dovest": 2527,
      "komplikacij": 2528,
      "grupam": 2529,
      "termin": 2530,
      "saradnik": 2531,
      "kompozicij": 2532,
      "konvencij": 2533,
      "italijansk": 2534,
      "proÅ¡irenj": 2535,
      "izveÅ¡ta": 2536,
      "realizuj": 2537,
      "vrednovanj": 2538,
      "det": 2539,
      "PetroviÄ": 2540,
      "konstantn": 2541,
      "zamen": 2542,
      "taka": 2543,
      "devojÄįic": 2544,
      "jugoslovensko": 2545,
      "poljoprivredno": 2546,
      "spremn": 2547,
      "mehaniza": 2548,
      "tehniÄįki": 2549,
      "uspel": 2550,
      "svakodnevno": 2551,
      "sumnj": 2552,
      "opÅ¡te": 2553,
      "delatnos": 2554,
      "povezuj": 2555,
      "obavlj": 2556,
      "Univerzite": 2557,
      "trÅ¾iÅ¡n": 2558,
      "sluÅ¾benik": 2559,
      "metal": 2560,
      "Å¾ensk": 2561,
      "odrÅ¾an": 2562,
      "indeks": 2563,
      "tipov": 2564,
      "identifikovan": 2565,
      "Å¾rtv": 2566,
      "pozitiva": 2567,
      "odbor": 2568,
      "preuzimanj": 2569,
      "skup": 2570,
      "formaln": 2571,
      "dokumenat": 2572,
      "poja": 2573,
      "sudov": 2574,
      "it": 2575,
      "dakl": 2576,
      "deÅ¡av": 2577,
      "kontroliÅ¡": 2578,
      "razliÄįito": 2579,
      "bivÅ¡": 2580,
      "pretnj": 2581,
      "najbolji": 2582,
      "nastavlj": 2583,
      "informacion": 2584,
      "institucijam": 2585,
      "ubistv": 2586,
      "fiziÄįki": 2587,
      "pogreÅ¡n": 2588,
      "utvrÄĳuj": 2589,
      "turistiÄįki": 2590,
      "postupanj": 2591,
      "namenjen": 2592,
      "telesn": 2593,
      "Äĩelijam": 2594,
      "adres": 2595,
      "koordinacij": 2596,
      "zabranjen": 2597,
      "korisnicim": 2598,
      "koncentracijam": 2599,
      "opcij": 2600,
      "postepen": 2601,
      "pojmov": 2602,
      "doba": 2603,
      "otkrivanj": 2604,
      "nemaÄįko": 2605,
      "transport": 2606,
      "njo": 2607,
      "strateÅ¡k": 2608,
      "sled": 2609,
      "prolaz": 2610,
      "metar": 2611,
      "regulacij": 2612,
      "izloÅ¾b": 2613,
      "sportsk": 2614,
      "tradicionalno": 2615,
      "povezanost": 2616,
      "Godin": 2617,
      "potvrdil": 2618,
      "pravd": 2619,
      "Srb": 2620,
      "segment": 2621,
      "ljubav": 2622,
      "poÄįetn": 2623,
      "unutraÅ¡nje": 2624,
      "postiÅ¾": 2625,
      "zavrÅ¡il": 2626,
      "tvrdnj": 2627,
      "varijans": 2628,
      "medijim": 2629,
      "gubitk": 2630,
      "Sveto": 2631,
      "zavisn": 2632,
      "ogled": 2633,
      "formiran": 2634,
      "izrazit": 2635,
      "(slik": 2636,
      "parlament": 2637,
      "predloÅ¾en": 2638,
      "rek": 2639,
      "publik": 2640,
      "teks": 2641,
      "nadleÅ¾n": 2642,
      "izazov": 2643,
      "bioloÅ¡k": 2644,
      "ostvaril": 2645,
      "vaÅ¾nost": 2646,
      "uÄįenicim": 2647,
      "seda": 2648,
      "duÅ¾": 2649,
      "globalno": 2650,
      "izraÄįunat": 2651,
      "PriÅ¡tin": 2652,
      "francusko": 2653,
      "Drug": 2654,
      "sasta": 2655,
      "posmatranj": 2656,
      "pominj": 2657,
      "pokazan": 2658,
      "nalazil": 2659,
      "pravo": 2660,
      "pravilim": 2661,
      "ovakvi": 2662,
      "rob": 2663,
      "simulacij": 2664,
      "lakÅ¡": 2665,
      "MaÄĳarsk": 2666,
      "studijam": 2667,
      "sednic": 2668,
      "sediÅ¡t": 2669,
      "operativn": 2670,
      "rehabilitacij": 2671,
      "baÅ": 2672,
      "diferencijacij": 2673,
      "porez": 2674,
      "oznaÄįen": 2675,
      "modern": 2676,
      "evidencij": 2677,
      "Austrij": 2678,
      "intenzivn": 2679,
      "evaluacij": 2680,
      "naglaÅ¡av": 2681,
      "menadÅ¾er": 2682,
      "Francusko": 2683,
      "posmatrat": 2684,
      "asocijacij": 2685,
      "3.": 2686,
      "15": 2687,
      "Kad": 2688,
      ".Jeda": 2689,
      "najveÄĩe": 2690,
      "detalj": 2691,
      "odluÄįuj": 2692,
      "saopÅ¡til": 2693,
      "ustanovljen": 2694,
      "kancelarij": 2695,
      "zanimljiv": 2696,
      "opisan": 2697,
      "prosek": 2698,
      "saobraÄĩajn": 2699,
      "proÅ¡lo": 2700,
      "objeka": 2701,
      "suprotn": 2702,
      "podeljen": 2703,
      "prilagoÄĳen": 2704,
      "dodaj": 2705,
      "osloboÄĳenj": 2706,
      "Äįetvrt": 2707,
      "nova": 2708,
      "Sad": 2709,
      "raÄįunar": 2710,
      "neprijatelj": 2711,
      "mestim": 2712,
      "pojedinac": 2713,
      "profil": 2714,
      "narodno": 2715,
      "koncepcij": 2716,
      "psiholoÅ¡k": 2717,
      "rusko": 2718,
      "stva": 2719,
      "dalje": 2720,
      "precizn": 2721,
      "najznaÄįajniji": 2722,
      "aktivacij": 2723,
      "lekar": 2724,
      "prinos": 2725,
      "biljk": 2726,
      "relevantni": 2727,
      "kol": 2728,
      "carstv": 2729,
      "Åłpanij": 2730,
      "podizanj": 2731,
      "oÄįekivat": 2732,
      "ostrv": 2733,
      "opasnost": 2734,
      "UdruÅ¾enj": 2735,
      "poezij": 2736,
      "Kak": 2737,
      "revizij": 2738,
      "zapadn": 2739,
      "korisnic": 2740,
      "organizacioni": 2741,
      "instrumenat": 2742,
      "izborim": 2743,
      "korak": 2744,
      "standardim": 2745,
      "obuhvaÄĩen": 2746,
      "institut": 2747,
      "zako": 2748,
      ":/": 2749,
      "propisim": 2750,
      "svetlost": 2751,
      "nemoguÄĩ": 2752,
      "postignuÄĩ": 2753,
      "demokratsk": 2754,
      "procesim": 2755,
      "gradsk": 2756,
      ".Zat": 2757,
      "É«É": 2758,
      "dugoroÄįn": 2759,
      "videl": 2760,
      "sagledavanj": 2761,
      "jedni": 2762,
      "nauÄįno": 2763,
      "analizirani": 2764,
      "Å¡um": 2765,
      "broje": 2766,
      ".Stog": 2767,
      "napomenut": 2768,
      "invaliditeto": 2769,
      "institucionaln": 2770,
      "korisni": 2771,
      "izvesn": 2772,
      "predavanj": 2773,
      "zahtevaj": 2774,
      "kilometar": 2775,
      "aktueln": 2776,
      "svedoÄį": 2777,
      "Å¡ans": 2778,
      "pogotov": 2779,
      "kvalitetn": 2780,
      "predstavlje": 2781,
      "ostvaren": 2782,
      "naredn": 2783,
      ".Posl": 2784,
      "zadrÅ¾av": 2785,
      "koris": 2786,
      "0,": 2787,
      "optimaln": 2788,
      ".Nek": 2789,
      "pokretanj": 2790,
      "filmov": 2791,
      "praviln": 2792,
      "ploÄį": 2793,
      "tehnoloÅ¡ko": 2794,
      "realn": 2795,
      "loÅ¡": 2796,
      "seÄĩanj": 2797,
      "nazi": 2798,
      "odredit": 2799,
      "zloÄįin": 2800,
      "virus": 2801,
      "procenjuj": 2802,
      "pla": 2803,
      "bezbednosn": 2804,
      "Å¡kolovanj": 2805,
      "Äįinil": 2806,
      ".Osi": 2807,
      "graÄĳanim": 2808,
      "13": 2809,
      "laboratorij": 2810,
      "nastavnic": 2811,
      "sliÄįni": 2812,
      "Istorij": 2813,
      "utvrdil": 2814,
      "efekat": 2815,
      ".Ko": 2816,
      ".Pr": 2817,
      "rukovodstv": 2818,
      "svest": 2819,
      "preduzeÄĩim": 2820,
      "autonomij": 2821,
      "smanjen": 2822,
      "objasnit": 2823,
      "viÅ¡estruk": 2824,
      "ulj": 2825,
      "Amerik": 2826,
      "ekstrakcij": 2827,
      "objavil": 2828,
      "odluÄįil": 2829,
      "voÄĳenj": 2830,
      "razred": 2831,
      "Veliko": 2832,
      "promocij": 2833,
      "Komisij": 2834,
      "Konvencij": 2835,
      "politiÄįar": 2836,
      "epizod": 2837,
      "rastojanj": 2838,
      "previÅ¡": 2839,
      "preuzet": 2840,
      "najpr": 2841,
      "izraÄįunavanj": 2842,
      "odliÄįn": 2843,
      "objavi": 2844,
      "Kragujevc": 2845,
      "diskusij": 2846,
      "miÅ¡iÄĩ": 2847,
      "Rumunij": 2848,
      "(1": 2849,
      "sticanj": 2850,
      "svojin": 2851,
      "graÄĳ": 2852,
      "uspeh": 2853,
      "kratk": 2854,
      "DrÅ¾av": 2855,
      "obezbedit": 2856,
      "najvaÅ¾niji": 2857,
      "putev": 2858,
      "Äįas": 2859,
      "prvobitn": 2860,
      "davanj": 2861,
      "Albanij": 2862,
      "poznavanj": 2863,
      "ameriÄįki": 2864,
      ".Naravn": 2865,
      "zavrÅ¡en": 2866,
      "Å¡irin": 2867,
      "zadovoljavajuÄĩ": 2868,
      "PopoviÄ": 2869,
      "englesk": 2870,
      "profesionalni": 2871,
      "znaÄįajnij": 2872,
      ".Posebn": 2873,
      "pism": 2874,
      "poseba": 2875,
      "prikazivanj": 2876,
      "MarkoviÄ": 2877,
      "struÄįni": 2878,
      "inovacij": 2879,
      "delo": 2880,
      "tranzicij": 2881,
      "Bugarsk": 2882,
      "id": 2883,
      "izvod": 2884,
      "smatra": 2885,
      "pandemij": 2886,
      "kriteriju": 2887,
      "znaÄįajnost": 2888,
      "intervju": 2889,
      "kralj": 2890,
      "posmatrano": 2891,
      "oslobaÄĳanj": 2892,
      "Ka": 2893,
      "zastupljenos": 2894,
      "poresk": 2895,
      "vaÅ¾a": 2896,
      "Svetsk": 2897,
      "uticat": 2898,
      "kora": 2899,
      "definisa": 2900,
      "deformacij": 2901,
      "alternativn": 2902,
      "osnovan": 2903,
      "krajnj": 2904,
      "religij": 2905,
      "postavlje": 2906,
      "otpad": 2907,
      "tretma": 2908,
      "pripadnic": 2909,
      "devojk": 2910,
      "organsk": 2911,
      ".3": 2912,
      "stanovanj": 2913,
      "ekip": 2914,
      "volj": 2915,
      "receptor": 2916,
      "pokrajin": 2917,
      "porodiÄįno": 2918,
      "testov": 2919,
      "graÄĳevin": 2920,
      "reÄįen": 2921,
      "debljin": 2922,
      "udÅ¾benik": 2923,
      "doprinel": 2924,
      "elemen": 2925,
      "policijsk": 2926,
      "savet": 2927,
      "pisa": 2928,
      "klasiÄįn": 2929,
      "kapacite": 2930,
      ".Nij": 2931,
      "leksem": 2932,
      "jedinstv": 2933,
      "ukupni": 2934,
      "prisuta": 2935,
      "kolektivn": 2936,
      "objektivn": 2937,
      "opseg": 2938,
      "spoljn": 2939,
      "pozitivno": 2940,
      "dese": 2941,
      "retk": 2942,
      "temperaturam": 2943,
      "emocionaln": 2944,
      "(âĢ": 2945,
      "ureÄĳuj": 2946,
      "razvijeni": 2947,
      "detekcij": 2948,
      "uverenj": 2949,
      "predviÄĳ": 2950,
      "pojavil": 2951,
      "licenc": 2952,
      "izgraÄĳen": 2953,
      "meÄĳuvremen": 2954,
      "individualni": 2955,
      "objavlje": 2956,
      "hrvatsk": 2957,
      "smatral": 2958,
      "menadÅ¾men": 2959,
      "tumor": 2960,
      "teÅ¾": 2961,
      "vrÅ¡enj": 2962,
      "dijagnoz": 2963,
      "slobodni": 2964,
      "ponavljanj": 2965,
      "staniÅ¡t": 2966,
      "siromaÅ¡tv": 2967,
      "javnos": 2968,
      ".Istovremen": 2969,
      "menj": 2970,
      "Å¡tamp": 2971,
      "Pore": 2972,
      "nezavisnost": 2973,
      "poslodavc": 2974,
      "novÄįan": 2975,
      ".*": 2976,
      "zaÅ¡tiÄĩen": 2977,
      "moguÄĩnostim": 2978,
      "obuk": 2979,
      "vezivanj": 2980,
      "moguÄĩi": 2981,
      "karakterizacij": 2982,
      "Mark": 2983,
      "ves": 2984,
      "(u": 2985,
      "uzorcim": 2986,
      "ocenjivanj": 2987,
      "vlasnik": 2988,
      "unapre": 2989,
      "govori": 2990,
      "pozna": 2991,
      "emocij": 2992,
      "obaveÅ¡tenj": 2993,
      "svetl": 2994,
      "maj": 2995,
      "spoljni": 2996,
      "preprek": 2997,
      "spomenik": 2998,
      "poslanik": 2999,
      "seksualn": 3000,
      "posmatr": 3001,
      "sekundarn": 3002,
      "tes": 3003,
      "princi": 3004,
      "zagaÄĳenj": 3005,
      "pronaÄĳen": 3006,
      "jun": 3007,
      "industrijski": 3008,
      "strano": 3009,
      "gimnazij": 3010,
      "pomeranj": 3011,
      "ope": 3012,
      "ekstrakt": 3013,
      "elementim": 3014,
      "mora": 3015,
      "spor": 3016,
      "nik": 3017,
      "Zako": 3018,
      "doÅ¡a": 3019,
      "uoÄįen": 3020,
      "membran": 3021,
      "geografsk": 3022,
      "primenit": 3023,
      "jes": 3024,
      "zahtevim": 3025,
      "drugim": 3026,
      "knjiÅ¾evni": 3027,
      "prerad": 3028,
      "manji": 3029,
      "mrÅ¾nj": 3030,
      "algoritm": 3031,
      "diskurs": 3032,
      "izlaz": 3033,
      "donet": 3034,
      "teritorijaln": 3035,
      "postupak": 3036,
      "auto": 3037,
      "dogodil": 3038,
      "gor": 3039,
      "matematiÄįk": 3040,
      "opasnos": 3041,
      "kriv": 3042,
      "Srpsko": 3043,
      "manjin": 3044,
      "smeÅ¡ten": 3045,
      "poziv": 3046,
      "regionalno": 3047,
      "popularn": 3048,
      "gen": 3049,
      "formul": 3050,
      "detaljnij": 3051,
      "sigurnost": 3052,
      "sudbin": 3053,
      "preteÅ¾n": 3054,
      "prostorim": 3055,
      "podjednak": 3056,
      "Ujedinjeni": 3057,
      "enzim": 3058,
      "pravim": 3059,
      "promenljivi": 3060,
      "izgubil": 3061,
      "inaÄį": 3062,
      "kvantitativn": 3063,
      "sluÄįajn": 3064,
      "glasov": 3065,
      "nastana": 3066,
      "Australij": 3067,
      "civilizacij": 3068,
      "ljuba": 3069,
      "dal": 3070,
      "Å¾ensko": 3071,
      "jaÄįanj": 3072,
      "formiraj": 3073,
      "nezavisnos": 3074,
      "14": 3075,
      "podata": 3076,
      "sledeÄĩe": 3077,
      "IstraÅ¾ivanj": 3078,
      "penzij": 3079,
      "umetnos": 3080,
      "kognitivn": 3081,
      "jugoslovenski": 3082,
      "obavljaj": 3083,
      "republik": 3084,
      "brojev": 3085,
      "nadleÅ¾no": 3086,
      "roÄĳenj": 3087,
      "traj": 3088,
      "izabran": 3089,
      "pomogn": 3090,
      "kompletn": 3091,
      "direktno": 3092,
      "inflacij": 3093,
      "funkcionalni": 3094,
      "korisn": 3095,
      "edukacij": 3096,
      "Äįetvrto": 3097,
      "stariji": 3098,
      "sekvenc": 3099,
      "crven": 3100,
      "moraln": 3101,
      "napravil": 3102,
      "sastank": 3103,
      "veruj": 3104,
      "linearn": 3105,
      "gubita": 3106,
      "podnoÅ¡enj": 3107,
      "mehanizam": 3108,
      "umetniÄįko": 3109,
      "ovak": 3110,
      "festival": 3111,
      "suprug": 3112,
      "doÄĩ": 3113,
      "vaÅ¾": 3114,
      "Agencij": 3115,
      "src": 3116,
      "konkurentnost": 3117,
      "Äĩet": 3118,
      "identifikuj": 3119,
      "fil": 3120,
      "liÄįni": 3121,
      "Politik": 3122,
      "uÄįestvova": 3123,
      "4.": 3124,
      "izvrÅ¡it": 3125,
      "pretpostavit": 3126,
      "napravljen": 3127,
      "originaln": 3128,
      "odredbam": 3129,
      "Äįist": 3130,
      "proizilaz": 3131,
      "garancij": 3132,
      "intenzite": 3133,
      "uraÄĳen": 3134,
      "jezer": 3135,
      "Äįitavo": 3136,
      "-1": 3137,
      "pruÅ¾aj": 3138,
      "opÅ¡ti": 3139,
      "pomenuto": 3140,
      "odrÅ¾ivo": 3141,
      "devedeseti": 3142,
      "objavljuj": 3143,
      "turist": 3144,
      "dogaÄĳa": 3145,
      "prepoznat": 3146,
      "oboleli": 3147,
      "uslovljen": 3148,
      "sliÄįnost": 3149,
      "devijacij": 3150,
      "naprav": 3151,
      "psihologij": 3152,
      "vezani": 3153,
      "Ova": 3154,
      "reguliÅ¡": 3155,
      "termi": 3156,
      "organizovano": 3157,
      "premijer": 3158,
      "arhitektonsk": 3159,
      "besplatn": 3160,
      "ovakvo": 3161,
      "Osnovn": 3162,
      "hotel": 3163,
      "britansk": 3164,
      "raÄįu": 3165,
      "radit": 3166,
      "detinjstv": 3167,
      "govorit": 3168,
      "istaknut": 3169,
      "Äįlanstv": 3170,
      "nastavn": 3171,
      "goriv": 3172,
      "sporazu": 3173,
      "potreba": 3174,
      "septemba": 3175,
      "formulacij": 3176,
      "odvij": 3177,
      "Marij": 3178,
      "Äĩelijsk": 3179,
      "uprko": 3180,
      "nekretnin": 3181,
      "imajuÄĩ": 3182,
      "ostvar": 3183,
      "definisat": 3184,
      "slab": 3185,
      "dvostruk": 3186,
      "rezolucij": 3187,
      "Äįlanovim": 3188,
      "putnik": 3189,
      "preduzetniÅ¡tv": 3190,
      "fabrik": 3191,
      "privatni": 3192,
      "kontrolno": 3193,
      "obuhvataj": 3194,
      "/201": 3195,
      "softver": 3196,
      "kiseonik": 3197,
      "zadrÅ¾avanj": 3198,
      "paraleln": 3199,
      "nedavn": 3200,
      "naÄĩ": 3201,
      "nastavit": 3202,
      "redukcij": 3203,
      "zastupljenost": 3204,
      "snimanj": 3205,
      "prilo": 3206,
      "Jelen": 3207,
      "Bi": 3208,
      "teÅ¡ki": 3209,
      "dozvoljav": 3210,
      "Grafiko": 3211,
      ".Priliko": 3212,
      "pokuÅ¡av": 3213,
      "publikacij": 3214,
      "oblikovanj": 3215,
      "jul": 3216,
      "snaÅ¾n": 3217,
      "bogatstv": 3218,
      "naÅ¡l": 3219,
      "indirektn": 3220,
      "mehaniÄįk": 3221,
      "podruÄįjim": 3222,
      "ostvarit": 3223,
      "referentn": 3224,
      "Ukolik": 3225,
      "nezadovoljstv": 3226,
      "negativa": 3227,
      "vidljiv": 3228,
      "norm": 3229,
      "turistiÄįko": 3230,
      "pojm": 3231,
      ".Jedn": 3232,
      "veÄĩo": 3233,
      "prihvaÄĩen": 3234,
      "prevod": 3235,
      "vezuj": 3236,
      "spektr": 3237,
      "medicinski": 3238,
      "planiran": 3239,
      "napon": 3240,
      "podsticanj": 3241,
      "univerzaln": 3242,
      "glas": 3243,
      "189": 3244,
      "opredeljenj": 3245,
      "Å¡kolsko": 3246,
      "nisk": 3247,
      "govorim": 3248,
      "obavestit": 3249,
      "kritiÄįk": 3250,
      "medalj": 3251,
      "hriÅ¡Äĩansk": 3252,
      "gradovim": 3253,
      "domaÄĩe": 3254,
      "sloÅ¾en": 3255,
      "obezbedil": 3256,
      "ujedn": 3257,
      "Crven": 3258,
      "odrÅ¾av": 3259,
      "roditeljim": 3260,
      "proseÄįno": 3261,
      "vrijednost": 3262,
      "instalacij": 3263,
      "negativno": 3264,
      "komor": 3265,
      "govoril": 3266,
      "prevashodn": 3267,
      "prodavnic": 3268,
      "ÄĲorÄĳeviÄ": 3269,
      "istoÄįn": 3270,
      "pronalaÅ¾enj": 3271,
      "servis": 3272,
      "koristi": 3273,
      "i/il": 3274,
      "graniÄįn": 3275,
      "vojnik": 3276,
      "konfiguracij": 3277,
      "odrasli": 3278,
      "isplat": 3279,
      "fenomen": 3280,
      "raspoloÅ¾enj": 3281,
      "karakteristiÄįni": 3282,
      "prestonic": 3283,
      "sadrÅ¾aje": 3284,
      "Th": 3285,
      "strukturn": 3286,
      "Äįitav": 3287,
      "konkretni": 3288,
      "dodatni": 3289,
      "modernizacij": 3290,
      "Å¡kolam": 3291,
      "zavisnos": 3292,
      "ostan": 3293,
      "stari": 3294,
      "medijsk": 3295,
      "sort": 3296,
      "nastavno": 3297,
      "teÄįnost": 3298,
      ".Uprav": 3299,
      "stvaraj": 3300,
      "definisani": 3301,
      "povremen": 3302,
      "Å¾ivel": 3303,
      "sestr": 3304,
      "Moskv": 3305,
      "osvojil": 3306,
      "istraÅ¾ivaÄįko": 3307,
      "suzbijanj": 3308,
      "regulativ": 3309,
      "bist": 3310,
      "-a,": 3311,
      "proizvodim": 3312,
      "ogromn": 3313,
      "interesantn": 3314,
      "veÅ¡taÄįk": 3315,
      "svesn": 3316,
      "ono": 3317,
      "odobrenj": 3318,
      ".)": 3319,
      "graÄĳansk": 3320,
      ".co": 3321,
      "marketin": 3322,
      "porast": 3323,
      "boles": 3324,
      "poznati": 3325,
      ".PoÅ¡t": 3326,
      "sirovin": 3327,
      "napreda": 3328,
      "Subotic": 3329,
      "uÄįesnic": 3330,
      "oseÄĩaj": 3331,
      ".NajÄįeÅ¡Äĩ": 3332,
      "politic": 3333,
      "korpus": 3334,
      "zavrÅ¡av": 3335,
      "napravit": 3336,
      "propisuj": 3337,
      "titul": 3338,
      "nepoznat": 3339,
      ".202": 3340,
      "pogle": 3341,
      "sastavn": 3342,
      "nuÅ¾n": 3343,
      "krv": 3344,
      "predlaÅ¾": 3345,
      "Kin": 3346,
      "sugeriÅ¡": 3347,
      "gradsko": 3348,
      "jedink": 3349,
      "radionic": 3350,
      "projektim": 3351,
      "MiloÅ¡eviÄ": 3352,
      "omoguÄĩit": 3353,
      "stog": 3354,
      "(tabel": 3355,
      "utvrdit": 3356,
      "Postoj": 3357,
      "oznak": 3358,
      "subjekat": 3359,
      "razvijaj": 3360,
      "prosvet": 3361,
      "padavin": 3362,
      "prijateljstv": 3363,
      "adaptacij": 3364,
      "postignut": 3365,
      "jedinstveno": 3366,
      "nist": 3367,
      "morat": 3368,
      "registracij": 3369,
      "zapadno": 3370,
      "povlaÄįenj": 3371,
      "2,": 3372,
      "domaÄĩinstav": 3373,
      "povrÅ¡insk": 3374,
      "razn": 3375,
      "ona": 3376,
      "É¤É¨ÊģÉ": 3377,
      "Äįvrst": 3378,
      "ww": 3379,
      "kontrolo": 3380,
      "domaÄĩin": 3381,
      "standardno": 3382,
      "nekadaÅ¡nj": 3383,
      "uzet": 3384,
      "obal": 3385,
      "vizueln": 3386,
      "presek": 3387,
      "naÅ": 3388,
      "akumulacij": 3389,
      "nesreÄĩ": 3390,
      "standar": 3391,
      "kontak": 3392,
      "zadovoljn": 3393,
      "dobro": 3394,
      "realizovan": 3395,
      "nastavil": 3396,
      "16": 3397,
      "poÅ¡tuj": 3398,
      "promenil": 3399,
      "(np": 3400,
      "prenet": 3401,
      "knjiz": 3402,
      "antioksidativn": 3403,
      "kaka": 3404,
      "svojstav": 3405,
      "Iak": 3406,
      "donel": 3407,
      "nastup": 3408,
      "htt": 3409,
      "dubok": 3410,
      "âĢĻ": 3411,
      "praÄĩen": 3412,
      "spadaj": 3413,
      ".Velik": 3414,
      "novin": 3415,
      "konteks": 3416,
      "odlikuj": 3417,
      "zasnova": 3418,
      "pokazatel": 3419,
      "nekad": 3420,
      "vidim": 3421,
      "namen": 3422,
      "depresij": 3423,
      "migracij": 3424,
      "koeficijenat": 3425,
      "sekund": 3426,
      "ukrajinsk": 3427,
      "navodn": 3428,
      "sliÄįa": 3429,
      "poslovim": 3430,
      "odlaganj": 3431,
      ".Sam": 3432,
      "sudsk": 3433,
      "odvojen": 3434,
      "Predsedni": 3435,
      "nism": 3436,
      "podlog": 3437,
      "povezani": 3438,
      "graÄĳansko": 3439,
      "skal": 3440,
      "NikoliÄ": 3441,
      "celokupno": 3442,
      "likov": 3443,
      "pojedinaÄįno": 3444,
      "viso": 3445,
      "opravdan": 3446,
      "osvoji": 3447,
      "matematik": 3448,
      "uÄįestalos": 3449,
      "Savet": 3450,
      "pripadnost": 3451,
      "Va": 3452,
      "malo": 3453,
      "izaziv": 3454,
      "inicijaln": 3455,
      "reprodukcij": 3456,
      "ïĤ": 3457,
      "Toko": 3458,
      "zabeleÅ¾e": 3459,
      "dinamik": 3460,
      "vitamin": 3461,
      "subjektivn": 3462,
      "uÄįestalost": 3463,
      "onog": 3464,
      "stres": 3465,
      "proizvodn": 3466,
      "znaj": 3467,
      "Narodno": 3468,
      "kriterijumim": 3469,
      "postojeÄĩe": 3470,
      "prevo": 3471,
      "gran": 3472,
      "izabra": 3473,
      "stamben": 3474,
      "uspostavljen": 3475,
      "italijansko": 3476,
      "lider": 3477,
      "smeÅ¡": 3478,
      "poveza": 3479,
      "suÄĳenj": 3480,
      "ÄįiÅ¡Äĩenj": 3481,
      "granicam": 3482,
      "saobraÄĩa": 3483,
      "nalazim": 3484,
      "nika": 3485,
      "final": 3486,
      "principim": 3487,
      "isporuk": 3488,
      "lep": 3489,
      "StojanoviÄ": 3490,
      "izolacij": 3491,
      "definitivn": 3492,
      "globalizacij": 3493,
      "sportski": 3494,
      "let": 3495,
      "NiÅ¡": 3496,
      "kvalitativn": 3497,
      ".Predsedni": 3498,
      "formir": 3499,
      "bogat": 3500,
      "instrumen": 3501,
      "koleg": 3502,
      "predstavnicim": 3503,
      "temelj": 3504,
      "eksplicitn": 3505,
      "iznenaÄĳenj": 3506,
      "ishod": 3507,
      "svetski": 3508,
      "objavljeni": 3509,
      "NAT": 3510,
      "(eng": 3511,
      "inhibicij": 3512,
      "dubin": 3513,
      "organizova": 3514,
      "struÄįnjac": 3515,
      "izvrÅ¡": 3516,
      "postavljeni": 3517,
      "MeÄĳunarodno": 3518,
      "elektriÄįno": 3519,
      "umetnik": 3520,
      "etniÄįk": 3521,
      "obeleÅ¾avanj": 3522,
      "slojev": 3523,
      "pritisko": 3524,
      "informacioni": 3525,
      "Federacij": 3526,
      "ÄĮla": 3527,
      "koren": 3528,
      "uzora": 3529,
      "organim": 3530,
      "odluÄįi": 3531,
      "vojni": 3532,
      "predstavni": 3533,
      "kompleksn": 3534,
      "efikasnij": 3535,
      "rezerv": 3536,
      "analitiÄįk": 3537,
      "Tursk": 3538,
      ".Mnog": 3539,
      "toplot": 3540,
      "zatvoren": 3541,
      "poveÄĩa": 3542,
      "sigurnos": 3543,
      "izvrÅ¡avanj": 3544,
      "terminologij": 3545,
      "mreÅ¾am": 3546,
      "specifiÄįno": 3547,
      "protokol": 3548,
      "sloj": 3549,
      "tuÅ¾ioc": 3550,
      "Ak": 3551,
      "staro": 3552,
      "Strategij": 3553,
      "predstavljat": 3554,
      "Jovan": 3555,
      "PredsedniÅ¡tv": 3556,
      "deÅ¡avanj": 3557,
      "vest": 3558,
      "skladiÅ¡t": 3559,
      "duÅ¡": 3560,
      "5.": 3561,
      "Äįita": 3562,
      "beogradsko": 3563,
      "Zemlj": 3564,
      "koalicij": 3565,
      "elektron": 3566,
      "posredstvo": 3567,
      "stabilizacij": 3568,
      "izolovan": 3569,
      "desn": 3570,
      "memorij": 3571,
      "kriminal": 3572,
      "sportist": 3573,
      "predstavlja": 3574,
      "greÅ¡ak": 3575,
      "sagorevanj": 3576,
      "zanimanj": 3577,
      "dogaÄĳajim": 3578,
      "tehnoloÅ¡ki": 3579,
      "godiÅ¡nje": 3580,
      "razvojn": 3581,
      "najbolje": 3582,
      "Americ": 3583,
      "nazivaj": 3584,
      "graÄĳevinsko": 3585,
      "podrÅ¾av": 3586,
      "nedostaj": 3587,
      "Mitrovic": 3588,
      "okvi": 3589,
      "napredovanj": 3590,
      "Komentar": 3591,
      "Institu": 3592,
      ".ImajuÄĩ": 3593,
      "intere": 3594,
      "18": 3595,
      "uoÄįav": 3596,
      "M.": 3597,
      "Å¾alb": 3598,
      "zainteresovani": 3599,
      "verovanj": 3600,
      "noÄĩ": 3601,
      "Svetsko": 3602,
      "frakcij": 3603,
      "regionalni": 3604,
      "najveÄĩo": 3605,
      ".ZahvaljujuÄĩ": 3606,
      "treÄĩin": 3607,
      "klimatski": 3608,
      "doda": 3609,
      "izra": 3610,
      "poras": 3611,
      "svim": 3612,
      "liÄįnos": 3613,
      "Uprav": 3614,
      "stotin": 3615,
      "mlek": 3616,
      "degradacij": 3617,
      "sfer": 3618,
      "istraÅ¾ivanje": 3619,
      "moÅ£": 3620,
      "realno": 3621,
      ".Njegov": 3622,
      "kolon": 3623,
      "partnerstv": 3624,
      "upotrebljav": 3625,
      "uÄįitelj": 3626,
      "korisniÄįk": 3627,
      "bombardovanj": 3628,
      "prioritet": 3629,
      "Naslo": 3630,
      "buduÄĩi": 3631,
      "stanov": 3632,
      "sport": 3633,
      "scenarij": 3634,
      "koron": 3635,
      "umetniÄįki": 3636,
      "rezistencij": 3637,
      "obnov": 3638,
      "transpor": 3639,
      "sadrÅ¾in": 3640,
      "postavljaj": 3641,
      "objektim": 3642,
      "nastava": 3643,
      "ÄįoveÄįanstv": 3644,
      "familij": 3645,
      "intern": 3646,
      "meseÄįn": 3647,
      "specijalizovan": 3648,
      "nam": 3649,
      "voÅ¾nj": 3650,
      "zdrav": 3651,
      "odrÅ¾a": 3652,
      "sobo": 3653,
      "nadleÅ¾ni": 3654,
      "suprotno": 3655,
      "dokumen": 3656,
      "otkriven": 3657,
      "beogradsk": 3658,
      "upitnik": 3659,
      "zapoÄįel": 3660,
      "dodat": 3661,
      "Odeljenj": 3662,
      "omoguÄĩuj": 3663,
      ".Ovakv": 3664,
      "hemijski": 3665,
      "akter": 3666,
      "svem": 3667,
      "pacijentkinj": 3668,
      "doz": 3669,
      "17": 3670,
      "Äįitaoc": 3671,
      "obrazovni": 3672,
      "ovog": 3673,
      "nosioc": 3674,
      "radikal": 3675,
      "kartic": 3676,
      "ispoljavanj": 3677,
      "odreÄĳenj": 3678,
      "vrÅ¡en": 3679,
      "DruÅ¡tv": 3680,
      "moderno": 3681,
      "procent": 3682,
      "standardni": 3683,
      "narodni": 3684,
      "Svet": 3685,
      "pouzdanost": 3686,
      "sku": 3687,
      "radnic": 3688,
      "trenuta": 3689,
      "lig": 3690,
      "posmatrani": 3691,
      "morfoloÅ¡k": 3692,
      "napravi": 3693,
      "Å¾elezniÄįk": 3694,
      "vozaÄį": 3695,
      "stabiln": 3696,
      "nud": 3697,
      ".Godin": 3698,
      "misij": 3699,
      "uÄįinil": 3700,
      "oznaÄįavaj": 3701,
      "Sav": 3702,
      "187": 3703,
      "aerodrom": 3704,
      "roÄĳen": 3705,
      "sklop": 3706,
      "okrug": 3707,
      "primeÄĩuj": 3708,
      "organski": 3709,
      "omoguÄĩ": 3710,
      "razvoje": 3711,
      "stigl": 3712,
      "pronaÄĩ": 3713,
      "povratk": 3714,
      "Partizan": 3715,
      "materijalni": 3716,
      "potpisa": 3717,
      "Beogradsk": 3718,
      "investicion": 3719,
      "saobraÄĩajni": 3720,
      "izno": 3721,
      "ideoloÅ¡k": 3722,
      "Sa": 3723,
      "danaÅ¡nje": 3724,
      "prenoÅ¡enj": 3725,
      "Analiz": 3726,
      "uputstv": 3727,
      "Crno": 3728,
      "statistiÄįki": 3729,
      "teorijski": 3730,
      "konstant": 3731,
      "istrag": 3732,
      "razdvajanj": 3733,
      "motor": 3734,
      "mjest": 3735,
      "znaÄįajnos": 3736,
      "liÄįno": 3737,
      "usklaÄĳivanj": 3738,
      "188": 3739,
      "ispitivano": 3740,
      "druÅ¡tav": 3741,
      "otkriv": 3742,
      "postigl": 3743,
      "izazval": 3744,
      "Mila": 3745,
      "divizij": 3746,
      "pokuÅ¡al": 3747,
      "najzastupljenij": 3748,
      "uÄįinit": 3749,
      "sistemsk": 3750,
      "osoblj": 3751,
      "obrasc": 3752,
      "taÄįak": 3753,
      "geometrij": 3754,
      ".Redakcij": 3755,
      "Å¾elel": 3756,
      "poreklo": 3757,
      "meto": 3758,
      "vaÅ¾ni": 3759,
      "oblic": 3760,
      "Å¡ampion": 3761,
      "beleÅ¾": 3762,
      "problematik": 3763,
      "proizvodni": 3764,
      "programim": 3765,
      "Zakono": 3766,
      "rado": 3767,
      "vakcin": 3768,
      "(198": 3769,
      "profesij": 3770,
      "monetarn": 3771,
      "odgovora": 3772,
      "derivat": 3773,
      "reÄįnik": 3774,
      "klub": 3775,
      "sistemo": 3776,
      "uoÄįit": 3777,
      "mikroorganizam": 3778,
      "GrÄįk": 3779,
      "Nacionalno": 3780,
      "âĪ": 3781,
      "raspolaÅ¾": 3782,
      "prevazilaÅ¾enj": 3783,
      "namirnic": 3784,
      "crn": 3785,
      "mentaln": 3786,
      ".Analiz": 3787,
      "znat": 3788,
      ".4": 3789,
      "suprotnost": 3790,
      "Universit": 3791,
      "dominacij": 3792,
      "Å¾elit": 3793,
      "sob": 3794,
      "nivoim": 3795,
      "dijalog": 3796,
      "entitet": 3797,
      "obrazloÅ¾enj": 3798,
      "izolat": 3799,
      "prihvatil": 3800,
      "aktivni": 3801,
      "trening": 3802,
      "Holandij": 3803,
      "utvrd": 3804,
      "/1": 3805,
      "rod": 3806,
      "Å¾ivotni": 3807,
      "primerim": 3808,
      "kart": 3809,
      "paÅ¾ljiv": 3810,
      "objavljujem": 3811,
      "Äįuvanj": 3812,
      "tajn": 3813,
      "gvoÅ¾Äĳ": 3814,
      "moram": 3815,
      "parameta": 3816,
      "odred": 3817,
      "bliÅ¾": 3818,
      "orijentisan": 3819,
      "deklaracij": 3820,
      "istoÄįno": 3821,
      "vanredn": 3822,
      "stadijum": 3823,
      "utisa": 3824,
      "alkohol": 3825,
      "sredino": 3826,
      ".Dobijen": 3827,
      "zlostavljanj": 3828,
      "potrebni": 3829,
      "prihvatljiv": 3830,
      "digitalni": 3831,
      "stimulacij": 3832,
      "ÄĲorÄĳ": 3833,
      "Jugoslovensk": 3834,
      "dobri": 3835,
      "omoguÄĩen": 3836,
      "pripremljen": 3837,
      "prijateljim": 3838,
      "blisk": 3839,
      "(koj": 3840,
      "priznaj": 3841,
      "izva": 3842,
      "zaposleno": 3843,
      "alat": 3844,
      "nezavisni": 3845,
      "pad": 3846,
      "tokov": 3847,
      "...": 3848,
      "vaÅ¡e": 3849,
      "nezaposlenost": 3850,
      "ÄįvrstoÄĩ": 3851,
      "mad": 3852,
      "blagostanj": 3853,
      "ravnopravnost": 3854,
      "oblicim": 3855,
      "organizoval": 3856,
      "postavk": 3857,
      "detektovan": 3858,
      "industrijsko": 3859,
      "radovim": 3860,
      "menjaj": 3861,
      "masovn": 3862,
      "ustanovam": 3863,
      "primarno": 3864,
      "zakonski": 3865,
      "kapita": 3866,
      "svojevrsn": 3867,
      "akademsk": 3868,
      "seksualno": 3869,
      "âĢĶ": 3870,
      "razgovo": 3871,
      "procenjen": 3872,
      "nasta": 3873,
      ".Bil": 3874,
      "prijem": 3875,
      "zelen": 3876,
      ".SliÄįn": 3877,
      "postavit": 3878,
      "uslo": 3879,
      "upotrebljen": 3880,
      "obim": 3881,
      "genotipov": 3882,
      "nuklearn": 3883,
      "napor": 3884,
      "odabrani": 3885,
      "kratko": 3886,
      "podrazumeval": 3887,
      "osa": 3888,
      "gradski": 3889,
      "komentarim": 3890,
      "glediÅ¡t": 3891,
      "Sv": 3892,
      "Severn": 3893,
      "A.": 3894,
      "modelovanj": 3895,
      "proraÄįun": 3896,
      "sluÅ¾ben": 3897,
      "NajveÄĩ": 3898,
      "zaÅ¡titn": 3899,
      "VuÄįiÄĩ": 3900,
      "ispunjen": 3901,
      "postat": 3902,
      "reorganizacij": 3903,
      ".Ist": 3904,
      "osta": 3905,
      "terorizm": 3906,
      "oktoba": 3907,
      "jedinicam": 3908,
      "186": 3909,
      "socijalistiÄįk": 3910,
      "materijalno": 3911,
      "izvrÅ¡n": 3912,
      "reaguj": 3913,
      "postupcim": 3914,
      "motiv": 3915,
      "neophoda": 3916,
      "duhovn": 3917,
      "On": 3918,
      "postiga": 3919,
      "listov": 3920,
      "preduzetnik": 3921,
      "dogovor": 3922,
      "dokazan": 3923,
      "identiÄįn": 3924,
      "metodam": 3925,
      "intelektualno": 3926,
      "mes": 3927,
      "save": 3928,
      "krenul": 3929,
      "izgle": 3930,
      "Zapadno": 3931,
      "dostupni": 3932,
      "resursim": 3933,
      "(2": 3934,
      "direktni": 3935,
      "katalizator": 3936,
      "privatnost": 3937,
      "blag": 3938,
      "aktivno": 3939,
      "kontrolni": 3940,
      "ciljevim": 3941,
      "vertikaln": 3942,
      "individualno": 3943,
      "izdvojen": 3944,
      "zaposlenim": 3945,
      "vlasni": 3946,
      "empirijsk": 3947,
      "arhitekt": 3948,
      "normalno": 3949,
      "vodit": 3950,
      "teÅ¡koÄĩ": 3951,
      "izvorim": 3952,
      "manifestuj": 3953,
      "AmeriÄįk": 3954,
      "komunist": 3955,
      "funkcionalnost": 3956,
      "tolerancij": 3957,
      "marketing": 3958,
      "klijent": 3959,
      "ravn": 3960,
      "Bogorodic": 3961,
      "slav": 3962,
      "izraÅ¾av": 3963,
      "vratil": 3964,
      ".Dana": 3965,
      "proleÄĩ": 3966,
      "horizontaln": 3967,
      "gradnj": 3968,
      "dolask": 3969,
      "veÅ¾b": 3970,
      "30": 3971,
      "standardizacij": 3972,
      "razum": 3973,
      "Fakultet": 3974,
      "naelektrisanj": 3975,
      "navel": 3976,
      "poen": 3977,
      "recim": 3978,
      "vrati": 3979,
      "omladin": 3980,
      "organizaciono": 3981,
      "figur": 3982,
      "pokuÅ¡avaj": 3983,
      "zatvaranj": 3984,
      "uspeÅ¡nost": 3985,
      "gradonaÄįelnik": 3986,
      "premije": 3987,
      "sistematsk": 3988,
      "zakljuÄįenj": 3989,
      "kolektivno": 3990,
      "traÅ¾il": 3991,
      "otvoreni": 3992,
      "delegacij": 3993,
      "napa": 3994,
      "istraÅ¾ivaÄįki": 3995,
      "restoran": 3996,
      "Äĩerk": 3997,
      "osnova": 3998,
      "automatizovan": 3999,
      "odgovoril": 4000,
      "prilog": 4001,
      "kaÅ¾e": 4002,
      "digitalno": 4003,
      "sadaÅ¡nj": 4004,
      "atribut": 4005,
      "pravosuÄĳ": 4006,
      "oÅ¡teÄĩen": 4007,
      "talas": 4008,
      "Hrvat": 4009,
      "muziÄįko": 4010,
      "6.": 4011,
      ",0": 4012,
      "izdvajanj": 4013,
      "najpoznatij": 4014,
      "jeziÄįki": 4015,
      "unutraÅ¡njost": 4016,
      "nave": 4017,
      "inostrani": 4018,
      "iznosi": 4019,
      "hijerarhij": 4020,
      "srednjovekovn": 4021,
      "prostorno": 4022,
      "preostal": 4023,
      "planet": 4024,
      "ukazal": 4025,
      "zapoÄįinj": 4026,
      "Biografij": 4027,
      "viÅ¡i": 4028,
      "nedvosmislen": 4029,
      "karakteristiÄįa": 4030,
      "najstarij": 4031,
      "korporacij": 4032,
      "isprav": 4033,
      "duÅ¾a": 4034,
      "vaÅ¾nos": 4035,
      "ÊģÉ": 4036,
      "pisan": 4037,
      "preciznij": 4038,
      "obrazovno": 4039,
      "prevoz": 4040,
      "naoruÅ¾anj": 4041,
      "programiranj": 4042,
      "hroniÄįn": 4043,
      "protest": 4044,
      "organizator": 4045,
      "razvil": 4046,
      "brig": 4047,
      "dijagram": 4048,
      "postiÄĩ": 4049,
      "angaÅ¾ovan": 4050,
      "poremeÄĩa": 4051,
      "tz": 4052,
      "vrijem": 4053,
      "zakljuÄįi": 4054,
      "izbeglic": 4055,
      "odabran": 4056,
      "(en": 4057,
      "muzej": 4058,
      ".Komentar": 4059,
      "desil": 4060,
      "paradigm": 4061,
      "jednostava": 4062,
      "decemba": 4063,
      "preparat": 4064,
      "PanÄįev": 4065,
      "dobar": 4066,
      "popis": 4067,
      "semen": 4068,
      "kriminalitet": 4069,
      "preÄįnik": 4070,
      "boravk": 4071,
      "ukupa": 4072,
      "otkril": 4073,
      "srediÅ¡t": 4074,
      "izborn": 4075,
      "katastrof": 4076,
      "izbegavanj": 4077,
      "sekreta": 4078,
      "dinamiÄįk": 4079,
      "dvojic": 4080,
      "vis": 4081,
      "tipiÄįn": 4082,
      "komplek": 4083,
      "poretk": 4084,
      "uspostavlj": 4085,
      "mese": 4086,
      "zbirk": 4087,
      "nacionalnost": 4088,
      "Å¾eljen": 4089,
      "Prvo": 4090,
      "rasporeÄĳen": 4091,
      "dvadese": 4092,
      "ispitani": 4093,
      "povrÅ¡inski": 4094,
      "policijski": 4095,
      "slikarstv": 4096,
      ".VeÄĩin": 4097,
      "predaj": 4098,
      "projekcij": 4099,
      "vodil": 4100,
      "nikak": 4101,
      "kategorijam": 4102,
      "trak": 4103,
      "usvojen": 4104,
      "mlaÄĳ": 4105,
      "dokumentim": 4106,
      "ugroÅ¾en": 4107,
      "promoviÅ¡": 4108,
      "izvrÅ¡il": 4109,
      "grejanj": 4110,
      "rasprostranjen": 4111,
      "severn": 4112,
      "dato": 4113,
      "dizajn": 4114,
      "tursk": 4115,
      ".Glavn": 4116,
      "parametrim": 4117,
      "traÅ¾it": 4118,
      "energetsko": 4119,
      "Draga": 4120,
      "upravno": 4121,
      "tehniÄįko": 4122,
      "sin": 4123,
      "hriÅ¡Äĩanstv": 4124,
      "raÄįunajuÄĩ": 4125,
      "Mihail": 4126,
      "iskoristit": 4127,
      "kolekcij": 4128,
      "ekoloÅ¡ki": 4129,
      "jaÄįin": 4130,
      "Äįlano": 4131,
      "spoljaÅ¡nje": 4132,
      "dijagnostik": 4133,
      "dvoriÅ¡t": 4134,
      "grafiÄįk": 4135,
      "prikazani": 4136,
      "predstavit": 4137,
      "profi": 4138,
      "StankoviÄ": 4139,
      "prost": 4140,
      "drvet": 4141,
      "primetit": 4142,
      "tadaÅ¡nj": 4143,
      "udaljenost": 4144,
      "prikaz": 4145,
      "poÅ¾ar": 4146,
      "utvrÄĳeni": 4147,
      "objav": 4148,
      "pokaÅ¾": 4149,
      "jetr": 4150,
      "priznat": 4151,
      "podeÅ¡avanj": 4152,
      "nameÄĩ": 4153,
      "pÅ¡enic": 4154,
      "okrivljeno": 4155,
      "Kraljevstv": 4156,
      "orga": 4157,
      "dosadaÅ¡nji": 4158,
      "egzistencij": 4159,
      "pesam": 4160,
      "Åłt": 4161,
      "modifikovan": 4162,
      "krivic": 4163,
      "vojno": 4164,
      "integrisan": 4165,
      "elektrod": 4166,
      "stil": 4167,
      "Telegra": 4168,
      "podzemni": 4169,
      "prekid": 4170,
      "izazvan": 4171,
      "ovaka": 4172,
      "podrÅ¾avaj": 4173,
      "pokreÄĩ": 4174,
      "postavil": 4175,
      "Internet": 4176,
      "jezgr": 4177,
      "Crkv": 4178,
      "VaÅ¡": 4179,
      "odlik": 4180,
      "propagand": 4181,
      "saglasn": 4182,
      ".Naveden": 4183,
      "muÅ¡k": 4184,
      "informaciono": 4185,
      "odrednic": 4186,
      "pouzdan": 4187,
      "arhitektonsko": 4188,
      "naglasit": 4189,
      "stambeni": 4190,
      "ispunjav": 4191,
      "Äįel": 4192,
      "oglaÅ¡avanj": 4193,
      "takozvan": 4194,
      "Stefan": 4195,
      "prozor": 4196,
      "prevazilaz": 4197,
      "saopÅ¡ti": 4198,
      "dram": 4199,
      "proverit": 4200,
      "savrÅ¡en": 4201,
      "Interne": 4202,
      "Å¡eÄĩer": 4203,
      "mat": 4204,
      "govo": 4205,
      "poÄįetno": 4206,
      "Rezulta": 4207,
      "inicijalno": 4208,
      "klim": 4209,
      ".Vrednost": 4210,
      "znaÄīajn": 4211,
      "kliniÄįki": 4212,
      "ispit": 4213,
      "izdaj": 4214,
      "zakljuÄįil": 4215,
      "nadzor": 4216,
      "alternativni": 4217,
      "regulisanj": 4218,
      "novemba": 4219,
      "konverzij": 4220,
      "respektivn": 4221,
      "prikupljen": 4222,
      "bliz": 4223,
      "naknadn": 4224,
      "toplotn": 4225,
      "strog": 4226,
      "promenit": 4227,
      "sindikat": 4228,
      "obiÄįaj": 4229,
      "zakljuÄįivanj": 4230,
      "klasiÄįno": 4231,
      "koriÅ¡Äĩeni": 4232,
      "onim": 4233,
      "poveÄĩavaj": 4234,
      "Jova": 4235,
      "stavlj": 4236,
      "okupljanj": 4237,
      "preispitivanj": 4238,
      "indek": 4239,
      "konvencionaln": 4240,
      "dobije": 4241,
      "odgovori": 4242,
      "brÅ¾": 4243,
      "regij": 4244,
      "produktivnost": 4245,
      "Informe": 4246,
      "trajn": 4247,
      "nastavi": 4248,
      "lokalizacij": 4249,
      "pojavljivanj": 4250,
      "sveobuhvatn": 4251,
      "istakl": 4252,
      "nijedn": 4253,
      "crnogorsk": 4254,
      "paket": 4255,
      "Milan": 4256,
      "Äįetvrta": 4257,
      "Å¡ire": 4258,
      "poteÅ¡koÄĩ": 4259,
      "MiloÅ": 4260,
      "sluÅ¾beno": 4261,
      "graÄĳevinski": 4262,
      "niz": 4263,
      "komponenat": 4264,
      "osamdeseti": 4265,
      "juÅ¾n": 4266,
      "vol": 4267,
      "stabl": 4268,
      "protok": 4269,
      "regulisan": 4270,
      "jeziÄįko": 4271,
      "uÄįinjen": 4272,
      "osetljiv": 4273,
      "unapreÄĳivanj": 4274,
      "marker": 4275,
      ".MoÅ¾d": 4276,
      "aparat": 4277,
      "poznato": 4278,
      "proliferacij": 4279,
      "manipulacij": 4280,
      "funkcionalno": 4281,
      "Äĩelijsko": 4282,
      "rastvaraÄį": 4283,
      "London": 4284,
      "meÅ¡anj": 4285,
      "evolucij": 4286,
      "sveto": 4287,
      "pokrenu": 4288,
      "potpuno": 4289,
      "specifiÄįa": 4290,
      "znaÄįil": 4291,
      "opisa": 4292,
      "vodeÄĩ": 4293,
      "otvor": 4294,
      "ilustracij": 4295,
      "zapoÄįe": 4296,
      "protivnik": 4297,
      "PavloviÄ": 4298,
      "operativno": 4299,
      "vidi": 4300,
      "preÄįiÅ¡Äĩavanj": 4301,
      "uvod": 4302,
      "stranak": 4303,
      "Å¾enam": 4304,
      "osetljivost": 4305,
      "susret": 4306,
      "smernic": 4307,
      "izloÅ¾enost": 4308,
      "zagrevanj": 4309,
      "3,": 4310,
      "raÄįunovodstv": 4311,
      "imeno": 4312,
      "zakonitost": 4313,
      "prino": 4314,
      "raspon": 4315,
      "nematerijaln": 4316,
      "25": 4317,
      "muÅ¡ko": 4318,
      "posetioc": 4319,
      "fudbalsk": 4320,
      "Posl": 4321,
      "done": 4322,
      "teorijsko": 4323,
      "kontinuitet": 4324,
      "metafor": 4325,
      "promet": 4326,
      "pozicioniranj": 4327,
      "neverovatn": 4328,
      "obraÄĳuj": 4329,
      "specifikacij": 4330,
      "Partiza": 4331,
      "Zagreb": 4332,
      "iskorist": 4333,
      "upravlj": 4334,
      "objaÅ¡njen": 4335,
      "upotrebljavaj": 4336,
      "ponovn": 4337,
      "Englesk": 4338,
      "izmeren": 4339,
      "odrÅ¾iv": 4340,
      "okvirim": 4341,
      "Poljsk": 4342,
      "podseÄĩ": 4343,
      "maksimalno": 4344,
      "JuÅ¾n": 4345,
      "znal": 4346,
      "postav": 4347,
      "kompanijam": 4348,
      "gornj": 4349,
      "Centraln": 4350,
      "tere": 4351,
      "nadzo": 4352,
      "odrasl": 4353,
      "uzro": 4354,
      "vegetacij": 4355,
      "uÄįin": 4356,
      "nesumnjiv": 4357,
      "raspoloÅ¾ivi": 4358,
      "crkven": 4359,
      "izuÄįavanj": 4360,
      "taÄįnij": 4361,
      "oksidacij": 4362,
      "naplat": 4363,
      "hipertenzij": 4364,
      "napisan": 4365,
      "imenovanj": 4366,
      "sposobn": 4367,
      "objasni": 4368,
      "uzorkovanj": 4369,
      "pomogl": 4370,
      "kritiÄįar": 4371,
      ".Jedin": 4372,
      "tumaÄį": 4373,
      "1)": 4374,
      "ispravn": 4375,
      "bel": 4376,
      "istok": 4377,
      "Åłvajcarsk": 4378,
      ".Njihov": 4379,
      "decenijam": 4380,
      "stvarnos": 4381,
      "uspostav": 4382,
      "porodiÄįni": 4383,
      "morfoloÅ¡ki": 4384,
      "faktorim": 4385,
      "zakljuÄįak": 4386,
      "razmatran": 4387,
      "sedamdeseti": 4388,
      ".5": 4389,
      ".Takv": 4390,
      "centar": 4391,
      "izdvajaj": 4392,
      "krÅ¡enj": 4393,
      "meÄĳusobno": 4394,
      "adsorpcij": 4395,
      "slabij": 4396,
      "klaster": 4397,
      "deve": 4398,
      "nijeda": 4399,
      "nepostojanj": 4400,
      "izdvaj": 4401,
      "ispunjenj": 4402,
      "kombinovan": 4403,
      "sastavljen": 4404,
      "gradonaÄįelni": 4405,
      "uzim": 4406,
      "antitel": 4407,
      "II": 4408,
      "predel": 4409,
      "provincij": 4410,
      ".Potrebn": 4411,
      "februa": 4412,
      "kvadrat": 4413,
      "Zapadn": 4414,
      "lev": 4415,
      "poruÄįi": 4416,
      "Organizacij": 4417,
      "odrÅ¾avaj": 4418,
      "pratit": 4419,
      "mandat": 4420,
      "sekundarni": 4421,
      "korekcij": 4422,
      "pokre": 4423,
      "S.": 4424,
      "StefanoviÄ": 4425,
      "21": 4426,
      "jon": 4427,
      "efektivn": 4428,
      "algorita": 4429,
      "prostorijam": 4430,
      "dostojanstv": 4431,
      "komentarisanj": 4432,
      "pacov": 4433,
      "odraÅ¾av": 4434,
      "É§É": 4435,
      "neophodni": 4436,
      "varijabilnost": 4437,
      "radikaln": 4438,
      "BudimpeÅ¡t": 4439,
      "generisanj": 4440,
      "bezbednosni": 4441,
      "izvoz": 4442,
      "pokrenut": 4443,
      "identifikovanj": 4444,
      "ota": 4445,
      "moÄ": 4446,
      "posveÄĩe": 4447,
      "Äįinjenico": 4448,
      "obeleÅ¾en": 4449,
      "KovaÄįeviÄ": 4450,
      "nemaÄįki": 4451,
      "vraÄĩanj": 4452,
      "stvarim": 4453,
      "delim": 4454,
      "uzrokuj": 4455,
      "dostav": 4456,
      "razlikovat": 4457,
      "zapoÄįet": 4458,
      "slov": 4459,
      "neprekidn": 4460,
      "uradit": 4461,
      "tretiran": 4462,
      "(1)": 4463,
      "participacij": 4464,
      "traÅ¾nj": 4465,
      "stvoril": 4466,
      "licim": 4467,
      "iskljuÄįuj": 4468,
      "postign": 4469,
      "proizveden": 4470,
      "komercijalni": 4471,
      "graÄĳevinarstv": 4472,
      "ruski": 4473,
      "OpÅ¡tin": 4474,
      "istoriÄįar": 4475,
      "preno": 4476,
      "simbol": 4477,
      "gas": 4478,
      ".SadrÅ¾a": 4479,
      "dopun": 4480,
      "komitet": 4481,
      "Sloboda": 4482,
      "kreativn": 4483,
      "zahvalnos": 4484,
      "nedeljn": 4485,
      "Å¡tit": 4486,
      "rezultato": 4487,
      "znaÄįenje": 4488,
      "vrstam": 4489,
      "racionaln": 4490,
      "udar": 4491,
      "Ukupn": 4492,
      "doka": 4493,
      "osetljivos": 4494,
      "upoznavanj": 4495,
      "bioloÅ¡ki": 4496,
      "pronaÅ¡l": 4497,
      "nadleÅ¾nos": 4498,
      "Europea": 4499,
      "posmatraj": 4500,
      "proÅ¡los": 4501,
      "pronaÄĳ": 4502,
      "otiÅ¡l": 4503,
      "distanc": 4504,
      "sekto": 4505,
      "nastoj": 4506,
      "vodo": 4507,
      "bavil": 4508,
      "autorsk": 4509,
      "prostorni": 4510,
      "dolazil": 4511,
      "tren": 4512,
      "proporcionaln": 4513,
      "dostupa": 4514,
      "politiko": 4515,
      "specijalni": 4516,
      "uradil": 4517,
      "mnogobrojni": 4518,
      "otiÅ¡a": 4519,
      "nadoknad": 4520,
      "televizijsk": 4521,
      "uzrok": 4522,
      "ÄĲokoviÄ": 4523,
      "ÉŀÉ": 4524,
      "nekomercijaln": 4525,
      "umeren": 4526,
      "poÅ¾eljn": 4527,
      "teÅ¾nj": 4528,
      "0,0": 4529,
      "garantuj": 4530,
      "samoubistv": 4531,
      "ratn": 4532,
      "razlikovanj": 4533,
      "cirkulacij": 4534,
      "programsk": 4535,
      "Demokratsk": 4536,
      "shvat": 4537,
      "istaÄĩ": 4538,
      "interesim": 4539,
      "baziran": 4540,
      "preventivn": 4541,
      "aspek": 4542,
      "hrvatsko": 4543,
      "drÅ¾avljanstv": 4544,
      "potpisivanj": 4545,
      "banak": 4546,
      "7.": 4547,
      "objaÅ¡njavaj": 4548,
      "izraÅ¾enij": 4549,
      "MaÄĳarsko": 4550,
      "proglaÅ¡en": 4551,
      "jednostavnij": 4552,
      "Brank": 4553,
      "idealn": 4554,
      "Äįvorov": 4555,
      "mutacij": 4556,
      "autonomn": 4557,
      "Star": 4558,
      "zaÅ¡tiÄĩeni": 4559,
      "sadrÅ¾an": 4560,
      "najniÅ¾": 4561,
      "ostavil": 4562,
      "duÅ¾nos": 4563,
      "administrativni": 4564,
      "poklon": 4565,
      "instrukcij": 4566,
      "odlaz": 4567,
      "sluÅ¾beni": 4568,
      "upozorenj": 4569,
      "kukuruz": 4570,
      "Savez": 4571,
      "obezbeÄĳen": 4572,
      "razlikoval": 4573,
      ".Treb": 4574,
      "meÅ¡avin": 4575,
      "dokazivanj": 4576,
      "vraÄĩ": 4577,
      "kliniÄįko": 4578,
      "pogodn": 4579,
      "plodov": 4580,
      "strah": 4581,
      "socijalistiÄįko": 4582,
      "fenome": 4583,
      "np": 4584,
      "baterij": 4585,
      "AmeriÄįki": 4586,
      "najkasnij": 4587,
      "pakovanj": 4588,
      "osvajanj": 4589,
      "junak": 4590,
      "vladar": 4591,
      "medicinsko": 4592,
      "manasti": 4593,
      "PoÅ¡aljit": 4594,
      "jedinstve": 4595,
      "nalog": 4596,
      "http": 4597,
      "leÅ¾": 4598,
      "jaÄį": 4599,
      "dijagnostiÄįk": 4600,
      ".KljuÄįn": 4601,
      "RepubliÄįk": 4602,
      "spreÄįav": 4603,
      "staz": 4604,
      "upravn": 4605,
      "naglaÅ¡en": 4606,
      "studentim": 4607,
      "metodoloÅ¡k": 4608,
      "leksiÄįk": 4609,
      "poveÄĩano": 4610,
      "veÄįer": 4611,
      "proceso": 4612,
      "rukam": 4613,
      "posledicam": 4614,
      "proseÄįni": 4615,
      "navijaÄį": 4616,
      "znam": 4617,
      "doÅ¾ivel": 4618,
      "specifiÄįnos": 4619,
      "vrednoÅ¡Äĩ": 4620,
      "zapis": 4621,
      "smeÅ¡taj": 4622,
      "IstoÄįn": 4623,
      "poluostrv": 4624,
      "senzor": 4625,
      "kuhinj": 4626,
      "uzimajuÄĩ": 4627,
      "analizir": 4628,
      "monografij": 4629,
      "naglasi": 4630,
      "Pariz": 4631,
      "veÅ¾banj": 4632,
      "razmatr": 4633,
      "registr": 4634,
      "sever": 4635,
      "pojedina": 4636,
      "krajev": 4637,
      "spoljaÅ¡nji": 4638,
      "filmsk": 4639,
      "vakcinacij": 4640,
      "kamen": 4641,
      "pridev": 4642,
      "mnoÅ¡tv": 4643,
      "doved": 4644,
      "laboratorijski": 4645,
      "Glavn": 4646,
      "razumet": 4647,
      "obrnut": 4648,
      ".200": 4649,
      "ograniÄįe": 4650,
      "inflamacij": 4651,
      ".Razlik": 4652,
      "centralni": 4653,
      "reprezentativn": 4654,
      "navodnjavanj": 4655,
      "modelim": 4656,
      "podsticaj": 4657,
      "simboliÄįk": 4658,
      "kupc": 4659,
      "muziÄįki": 4660,
      "konkurs": 4661,
      "nanoÄįestic": 4662,
      "severno": 4663,
      "regresion": 4664,
      "navik": 4665,
      "druÅ¡tvim": 4666,
      "kritiÄįn": 4667,
      "aproksimacij": 4668,
      "umnoÅ¾avanj": 4669,
      "lepot": 4670,
      "duÅ¾nik": 4671,
      "ostat": 4672,
      "predsednic": 4673,
      "2)": 4674,
      "Vladimir": 4675,
      "ustavn": 4676,
      "pamÄĩenj": 4677,
      "podnos": 4678,
      "aranÅ¾man": 4679,
      "Galerij": 4680,
      "mobiln": 4681,
      "trajal": 4682,
      "propisani": 4683,
      "doÅ¾ivljaj": 4684,
      "185": 4685,
      "Dimitrij": 4686,
      ".PREDSEDNI": 4687,
      "kolonij": 4688,
      "napretk": 4689,
      "D.": 4690,
      "sekretar": 4691,
      "tvrÄĳav": 4692,
      "juÅ¾no": 4693,
      "troÅ¡kovim": 4694,
      "mozg": 4695,
      "porasto": 4696,
      "arterij": 4697,
      "kontrolisan": 4698,
      "strateÅ¡ki": 4699,
      "eksperimenat": 4700,
      "pristupanj": 4701,
      "Bugarsko": 4702,
      "epidemij": 4703,
      "strateÅ¡ko": 4704,
      "dnevno": 4705,
      "testiran": 4706,
      "trendov": 4707,
      "pripisuj": 4708,
      "dinastij": 4709,
      "nalazi": 4710,
      "saobraÄĩajnic": 4711,
      "konaÄįno": 4712,
      "individu": 4713,
      "nog": 4714,
      "snima": 4715,
      "dostignuÄĩ": 4716,
      "kaÅ¾njavanj": 4717,
      "poveÄĩal": 4718,
      "Journa": 4719,
      "unos": 4720,
      "samopouzdanj": 4721,
      "pokrenul": 4722,
      "koristim": 4723,
      "parcel": 4724,
      "generiÅ¡": 4725,
      "nejednakost": 4726,
      "mnogobrojn": 4727,
      "brak": 4728,
      "tez": 4729,
      "sovjetsk": 4730,
      "tragov": 4731,
      "22": 4732,
      "niÅ¾i": 4733,
      "saÄįuvan": 4734,
      "Å¡iroko": 4735,
      "povoljn": 4736,
      "lanc": 4737,
      "istraÅ¾uj": 4738,
      ".MeÄĳ": 4739,
      "kriminaln": 4740,
      "primenjeni": 4741,
      "Izvo": 4742,
      "savez": 4743,
      "hemijsko": 4744,
      "preduzimanj": 4745,
      "sociologij": 4746,
      "50": 4747,
      "fudbal": 4748,
      "brigad": 4749,
      "aspekat": 4750,
      "musliman": 4751,
      "ispoljavaj": 4752,
      "glasanj": 4753,
      "zvaniÄįno": 4754,
      "aminokiselin": 4755,
      "grÄįk": 4756,
      "poznaj": 4757,
      "proÅ¡iren": 4758,
      "postavi": 4759,
      ".Naslo": 4760,
      "veruje": 4761,
      "ispoljav": 4762,
      "Å¾rtav": 4763,
      "odakl": 4764,
      "poslednjo": 4765,
      "smisa": 4766,
      "podelit": 4767,
      "Åłvedsk": 4768,
      "fermentacij": 4769,
      "kvaliteto": 4770,
      "zadrÅ¾al": 4771,
      "pretrag": 4772,
      "nastojanj": 4773,
      "predviÄĳeni": 4774,
      "Svak": 4775,
      "eksplozij": 4776,
      "potencijalno": 4777,
      "iskljuÄįen": 4778,
      "drÅ¾avljan": 4779,
      "prisutni": 4780,
      "buduÄĩe": 4781,
      "ekstremn": 4782,
      "groblj": 4783,
      "komand": 4784,
      "osvetljenj": 4785,
      "klubov": 4786,
      "dobrovoljn": 4787,
      "neprijateljsk": 4788,
      "raspored": 4789,
      "etniÄįko": 4790,
      "Autorstv": 4791,
      "prisustvoval": 4792,
      "tekstovim": 4793,
      "(3": 4794,
      "teoretiÄįar": 4795,
      ",5": 4796,
      "reÅ¾i": 4797,
      "operativni": 4798,
      "dvadeseto": 4799,
      "potvrdi": 4800,
      "morfologij": 4801,
      "pratil": 4802,
      "oduzimanj": 4803,
      "graniÄįni": 4804,
      "diplomatsk": 4805,
      "prihvatit": 4806,
      "kraÄĩ": 4807,
      ".BuduÄĩ": 4808,
      "sloÅ¾eni": 4809,
      "ukidanj": 4810,
      "smer": 4811,
      "Äįetvrtin": 4812,
      "primarni": 4813,
      "modeliranj": 4814,
      "zvaniÄįni": 4815,
      "prestaj": 4816,
      "protei": 4817,
      "Njegov": 4818,
      "osobam": 4819,
      "RepubliÄįko": 4820,
      "laÅ¾n": 4821,
      "povreÄĳen": 4822,
      "stvoren": 4823,
      "fizioloÅ¡k": 4824,
      "(Äįla": 4825,
      "organiza": 4826,
      "Dragan": 4827,
      "rodn": 4828,
      "uÄįeni": 4829,
      "izazivaj": 4830,
      "ostavlj": 4831,
      "raniji": 4832,
      "stavovim": 4833,
      "primanj": 4834,
      "steÄįajno": 4835,
      "Bro": 4836,
      "zrn": 4837,
      "trgovinsk": 4838,
      "apsorpcij": 4839,
      "sastana": 4840,
      "doÅ¾ivljav": 4841,
      "preduzet": 4842,
      "predmetim": 4843,
      "upravni": 4844,
      "opasn": 4845,
      "niski": 4846,
      "Dunav": 4847,
      "ekstrakat": 4848,
      "anksioznost": 4849,
      "snimk": 4850,
      "osposobljavanj": 4851,
      "antibiotik": 4852,
      "184": 4853,
      "doprinet": 4854,
      "mir": 4855,
      "predsedniko": 4856,
      "putanj": 4857,
      "fudbaler": 4858,
      "smr": 4859,
      "Peta": 4860,
      "ocenjuj": 4861,
      "vrh": 4862,
      "Akademij": 4863,
      "prijatel": 4864,
      "ovlaÅ¡Äĩen": 4865,
      "biljni": 4866,
      "iskazuj": 4867,
      "konsultacij": 4868,
      "ograniÄįeno": 4869,
      "donekl": 4870,
      "metabolizm": 4871,
      "znakov": 4872,
      "dijalo": 4873,
      "inspekcij": 4874,
      "zakonim": 4875,
      "energetski": 4876,
      "urad": 4877,
      ".ÄĮla": 4878,
      "opis": 4879,
      "prome": 4880,
      "numeriÄįk": 4881,
      "spekta": 4882,
      "trÅ¾iÅ¡ni": 4883,
      "zapadni": 4884,
      "konstatacij": 4885,
      "otvore": 4886,
      "komunistiÄįk": 4887,
      "rano": 4888,
      "Å¡alj": 4889,
      "redovno": 4890,
      "duÅ¾n": 4891,
      "obraÄĳen": 4892,
      "analiziraj": 4893,
      "neprestan": 4894,
      "razloz": 4895,
      "obveznic": 4896,
      "kognitivni": 4897,
      ".Podac": 4898,
      "prestank": 4899,
      "ispitan": 4900,
      "lokalitetim": 4901,
      "genetiÄįk": 4902,
      "jugoistoÄįn": 4903,
      "roÄĳe": 4904,
      "kardiovaskularni": 4905,
      "optuÅ¾b": 4906,
      "scenari": 4907,
      ".Kolik": 4908,
      "Zbo": 4909,
      "zauzim": 4910,
      "-i": 4911,
      "porta": 4912,
      "Kancelarij": 4913,
      "gubitak": 4914,
      "bezbedn": 4915,
      "realnost": 4916,
      "moz": 4917,
      "kral": 4918,
      "naslovo": 4919,
      "Utica": 4920,
      "ostvari": 4921,
      "neÄįij": 4922,
      "refleksij": 4923,
      "shvatit": 4924,
      "povrÅ¡inam": 4925,
      "-2": 4926,
      "-u": 4927,
      "prim": 4928,
      "otklanjanj": 4929,
      "kinesk": 4930,
      "Zapad": 4931,
      "vlastit": 4932,
      "geometrijsk": 4933,
      "Rusk": 4934,
      "ratni": 4935,
      "vlakan": 4936,
      "laboratorijsk": 4937,
      "stvarno": 4938,
      "krug": 4939,
      "24": 4940,
      "ugroÅ¾avanj": 4941,
      "kilogram": 4942,
      "diplomatij": 4943,
      "otvar": 4944,
      "izmeÄĬ": 4945,
      "promjen": 4946,
      "desetin": 4947,
      "Od": 4948,
      "pozoriÅ¡n": 4949,
      "raÄįunovodstven": 4950,
      "ostata": 4951,
      "riziko": 4952,
      "armij": 4953,
      "ubrz": 4954,
      "procentualn": 4955,
      "Tak": 4956,
      "dosadaÅ¡nj": 4957,
      "sprema": 4958,
      "nastajanj": 4959,
      "poveÄĩat": 4960,
      "funkcionalnos": 4961,
      "povrata": 4962,
      "neobiÄįn": 4963,
      "vizantijsk": 4964,
      "investicioni": 4965,
      "osnivaÄį": 4966,
      "prevoÄĳenj": 4967,
      "Grup": 4968,
      "negd": 4969,
      "postoja": 4970,
      "ponedelja": 4971,
      "uÄįestvovanj": 4972,
      "skupov": 4973,
      "konkurentsk": 4974,
      "predloÅ¾il": 4975,
      "povrÄĩ": 4976,
      "vratit": 4977,
      "nemoguÄĩnost": 4978,
      "generalno": 4979,
      "parlamentarn": 4980,
      "usvojil": 4981,
      "graÄĳenj": 4982,
      "zov": 4983,
      "zadovoljenj": 4984,
      ".JoÅ": 4985,
      "antropologij": 4986,
      "zavrÅ¡": 4987,
      "podignut": 4988,
      "digitalizacij": 4989,
      "autork": 4990,
      ".Poslednj": 4991,
      ".Drugi": 4992,
      "bra": 4993,
      "pristalic": 4994,
      "(197": 4995,
      "primedb": 4996,
      "Sovjetsko": 4997,
      "dovolja": 4998,
      "institucionalno": 4999,
      "40": 5000,
      "uveden": 5001,
      "iskaz": 5002,
      "ispituj": 5003,
      "ekspanzij": 5004,
      "barijer": 5005,
      "govornik": 5006,
      "priznavanj": 5007,
      "zidov": 5008,
      ".Misli": 5009,
      "filozofsk": 5010,
      "razgradnj": 5011,
      "predÅ¡kolsko": 5012,
      "supstrat": 5013,
      "avgus": 5014,
      "predstavil": 5015,
      "JovanoviÄĩ": 5016,
      "aktuelni": 5017,
      "vladajuÄĩ": 5018,
      "glumic": 5019,
      "segmen": 5020,
      "zaboravit": 5021,
      "plazm": 5022,
      "Jeda": 5023,
      "uskor": 5024,
      "integritet": 5025,
      "namenje": 5026,
      "posla": 5027,
      "sves": 5028,
      "razdoblj": 5029,
      "otvoril": 5030,
      "dones": 5031,
      "proistiÄį": 5032,
      "vizij": 5033,
      "poÄįn": 5034,
      "sadrÅ¾ajim": 5035,
      "obratit": 5036,
      "smanjil": 5037,
      "varijabilnos": 5038,
      "poresko": 5039,
      "sredinam": 5040,
      "Nij": 5041,
      "janua": 5042,
      "reÄįni": 5043,
      "hartij": 5044,
      "odrÅ¾ano": 5045,
      "post": 5046,
      "piÄĩ": 5047,
      "onlaj": 5048,
      "smeÅ¡ta": 5049,
      "obavljen": 5050,
      ".MoÅ¾": 5051,
      "Centr": 5052,
      "elektriÄįni": 5053,
      "trup": 5054,
      "spomeni": 5055,
      "proveren": 5056,
      "naÅ¾alos": 5057,
      "Nek": 5058,
      "fondov": 5059,
      "lis": 5060,
      "izuzeta": 5061,
      "Ko": 5062,
      "Äįlank": 5063,
      "iskustav": 5064,
      "maÄĳarsk": 5065,
      ".StatistiÄįk": 5066,
      "ude": 5067,
      "ublaÅ¾avanj": 5068,
      "pravljenj": 5069,
      "redov": 5070,
      "izveÅ¡tajim": 5071,
      "automobi": 5072,
      "transfer": 5073,
      "8.": 5074,
      "interesuj": 5075,
      "komparativn": 5076,
      "potpisal": 5077,
      "nauÄįnik": 5078,
      "analizirat": 5079,
      "izvesno": 5080,
      "geografsko": 5081,
      "pobedil": 5082,
      "determinant": 5083,
      "obaveÅ¡tajn": 5084,
      "uredni": 5085,
      "Äįije": 5086,
      "Beogradsko": 5087,
      "signa": 5088,
      "MiloÅ¡eviÄĩ": 5089,
      "subvencij": 5090,
      "dizaj": 5091,
      "iskren": 5092,
      ".ProseÄįn": 5093,
      "invazij": 5094,
      "pretpostavljen": 5095,
      "prevar": 5096,
      "genera": 5097,
      "nastali": 5098,
      "vazduhoplovstv": 5099,
      "proizvodno": 5100,
      "odgovorno": 5101,
      "komad": 5102,
      "oÄįekival": 5103,
      "humanitarn": 5104,
      "dodata": 5105,
      "nisko": 5106,
      "razvojni": 5107,
      "izgubi": 5108,
      "vaÅ¾nij": 5109,
      "zajednicam": 5110,
      "saobraÄĩajno": 5111,
      "Srbim": 5112,
      "ujedinjenj": 5113,
      "minimu": 5114,
      "spreÄįil": 5115,
      "svakodnevni": 5116,
      "desno": 5117,
      "traÅ¾i": 5118,
      "suspenzij": 5119,
      "proizvodnjo": 5120,
      "kos": 5121,
      "razvije": 5122,
      "formira": 5123,
      "reagovanj": 5124,
      "meÄį": 5125,
      "raspore": 5126,
      "shodn": 5127,
      "sveÅ¡tenik": 5128,
      "pripremil": 5129,
      "veÄĩino": 5130,
      "tuÅ¾ila": 5131,
      "dejstvo": 5132,
      "inhibitor": 5133,
      "Kraljev": 5134,
      "smatram": 5135,
      "naÅ¡a": 5136,
      "igraj": 5137,
      "otpornost": 5138,
      "predloÅ¾i": 5139,
      "23": 5140,
      "argument": 5141,
      "Podgoric": 5142,
      "saopÅ¡tavanj": 5143,
      "naÄĳ": 5144,
      "brat": 5145,
      "izvoÄĳaÄį": 5146,
      "sprovedeno": 5147,
      "strukturni": 5148,
      "car": 5149,
      "napomen": 5150,
      "saradnicim": 5151,
      "podnosioc": 5152,
      "turiza": 5153,
      "primeÄĩen": 5154,
      "posmatraÄį": 5155,
      "Smederev": 5156,
      "napre": 5157,
      "preuze": 5158,
      "pluÄĩ": 5159,
      "zdravstv": 5160,
      "sliÄįno": 5161,
      "novinarstv": 5162,
      "deÄįak": 5163,
      "dodeljuj": 5164,
      "Å¡tampan": 5165,
      "ugl": 5166,
      "opravdanj": 5167,
      "zdravi": 5168,
      "prognoz": 5169,
      "ograniÄįav": 5170,
      "zatvoreno": 5171,
      ".Nov": 5172,
      "ispunjavaj": 5173,
      "naft": 5174,
      "objasn": 5175,
      "dnevni": 5176,
      "smanjit": 5177,
      "Jevrej": 5178,
      "komentariÅ¡e": 5179,
      "Kragujeva": 5180,
      "utvrÄĳenj": 5181,
      "smanjenje": 5182,
      "uvi": 5183,
      "telefo": 5184,
      "struk": 5185,
      "jednakost": 5186,
      "gornje": 5187,
      "PoÅ¡t": 5188,
      "privilegij": 5189,
      "energetik": 5190,
      "naruÅ¡avanj": 5191,
      "kaÅ¡njenj": 5192,
      "upoznat": 5193,
      "klasiÄįni": 5194,
      ".Zati": 5195,
      "posredn": 5196,
      "semantiÄįko": 5197,
      "slaÅ¾": 5198,
      "Filozofsko": 5199,
      "okupacij": 5200,
      "kamer": 5201,
      "izgubljen": 5202,
      "kril": 5203,
      "korporativno": 5204,
      "mehaniÄįki": 5205,
      "(ukljuÄįujuÄĩ": 5206,
      "uniÅ¡tavanj": 5207,
      "rukovodioc": 5208,
      "originalno": 5209,
      "dostavljanj": 5210,
      "Najbolj": 5211,
      ".Neophodn": 5212,
      "bubreg": 5213,
      ":1": 5214,
      "predstavi": 5215,
      "pokazat": 5216,
      "koliÄįinam": 5217,
      "stalno": 5218,
      "odraÅ¾avaj": 5219,
      "odnosil": 5220,
      ".Ovd": 5221,
      "ostatk": 5222,
      "Å¾ivotinjam": 5223,
      "uzimanj": 5224,
      ".Srbij": 5225,
      "ogledal": 5226,
      "povratn": 5227,
      "uzorc": 5228,
      "krajevim": 5229,
      "format": 5230,
      "obraÄĩanj": 5231,
      "Äįitalac": 5232,
      "tragedij": 5233,
      "Fakulte": 5234,
      "stepeno": 5235,
      "doÅ¾ivlja": 5236,
      "stadion": 5237,
      "pozadin": 5238,
      "proslav": 5239,
      "obnavljanj": 5240,
      "staros": 5241,
      "stiÄį": 5242,
      "zadovoljav": 5243,
      "otpornos": 5244,
      "regresij": 5245,
      "bolje": 5246,
      "gasov": 5247,
      "zapad": 5248,
      "sakupljanj": 5249,
      "specijalizovani": 5250,
      "odeÄĩ": 5251,
      "papir": 5252,
      "primenje": 5253,
      "Å¾elim": 5254,
      "voÄĳ": 5255,
      ".Cil": 5256,
      "Ekonomsk": 5257,
      ".Tad": 5258,
      "specijalizacij": 5259,
      "trÅ¾iÅ¡tim": 5260,
      "segmenat": 5261,
      "otpor": 5262,
      "albansk": 5263,
      "Ustav": 5264,
      "pozi": 5265,
      "braÄĩ": 5266,
      "svinj": 5267,
      "matematiÄįki": 5268,
      ".Do": 5269,
      ".2.": 5270,
      "ratov": 5271,
      "raÄįunarsk": 5272,
      "pripadal": 5273,
      "decentralizacij": 5274,
      "najnovij": 5275,
      "wit": 5276,
      "poreski": 5277,
      "i,": 5278,
      "nest": 5279,
      "otpadni": 5280,
      "hoÄĩ": 5281,
      "teroristiÄįk": 5282,
      "preteran": 5283,
      "priorite": 5284,
      "sigura": 5285,
      "revolucionarn": 5286,
      "implikacij": 5287,
      "konflikt": 5288,
      "obraza": 5289,
      "deponij": 5290,
      "bran": 5291,
      "zakonsko": 5292,
      "finalno": 5293,
      "JankoviÄ": 5294,
      "uredniÅ¡tv": 5295,
      "demonstracij": 5296,
      "starenj": 5297,
      "inspiracij": 5298,
      "parov": 5299,
      "jednostavni": 5300,
      "demokratsko": 5301,
      "Napomen": 5302,
      "Ivan": 5303,
      "muÅ¡kara": 5304,
      "kraljic": 5305,
      "pismenost": 5306,
      "Generaln": 5307,
      "zaustavljanj": 5308,
      "hormon": 5309,
      "federacij": 5310,
      "Gra": 5311,
      "fiskaln": 5312,
      "sigurnoÅ¡Äĩ": 5313,
      "saraÄĳuj": 5314,
      "/0": 5315,
      "sposobnostim": 5316,
      "hirurÅ¡k": 5317,
      "%)": 5318,
      "naslov": 5319,
      "regio": 5320,
      "svetlos": 5321,
      "komuniciranj": 5322,
      "tuÅ¾b": 5323,
      "optuÅ¾nic": 5324,
      "uvred": 5325,
      "normalni": 5326,
      "brisanj": 5327,
      "OpÅ¡t": 5328,
      "dolin": 5329,
      "Zora": 5330,
      ".KonaÄįn": 5331,
      "sporn": 5332,
      "zapaÅ¾anj": 5333,
      "ostavi": 5334,
      ".ViÅ¡": 5335,
      "urban": 5336,
      "opstana": 5337,
      "klimatsk": 5338,
      "praktiÄįno": 5339,
      "DuÅ¡a": 5340,
      "susre": 5341,
      "udel": 5342,
      "razliÄīiti": 5343,
      "globalni": 5344,
      "potpredsedni": 5345,
      "Bog": 5346,
      "Nagrad": 5347,
      "identifikovat": 5348,
      "suÅ¡enj": 5349,
      "brodov": 5350,
      "ugovorn": 5351,
      "dugogodiÅ¡nj": 5352,
      "MihajloviÄ": 5353,
      "drzav": 5354,
      "praktiÄįni": 5355,
      ":0": 5356,
      "aut": 5357,
      "Mal": 5358,
      "zaposlenj": 5359,
      "stradanj": 5360,
      "matiÄįn": 5361,
      "uzrokovan": 5362,
      "civilno": 5363,
      "koordinat": 5364,
      "pronalaz": 5365,
      "slovim": 5366,
      "pomoÄĩni": 5367,
      "uloz": 5368,
      "patrijarh": 5369,
      "izjavil": 5370,
      "slikam": 5371,
      "uÅ¡l": 5372,
      "dokazuj": 5373,
      "posluj": 5374,
      "dostupnos": 5375,
      "dodeljen": 5376,
      "vlasnic": 5377,
      "prihvati": 5378,
      "modul": 5379,
      "stiga": 5380,
      "ekosistem": 5381,
      "ruÄįn": 5382,
      "normativn": 5383,
      "raÄĳen": 5384,
      "uslovn": 5385,
      "izdvojit": 5386,
      "slo": 5387,
      "zub": 5388,
      "biografij": 5389,
      "DrÅ¾avam": 5390,
      "ispitival": 5391,
      "igra": 5392,
      "pogledat": 5393,
      "smanjivanj": 5394,
      "proizvoÄĳaÄ": 5395,
      "oglas": 5396,
      "savetovanj": 5397,
      "prij": 5398,
      "Petr": 5399,
      "realni": 5400,
      "poslanic": 5401,
      "dodavanj": 5402,
      "estetsk": 5403,
      "roma": 5404,
      ".Zanimljiv": 5405,
      "uzimaj": 5406,
      ".TreÄĩ": 5407,
      "demografsk": 5408,
      "kupatil": 5409,
      "genetsk": 5410,
      "osno": 5411,
      "utvrÄĳe": 5412,
      "manje": 5413,
      "uradi": 5414,
      "proseÄįa": 5415,
      "prateÄĩ": 5416,
      "dobavljaÄį": 5417,
      "forum": 5418,
      "performansam": 5419,
      "napuÅ¡tanj": 5420,
      "specijalist": 5421,
      "raspoloÅ¾iv": 5422,
      "tretirani": 5423,
      "ureÄĳen": 5424,
      "povrÅ¡insko": 5425,
      "kakvo": 5426,
      "glukoz": 5427,
      "konstatovan": 5428,
      "pisc": 5429,
      "vibracij": 5430,
      "zlatn": 5431,
      "gospodin": 5432,
      "konstatovat": 5433,
      "preuzel": 5434,
      "Gradsk": 5435,
      "napravlje": 5436,
      "adekvata": 5437,
      "odbijanj": 5438,
      "Informer": 5439,
      "Zagre": 5440,
      "bodov": 5441,
      "usledil": 5442,
      "(2)": 5443,
      "rezultiral": 5444,
      "vin": 5445,
      "prepoznatljiv": 5446,
      "ravnopravnos": 5447,
      "pravi": 5448,
      "optimalno": 5449,
      "problematiÄįn": 5450,
      "teÅ¡ko": 5451,
      "prebivaliÅ¡t": 5452,
      "nemoguÄĩnos": 5453,
      "Stefa": 5454,
      "produktivnos": 5455,
      "183": 5456,
      "srednjo": 5457,
      "meram": 5458,
      "pravoslavno": 5459,
      "rizicim": 5460,
      "starosn": 5461,
      "ekvivalentn": 5462,
      "raznovrsn": 5463,
      "viÄĳenj": 5464,
      "rukopis": 5465,
      "dominiraj": 5466,
      "kost": 5467,
      "odgovarajuÄĩo": 5468,
      "organsko": 5469,
      "razliÄįi": 5470,
      ".Dodatn": 5471,
      "sudsko": 5472,
      "insuficijencij": 5473,
      "autobus": 5474,
      "programsko": 5475,
      "gledal": 5476,
      "upuÄĩen": 5477,
      "/200": 5478,
      "nazva": 5479,
      "Indij": 5480,
      "Pravilnik": 5481,
      "grafikon": 5482,
      "zavrÅ¡n": 5483,
      "doÅ¾ivljavaj": 5484,
      "komunikacion": 5485,
      "izmenam": 5486,
      "pisal": 5487,
      "pripadnos": 5488,
      "izdrÅ¾avanj": 5489,
      "promovisanj": 5490,
      "bor": 5491,
      "komandant": 5492,
      "sloboda": 5493,
      "softversk": 5494,
      "nosaÄį": 5495,
      "igram": 5496,
      "izaÅ¡l": 5497,
      "V.": 5498,
      "uslovo": 5499,
      "fond": 5500,
      "pozva": 5501,
      "zasnovano": 5502,
      "traÅ¾enj": 5503,
      "mineral": 5504,
      "statistiÄīk": 5505,
      "funkcioner": 5506,
      "izriÄįit": 5507,
      "promeno": 5508,
      "zlat": 5509,
      "preferencij": 5510,
      "transformiÅ¡": 5511,
      "sagovornik": 5512,
      "versk": 5513,
      "kurs": 5514,
      "osloboÄĳen": 5515,
      "investiranj": 5516,
      "poslat": 5517,
      "Å¡ezdeseti": 5518,
      "izdvojil": 5519,
      "ugovoro": 5520,
      "istinsk": 5521,
      "fleksibilnos": 5522,
      "nasleÄĳivanj": 5523,
      "najpoznatiji": 5524,
      "motivisan": 5525,
      "citokin": 5526,
      "Å¾ele": 5527,
      "netaÄįn": 5528,
      "spontan": 5529,
      "jezicim": 5530,
      "mortalitet": 5531,
      "advokat": 5532,
      "analiziral": 5533,
      "general": 5534,
      "nasupro": 5535,
      "grÄįko": 5536,
      "bolesnic": 5537,
      "juÄį": 5538,
      "polak": 5539,
      "ivic": 5540,
      "Å¾eli": 5541,
      "biologij": 5542,
      "opi": 5543,
      "limfocit": 5544,
      "prediktor": 5545,
      "ton": 5546,
      "inÅ¾enjer": 5547,
      "postupc": 5548,
      "potraÅ¾nj": 5549,
      "4,": 5550,
      ".Zakon": 5551,
      "baÅ¡tin": 5552,
      "odrÅ¾ivost": 5553,
      "razliÄįitost": 5554,
      "Dalmacij": 5555,
      "pranj": 5556,
      "molekularn": 5557,
      "lopt": 5558,
      "poÄįetni": 5559,
      "odeljk": 5560,
      "Äįul": 5561,
      "opadanj": 5562,
      "nauÄįnic": 5563,
      ".Ovaka": 5564,
      "pojavi": 5565,
      "postojat": 5566,
      "praznik": 5567,
      "institu": 5568,
      "udaljen": 5569,
      "GrÄįko": 5570,
      "jeziko": 5571,
      "izraÅ¾e": 5572,
      "vredn": 5573,
      "Å¡tetni": 5574,
      "otkriÄĩ": 5575,
      "stimuliÅ¡": 5576,
      "obraÄįun": 5577,
      "lingvistiÄįk": 5578,
      "MiloÅ¡": 5579,
      "spavanj": 5580,
      "stanovnic": 5581,
      "srednjovekovno": 5582,
      "hijerarhijsk": 5583,
      "simbo": 5584,
      "Pravilni": 5585,
      "nedostatak": 5586,
      "kandida": 5587,
      "amplitud": 5588,
      "zid": 5589,
      "9.": 5590,
      "fizioloÅ¡ki": 5591,
      "klu": 5592,
      "stakl": 5593,
      "B.": 5594,
      "Kanad": 5595,
      "omoguÄĩi": 5596,
      "spreÄį": 5597,
      "rastvo": 5598,
      "miÅ¡ev": 5599,
      "maloletnik": 5600,
      "napustil": 5601,
      "konstatuj": 5602,
      "kontaminacij": 5603,
      "turnir": 5604,
      "materijalim": 5605,
      "holesterol": 5606,
      "zasluÅ¾uj": 5607,
      "sprovel": 5608,
      "konzumiranj": 5609,
      "zameni": 5610,
      "raket": 5611,
      "-o": 5612,
      "pravoslavni": 5613,
      "posetilac": 5614,
      ".Ostal": 5615,
      "sportsko": 5616,
      "osnivaÄ": 5617,
      "logik": 5618,
      ",3": 5619,
      ":2": 5620,
      "Save": 5621,
      "institucionalni": 5622,
      "stiÅ¾": 5623,
      ".J": 5624,
      "zabav": 5625,
      "voÄĩ": 5626,
      "kvantifikacij": 5627,
      "privlaÄį": 5628,
      "sledeÄĩo": 5629,
      "vojvod": 5630,
      "mast": 5631,
      "izazvat": 5632,
      "sekcij": 5633,
      "naslednik": 5634,
      "autoritet": 5635,
      "kontinuite": 5636,
      "manjo": 5637,
      "album": 5638,
      "Karakteristik": 5639,
      "ulask": 5640,
      "spad": 5641,
      "hriÅ¡Äĩansko": 5642,
      "zahteval": 5643,
      "planovim": 5644,
      "maka": 5645,
      "oficir": 5646,
      "danaÅ¡nji": 5647,
      "pouzdanos": 5648,
      "Centa": 5649,
      "zakonodavn": 5650,
      "uvoÄĳenje": 5651,
      "Banj": 5652,
      "aspektim": 5653,
      "bavljenj": 5654,
      "arhitektonski": 5655,
      "prezim": 5656,
      "geografski": 5657,
      ".Promen": 5658,
      "novÄįani": 5659,
      "klijenat": 5660,
      "prava": 5661,
      "doprines": 5662,
      "diferencijaln": 5663,
      "saradni": 5664,
      "vam": 5665,
      "napisal": 5666,
      "valut": 5667,
      "miÅ¡iÄĩn": 5668,
      "poplav": 5669,
      "Pavl": 5670,
      "pevaÄįic": 5671,
      "stekl": 5672,
      ".Koncentracij": 5673,
      "razgovaral": 5674,
      ".Proble": 5675,
      "kolegam": 5676,
      "agresij": 5677,
      "spremnos": 5678,
      "stavk": 5679,
      "fazam": 5680,
      ".Utica": 5681,
      "oporezivanj": 5682,
      "telekomunikacij": 5683,
      "uÅ¾iv": 5684,
      "krvarenj": 5685,
      "kadrov": 5686,
      "ÉĿÉ¨ÉŀÉ¢É§É": 5687,
      "najbliÅ¾": 5688,
      "poginul": 5689,
      "zaposlenost": 5690,
      "akademski": 5691,
      "blagovremen": 5692,
      "e-poÅ¡t": 5693,
      "periodim": 5694,
      "Äįuven": 5695,
      "preduslo": 5696,
      "pridruÅ¾ivanj": 5697,
      "eksperimentim": 5698,
      "deficit": 5699,
      "aktuelno": 5700,
      "doktor": 5701,
      "pacijentim": 5702,
      "austrijsk": 5703,
      "onlin": 5704,
      "DN": 5705,
      ":3": 5706,
      "legend": 5707,
      "podgrup": 5708,
      ",1": 5709,
      "(Beogra": 5710,
      "uÄįinioc": 5711,
      "Savremen": 5712,
      "ProseÄįn": 5713,
      "eliminacij": 5714,
      "duh": 5715,
      "kraljevsk": 5716,
      "fundamentaln": 5717,
      "gramatiÄįk": 5718,
      "posredovanj": 5719,
      "mineralni": 5720,
      "medijski": 5721,
      "policijsko": 5722,
      "Zvezd": 5723,
      "bitk": 5724,
      "gla": 5725,
      "kratkoroÄįn": 5726,
      "-201": 5727,
      "postupko": 5728,
      "oznaÄįavanj": 5729,
      "emotivn": 5730,
      "VaÅ¡ington": 5731,
      "takmiÄįenjim": 5732,
      "prekomern": 5733,
      "elastiÄįnost": 5734,
      "podnet": 5735,
      "napredn": 5736,
      "Jedn": 5737,
      "konvergencij": 5738,
      "tematsk": 5739,
      "zastav": 5740,
      "Ujedinjen": 5741,
      "Zborni": 5742,
      "psiholoÅ¡ki": 5743,
      "odgovaral": 5744,
      "Vrednost": 5745,
      ".Nasupro": 5746,
      "zaÅ¡titni": 5747,
      "koncentracijo": 5748,
      "nalaziÅ¡t": 5749,
      "donj": 5750,
      "Å¾lezd": 5751,
      "kamatn": 5752,
      "organizacijo": 5753,
      ".Pitanj": 5754,
      "poslediÄįn": 5755,
      "bugarsk": 5756,
      "demokratski": 5757,
      "normalizacij": 5758,
      "opremljen": 5759,
      "ispun": 5760,
      "statistiÄįko": 5761,
      "oseÄĩ": 5762,
      "razvijenost": 5763,
      "integrite": 5764,
      "analizira": 5765,
      "odbacivanj": 5766,
      "Dana": 5767,
      "obuhvatil": 5768,
      "poverioc": 5769,
      "sutr": 5770,
      "kaza": 5771,
      "(ka": 5772,
      ".NaÅ¡": 5773,
      "hektar": 5774,
      "Å¾ivoto": 5775,
      "neoÄįekivan": 5776,
      "Å¡tetn": 5777,
      "tursko": 5778,
      "bol": 5779,
      "predstavk": 5780,
      "dom": 5781,
      "datum": 5782,
      "zakonik": 5783,
      "ulaza": 5784,
      "predikcij": 5785,
      "najavi": 5786,
      "prikupljeni": 5787,
      "godiÅ¡nji": 5788,
      "biomas": 5789,
      "delovanje": 5790,
      "slaganj": 5791,
      "aktivnoÅ¡Äĩ": 5792,
      "vektor": 5793,
      "neadekvatn": 5794,
      "Poslednj": 5795,
      "Dakl": 5796,
      "kategorizacij": 5797,
      "uÅ¾ivanj": 5798,
      "reprezentativa": 5799,
      "neutraln": 5800,
      "vazduÅ¡n": 5801,
      "poslani": 5802,
      "ograniÄįavanj": 5803,
      "brzino": 5804,
      "uÄįini": 5805,
      "poviÅ¡en": 5806,
      "Srednj": 5807,
      "dugotrajn": 5808,
      "stupanj": 5809,
      "gub": 5810,
      "formiral": 5811,
      "nekak": 5812,
      "prekrÅ¡aj": 5813,
      "drastiÄįn": 5814,
      "stvaralaÄįk": 5815,
      "pedagoÅ¡k": 5816,
      "plaÄĩ": 5817,
      "slovensk": 5818,
      "pregledaÄį": 5819,
      "pos": 5820,
      "bare": 5821,
      "restrukturiranj": 5822,
      "ukljuÄį": 5823,
      "sekundarno": 5824,
      "korporativn": 5825,
      "kupac": 5826,
      "kontrakcij": 5827,
      "hlaÄĳenj": 5828,
      "komunaln": 5829,
      "vaspitn": 5830,
      "(il": 5831,
      ".Najbolj": 5832,
      "programo": 5833,
      "Njujork": 5834,
      "StatistiÄįk": 5835,
      "shvatil": 5836,
      "transfe": 5837,
      "zakljuÄįc": 5838,
      "neuron": 5839,
      "opÅ¡tinam": 5840,
      "polufinal": 5841,
      "dozvolit": 5842,
      "deskriptivn": 5843,
      "neretk": 5844,
      "Äįud": 5845,
      "psihiÄįk": 5846,
      "Äįlanicam": 5847,
      "primerak": 5848,
      "nepovoljn": 5849,
      "pristupo": 5850,
      "gljiv": 5851,
      "upoznaj": 5852,
      "projektovan": 5853,
      "ureÄĳa": 5854,
      "odliÄįa": 5855,
      "sjajn": 5856,
      "metaboliÄįk": 5857,
      "ekoloÅ¡ko": 5858,
      ".Sad": 5859,
      "oksidativno": 5860,
      "zadrug": 5861,
      "mentalno": 5862,
      "strukturam": 5863,
      "subot": 5864,
      "socijalizm": 5865,
      "sindrom": 5866,
      "procenat": 5867,
      "praÅ¾njenj": 5868,
      "izbegl": 5869,
      "sporov": 5870,
      "deonic": 5871,
      "osnovam": 5872,
      "dostizanj": 5873,
      "doktorsko": 5874,
      "medijsko": 5875,
      "iskoristil": 5876,
      ".ÄĮinjenic": 5877,
      "konstantno": 5878,
      "3)": 5879,
      "regeneracij": 5880,
      "Severno": 5881,
      "verifikacij": 5882,
      "predloÅ¾eno": 5883,
      "isticanj": 5884,
      "veÄįera": 5885,
      "sluÅ¾benic": 5886,
      ",2": 5887,
      "smanj": 5888,
      "pomoÄĩn": 5889,
      "bivÅ¡e": 5890,
      "danim": 5891,
      "privremeno": 5892,
      "budem": 5893,
      "Priliko": 5894,
      "igraÄ": 5895,
      "iskoriÅ¡Äĩen": 5896,
      "naseljen": 5897,
      "spajanj": 5898,
      "pojaÄįan": 5899,
      "DrÅ¾avn": 5900,
      "zaÅ¡tito": 5901,
      "odluÄįujuÄĩ": 5902,
      "raÄįunovodstveni": 5903,
      "(4": 5904,
      "kvalitetnij": 5905,
      "pretraÅ¾ivanj": 5906,
      "nezgod": 5907,
      "napo": 5908,
      "Azij": 5909,
      "potroÅ¡aÄįim": 5910,
      "isho": 5911,
      "osobinam": 5912,
      "uniÅ¡tenj": 5913,
      "ostavit": 5914,
      "Å¾enski": 5915,
      "britansko": 5916,
      "ponovno": 5917,
      "DimitrijeviÄ": 5918,
      "puno": 5919,
      "konvencionalni": 5920,
      "iskustvo": 5921,
      "napusti": 5922,
      "pogorÅ¡anj": 5923,
      "nad": 5924,
      ".Generaln": 5925,
      "NebojÅ¡": 5926,
      "plastiÄįn": 5927,
      "krvni": 5928,
      "matematiÄįko": 5929,
      "stavljen": 5930,
      ".6": 5931,
      "subjek": 5932,
      "poljoprivrednik": 5933,
      "drÅ¾anj": 5934,
      "porodicam": 5935,
      "Äįuvaj": 5936,
      "planir": 5937,
      "preostali": 5938,
      "pribliÅ¾avanj": 5939,
      "svijet": 5940,
      "dodel": 5941,
      "graÄĳanski": 5942,
      "stvor": 5943,
      "svedoÄįanstv": 5944,
      "zamenic": 5945,
      "ugljenik": 5946,
      "polaz": 5947,
      "Äĩelijski": 5948,
      "preÅ¡l": 5949,
      "trenin": 5950,
      "datu": 5951,
      "Milic": 5952,
      "poboljÅ¡av": 5953,
      "dostupnost": 5954,
      "iskoriÅ¡Äĩavanj": 5955,
      "imovinsk": 5956,
      "konceptualizacij": 5957,
      "zavod": 5958,
      "Ispitivanj": 5959,
      "izazo": 5960,
      "zadovolj": 5961,
      "-3": 5962,
      "preuzim": 5963,
      "najviÅ¡i": 5964,
      "ptic": 5965,
      "strujanj": 5966,
      "partijsk": 5967,
      "primenjivat": 5968,
      "Å¾elezniÄįko": 5969,
      "steÄįen": 5970,
      "konceptualn": 5971,
      "zaduÅ¾en": 5972,
      "Englesko": 5973,
      "medijum": 5974,
      "razumej": 5975,
      "onak": 5976,
      "obveznik": 5977,
      ",4": 5978,
      "moderni": 5979,
      "pacijen": 5980,
      "IzveÅ¡ta": 5981,
      "ViÅ¡": 5982,
      "susedni": 5983,
      "mislit": 5984,
      "poroÄĳaj": 5985,
      "prelask": 5986,
      "vazdu": 5987,
      "meren": 5988,
      "ponaÅ¡anje": 5989,
      "Å¡pansk": 5990,
      "meÄĳusobni": 5991,
      "registrovani": 5992,
      "daljin": 5993,
      "atom": 5994,
      ".VaÅ¾n": 5995,
      "iÅ¡l": 5996,
      "akcionar": 5997,
      "kombinuj": 5998,
      "dvoran": 5999,
      "Bibliotek": 6000,
      "protekli": 6001,
      "mlaÄĳi": 6002,
      ",6": 6003,
      "disfunkcij": 6004,
      "nekadaÅ¡nje": 6005,
      "duÅ": 6006,
      "gramatik": 6007,
      "zauzimaj": 6008,
      "prestal": 6009,
      "Direktiv": 6010,
      "kontinent": 6011,
      "park": 6012,
      "klijentim": 6013,
      "upozna": 6014,
      "Äįasopisim": 6015,
      "dominanta": 6016,
      "sprovedeni": 6017,
      "Äįasopi": 6018,
      "likvidacij": 6019,
      "Japan": 6020,
      "lingvistik": 6021,
      "suoÄįavaj": 6022,
      "zakljuÄįen": 6023,
      "deco": 6024,
      "funkcijam": 6025,
      "igral": 6026,
      "MitroviÄ": 6027,
      "oc": 6028,
      "stranc": 6029,
      "Bo": 6030,
      "ruralni": 6031,
      "referenc": 6032,
      "definisano": 6033,
      "napust": 6034,
      "dobijeno": 6035,
      "radim": 6036,
      ".Ministarstv": 6037,
      "knez": 6038,
      "izgledal": 6039,
      "teroristiÄįki": 6040,
      "Unij": 6041,
      "objavljeno": 6042,
      ".SledeÄĩ": 6043,
      "teritorijalno": 6044,
      "dobijal": 6045,
      "dominir": 6046,
      "sistematizacij": 6047,
      "formacij": 6048,
      "izvorn": 6049,
      "deseta": 6050,
      "pesnik": 6051,
      "prouzrokuj": 6052,
      "odgovorim": 6053,
      "monitorin": 6054,
      "trener": 6055,
      "hriÅ¡Äĩan": 6056,
      "terapijsk": 6057,
      "uslugam": 6058,
      "teb": 6059,
      "napominj": 6060,
      "intenzivnij": 6061,
      "zadovoljavaj": 6062,
      "determinacij": 6063,
      "adekvatno": 6064,
      "integraln": 6065,
      "neÅ¾eljen": 6066,
      "izmenjen": 6067,
      "deÅ¡avaj": 6068,
      "odigra": 6069,
      "glagolsk": 6070,
      "partne": 6071,
      "logistiÄįk": 6072,
      "energijo": 6073,
      "bilans": 6074,
      "poreda": 6075,
      "provod": 6076,
      "zabeleÅ¾il": 6077,
      "proraÄįu": 6078,
      "zasnivaj": 6079,
      ".or": 6080,
      "zvanj": 6081,
      "podrÅ¡c": 6082,
      "ozbiljnij": 6083,
      "ilustruj": 6084,
      "regionim": 6085,
      "uÅ¡ted": 6086,
      "ruralno": 6087,
      "akt": 6088,
      "hapÅ¡enj": 6089,
      "grupacij": 6090,
      "slovenski": 6091,
      "podnes": 6092,
      "dostiÅ¾": 6093,
      "muslimansk": 6094,
      "nekog": 6095,
      "referendum": 6096,
      ".NajviÅ¡": 6097,
      "ukljuÄįit": 6098,
      "tehnologijam": 6099,
      ".ÄĮa": 6100,
      "reputacij": 6101,
      "odluÄį": 6102,
      "viÅ¡e": 6103,
      "privlaÄįenj": 6104,
      "preÅ¾ivel": 6105,
      "sintagm": 6106,
      "rib": 6107,
      "Lig": 6108,
      "svojstvim": 6109,
      "doktrin": 6110,
      "SocijalistiÄįk": 6111,
      "transportn": 6112,
      "drog": 6113,
      "odlask": 6114,
      "punjenj": 6115,
      "znak": 6116,
      "Tursko": 6117,
      "komandan": 6118,
      ".M": 6119,
      "razgovara": 6120,
      "zadnj": 6121,
      "svojevremen": 6122,
      "stavljanj": 6123,
      "parlamentarni": 6124,
      "Odluk": 6125,
      "transkripcij": 6126,
      "razmer": 6127,
      "otkri": 6128,
      "italijanski": 6129,
      "francuski": 6130,
      "26": 6131,
      "nuklearno": 6132,
      "SliÄįn": 6133,
      "proÄĳ": 6134,
      "ulazn": 6135,
      "kardiovaskularn": 6136,
      "logiÄįn": 6137,
      "nosila": 6138,
      "nastavljaj": 6139,
      ")*'": 6140,
      "realizova": 6141,
      "trene": 6142,
      "vizantijsko": 6143,
      "sagledat": 6144,
      "iskoriÅ¡Äĩenj": 6145,
      "borava": 6146,
      "naÄĳen": 6147,
      "Pr": 6148,
      "obeÄĩanj": 6149,
      "trÅ¾iÅ¡no": 6150,
      "monarhij": 6151,
      "partnerim": 6152,
      "protoko": 6153,
      "periferij": 6154,
      "navodim": 6155,
      "svedok": 6156,
      "otprilik": 6157,
      ".NaÅ¾alos": 6158,
      "odvajanj": 6159,
      "urbano": 6160,
      "indikato": 6161,
      "akademsko": 6162,
      "pozicijam": 6163,
      "sunc": 6164,
      "uzm": 6165,
      "naÄįino": 6166,
      "polaganj": 6167,
      "uvaÅ¾avanj": 6168,
      "pripovedanj": 6169,
      "TreÄĩ": 6170,
      "putevim": 6171,
      "ObradoviÄ": 6172,
      "spominj": 6173,
      "izvrÅ¡i": 6174,
      "beton": 6175,
      "promiÅ¡ljanj": 6176,
      "partizan": 6177,
      "proglaÅ¡e": 6178,
      "ljt": 6179,
      "Å¾ivi": 6180,
      ":4": 6181,
      ".MoguÄĩ": 6182,
      "polazn": 6183,
      "navodeÄĩ": 6184,
      "crev": 6185,
      "odluko": 6186,
      "povelj": 6187,
      "ambasador": 6188,
      "ukrajinsko": 6189,
      "ambijent": 6190,
      "zavrÅ¡no": 6191,
      "govoreÄĩ": 6192,
      "maksimalni": 6193,
      "devizno": 6194,
      ".Uprko": 6195,
      ".InaÄį": 6196,
      "voden": 6197,
      "odavn": 6198,
      "dome": 6199,
      ",7": 6200,
      "autentiÄįn": 6201,
      "osuÄĳen": 6202,
      "argumen": 6203,
      "Posebn": 6204,
      "adolescenat": 6205,
      ":5": 6206,
      "inkubacij": 6207,
      "anket": 6208,
      "bankarsk": 6209,
      "sediment": 6210,
      "kreativnost": 6211,
      "obavezuj": 6212,
      "konkurentnos": 6213,
      "reÅ¡enje": 6214,
      "dostavlj": 6215,
      "sprovest": 6216,
      "izabrani": 6217,
      "proizlaz": 6218,
      "galerij": 6219,
      "budÅ¾e": 6220,
      "rashod": 6221,
      "zamenjuj": 6222,
      "ispitanicim": 6223,
      "uÄį": 6224,
      "spisa": 6225,
      "informativn": 6226,
      "izmedj": 6227,
      "ustanovil": 6228,
      "plaÄĩaj": 6229,
      "parlamen": 6230,
      "prijateljsk": 6231,
      "parcijaln": 6232,
      "kompleksni": 6233,
      "pripadnicim": 6234,
      "gajenj": 6235,
      ".Ukupn": 6236,
      "izvrÅ¡no": 6237,
      "gled": 6238,
      "uobiÄįajeni": 6239,
      "istraÅ¾ivaÄ": 6240,
      "Å¡kolski": 6241,
      "logiÄįk": 6242,
      "kvalitetni": 6243,
      "Ist": 6244,
      "civiln": 6245,
      "registrova": 6246,
      "uspeÅ¡no": 6247,
      "vrhunsk": 6248,
      "ambasado": 6249,
      "suko": 6250,
      "korisniÄįko": 6251,
      ".NajvaÅ¾nij": 6252,
      "hirurgij": 6253,
      "100": 6254,
      "An": 6255,
      "stolic": 6256,
      "Londo": 6257,
      "kupuj": 6258,
      ",8": 6259,
      "dogovo": 6260,
      "kolen": 6261,
      "zadovolja": 6262,
      "sintaksiÄįk": 6263,
      "beb": 6264,
      "vatr": 6265,
      "djel": 6266,
      "oÅ¡teÄĩeno": 6267,
      "reklam": 6268,
      "formalno": 6269,
      "prito": 6270,
      "dilem": 6271,
      "(196": 6272,
      "prizna": 6273,
      "komÅ¡ij": 6274,
      "ostvareni": 6275,
      "termiÄįk": 6276,
      "registruj": 6277,
      "ogroma": 6278,
      "krajnje": 6279,
      "strukturo": 6280,
      "stanovniÅ¡tvo": 6281,
      "posveÄĩuj": 6282,
      "obrazovanje": 6283,
      "posedovanj": 6284,
      "gost": 6285,
      "ubije": 6286,
      "gleda": 6287,
      "poslodava": 6288,
      "SRBIJ": 6289,
      "taÄįnos": 6290,
      "trenutno": 6291,
      "C.": 6292,
      "zasnovani": 6293,
      "Ostal": 6294,
      "J.": 6295,
      "reÅ¡enjim": 6296,
      "Äįuv": 6297,
      "krav": 6298,
      "(5": 6299,
      "okrivljen": 6300,
      "braÅ¡n": 6301,
      "vrÅ¡it": 6302,
      "opisivanj": 6303,
      "neÅ¾eljeni": 6304,
      "narativ": 6305,
      "biljn": 6306,
      "dosledn": 6307,
      "hospitalizacij": 6308,
      "podrÅ¾al": 6309,
      "fasad": 6310,
      ".Umest": 6311,
      "Mar": 6312,
      "kup": 6313,
      "nastavljen": 6314,
      "zavrÅ¡e": 6315,
      "razumljiv": 6316,
      "odbo": 6317,
      "predvidet": 6318,
      "Å¾eleznic": 6319,
      "izraÅ¾avaj": 6320,
      "pregovorim": 6321,
      ".Srpsk": 6322,
      "oscilacij": 6323,
      "etniÄįki": 6324,
      "SAN": 6325,
      "analizirano": 6326,
      "relativno": 6327,
      ".ÅłtaviÅ¡": 6328,
      "odbij": 6329,
      "administrativno": 6330,
      "direkta": 6331,
      ".Grafiko": 6332,
      "rukovoÄĳenj": 6333,
      "arheoloÅ¡k": 6334,
      "StanovniÅ¡tv": 6335,
      "ciklu": 6336,
      "vaÅ": 6337,
      "marketinÅ¡k": 6338,
      "preminul": 6339,
      "intelektualni": 6340,
      "uÄįionic": 6341,
      "gazdinstv": 6342,
      "Å¡em": 6343,
      "moÅ¾eÅ": 6344,
      "kongres": 6345,
      "saopÅ¡ten": 6346,
      "Iva": 6347,
      "izraÄĳen": 6348,
      "vodeÄĩi": 6349,
      "kratki": 6350,
      "timov": 6351,
      "namern": 6352,
      "ispunjavanj": 6353,
      "pravilnik": 6354,
      "izvest": 6355,
      "pogodnost": 6356,
      "solidarnost": 6357,
      "razre": 6358,
      "ubedljiv": 6359,
      "vodi": 6360,
      "najstariji": 6361,
      "zadacim": 6362,
      "gledan": 6363,
      "moguÄĩe": 6364,
      "otpuÅ¡tanj": 6365,
      "Leskovc": 6366,
      "finansir": 6367,
      "ukljuÄįe": 6368,
      "serum": 6369,
      "apri": 6370,
      "neizvesnost": 6371,
      "izgraÄĳe": 6372,
      ".Ta": 6373,
      "ukljuÄįival": 6374,
      "VeÄĩin": 6375,
      "slabost": 6376,
      "navrat": 6377,
      "dostigl": 6378,
      "slanj": 6379,
      "dijabetes": 6380,
      "nemam": 6381,
      "aritmetiÄįk": 6382,
      "sprem": 6383,
      "geografij": 6384,
      "tvrdi": 6385,
      "KomunistiÄįk": 6386,
      "vrijednos": 6387,
      "efikasa": 6388,
      ".Trenutn": 6389,
      "5,": 6390,
      "srÄįan": 6391,
      "predrasud": 6392,
      "vremenim": 6393,
      "Al": 6394,
      "selektivn": 6395,
      "anestezij": 6396,
      "proto": 6397,
      "apoptoz": 6398,
      "fudbale": 6399,
      "naseljim": 6400,
      "sastavljanj": 6401,
      "uniÅ¡ten": 6402,
      "usmeravanj": 6403,
      "penzioner": 6404,
      "popularnos": 6405,
      "Äįlana": 6406,
      "pametn": 6407,
      "iskljuÄįenj": 6408,
      "obavezam": 6409,
      "naglaÅ¡avaj": 6410,
      ",9": 6411,
      "treÄĩo": 6412,
      "prijavljen": 6413,
      "kanalizacij": 6414,
      "Hrist": 6415,
      "svaki": 6416,
      "diplom": 6417,
      "-politiÄįk": 6418,
      "platn": 6419,
      "uspostavit": 6420,
      "totaln": 6421,
      "27": 6422,
      "centrim": 6423,
      "subjektivno": 6424,
      "posmatram": 6425,
      "donje": 6426,
      "milio": 6427,
      "operator": 6428,
      ".Poznat": 6429,
      "obrazuj": 6430,
      "odgovorni": 6431,
      "sproved": 6432,
      "najviÅ¡e": 6433,
      "obeleÅ¾il": 6434,
      "kamat": 6435,
      "Balka": 6436,
      "ispitivanje": 6437,
      "povlaÄį": 6438,
      "izmeÄİ": 6439,
      "oruÅ¾ani": 6440,
      "front": 6441,
      "poÄįiv": 6442,
      "vijek": 6443,
      "kasniji": 6444,
      "izreÄįen": 6445,
      "primljen": 6446,
      "promeni": 6447,
      "kriminalistiÄįk": 6448,
      "hladn": 6449,
      "neminovn": 6450,
      "neÄĩem": 6451,
      "smetnj": 6452,
      "ubijen": 6453,
      "izraÅ¾aj": 6454,
      "identifikoval": 6455,
      "Äįinjenicam": 6456,
      "dati": 6457,
      "raskrsnic": 6458,
      "proglaÅ¡enj": 6459,
      "akcena": 6460,
      "proÄįitat": 6461,
      "maksimu": 6462,
      "dodatko": 6463,
      "razgraniÄįenj": 6464,
      "majstor": 6465,
      "NajÄįeÅ¡Äĩ": 6466,
      "('": 6467,
      "Å½ivkoviÄ": 6468,
      "antimikrobn": 6469,
      "Mirosla": 6470,
      "kompenzacij": 6471,
      "nesigurnost": 6472,
      "ravnopravn": 6473,
      "trgovaÄįk": 6474,
      "deÅ¡aval": 6475,
      ".VeÄ": 6476,
      "viÅ¡egodiÅ¡nj": 6477,
      "veza": 6478,
      "izuzetno": 6479,
      "preduslov": 6480,
      "ozbiljni": 6481,
      "eksperimen": 6482,
      "obavezno": 6483,
      "popreÄįno": 6484,
      "Sjedinjen": 6485,
      "uÄįesnicim": 6486,
      "tekuÄĩ": 6487,
      "okonÄįanj": 6488,
      "28": 6489,
      "liderstv": 6490,
      "suprotstavljen": 6491,
      "neprihvatljiv": 6492,
      "Sofij": 6493,
      "podzemn": 6494,
      "Kalifornij": 6495,
      "koncert": 6496,
      ".Beogra": 6497,
      "retki": 6498,
      "vanredno": 6499,
      "posluÅ¾it": 6500,
      "Do": 6501,
      "legur": 6502,
      "jeftinij": 6503,
      "temam": 6504,
      "pruÅ¾il": 6505,
      "presudn": 6506,
      "referentni": 6507,
      "procesn": 6508,
      "reÅ¡it": 6509,
      "stre": 6510,
      "uveÄĩanj": 6511,
      "segmentim": 6512,
      "kreditn": 6513,
      "poboljÅ¡at": 6514,
      "porodico": 6515,
      "plemen": 6516,
      "higijen": 6517,
      "istoriografij": 6518,
      "sluÅ¾il": 6519,
      "mesecim": 6520,
      "novinarim": 6521,
      "hitn": 6522,
      "Ljubljan": 6523,
      "1.00": 6524,
      "Valjev": 6525,
      "fro": 6526,
      "izolovani": 6527,
      "kreativnos": 6528,
      "mar": 6529,
      "raspad": 6530,
      "poduhvat": 6531,
      "novij": 6532,
      "indukcij": 6533,
      "pogledajt": 6534,
      "realnos": 6535,
      "minimalni": 6536,
      "kompozitor": 6537,
      "foku": 6538,
      "upravljaÄįk": 6539,
      "prouzrokovan": 6540,
      "sagovornic": 6541,
      "empirijski": 6542,
      "apsolutno": 6543,
      "nosil": 6544,
      "postignu": 6545,
      "hibrid": 6546,
      "odredil": 6547,
      "specijalno": 6548,
      "argumentacij": 6549,
      "<mat": 6550,
      "stereotip": 6551,
      "meÅ¡ovit": 6552,
      "referentno": 6553,
      "servi": 6554,
      "levo": 6555,
      "upored": 6556,
      "motoriÄįki": 6557,
      "preuzm": 6558,
      "regista": 6559,
      "zatvoreni": 6560,
      "snimljen": 6561,
      "saj": 6562,
      "Nemanj": 6563,
      "modelo": 6564,
      "hval": 6565,
      "ostvare": 6566,
      "zvaniÄįnik": 6567,
      "peÄĩin": 6568,
      "dvoj": 6569,
      "objasnil": 6570,
      ".ÄĮest": 6571,
      "najvrednij": 6572,
      "festiva": 6573,
      "svog": 6574,
      "razmiÅ¡lj": 6575,
      "brend": 6576,
      "komplikovan": 6577,
      "zahvat": 6578,
      "izazva": 6579,
      "redovni": 6580,
      "lezij": 6581,
      "Ipa": 6582,
      "pripovetk": 6583,
      "pismen": 6584,
      "Âµ": 6585,
      "angaÅ¾uj": 6586,
      "razvijeno": 6587,
      ".Ispitivanj": 6588,
      "siromaÅ¡n": 6589,
      "Barselon": 6590,
      "prihvataj": 6591,
      "prethod": 6592,
      "trudnic": 6593,
      "patrijarÅ¡ij": 6594,
      "neka": 6595,
      "duhovno": 6596,
      ".7": 6597,
      "adekvatni": 6598,
      "neophodnos": 6599,
      "urbanistiÄįk": 6600,
      "rimsk": 6601,
      "preÄĳ": 6602,
      "Afrik": 6603,
      "posveÄĩenos": 6604,
      "horizontalno": 6605,
      "?âĢ": 6606,
      "mobilni": 6607,
      "primenjeno": 6608,
      "Belgij": 6609,
      "stvarni": 6610,
      "stambeno": 6611,
      "sten": 6612,
      "stareÅ¡in": 6613,
      "pasivn": 6614,
      "ispitivanjim": 6615,
      "apstraktn": 6616,
      "Äįek": 6617,
      "Luk": 6618,
      "razume": 6619,
      "Bil": 6620,
      "kontinuirano": 6621,
      "P.": 6622,
      "beogradski": 6623,
      "Skoplj": 6624,
      "Mnog": 6625,
      "komunikativn": 6626,
      "ulicam": 6627,
      "dodatno": 6628,
      "Belorusij": 6629,
      "napreduj": 6630,
      "elit": 6631,
      "konj": 6632,
      "blokov": 6633,
      "kompleksnost": 6634,
      "mitropolit": 6635,
      "preÅ¡a": 6636,
      "uoÄįljiv": 6637,
      "analogij": 6638,
      "plaÅ¾": 6639,
      "konstruktivn": 6640,
      "igar": 6641,
      "gdj": 6642,
      "psiholoÅ¡ko": 6643,
      "svod": 6644,
      "âĢľ)": 6645,
      "drugaÄįiji": 6646,
      "funkcijo": 6647,
      "sadaÅ¡nje": 6648,
      "Konstantin": 6649,
      "kretal": 6650,
      "raÄįuna": 6651,
      "intenzivno": 6652,
      "zabrinutos": 6653,
      "religijsk": 6654,
      "imaÄĩ": 6655,
      "dimenzijam": 6656,
      "sertifikat": 6657,
      "trenucim": 6658,
      "neodreÄĳen": 6659,
      "Razvo": 6660,
      "Vojsk": 6661,
      "masni": 6662,
      "standardizovan": 6663,
      "razmotrit": 6664,
      "kulturoloÅ¡k": 6665,
      "iskljuÄįivanj": 6666,
      "brin": 6667,
      "Pravn": 6668,
      "stavit": 6669,
      "naredb": 6670,
      "istoriÄįa": 6671,
      "kompjutersk": 6672,
      "nacionalizm": 6673,
      "identifikova": 6674,
      "Centralno": 6675,
      "ministar": 6676,
      ".Prednos": 6677,
      "mobilizacij": 6678,
      "rezultir": 6679,
      "vidov": 6680,
      "sojev": 6681,
      "neformaln": 6682,
      "efektim": 6683,
      "arhiv": 6684,
      "vaspitaÄį": 6685,
      "predmetn": 6686,
      "progresij": 6687,
      "obrazac": 6688,
      "odgovorit": 6689,
      ".Dalj": 6690,
      "oblikuj": 6691,
      "nepravilnost": 6692,
      "zastuplje": 6693,
      "semantiÄįki": 6694,
      "Äįinioc": 6695,
      "zauzel": 6696,
      "normala": 6697,
      "hrvatski": 6698,
      "plasman": 6699,
      "utvrÄĳeno": 6700,
      "razlikam": 6701,
      "glago": 6702,
      "odigral": 6703,
      "izborno": 6704,
      "odlaza": 6705,
      "najefikasnij": 6706,
      "urbani": 6707,
      "klasifikovan": 6708,
      "carinsk": 6709,
      "Olimpijski": 6710,
      "ekran": 6711,
      "taks": 6712,
      "inÅ¾enjerstv": 6713,
      "diplomat": 6714,
      "odbramben": 6715,
      "internacionaln": 6716,
      "XI": 6717,
      "teret": 6718,
      "fragment": 6719,
      "elektran": 6720,
      "rimsko": 6721,
      ".Razlo": 6722,
      "fleksibilnost": 6723,
      "govorno": 6724,
      "gramatiÄįki": 6725,
      "nestabilnost": 6726,
      "leksik": 6727,
      "instanc": 6728,
      "ukljuÄįeni": 6729,
      "predloÅ¾eni": 6730,
      "navoÄĳenj": 6731,
      "temeljn": 6732,
      "krvno": 6733,
      "postoperativn": 6734,
      "um": 6735,
      "testovim": 6736,
      "OdreÄĳivanj": 6737,
      "otpado": 6738,
      "progresivn": 6739,
      "odobravanj": 6740,
      "ubrzanj": 6741,
      "obeleÅ¾av": 6742,
      "naÄįelni": 6743,
      "disperzij": 6744,
      "ozbilja": 6745,
      "MilosavljeviÄ": 6746,
      "StevanoviÄ": 6747,
      "omiljen": 6748,
      "koronavirus": 6749,
      "tvorevin": 6750,
      "Eksperimentaln": 6751,
      ".Interesantn": 6752,
      "oporavk": 6753,
      "regulatorn": 6754,
      "varir": 6755,
      "Ustavno": 6756,
      "istek": 6757,
      "polimer": 6758,
      "stranicam": 6759,
      "upravljaj": 6760,
      "kapitalizm": 6761,
      "zasebn": 6762,
      "bizni": 6763,
      "godiÅ¡njic": 6764,
      "oÅ¡tr": 6765,
      "svedoÄįenj": 6766,
      "obaveÅ¡tav": 6767,
      "Zrenjanin": 6768,
      "nestal": 6769,
      "IstoÄįno": 6770,
      "odmor": 6771,
      "Konstanti": 6772,
      "liberalizacij": 6773,
      "definisal": 6774,
      "programski": 6775,
      "pribavljanj": 6776,
      "Äįasovim": 6777,
      "obaveza": 6778,
      "podleÅ¾": 6779,
      "a)": 6780,
      "komunikacioni": 6781,
      "vanredni": 6782,
      "implicitn": 6783,
      "navest": 6784,
      "Amerikanc": 6785,
      "Upravljanj": 6786,
      "neprijatn": 6787,
      "softve": 6788,
      "tadaÅ¡nje": 6789,
      "moti": 6790,
      "obiÄįa": 6791,
      "pripadanj": 6792,
      "uklonil": 6793,
      "roditeljsk": 6794,
      "ikon": 6795,
      "NorveÅ¡k": 6796,
      "jugoistoÄįno": 6797,
      "Carigrad": 6798,
      "umetnic": 6799,
      "plav": 6800,
      "kopij": 6801,
      "vodeno": 6802,
      "ekstremitet": 6803,
      "zim": 6804,
      "realizovat": 6805,
      "komercijalno": 6806,
      "bioloÅ¡ko": 6807,
      "dublj": 6808,
      "dojk": 6809,
      ".IzmeÄĳ": 6810,
      "4.1": 6811,
      "kvalifikacijam": 6812,
      "razvijal": 6813,
      "gospodar": 6814,
      "saznaj": 6815,
      "poÄįet": 6816,
      "upotrebit": 6817,
      "kognitivno": 6818,
      "Austrougarsk": 6819,
      "krvn": 6820,
      "sloÅ¾enij": 6821,
      "most": 6822,
      "imenuj": 6823,
      "inovativn": 6824,
      "pokuÅ¡aval": 6825,
      "tumaÄįit": 6826,
      "primeti": 6827,
      "sagovorni": 6828,
      "umr": 6829,
      "ujutr": 6830,
      "organizovani": 6831,
      "nastavnicim": 6832,
      "Dubrovnik": 6833,
      "neslaganj": 6834,
      "pojavo": 6835,
      "zadovoljavanj": 6836,
      "Äįuj": 6837,
      "ostatak": 6838,
      "nareÄĳenj": 6839,
      "Äĳubriv": 6840,
      "rijeÄį": 6841,
      "izdavaÄįk": 6842,
      "ponuÄĳen": 6843,
      "formulisanj": 6844,
      ".ZaÅ¡t": 6845,
      "najteÅ¾": 6846,
      "reproduktivn": 6847,
      "usaglaÅ¡avanj": 6848,
      "bavi": 6849,
      "evidentn": 6850,
      "episkop": 6851,
      "uplat": 6852,
      "nikaka": 6853,
      "kasn": 6854,
      "finaln": 6855,
      "biraj": 6856,
      "traÅ¾en": 6857,
      "neznatn": 6858,
      "lokacijam": 6859,
      "sloÅ¾enost": 6860,
      "svesta": 6861,
      "agregat": 6862,
      "konstruisanj": 6863,
      "sadaÅ¡njost": 6864,
      "utvrdi": 6865,
      ".3.": 6866,
      "bankarsko": 6867,
      "jedna": 6868,
      "kvantitativni": 6869,
      "Katarin": 6870,
      ".Bro": 6871,
      "ekstern": 6872,
      "zadrÅ¾": 6873,
      "Äįisto": 6874,
      "b)": 6875,
      "pita": 6876,
      "podvrgnut": 6877,
      "podstica": 6878,
      "propust": 6879,
      ".10": 6880,
      "konaÄįni": 6881,
      "Äįinilac": 6882,
      "onom": 6883,
      "vertikalno": 6884,
      "prilikam": 6885,
      "Promen": 6886,
      "unaza": 6887,
      "preduzetniÄįk": 6888,
      "kalcijum": 6889,
      "transplantacij": 6890,
      "imanj": 6891,
      "ograniÄįenjim": 6892,
      "molitv": 6893,
      "belo": 6894,
      "zakonodava": 6895,
      "radnicim": 6896,
      "reÅ¾ij": 6897,
      "interva": 6898,
      "tridese": 6899,
      "luk": 6900,
      "napajanj": 6901,
      "analizam": 6902,
      "momena": 6903,
      "ponavlj": 6904,
      "etiÄįk": 6905,
      "priÄįam": 6906,
      "odrÅ¾al": 6907,
      "odluÄįit": 6908,
      "ministark": 6909,
      "Googl": 6910,
      ".Primen": 6911,
      "Branisla": 6912,
      "stranam": 6913,
      "PreporuÄįuje": 6914,
      "prazni": 6915,
      "Primen": 6916,
      "Gora": 6917,
      "odredab": 6918,
      "podnosila": 6919,
      "rotacij": 6920,
      "pogoda": 6921,
      "roditeljsko": 6922,
      "spoljno": 6923,
      "savesnos": 6924,
      "balkanski": 6925,
      "prednj": 6926,
      "interaktivn": 6927,
      "Radi": 6928,
      "objavljivat": 6929,
      "Koncentracij": 6930,
      "migranat": 6931,
      "recepcij": 6932,
      "visokoÅ¡kolski": 6933,
      "graniÄįno": 6934,
      "redosled": 6935,
      "TodoroviÄ": 6936,
      "uÄįesni": 6937,
      "potvrÄĳivanj": 6938,
      "soj": 6939,
      "podnel": 6940,
      "neb": 6941,
      ".Tim": 6942,
      "verbaln": 6943,
      "skulptur": 6944,
      "obrazovan": 6945,
      "unutraÅ¡njo": 6946,
      "dominantni": 6947,
      "problemo": 6948,
      "Vrhovno": 6949,
      "razmatraj": 6950,
      "Managemen": 6951,
      "rani": 6952,
      ".Je": 6953,
      "likovn": 6954,
      "stimulus": 6955,
      "Slobodan": 6956,
      "pristupit": 6957,
      "podloÅ¾n": 6958,
      "ambasad": 6959,
      "vitr": 6960,
      "maÄĳarsko": 6961,
      "komentariÅ¡": 6962,
      "(Grafiko": 6963,
      "posud": 6964,
      "listovim": 6965,
      "uÄįeÅ¡Äĩe": 6966,
      "voÄĳen": 6967,
      "ovom": 6968,
      "prove": 6969,
      "preduzetnic": 6970,
      "ekologij": 6971,
      "trgovc": 6972,
      "htel": 6973,
      "javnoÅ¡Äĩ": 6974,
      "primil": 6975,
      "grupisanj": 6976,
      "svakodnevic": 6977,
      "izlask": 6978,
      "prihvaÄĩe": 6979,
      "kosovsk": 6980,
      "autorite": 6981,
      "grupn": 6982,
      "Medicinsko": 6983,
      "najbitnij": 6984,
      "sramot": 6985,
      "hriÅ¡Äĩanski": 6986,
      "praÅ¡in": 6987,
      "dove": 6988,
      "prelaza": 6989,
      "odrÅ¾": 6990,
      "iskoristi": 6991,
      "snaÅ¾a": 6992,
      "nepoznati": 6993,
      "planirani": 6994,
      "izaÄĳ": 6995,
      "potrebno": 6996,
      "socijalizacij": 6997,
      "japansk": 6998,
      "jel": 6999,
      "uobiÄįajeno": 7000,
      "steka": 7001,
      "zalih": 7002,
      "javit": 7003,
      "nepoznato": 7004,
      "poraz": 7005,
      "popunjavanj": 7006,
      "udruÅ¾ivanj": 7007,
      "prisustvo": 7008,
      "otkrij": 7009,
      "bukvaln": 7010,
      "ugradnj": 7011,
      "inspektor": 7012,
      "blok": 7013,
      "dugoroÄįni": 7014,
      "PetroviÄĩ": 7015,
      "suprotstavljanj": 7016,
      "ekonomist": 7017,
      "pregovaranj": 7018,
      "Vranj": 7019,
      "projektn": 7020,
      "obnovljivi": 7021,
      "Sloven": 7022,
      "reÅ¡": 7023,
      "preduzm": 7024,
      "periodiÄįn": 7025,
      "grupo": 7026,
      "povoljnij": 7027,
      "poljim": 7028,
      "studen": 7029,
      "DÅ¾o": 7030,
      "sajtov": 7031,
      "metaboliza": 7032,
      "ulazni": 7033,
      "viru": 7034,
      "emitovanj": 7035,
      ".Rad": 7036,
      "6,": 7037,
      "Å¾ive": 7038,
      "televizijski": 7039,
      "geometrijski": 7040,
      "zvaniÄįnic": 7041,
      "rangiranj": 7042,
      "muziÄįar": 7043,
      "taÄįnost": 7044,
      "imenova": 7045,
      "kvalifikovan": 7046,
      "tha": 7047,
      "pretpostavko": 7048,
      "okruÅ¾uj": 7049,
      "odobren": 7050,
      "Pregle": 7051,
      "organizovat": 7052,
      "smatrajuÄĩ": 7053,
      "pitanje": 7054,
      "usvoje": 7055,
      "PolitiÄįk": 7056,
      "izvorno": 7057,
      "Osi": 7058,
      "baÅ¡t": 7059,
      "ustank": 7060,
      "odabir": 7061,
      "jug": 7062,
      "gluma": 7063,
      "/m": 7064,
      "rekor": 7065,
      "opad": 7066,
      "vaÅ¡i": 7067,
      "gledaj": 7068,
      "dobijam": 7069,
      "met": 7070,
      "Matic": 7071,
      "nala": 7072,
      "preporukam": 7073,
      "tvoj": 7074,
      "deloval": 7075,
      "jevrejsk": 7076,
      "pruÅ¾it": 7077,
      "obaveÅ¡tavanj": 7078,
      "nema": 7079,
      "virtueln": 7080,
      "suv": 7081,
      "Morav": 7082,
      "Predra": 7083,
      "popravk": 7084,
      ".balkaninstitu": 7085,
      "donacij": 7086,
      "Ujedinjeno": 7087,
      "maksimum": 7088,
      "ciljn": 7089,
      "peta": 7090,
      "BrnabiÄ": 7091,
      "predstavniÅ¡tv": 7092,
      "takmiÄįar": 7093,
      "implicir": 7094,
      ".Be": 7095,
      "proÅ¡iril": 7096,
      "cigaret": 7097,
      "socioloÅ¡k": 7098,
      "kompozit": 7099,
      "roditeljstv": 7100,
      "iskazan": 7101,
      "algoritam": 7102,
      "ostavk": 7103,
      "usaglaÅ¡enost": 7104,
      "crkveni": 7105,
      "dolaza": 7106,
      "Istorijsk": 7107,
      "oÄį": 7108,
      "oslanj": 7109,
      "Gornj": 7110,
      "zablud": 7111,
      "uporeÄĳivanj": 7112,
      "Staro": 7113,
      "Albanc": 7114,
      "kvalitetno": 7115,
      "L.": 7116,
      "ponaÅ¡aj": 7117,
      "oporava": 7118,
      ".Vrednos": 7119,
      "Å¡tednj": 7120,
      ".Evropsk": 7121,
      "nezakonit": 7122,
      "efikasno": 7123,
      "hemij": 7124,
      "obi": 7125,
      "uoÄįavaj": 7126,
      "najnoviji": 7127,
      "pojaÄįanj": 7128,
      "ostav": 7129,
      "knjigam": 7130,
      "sveÅ¡teni": 7131,
      "opÅ¡tinsk": 7132,
      "Vasilij": 7133,
      "Åłvajcarsko": 7134,
      "Deja": 7135,
      "oÄįim": 7136,
      "predviÄĳe": 7137,
      "kritiÄįko": 7138,
      "ambalaÅ¾": 7139,
      "plaÄĩen": 7140,
      "olakÅ¡av": 7141,
      "najlepÅ¡": 7142,
      "stalni": 7143,
      "(i": 7144,
      "bivÅ¡i": 7145,
      "investiciono": 7146,
      "policajc": 7147,
      "industrijalizacij": 7148,
      "pohval": 7149,
      "optimalni": 7150,
      "pal": 7151,
      "raznovrsni": 7152,
      ".ZnaÄįajn": 7153,
      ".Analizo": 7154,
      "dugo": 7155,
      "reÅ¡av": 7156,
      "shvati": 7157,
      "ostac": 7158,
      "unapreÄĳuj": 7159,
      "venÄįanj": 7160,
      "Istovremen": 7161,
      "RadovanoviÄ": 7162,
      "verski": 7163,
      "metabolit": 7164,
      ".Dozvoljavat": 7165,
      "uÄįestvovat": 7166,
      "sum": 7167,
      "prug": 7168,
      "pesticid": 7169,
      "BeÄį": 7170,
      "vratim": 7171,
      "NarodnooslobodilaÄįk": 7172,
      "sediÅ¡te": 7173,
      "objektivni": 7174,
      "prijavil": 7175,
      "komplementarn": 7176,
      "dramsk": 7177,
      "rekreacij": 7178,
      "monitoring": 7179,
      "Reprezentacij": 7180,
      "pisano": 7181,
      "umanjuj": 7182,
      "Äįvrsto": 7183,
      "priÄįa": 7184,
      "straÅ¡n": 7185,
      "Grad": 7186,
      "kutij": 7187,
      "molekulsk": 7188,
      "zamislit": 7189,
      "fantastiÄįn": 7190,
      "univerzite": 7191,
      "prilagod": 7192,
      "odvijaj": 7193,
      "pristupil": 7194,
      "primetn": 7195,
      "usklaÄĳen": 7196,
      "dodavanje": 7197,
      "planinsk": 7198,
      "suoÄįavanj": 7199,
      "podrazumeva": 7200,
      "stavljaj": 7201,
      "helikopter": 7202,
      "pokuÅ¡at": 7203,
      "29": 7204,
      "politiÄįa": 7205,
      "primetil": 7206,
      "JuÅ¾no": 7207,
      "budÅ¾etsk": 7208,
      "pojedincim": 7209,
      "izloÅ¾enos": 7210,
      "potez": 7211,
      "ljubavn": 7212,
      "SadrÅ¾a": 7213,
      "semantik": 7214,
      "Naveden": 7215,
      "LazareviÄ": 7216,
      "sol": 7217,
      "ÄĮaÄįk": 7218,
      ".Primer": 7219,
      "smetnjam": 7220,
      "prehramben": 7221,
      "ZahvaljujuÄĩ": 7222,
      "zanim": 7223,
      "transparentnost": 7224,
      "teÅ¾a": 7225,
      "prvostepen": 7226,
      "moguÄĩnoÅ¡Äĩ": 7227,
      "uzajamn": 7228,
      "uspeÅ¡nos": 7229,
      "upotreblje": 7230,
      "Å¾itaric": 7231,
      "koliÄįino": 7232,
      "difuzij": 7233,
      "vazduÅ¡no": 7234,
      "poveÄĩani": 7235,
      "evidentiran": 7236,
      "Slic": 7237,
      "likvidnost": 7238,
      "Rus": 7239,
      "Å¡umarstv": 7240,
      "predviÄĳeno": 7241,
      "izdavaÄį": 7242,
      "SFR": 7243,
      "prisustvova": 7244,
      "mikroorganizm": 7245,
      "pretvar": 7246,
      "produÅ¾en": 7247,
      "31": 7248,
      "prsten": 7249,
      "Pres": 7250,
      "kolektivni": 7251,
      "originalni": 7252,
      "rastvaranj": 7253,
      "Albanac": 7254,
      "Berlin": 7255,
      "uvoz": 7256,
      "IvanoviÄ": 7257,
      "minu": 7258,
      "reflektuj": 7259,
      "pretraÅ¾ivaÄį": 7260,
      ".Nem": 7261,
      "ljubitelj": 7262,
      "sprat": 7263,
      "materic": 7264,
      "ugraÄĳen": 7265,
      "sluÅ¡anj": 7266,
      "oÄįekivano": 7267,
      "Zoran": 7268,
      "motorni": 7269,
      "biljno": 7270,
      "mislim": 7271,
      "druÅ¾enj": 7272,
      "jednostran": 7273,
      "ograniÄįeni": 7274,
      "prije": 7275,
      "puÅ¡enj": 7276,
      "optiÄįk": 7277,
      "flavonoid": 7278,
      "protekl": 7279,
      "mislil": 7280,
      "vodeni": 7281,
      "profit": 7282,
      "nepripadanj": 7283,
      "predanj": 7284,
      "jednostavno": 7285,
      "katoliÄįk": 7286,
      "najavljuj": 7287,
      "oÄįekivanjim": 7288,
      "izuze": 7289,
      "poslodavac": 7290,
      "zavrÅ¡eno": 7291,
      "peto": 7292,
      "obavest": 7293,
      "signifikantn": 7294,
      "stihov": 7295,
      "miokard": 7296,
      "otkaz": 7297,
      "bataljon": 7298,
      "egzistencijaln": 7299,
      "Poglavlj": 7300,
      "Zajednic": 7301,
      "hroniÄįni": 7302,
      "nagl": 7303,
      "UÅ¾ic": 7304,
      "Studij": 7305,
      "zaduÅ¾bin": 7306,
      "testo": 7307,
      "sudovim": 7308,
      "avio": 7309,
      "StojkoviÄ": 7310,
      "pokriven": 7311,
      "stilov": 7312,
      "menjat": 7313,
      "snaz": 7314,
      "grafik": 7315,
      "nepotrebn": 7316,
      "v.": 7317,
      "otpo": 7318,
      "preminu": 7319,
      "jedinstveni": 7320,
      "vodam": 7321,
      "osud": 7322,
      "obezbedi": 7323,
      "dominantno": 7324,
      "vlakn": 7325,
      "konstitutivn": 7326,
      "veroval": 7327,
      "pravopis": 7328,
      "izdat": 7329,
      "konvencionalno": 7330,
      "niza": 7331,
      "premij": 7332,
      "ugljeni": 7333,
      "zaostavÅ¡tin": 7334,
      "socijalistiÄįki": 7335,
      "Bel": 7336,
      "davaoc": 7337,
      "elementarn": 7338,
      "ovlaÅ¡Äĩeno": 7339,
      "karakteristiÄįno": 7340,
      "PopoviÄĩ": 7341,
      ".8": 7342,
      "skriven": 7343,
      "pokren": 7344,
      "anksioznos": 7345,
      "prikazat": 7346,
      "veroispovest": 7347,
      "uspeÅ¡a": 7348,
      "pozivajuÄĩ": 7349,
      "KruÅ¡evc": 7350,
      "sliÄįnos": 7351,
      "preduzetni": 7352,
      "poÅ¡alj": 7353,
      "sveÄįan": 7354,
      "stabal": 7355,
      "usmere": 7356,
      "odjedno": 7357,
      "prediktivn": 7358,
      "Srebrenic": 7359,
      "svojstven": 7360,
      "pokriv": 7361,
      ".Jednostavn": 7362,
      ".Nekolik": 7363,
      ".Prethodn": 7364,
      "mask": 7365,
      "moralno": 7366,
      "nazvan": 7367,
      ".Smatr": 7368,
      "poslal": 7369,
      "insistir": 7370,
      "R.": 7371,
      "leksiÄįko": 7372,
      ".Bi": 7373,
      "preporuÄįen": 7374,
      "kraljevstv": 7375,
      "dizajniran": 7376,
      "zvuk": 7377,
      "Å¾rtvam": 7378,
      "lik": 7379,
      "identifikovani": 7380,
      "treÄĩi": 7381,
      "prijavljivanj": 7382,
      "topl": 7383,
      "novina": 7384,
      "stradal": 7385,
      ".RazliÄįit": 7386,
      "koncepat": 7387,
      "spremnost": 7388,
      "brod": 7389,
      "snagam": 7390,
      ".Pojedin": 7391,
      "zadac": 7392,
      "izlazn": 7393,
      "staklen": 7394,
      "postup": 7395,
      "obraÄįu": 7396,
      "Mode": 7397,
      "Å¾enk": 7398,
      "znac": 7399,
      "2.1": 7400,
      "kren": 7401,
      "zaraÅ¾eni": 7402,
      "ocenjen": 7403,
      "govorni": 7404,
      "proÅ¡iruj": 7405,
      "suverenitet": 7406,
      "mladiÄĩ": 7407,
      "saveznik": 7408,
      "slabljenj": 7409,
      ".Izvo": 7410,
      "terminoloÅ¡k": 7411,
      "Sam": 7412,
      "uspostavil": 7413,
      "obuhvatal": 7414,
      "sadrÅ£aj": 7415,
      "ukrajinski": 7416,
      "zanemarivanj": 7417,
      "Proizvodnj": 7418,
      "prizemlj": 7419,
      "analitiÄįar": 7420,
      "(3)": 7421,
      "Kolik": 7422,
      "otvori": 7423,
      "opse": 7424,
      "produÅ¾enj": 7425,
      "pesni": 7426,
      "manjinski": 7427,
      "Sirij": 7428,
      "otkrivaj": 7429,
      "nepoÅ¡tovanj": 7430,
      "kursev": 7431,
      "kompleksnos": 7432,
      "transportni": 7433,
      "krata": 7434,
      ".MeÄĳunarodn": 7435,
      "gojaznost": 7436,
      "BogdanoviÄ": 7437,
      "trÄįanj": 7438,
      "35": 7439,
      "genotip": 7440,
      "fizik": 7441,
      "kombinacijo": 7442,
      "komedij": 7443,
      "stvori": 7444,
      "sreÄĩn": 7445,
      "Poljsko": 7446,
      "krenu": 7447,
      "dijel": 7448,
      "albansko": 7449,
      "krÅ¡": 7450,
      "postavljeno": 7451,
      "konzervativn": 7452,
      "kristal": 7453,
      "spasavanj": 7454,
      "Razlik": 7455,
      "sklon": 7456,
      "uÅ¾ivaj": 7457,
      "Å½eljk": 7458,
      "prostir": 7459,
      "smanje": 7460,
      "sasluÅ¡anj": 7461,
      "prilagodit": 7462,
      "aktiviranj": 7463,
      "Äįelik": 7464,
      "kakvi": 7465,
      "deljenj": 7466,
      "prisustvuj": 7467,
      "prilic": 7468,
      "diskur": 7469,
      "supstitucij": 7470,
      "krugovim": 7471,
      "redo": 7472,
      "mlado": 7473,
      "istiÄįuÄĩ": 7474,
      "Å¾ivim": 7475,
      "profitabilnost": 7476,
      "konsolidacij": 7477,
      "aktivir": 7478,
      "diplomatski": 7479,
      "odbacuj": 7480,
      "osuÄĳe": 7481,
      "Å¡pansko": 7482,
      "trk": 7483,
      "Tit": 7484,
      "stvorit": 7485,
      "kulturam": 7486,
      "pobun": 7487,
      "groÅ¾Äĳ": 7488,
      "okrenut": 7489,
      "menadÅ¾e": 7490,
      "rukovodila": 7491,
      "terorist": 7492,
      "minimalno": 7493,
      ".Kasnij": 7494,
      "Konferencij": 7495,
      "hroniÄįno": 7496,
      "Struktur": 7497,
      "drugaÄįije": 7498,
      "transparentnos": 7499,
      "Venecij": 7500,
      "pobedi": 7501,
      "namenjeni": 7502,
      "bolji": 7503,
      "braÄįn": 7504,
      "original": 7505,
      "privremeni": 7506,
      "Puti": 7507,
      "neograniÄįen": 7508,
      "asistencij": 7509,
      "najmlaÄĳ": 7510,
      "naÄįelnik": 7511,
      "izraÄįunav": 7512,
      "skorov": 7513,
      "rodno": 7514,
      "komponentam": 7515,
      "eliminiÅ¡": 7516,
      "naÄįinim": 7517,
      "crveno": 7518,
      "starije": 7519,
      "prijatn": 7520,
      "palat": 7521,
      "jabuk": 7522,
      "priho": 7523,
      "osnoval": 7524,
      "naved": 7525,
      "mehanizmim": 7526,
      "promenjen": 7527,
      "Progra": 7528,
      "Dan": 7529,
      "drveÄĩ": 7530,
      ".Svakak": 7531,
      "priznal": 7532,
      "patogen": 7533,
      "Äįetvrtfinal": 7534,
      ".ReÄ": 7535,
      "zaÅ¡tiÄĩeno": 7536,
      "fokus": 7537,
      "ugovornic": 7538,
      "preda": 7539,
      "izazovim": 7540,
      "polarizacij": 7541,
      "nadmorsk": 7542,
      "nastupil": 7543,
      "posvetit": 7544,
      "spreÄįit": 7545,
      "prepozna": 7546,
      "MarinkoviÄ": 7547,
      "agresivn": 7548,
      "govorn": 7549,
      "skraÄĩivanj": 7550,
      "prepoznal": 7551,
      "spoznaj": 7552,
      "moralni": 7553,
      "prekinut": 7554,
      "dozvoljavaj": 7555,
      "pripisat": 7556,
      "loÅ¡e": 7557,
      "instrumentim": 7558,
      "rec": 7559,
      "vrednosn": 7560,
      "infrastrukturn": 7561,
      "-ekonomsk": 7562,
      "afektivn": 7563,
      "izrazi": 7564,
      "dinamiÄįko": 7565,
      "direktork": 7566,
      "procenit": 7567,
      "poimanj": 7568,
      "sindro": 7569,
      "gledat": 7570,
      "softverski": 7571,
      "kolaÄįicÌģ": 7572,
      "usmen": 7573,
      ".Ovi": 7574,
      "uhapÅ¡e": 7575,
      "dokazal": 7576,
      "ekskluzivn": 7577,
      "prazn": 7578,
      "magnetn": 7579,
      "kostij": 7580,
      "ubij": 7581,
      "loÅ¡ij": 7582,
      "É¤ÉļÉ": 7583,
      "detektor": 7584,
      "Marin": 7585,
      "distinkcij": 7586,
      "bezbednosno": 7587,
      "obavezujuÄĩ": 7588,
      "preklapanj": 7589,
      "ruÅ¡enj": 7590,
      "zabranjuj": 7591,
      "silovanj": 7592,
      "emituj": 7593,
      "nekom": 7594,
      "kupit": 7595,
      "savetni": 7596,
      "gledanj": 7597,
      "mentalni": 7598,
      "kritikuj": 7599,
      "budet": 7600,
      "analitiÄįki": 7601,
      "Visok": 7602,
      "uporedn": 7603,
      "public": 7604,
      "regulator": 7605,
      "ponuÄĳeni": 7606,
      "spektroskopij": 7607,
      "odmo": 7608,
      "Researc": 7609,
      "putuj": 7610,
      "vlastito": 7611,
      "rjeÅ¡enj": 7612,
      "izbijanj": 7613,
      ".Hval": 7614,
      "poveÄĩ": 7615,
      ".Im": 7616,
      "preventivni": 7617,
      "dijaspor": 7618,
      "interni": 7619,
      "kumulativn": 7620,
      "siromaÅ¡ni": 7621,
      "Å¡tab": 7622,
      "Meksik": 7623,
      "ikad": 7624,
      "najavljen": 7625,
      "32": 7626,
      "zamenjen": 7627,
      "bakr": 7628,
      ".P": 7629,
      "suoÄįav": 7630,
      "podloz": 7631,
      "ceremonij": 7632,
      "kontrolisat": 7633,
      "nominaln": 7634,
      "portfoli": 7635,
      "variranj": 7636,
      "smen": 7637,
      "pravovremen": 7638,
      "glavobolj": 7639,
      "okolni": 7640,
      "kru": 7641,
      "NaÅ¡": 7642,
      "Pari": 7643,
      "radniÄįk": 7644,
      "Kosovsk": 7645,
      "ideoloÅ¡ki": 7646,
      "zavrÅ¡it": 7647,
      "vidit": 7648,
      "obrazlaganj": 7649,
      "iskazivanj": 7650,
      "ukljuÄįil": 7651,
      "samopoÅ¡tovanj": 7652,
      ".Eksperimentaln": 7653,
      "Brisel": 7654,
      "logor": 7655,
      "ImajuÄĩ": 7656,
      ".Minista": 7657,
      "bita": 7658,
      "tehniko": 7659,
      "Ulog": 7660,
      "aktiv": 7661,
      "univerzitetsk": 7662,
      "prigovor": 7663,
      "fokusiran": 7664,
      "sme": 7665,
      "podiÅ¾": 7666,
      "estetik": 7667,
      "postoperativno": 7668,
      "studijsk": 7669,
      "angaÅ¾ova": 7670,
      "dijet": 7671,
      "muÅ¡karcim": 7672,
      "knjiÅ¾evnik": 7673,
      "zavrÅ¡eta": 7674,
      "hemikalij": 7675,
      "filmsko": 7676,
      "Å¾ut": 7677,
      "meril": 7678,
      "oÄįekivani": 7679,
      "oksidativn": 7680,
      "upisan": 7681,
      "dogovoren": 7682,
      "letelic": 7683,
      "kinesko": 7684,
      "tretiranj": 7685,
      "upuÄĩivanj": 7686,
      "linearno": 7687,
      "razlozim": 7688,
      ".Verovatn": 7689,
      "oseÄĩat": 7690,
      "predsedniÄįki": 7691,
      "naim": 7692,
      "sloÅ¾eno": 7693,
      "stubov": 7694,
      "Developmen": 7695,
      "ostavljen": 7696,
      ".Autor": 7697,
      "spomenut": 7698,
      "Rom": 7699,
      "makroekonomsk": 7700,
      "prikaÅ¾": 7701,
      "smeÅ¡te": 7702,
      "stopal": 7703,
      "bude": 7704,
      "cenam": 7705,
      "autorsko": 7706,
      "nacionalistiÄįk": 7707,
      "kombinovanj": 7708,
      "suviÅ¡": 7709,
      "raÄįunarski": 7710,
      "veÅ¡taÄįki": 7711,
      "filmovim": 7712,
      "teÅ¡koÄĩam": 7713,
      "ukazujuÄĩ": 7714,
      "reprezentativni": 7715,
      "samostalno": 7716,
      "najgor": 7717,
      "konstrukcijam": 7718,
      "Nova": 7719,
      "sazrevanj": 7720,
      "ploÄįic": 7721,
      "testirani": 7722,
      "mirn": 7723,
      "sal": 7724,
      "modalitet": 7725,
      "zbrinjavanj": 7726,
      "patrijar": 7727,
      "prodavc": 7728,
      "magnetno": 7729,
      "jasnij": 7730,
      "demokratizacij": 7731,
      "podne": 7732,
      "generalizacij": 7733,
      "takson": 7734,
      "(6": 7735,
      "reÅ¡avaj": 7736,
      "javil": 7737,
      "natriju": 7738,
      "pojavit": 7739,
      "KneÅ¾eviÄ": 7740,
      "Specijaln": 7741,
      "Kasnij": 7742,
      "literaturni": 7743,
      "optuÅ¾en": 7744,
      "metastaz": 7745,
      "podsistem": 7746,
      "plasma": 7747,
      "zanimlji": 7748,
      "kvadratn": 7749,
      "ugovoren": 7750,
      "net": 7751,
      "naizgle": 7752,
      "najav": 7753,
      "aktiva": 7754,
      "Gradsko": 7755,
      "izvedeni": 7756,
      "Bank": 7757,
      ".NajznaÄįajnij": 7758,
      "prene": 7759,
      ".Napomen": 7760,
      "ventilacij": 7761,
      "blokad": 7762,
      "stvarajuÄĩ": 7763,
      "materijalo": 7764,
      "razmiÅ¡ljaj": 7765,
      "zasedanj": 7766,
      "dijagra": 7767,
      "razvijat": 7768,
      "nasledni": 7769,
      "pomal": 7770,
      "najjaÄį": 7771,
      "SlovaÄįk": 7772,
      "dohotk": 7773,
      "prestan": 7774,
      "brojevim": 7775,
      "izabral": 7776,
      "srebr": 7777,
      "vojnic": 7778,
      "dalji": 7779,
      "jedv": 7780,
      "dijagnostiÄįki": 7781,
      "ustavno": 7782,
      "uspostavlje": 7783,
      "etap": 7784,
      "slovenaÄįk": 7785,
      "Argentin": 7786,
      "Ustavn": 7787,
      "afirmacij": 7788,
      "crnogorsko": 7789,
      "slojevim": 7790,
      "Vrem": 7791,
      "bolestim": 7792,
      "zaustav": 7793,
      ".Molim": 7794,
      "indukovan": 7795,
      "nul": 7796,
      "skuplj": 7797,
      "modifikovano": 7798,
      "pribliÅ¾av": 7799,
      "planinski": 7800,
      "daval": 7801,
      "vlada": 7802,
      "Privredn": 7803,
      "lide": 7804,
      "republiÄįko": 7805,
      "kristaln": 7806,
      "susreÄĩ": 7807,
      "albu": 7808,
      "ukaza": 7809,
      "Podac": 7810,
      "izbegn": 7811,
      "demografski": 7812,
      "civil": 7813,
      "maloletni": 7814,
      "zadrÅ¾a": 7815,
      "celost": 7816,
      "liberaln": 7817,
      "ÄĮeÅ¡k": 7818,
      "(softversk": 7819,
      "nedoumic": 7820,
      "unutraÅ¡njos": 7821,
      "vaÅ¾eÄĩi": 7822,
      "vrÅ¡il": 7823,
      "opasni": 7824,
      "organizato": 7825,
      "osobenost": 7826,
      "hronoloÅ¡k": 7827,
      "pripremanj": 7828,
      "bakterijsk": 7829,
      "stign": 7830,
      "dvij": 7831,
      "NiÅ": 7832,
      "protagonist": 7833,
      "efektivnost": 7834,
      "metaln": 7835,
      "srodni": 7836,
      "balkansk": 7837,
      "kaÅ¾em": 7838,
      "izaÅ¡a": 7839,
      "uspostavljaj": 7840,
      "konstruisan": 7841,
      "KostiÄ": 7842,
      "nanos": 7843,
      "Å¡upljin": 7844,
      "nadleÅ¾a": 7845,
      "aktivist": 7846,
      "strpljenj": 7847,
      "strukturaln": 7848,
      "rezervacij": 7849,
      ".Distribucij": 7850,
      "ÉĭÉªÉĽÉ¢ÊģÉ": 7851,
      "metr": 7852,
      "epoh": 7853,
      "moji": 7854,
      "utemeljen": 7855,
      "vlaÅ¾nost": 7856,
      "4)": 7857,
      "zapaÅ¾en": 7858,
      "poremeÄĩajim": 7859,
      ".11": 7860,
      "naspra": 7861,
      "izraÄĳuj": 7862,
      "gospodi": 7863,
      "grobnic": 7864,
      "telesno": 7865,
      "pomagal": 7866,
      "Uredb": 7867,
      "epidemioloÅ¡k": 7868,
      "Vizantij": 7869,
      "prodat": 7870,
      "ureÄĳivanj": 7871,
      "drag": 7872,
      "PD": 7873,
      "legitimn": 7874,
      "prehrambeni": 7875,
      "kontinualn": 7876,
      "toplotno": 7877,
      ".Savremen": 7878,
      "Rezolucij": 7879,
      "signalizacij": 7880,
      "gospoÄĳ": 7881,
      "(I": 7882,
      "predÅ¡kolsk": 7883,
      "Program": 7884,
      "PetkoviÄ": 7885,
      "Å¾upanij": 7886,
      "sred": 7887,
      ".Proce": 7888,
      "srazmern": 7889,
      "anomalij": 7890,
      "Knjig": 7891,
      "biraÄį": 7892,
      "rezervoar": 7893,
      "Äįovekov": 7894,
      "crkveno": 7895,
      "DuÅ¡an": 7896,
      "zabeleÅ¾i": 7897,
      "prslin": 7898,
      "pristizanj": 7899,
      "ugovorim": 7900,
      "jasa": 7901,
      "ravnomern": 7902,
      "kana": 7903,
      ".PoÄįetko": 7904,
      "glumc": 7905,
      "posluÅ¾il": 7906,
      "sastavlje": 7907,
      "upitni": 7908,
      "menjal": 7909,
      "kiÅ¡": 7910,
      "ekstrak": 7911,
      "zrelost": 7912,
      "brendov": 7913,
      "fleksibiln": 7914,
      "trgovinski": 7915,
      ".Njego": 7916,
      "(prem": 7917,
      "tipovim": 7918,
      "dostign": 7919,
      "drÅ¾al": 7920,
      "umreÅ¾avanj": 7921,
      "svud": 7922,
      "mladost": 7923,
      "molim": 7924,
      "direktiv": 7925,
      "raÄįunanj": 7926,
      "viÅ¡estruki": 7927,
      "opÅ¡to": 7928,
      "Naim": 7929,
      "upisuj": 7930,
      "validacij": 7931,
      "vlastim": 7932,
      "pronaÄĳe": 7933,
      "ukrÅ¡tanj": 7934,
      "Pravil": 7935,
      "mobilno": 7936,
      ".Struktur": 7937,
      "erozij": 7938,
      "opisat": 7939,
      "ugled": 7940,
      "Zlatn": 7941,
      ".Prav": 7942,
      "obnovljen": 7943,
      "ukus": 7944,
      "dvanaes": 7945,
      "kvalifikoval": 7946,
      "korelacion": 7947,
      "fon": 7948,
      "poruÄįuj": 7949,
      "ÄĮehoslovaÄįk": 7950,
      "dodatk": 7951,
      "Äįiji": 7952,
      "klasifikuj": 7953,
      "ukaÅ¾": 7954,
      "latinsko": 7955,
      "komunalni": 7956,
      "182": 7957,
      "izgledaj": 7958,
      "Minista": 7959,
      ".Dobr": 7960,
      "Novost": 7961,
      ".Shodn": 7962,
      "predsedniÄįk": 7963,
      "biljkam": 7964,
      "glagolski": 7965,
      "doÅ¾ive": 7966,
      "odvijal": 7967,
      "radij": 7968,
      "pauz": 7969,
      "procenjivanj": 7970,
      ".KoriÅ¡Äĩenje": 7971,
      "neizbeÅ¾n": 7972,
      "uvije": 7973,
      "iteracij": 7974,
      "perifern": 7975,
      "infrastrukturni": 7976,
      ".UtvrÄĳen": 7977,
      "uslovljav": 7978,
      "azot": 7979,
      "uglj": 7980,
      "Jagodin": 7981,
      "udruÅ¾en": 7982,
      "univerzitetim": 7983,
      "gostij": 7984,
      ".9": 7985,
      "osiguranik": 7986,
      "MaksimoviÄ": 7987,
      "nivoo": 7988,
      "Dobijen": 7989,
      "Å¾ivotinjsko": 7990,
      "udaljenos": 7991,
      "Danil": 7992,
      "upoznal": 7993,
      "intervalim": 7994,
      "investitorim": 7995,
      "reagoval": 7996,
      "âĢĻâĢ": 7997,
      "slovensko": 7998,
      "primjen": 7999,
      "novoroÄĳenÄįad": 8000,
      "poslo": 8001,
      "Faceboo": 8002,
      "interfejs": 8003,
      "krevet": 8004,
      "kvalitativni": 8005,
      "linijam": 8006,
      "raznovrsnos": 8007,
      "kriviÄįnopravn": 8008,
      "oceni": 8009,
      "TehniÄįk": 8010,
      "Äįijo": 8011,
      "incident": 8012,
      "opredeljuj": 8013,
      "smatran": 8014,
      "analiziranj": 8015,
      "pozval": 8016,
      "srednjovekovni": 8017,
      "KriviÄįno": 8018,
      "pretvaranj": 8019,
      "trud": 8020,
      "Naravn": 8021,
      "Tanju": 8022,
      ".Primeno": 8023,
      "kraÄĳ": 8024,
      "arheoloÅ¡ki": 8025,
      "dramatiÄįn": 8026,
      "intervj": 8027,
      "metaboliÄįki": 8028,
      "Kvalifikacij": 8029,
      "pravilno": 8030,
      "kuÄĩn": 8031,
      "odabrano": 8032,
      ".1.": 8033,
      "Å¡tamparij": 8034,
      "set": 8035,
      "preduzimaj": 8036,
      "pet": 8037,
      "Vojisla": 8038,
      "impuls": 8039,
      "dÅ¾amij": 8040,
      "Balkansko": 8041,
      "proÅ¡a": 8042,
      "okarakterisan": 8043,
      "pozivaj": 8044,
      "proÄįita": 8045,
      "tehnikam": 8046,
      ".Zaprav": 8047,
      "porasl": 8048,
      "ugroÅ¾av": 8049,
      "voli": 8050,
      "horizont": 8051,
      "BaÄįk": 8052,
      "Å¾ivotinjski": 8053,
      "upozorav": 8054,
      ".Ljud": 8055,
      "PriÄį": 8056,
      "mern": 8057,
      "p.": 8058,
      "strategijsk": 8059,
      "trombocit": 8060,
      "razumel": 8061,
      "simboliÄįn": 8062,
      "nesigurnos": 8063,
      "ukinut": 8064,
      "loÅ¡i": 8065,
      "integriÅ¡": 8066,
      "reakcijam": 8067,
      "veÄĩinsk": 8068,
      "Odbor": 8069,
      "izvede": 8070,
      "krimina": 8071,
      "zl": 8072,
      "sudski": 8073,
      "poverilac": 8074,
      "privatnos": 8075,
      "Korej": 8076,
      "pravoslavlj": 8077,
      "preciznos": 8078,
      "sinov": 8079,
      "emocionalno": 8080,
      "primenjivan": 8081,
      "leÅ¾iÅ¡t": 8082,
      "potrag": 8083,
      "e-mai": 8084,
      "É¡É": 8085,
      "sportov": 8086,
      "zdravo": 8087,
      "propisano": 8088,
      "onemoguÄĩav": 8089,
      "pritvor": 8090,
      "objedinjen": 8091,
      ".Srednj": 8092,
      "depozit": 8093,
      "nauÄįil": 8094,
      "istinit": 8095,
      "nosilac": 8096,
      "nastojal": 8097,
      "iznenaÄĳujuÄĩ": 8098,
      "dokumentarn": 8099,
      "saznal": 8100,
      "seoski": 8101,
      "razvi": 8102,
      "osigural": 8103,
      "proizvoljn": 8104,
      "Rusijo": 8105,
      "3.1": 8106,
      "prethodnik": 8107,
      "tablet": 8108,
      "ugroÅ¾eni": 8109,
      "razreÅ¡enj": 8110,
      "fragmentacij": 8111,
      "strategijam": 8112,
      "akat": 8113,
      "kontrolisani": 8114,
      "temperaturn": 8115,
      "predikto": 8116,
      "NovakoviÄ": 8117,
      "generator": 8118,
      "iskljuÄįit": 8119,
      "operacijam": 8120,
      "stvaranje": 8121,
      "bir": 8122,
      "oslobod": 8123,
      "bitni": 8124,
      "disciplinsk": 8125,
      "zanemarljiv": 8126,
      "postignuti": 8127,
      "zaslug": 8128,
      "numeriÄįki": 8129,
      "mleÄįn": 8130,
      "Ki": 8131,
      "biznis": 8132,
      "koÅ¡arkaÅ¡": 8133,
      ".Po": 8134,
      "enciklopedij": 8135,
      "bugarsko": 8136,
      "savetuj": 8137,
      "predstojeÄĩ": 8138,
      "Crveno": 8139,
      "avantur": 8140,
      "insistiranj": 8141,
      "posed": 8142,
      "feministiÄįk": 8143,
      "jednakos": 8144,
      "Superlig": 8145,
      "sastoja": 8146,
      "nauc": 8147,
      "obvezni": 8148,
      "misa": 8149,
      "Sovjetsk": 8150,
      "ÄĲuriÄ": 8151,
      "uÄįitel": 8152,
      "delatnostim": 8153,
      "smanjeno": 8154,
      "poklo": 8155,
      "predviÄĳaj": 8156,
      "faktiÄįk": 8157,
      "makrofag": 8158,
      "pokretn": 8159,
      "dogaÄĳ": 8160,
      "srpskohrvatsko": 8161,
      "posveti": 8162,
      "enterijer": 8163,
      "(videt": 8164,
      "Vrhovn": 8165,
      "proglasil": 8166,
      "organizam": 8167,
      "uspomen": 8168,
      "zaborav": 8169,
      "autorim": 8170,
      "spermatozoid": 8171,
      "vlag": 8172,
      "spreÄįavaj": 8173,
      "prenes": 8174,
      "maste": 8175,
      "praznin": 8176,
      "eventualno": 8177,
      "filozof": 8178,
      "kvadratni": 8179,
      "Srbijo": 8180,
      "heroj": 8181,
      "revitalizacij": 8182,
      "iskopavanj": 8183,
      "izborni": 8184,
      "'')": 8185,
      "opaÅ¾anj": 8186,
      "dovoljno": 8187,
      "uzastopn": 8188,
      ".Kompanij": 8189,
      "kriminalni": 8190,
      "prijavljeni": 8191,
      "sklonos": 8192,
      "osmiÅ¡ljen": 8193,
      "SluÅ¾b": 8194,
      "neprijatel": 8195,
      "nezadovoljn": 8196,
      "Fot": 8197,
      "valj": 8198,
      "inhibitorn": 8199,
      "meÄ": 8200,
      "rasporeÄĳivanj": 8201,
      "unoÅ¡enj": 8202,
      "mnoÅ¾in": 8203,
      "bibliotec": 8204,
      "Kompanij": 8205,
      "usmerav": 8206,
      "priÄįal": 8207,
      "dugoroÄįno": 8208,
      "Rober": 8209,
      "obolel": 8210,
      "rastuÄĩ": 8211,
      "sliv": 8212,
      "analitiÄįko": 8213,
      "intermediat": 8214,
      "ekstremni": 8215,
      "MladenoviÄ": 8216,
      "Å¡tampani": 8217,
      "otvaraj": 8218,
      "poboljÅ¡al": 8219,
      "integrisano": 8220,
      "rudarstv": 8221,
      "povezat": 8222,
      "bilateraln": 8223,
      "premijerk": 8224,
      "oslobaÄĳ": 8225,
      "koÅ¡arkaÅ¡k": 8226,
      "akcijam": 8227,
      "troÅ¡": 8228,
      "É¨ÉªÉĿÉļÉ§É¢É¡ÉļÉ°É¢ÊģÉ": 8229,
      "pisac": 8230,
      "akutn": 8231,
      "socijalist": 8232,
      "konstatova": 8233,
      "vizuelno": 8234,
      "istoimeno": 8235,
      "oruÅ¾an": 8236,
      "etarsko": 8237,
      "analitik": 8238,
      "ekstraktim": 8239,
      "vraÄĩaj": 8240,
      "oceno": 8241,
      "struÄįnja": 8242,
      "opservacij": 8243,
      "uspeÅ¡ni": 8244,
      "razvojno": 8245,
      "primaoc": 8246,
      ".Karakteristik": 8247,
      "izvoriÅ¡t": 8248,
      "potpredsednik": 8249,
      "odrÅ¾at": 8250,
      "teras": 8251,
      "uvid": 8252,
      "posrednik": 8253,
      "nastat": 8254,
      "antibakterijsk": 8255,
      "pristupljen": 8256,
      "sanacij": 8257,
      "prituÅ¾b": 8258,
      "osiguravajuÄĩ": 8259,
      "nezavisno": 8260,
      ".Rezulta": 8261,
      "poreÄĳenje": 8262,
      "omoguÄĩavanj": 8263,
      "leka": 8264,
      "iznet": 8265,
      "razmiÅ¡lja": 8266,
      "varijablam": 8267,
      "steÄįaj": 8268,
      "zainteresova": 8269,
      "idealno": 8270,
      "33": 8271,
      "formulisan": 8272,
      "naslo": 8273,
      "poboljÅ¡an": 8274,
      "dosadaÅ¡nje": 8275,
      "tenzij": 8276,
      "krij": 8277,
      "epruvet": 8278,
      "mitologij": 8279,
      "pratnj": 8280,
      "aerodro": 8281,
      "nec": 8282,
      "fondacij": 8283,
      "ProÄįita": 8284,
      "zemljotres": 8285,
      "36": 8286,
      "Dobr": 8287,
      "shvaÄĩen": 8288,
      "stoleÄĩ": 8289,
      "osiguravajuÄĩi": 8290,
      "hromatografij": 8291,
      "satisfakcij": 8292,
      "lekcij": 8293,
      "ponaÅ¡": 8294,
      "prethodil": 8295,
      "Å¡esto": 8296,
      "sluÅ¾bam": 8297,
      "istraÅ¾ivano": 8298,
      "kompleta": 8299,
      "seksualni": 8300,
      "oduzet": 8301,
      "izabrano": 8302,
      "ispostavil": 8303,
      ".Studij": 8304,
      "trÅ£iÅ¡t": 8305,
      "zastupnik": 8306,
      "kontinentaln": 8307,
      "najavil": 8308,
      "najlepÅ¡i": 8309,
      "pogon": 8310,
      "ambicij": 8311,
      "sklapanj": 8312,
      "disanj": 8313,
      "prirodo": 8314,
      ".Prisustv": 8315,
      "izvesta": 8316,
      "Sremsk": 8317,
      "voÄĳstv": 8318,
      "defici": 8319,
      "(v.": 8320,
      "gradjan": 8321,
      "religiozn": 8322,
      "duÅ¾e": 8323,
      "intelektualac": 8324,
      "crno": 8325,
      "Prirodn": 8326,
      "formirat": 8327,
      "preoperativn": 8328,
      "Ugovor": 8329,
      "preduzim": 8330,
      "sovjetsko": 8331,
      "reciklaÅ¾": 8332,
      "Prav": 8333,
      "KaradÅ¾iÄ": 8334,
      "sveÅ¡tenstv": 8335,
      "taÄįkam": 8336,
      "ukazival": 8337,
      "Instagra": 8338,
      "drv": 8339,
      "izmereni": 8340,
      "sveÅ¾": 8341,
      "zamenit": 8342,
      "ureÄĳajim": 8343,
      "autorski": 8344,
      "budÅ¾etski": 8345,
      "procesor": 8346,
      "sadrÅ¾at": 8347,
      "poljsk": 8348,
      "najÄįeÅ¡Äĩi": 8349,
      "(WhatsAp": 8350,
      "toksiÄįnost": 8351,
      "borben": 8352,
      "Muzej": 8353,
      "seminar": 8354,
      "noÅ¡enj": 8355,
      "pristal": 8356,
      "naplaÄĩuj": 8357,
      "naznaÄįen": 8358,
      "objektivno": 8359,
      "olimpijski": 8360,
      "dopunam": 8361,
      "tipologij": 8362,
      "reditelj": 8363,
      "podseti": 8364,
      "komunalno": 8365,
      ".Sa": 8366,
      "intelektualc": 8367,
      "pevanj": 8368,
      "iznenad": 8369,
      "urbanistiÄįko": 8370,
      "maligni": 8371,
      "seosk": 8372,
      "ukazat": 8373,
      "gol": 8374,
      "Äįuveno": 8375,
      "neposredni": 8376,
      "konstituisanj": 8377,
      "produkat": 8378,
      "kritiÄįa": 8379,
      "MaÄĳar": 8380,
      "smej": 8381,
      "softversko": 8382,
      "posljedic": 8383,
      "panel": 8384,
      "crteÅ¾": 8385,
      "DÅ¾on": 8386,
      "instrumentaln": 8387,
      "novinam": 8388,
      "neuspeh": 8389,
      "divlj": 8390,
      "inkubiran": 8391,
      "pristana": 8392,
      "upravnik": 8393,
      "MeÄĳ": 8394,
      "operater": 8395,
      "iskustvim": 8396,
      "uopÅ¡ten": 8397,
      "otkrive": 8398,
      "zahtevat": 8399,
      "kolektiv": 8400,
      "respiratorn": 8401,
      "krugov": 8402,
      "pedagogij": 8403,
      "kaf": 8404,
      "dobrodoÅ¡lic": 8405,
      "blisko": 8406,
      "zamiÅ¡ljen": 8407,
      "sadaÅ¡nji": 8408,
      "prevelik": 8409,
      "poÄįevÅ¡": 8410,
      "zadrÅ¾avaj": 8411,
      "klauzul": 8412,
      "namero": 8413,
      "Ovakv": 8414,
      "relaksacij": 8415,
      "Å¡ampionat": 8416,
      "osnovic": 8417,
      "prikupljaj": 8418,
      "Distribucij": 8419,
      "u:": 8420,
      "olimpijsk": 8421,
      "usklaÄĳenost": 8422,
      "uspeÅ¡nij": 8423,
      "dijabete": 8424,
      "mjer": 8425,
      "meÅ¡tan": 8426,
      "mikrostruktur": 8427,
      "mineraln": 8428,
      "stilsk": 8429,
      "osetljivi": 8430,
      "nijedno": 8431,
      "nepromenjen": 8432,
      "advoka": 8433,
      "pridruÅ¾il": 8434,
      "preciznost": 8435,
      "?D": 8436,
      "steÄįajn": 8437,
      "kabinet": 8438,
      "glasal": 8439,
      "formalni": 8440,
      "konkur": 8441,
      "matiÄįni": 8442,
      "raÄĳanj": 8443,
      "kompletno": 8444,
      "izvrÅ¡av": 8445,
      "SledeÄĩ": 8446,
      "glavo": 8447,
      "zahteva": 8448,
      "!PoÅ¡aljit": 8449,
      "predlogo": 8450,
      "kame": 8451,
      "ponosn": 8452,
      "pogoÄĳen": 8453,
      ".4.": 8454,
      "saÄįinjen": 8455,
      "meta": 8456,
      "hipotek": 8457,
      "situacijo": 8458,
      "hram": 8459,
      "kobasic": 8460,
      "komparacij": 8461,
      "proizved": 8462,
      "ruraln": 8463,
      "automatizacij": 8464,
      "najpopularnij": 8465,
      "racionalizacij": 8466,
      "sloÅ¾enos": 8467,
      "ponovljen": 8468,
      "treba": 8469,
      "idejam": 8470,
      "akreditacij": 8471,
      "gostovanj": 8472,
      "fudbalsko": 8473,
      "izgradnjo": 8474,
      "Å¡eÄĩern": 8475,
      "sudeÄĩ": 8476,
      "lokalite": 8477,
      "brd": 8478,
      ".<": 8479,
      "fotografijam": 8480,
      "univerzalno": 8481,
      "prezentovan": 8482,
      "Äįit": 8483,
      "austrijsko": 8484,
      "kalendar": 8485,
      "temperaturo": 8486,
      ".12": 8487,
      "stabila": 8488,
      "uvelik": 8489,
      "zahvaljuje": 8490,
      "zemljiÅ¡tim": 8491,
      "razgovarat": 8492,
      "izjasnil": 8493,
      "kratkotrajn": 8494,
      "uÅ¡a": 8495,
      ".Auto": 8496,
      "kul": 8497,
      "smrtnost": 8498,
      "desit": 8499,
      "komuniciraj": 8500,
      "Milora": 8501,
      "portret": 8502,
      "odnoso": 8503,
      "zasnivanj": 8504,
      "srÄįano": 8505,
      "integrisani": 8506,
      "produkt": 8507,
      "MarjanoviÄ": 8508,
      "prekoraÄįenj": 8509,
      "proz": 8510,
      "kolonizacij": 8511,
      "ratno": 8512,
      ".Veom": 8513,
      "domaÄĩo": 8514,
      "vaÅ¾enj": 8515,
      "vodosnabdevanj": 8516,
      "mehaniÄįko": 8517,
      "reÄĳ": 8518,
      "deÄįj": 8519,
      "harmonij": 8520,
      "ÄįistoÄĩ": 8521,
      "podrÅ¾": 8522,
      "najjednostavnij": 8523,
      ".Kro": 8524,
      "plod": 8525,
      "Rad": 8526,
      "jaj": 8527,
      "Evrolig": 8528,
      "nejasn": 8529,
      ":âĢ": 8530,
      "unapred": 8531,
      "Mirjan": 8532,
      "nameÅ¡taj": 8533,
      "naproti": 8534,
      "stavil": 8535,
      "Savezn": 8536,
      "biv": 8537,
      "manjinsk": 8538,
      "ispitat": 8539,
      "potraz": 8540,
      "ogromno": 8541,
      "dokaÅ¾": 8542,
      "obavljat": 8543,
      "empirijsko": 8544,
      "G.": 8545,
      "prevalencij": 8546,
      "ujednaÄįen": 8547,
      "ugovorni": 8548,
      "indukuj": 8549,
      "pretrpel": 8550,
      "Avganistan": 8551,
      "7,": 8552,
      "maternje": 8553,
      ".Organizacij": 8554,
      "(Å¡t": 8555,
      "antiÄįk": 8556,
      "pesniÄįk": 8557,
      "posveÄĩeno": 8558,
      "odvijanj": 8559,
      "nanoÅ¡enj": 8560,
      "domov": 8561,
      "cev": 8562,
      "razgovar": 8563,
      "Poznat": 8564,
      ".Prime": 8565,
      "preovlaÄĳuj": 8566,
      "PoÄįetko": 8567,
      "muze": 8568,
      "prelom": 8569,
      "veÅ¡tinam": 8570,
      ".Taka": 8571,
      "sobno": 8572,
      "savijanj": 8573,
      "Turak": 8574,
      "izaber": 8575,
      "nezaposleni": 8576,
      "vojsc": 8577,
      ".Ispitanic": 8578,
      "SN": 8579,
      "nepovoljni": 8580,
      "kompjuter": 8581,
      "Å¡etnj": 8582,
      "jednaki": 8583,
      "pronaÅ¡a": 8584,
      "PC": 8585,
      "procenam": 8586,
      "poglavljim": 8587,
      "ograniÄįavajuÄĩ": 8588,
      "eksperat": 8589,
      "bazir": 8590,
      "djec": 8591,
      "kvaliteta": 8592,
      "mehanizacij": 8593,
      "uoÄį": 8594,
      "regulatorni": 8595,
      "stipendij": 8596,
      "pritisak": 8597,
      "razaranj": 8598,
      "nepotpun": 8599,
      "bolov": 8600,
      "podelje": 8601,
      "SaviÄ": 8602,
      "homogen": 8603,
      "koÅ¡ark": 8604,
      "Andre": 8605,
      "zanemarit": 8606,
      "inostran": 8607,
      "triglicerid": 8608,
      "roditel": 8609,
      "uze": 8610,
      "novÄįano": 8611,
      "igraÄįk": 8612,
      "sahran": 8613,
      "rumunsk": 8614,
      "jednokratn": 8615,
      "zahvali": 8616,
      "umrl": 8617,
      "odreÄĳivan": 8618,
      "Majk": 8619,
      "propisa": 8620,
      "dvostruko": 8621,
      "MarkoviÄĩ": 8622,
      "logistik": 8623,
      "izda": 8624,
      "nevladini": 8625,
      "DÅ¾ejm": 8626,
      "map": 8627,
      "razviÄĩ": 8628,
      "nijans": 8629,
      "deÅ¡avanjim": 8630,
      "umnogom": 8631,
      "spisk": 8632,
      "pojednostavljen": 8633,
      "hromozom": 8634,
      "VaÅ¡ingto": 8635,
      "Äįvrsti": 8636,
      "identiÄįa": 8637,
      "Vilijam": 8638,
      "nezaposlenos": 8639,
      "fragmenat": 8640,
      "fantastik": 8641,
      "smanji": 8642,
      "Mest": 8643,
      "uslovil": 8644,
      "teÄįn": 8645,
      "rukovod": 8646,
      "181": 8647,
      "sastojak": 8648,
      "razliÄīit": 8649,
      "gazdinstav": 8650,
      "profesionalc": 8651,
      "Be": 8652,
      "uhapÅ¡en": 8653,
      "okolnos": 8654,
      "laÅ¾ni": 8655,
      "kompleksno": 8656,
      "znanje": 8657,
      ".Ovak": 8658,
      ".Postupa": 8659,
      "poremeÄĩaje": 8660,
      "....": 8661,
      "odrÅ¾aval": 8662,
      "ruko": 8663,
      "saznanjim": 8664,
      "uzel": 8665,
      "tretir": 8666,
      ".OÄįigledn": 8667,
      "proizvoÄĳaÄįim": 8668,
      "severozapadn": 8669,
      "Premije": 8670,
      "kalciju": 8671,
      "konzumacij": 8672,
      "asimetrij": 8673,
      "kvantitativno": 8674,
      "KriviÄįn": 8675,
      "danaÅ¡njo": 8676,
      "znaÄįajniji": 8677,
      "Å¡e": 8678,
      "investito": 8679,
      "oÄįuvan": 8680,
      "telefonsk": 8681,
      "pump": 8682,
      "nedostac": 8683,
      "Poljoprivredn": 8684,
      "neuronsk": 8685,
      "najpopularniji": 8686,
      "Äįekaj": 8687,
      "makedonsk": 8688,
      "ispitiva": 8689,
      "poslij": 8690,
      "prinudn": 8691,
      "hidroelektran": 8692,
      "polimerizacij": 8693,
      "drven": 8694,
      "ostavljaj": 8695,
      "muÅ¾jak": 8696,
      "prikazano": 8697,
      "serijal": 8698,
      "lingvistiÄįki": 8699,
      "naizmeniÄįn": 8700,
      "Deklaracij": 8701,
      "prevladavanj": 8702,
      "teritorijam": 8703,
      "predstavam": 8704,
      "180": 8705,
      ".Zako": 8706,
      "raznovrsnost": 8707,
[...]
