{
  "version": "1.0",
  "truncation": null,
  "padding": null,
  "added_tokens": [
    {
      "id": 0,
      "content": "[PAD]",
      "single_word": false,
      "lstrip": false,
      "rstrip": false,
      "normalized": false,
      "special": true
    },
    {
      "id": 1,
      "content": "[UNK]",
      "single_word": false,
      "lstrip": false,
      "rstrip": false,
      "normalized": false,
      "special": true
    },
    {
      "id": 2,
      "content": "[CLS]",
      "single_word": false,
      "lstrip": false,
      "rstrip": false,
      "normalized": false,
      "special": true
    },
    {
      "id": 3,
      "content": "[SEP]",
      "single_word": false,
      "lstrip": false,
      "rstrip": false,
      "normalized": false,
      "special": true
    },
    {
      "id": 4,
      "content": "[MASK]",
      "single_word": false,
      "lstrip": false,
      "rstrip": false,
      "normalized": false,
      "special": true
    }
  ],
  "normalizer": null,
  "pre_tokenizer": {
    "type": "Sequence",
    "pretokenizers": [
      {
        "type": "Whitespace"
      },
      {
        "type": "ByteLevel",
        "add_prefix_space": false,
        "trim_offsets": true,
        "use_regex": false
      }
    ]
  },
  "post_processor": null,
  "decoder": null,
  "model": {
    "type": "BPE",
    "dropout": null,
    "unk_token": null,
    "continuing_subword_prefix": null,
    "end_of_word_suffix": "Ġ",
    "fuse_unk": false,
    "byte_fallback": false,
    "ignore_merges": true,
    "vocab": {
      "[PAD]": 0,
      "[UNK]": 1,
      "[CLS]": 2,
      "[SEP]": 3,
      "[MASK]": 4,
      "!": 5,
      "\"": 6,
      "#": 7,
      "$": 8,
      "%": 9,
      "&": 10,
      "'": 11,
      "(": 12,
      ")": 13,
      "*": 14,
      "+": 15,
      ",": 16,
      "-": 17,
      ".": 18,
      "/": 19,
      "0": 20,
      "1": 21,
      "2": 22,
      "3": 23,
      "4": 24,
      "5": 25,
      "6": 26,
      "7": 27,
      "8": 28,
      "9": 29,
      ":": 30,
      ";": 31,
      "<": 32,
      "=": 33,
      ">": 34,
      "?": 35,
      "@": 36,
      "A": 37,
      "B": 38,
      "C": 39,
      "D": 40,
      "E": 41,
      "F": 42,
      "G": 43,
      "H": 44,
      "I": 45,
      "J": 46,
      "K": 47,
      "L": 48,
      "M": 49,
      "N": 50,
      "O": 51,
      "P": 52,
      "Q": 53,
      "R": 54,
      "S": 55,
      "T": 56,
      "U": 57,
      "V": 58,
      "W": 59,
      "X": 60,
      "Y": 61,
      "Z": 62,
      "[": 63,
      "\\": 64,
      "]": 65,
      "^": 66,
      "_": 67,
      "`": 68,
      "a": 69,
      "b": 70,
      "c": 71,
      "d": 72,
      "e": 73,
      "f": 74,
      "g": 75,
      "h": 76,
      "i": 77,
      "j": 78,
      "k": 79,
      "l": 80,
      "m": 81,
      "n": 82,
      "o": 83,
      "p": 84,
      "q": 85,
      "r": 86,
      "s": 87,
      "t": 88,
      "u": 89,
      "v": 90,
      "w": 91,
      "x": 92,
      "y": 93,
      "z": 94,
      "{": 95,
      "|": 96,
      "}": 97,
      "~": 98,
      "¡": 99,
      "¢": 100,
      "£": 101,
      "¤": 102,
      "¥": 103,
      "¦": 104,
      "§": 105,
      "¨": 106,
      "©": 107,
      "ª": 108,
      "«": 109,
      "¬": 110,
      "®": 111,
      "¯": 112,
      "°": 113,
      "±": 114,
      "²": 115,
      "³": 116,
      "´": 117,
      "µ": 118,
      "¶": 119,
      "·": 120,
      "¸": 121,
      "¹": 122,
      "º": 123,
      "»": 124,
      "¼": 125,
      "½": 126,
      "¾": 127,
      "¿": 128,
      "À": 129,
      "Á": 130,
      "Â": 131,
      "Ã": 132,
      "Ä": 133,
      "Å": 134,
      "Æ": 135,
      "Ç": 136,
      "È": 137,
      "É": 138,
      "Ê": 139,
      "Ë": 140,
      "Ì": 141,
      "Í": 142,
      "Î": 143,
      "Ï": 144,
      "Ð": 145,
      "Ñ": 146,
      "Ò": 147,
      "Ó": 148,
      "Ô": 149,
      "Õ": 150,
      "Ö": 151,
      "×": 152,
      "Ø": 153,
      "Ù": 154,
      "Ú": 155,
      "Û": 156,
      "Ü": 157,
      "Ý": 158,
      "Þ": 159,
      "ß": 160,
      "à": 161,
      "á": 162,
      "â": 163,
      "ã": 164,
      "ä": 165,
      "å": 166,
      "æ": 167,
      "ç": 168,
      "è": 169,
      "é": 170,
      "ê": 171,
      "ë": 172,
      "ì": 173,
      "í": 174,
      "î": 175,
      "ï": 176,
      "ð": 177,
      "ñ": 178,
      "ò": 179,
      "ó": 180,
      "ô": 181,
      "õ": 182,
      "ö": 183,
      "÷": 184,
      "ø": 185,
      "ù": 186,
      "ú": 187,
      "û": 188,
      "ü": 189,
      "ý": 190,
      "þ": 191,
      "ÿ": 192,
      "Ā": 193,
      "ā": 194,
      "Ă": 195,
      "ă": 196,
      "Ą": 197,
      "ą": 198,
      "Ć": 199,
      "ć": 200,
      "Ĉ": 201,
      "ĉ": 202,
      "Ċ": 203,
      "ċ": 204,
      "Č": 205,
      "č": 206,
      "Ď": 207,
      "ď": 208,
      "Đ": 209,
      "đ": 210,
      "Ē": 211,
      "ē": 212,
      "Ĕ": 213,
      "ĕ": 214,
      "Ė": 215,
      "ė": 216,
      "Ę": 217,
      "ę": 218,
      "Ě": 219,
      "ě": 220,
      "Ĝ": 221,
      "ĝ": 222,
      "Ğ": 223,
      "ğ": 224,
      "Ġ": 225,
      "ġ": 226,
      "Ģ": 227,
      "ģ": 228,
      "Ĥ": 229,
      "ĥ": 230,
      "Ħ": 231,
      "ħ": 232,
      "Ĩ": 233,
      "ĩ": 234,
      "Ī": 235,
      "ī": 236,
      "Ĭ": 237,
      "ĭ": 238,
      "Į": 239,
      "į": 240,
      "İ": 241,
      "ı": 242,
      "Ĳ": 243,
      "ĳ": 244,
      "Ĵ": 245,
      "ĵ": 246,
      "Ķ": 247,
      "ķ": 248,
      "ĸ": 249,
      "Ĺ": 250,
      "ĺ": 251,
      "Ļ": 252,
      "ļ": 253,
      "Ľ": 254,
      "ľ": 255,
      "Ŀ": 256,
      "ŀ": 257,
      "Ł": 258,
      "ł": 259,
      "Ń": 260,
      "xĠ": 261,
      "UĠ": 262,
      "eĠ": 263,
      "uĠ": 264,
      "oĠ": 265,
      "nĠ": 266,
      "EĠ": 267,
      "iĠ": 268,
      "gĠ": 269,
      "FĠ": 270,
      "zĠ": 271,
      "TĠ": 272,
      "aĠ": 273,
      "sĠ": 274,
      "XĠ": 275,
      "0Ġ": 276,
      "vĠ": 277,
      "7Ġ": 278,
      "ŃĠ": 279,
      "mĠ": 280,
      "OĠ": 281,
      "hĠ": 282,
      "tĠ": 283,
      "jĠ": 284,
      "2Ġ": 285,
      "ļĠ": 286,
      "AĠ": 287,
      "rĠ": 288,
      "8Ġ": 289,
      "kĠ": 290,
      "dĠ": 291,
      "lĠ": 292,
      "HĠ": 293,
      "łĠ": 294,
      "ĿĠ": 295,
      "1Ġ": 296,
      "¥Ġ": 297,
      "_Ġ": 298,
      "¼Ġ": 299,
      "RĠ": 300,
      "ĢĠ": 301,
      "ĩĠ": 302,
      "³Ġ": 303,
      "cĠ": 304,
      "ĬĠ": 305,
      "¡Ġ": 306,
      "¨Ġ": 307,
      "ĨĠ": 308,
      "CĠ": 309,
      "©Ġ": 310,
      "²Ġ": 311,
      "ŁĠ": 312,
      "ģĠ": 313,
      "4Ġ": 314,
      "¯Ġ": 315,
      "ıĠ": 316,
      "NĠ": 317,
      "GĠ": 318,
      "*Ġ": 319,
      "IĠ": 320,
      "3Ġ": 321,
      "yĠ": 322,
      "5Ġ": 323,
      "ĤĠ": 324,
      "PĠ": 325,
      "¢Ġ": 326,
      "6Ġ": 327,
      "MĠ": 328,
      "-Ġ": 329,
      "ĮĠ": 330,
      "ĴĠ": 331,
      "¹Ġ": 332,
      "YĠ": 333,
      "ĶĠ": 334,
      "ĵĠ": 335,
      "9Ġ": 336,
      "JĠ": 337,
      "bĠ": 338,
      "±Ġ": 339,
      "¸Ġ": 340,
      "İĠ": 341,
      "qĠ": 342,
      "°Ġ": 343,
      "½Ġ": 344,
      "¦Ġ": 345,
      "(Ġ": 346,
      "pĠ": 347,
      "§Ġ": 348,
      "ĥĠ": 349,
      "£Ġ": 350,
      "įĠ": 351,
      "¿Ġ": 352,
      "ZĠ": 353,
      "VĠ": 354,
      "!Ġ": 355,
      "fĠ": 356,
      ".Ġ": 357,
      "ĹĠ": 358,
      ",Ġ": 359,
      "ĸĠ": 360,
      "SĠ": 361,
      "ĦĠ": 362,
      "KĠ": 363,
      "®Ġ": 364,
      "ĲĠ": 365,
      "+Ġ": 366,
      "BĠ": 367,
      ":Ġ": 368,
      "»Ġ": 369,
      "¾Ġ": 370,
      "ĭĠ": 371,
      "DĠ": 372,
      "LĠ": 373,
      "¬Ġ": 374,
      ">Ġ": 375,
      "¶Ġ": 376,
      "·Ġ": 377,
      "ĳĠ": 378,
      "wĠ": 379,
      "ºĠ": 380,
      "ĺĠ": 381,
      "¤Ġ": 382,
      "ŀĠ": 383,
      "ĽĠ": 384,
      "ªĠ": 385,
      "ĐĠ": 386,
      "´Ġ": 387,
      "µĠ": 388,
      "ĪĠ": 389,
      "WĠ": 390,
      "īĠ": 391,
      "ľĠ": 392,
      "%Ġ": 393,
      "ăĠ": 394,
      "<Ġ": 395,
      "«Ġ": 396,
      "ķĠ": 397,
      "ħĠ": 398,
      "ĻĠ": 399,
      ")Ġ": 400,
      "\"Ġ": 401,
      "QĠ": 402,
      "ĔĠ": 403,
      "\\Ġ": 404,
      "/Ġ": 405,
      "đĠ": 406,
      "ėĠ": 407,
      "^Ġ": 408,
      "=Ġ": 409,
      "'Ġ": 410,
      ";Ġ": 411,
      "ĈĠ": 412,
      "ĆĠ": 413,
      "?Ġ": 414,
      "[Ġ": 415,
      "ďĠ": 416,
      "]Ġ": 417,
      "#Ġ": 418,
      "$Ġ": 419,
      "`Ġ": 420,
      "āĠ": 421,
      "ĒĠ": 422,
      "ġĠ": 423,
      "{Ġ": 424,
      "ĚĠ": 425,
      "ěĠ": 426,
      "@Ġ": 427,
      "ĘĠ": 428,
      "&Ġ": 429,
      "ĖĠ": 430,
      "}Ġ": 431,
      "ąĠ": 432,
      "ēĠ": 433,
      "ęĠ": 434,
      "ĕĠ": 435,
      "~Ġ": 436,
      "|Ġ": 437,
      "ćĠ": 438,
      "ĄĠ": 439,
      "ĎĠ": 440,
      "ĂĠ": 441,
      "ĀĠ": 442,
      "jeĠ": 443,
      "st": 444,
      "ra": 445,
      "en": 446,
      "ko": 447,
      "an": 448,
      "re": 449,
      "po": 450,
      "Äį": 451,
      "Å¡": 452,
      "in": 453,
      "ov": 454,
      "ri": 455,
      "ni": 456,
      "ro": 457,
      "na": 458,
      "jaĠ": 459,
      "no": 460,
      "li": 461,
      "daĠ": 462,
      "Å¾": 463,
      "ci": 464,
      "naĠ": 465,
      "ti": 466,
      "od": 467,
      "av": 468,
      "ka": 469,
      "je": 470,
      "Äĩ": 471,
      "maĠ": 472,
      "te": 473,
      "al": 474,
      "seĠ": 475,
      "juĠ": 476,
      "la": 477,
      "sk": 478,
      "ve": 479,
      "or": 480,
      "neĠ": 481,
      "il": 482,
      "za": 483,
      "ta": 484,
      "lj": 485,
      "me": 486,
      "ob": 487,
      "pre": 488,
      "vi": 489,
      "va": 490,
      "le": 491,
      "noĠ": 492,
      "vo": 493,
      "ne": 494,
      "ru": 495,
      "kaĠ": 496,
      "pro": 497,
      "zaĠ": 498,
      "ma": 499,
      "âĢ": 500,
      "suĠ": 501,
      "de": 502,
      "mo": 503,
      "jiĠ": 504,
      "iz": 505,
      "Äĳ": 506,
      "sa": 507,
      "di": 508,
      "tiĠ": 509,
      "taĠ": 510,
      "to": 511,
      "ihĠ": 512,
      "pri": 513,
      "saĠ": 514,
      "koĠ": 515,
      "lo": 516,
      "si": 517,
      "se": 518,
      "do": 519,
      "men": 520,
      "niĠ": 521,
      "zi": 522,
      "stiĠ": 523,
      "Å¡t": 524,
      "ar": 525,
      "bi": 526,
      "odĠ": 527,
      "mi": 528,
      "sl": 529,
      "pi": 530,
      "pe": 531,
      "omĠ": 532,
      "anjeĠ": 533,
      "vaĠ": 534,
      "ja": 535,
      "keĠ": 536,
      "gra": 537,
      "anjaĠ": 538,
      "pa": 539,
      "da": 540,
      "imĠ": 541,
      "raz": 542,
      "tu": 543,
      "sti": 544,
      "ku": 545,
      "nihĠ": 546,
      "teĠ": 547,
      "raĠ": 548,
      "stĠ": 549,
      "pra": 550,
      "sko": 551,
      "laĠ": 552,
      "ineĠ": 553,
      "nogĠ": 554,
      "Äįi": 555,
      "su": 556,
      "moĠ": 557,
      "pu": 558,
      "cijeĠ": 559,
      "kaoĠ": 560,
      "stav": 561,
      "iliĠ": 562,
      "pr": 563,
      "red": 564,
      "kojiĠ": 565,
      "bo": 566,
      "nj": 567,
      "jed": 568,
      "Äįe": 569,
      "ÄĩĠ": 570,
      "sta": 571,
      "caĠ": 572,
      "be": 573,
      "20": 574,
      "gov": 575,
      "gaĠ": 576,
      "Å¾i": 577,
      "nostiĠ": 578,
      "ÄĩeĠ": 579,
      "du": 580,
      "nov": 581,
      "tiv": 582,
      "vr": 583,
      "imaĠ": 584,
      "tra": 585,
      "sto": 586,
      "ciĠ": 587,
      "ju": 588,
      "Äįa": 589,
      "meĠ": 590,
      "kuĠ": 591,
      "god": 592,
      "dru": 593,
      "os": 594,
      "inaĠ": 595,
      "cijaĠ": 596,
      "toĠ": 597,
      "veĠ": 598,
      "zna": 599,
      "stra": 600,
      "is": 601,
      "deĠ": 602,
      "liĠ": 603,
      "kon": 604,
      "aliĠ": 605,
      "voĠ": 606,
      "nomĠ": 607,
      "enaĠ": 608,
      "Å¡toĠ": 609,
      "gu": 610,
      "ce": 611,
      "ani": 612,
      "er": 613,
      "19": 614,
      "ceĠ": 615,
      "go": 616,
      "skeĠ": 617,
      "ak": 618,
      "tre": 619,
      "nimĠ": 620,
      "ÄĩiĠ": 621,
      "anaĠ": 622,
      "fi": 623,
      "nuĠ": 624,
      "jen": 625,
      "Å¾eĠ": 626,
      "pred": 627,
      "gi": 628,
      "lu": 629,
      "izĠ": 630,
      "lju": 631,
      "nijeĠ": 632,
      "dr": 633,
      "âĢŀĠ": 634,
      "kiĠ": 635,
      "skiĠ": 636,
      "nostĠ": 637,
      ").Ġ": 638,
      "ga": 639,
      "ogĠ": 640,
      "bil": 641,
      "biĠ": 642,
      "komĠ": 643,
      "tr": 644,
      "ze": 645,
      "jemĠ": 646,
      "ran": 647,
      "enjaĠ": 648,
      "..": 649,
      "kojeĠ": 650,
      "oraĠ": 651,
      "Å¡eĠ": 652,
      "so": 653,
      "stu": 654,
      "doĠ": 655,
      "svo": 656,
      "vod": 657,
      "naj": 658,
      "ste": 659,
      "cen": 660,
      "ini": 661,
      "duĠ": 662,
      "mu": 663,
      "âĢĵĠ": 664,
      "ovaĠ": 665,
      "treb": 666,
      "zu": 667,
      "diĠ": 668,
      "ana": 669,
      "jav": 670,
      "alaĠ": 671,
      "enjeĠ": 672,
      "ven": 673,
      "cio": 674,
      "tuĠ": 675,
      "bu": 676,
      "odno": 677,
      "spo": 678,
      "''Ġ": 679,
      "Po": 680,
      "viĠ": 681,
      "sve": 682,
      "for": 683,
      "skogĠ": 684,
      "ljaĠ": 685,
      "leĠ": 686,
      "Å¾e": 687,
      "ba": 688,
      "tiÄį": 689,
      "paĠ": 690,
      "),Ġ": 691,
      "op": 692,
      "godineĠ": 693,
      "Sr": 694,
      "skaĠ": 695,
      "drÅ¾": 696,
      "tro": 697,
      "ÄĩaĠ": 698,
      "ojĠ": 699,
      "slu": 700,
      "dob": 701,
      "kojaĠ": 702,
      "man": 703,
      "stan": 704,
      "prav": 705,
      "muĠ": 706,
      "201": 707,
      "Na": 708,
      "reĠ": 709,
      "spe": 710,
      "ova": 711,
      "nje": 712,
      "staĠ": 713,
      "meÄĳ": 714,
      "drug": 715,
      "ek": 716,
      "skihĠ": 717,
      "nji": 718,
      "eneĠ": 719,
      "Äĩe": 720,
      "riĠ": 721,
      "kori": 722,
      "teri": 723,
      "avaĠ": 724,
      "hi": 725,
      "vred": 726,
      "kri": 727,
      "poĠ": 728,
      "âĢľĠ": 729,
      "ca": 730,
      "guĠ": 731,
      "kra": 732,
      "on": 733,
      "inte": 734,
      "eniĠ": 735,
      "van": 736,
      "oveĠ": 737,
      "cijuĠ": 738,
      "ziĠ": 739,
      "Åł": 740,
      "vre": 741,
      "loĠ": 742,
      "bro": 743,
      "ilaĠ": 744,
      "ina": 745,
      "iniĠ": 746,
      "nikaĠ": 747,
      "200": 748,
      "Äįu": 749,
      "nu": 750,
      "stru": 751,
      "posl": 752,
      "ver": 753,
      "ovi": 754,
      "sle": 755,
      "ok": 756,
      "Å¡Ġ": 757,
      "cij": 758,
      "lji": 759,
      "eni": 760,
      "zeĠ": 761,
      "Srbi": 762,
      "enoĠ": 763,
      "koj": 764,
      "razli": 765,
      "lek": 766,
      "moÅ¾eĠ": 767,
      "Ka": 768,
      "gle": 769,
      "steĠ": 770,
      "liÄį": 771,
      "ut": 772,
      "Å¡i": 773,
      "kom": 774,
      "reÄĳ": 775,
      "mal": 776,
      "rad": 777,
      "uÄį": 778,
      "stoĠ": 779,
      "kakoĠ": 780,
      "pit": 781,
      "nojĠ": 782,
      "niÄį": 783,
      "kogĠ": 784,
      "stiÄį": 785,
      "miĠ": 786,
      "siĠ": 787,
      "timĠ": 788,
      "met": 789,
      "ogra": 790,
      "ot": 791,
      "Å¡e": 792,
      "onĠ": 793,
      "poli": 794,
      "ajuĠ": 795,
      "ori": 796,
      "vanjaĠ": 797,
      "nal": 798,
      "kre": 799,
      "dov": 800,
      "osnov": 801,
      "anjuĠ": 802,
      "pod": 803,
      "É¨": 804,
      "fe": 805,
      "stva": 806,
      "ima": 807,
      "lan": 808,
      "samoĠ": 809,
      "Re": 810,
      "potreb": 811,
      "viÅ¡eĠ": 812,
      "É¢": 813,
      "sred": 814,
      "mogu": 815,
      "ruĠ": 816,
      "pot": 817,
      "den": 818,
      "skomĠ": 819,
      "Be": 820,
      "njeĠ": 821,
      "likoĠ": 822,
      "nikĠ": 823,
      "sveĠ": 824,
      "snoĠ": 825,
      "kadaĠ": 826,
      "Éļ": 827,
      "zav": 828,
      "kihĠ": 829,
      "ki": 830,
      "kodĠ": 831,
      "vanjeĠ": 832,
      "00Ġ": 833,
      "tomĠ": 834,
      "uz": 835,
      "tnoĠ": 836,
      "org": 837,
      "Ta": 838,
      "vla": 839,
      "rod": 840,
      "predstav": 841,
      "gl": 842,
      "meÄĳuĠ": 843,
      "gen": 844,
      "ljeĠ": 845,
      "sva": 846,
      "ho": 847,
      "pla": 848,
      "É¨É": 849,
      "goĠ": 850,
      "tal": 851,
      "cijiĠ": 852,
      "un": 853,
      "bli": 854,
      "mod": 855,
      "pove": 856,
      "gru": 857,
      "posto": 858,
      "ave": 859,
      "bra": 860,
      "anĠ": 861,
      "cuĠ": 862,
      "znaÄįa": 863,
      "siste": 864,
      "inuĠ": 865,
      "ÄĩuĠ": 866,
      "san": 867,
      "Za": 868,
      "konĠ": 869,
      "luĠ": 870,
      "danĠ": 871,
      "bioĠ": 872,
      "gla": 873,
      "samĠ": 874,
      "Å¡taĠ": 875,
      "bitiĠ": 876,
      "ge": 877,
      "he": 878,
      "Å¾ivo": 879,
      "klju": 880,
      ".,Ġ": 881,
      "Me": 882,
      "rav": 883,
      "ÉļÉ": 884,
      "É¢É": 885,
      "vuĠ": 886,
      "Ne": 887,
      "fa": 888,
      "sli": 889,
      "skimĠ": 890,
      "oviĠ": 891,
      "geĠ": 892,
      "ren": 893,
      "ovan": 894,
      "cimaĠ": 895,
      "Ra": 896,
      "stvaĠ": 897,
      "odgov": 898,
      "proiz": 899,
      "stvoĠ": 900,
      "ÄĳeĠ": 901,
      "loÅ¡": 902,
      "rij": 903,
      "tor": 904,
      "rek": 905,
      "min": 906,
      "akoĠ": 907,
      "menaĠ": 908,
      "jerĠ": 909,
      "araĠ": 910,
      "tek": 911,
      "kolikoĠ": 912,
      "veli": 913,
      "vrÅ¡": 914,
      "istra": 915,
      "ÄįiĠ": 916,
      "onaĠ": 917,
      "kup": 918,
      "juÄĩiĠ": 919,
      "lta": 920,
      "im": 921,
      "hod": 922,
      "Å¡ko": 923,
      "sni": 924,
      "zem": 925,
      "premaĠ": 926,
      "biloĠ": 927,
      "rak": 928,
      "kul": 929,
      "ÉŁ": 930,
      "pose": 931,
      "hva": 932,
      "jamaĠ": 933,
      "bogĠ": 934,
      "moguĠ": 935,
      "Å¡a": 936,
      "zan": 937,
      "ÄĮ": 938,
      "ter": 939,
      "stup": 940,
      "sku": 941,
      "par": 942,
      "sr": 943,
      "enihĠ": 944,
      "lje": 945,
      "Ko": 946,
      "cional": 947,
      "svi": 948,
      "dal": 949,
      "NaĠ": 950,
      "izmeÄĳuĠ": 951,
      "proce": 952,
      "zulta": 953,
      "takoĠ": 954,
      "kro": 955,
      "tak": 956,
      "njegov": 957,
      "Ma": 958,
      "âĢľ": 959,
      "njih": 960,
      "tetaĠ": 961,
      "romĠ": 962,
      "dokĠ": 963,
      "viÄĩĠ": 964,
      "eno": 965,
      "tri": 966,
      "odreÄĳ": 967,
      "ovogĠ": 968,
      "ove": 969,
      "voj": 970,
      "anali": 971,
      "kva": 972,
      "kimĠ": 973,
      "svoj": 974,
      "zo": 975,
      "jo": 976,
      "glav": 977,
      "uti": 978,
      "drÅ¾av": 979,
      "Å¡ti": 980,
      "pozi": 981,
      "dobi": 982,
      "oviÄĩĠ": 983,
      "Sa": 984,
      "jek": 985,
      "smoĠ": 986,
      "stal": 987,
      "ÉŁÉ": 988,
      "peĠ": 989,
      "veÄĩĠ": 990,
      "10Ġ": 991,
      "sluÄįa": 992,
      "....": 993,
      "beĠ": 994,
      "br": 995,
      "lja": 996,
      "ha": 997,
      "istraÅ¾i": 998,
      "sma": 999,
      "Äĳu": 1000,
      "199": 1001,
      "struk": 1002,
      "moguÄĩ": 1003,
      "skojĠ": 1004,
      "poka": 1005,
      "logi": 1006,
      "fo": 1007,
      "poda": 1008,
      "druÅ¡t": 1009,
      "fin": 1010,
      "cijal": 1011,
      "razliÄįi": 1012,
      "ÄįaĠ": 1013,
      "isto": 1014,
      "vor": 1015,
      "ÄįĠ": 1016,
      "jedin": 1017,
      "skuĠ": 1018,
      "fun": 1019,
      "aniza": 1020,
      "pret": 1021,
      "aktiv": 1022,
      "Mi": 1023,
      "peri": 1024,
      "tin": 1025,
      "bilaĠ": 1026,
      "zbogĠ": 1027,
      "au": 1028,
      "Å¡Äĩ": 1029,
      "Pro": 1030,
      "ÄįnoĠ": 1031,
      "odnosnoĠ": 1032,
      "ÂŃĠ": 1033,
      "oda": 1034,
      "baĠ": 1035,
      "skoĠ": 1036,
      "Beogra": 1037,
      "18": 1038,
      "ble": 1039,
      "vro": 1040,
      "tneĠ": 1041,
      "20Ġ": 1042,
      "znaÄįaj": 1043,
      "nala": 1044,
      "mno": 1045,
      "ovomĠ": 1046,
      "poÄįe": 1047,
      "avi": 1048,
      "forma": 1049,
      "pozna": 1050,
      "Pre": 1051,
      "gre": 1052,
      "ÉļĠ": 1053,
      "ele": 1054,
      "ovoĠ": 1055,
      "mer": 1056,
      "ÄįinĠ": 1057,
      "Pri": 1058,
      "loÅ¾": 1059,
      "rezulta": 1060,
      "In": 1061,
      "razu": 1062,
      "SrbijeĠ": 1063,
      "godinaĠ": 1064,
      "val": 1065,
      "cr": 1066,
      "meneĠ": 1067,
      "niciĠ": 1068,
      "funk": 1069,
      "togaĠ": 1070,
      "razvo": 1071,
      "avanjeĠ": 1072,
      "jezi": 1073,
      "obra": 1074,
      "mode": 1075,
      "Ni": 1076,
      "stuĠ": 1077,
      "fika": 1078,
      "ranjeĠ": 1079,
      "naÅ¡": 1080,
      "srp": 1081,
      "obi": 1082,
      "preĠ": 1083,
      "trebaĠ": 1084,
      "ava": 1085,
      "ovimaĠ": 1086,
      "tihĠ": 1087,
      "bezĠ": 1088,
      "Ve": 1089,
      "timaĠ": 1090,
      "ji": 1091,
      "toraĠ": 1092,
      "ataĠ": 1093,
      "De": 1094,
      "izra": 1095,
      "per": 1096,
      "brojĠ": 1097,
      "âĢĿĠ": 1098,
      "enjuĠ": 1099,
      "Å¡ta": 1100,
      "torĠ": 1101,
      "rodi": 1102,
      "straneĠ": 1103,
      "nastav": 1104,
      "dar": 1105,
      "vomĠ": 1106,
      "«É": 1107,
      "vrednostiĠ": 1108,
      "njaĠ": 1109,
      "gdeĠ": 1110,
      "ur": 1111,
      "Äī": 1112,
      "deoĠ": 1113,
      "para": 1114,
      "komp": 1115,
      "kono": 1116,
      "ke": 1117,
      "Äįin": 1118,
      "postav": 1119,
      "liza": 1120,
      "prin": 1121,
      "menta": 1122,
      "una": 1123,
      "koÄĳeĠ": 1124,
      "zuĠ": 1125,
      "ÄĨĠ": 1126,
      "likaĠ": 1127,
      "pore": 1128,
      "pravoĠ": 1129,
      "pl": 1130,
      "kr": 1131,
      "proble": 1132,
      "naÄįinĠ": 1133,
      "jan": 1134,
      "usl": 1135,
      "nisuĠ": 1136,
      "us": 1137,
      "olj": 1138,
      "podĠ": 1139,
      "Mo": 1140,
      "inter": 1141,
      "ljuĠ": 1142,
      "Je": 1143,
      "rajuĠ": 1144,
      "ranjaĠ": 1145,
      "triĠ": 1146,
      "govor": 1147,
      "zajed": 1148,
      "jedanĠ": 1149,
      "kultu": 1150,
      "teh": 1151,
      "danaĠ": 1152,
      "ÄįeĠ": 1153,
      "joÅ¡Ġ": 1154,
      "zbe": 1155,
      "sadrÅ¾": 1156,
      "graÄĳ": 1157,
      "pera": 1158,
      "avanjaĠ": 1159,
      "organiza": 1160,
      "nakonĠ": 1161,
      "zah": 1162,
      "ÄįkeĠ": 1163,
      "aloĠ": 1164,
      "ovanjaĠ": 1165,
      "Éª": 1166,
      "kla": 1167,
      "takĠ": 1168,
      "prime": 1169,
      "zd": 1170,
      "roĠ": 1171,
      "mar": 1172,
      "kar": 1173,
      "iloĠ": 1174,
      "karak": 1175,
      "tran": 1176,
      "tetĠ": 1177,
      "posle": 1178,
      "mini": 1179,
      "bor": 1180,
      "enogĠ": 1181,
      "sed": 1182,
      "Å¾iĠ": 1183,
      "kal": 1184,
      "Å£": 1185,
      "okoĠ": 1186,
      "fil": 1187,
      "medi": 1188,
      "ad": 1189,
      "njiĠ": 1190,
      "odlu": 1191,
      "pad": 1192,
      "vimaĠ": 1193,
      "__": 1194,
      "osnovuĠ": 1195,
      "odnosuĠ": 1196,
      "vremeĠ": 1197,
      "stven": 1198,
      "jimaĠ": 1199,
      "zavis": 1200,
      "pomo": 1201,
      "dvaĠ": 1202,
      "ten": 1203,
      "utica": 1204,
      "tan": 1205,
      "vra": 1206,
      "Bo": 1207,
      "tokomĠ": 1208,
      "mb": 1209,
      "kan": 1210,
      "kojimaĠ": 1211,
      "imajuĠ": 1212,
      "zaÅ¡ti": 1213,
      "uve": 1214,
      "traĠ": 1215,
      "ioĠ": 1216,
      "njihĠ": 1217,
      "njuĠ": 1218,
      "vrop": 1219,
      "Pe": 1220,
      "ist": 1221,
      "primen": 1222,
      "heĠ": 1223,
      "materi": 1224,
      "...Ġ": 1225,
      "rijeĠ": 1226,
      "vanĠ": 1227,
      "niceĠ": 1228,
      "osob": 1229,
      "poseb": 1230,
      "Å¡teĠ": 1231,
      "cu": 1232,
      "fer": 1233,
      "struktu": 1234,
      "rt": 1235,
      "Å¡te": 1236,
      "12Ġ": 1237,
      "Äĩa": 1238,
      "uÄįe": 1239,
      "uzĠ": 1240,
      "radi": 1241,
      "vaÅ¾": 1242,
      "samo": 1243,
      "ÄįneĠ": 1244,
      "rimaĠ": 1245,
      "ral": 1246,
      "publi": 1247,
      "''": 1248,
      "uze": 1249,
      "slob": 1250,
      "prika": 1251,
      "iza": 1252,
      "proizvod": 1253,
      "drugeĠ": 1254,
      "Å½": 1255,
      "ide": 1256,
      "reÅ¡": 1257,
      "sna": 1258,
      "pravaĠ": 1259,
      "kvali": 1260,
      "rijaĠ": 1261,
      "osta": 1262,
      "dovolj": 1263,
      "knji": 1264,
      "obave": 1265,
      "zujeĠ": 1266,
      "delaĠ": 1267,
      "popu": 1268,
      "tren": 1269,
      "ispi": 1270,
      "krozĠ": 1271,
      "sla": 1272,
      "kojĠ": 1273,
      "meta": 1274,
      "15Ġ": 1275,
      "É§": 1276,
      "ÉŁĠ": 1277,
      "svojeĠ": 1278,
      "rÅ¾": 1279,
      "predu": 1280,
      "nicaĠ": 1281,
      "negoĠ": 1282,
      "omaĠ": 1283,
      "inĠ": 1284,
      "hra": 1285,
      "grad": 1286,
      "dana": 1287,
      "meri": 1288,
      "enĠ": 1289,
      "ZaĠ": 1290,
      "ovanjeĠ": 1291,
      "priĠ": 1292,
      "ljiĠ": 1293,
      "uspe": 1294,
      "kojuĠ": 1295,
      "el": 1296,
      "avajuĠ": 1297,
      "manjeĠ": 1298,
      "tomeĠ": 1299,
      "11Ġ": 1300,
      "Ru": 1301,
      "takaĠ": 1302,
      "ÄįkiĠ": 1303,
      "obla": 1304,
      "gene": 1305,
      "okvi": 1306,
      "ara": 1307,
      "ruÅ¾": 1308,
      "smatra": 1309,
      "tivĠ": 1310,
      "jal": 1311,
      "ujeĠ": 1312,
      "izve": 1313,
      "kontro": 1314,
      "nivo": 1315,
      "aniĠ": 1316,
      "tera": 1317,
      "logĠ": 1318,
      "voÄĳ": 1319,
      "Ju": 1320,
      "regi": 1321,
      "cijamaĠ": 1322,
      "stimaĠ": 1323,
      "ekono": 1324,
      "10": 1325,
      "Va": 1326,
      "informa": 1327,
      "stitu": 1328,
      "sob": 1329,
      "centra": 1330,
      "50Ġ": 1331,
      "biliĠ": 1332,
      "cijen": 1333,
      "pakĠ": 1334,
      "sigu": 1335,
      "tnaĠ": 1336,
      "ljudiĠ": 1337,
      "zahte": 1338,
      "togĠ": 1339,
      "plo": 1340,
      "sman": 1341,
      "politiÄį": 1342,
      "ksi": 1343,
      "vremen": 1344,
      "lin": 1345,
      "tniĠ": 1346,
      "radaĠ": 1347,
      "pis": 1348,
      "ban": 1349,
      "nad": 1350,
      "bav": 1351,
      "30Ġ": 1352,
      "elek": 1353,
      "âĢľ,Ġ": 1354,
      "janjeĠ": 1355,
      "Å¡iĠ": 1356,
      "karakteri": 1357,
      "tvr": 1358,
      "utvr": 1359,
      "fak": 1360,
      "radiĠ": 1361,
      "198": 1362,
      "skla": 1363,
      "progra": 1364,
      "izi": 1365,
      "predstavljaĠ": 1366,
      "obraz": 1367,
      "oniĠ": 1368,
      "alĠ": 1369,
      "sistemaĠ": 1370,
      "vodiĠ": 1371,
      "tnihĠ": 1372,
      "obe": 1373,
      "spek": 1374,
      "É¢Ġ": 1375,
      "21Ġ": 1376,
      "ofĠ": 1377,
      "andĠ": 1378,
      "Te": 1379,
      "Å¡aĠ": 1380,
      "Êģ": 1381,
      "veÄĩ": 1382,
      "kadĠ": 1383,
      "obli": 1384,
      "cijomĠ": 1385,
      "ovihĠ": 1386,
      "duÅ¾": 1387,
      "haĠ": 1388,
      "liz": 1389,
      "itiĠ": 1390,
      "spre": 1391,
      "ansi": 1392,
      "viso": 1393,
      "doda": 1394,
      "zn": 1395,
      "poveÄĩ": 1396,
      "uka": 1397,
      "orĠ": 1398,
      "uklju": 1399,
      "star": 1400,
      "ÄįkaĠ": 1401,
      "muni": 1402,
      "nave": 1403,
      "tarĠ": 1404,
      "Vi": 1405,
      "organ": 1406,
      "domĠ": 1407,
      "cep": 1408,
      "lomĠ": 1409,
      "naro": 1410,
      "lar": 1411,
      "smi": 1412,
      "obu": 1413,
      "bri": 1414,
      "mp": 1415,
      "mor": 1416,
      "ljĠ": 1417,
      "procen": 1418,
      "upotreb": 1419,
      "raÄįu": 1420,
      "formi": 1421,
      "SrbijiĠ": 1422,
      "razume": 1423,
      "ToĠ": 1424,
      "Mil": 1425,
      "ljajuĠ": 1426,
      "postojiĠ": 1427,
      "000Ġ": 1428,
      "stavaĠ": 1429,
      "mla": 1430,
      "naÄį": 1431,
      "rea": 1432,
      "ostva": 1433,
      "enimĠ": 1434,
      "cija": 1435,
      "dan": 1436,
      "Do": 1437,
      "âĢĿ": 1438,
      "uprav": 1439,
      "ranĠ": 1440,
      "ingĠ": 1441,
      "ug": 1442,
      "dola": 1443,
      "pojav": 1444,
      "sre": 1445,
      "licaĠ": 1446,
      "prov": 1447,
      "direk": 1448,
      "saoĠ": 1449,
      "ode": 1450,
      "dveĠ": 1451,
      "svet": 1452,
      "ser": 1453,
      "studi": 1454,
      "znaÄį": 1455,
      "14Ġ": 1456,
      "koriÅ¡Äĩ": 1457,
      "bole": 1458,
      "rela": 1459,
      "Iz": 1460,
      "prekoĠ": 1461,
      "jomĠ": 1462,
      "zako": 1463,
      "objav": 1464,
      "amaĠ": 1465,
      "obzi": 1466,
      "AN": 1467,
      "22Ġ": 1468,
      "Mar": 1469,
      "ajaĠ": 1470,
      "Pr": 1471,
      "tivnoĠ": 1472,
      "prisu": 1473,
      "budeĠ": 1474,
      "poru": 1475,
      "del": 1476,
      "it": 1477,
      "moraĠ": 1478,
      "lanĠ": 1479,
      "privred": 1480,
      "Di": 1481,
      "politi": 1482,
      "intere": 1483,
      "MeÄĳu": 1484,
      "iÅ¡": 1485,
      "enomĠ": 1486,
      "finansi": 1487,
      "sek": 1488,
      "ovajĠ": 1489,
      "tua": 1490,
      "13Ġ": 1491,
      "Od": 1492,
      "nemaĠ": 1493,
      "ÄįakĠ": 1494,
      "miÅ¡": 1495,
      "prak": 1496,
      "rÅ¡": 1497,
      "ovuĠ": 1498,
      "aut": 1499,
      "vogĠ": 1500,
      "logaĠ": 1501,
      "prost": 1502,
      "potpu": 1503,
      "uzi": 1504,
      "É«É": 1505,
      "sil": 1506,
      "mog": 1507,
      "ap": 1508,
      "remen": 1509,
      "anjemĠ": 1510,
      "kataĠ": 1511,
      "plan": 1512,
      "takoÄĳeĠ": 1513,
      "preduze": 1514,
      "vihĠ": 1515,
      "An": 1516,
      "protivĠ": 1517,
      "ener": 1518,
      "Se": 1519,
      "istraÅ¾ivanjaĠ": 1520,
      "porodi": 1521,
      "mat": 1522,
      "zdrav": 1523,
      "tivneĠ": 1524,
      "16Ġ": 1525,
      "prili": 1526,
      "ÄĲ": 1527,
      "janjaĠ": 1528,
      "radĠ": 1529,
      "auto": 1530,
      "Ba": 1531,
      "koviÄĩĠ": 1532,
      "25Ġ": 1533,
      "danasĠ": 1534,
      "18Ġ": 1535,
      "tkaĠ": 1536,
      "vodeĠ": 1537,
      "19Ġ": 1538,
      "Pa": 1539,
      "zaklju": 1540,
      "DaĠ": 1541,
      "slo": 1542,
      "sijeĠ": 1543,
      "ajĠ": 1544,
      "unu": 1545,
      "sluÄįajuĠ": 1546,
      "mestoĠ": 1547,
      "odeĠ": 1548,
      "tnogĠ": 1549,
      "svihĠ": 1550,
      "vanjuĠ": 1551,
      "tajĠ": 1552,
      "imeĠ": 1553,
      "É©": 1554,
      "ose": 1555,
      "Le": 1556,
      "druÅ¡tven": 1557,
      "fek": 1558,
      "ostĠ": 1559,
      "sme": 1560,
      "grupeĠ": 1561,
      "vu": 1562,
      "ljanjeĠ": 1563,
      "oduĠ": 1564,
      "posleĠ": 1565,
      "sadaĠ": 1566,
      "Äĩeli": 1567,
      "manĠ": 1568,
      "sav": 1569,
      "razvi": 1570,
      "ig": 1571,
      "dese": 1572,
      "veomaĠ": 1573,
      "IIĠ": 1574,
      "gosl": 1575,
      "Vo": 1576,
      "tanĠ": 1577,
      "brz": 1578,
      "svimĠ": 1579,
      "stri": 1580,
      "enjemĠ": 1581,
      "sin": 1582,
      "aneĠ": 1583,
      "verzi": 1584,
      "ukup": 1585,
      "padaĠ": 1586,
      "ÉŃ": 1587,
      "Cr": 1588,
      "stanov": 1589,
      "sluÅ¾": 1590,
      "nja": 1591,
      "dra": 1592,
      "etĠ": 1593,
      "nijiĠ": 1594,
      "........": 1595,
      "prethod": 1596,
      "co": 1597,
      "raspo": 1598,
      "Å¡nj": 1599,
      "Å¾uĠ": 1600,
      "Å¡uĠ": 1601,
      "redĠ": 1602,
      "stvuĠ": 1603,
      "podatakaĠ": 1604,
      "Su": 1605,
      "oloÅ¡": 1606,
      "povrÅ¡": 1607,
      "vodaĠ": 1608,
      "lini": 1609,
      "mentĠ": 1610,
      "mili": 1611,
      "ula": 1612,
      "dajuĠ": 1613,
      "lov": 1614,
      "ÄįnihĠ": 1615,
      "veÄĩiĠ": 1616,
      "projek": 1617,
      "izno": 1618,
      "denti": 1619,
      "izd": 1620,
      "17Ġ": 1621,
      "igra": 1622,
      "Bi": 1623,
      "zujuĠ": 1624,
      "niÅ¡t": 1625,
      "kojojĠ": 1626,
      "nekolikoĠ": 1627,
      "tionĠ": 1628,
      "Å¡ÄĩeĠ": 1629,
      "ispitiv": 1630,
      "Republi": 1631,
      "nazi": 1632,
      "fizi": 1633,
      "ljenaĠ": 1634,
      "situa": 1635,
      "ostiĠ": 1636,
      "por": 1637,
      "aleĠ": 1638,
      "tem": 1639,
      "kamaĠ": 1640,
      "aktivnostiĠ": 1641,
      "To": 1642,
      "Äįlan": 1643,
      "ekonom": 1644,
      "Evrop": 1645,
      "momĠ": 1646,
      "197": 1647,
      "Äĳi": 1648,
      "sneĠ": 1649,
      "promen": 1650,
      "ispit": 1651,
      "noÅ¡": 1652,
      "slede": 1653,
      "RA": 1654,
      "ud": 1655,
      "okviruĠ": 1656,
      "odrÅ¾": 1657,
      "vatiĠ": 1658,
      "uvekĠ": 1659,
      "camaĠ": 1660,
      "nacional": 1661,
      "ljenĠ": 1662,
      "kraj": 1663,
      "Naj": 1664,
      "nen": 1665,
      "Vu": 1666,
      "ST": 1667,
      "din": 1668,
      "anti": 1669,
      "jeni": 1670,
      "mr": 1671,
      "oneĠ": 1672,
      "enuĠ": 1673,
      "Dru": 1674,
      "kov": 1675,
      "uÄįeni": 1676,
      "ch": 1677,
      "kli": 1678,
      "piĠ": 1679,
      "sarad": 1680,
      "mese": 1681,
      "predĠ": 1682,
      "belaĠ": 1683,
      "oÄįe": 1684,
      "gor": 1685,
      "La": 1686,
      "24Ġ": 1687,
      "umet": 1688,
      "jenĠ": 1689,
      "komuni": 1690,
      "daljeĠ": 1691,
      "SlikaĠ": 1692,
      "ala": 1693,
      "âĢĻĠ": 1694,
      "leÅ¾": 1695,
      "rizi": 1696,
      "glas": 1697,
      "opi": 1698,
      "putĠ": 1699,
      "drugihĠ": 1700,
      "predsed": 1701,
      "lihĠ": 1702,
      "postup": 1703,
      "oblastiĠ": 1704,
      "trÅ¾i": 1705,
      "ljanjaĠ": 1706,
      "Vla": 1707,
      "fini": 1708,
      "ÄįkogĠ": 1709,
      "ÄįnogĠ": 1710,
      "standar": 1711,
      "stati": 1712,
      "pristu": 1713,
      "vrednostĠ": 1714,
      "kor": 1715,
      "odgovor": 1716,
      "Li": 1717,
      "puĠ": 1718,
      "dav": 1719,
      "nasĠ": 1720,
      "BeogradĠ": 1721,
      "kret": 1722,
      "drugiĠ": 1723,
      "nepo": 1724,
      "katĠ": 1725,
      "MeÄĳutimĠ": 1726,
      "gaoĠ": 1727,
      "mre": 1728,
      "tele": 1729,
      "rijiĠ": 1730,
      "prviĠ": 1731,
      "17": 1732,
      "kin": 1733,
      "teÅ¡": 1734,
      "Sve": 1735,
      "14": 1736,
      "kak": 1737,
      "ondaĠ": 1738,
      "ÄįniĠ": 1739,
      "inamaĠ": 1740,
      "feren": 1741,
      "AkoĠ": 1742,
      "ÄįnaĠ": 1743,
      "posebnoĠ": 1744,
      "namĠ": 1745,
      "Ova": 1746,
      "obezbe": 1747,
      "limĠ": 1748,
      "jihĠ": 1749,
      "teori": 1750,
      "koristiĠ": 1751,
      "janĠ": 1752,
      "vat": 1753,
      "ene": 1754,
      "Å¾aĠ": 1755,
      "opÅ¡t": 1756,
      "Äįl": 1757,
      "jalaĠ": 1758,
      "polj": 1759,
      "save": 1760,
      "zijeĠ": 1761,
      "ras": 1762,
      "vajuĠ": 1763,
      "\",Ġ": 1764,
      "13": 1765,
      "vremenaĠ": 1766,
      "posta": 1767,
      "grafi": 1768,
      "giĠ": 1769,
      "neÅ¡toĠ": 1770,
      "ovimĠ": 1771,
      "sanĠ": 1772,
      "izvrÅ¡": 1773,
      "ulo": 1774,
      "snikaĠ": 1775,
      "zaposl": 1776,
      "mnogoĠ": 1777,
      "Kon": 1778,
      "jedno": 1779,
      "23Ġ": 1780,
      "krivi": 1781,
      "nor": 1782,
      "tar": 1783,
      "âĢľ.Ġ": 1784,
      "moÅ¾e": 1785,
      "putaĠ": 1786,
      "terĠ": 1787,
      "ona": 1788,
      "dro": 1789,
      "oko": 1790,
      "omoguÄĩ": 1791,
      "stv": 1792,
      "maloĠ": 1793,
      "sijaĠ": 1794,
      "ileĠ": 1795,
      "meni": 1796,
      "limaĠ": 1797,
      "elemen": 1798,
      "gaÄĳ": 1799,
      "nev": 1800,
      "nalaziĠ": 1801,
      "zvo": 1802,
      "identi": 1803,
      "sor": 1804,
      "doma": 1805,
      "smisl": 1806,
      "gijeĠ": 1807,
      "gradaĠ": 1808,
      "simaĠ": 1809,
      "uslu": 1810,
      "ev": 1811,
      "arĠ": 1812,
      "vari": 1813,
      "neu": 1814,
      "RE": 1815,
      "ÄįanĠ": 1816,
      "inomĠ": 1817,
      "izo": 1818,
      "pogle": 1819,
      "jskeĠ": 1820,
      "vekaĠ": 1821,
      "nema": 1822,
      "Si": 1823,
      "ispitani": 1824,
      "pitanjeĠ": 1825,
      "tali": 1826,
      "dioĠ": 1827,
      "institu": 1828,
      "gro": 1829,
      "unarod": 1830,
      "tur": 1831,
      "ple": 1832,
      "nauÄį": 1833,
      "budu": 1834,
      "ljeniĠ": 1835,
      "vimĠ": 1836,
      "stiÄįkiĠ": 1837,
      "É¬": 1838,
      "ÄįkihĠ": 1839,
      "potvr": 1840,
      "oru": 1841,
      "pacijen": 1842,
      "snov": 1843,
      "godiÅ¡": 1844,
      "tru": 1845,
      "ÉŃĠ": 1846,
      "Äįove": 1847,
      "komeĠ": 1848,
      "ï¿": 1849,
      "ÄĩemĠ": 1850,
      "comĠ": 1851,
      "skladuĠ": 1852,
      "najbo": 1853,
      "znaĠ": 1854,
      "pojed": 1855,
      "sub": 1856,
      "jeneĠ": 1857,
      "prihva": 1858,
      "sistemĠ": 1859,
      "karakteristi": 1860,
      "lokal": 1861,
      "produ": 1862,
      "simĠ": 1863,
      "ophod": 1864,
      "onoĠ": 1865,
      "sarĠ": 1866,
      "indu": 1867,
      "posled": 1868,
      "prote": 1869,
      "posledi": 1870,
      "snijeĠ": 1871,
      "buĠ": 1872,
      "mati": 1873,
      "razvojĠ": 1874,
      "sviĠ": 1875,
      "moguÄĩeĠ": 1876,
      "KakoĠ": 1877,
      ".-Ġ": 1878,
      "tkeĠ": 1879,
      "É¤": 1880,
      "str": 1881,
      "isk": 1882,
      "ranaĠ": 1883,
      "stro": 1884,
      "ÄįestoĠ": 1885,
      "turi": 1886,
      "16": 1887,
      "jednomĠ": 1888,
      "rsĠ": 1889,
      "organiz": 1890,
      "âĢĶĠ": 1891,
      "SA": 1892,
      "predme": 1893,
      "stig": 1894,
      "meÄĳunarod": 1895,
      "pute": 1896,
      "tivniĠ": 1897,
      "tehno": 1898,
      "prove": 1899,
      "pora": 1900,
      "rekaoĠ": 1901,
      "jskiĠ": 1902,
      "put": 1903,
      "spi": 1904,
      "isku": 1905,
      "ljud": 1906,
      "15": 1907,
      "bal": 1908,
      "Al": 1909,
      "perioduĠ": 1910,
      "onal": 1911,
      "PremaĠ": 1912,
      "koncentra": 1913,
      "elektro": 1914,
      "dija": 1915,
      "rije": 1916,
      "Å¾Ġ": 1917,
      "poten": 1918,
      "ovojĠ": 1919,
      "trenut": 1920,
      "mora": 1921,
      "sen": 1922,
      "oz": 1923,
      "40Ġ": 1924,
      "socijal": 1925,
      "viÄĳ": 1926,
      "bezbe": 1927,
      "jednaĠ": 1928,
      "prija": 1929,
      "loka": 1930,
      "____": 1931,
      "obja": 1932,
      "uni": 1933,
      "kaÅ¾eĠ": 1934,
      "opera": 1935,
      "cin": 1936,
      "podru": 1937,
      "pan": 1938,
      "ponaÅ¡": 1939,
      "'',Ġ": 1940,
      "klu": 1941,
      "verova": 1942,
      "doprin": 1943,
      "komenta": 1944,
      "tureĠ": 1945,
      "jenaĠ": 1946,
      "KadaĠ": 1947,
      "196": 1948,
      "klo": 1949,
      "Kra": 1950,
      "defini": 1951,
      "Pred": 1952,
      "mina": 1953,
      "ponov": 1954,
      "Å¾ev": 1955,
      "bla": 1956,
      "profe": 1957,
      "ÄĩegĠ": 1958,
      "spor": 1959,
      "dajeĠ": 1960,
      "vaoĠ": 1961,
      "Å¾ivotaĠ": 1962,
      "Du": 1963,
      "speci": 1964,
      "dvo": 1965,
      "petĠ": 1966,
      "KaoĠ": 1967,
      "telj": 1968,
      "NA": 1969,
      "IJ": 1970,
      "kompani": 1971,
      "indi": 1972,
      "svegaĠ": 1973,
      "stavĠ": 1974,
      "Å¡u": 1975,
      "tacijeĠ": 1976,
      "oni": 1977,
      "sposob": 1978,
      "efika": 1979,
      "theĠ": 1980,
      "slobod": 1981,
      "OV": 1982,
      "kujeĠ": 1983,
      "enostiĠ": 1984,
      "primerĠ": 1985,
      "am": 1986,
      "svojimĠ": 1987,
      "poku": 1988,
      "objek": 1989,
      "zv": 1990,
      "step": 1991,
      "drÅ¾avaĠ": 1992,
      "neophod": 1993,
      "paÅ¾": 1994,
      "TakoÄĳeĠ": 1995,
      "kojihĠ": 1996,
      "TabelaĠ": 1997,
      "nadĠ": 1998,
      "So": 1999,
      "ÄĩihĠ": 2000,
      "Å¾en": 2001,
      "BeograduĠ": 2002,
      "deluĠ": 2003,
      "bezbed": 2004,
      "raduĠ": 2005,
      "tivnihĠ": 2006,
      "govoraĠ": 2007,
      "grupaĠ": 2008,
      "Å¡aoĠ": 2009,
      "bilj": 2010,
      "arhi": 2011,
      "razvojaĠ": 2012,
      "nau": 2013,
      "rataĠ": 2014,
      "upo": 2015,
      "poslov": 2016,
      "sud": 2017,
      "Bu": 2018,
      "kate": 2019,
      "crk": 2020,
      "narod": 2021,
      "ï¿½Ġ": 2022,
      "drugo": 2023,
      "svojuĠ": 2024,
      "obuhva": 2025,
      "tiÄįeĠ": 2026,
      "Äįinjeni": 2027,
      "razliÄįitihĠ": 2028,
      "napo": 2029,
      "jedini": 2030,
      "tempera": 2031,
      "nivouĠ": 2032,
      "meraĠ": 2033,
      "uzor": 2034,
      "OdĠ": 2035,
      "sliÄį": 2036,
      "194": 2037,
      "odgovara": 2038,
      "jeniĠ": 2039,
      "ÄįeÅ¡ÄĩeĠ": 2040,
      "Å¾enaĠ": 2041,
      "Å¡tuĠ": 2042,
      "oti": 2043,
      "pitanjaĠ": 2044,
      "kavĠ": 2045,
      "krat": 2046,
      "doku": 2047,
      "miÅ¡lj": 2048,
      "nekiĠ": 2049,
      "reÄį": 2050,
      "liceĠ": 2051,
      "teÅ¾": 2052,
      "28Ġ": 2053,
      "Ar": 2054,
      "ÄĩemoĠ": 2055,
      "zen": 2056,
      "promeneĠ": 2057,
      "podruÄį": 2058,
      "usĠ": 2059,
      "nostimaĠ": 2060,
      "podr": 2061,
      "svojĠ": 2062,
      "kultur": 2063,
      "SrbijaĠ": 2064,
      "modelaĠ": 2065,
      "26Ġ": 2066,
      "27Ġ": 2067,
      "drugimĠ": 2068,
      "Sta": 2069,
      "ostal": 2070,
      "drÅ¾aveĠ": 2071,
      "dnev": 2072,
      "procesaĠ": 2073,
      "drĠ": 2074,
      "vez": 2075,
      "smatraĠ": 2076,
      "zijaĠ": 2077,
      "zada": 2078,
      "broj": 2079,
      "muzi": 2080,
      "jevaĠ": 2081,
      "prirod": 2082,
      "jesteĠ": 2083,
      "ziv": 2084,
      "tivnaĠ": 2085,
      "dobroĠ": 2086,
      "otkri": 2087,
      "trans": 2088,
      "ditiĠ": 2089,
      "Alek": 2090,
      "meriĠ": 2091,
      "gori": 2092,
      "jimĠ": 2093,
      "njegĠ": 2094,
      "sup": 2095,
      "zemljeĠ": 2096,
      "propi": 2097,
      "brojaĠ": 2098,
      "ureÄĳ": 2099,
      "doka": 2100,
      "dina": 2101,
      "vrsteĠ": 2102,
      "prosto": 2103,
      "voz": 2104,
      "pli": 2105,
      "ekspe": 2106,
      "tradi": 2107,
      "Ku": 2108,
      "uspo": 2109,
      "Ro": 2110,
      "prose": 2111,
      "cenaĠ": 2112,
      "velikiĠ": 2113,
      "jegĠ": 2114,
      "satiĠ": 2115,
      "hemi": 2116,
      "ukljuÄįu": 2117,
      "pokaz": 2118,
      "zadovolj": 2119,
      "lacijeĠ": 2120,
      "gled": 2121,
      "jednogĠ": 2122,
      "et": 2123,
      "slav": 2124,
      "jojĠ": 2125,
      "prilikomĠ": 2126,
      "odi": 2127,
      "tira": 2128,
      "znaÄįajnoĠ": 2129,
      "specifi": 2130,
      "jenjaĠ": 2131,
      "opre": 2132,
      "Gra": 2133,
      "odaĠ": 2134,
      "pojedin": 2135,
      "Srp": 2136,
      "psi": 2137,
      "post": 2138,
      "potrebnoĠ": 2139,
      "jezikaĠ": 2140,
      "trebaloĠ": 2141,
      "uticajĠ": 2142,
      "meh": 2143,
      "regu": 2144,
      "smisluĠ": 2145,
      "kovan": 2146,
      "mental": 2147,
      "100Ġ": 2148,
      "ÄįitiĠ": 2149,
      "29Ġ": 2150,
      "kovaĠ": 2151,
      "vrstaĠ": 2152,
      "jedna": 2153,
      "stre": 2154,
      "pen": 2155,
      "EN": 2156,
      "Éŀ": 2157,
      "ÄįemuĠ": 2158,
      "snaĠ": 2159,
      "znanjaĠ": 2160,
      "zer": 2161,
      "âĢĿ,Ġ": 2162,
      "kise": 2163,
      "inf": 2164,
      "zanĠ": 2165,
      "got": 2166,
      "knjiÅ¾ev": 2167,
      "oven": 2168,
      "takmi": 2169,
      "rvat": 2170,
      "ograniÄį": 2171,
      "ujuĠ": 2172,
      "alneĠ": 2173,
      "PO": 2174,
      "tioĠ": 2175,
      "saj": 2176,
      "ljeneĠ": 2177,
      "poredĠ": 2178,
      "tiriĠ": 2179,
      "pitanjuĠ": 2180,
      "komunika": 2181,
      "jajuĠ": 2182,
      "Jo": 2183,
      "ljenoĠ": 2184,
      "OvoĠ": 2185,
      "obav": 2186,
      "sniĠ": 2187,
      "priro": 2188,
      "terito": 2189,
      "oÄį": 2190,
      "nedo": 2191,
      "tjĠ": 2192,
      "nijaĠ": 2193,
      "2011Ġ": 2194,
      "prostor": 2195,
      "glu": 2196,
      "NakonĠ": 2197,
      "parti": 2198,
      "nega": 2199,
      "kru": 2200,
      "podrazume": 2201,
      "posmatra": 2202,
      "mestaĠ": 2203,
      "renĠ": 2204,
      "ocen": 2205,
      "Au": 2206,
      "Jugosl": 2207,
      "ovanĠ": 2208,
      "ÄĨ": 2209,
      "toriĠ": 2210,
      "bileĠ": 2211,
      "car": 2212,
      "logijeĠ": 2213,
      "praveĠ": 2214,
      "jenihĠ": 2215,
      "govorĠ": 2216,
      "sigur": 2217,
      "odiĠ": 2218,
      "done": 2219,
      "nekeĠ": 2220,
      "zat": 2221,
      "jskihĠ": 2222,
      "gledaĠ": 2223,
      "glavnomĠ": 2224,
      "tnimĠ": 2225,
      "tivnogĠ": 2226,
      "dok": 2227,
      "Äĳe": 2228,
      "govoriĠ": 2229,
      "ÄįenjaĠ": 2230,
      "NeĠ": 2231,
      "veziĠ": 2232,
      "menu": 2233,
      "ubi": 2234,
      "tacijaĠ": 2235,
      "rancu": 2236,
      "noveĠ": 2237,
      "Å¡keĠ": 2238,
      "pruÅ¾": 2239,
      "strĠ": 2240,
      "Ja": 2241,
      "Kos": 2242,
      "tnuĠ": 2243,
      "kasnijeĠ": 2244,
      "ukolikoĠ": 2245,
      "mentaĠ": 2246,
      "enostĠ": 2247,
      "2012Ġ": 2248,
      "meto": 2249,
      "2010Ġ": 2250,
      "60Ġ": 2251,
      "gin": 2252,
      ");Ġ": 2253,
      "demo": 2254,
      "Mini": 2255,
      "dove": 2256,
      "stojiĠ": 2257,
      "telaĠ": 2258,
      "opa": 2259,
      "nikeĠ": 2260,
      "okol": 2261,
      "izla": 2262,
      ".\"Ġ": 2263,
      "ÄįiÄĩĠ": 2264,
      "somĠ": 2265,
      "tkuĠ": 2266,
      "dogaÄĳ": 2267,
      "jemoĠ": 2268,
      "koristeĠ": 2269,
      "ocaĠ": 2270,
      "reÄįiĠ": 2271,
      "IN": 2272,
      "scen": 2273,
      "manaĠ": 2274,
      "RepublikeĠ": 2275,
      "nede": 2276,
      "uzro": 2277,
      "osigu": 2278,
      "stran": 2279,
      "proÅ¡": 2280,
      "evrop": 2281,
      "oriĠ": 2282,
      "stvariĠ": 2283,
      "jskogĠ": 2284,
      "postojeĠ": 2285,
      "doÅ¡": 2286,
      "potro": 2287,
      "Dra": 2288,
      "kovi": 2289,
      "teljaĠ": 2290,
      "dozvo": 2291,
      "koncep": 2292,
      "maj": 2293,
      "mimaĠ": 2294,
      "nase": 2295,
      "dimaĠ": 2296,
      "Ti": 2297,
      "vesti": 2298,
      "Ëĩ": 2299,
      "OnĠ": 2300,
      "jujeĠ": 2301,
      "moguÄĩnostĠ": 2302,
      "finis": 2303,
      "erĠ": 2304,
      "koliÄį": 2305,
      "Ha": 2306,
      "Éľ": 2307,
      "mani": 2308,
      "misli": 2309,
      "gr": 2310,
      "jednoĠ": 2311,
      "procesĠ": 2312,
      "ÄĳaĠ": 2313,
      "govori": 2314,
      "prezen": 2315,
      "metaraĠ": 2316,
      "Äįan": 2317,
      "odred": 2318,
      "neÄĩeĠ": 2319,
      "Ã©": 2320,
      "mijeĠ": 2321,
      "Ste": 2322,
      "spa": 2323,
      "tivi": 2324,
      "reak": 2325,
      "raniĠ": 2326,
      "kojimĠ": 2327,
      "2013Ġ": 2328,
      "bora": 2329,
      "EUĠ": 2330,
      "isklju": 2331,
      "govĠ": 2332,
      "krajuĠ": 2333,
      "izuze": 2334,
      "barĠ": 2335,
      "problemĠ": 2336,
      "mikro": 2337,
      "vorĠ": 2338,
      "uslovimaĠ": 2339,
      "ÄĳenjeĠ": 2340,
      "Go": 2341,
      "ale": 2342,
      "proizvodaĠ": 2343,
      "mbraĠ": 2344,
      "nasta": 2345,
      "Ho": 2346,
      "2014Ġ": 2347,
      "ponen": 2348,
      "znaÄįiĠ": 2349,
      "matiÄį": 2350,
      "É¨Ġ": 2351,
      "cioni": 2352,
      "SaĠ": 2353,
      "odnosaĠ": 2354,
      "nitiĠ": 2355,
      "povezan": 2356,
      "zatimĠ": 2357,
      "Uni": 2358,
      "tlji": 2359,
      "titiĠ": 2360,
      "genera": 2361,
      "modelĠ": 2362,
      "jteĠ": 2363,
      "ÄįetiriĠ": 2364,
      "jedneĠ": 2365,
      "OvajĠ": 2366,
      "vamĠ": 2367,
      "vrloĠ": 2368,
      "njimaĠ": 2369,
      "ber": 2370,
      "31Ġ": 2371,
      "ht": 2372,
      "IakoĠ": 2373,
      "odnosiĠ": 2374,
      "pojedina": 2375,
      "borĠ": 2376,
      "zemlji": 2377,
      "meÄĳu": 2378,
      "otvor": 2379,
      "tadaĠ": 2380,
      "ovanaĠ": 2381,
      "veÄĩaĠ": 2382,
      "muÅ¡": 2383,
      "qu": 2384,
      "ÄĳujeĠ": 2385,
      "priti": 2386,
      "logijaĠ": 2387,
      "mereĠ": 2388,
      "klasi": 2389,
      "putemĠ": 2390,
      "varija": 2391,
      "TakoĠ": 2392,
      "hu": 2393,
      "Ìģ": 2394,
      "lak": 2395,
      "tetuĠ": 2396,
      "minu": 2397,
      "tnostiĠ": 2398,
      "ÄĳenjaĠ": 2399,
      "bio": 2400,
      "statu": 2401,
      "2009Ġ": 2402,
      "Å¾ivotĠ": 2403,
      "ispitanikaĠ": 2404,
      "ponu": 2405,
      "vaz": 2406,
      "pobe": 2407,
      "princi": 2408,
      "darĠ": 2409,
      "boraĠ": 2410,
      "brĠ": 2411,
      "tere": 2412,
      "ranjuĠ": 2413,
      "trgov": 2414,
      "pote": 2415,
      "plani": 2416,
      "PoredĠ": 2417,
      "mpi": 2418,
      "shva": 2419,
      "hro": 2420,
      "pokre": 2421,
      "obo": 2422,
      "definis": 2423,
      "efek": 2424,
      "daÅ¡": 2425,
      "svr": 2426,
      "unutra": 2427,
      "ispu": 2428,
      "imaoĠ": 2429,
      "iakoĠ": 2430,
      "rakaĠ": 2431,
      "troÅ¡ko": 2432,
      "tnomĠ": 2433,
      "Co": 2434,
      "obziromĠ": 2435,
      "pode": 2436,
      "poloÅ¾": 2437,
      "deceĠ": 2438,
      "bolestiĠ": 2439,
      "ÄĳenaĠ": 2440,
      "2008Ġ": 2441,
      "rakĠ": 2442,
      "eksperi": 2443,
      "smr": 2444,
      "sov": 2445,
      "preduzeÄĩaĠ": 2446,
      "sledĠ": 2447,
      "emi": 2448,
      "svomĠ": 2449,
      "mje": 2450,
      "investi": 2451,
      "nivoĠ": 2452,
      "RO": 2453,
      "ovaniĠ": 2454,
      "skri": 2455,
      "poja": 2456,
      "ciona": 2457,
      "analizeĠ": 2458,
      "uglavnomĠ": 2459,
      "komponen": 2460,
      "veÄĩeĠ": 2461,
      "sprov": 2462,
      "SK": 2463,
      "konstruk": 2464,
      "35Ġ": 2465,
      "ska": 2466,
      "vlj": 2467,
      "problemaĠ": 2468,
      "esĠ": 2469,
      "turaĠ": 2470,
      "raneĠ": 2471,
      "valaĠ": 2472,
      "veliÄį": 2473,
      "ÄĳenĠ": 2474,
      "00": 2475,
      "teraĠ": 2476,
      "Aleksan": 2477,
      "kcijeĠ": 2478,
      "bolj": 2479,
      "vide": 2480,
      "datiĠ": 2481,
      "supro": 2482,
      "reÄįĠ": 2483,
      "vojĠ": 2484,
      "lizacijeĠ": 2485,
      "nosiĠ": 2486,
      "Niko": 2487,
      "Jugoslavi": 2488,
      "OvaĠ": 2489,
      "ÄįimaĠ": 2490,
      "dolaziĠ": 2491,
      "pola": 2492,
      "sonĠ": 2493,
      "Å¾b": 2494,
      "dimen": 2495,
      "vlastiĠ": 2496,
      "ÄįiniĠ": 2497,
      "glaÅ¡": 2498,
      "uspeÅ¡": 2499,
      "eks": 2500,
      "predviÄĳ": 2501,
      "ostav": 2502,
      "kontek": 2503,
      "pretpostav": 2504,
      "ameri": 2505,
      "2015Ġ": 2506,
      "Voj": 2507,
      "foto": 2508,
      "oksi": 2509,
      "ÄįkomĠ": 2510,
      "anoĠ": 2511,
      "vid": 2512,
      "stiÄįkeĠ": 2513,
      "ÄįenjeĠ": 2514,
      "Å¡kol": 2515,
      "navodiĠ": 2516,
      "siv": 2517,
      "postu": 2518,
      "zajedniÄį": 2519,
      "strate": 2520,
      "viduĠ": 2521,
      "dis": 2522,
      "oprivred": 2523,
      "svetaĠ": 2524,
      "mestuĠ": 2525,
      "razlikaĠ": 2526,
      "sur": 2527,
      "ÄįegaĠ": 2528,
      "atĠ": 2529,
      "ista": 2530,
      "chĠ": 2531,
      "zaÅ¡titeĠ": 2532,
      "ÄĩenĠ": 2533,
      "lineĠ": 2534,
      "organizacijeĠ": 2535,
      "sop": 2536,
      "ÄįijiĠ": 2537,
      "njegaĠ": 2538,
      "pripre": 2539,
      "njemĠ": 2540,
      "stvar": 2541,
      "ÄįnimĠ": 2542,
      "jenjeĠ": 2543,
      "inten": 2544,
      "ino": 2545,
      "huĠ": 2546,
      "Lu": 2547,
      "âĢ¦Ġ": 2548,
      "voraĠ": 2549,
      "komplek": 2550,
      "materijalaĠ": 2551,
      "ali": 2552,
      "svakiĠ": 2553,
      "alnoĠ": 2554,
      "Å¾eneĠ": 2555,
      "odnosĠ": 2556,
      "ÄįitoĠ": 2557,
      "predstavljajuĠ": 2558,
      "ariĠ": 2559,
      "zatoĠ": 2560,
      "sig": 2561,
      "okruÅ¾": 2562,
      "jekataĠ": 2563,
      "ÄĬ": 2564,
      "radeĠ": 2565,
      "dovoljnoĠ": 2566,
      "rezultataĠ": 2567,
      "nosi": 2568,
      "tiveĠ": 2569,
      "nekoĠ": 2570,
      "prikazan": 2571,
      "odgovaraju": 2572,
      "opÅ¡teĠ": 2573,
      "Ri": 2574,
      "razliÄįiteĠ": 2575,
      "sim": 2576,
      "teriju": 2577,
      "konku": 2578,
      "svetuĠ": 2579,
      "tokuĠ": 2580,
      "Ã¡": 2581,
      "uspostav": 2582,
      "noviĠ": 2583,
      "sten": 2584,
      "195": 2585,
      "potpunoĠ": 2586,
      "ÄįineĠ": 2587,
      "jednostav": 2588,
      "ostvari": 2589,
      "gijaĠ": 2590,
      "lav": 2591,
      "fakul": 2592,
      "vazdu": 2593,
      "druÅ¡tvaĠ": 2594,
      "ret": 2595,
      "glob": 2596,
      "ÄįuĠ": 2597,
      "Ameri": 2598,
      "zavrÅ¡": 2599,
      "Rezulta": 2600,
      "upravoĠ": 2601,
      "imatiĠ": 2602,
      "Å¾daĠ": 2603,
      "ovak": 2604,
      "moguÄĩnostiĠ": 2605,
      "2007Ġ": 2606,
      "80Ġ": 2607,
      "oÄįeki": 2608,
      "izjav": 2609,
      "potrebeĠ": 2610,
      "jasnoĠ": 2611,
      "nicimaĠ": 2612,
      "prĠ": 2613,
      "odnoseĠ": 2614,
      "saobra": 2615,
      "kupa": 2616,
      "rezultatiĠ": 2617,
      "tob": 2618,
      "Pi": 2619,
      "sebeĠ": 2620,
      "istorij": 2621,
      "snihĠ": 2622,
      "Ob": 2623,
      "poz": 2624,
      "Ki": 2625,
      "manjaĠ": 2626,
      "linaĠ": 2627,
      "pravi": 2628,
      "mir": 2629,
      "ÄĩimĠ": 2630,
      "inskiĠ": 2631,
      "studen": 2632,
      "ciljĠ": 2633,
      "poÅ¡t": 2634,
      "05Ġ": 2635,
      "poputĠ": 2636,
      "</Ġ": 2637,
      "at": 2638,
      "zahtevaĠ": 2639,
      "AliĠ": 2640,
      "pes": 2641,
      "buduĠ": 2642,
      "renu": 2643,
      "Ã¨": 2644,
      "detal": 2645,
      "analizi": 2646,
      "zamĠ": 2647,
      "Äĩi": 2648,
      "minĠ": 2649,
      "avanjuĠ": 2650,
      "komb": 2651,
      "ðĿ": 2652,
      "svogĠ": 2653,
      "ovaoĠ": 2654,
      "moder": 2655,
      "ratiĠ": 2656,
      "Nema": 2657,
      "tipaĠ": 2658,
      "ustan": 2659,
      "gledĠ": 2660,
      "kogaĠ": 2661,
      "diser": 2662,
      "matra": 2663,
      "Kri": 2664,
      "ÄįlanaĠ": 2665,
      "akĠ": 2666,
      "zakĠ": 2667,
      "nezavis": 2668,
      "bru": 2669,
      "stanjaĠ": 2670,
      "zavr": 2671,
      "kujuĠ": 2672,
      "DN": 2673,
      "odra": 2674,
      "novihĠ": 2675,
      "2006Ġ": 2676,
      "zmaĠ": 2677,
      "Å¡kaĠ": 2678,
      "staro": 2679,
      "lacĠ": 2680,
      "part": 2681,
      "ÄįnomĠ": 2682,
      "terapi": 2683,
      "anakĠ": 2684,
      "razlikeĠ": 2685,
      "tojĠ": 2686,
      "noÅ¡ÄĩuĠ": 2687,
      "zomĠ": 2688,
      "zlo": 2689,
      "odbra": 2690,
      "sakĠ": 2691,
      ".âĢŀĠ": 2692,
      "uloguĠ": 2693,
      "stanovniÅ¡t": 2694,
      "kultureĠ": 2695,
      ".)Ġ": 2696,
      "rijan": 2697,
      "Å¾noĠ": 2698,
      "nared": 2699,
      "âĢ¢Ġ": 2700,
      "Å¡emĠ": 2701,
      "nikuĠ": 2702,
      "DÅ¾": 2703,
      "savremen": 2704,
      "cilje": 2705,
      "boljeĠ": 2706,
      "Äįita": 2707,
      "najÄįeÅ¡ÄĩeĠ": 2708,
      "daoĠ": 2709,
      "70Ġ": 2710,
      "gomĠ": 2711,
      "ul": 2712,
      "2016Ġ": 2713,
      "arti": 2714,
      "zdravstven": 2715,
      "nalazeĠ": 2716,
      "ÄĳenoĠ": 2717,
      "jnoĠ": 2718,
      "zacijeĠ": 2719,
      "zakonaĠ": 2720,
      "gno": 2721,
      "raoĠ": 2722,
      "njihoveĠ": 2723,
      "32Ġ": 2724,
      "ruko": 2725,
      "kcijaĠ": 2726,
      "pravo": 2727,
      "osobaĠ": 2728,
      "Å¡ir": 2729,
      "tiva": 2730,
      "vanjemĠ": 2731,
      "jednuĠ": 2732,
      "33Ġ": 2733,
      "analizaĠ": 2734,
      "sopstven": 2735,
      "promenaĠ": 2736,
      "É¢Êģ": 2737,
      "gubi": 2738,
      "sum": 2739,
      "SADĠ": 2740,
      "prela": 2741,
      "staliĠ": 2742,
      "snostĠ": 2743,
      "oreĠ": 2744,
      "blj": 2745,
      "Ministar": 2746,
      "UkolikoĠ": 2747,
      "alniĠ": 2748,
      "imaliĠ": 2749,
      "statistiÄįkiĠ": 2750,
      "kojemĠ": 2751,
      "ÄįkoĠ": 2752,
      "gotovoĠ": 2753,
      "RI": 2754,
      "anihĠ": 2755,
      "Veli": 2756,
      "tekĠ": 2757,
      "struktureĠ": 2758,
      "Å¡egĠ": 2759,
      "koristi": 2760,
      "umĠ": 2761,
      "upu": 2762,
      "vidiĠ": 2763,
      "ÄįkuĠ": 2764,
      "jenoĠ": 2765,
      "maksi": 2766,
      "izgrad": 2767,
      "ÄįkimĠ": 2768,
      "razliÄįitimĠ": 2769,
      "ovremen": 2770,
      "ovdeĠ": 2771,
      "objaÅ¡nj": 2772,
      "ÄįioĠ": 2773,
      "Fe": 2774,
      "vis": 2775,
      "nedosta": 2776,
      "vori": 2777,
      "imen": 2778,
      "tero": 2779,
      "zajednoĠ": 2780,
      "pomoÄĩĠ": 2781,
      "ÄĩenjaĠ": 2782,
      "cÌģ": 2783,
      "katego": 2784,
      "poljoprivred": 2785,
      "alnogĠ": 2786,
      "pristupĠ": 2787,
      "naveden": 2788,
      "90Ġ": 2789,
      "sleĠ": 2790,
      "epi": 2791,
      "tkomĠ": 2792,
      "osĠ": 2793,
      "liÄĩĠ": 2794,
      "Äįit": 2795,
      "KO": 2796,
      "kaz": 2797,
      "graf": 2798,
      "volu": 2799,
      "podrazumevaĠ": 2800,
      "njegoveĠ": 2801,
      "nadleÅ¾": 2802,
      "Raz": 2803,
      "tehniÄį": 2804,
      "mirĠ": 2805,
      "ÄĳuĠ": 2806,
      "SveĠ": 2807,
      "stanjeĠ": 2808,
      "zemal": 2809,
      "pripad": 2810,
      "gan": 2811,
      "slikaĠ": 2812,
      "stabil": 2813,
      "45Ġ": 2814,
      "36Ġ": 2815,
      "ÄįkojĠ": 2816,
      "druÅ¾": 2817,
      "Zako": 2818,
      "izveÅ¡ta": 2819,
      "kriteriju": 2820,
      "//Ġ": 2821,
      "prila": 2822,
      "rijuĠ": 2823,
      "zimaĠ": 2824,
      "izraÅ¾": 2825,
      "Evro": 2826,
      "Jed": 2827,
      "ciljuĠ": 2828,
      "istiÄį": 2829,
      "kvalitetaĠ": 2830,
      "Mak": 2831,
      "poj": 2832,
      "posve": 2833,
      "arhitek": 2834,
      "samaĠ": 2835,
      "menĠ": 2836,
      "snostiĠ": 2837,
      "reÄĩiĠ": 2838,
      "tonĠ": 2839,
      "2005Ġ": 2840,
      "ÄĮe": 2841,
      "En": 2842,
      "ÉŃÉ": 2843,
      "pogleduĠ": 2844,
      "pokaza": 2845,
      "usledĠ": 2846,
      "priva": 2847,
      "tivaĠ": 2848,
      "Å¾enĠ": 2849,
      "ÄįijeĠ": 2850,
      "zastup": 2851,
      "prven": 2852,
      "pobolj": 2853,
      "faktoraĠ": 2854,
      "mogaoĠ": 2855,
      "\".Ġ": 2856,
      "onihĠ": 2857,
      "gri": 2858,
      "prostoraĠ": 2859,
      "uÄįenikaĠ": 2860,
      "moÅ¾emoĠ": 2861,
      "Da": 2862,
      "indust": 2863,
      "damĠ": 2864,
      "najviÅ¡eĠ": 2865,
      "milionaĠ": 2866,
      "34Ġ": 2867,
      "ovaneĠ": 2868,
      "istaĠ": 2869,
      "bol": 2870,
      "Milo": 2871,
      "isko": 2872,
      "opti": 2873,
      "nivoaĠ": 2874,
      "cioneĠ": 2875,
      "rezultatĠ": 2876,
      "ovo": 2877,
      "Êĥ": 2878,
      "Bal": 2879,
      "izbe": 2880,
      "enojĠ": 2881,
      ".âĢľĠ": 2882,
      "tskeĠ": 2883,
      "jneĠ": 2884,
      "Fa": 2885,
      "grupiĠ": 2886,
      "37Ġ": 2887,
      "praviĠ": 2888,
      "01Ġ": 2889,
      "kolo": 2890,
      "tyĠ": 2891,
      "raÄįuna": 2892,
      "razlogaĠ": 2893,
      "uticajaĠ": 2894,
      "ficijen": 2895,
      "vali": 2896,
      "acĠ": 2897,
      "É©Éª": 2898,
      "njegovĠ": 2899,
      "skoroĠ": 2900,
      "istoĠ": 2901,
      "prepozna": 2902,
      "AT": 2903,
      "Sto": 2904,
      "ft": 2905,
      "pacijenataĠ": 2906,
      "tret": 2907,
      "efe": 2908,
      "mil": 2909,
      "ski": 2910,
      "sastav": 2911,
      "Å¡tineĠ": 2912,
      "vin": 2913,
      "ano": 2914,
      "................": 2915,
      "odre": 2916,
      "ovatiĠ": 2917,
      "aveĠ": 2918,
      "obele": 2919,
      "aspek": 2920,
      "nijihĠ": 2921,
      "oznaÄį": 2922,
      "derĠ": 2923,
      "podaciĠ": 2924,
      "agen": 2925,
      "ljenihĠ": 2926,
      "programaĠ": 2927,
      "vasĠ": 2928,
      "gar": 2929,
      "ZbogĠ": 2930,
      "litera": 2931,
      "vje": 2932,
      "godinuĠ": 2933,
      "39Ġ": 2934,
      "plaÄĩ": 2935,
      "osimĠ": 2936,
      "2017Ġ": 2937,
      "razlikuĠ": 2938,
      "2000Ġ": 2939,
      "stalaĠ": 2940,
      "stani": 2941,
      "poÄįin": 2942,
      "nprĠ": 2943,
      "sebiĠ": 2944,
      "mijaĠ": 2945,
      "É¨Éľ": 2946,
      "napa": 2947,
      "materijal": 2948,
      "sadrÅ¾ajaĠ": 2949,
      "dÅ¾e": 2950,
      "aoĠ": 2951,
      "naÅ¡eĠ": 2952,
      "informacijaĠ": 2953,
      "He": 2954,
      "Ana": 2955,
      "stvomĠ": 2956,
      "sep": 2957,
      "pita": 2958,
      "paci": 2959,
      "psiho": 2960,
      "kade": 2961,
      "naved": 2962,
      "postoje": 2963,
      "Save": 2964,
      "pravil": 2965,
      "unutraÅ¡": 2966,
      "sredineĠ": 2967,
      "Bri": 2968,
      "ovremenoĠ": 2969,
      "zaj": 2970,
      "38Ġ": 2971,
      "oviÄĩaĠ": 2972,
      "metodaĠ": 2973,
      "jekatĠ": 2974,
      "ipakĠ": 2975,
      "KodĠ": 2976,
      "ÄįlanĠ": 2977,
      "RSĠ": 2978,
      "maÅ¡": 2979,
      "mul": 2980,
      "graduĠ": 2981,
      "jezikĠ": 2982,
      "jskaĠ": 2983,
      "ukazujeĠ": 2984,
      "ljivoĠ": 2985,
      "ravno": 2986,
      "stomĠ": 2987,
      "zavisnostiĠ": 2988,
      "unapre": 2989,
      "uslugaĠ": 2990,
      "informacijeĠ": 2991,
      "energijeĠ": 2992,
      "pisĠ": 2993,
      "naroÄįitoĠ": 2994,
      "skup": 2995,
      "Sva": 2996,
      "Bro": 2997,
      "ovla": 2998,
      "vidi": 2999,
      "izaz": 3000,
      "posledicaĠ": 3001,
      "druga": 3002,
      "IzĠ": 3003,
      "Or": 3004,
      "pravilaĠ": 3005,
      "morajuĠ": 3006,
      "polu": 3007,
      "ÄĩelijaĠ": 3008,
      "lacijaĠ": 3009,
      "mob": 3010,
      "sp": 3011,
      "feno": 3012,
      "tiÄįuĠ": 3013,
      "vodĠ": 3014,
      "zapad": 3015,
      "vezan": 3016,
      "hidro": 3017,
      "ponovoĠ": 3018,
      "Inter": 3019,
      "2018Ġ": 3020,
      "oÅ¡te": 3021,
      "volj": 3022,
      "ner": 3023,
      "inskeĠ": 3024,
      "sadrÅ¾iĠ": 3025,
      "nasil": 3026,
      "cioniĠ": 3027,
      "periodĠ": 3028,
      "tivanĠ": 3029,
      "godiniĠ": 3030,
      "rastaĠ": 3031,
      "imalaĠ": 3032,
      "eko": 3033,
      "kle": 3034,
      "LI": 3035,
      "imov": 3036,
      "ïĤ": 3037,
      "izbor": 3038,
      "gradĠ": 3039,
      "naÄįe": 3040,
      "reÅ¡enjaĠ": 3041,
      "Lju": 3042,
      "pomenu": 3043,
      "TheĠ": 3044,
      "saobraÄĩa": 3045,
      "Å¾u": 3046,
      "ksĠ": 3047,
      "prijav": 3048,
      "normal": 3049,
      "htt": 3050,
      "Å¾ioĠ": 3051,
      "2004Ġ": 3052,
      "pisan": 3053,
      "ari": 3054,
      "IIIĠ": 3055,
      "Op": 3056,
      "janjuĠ": 3057,
      "sudaĠ": 3058,
      "liÄįnoĠ": 3059,
      "penĠ": 3060,
      "Poli": 3061,
      "obrazov": 3062,
      "Ze": 3063,
      "snogĠ": 3064,
      "dri": 3065,
      "://Ġ": 3066,
      "svojihĠ": 3067,
      "Hrvat": 3068,
      "odr": 3069,
      "Å¡kuĠ": 3070,
      "tuÅ¾": 3071,
      "oblikaĠ": 3072,
      "25": 3073,
      "zemaljaĠ": 3074,
      "subjek": 3075,
      "primeneĠ": 3076,
      "âĢĺĠ": 3077,
      "zanaĠ": 3078,
      "ade": 3079,
      "novaĠ": 3080,
      "sprove": 3081,
      "Fi": 3082,
      "komi": 3083,
      "beliĠ": 3084,
      "deli": 3085,
      "brzoĠ": 3086,
      "eli": 3087,
      "Lo": 3088,
      "tskiĠ": 3089,
      "itdĠ": 3090,
      "predsednikĠ": 3091,
      "ekstra": 3092,
      "dej": 3093,
      "dela": 3094,
      "ono": 3095,
      "unutarĠ": 3096,
      "mnog": 3097,
      "jevimaĠ": 3098,
      "Her": 3099,
      "har": 3100,
      "ljivo": 3101,
      "tuma": 3102,
      "enikaĠ": 3103,
      "janaĠ": 3104,
      "desetĠ": 3105,
      "Ã±": 3106,
      "naÄįinaĠ": 3107,
      "turiĠ": 3108,
      "istiĠ": 3109,
      "silaĠ": 3110,
      "oktob": 3111,
      "nasle": 3112,
      "lneĠ": 3113,
      "potencijal": 3114,
      "âĢĿ.Ġ": 3115,
      "njenĠ": 3116,
      "politikeĠ": 3117,
      "nicuĠ": 3118,
      "ep": 3119,
      "Tre": 3120,
      "ozo": 3121,
      "profesi": 3122,
      "njojĠ": 3123,
      "interak": 3124,
      "vidu": 3125,
      "drugomĠ": 3126,
      "uÄįestv": 3127,
      "jezikuĠ": 3128,
      "leksi": 3129,
      "ranijeĠ": 3130,
      "âĪ": 3131,
      "kontin": 3132,
      "porek": 3133,
      "uzo": 3134,
      "ÉŁÉ§": 3135,
      "«É¬": 3136,
      "ÄįujeĠ": 3137,
      "NO": 3138,
      "inar": 3139,
      "Isto": 3140,
      "tsĠ": 3141,
      "RezultatiĠ": 3142,
      "ljenjaĠ": 3143,
      "PoĠ": 3144,
      "denĠ": 3145,
      "istraÅ¾iva": 3146,
      "menuĠ": 3147,
      "novi": 3148,
      "zvani": 3149,
      "tki": 3150,
      "postig": 3151,
      "Å¾ivotin": 3152,
      "drugogĠ": 3153,
      "gne": 3154,
      "jumĠ": 3155,
      "tala": 3156,
      "svojojĠ": 3157,
      "pokazujeĠ": 3158,
      "sliĠ": 3159,
      "namaĠ": 3160,
      "elektri": 3161,
      "ramaĠ": 3162,
      "varijan": 3163,
      "ljamaĠ": 3164,
      "gradeĠ": 3165,
      "funkcijeĠ": 3166,
      "aktivnostĠ": 3167,
      "osiĠ": 3168,
      "ustav": 3169,
      "velikeĠ": 3170,
      "ÄįnuĠ": 3171,
      "metod": 3172,
      "ÃŃ": 3173,
      "Ã¥": 3174,
      "starĠ": 3175,
      "proto": 3176,
      "alnihĠ": 3177,
      "tnostĠ": 3178,
      "lika": 3179,
      "poreÄĳ": 3180,
      "len": 3181,
      "viÅ¡": 3182,
      "zabra": 3183,
      "NI": 3184,
      "Fo": 3185,
      "zabe": 3186,
      "zbi": 3187,
      "2020Ġ": 3188,
      "É¥": 3189,
      "uoÄį": 3190,
      "eficijen": 3191,
      "valiĠ": 3192,
      "organizacijaĠ": 3193,
      "cionihĠ": 3194,
      "zasnov": 3195,
      "resur": 3196,
      "mskeĠ": 3197,
      "drugaĠ": 3198,
      "menad": 3199,
      "oruÅ¾": 3200,
      "preno": 3201,
      "TE": 3202,
      "baviĠ": 3203,
      "dostup": 3204,
      "biÄĩeĠ": 3205,
      "blo": 3206,
      "ine": 3207,
      "2003Ġ": 3208,
      "sklo": 3209,
      "stic": 3210,
      "timeĠ": 3211,
      "akleĠ": 3212,
      "Å¾ive": 3213,
      "24": 3214,
      "izloÅ¾": 3215,
      "IpakĠ": 3216,
      "korela": 3217,
      "Å½i": 3218,
      "faĠ": 3219,
      "rizikaĠ": 3220,
      "jakaĠ": 3221,
      "poglav": 3222,
      "mskiĠ": 3223,
      "2002Ġ": 3224,
      "alo": 3225,
      "NAĠ": 3226,
      "boga": 3227,
      "tolikoĠ": 3228,
      "kola": 3229,
      "metodeĠ": 3230,
      "fir": 3231,
      "ssĠ": 3232,
      "Å¡avaĠ": 3233,
      "deteĠ": 3234,
      "Pra": 3235,
      "eg": 3236,
      "teljĠ": 3237,
      "autoraĠ": 3238,
      "tikaĠ": 3239,
      "periodaĠ": 3240,
      "sadrÅ¾ajĠ": 3241,
      "ranihĠ": 3242,
      "preci": 3243,
      "Mu": 3244,
      "niÅ¡taĠ": 3245,
      "tivnimĠ": 3246,
      "glago": 3247,
      "adekva": 3248,
      "emo": 3249,
      "hovĠ": 3250,
      "Univerzi": 3251,
      "kapaci": 3252,
      "obaĠ": 3253,
      "ganjaĠ": 3254,
      "truĠ": 3255,
      "teljiĠ": 3256,
      "Bos": 3257,
      "NaimeĠ": 3258,
      "Äįetvr": 3259,
      "kleĠ": 3260,
      "prostorĠ": 3261,
      "mole": 3262,
      "distri": 3263,
      "obiÄįa": 3264,
      "ljenjeĠ": 3265,
      "lostiĠ": 3266,
      "ote": 3267,
      "sport": 3268,
      "traÅ¾": 3269,
      "bak": 3270,
      "redaĠ": 3271,
      "Å¡koleĠ": 3272,
      "preporu": 3273,
      "zakon": 3274,
      "dinaraĠ": 3275,
      "standard": 3276,
      "dijaĠ": 3277,
      "stanakĠ": 3278,
      "Sl": 3279,
      "socija": 3280,
      "iskljuÄįi": 3281,
      "name": 3282,
      "dataĠ": 3283,
      "individu": 3284,
      "moÅ¾daĠ": 3285,
      "hov": 3286,
      "ÉªÉļÉ": 3287,
      "produk": 3288,
      "njegovaĠ": 3289,
      "mahĠ": 3290,
      "reli": 3291,
      "moÅ¾eteĠ": 3292,
      "ðĿĳ": 3293,
      "oblikĠ": 3294,
      "ravnoĠ": 3295,
      "ranoĠ": 3296,
      "njimĠ": 3297,
      "razvojuĠ": 3298,
      "tinaĠ": 3299,
      "loÅ¡kiĠ": 3300,
      "neposred": 3301,
      "ron": 3302,
      "proizvodnjeĠ": 3303,
      "Gr": 3304,
      "sanjaĠ": 3305,
      "dÅ¾": 3306,
      "zaÅ¡tituĠ": 3307,
      "):Ġ": 3308,
      "pokazujuĠ": 3309,
      "2019Ġ": 3310,
      "sanjeĠ": 3311,
      "Bra": 3312,
      "ÄįnostiĠ": 3313,
      "Ge": 3314,
      "funkcional": 3315,
      "ÄįijaĠ": 3316,
      "povra": 3317,
      "ganĠ": 3318,
      "Ukraj": 3319,
      "sredstavaĠ": 3320,
      "vizi": 3321,
      "menataĠ": 3322,
      "viru": 3323,
      "konkuren": 3324,
      "ljemĠ": 3325,
      "der": 3326,
      "nak": 3327,
      "hraneĠ": 3328,
      "interes": 3329,
      "merĠ": 3330,
      "lijaĠ": 3331,
      "teÅ¡koĠ": 3332,
      "Å¡tinaĠ": 3333,
      "Ga": 3334,
      "preva": 3335,
      "njihovogĠ": 3336,
      "dopu": 3337,
      "vodi": 3338,
      "evraĠ": 3339,
      "vrÅ¡iĠ": 3340,
      "ivanjeĠ": 3341,
      "zdra": 3342,
      "mogliĠ": 3343,
      "odla": 3344,
      "É¦": 3345,
      "meniĠ": 3346,
      "zavisiĠ": 3347,
      "studijeĠ": 3348,
      "Narod": 3349,
      "viÅ¡e": 3350,
      "Å¡iro": 3351,
      "krajaĠ": 3352,
      "Osnov": 3353,
      "distribu": 3354,
      "integra": 3355,
      "Cen": 3356,
      "75Ġ": 3357,
      "direktnoĠ": 3358,
      "krenu": 3359,
      "..Ġ": 3360,
      "krea": 3361,
      "JEĠ": 3362,
      "kontak": 3363,
      "uro": 3364,
      "deloĠ": 3365,
      "ukljuÄįujuÄĩiĠ": 3366,
      "stvor": 3367,
      "riÅ¡Äĩ": 3368,
      "sluÄįajĠ": 3369,
      "Tur": 3370,
      "vil": 3371,
      "nekimĠ": 3372,
      "zamaĠ": 3373,
      "NoviĠ": 3374,
      "suko": 3375,
      "snageĠ": 3376,
      "fan": 3377,
      "nekaĠ": 3378,
      "Francu": 3379,
      "AR": 3380,
      "potomĠ": 3381,
      "njegovogĠ": 3382,
      "verovatnoĠ": 3383,
      "2001Ġ": 3384,
      "alnaĠ": 3385,
      "instru": 3386,
      "sujeĠ": 3387,
      "let": 3388,
      "sredstvaĠ": 3389,
      "Stan": 3390,
      "godĠ": 3391,
      "tiÄįkiĠ": 3392,
      "zor": 3393,
      "sloÅ¾": 3394,
      "minan": 3395,
      "sadr": 3396,
      "vezeĠ": 3397,
      "marke": 3398,
      "podi": 3399,
      "elektron": 3400,
      "sluÅ¾b": 3401,
      "tilaĠ": 3402,
      "izabra": 3403,
      "slĠ": 3404,
      "Vr": 3405,
      "pomĠ": 3406,
      "God": 3407,
      "narodaĠ": 3408,
      "sniciĠ": 3409,
      "utiÄįeĠ": 3410,
      "Å¾ele": 3411,
      "pisaoĠ": 3412,
      "ovanihĠ": 3413,
      "prvomĠ": 3414,
      "obrazovanjaĠ": 3415,
      "znaÄįajĠ": 3416,
      "St": 3417,
      "moÄĩiĠ": 3418,
      "TokomĠ": 3419,
      "vremenuĠ": 3420,
      "ww": 3421,
      "jskimĠ": 3422,
      "koeficijen": 3423,
      "âĢ¦": 3424,
      "reprezen": 3425,
      "funkcioni": 3426,
      "njemuĠ": 3427,
      "formu": 3428,
      "Å¾rt": 3429,
      "________": 3430,
      "48Ġ": 3431,
      "obiÄįnoĠ": 3432,
      "her": 3433,
      "Tu": 3434,
      "vacĠ": 3435,
      "âĢĻ": 3436,
      "con": 3437,
      "rujeĠ": 3438,
      "maleĠ": 3439,
      "ui": 3440,
      "%)Ġ": 3441,
      "rastĠ": 3442,
      "domaÄĩ": 3443,
      "jujuĠ": 3444,
      "Kar": 3445,
      "anga": 3446,
      "iznosiĠ": 3447,
      "netĠ": 3448,
      "%,Ġ": 3449,
      "elemenataĠ": 3450,
      "ÄĩenjeĠ": 3451,
      "karakteristikeĠ": 3452,
      "dugo": 3453,
      "svakogĠ": 3454,
      "tradicional": 3455,
      "tujeĠ": 3456,
      "forman": 3457,
      "wwwĠ": 3458,
      "poboljÅ¡": 3459,
      "znaÄįajaĠ": 3460,
      "fikacijeĠ": 3461,
      "funkcijaĠ": 3462,
      "65Ġ": 3463,
      "snikĠ": 3464,
      "mono": 3465,
      "Ã®": 3466,
      "maksimal": 3467,
      "doÅ¡loĠ": 3468,
      "odlukaĠ": 3469,
      "inde": 3470,
      "cionogĠ": 3471,
      "jumaĠ": 3472,
      "usob": 3473,
      "srpskeĠ": 3474,
      "izbeg": 3475,
      "Prav": 3476,
      "vÅ¡iĠ": 3477,
      "09Ġ": 3478,
      "napu": 3479,
      "zoneĠ": 3480,
      "Pod": 3481,
      "É¡": 3482,
      "zaposlenihĠ": 3483,
      "brojuĠ": 3484,
      "ved": 3485,
      "srpskogĠ": 3486,
      "apri": 3487,
      "zemljamaĠ": 3488,
      "stanjuĠ": 3489,
      "pomoÄĩuĠ": 3490,
      "procesuĠ": 3491,
      "simbo": 3492,
      "porodiceĠ": 3493,
      "ponaÅ¡anjaĠ": 3494,
      "NijeĠ": 3495,
      "odreÄĳeneĠ": 3496,
      "majuĠ": 3497,
      "hil": 3498,
      "cel": 3499,
      "ugovoraĠ": 3500,
      "JaĠ": 3501,
      "jaoĠ": 3502,
      "kredi": 3503,
      "ostalihĠ": 3504,
      "signa": 3505,
      "seg": 3506,
      "fici": 3507,
      "posaoĠ": 3508,
      "ton": 3509,
      "tikeĠ": 3510,
      "BeogradaĠ": 3511,
      "Pu": 3512,
      "DE": 3513,
      "ceni": 3514,
      "teme": 3515,
      "Äİ": 3516,
      "ÄĳeniĠ": 3517,
      "redov": 3518,
      "koro": 3519,
      "izvoÄĳ": 3520,
      "iska": 3521,
      "eriĠ": 3522,
      "Nje": 3523,
      "testi": 3524,
      "podatkeĠ": 3525,
      "studijaĠ": 3526,
      "formiĠ": 3527,
      "spolj": 3528,
      "42Ġ": 3529,
      "trenutkuĠ": 3530,
      "poma": 3531,
      "kl": 3532,
      "izvr": 3533,
      "Å¡al": 3534,
      "pov": 3535,
      "sudĠ": 3536,
      "energe": 3537,
      "najveÄĩiĠ": 3538,
      "prona": 3539,
      "sistemuĠ": 3540,
      "ljujeĠ": 3541,
      "sfer": 3542,
      "dovodiĠ": 3543,
      "kompanijeĠ": 3544,
      "prizna": 3545,
      "njomĠ": 3546,
      "ljev": 3547,
      "mana": 3548,
      "mon": 3549,
      "tskogĠ": 3550,
      "srpskiĠ": 3551,
      "prvoĠ": 3552,
      "elĠ": 3553,
      "LA": 3554,
      "TOĠ": 3555,
      "izme": 3556,
      "stanovniÅ¡tvaĠ": 3557,
      "jar": 3558,
      "SP": 3559,
      "zemljiĠ": 3560,
      "Å£i": 3561,
      "strukturaĠ": 3562,
      "obeleÅ¾": 3563,
      "ÄĩeteĠ": 3564,
      "svaĠ": 3565,
      "onuĠ": 3566,
      "akade": 3567,
      "fon": 3568,
      "dje": 3569,
      "ralaĠ": 3570,
      "engle": 3571,
      "prvogĠ": 3572,
      "formeĠ": 3573,
      "Å¡enĠ": 3574,
      "profesional": 3575,
      "raliĠ": 3576,
      "ÄįimeĠ": 3577,
      "znoĠ": 3578,
      "sinte": 3579,
      "genaĠ": 3580,
      "tuel": 3581,
      "odgovorĠ": 3582,
      "jnaĠ": 3583,
      "kuÄĩeĠ": 3584,
      "primar": 3585,
      "kun": 3586,
      "osni": 3587,
      "zajedniceĠ": 3588,
      "zniĠ": 3589,
      "gamaĠ": 3590,
      "55Ġ": 3591,
      "ozbilj": 3592,
      "zani": 3593,
      "ociĠ": 3594,
      "oslob": 3595,
      "É¢É§": 3596,
      "radioĠ": 3597,
      "povaĠ": 3598,
      "vencijeĠ": 3599,
      "dva": 3600,
      "tamoĠ": 3601,
      "gli": 3602,
      "Ban": 3603,
      "neophodnoĠ": 3604,
      "videtiĠ": 3605,
      "potrebaĠ": 3606,
      "praktiÄį": 3607,
      "krei": 3608,
      "sporazu": 3609,
      "zacijaĠ": 3610,
      "pogod": 3611,
      "ÄĩenaĠ": 3612,
      "prveĠ": 3613,
      "pru": 3614,
      "polov": 3615,
      "disku": 3616,
      "OniĠ": 3617,
      "pomoÄĩiĠ": 3618,
      "upravljanjaĠ": 3619,
      "poÅ¡toĠ": 3620,
      "ispunj": 3621,
      "jeteĠ": 3622,
      "kvalite": 3623,
      "graÄĳan": 3624,
      "janu": 3625,
      "slovĠ": 3626,
      "straniĠ": 3627,
      "minaĠ": 3628,
      "svakomĠ": 3629,
      "polaĠ": 3630,
      "08Ġ": 3631,
      "TI": 3632,
      "44Ġ": 3633,
      "protiv": 3634,
      "lizacijaĠ": 3635,
      "osu": 3636,
      "2022Ġ": 3637,
      "bezbednostiĠ": 3638,
      "postajeĠ": 3639,
      "Ber": 3640,
      "stepenĠ": 3641,
      "ispodĠ": 3642,
      "Å¾itiĠ": 3643,
      "ograf": 3644,
      "kvalitetĠ": 3645,
      "uslovaĠ": 3646,
      "omoguÄĩavaĠ": 3647,
      "dece": 3648,
      "graÄĳanaĠ": 3649,
      "hla": 3650,
      "taraĠ": 3651,
      "staneĠ": 3652,
      "Slu": 3653,
      "ÄįovekĠ": 3654,
      "koncentracijeĠ": 3655,
      "odstoĠ": 3656,
      "200Ġ": 3657,
      "OnaĠ": 3658,
      "É¨Éŀ": 3659,
      "reÅ¡enjeĠ": 3660,
      "jugosl": 3661,
      "meÅ¡": 3662,
      "njihovĠ": 3663,
      "Å¡ioĠ": 3664,
      "07Ġ": 3665,
      "nimaĠ": 3666,
      "zahval": 3667,
      "meÄĳusob": 3668,
      "ÄĳujuĠ": 3669,
      "poreme": 3670,
      "istiÄįeĠ": 3671,
      "znatnoĠ": 3672,
      "tipĠ": 3673,
      "tori": 3674,
      "41Ġ": 3675,
      "diplo": 3676,
      "Å¾al": 3677,
      "lakoĠ": 3678,
      "zapravoĠ": 3679,
      "maliĠ": 3680,
      "AL": 3681,
      "ÉĽ": 3682,
      "upotrebeĠ": 3683,
      "jniĠ": 3684,
      "ÄįenĠ": 3685,
      "poslovaĠ": 3686,
      "nove": 3687,
      "95Ġ": 3688,
      "upraveĠ": 3689,
      "moglaĠ": 3690,
      "kojomĠ": 3691,
      "kolek": 3692,
      "Å¡estĠ": 3693,
      "postupakĠ": 3694,
      "anjimaĠ": 3695,
      "stanĠ": 3696,
      "ster": 3697,
      "02Ġ": 3698,
      "prikup": 3699,
      "deve": 3700,
      "sioĠ": 3701,
      "novogĠ": 3702,
      "primenomĠ": 3703,
      "ïĤ·Ġ": 3704,
      "Pos": 3705,
      "bihĠ": 3706,
      "eksperimental": 3707,
      "Ãł": 3708,
      "zemljiÅ¡taĠ": 3709,
      "tvor": 3710,
      "fikovan": 3711,
      "odlukeĠ": 3712,
      "MAĠ": 3713,
      "ÄįarĠ": 3714,
      "64Ġ": 3715,
      "43Ġ": 3716,
      "SE": 3717,
      "Itali": 3718,
      "zneĠ": 3719,
      "vozilaĠ": 3720,
      "rezultateĠ": 3721,
      "ovanoĠ": 3722,
      "nekogĠ": 3723,
      "alnomĠ": 3724,
      "svako": 3725,
      "03Ġ": 3726,
      "svetĠ": 3727,
      "osobeĠ": 3728,
      "rezer": 3729,
      "dnoĠ": 3730,
      "*''Ġ": 3731,
      "umetnostiĠ": 3732,
      "korisnikaĠ": 3733,
      "fud": 3734,
      "graniÄį": 3735,
      "razmatra": 3736,
      "prostoruĠ": 3737,
      "raÄįunaĠ": 3738,
      "graÄĳev": 3739,
      "sadĠ": 3740,
      "povrÅ¡ineĠ": 3741,
      "istovremenoĠ": 3742,
      "radovaĠ": 3743,
      "uslugeĠ": 3744,
      "performan": 3745,
      "potroÅ¡a": 3746,
      "ideĠ": 3747,
      "izgu": 3748,
      "drugoĠ": 3749,
      "fotografi": 3750,
      "detek": 3751,
      "DrÅ¾": 3752,
      "jenimĠ": 3753,
      "posti": 3754,
      "jeviÄĩĠ": 3755,
      "cipl": 3756,
      "ratĠ": 3757,
      "VI": 3758,
      "kapit": 3759,
      "digi": 3760,
      "uk": 3761,
      "stiÄįkihĠ": 3762,
      "tiliĠ": 3763,
      "oblikuĠ": 3764,
      "tivnuĠ": 3765,
      "Å¾emĠ": 3766,
      "baci": 3767,
      "sc": 3768,
      "DAĠ": 3769,
      "lik": 3770,
      "tivnomĠ": 3771,
      "central": 3772,
      "obr": 3773,
      "procedu": 3774,
      "jugosloven": 3775,
      "ÉļÉ§": 3776,
      "2021Ġ": 3777,
      "Å¡iÄĩĠ": 3778,
      "bili": 3779,
      "najmanjeĠ": 3780,
      "klini": 3781,
      "profi": 3782,
      "iskljuÄįivoĠ": 3783,
      "sposobnostiĠ": 3784,
      "obzirĠ": 3785,
      "ljiveĠ": 3786,
      "ME": 3787,
      "snimĠ": 3788,
      "fra": 3789,
      "angaÅ¾": 3790,
      "SAĠ": 3791,
      "kombina": 3792,
      "pisaĠ": 3793,
      "gos": 3794,
      "oprav": 3795,
      "njihovaĠ": 3796,
      "dijal": 3797,
      "solu": 3798,
      "jatiĠ": 3799,
      "nerĠ": 3800,
      "uli": 3801,
      "meÄĳutimĠ": 3802,
      "faziĠ": 3803,
      "PrviĠ": 3804,
      "avgu": 3805,
      "04Ġ": 3806,
      "Stra": 3807,
      "nikadaĠ": 3808,
      "OR": 3809,
      "isteĠ": 3810,
      "ZakonaĠ": 3811,
      "otva": 3812,
      "obziraĠ": 3813,
      "znaÄįajnaĠ": 3814,
      "njeneĠ": 3815,
      "tuÅ¾i": 3816,
      "bibli": 3817,
      "EvropeĠ": 3818,
      "aku": 3819,
      "varijab": 3820,
      "Äįesti": 3821,
      "odmahĠ": 3822,
      "tacijuĠ": 3823,
      "port": 3824,
      "Jovan": 3825,
      "Äįuna": 3826,
      "vidĠ": 3827,
      "uopÅ¡teĠ": 3828,
      "trÅ¾iÅ¡tuĠ": 3829,
      "reÅ¾i": 3830,
      "parametaraĠ": 3831,
      "meseciĠ": 3832,
      "ovaliĠ": 3833,
      "javnogĠ": 3834,
      "mle": 3835,
      "ÑĮ": 3836,
      "ranjemĠ": 3837,
      "kole": 3838,
      "navi": 3839,
      "odli": 3840,
      "verovat": 3841,
      "Å¾iviĠ": 3842,
      "inskogĠ": 3843,
      "izvor": 3844,
      "Ca": 3845,
      "obeĠ": 3846,
      "DakleĠ": 3847,
      "prola": 3848,
      "venaĠ": 3849,
      "filozo": 3850,
      "treĠ": 3851,
      "inskihĠ": 3852,
      "karakteristikaĠ": 3853,
      "Vojvod": 3854,
      "JugoslavijeĠ": 3855,
      "oli": 3856,
      "Î±": 3857,
      "umetniÄį": 3858,
      "minutaĠ": 3859,
      "Sre": 3860,
      "06Ġ": 3861,
      "hodaĠ": 3862,
      "ÉļÉľ": 3863,
      "mmĠ": 3864,
      "ugro": 3865,
      "we": 3866,
      "smrtiĠ": 3867,
      "praksiĠ": 3868,
      "dizaj": 3869,
      "sprovo": 3870,
      "53Ġ": 3871,
      "atiĠ": 3872,
      "vanaĠ": 3873,
      "poÄįetkaĠ": 3874,
      "govoreĠ": 3875,
      "Tra": 3876,
      "deceni": 3877,
      "areĠ": 3878,
      "eki": 3879,
      "tz": 3880,
      "stvara": 3881,
      "AleksandarĠ": 3882,
      "geo": 3883,
      "stankaĠ": 3884,
      "stalnoĠ": 3885,
      "46Ġ": 3886,
      "kompozi": 3887,
      "organaĠ": 3888,
      "1999Ġ": 3889,
      "jaliĠ": 3890,
      "celo": 3891,
      "ured": 3892,
      "ukazujuĠ": 3893,
      "predmetĠ": 3894,
      "ÃłĠ": 3895,
      "Ima": 3896,
      "posred": 3897,
      "videoĠ": 3898,
      "sovaĠ": 3899,
      "okru": 3900,
      "ÄĳeneĠ": 3901,
      "dinami": 3902,
      "premi": 3903,
      "slikeĠ": 3904,
      "ÄĳivanjeĠ": 3905,
      "sijuĠ": 3906,
      "tekst": 3907,
      "tiÄįkeĠ": 3908,
      "loÅ¡keĠ": 3909,
      "Â°Ġ": 3910,
      "liÄįnostiĠ": 3911,
      "fri": 3912,
      "uslov": 3913,
      "saniĠ": 3914,
      "ostaleĠ": 3915,
      "moleku": 3916,
      "isĠ": 3917,
      "Äįlani": 3918,
      "sisĠ": 3919,
      "oÄįi": 3920,
      "OsimĠ": 3921,
      "formal": 3922,
      "rele": 3923,
      "dostaĠ": 3924,
      "referen": 3925,
      "merenjaĠ": 3926,
      "ekspre": 3927,
      "odu": 3928,
      "ÄįnostĠ": 3929,
      "Zna": 3930,
      "svedo": 3931,
      "52Ġ": 3932,
      "buduÄĩ": 3933,
      "koveĠ": 3934,
      "Å¡ÄĩuĠ": 3935,
      "velikaĠ": 3936,
      "gnu": 3937,
      "mimĠ": 3938,
      "kmĠ": 3939,
      "modi": 3940,
      "prese": 3941,
      "Å¡njeĠ": 3942,
      "ceneĠ": 3943,
      "straĠ": 3944,
      "ben": 3945,
      "lamaĠ": 3946,
      "47Ġ": 3947,
      "terna": 3948,
      "vodomĠ": 3949,
      "ukupnoĠ": 3950,
      "pouz": 3951,
      "ÅłĠ": 3952,
      "snuĠ": 3953,
      "najboljeĠ": 3954,
      "ilo": 3955,
      "ÏĦ": 3956,
      "jskomĠ": 3957,
      "hipote": 3958,
      "sekun": 3959,
      "line": 3960,
      "padĠ": 3961,
      "Å¡enjeĠ": 3962,
      "baÅ¡Ġ": 3963,
      "forĠ": 3964,
      "mato": 3965,
      "veÄĩuĠ": 3966,
      "poÄįetkuĠ": 3967,
      "pristup": 3968,
      "51Ġ": 3969,
      "sledeÄĩeĠ": 3970,
      "manjiĠ": 3971,
      "nicamaĠ": 3972,
      "bre": 3973,
      "medicin": 3974,
      "stranaĠ": 3975,
      "predi": 3976,
      "sliciĠ": 3977,
      "28": 3978,
      "optere": 3979,
      "É«": 3980,
      "prilago": 3981,
      "izboraĠ": 3982,
      "Î¿": 3983,
      "intenzi": 3984,
      "njihovoĠ": 3985,
      "rob": 3986,
      "tiÄĩĠ": 3987,
      "analizuĠ": 3988,
      "ispitivanjaĠ": 3989,
      "sam": 3990,
      "gni": 3991,
      "prethodnoĠ": 3992,
      "regula": 3993,
      "piÅ¡eĠ": 3994,
      "komer": 3995,
      "72Ġ": 3996,
      "efekatĠ": 3997,
      "PosleĠ": 3998,
      "glavniĠ": 3999,
      "plu": 4000,
      "É¨Éª": 4001,
      "49Ġ": 4002,
      "testĠ": 4003,
      "zatvor": 4004,
      "vaÅ¾noĠ": 4005,
      "500Ġ": 4006,
      "Å¾ivlj": 4007,
      "ministra": 4008,
      "programĠ": 4009,
      "frek": 4010,
      "cmĠ": 4011,
      "fikacijaĠ": 4012,
      "poveÄĩanjeĠ": 4013,
      "Stu": 4014,
      "objekataĠ": 4015,
      "izvoraĠ": 4016,
      "predsednikaĠ": 4017,
      "OD": 4018,
      "Kori": 4019,
      "movaĠ": 4020,
      "prvaĠ": 4021,
      "primenuĠ": 4022,
      "jer": 4023,
      "postupkuĠ": 4024,
      "decaĠ": 4025,
      "utakmi": 4026,
      "Hi": 4027,
      "ugar": 4028,
      "Å¾ivotneĠ": 4029,
      "knjigaĠ": 4030,
      "delu": 4031,
      "orijen": 4032,
      "lacaĠ": 4033,
      "potpunostiĠ": 4034,
      "Miha": 4035,
      "nisamĠ": 4036,
      "njihovihĠ": 4037,
      "priÄįaĠ": 4038,
      "njenaĠ": 4039,
      "dijagno": 4040,
      "javljaĠ": 4041,
      "Å¡tvoĠ": 4042,
      "Grafi": 4043,
      "koriÅ¡ÄĩenjeĠ": 4044,
      "ÄįovekaĠ": 4045,
      "tica": 4046,
      "dobijaĠ": 4047,
      "spreÄį": 4048,
      "prirodeĠ": 4049,
      "znanjeĠ": 4050,
      "ografi": 4051,
      "SrbijuĠ": 4052,
      "odgovaraĠ": 4053,
      "dobioĠ": 4054,
      "kontekstuĠ": 4055,
      "postupkaĠ": 4056,
      "koviĠ": 4057,
      "VuÄįiÄĩĠ": 4058,
      "mate": 4059,
      "dale": 4060,
      "reci": 4061,
      "tingĠ": 4062,
      "projektaĠ": 4063,
      "linĠ": 4064,
      "mreÅ¾eĠ": 4065,
      "flu": 4066,
      "znaÄįajanĠ": 4067,
      "sijiĠ": 4068,
      "LE": 4069,
      "pren": 4070,
      "ganjeĠ": 4071,
      "podrÅ¡kuĠ": 4072,
      "Å¡enjaĠ": 4073,
      "francu": 4074,
      "saneĠ": 4075,
      "svakakoĠ": 4076,
      "ozna": 4077,
      "prouÄį": 4078,
      "Ã°": 4079,
      "ÊģÉŁĠ": 4080,
      "far": 4081,
      "sterĠ": 4082,
      "Å¡tvaĠ": 4083,
      "maseĠ": 4084,
      "misliĠ": 4085,
      "proda": 4086,
      "AC": 4087,
      "ÑıĠ": 4088,
      "konkre": 4089,
      "oseÄĩa": 4090,
      "Ke": 4091,
      "aluĠ": 4092,
      "selek": 4093,
      "opse": 4094,
      "navod": 4095,
      "Vladi": 4096,
      "veneĠ": 4097,
      "Anali": 4098,
      "ckĠ": 4099,
      "pati": 4100,
      "izborĠ": 4101,
      ",,Ġ": 4102,
      "mladi": 4103,
      "99Ġ": 4104,
      "58Ġ": 4105,
      "istraÅ¾ivanjeĠ": 4106,
      "var": 4107,
      "discipl": 4108,
      "udal": 4109,
      "lizacijuĠ": 4110,
      "oÄįu": 4111,
      "svakodnev": 4112,
      "tzvĠ": 4113,
      "devoj": 4114,
      "soft": 4115,
      "JedanĠ": 4116,
      "draĠ": 4117,
      "nemajuĠ": 4118,
      "nekadĠ": 4119,
      "67Ġ": 4120,
      "56Ġ": 4121,
      "Å¡tiĠ": 4122,
      "Å¡itiĠ": 4123,
      "pona": 4124,
      "59Ġ": 4125,
      "izuzetnoĠ": 4126,
      "manasti": 4127,
      "54Ġ": 4128,
      "toruĠ": 4129,
      "pristupaĠ": 4130,
      "selaĠ": 4131,
      "avanjemĠ": 4132,
      "reÄįimaĠ": 4133,
      "gramĠ": 4134,
      "jujuÄĩiĠ": 4135,
      "kgĠ": 4136,
      "septe": 4137,
      "Rad": 4138,
      "imamoĠ": 4139,
      "budÅ¾e": 4140,
      "63Ġ": 4141,
      "logijuĠ": 4142,
      "preki": 4143,
      "juÄĩeĠ": 4144,
      "pokuÅ¡a": 4145,
      "ksaĠ": 4146,
      "pripa": 4147,
      "dominan": 4148,
      "rov": 4149,
      "httpĠ": 4150,
      "jedinicaĠ": 4151,
      "zisten": 4152,
      "vas": 4153,
      "tinĠ": 4154,
      "pover": 4155,
      "ÉŁÉŀ": 4156,
      "karije": 4157,
      "odvi": 4158,
      "bismoĠ": 4159,
      "stojeĠ": 4160,
      "iskustvaĠ": 4161,
      "predmetaĠ": 4162,
      "kata": 4163,
      "62Ġ": 4164,
      "92Ġ": 4165,
      "zaistaĠ": 4166,
      "Äįnja": 4167,
      "cemĠ": 4168,
      "iznadĠ": 4169,
      "lijeĠ": 4170,
      "postojanjeĠ": 4171,
      "grupuĠ": 4172,
      "mogloĠ": 4173,
      "viÄĩaĠ": 4174,
      "Institu": 4175,
      "ljivaĠ": 4176,
      "febru": 4177,
      "koman": 4178,
      "VE": 4179,
      "multi": 4180,
      "znaÄįajneĠ": 4181,
      "izvo": 4182,
      "saglas": 4183,
      "doviĠ": 4184,
      "podruÄįjaĠ": 4185,
      "poremeÄĩa": 4186,
      "relevan": 4187,
      "upotrebuĠ": 4188,
      "cegov": 4189,
      "kontroli": 4190,
      "loÅ¡kihĠ": 4191,
      "61Ġ": 4192,
      "osnovneĠ": 4193,
      "Gru": 4194,
      "klaĠ": 4195,
      "dobaĠ": 4196,
      "namen": 4197,
      "proteinaĠ": 4198,
      "MI": 4199,
      "ura": 4200,
      "kosĠ": 4201,
      "kompanijaĠ": 4202,
      "zon": 4203,
      "tivnostĠ": 4204,
      "usloveĠ": 4205,
      "57Ġ": 4206,
      "jnihĠ": 4207,
      "pravuĠ": 4208,
      "banĠ": 4209,
      "nizĠ": 4210,
      "ÄĩanjaĠ": 4211,
      "ila": 4212,
      "knjigeĠ": 4213,
      "68Ġ": 4214,
      "prene": 4215,
      "fazeĠ": 4216,
      "kandi": 4217,
      "situacijaĠ": 4218,
      "moni": 4219,
      "koriÅ¡ÄĩenjaĠ": 4220,
      "ZatoĠ": 4221,
      "prisustvoĠ": 4222,
      "É«É¬": 4223,
      "nekihĠ": 4224,
      "Äĳar": 4225,
      "faktorĠ": 4226,
      "tonaĠ": 4227,
      "agre": 4228,
      "metrij": 4229,
      "roÄĳ": 4230,
      "sasvimĠ": 4231,
      "pat": 4232,
      "stiÄįkaĠ": 4233,
      "utiÄįuĠ": 4234,
      "ciklu": 4235,
      "datĠ": 4236,
      "regional": 4237,
      "sileĠ": 4238,
      "Gor": 4239,
      "njegovoĠ": 4240,
      "velikogĠ": 4241,
      "desetihĠ": 4242,
      "mgĠ": 4243,
      "bazi": 4244,
      "ÄĩelijeĠ": 4245,
      "smanjenjeĠ": 4246,
      "vezaĠ": 4247,
      "infek": 4248,
      "Å¡an": 4249,
      "ilĠ": 4250,
      "sprem": 4251,
      "bakteri": 4252,
      "podacimaĠ": 4253,
      "listaĠ": 4254,
      "simp": 4255,
      "politikaĠ": 4256,
      "poÄįinjeĠ": 4257,
      "mskogĠ": 4258,
      "SviĠ": 4259,
      "mamaĠ": 4260,
      "stvimaĠ": 4261,
      "tnojĠ": 4262,
      "menadÅ¾": 4263,
      "ereĠ": 4264,
      "njenoĠ": 4265,
      "obuhvataĠ": 4266,
      "stil": 4267,
      "vestĠ": 4268,
      "nakna": 4269,
      "posedu": 4270,
      "66Ġ": 4271,
      "id": 4272,
      "SS": 4273,
      "pokuÅ¡": 4274,
      "PaĠ": 4275,
      "foku": 4276,
      "âĢĶ": 4277,
      "stanovnikaĠ": 4278,
      "poljaĠ": 4279,
      "Petr": 4280,
      "anijeĠ": 4281,
      "dostav": 4282,
      "78Ġ": 4283,
      "prim": 4284,
      "pokri": 4285,
      "tusĠ": 4286,
      "Pose": 4287,
      "zla": 4288,
      "politiÄįkeĠ": 4289,
      "tivnostiĠ": 4290,
      "mskihĠ": 4291,
      "IVĠ": 4292,
      "Pla": 4293,
      "karĠ": 4294,
      "umestoĠ": 4295,
      "lizmaĠ": 4296,
      "dijeĠ": 4297,
      "dre": 4298,
      "tekstaĠ": 4299,
      "donoÅ¡": 4300,
      "jakoĠ": 4301,
      "kur": 4302,
      "koristitiĠ": 4303,
      "pribli": 4304,
      "zaoĠ": 4305,
      "upozna": 4306,
      "pal": 4307,
      "nar": 4308,
      "ostaliĠ": 4309,
      "usloviĠ": 4310,
      "preuze": 4311,
      "diliĠ": 4312,
      "DoĠ": 4313,
      "uÅ¾i": 4314,
      "Å¡kolaĠ": 4315,
      "%.Ġ": 4316,
      "komple": 4317,
      "avatiĠ": 4318,
      "ÉļÉ¥": 4319,
      "enjimaĠ": 4320,
      "druÅ¡tvoĠ": 4321,
      "seksu": 4322,
      "mentuĠ": 4323,
      "postaoĠ": 4324,
      "kontroleĠ": 4325,
      "garan": 4326,
      "á½": 4327,
      "zivanjeĠ": 4328,
      "decuĠ": 4329,
      "novo": 4330,
      "este": 4331,
      "suÅ¡t": 4332,
      "upravljanjeĠ": 4333,
      "PRE": 4334,
      "znogĠ": 4335,
      "nikomĠ": 4336,
      "praz": 4337,
      "IJAĠ": 4338,
      "vlastĠ": 4339,
      "ÄįlanovaĠ": 4340,
      "ljudimaĠ": 4341,
      "matskiĠ": 4342,
      "dub": 4343,
      "manife": 4344,
      "81Ġ": 4345,
      "Slov": 4346,
      "onsĠ": 4347,
      "ostr": 4348,
      "pol": 4349,
      "EvropiĠ": 4350,
      "narodĠ": 4351,
      "planĠ": 4352,
      "pojaveĠ": 4353,
      "tskihĠ": 4354,
      "zioĠ": 4355,
      "servi": 4356,
      "bolesnikaĠ": 4357,
      "É«É¤": 4358,
      "sluÄįajevimaĠ": 4359,
      "É©É¨É": 4360,
      "É¢É¬": 4361,
      "verĠ": 4362,
      "Åłe": 4363,
      "85Ġ": 4364,
      "Å¾iveĠ": 4365,
      "pojedinihĠ": 4366,
      "neprija": 4367,
      "inskaĠ": 4368,
      "infra": 4369,
      "Å¾neĠ": 4370,
      "mrt": 4371,
      "zvez": 4372,
      "miraĠ": 4373,
      "sever": 4374,
      "uzorakaĠ": 4375,
      "Ñĭ": 4376,
      "kritiÄį": 4377,
      "69Ġ": 4378,
      "dode": 4379,
      "tumĠ": 4380,
      "hibi": 4381,
      "smatrajuĠ": 4382,
      "krv": 4383,
      "javnostiĠ": 4384,
      "kara": 4385,
      "manj": 4386,
      "eniceĠ": 4387,
      "ovlaÅ¡Äĩ": 4388,
      "mesecaĠ": 4389,
      "svakeĠ": 4390,
      "Pan": 4391,
      "vaniĠ": 4392,
      "metĠ": 4393,
      "avajuÄĩiĠ": 4394,
      "ÄįinjenicaĠ": 4395,
      "poe": 4396,
      "pato": 4397,
      "paÅ¾njuĠ": 4398,
      "zanoĠ": 4399,
      "indika": 4400,
      "zasni": 4401,
      "ponaÅ¡anjeĠ": 4402,
      "povre": 4403,
      "nan": 4404,
      "administra": 4405,
      "siro": 4406,
      "avaoĠ": 4407,
      "oksida": 4408,
      "Fil": 4409,
      "industrij": 4410,
      "konstan": 4411,
      "dod": 4412,
      "podne": 4413,
      "jedinjenjaĠ": 4414,
      "ÄįnojĠ": 4415,
      "EvropskeĠ": 4416,
      "materija": 4417,
      "evi": 4418,
      "reguli": 4419,
      "ordina": 4420,
      "sloven": 4421,
      "71Ġ": 4422,
      "tari": 4423,
      "opÅ¡ti": 4424,
      "mentar": 4425,
      "govara": 4426,
      "Å¾ivotuĠ": 4427,
      "matri": 4428,
      "lep": 4429,
      "renuĠ": 4430,
      "damaĠ": 4431,
      "hrvat": 4432,
      "autor": 4433,
      "bamaĠ": 4434,
      "1998Ġ": 4435,
      "sadrÅ¾a": 4436,
      "rokuĠ": 4437,
      "eniciĠ": 4438,
      "sledeÄĩiĠ": 4439,
      "JAĠ": 4440,
      "onalĠ": 4441,
      "Bar": 4442,
      "torskaĠ": 4443,
      "kine": 4444,
      "teritorijiĠ": 4445,
      "Äįar": 4446,
      "liteĠ": 4447,
      "loziĠ": 4448,
      "Å¾an": 4449,
      "denaĠ": 4450,
      "uzimaĠ": 4451,
      "ranogĠ": 4452,
      "centarĠ": 4453,
      "toreĠ": 4454,
      "digital": 4455,
      "76Ġ": 4456,
      "ÄĩujeĠ": 4457,
      "77Ġ": 4458,
      "biv": 4459,
      "SR": 4460,
      "Ser": 4461,
      "figu": 4462,
      "KAĠ": 4463,
      "th": 4464,
      "kora": 4465,
      "nabav": 4466,
      "jednaÄį": 4467,
      "naru": 4468,
      "snagaĠ": 4469,
      "lerĠ": 4470,
      "izaĠ": 4471,
      "sluÄįajevaĠ": 4472,
      "nazivaĠ": 4473,
      "niÄįkiĠ": 4474,
      "drugojĠ": 4475,
      "madaĠ": 4476,
      "zijuĠ": 4477,
      "Å£eĠ": 4478,
      "Man": 4479,
      "ph": 4480,
      "zaÅ¡toĠ": 4481,
      "vrataĠ": 4482,
      "hodnoĠ": 4483,
      "srpskomĠ": 4484,
      "73Ġ": 4485,
      "valen": 4486,
      "bur": 4487,
      "roman": 4488,
      "Par": 4489,
      "Ce": 4490,
      "Äįini": 4491,
      "veÅ¡ta": 4492,
      "integri": 4493,
      "kvan": 4494,
      "velikimĠ": 4495,
      "imu": 4496,
      "zoraĠ": 4497,
      "aplika": 4498,
      "seman": 4499,
      "kona": 4500,
      "nikak": 4501,
      "É§É¨É": 4502,
      "zakonomĠ": 4503,
      "NovomĠ": 4504,
      "thĠ": 4505,
      "stimu": 4506,
      "oktobraĠ": 4507,
      "alterna": 4508,
      "poÅ¡": 4509,
      "statusĠ": 4510,
      "stvenoĠ": 4511,
      "niÄįkeĠ": 4512,
      "senĠ": 4513,
      "Pav": 4514,
      "filmĠ": 4515,
      "mobil": 4516,
      "relativnoĠ": 4517,
      "psĠ": 4518,
      "zahtevĠ": 4519,
      "temperatureĠ": 4520,
      "tral": 4521,
      "inu": 4522,
      "BiHĠ": 4523,
      "zivanjaĠ": 4524,
      "bojeĠ": 4525,
      "lovĠ": 4526,
      "jev": 4527,
      "perĠ": 4528,
      "96Ġ": 4529,
      "DÐ": 4530,
      "kolaĠ": 4531,
      "komentaraĠ": 4532,
      "anogĠ": 4533,
      "osetlji": 4534,
      "noseĠ": 4535,
      "ing": 4536,
      "pokazalaĠ": 4537,
      "jediniĠ": 4538,
      "lokali": 4539,
      "iskustvoĠ": 4540,
      "ralnoĠ": 4541,
      "kretanjaĠ": 4542,
      "lioĠ": 4543,
      "MA": 4544,
      "ÄĮlanĠ": 4545,
      "alnimĠ": 4546,
      "anuĠ": 4547,
      "VO": 4548,
      "uÄįi": 4549,
      "znihĠ": 4550,
      "osaĠ": 4551,
      "ostajeĠ": 4552,
      "gradi": 4553,
      "obrazovanjeĠ": 4554,
      "valu": 4555,
      "jednojĠ": 4556,
      "znamĠ": 4557,
      "parĠ": 4558,
      "greÅ¡": 4559,
      "najvaÅ¾": 4560,
      "recep": 4561,
      "voÄĳenjeĠ": 4562,
      "tamaĠ": 4563,
      "gijuĠ": 4564,
      "vet": 4565,
      "govaĠ": 4566,
      "12": 4567,
      "OB": 4568,
      "jaÄį": 4569,
      "naukaĠ": 4570,
      "trÅ¾iÅ¡taĠ": 4571,
      "sul": 4572,
      "minimal": 4573,
      "odgovoraĠ": 4574,
      "dogaÄĳajaĠ": 4575,
      "uÄįini": 4576,
      "93Ġ": 4577,
      "interesaĠ": 4578,
      "djeĠ": 4579,
      "pozori": 4580,
      "neuro": 4581,
      "dakleĠ": 4582,
      "ZakonĠ": 4583,
      "ÄĩanjeĠ": 4584,
      "Å¾eliĠ": 4585,
      "uÄįenjaĠ": 4586,
      "98Ġ": 4587,
      "asĠ": 4588,
      "eksplo": 4589,
      "zabeleÅ¾": 4590,
      "fiko": 4591,
      "crkveĠ": 4592,
      "veÄĩinaĠ": 4593,
      "berĠ": 4594,
      "ae": 4595,
      "izvorĠ": 4596,
      "sitiĠ": 4597,
      "trebiĠ": 4598,
      "ukljuÄį": 4599,
      "jnĠ": 4600,
      "DÐĮ": 4601,
      "Br": 4602,
      "Ãª": 4603,
      "remĠ": 4604,
      "krajĠ": 4605,
      "istomĠ": 4606,
      "dalekoĠ": 4607,
      "opetĠ": 4608,
      "hilja": 4609,
      "kop": 4610,
      "bibliote": 4611,
      "nikoĠ": 4612,
      "Kr": 4613,
      "NE": 4614,
      "74Ġ": 4615,
      "popular": 4616,
      "jediniceĠ": 4617,
      "situacijeĠ": 4618,
      "rizikĠ": 4619,
      "No": 4620,
      "Å¾elj": 4621,
      "krimin": 4622,
      "Dana": 4623,
      "sposobnostĠ": 4624,
      "snomĠ": 4625,
      "najveÄĩ": 4626,
      "traÅ¾i": 4627,
      "svakoĠ": 4628,
      "dobro": 4629,
      "poÄįeoĠ": 4630,
      "Ak": 4631,
      "magne": 4632,
      "kontrol": 4633,
      "ÅłtaĠ": 4634,
      "postignu": 4635,
      "Å¡ar": 4636,
      "slov": 4637,
      "DI": 4638,
      "prkosĠ": 4639,
      "boĠ": 4640,
      "samimĠ": 4641,
      "Hercegov": 4642,
      "limoĠ": 4643,
      "naglaÅ¡": 4644,
      "1996Ġ": 4645,
      "izne": 4646,
      "Tr": 4647,
      "idejaĠ": 4648,
      "ljivĠ": 4649,
      "popula": 4650,
      "voÄĳa": 4651,
      "izraÄįuna": 4652,
      "miÅ¡i": 4653,
      "puÅ¡t": 4654,
      "bankeĠ": 4655,
      "lokalneĠ": 4656,
      "ÑĮĠ": 4657,
      "stiÄįkogĠ": 4658,
      "uzorkaĠ": 4659,
      "the": 4660,
      "1997Ġ": 4661,
      "dilaĠ": 4662,
      "Zo": 4663,
      "SrpskeĠ": 4664,
      "termin": 4665,
      "transforma": 4666,
      "izmaĠ": 4667,
      "osnovnihĠ": 4668,
      "apsolu": 4669,
      ".).Ġ": 4670,
      "racijeĠ": 4671,
      "Val": 4672,
      "soĠ": 4673,
      "anijaĠ": 4674,
      "supstan": 4675,
      "San": 4676,
      "sekre": 4677,
      "Kan": 4678,
      "Mla": 4679,
      "susre": 4680,
      "oki": 4681,
      "lenaĠ": 4682,
      "odabra": 4683,
      "fudbal": 4684,
      "Ver": 4685,
      "podruÄįjuĠ": 4686,
      "1990Ġ": 4687,
      "cer": 4688,
      "TVĠ": 4689,
      "migra": 4690,
      "istraÅ¾ivanjuĠ": 4691,
      "inova": 4692,
      "SrbaĠ": 4693,
      "sorp": 4694,
      "samogĠ": 4695,
      "ticeĠ": 4696,
      "jedinoĠ": 4697,
      "um": 4698,
      "sastojiĠ": 4699,
      "troÅ¡kovaĠ": 4700,
      "toplo": 4701,
      "inhibi": 4702,
      "vencijaĠ": 4703,
      "poslani": 4704,
      "gleda": 4705,
      "imeni": 4706,
      "dodatnoĠ": 4707,
      "cesĠ": 4708,
      "delomĠ": 4709,
      "buduÄĩiĠ": 4710,
      "veliÄįineĠ": 4711,
      "kanaĠ": 4712,
      "glĠ": 4713,
      "ÄįakaĠ": 4714,
      "transpor": 4715,
      "fu": 4716,
      "tako": 4717,
      "njegovomĠ": 4718,
      "reduĠ": 4719,
      "godinamaĠ": 4720,
      "Per": 4721,
      "Dob": 4722,
      "ljudeĠ": 4723,
      "pravoslav": 4724,
      "hriÅ¡Äĩ": 4725,
      "jnogĠ": 4726,
      "âĪĴĠ": 4727,
      "aktivi": 4728,
      "knu": 4729,
      "naÅ¡emĠ": 4730,
      "tekstĠ": 4731,
      "97Ġ": 4732,
      "Dok": 4733,
      "zra": 4734,
      "aktuel": 4735,
      "igraĠ": 4736,
      "tvo": 4737,
      "OnoĠ": 4738,
      "Jan": 4739,
      "ovalaĠ": 4740,
      "izgledaĠ": 4741,
      "koncentracijaĠ": 4742,
      "ZA": 4743,
      "lizamĠ": 4744,
      "mnogiĠ": 4745,
      "tiraĠ": 4746,
      "svetskogĠ": 4747,
      "novĠ": 4748,
      "ulogaĠ": 4749,
      "vaneĠ": 4750,
      "inicija": 4751,
      "takavĠ": 4752,
      "Ã¶": 4753,
      "sun": 4754,
      "devi": 4755,
      "goreĠ": 4756,
      "doprine": 4757,
      "objektaĠ": 4758,
      "naseljaĠ": 4759,
      "gerĠ": 4760,
      "1991Ġ": 4761,
      "cionaĠ": 4762,
      "registr": 4763,
      "SI": 4764,
      "prikazaniĠ": 4765,
      "tel": 4766,
      "ekonomskeĠ": 4767,
      "Ð¹Ġ": 4768,
      "novcaĠ": 4769,
      "poslaĠ": 4770,
      "ena": 4771,
      "teo": 4772,
      "torimaĠ": 4773,
      "poslovanjaĠ": 4774,
      "mathĠ": 4775,
      "Äįvr": 4776,
      "vamaĠ": 4777,
      "nukle": 4778,
      "parla": 4779,
      "Istra": 4780,
      "loviÄĩĠ": 4781,
      "sedamĠ": 4782,
      "pamaĠ": 4783,
      "89Ġ": 4784,
      "engĠ": 4785,
      "obavezaĠ": 4786,
      "bioloÅ¡": 4787,
      "graniceĠ": 4788,
      "kupi": 4789,
      "tekstuĠ": 4790,
      "vladaĠ": 4791,
      "godiÅ¡njeĠ": 4792,
      "ugovor": 4793,
      "majaĠ": 4794,
      "kne": 4795,
      "che": 4796,
      "94Ġ": 4797,
      "ÉļÊĥ": 4798,
      "ljavaĠ": 4799,
      "ÄĩimaĠ": 4800,
      "meren": 4801,
      "sadaÅ¡": 4802,
      "samiĠ": 4803,
      "--": 4804,
      "ÊĤ": 4805,
      "linear": 4806,
      "osvoj": 4807,
      "Î¼": 4808,
      "pomin": 4809,
      "79Ġ": 4810,
      "kupov": 4811,
      "ÉĿ": 4812,
      "one": 4813,
      "ugovorĠ": 4814,
      "tijaĠ": 4815,
      "zakono": 4816,
      "vak": 4817,
      "ÉļÉ¬": 4818,
      "ÄĮa": 4819,
      "É¢É¦": 4820,
      "poklo": 4821,
      "opÅ¡tineĠ": 4822,
      "fos": 4823,
      "tostiĠ": 4824,
      "tedĠ": 4825,
      "91Ġ": 4826,
      "staoĠ": 4827,
      "teloĠ": 4828,
      "medijaĠ": 4829,
      "proizvoÄĳa": 4830,
      "tesĠ": 4831,
      "Predsed": 4832,
      "obavezeĠ": 4833,
      "plat": 4834,
      "izdva": 4835,
      "DrugiĠ": 4836,
      "navodeĠ": 4837,
      "tabeliĠ": 4838,
      "druÅ¡tveneĠ": 4839,
      "zdravljaĠ": 4840,
      "kolaÄįi": 4841,
      "SadĠ": 4842,
      "diskri": 4843,
      "kapitalaĠ": 4844,
      "talĠ": 4845,
      "jenogĠ": 4846,
      "javnoĠ": 4847,
      "msĠ": 4848,
      "DÅ¾e": 4849,
      "imple": 4850,
      "juna": 4851,
      "znaÄįenjaĠ": 4852,
      "Con": 4853,
      "venĠ": 4854,
      "dakĠ": 4855,
      "prije": 4856,
      "plateĠ": 4857,
      "nena": 4858,
      "Tri": 4859,
      "dobarĠ": 4860,
      "stepenaĠ": 4861,
      "Glav": 4862,
      "zorĠ": 4863,
      "Gene": 4864,
      "animĠ": 4865,
      "genĠ": 4866,
      "ÄĲor": 4867,
      "zad": 4868,
      "É¢É¡": 4869,
      "ovanjuĠ": 4870,
      "sedi": 4871,
      "tskaĠ": 4872,
      "vije": 4873,
      "disertacijaĠ": 4874,
      "dneĠ": 4875,
      "novuĠ": 4876,
      "odbraneĠ": 4877,
      "KadĠ": 4878,
      "morfo": 4879,
      "stikeĠ": 4880,
      "cito": 4881,
      "naÅ¡egĠ": 4882,
      "ota": 4883,
      "pokazaliĠ": 4884,
      "radnikaĠ": 4885,
      "jeviĠ": 4886,
      "1995Ġ": 4887,
      "dovimaĠ": 4888,
      "hor": 4889,
      "njenogĠ": 4890,
      "uri": 4891,
      "novimĠ": 4892,
      "detetaĠ": 4893,
      "Mno": 4894,
      "ZAĠ": 4895,
      "odreÄĳeniĠ": 4896,
      "sorĠ": 4897,
      "É¢É¯Ġ": 4898,
      "jskoĠ": 4899,
      "zdravljeĠ": 4900,
      "NATOĠ": 4901,
      "prom": 4902,
      "institucijaĠ": 4903,
      "ostvar": 4904,
      "interpre": 4905,
      "rat": 4906,
      "ÄĩeniĠ": 4907,
      "druÅ¡tvuĠ": 4908,
      "Tak": 4909,
      "sazna": 4910,
      "MO": 4911,
      "skra": 4912,
      "ralneĠ": 4913,
      "mentiĠ": 4914,
      "uÄįin": 4915,
      "''.Ġ": 4916,
      "znaÄįenjeĠ": 4917,
      "ritiĠ": 4918,
      "velikihĠ": 4919,
      "tijeĠ": 4920,
      "centri": 4921,
      "mehan": 4922,
      "jonaĠ": 4923,
      "Î±Ġ": 4924,
      "ljanjuĠ": 4925,
      "javnihĠ": 4926,
      "propa": 4927,
      "pripadaĠ": 4928,
      "posloveĠ": 4929,
      "Parti": 4930,
      "stioĠ": 4931,
      "krviĠ": 4932,
      "snim": 4933,
      "srednjeĠ": 4934,
      "lektu": 4935,
      "teorijeĠ": 4936,
      "upotrebaĠ": 4937,
      "bez": 4938,
      "onajĠ": 4939,
      "glasnikĠ": 4940,
      "septembraĠ": 4941,
      "83Ġ": 4942,
      "Fran": 4943,
      "RusijeĠ": 4944,
      "ogro": 4945,
      "MiĠ": 4946,
      "specijal": 4947,
      "Medi": 4948,
      "valeĠ": 4949,
      "mnogeĠ": 4950,
      "88Ġ": 4951,
      "lop": 4952,
      "kojegĠ": 4953,
      "zacijuĠ": 4954,
      "skupĠ": 4955,
      "naÅ¡Ġ": 4956,
      "kontroluĠ": 4957,
      "Sav": 4958,
      "kakavĠ": 4959,
      "poloÅ¾ajĠ": 4960,
      "trud": 4961,
      "proÅ¡i": 4962,
      "PRO": 4963,
      "odav": 4964,
      "mehaniza": 4965,
      "GodineĠ": 4966,
      "partne": 4967,
      "svakaĠ": 4968,
      "sanoĠ": 4969,
      "hiper": 4970,
      "ticaĠ": 4971,
      "autoriĠ": 4972,
      "pruÅ¾aĠ": 4973,
      "Ã³": 4974,
      "ciljevaĠ": 4975,
      "sigurnoĠ": 4976,
      "sanaĠ": 4977,
      "makĠ": 4978,
      "ovanjemĠ": 4979,
      "ÄĩajuĠ": 4980,
      "kategorijeĠ": 4981,
      "odbi": 4982,
      "ovĠ": 4983,
      "Ã¼": 4984,
      "TAĠ": 4985,
      "AV": 4986,
      "For": 4987,
      "revolu": 4988,
      "ravaĠ": 4989,
      "vizu": 4990,
      "udruÅ¾": 4991,
      "nijimĠ": 4992,
      "Poru": 4993,
      "toksi": 4994,
      "spolja": 4995,
      "onimaĠ": 4996,
      "sanihĠ": 4997,
      "sadrÅ¾eĠ": 4998,
      "veraĠ": 4999,
      "Lon": 5000,
      "enicaĠ": 5001,
      "trenutnoĠ": 5002,
      "pmĠ": 5003,
      "zr": 5004,
      "ÄĳivanjaĠ": 5005,
      "isprav": 5006,
      "objavlji": 5007,
      "novacĠ": 5008,
      "iteĠ": 5009,
      "perspek": 5010,
      "iskori": 5011,
      "temaĠ": 5012,
      "njegovuĠ": 5013,
      "miÅ¡ljenjeĠ": 5014,
      "terori": 5015,
      "Äįaso": 5016,
      "odo": 5017,
      "funkcijuĠ": 5018,
      "kompe": 5019,
      "zakonĠ": 5020,
      "StogaĠ": 5021,
      "delatnostiĠ": 5022,
      "parame": 5023,
      "primenaĠ": 5024,
      "Ã¤": 5025,
      "zonaĠ": 5026,
      "PreĠ": 5027,
      "bliz": 5028,
      "mlĠ": 5029,
      "junaĠ": 5030,
      "dovaĠ": 5031,
      "nastavnikaĠ": 5032,
      "Ek": 5033,
      "NaslovĠ": 5034,
      "Ã²": 5035,
      "kontinui": 5036,
      "vanjimaĠ": 5037,
      "vrednostimaĠ": 5038,
      "avioĠ": 5039,
      "naÄįel": 5040,
      "nekomĠ": 5041,
      "tamĠ": 5042,
      "vezuĠ": 5043,
      "imenaĠ": 5044,
      "opÅ¡te": 5045,
      "Por": 5046,
      "generi": 5047,
      "nekuĠ": 5048,
      "jiÄĩĠ": 5049,
      "zapa": 5050,
      "voduĠ": 5051,
      "muÅ¡kar": 5052,
      "fazaĠ": 5053,
      "privat": 5054,
      "naukeĠ": 5055,
      "Îµ": 5056,
      "lyĠ": 5057,
      "MeÄĳunarod": 5058,
      "ovanogĠ": 5059,
      "dobijenihĠ": 5060,
      "86Ġ": 5061,
      "donosiĠ": 5062,
      "boljiĠ": 5063,
      "revi": 5064,
      "velikuĠ": 5065,
      "stvarĠ": 5066,
      "RU": 5067,
      "ÉŁÉª": 5068,
      "vredeĠ": 5069,
      "82Ġ": 5070,
      "KA": 5071,
      "ilu": 5072,
      "zivaĠ": 5073,
      "vestiĠ": 5074,
      "podu": 5075,
      "voÅ¾": 5076,
      "Ci": 5077,
      "litiĠ": 5078,
      "gust": 5079,
      "ÄĩenoĠ": 5080,
      "adre": 5081,
      "loÅ¡kogĠ": 5082,
      "Popo": 5083,
      "boj": 5084,
      "usva": 5085,
      "tionalĠ": 5086,
      "sluÅ¡": 5087,
      "PriĠ": 5088,
      "87Ġ": 5089,
      "SamoĠ": 5090,
      "snaÅ¾": 5091,
      "martaĠ": 5092,
      "druguĠ": 5093,
      "licuĠ": 5094,
      "deleĠ": 5095,
      "DO": 5096,
      "ÅłtoĠ": 5097,
      "84Ġ": 5098,
      "kriti": 5099,
      "pozicijeĠ": 5100,
      "testaĠ": 5101,
      "kontra": 5102,
      "specija": 5103,
      "nara": 5104,
      "zemljuĠ": 5105,
      "LO": 5106,
      "vaÄįaĠ": 5107,
      "mneĠ": 5108,
      "menjaĠ": 5109,
      "bar": 5110,
      "borav": 5111,
      "Slob": 5112,
      "dap": 5113,
      "Kraljev": 5114,
      "tineĠ": 5115,
      "ÉļÉª": 5116,
      "pojavaĠ": 5117,
      "poÄįetkomĠ": 5118,
      "zamen": 5119,
      "uÄįeÅ¡ÄĩeĠ": 5120,
      "valoĠ": 5121,
      "njihovuĠ": 5122,
      "reakcijeĠ": 5123,
      "jedinstven": 5124,
      "politiÄįkihĠ": 5125,
      "spra": 5126,
      "stadi": 5127,
      "Ã¢": 5128,
      "svakuĠ": 5129,
      "enti": 5130,
      "ljujuĠ": 5131,
      "RepubliciĠ": 5132,
      "spon": 5133,
      "dugoĠ": 5134,
      "mojĠ": 5135,
      "Spe": 5136,
      "log": 5137,
      "DanasĠ": 5138,
      "objasni": 5139,
      "stica": 5140,
      "politiÄįkiĠ": 5141,
      "vladeĠ": 5142,
      "alko": 5143,
      "slavĠ": 5144,
      "podse": 5145,
      "1992Ġ": 5146,
      "komercijal": 5147,
      "logeĠ": 5148,
      "nosĠ": 5149,
      "nazivĠ": 5150,
      "stiliĠ": 5151,
      "OviĠ": 5152,
      "MSĠ": 5153,
      "rioĠ": 5154,
      "Pove": 5155,
      "IC": 5156,
      "staleĠ": 5157,
      "vekuĠ": 5158,
      "ispolj": 5159,
      "odsu": 5160,
      "stanuĠ": 5161,
      "origin": 5162,
      "istogĠ": 5163,
      "eti": 5164,
      "kvanti": 5165,
      "zadatakĠ": 5166,
      "ekstrak": 5167,
      "estĠ": 5168,
      "razlogĠ": 5169,
      "preduzet": 5170,
      "odreÄĳenihĠ": 5171,
      "ssi": 5172,
      "tehnologijeĠ": 5173,
      "predloÅ¾": 5174,
      "Å¾imĠ": 5175,
      "moÄĩ": 5176,
      "zatiĠ": 5177,
      "tacijiĠ": 5178,
      "milijar": 5179,
      "panĠ": 5180,
      "tajuĠ": 5181,
      "Dal": 5182,
      "Make": 5183,
      "napred": 5184,
      "poÄįelaĠ": 5185,
      "aninĠ": 5186,
      "É¢Éľ": 5187,
      "Ëĩc": 5188,
      "priÄįeĠ": 5189,
      "Dan": 5190,
      "ÄįicaĠ": 5191,
      "optimal": 5192,
      "mehani": 5193,
      "staloĠ": 5194,
      "mnoĠ": 5195,
      "poslednjihĠ": 5196,
      "povrÅ¡inaĠ": 5197,
      "led": 5198,
      "resursaĠ": 5199,
      "wit": 5200,
      "pomog": 5201,
      "odgovornostiĠ": 5202,
      "jskuĠ": 5203,
      "enijeĠ": 5204,
      "uo": 5205,
      "miÅ¡ljenjaĠ": 5206,
      "vlasni": 5207,
      "enikĠ": 5208,
      "Âµ": 5209,
      "Meto": 5210,
      "poveÄĩavaĠ": 5211,
      "PorukaĠ": 5212,
      "algori": 5213,
      "urĠ": 5214,
      "mbarĠ": 5215,
      "tetomĠ": 5216,
      "ref": 5217,
      "kriviÄįnogĠ": 5218,
      "plici": 5219,
      "Ñı": 5220,
      "Äĩer": 5221,
      "crven": 5222,
      "SluÅ¾b": 5223,
      "obro": 5224,
      "ÊĦ": 5225,
      "poreÄĳenjuĠ": 5226,
      "poto": 5227,
      "zoniĠ": 5228,
      "karakteristiÄį": 5229,
      "mine": 5230,
      "muze": 5231,
      "koordina": 5232,
      "ferĠ": 5233,
      "naÅ¡ojĠ": 5234,
      "Å¡iromĠ": 5235,
      "ispredĠ": 5236,
      "knjiÅ¾evnostiĠ": 5237,
      "niÄįkogĠ": 5238,
      "najboljiĠ": 5239,
      "istorijeĠ": 5240,
      "ling": 5241,
      "koli": 5242,
      "koriÅ¡ÄĩenjemĠ": 5243,
      "ljivostĠ": 5244,
      "ciljemĠ": 5245,
      "raspola": 5246,
      "Nacional": 5247,
      "inci": 5248,
      "prakseĠ": 5249,
      "tkivaĠ": 5250,
      "poslediceĠ": 5251,
      "Â´Ġ": 5252,
      "DokĠ": 5253,
      "kovĠ": 5254,
      "(âĢŀĠ": 5255,
      "SrbiĠ": 5256,
      "fik": 5257,
      "skladi": 5258,
      "razmiÅ¡": 5259,
      "nacionalneĠ": 5260,
      "rup": 5261,
      "univerzi": 5262,
      "O2Ġ": 5263,
      "mskaĠ": 5264,
      "druÅ¡tvenihĠ": 5265,
      "projekt": 5266,
      "korisni": 5267,
      "Zav": 5268,
      "spomeni": 5269,
      "trÅ¾iÅ¡": 5270,
      "struÄįnja": 5271,
      "njegovimĠ": 5272,
      "Hu": 5273,
      "titeĠ": 5274,
      "docĠ": 5275,
      "300Ġ": 5276,
      "proizvodnjuĠ": 5277,
      "malaĠ": 5278,
      "baveĠ": 5279,
      "risĠ": 5280,
      "saopÅ¡t": 5281,
      "zapre": 5282,
      "centraĠ": 5283,
      "NEĠ": 5284,
      "zavi": 5285,
      "optuÅ¾": 5286,
      "odluÄįi": 5287,
      "kovimaĠ": 5288,
      "strankeĠ": 5289,
      "klijen": 5290,
      "stitiĠ": 5291,
      "okup": 5292,
      "Makedo": 5293,
      "kostiĠ": 5294,
      "delimi": 5295,
      "oblastĠ": 5296,
      "proizvodiĠ": 5297,
      "diskrimina": 5298,
      "njegovihĠ": 5299,
      "zakljuÄįitiĠ": 5300,
      "lovaĠ": 5301,
      "Tele": 5302,
      "zemljaĠ": 5303,
      "pojamĠ": 5304,
      "korakĠ": 5305,
      "komunikacijeĠ": 5306,
      "zastuplj": 5307,
      "proizvodĠ": 5308,
      "troĠ": 5309,
      "tribu": 5310,
      "strukturuĠ": 5311,
      "plod": 5312,
      "ac": 5313,
      "diferen": 5314,
      "imateĠ": 5315,
      "UniverzitetaĠ": 5316,
      "stvu": 5317,
      "proceneĠ": 5318,
      "komponenteĠ": 5319,
      "vazduhaĠ": 5320,
      "pratiĠ": 5321,
      "intenziv": 5322,
      "pisuĠ": 5323,
      "dsĠ": 5324,
      "autorĠ": 5325,
      "dobraĠ": 5326,
      "nagla": 5327,
      "ekonomskiĠ": 5328,
      "tanjeĠ": 5329,
      "mentacijeĠ": 5330,
      "izmen": 5331,
      "PI": 5332,
      "celokup": 5333,
      "roditeljaĠ": 5334,
      "SadaĠ": 5335,
      "kvadra": 5336,
      "konferen": 5337,
      "É§ÉļĠ": 5338,
      "nastaveĠ": 5339,
      "At": 5340,
      "koliÄįineĠ": 5341,
      "ralniĠ": 5342,
      "PC": 5343,
      "JE": 5344,
      "Spo": 5345,
      "javljajuĠ": 5346,
      "raÄįunĠ": 5347,
      "demokra": 5348,
      "uspeÅ¡noĠ": 5349,
      "nes": 5350,
      "PA": 5351,
      "aprilaĠ": 5352,
      "navedenihĠ": 5353,
      "informi": 5354,
      "**Ġ": 5355,
      "simu": 5356,
      "IstraÅ¾i": 5357,
      "sad": 5358,
      "sinaĠ": 5359,
      "logijiĠ": 5360,
      "leka": 5361,
      "intelektu": 5362,
      "rezultatimaĠ": 5363,
      "kuÄĩaĠ": 5364,
      "realiz": 5365,
      "idejeĠ": 5366,
      "itali": 5367,
      "taÄįkeĠ": 5368,
      "OdgĠ": 5369,
      "hodĠ": 5370,
      "oseĠ": 5371,
      "pto": 5372,
      "socijalneĠ": 5373,
      "dobitiĠ": 5374,
      "postavljaĠ": 5375,
      "anijiĠ": 5376,
      "procenuĠ": 5377,
      "Kla": 5378,
      "MinistarstvaĠ": 5379,
      "populacijeĠ": 5380,
      "vaÄįĠ": 5381,
      "ljivihĠ": 5382,
      "tipi": 5383,
      "pravniĠ": 5384,
      "mreÅ¾": 5385,
      "stin": 5386,
      "kuÄĩiĠ": 5387,
      "Â±Ġ": 5388,
      "É¨Êģ": 5389,
      "rujuĠ": 5390,
      "javneĠ": 5391,
      "dogod": 5392,
      "saÄįu": 5393,
      "njihovimĠ": 5394,
      "rihĠ": 5395,
      "atmo": 5396,
      "porodicaĠ": 5397,
      "hap": 5398,
      "Å¾ivotinjaĠ": 5399,
      "tranzi": 5400,
      "likĠ": 5401,
      "ÉļÉ¤": 5402,
      "ljuba": 5403,
      "ukupnogĠ": 5404,
      "soli": 5405,
      "tvrd": 5406,
      "PSĠ": 5407,
      "odgovornostĠ": 5408,
      "ÄĩeneĠ": 5409,
      "stilaĠ": 5410,
      "baziĠ": 5411,
      "ovje": 5412,
      "strategijeĠ": 5413,
      "pul": 5414,
      "metabo": 5415,
      "zanim": 5416,
      "Sara": 5417,
      "sezoneĠ": 5418,
      "zahva": 5419,
      "jakĠ": 5420,
      "lon": 5421,
      "ovacĠ": 5422,
      "delovaĠ": 5423,
      "É¨É§": 5424,
      "autono": 5425,
      "Zla": 5426,
      "stamb": 5427,
      "OveĠ": 5428,
      "projekatĠ": 5429,
      "stranihĠ": 5430,
      "TO": 5431,
      "verovatno": 5432,
      "Äĳa": 5433,
      "tretmanaĠ": 5434,
      "povolj": 5435,
      "domaÄĩin": 5436,
      "MinistarstvoĠ": 5437,
      "naz": 5438,
      "zaÅ¡titiĠ": 5439,
      "1994Ġ": 5440,
      "Bran": 5441,
      "uspehĠ": 5442,
      "reklaĠ": 5443,
      "efikasnostiĠ": 5444,
      "ÉªÉŁÉ": 5445,
      "kance": 5446,
      "bes": 5447,
      "krajemĠ": 5448,
      "takveĠ": 5449,
      "vero": 5450,
      "teÅ¾eĠ": 5451,
      "slobodeĠ": 5452,
      "GoreĠ": 5453,
      "malo": 5454,
      "nastu": 5455,
      "feĠ": 5456,
      "ostalimĠ": 5457,
      "metraĠ": 5458,
      "temeĠ": 5459,
      "uobiÄįa": 5460,
      "Mer": 5461,
      "enzi": 5462,
      "tiÄįkihĠ": 5463,
      "pHĠ": 5464,
      "prikazĠ": 5465,
      "presu": 5466,
      "endo": 5467,
      "zel": 5468,
      "Å¡ÄĩaĠ": 5469,
      "prvihĠ": 5470,
      "uljaĠ": 5471,
      "dateĠ": 5472,
      "ljaoĠ": 5473,
      "ostalogĠ": 5474,
      "dolaraĠ": 5475,
      "igreĠ": 5476,
      "problemeĠ": 5477,
      "odgovori": 5478,
      "kogni": 5479,
      "Ov": 5480,
      "dubo": 5481,
      "struktur": 5482,
      "dogaÄĳa": 5483,
      "poreklaĠ": 5484,
      "decembraĠ": 5485,
      "simpto": 5486,
      "gogĠ": 5487,
      "ljivostiĠ": 5488,
      "pregledĠ": 5489,
      "Å¾a": 5490,
      "Bel": 5491,
      "novoĠ": 5492,
      "tipo": 5493,
      "skrip": 5494,
      "tionsĠ": 5495,
      "Pov": 5496,
      "É¢É¤": 5497,
      "kulturaĠ": 5498,
      "smanjujeĠ": 5499,
      "NSĠ": 5500,
      "kiselineĠ": 5501,
      "han": 5502,
      "julaĠ": 5503,
      "supru": 5504,
      "granicaĠ": 5505,
      "samomĠ": 5506,
      "pisa": 5507,
      "labora": 5508,
      "lim": 5509,
      "TA": 5510,
      "kategori": 5511,
      "diteĠ": 5512,
      "tujuĠ": 5513,
      "BrojĠ": 5514,
      "Hri": 5515,
      "deri": 5516,
      "ÄįenjuĠ": 5517,
      ".(Ġ": 5518,
      "hriÅ¡Äĩan": 5519,
      "zakonodav": 5520,
      "ctĠ": 5521,
      "rekeĠ": 5522,
      "viseĠ": 5523,
      "tehnologijaĠ": 5524,
      "kapi": 5525,
      "drÅ¾avneĠ": 5526,
      "test": 5527,
      "vanred": 5528,
      "pokrenu": 5529,
      "UzĠ": 5530,
      "naravnoĠ": 5531,
      "punoĠ": 5532,
      "ambi": 5533,
      "BI": 5534,
      "samostal": 5535,
      "konceptĠ": 5536,
      "Komi": 5537,
      "ispitivanjeĠ": 5538,
      "doktor": 5539,
      "januaraĠ": 5540,
      "Zem": 5541,
      "argu": 5542,
      "com": 5543,
      "retkoĠ": 5544,
      "geograf": 5545,
      "dÅ¾i": 5546,
      "rijar": 5547,
      "kalaĠ": 5548,
      "ljatiĠ": 5549,
      "naprav": 5550,
      "izjavioĠ": 5551,
      "funkcijiĠ": 5552,
      "ventu": 5553,
      "dnaĠ": 5554,
      "karakteraĠ": 5555,
      "CrneĠ": 5556,
      "SSĠ": 5557,
      "izbo": 5558,
      "ljudskihĠ": 5559,
      "radnogĠ": 5560,
      ".),Ġ": 5561,
      "telĠ": 5562,
      "mislimĠ": 5563,
      "traÅ¾iĠ": 5564,
      "grob": 5565,
      "Å¡tamp": 5566,
      "njihovomĠ": 5567,
      "lisĠ": 5568,
      "planuĠ": 5569,
      "ex": 5570,
      "SlĠ": 5571,
      "calĠ": 5572,
      "EÐ": 5573,
      "pogo": 5574,
      "Rado": 5575,
      "Cil": 5576,
      "dniĠ": 5577,
      "doÄĳeĠ": 5578,
      "sajtaĠ": 5579,
      "materijalĠ": 5580,
      "Å¡kiĠ": 5581,
      "rastvor": 5582,
      "odreÄĳi": 5583,
      "adap": 5584,
      "AnalizaĠ": 5585,
      "VladeĠ": 5586,
      "Har": 5587,
      "italijan": 5588,
      "homĠ": 5589,
      "tostĠ": 5590,
      "fakultetĠ": 5591,
      "sameĠ": 5592,
      "fabri": 5593,
      "Bugar": 5594,
      "kompeten": 5595,
      "linijeĠ": 5596,
      "duhov": 5597,
      "viÅ¡iĠ": 5598,
      "ukljuÄįujeĠ": 5599,
      "pesmeĠ": 5600,
      "osamĠ": 5601,
      "%),Ġ": 5602,
      "ER": 5603,
      "vremenoĠ": 5604,
      "ranimĠ": 5605,
      "Å¡ÄĩenĠ": 5606,
      "redu": 5607,
      "odlukuĠ": 5608,
      "odreÄĳujeĠ": 5609,
      "!!": 5610,
      "bele": 5611,
      "enijiĠ": 5612,
      "tskomĠ": 5613,
      "ograd": 5614,
      "zara": 5615,
      "liÄįneĠ": 5616,
      "infla": 5617,
      "dobiliĠ": 5618,
      "des": 5619,
      "IJEĠ": 5620,
      "beleĠ": 5621,
      "Stru": 5622,
      "prevo": 5623,
      "napravi": 5624,
      "nedeljeĠ": 5625,
      "bde": 5626,
      "ugroÅ¾": 5627,
      "snaguĠ": 5628,
      "daliĠ": 5629,
      "zajednicaĠ": 5630,
      "mladihĠ": 5631,
      "demokrat": 5632,
      "veÅ¾": 5633,
      "ile": 5634,
      "brojneĠ": 5635,
      "Vred": 5636,
      "zainteres": 5637,
      "pripove": 5638,
      "sataĠ": 5639,
      "ÉļÊģ": 5640,
      "redi": 5641,
      "priÄįa": 5642,
      "KosovaĠ": 5643,
      "uÄįeniciĠ": 5644,
      "memo": 5645,
      "vode": 5646,
      "policij": 5647,
      "definiÅ¡eĠ": 5648,
      "PoÅ¡toĠ": 5649,
      "pouzdan": 5650,
      "tivuĠ": 5651,
      "srpskihĠ": 5652,
      "brzineĠ": 5653,
      "radnjeĠ": 5654,
      "reali": 5655,
      "prevazi": 5656,
      "Poseb": 5657,
      "Polj": 5658,
      "mreÅ¾aĠ": 5659,
      "doÄĩiĠ": 5660,
      "sinĠ": 5661,
      "nastaviĠ": 5662,
      "sektoraĠ": 5663,
      "voza": 5664,
      "potrebnaĠ": 5665,
      "tropo": 5666,
      "osobineĠ": 5667,
      "tisĠ": 5668,
      "JovanoviÄĩĠ": 5669,
      "osnovniĠ": 5670,
      "Î½": 5671,
      "jeveĠ": 5672,
      "telef": 5673,
      "Tro": 5674,
      "taÄįnoĠ": 5675,
      "vrstuĠ": 5676,
      "tanjaĠ": 5677,
      "stvaranjeĠ": 5678,
      "biljakaĠ": 5679,
      "ovakoĠ": 5680,
      "moÄĩĠ": 5681,
      "âĢĶ,Ġ": 5682,
      "muÅ¡kara": 5683,
      "moz": 5684,
      "VIĠ": 5685,
      "Euro": 5686,
      "alkoho": 5687,
      "regionaĠ": 5688,
      "propu": 5689,
      "Skup": 5690,
      "poveÄĩanjaĠ": 5691,
      "alu": 5692,
      "izgraÄĳ": 5693,
      "istori": 5694,
      "strujeĠ": 5695,
      "tiÄįkaĠ": 5696,
      "avaliĠ": 5697,
      "institucijeĠ": 5698,
      "Å¡koliĠ": 5699,
      "pravnogĠ": 5700,
      "Nor": 5701,
      "Zagre": 5702,
      "juÅ¾": 5703,
      "ekonomi": 5704,
      "poslu": 5705,
      "mojeĠ": 5706,
      "bren": 5707,
      "konzu": 5708,
      "neposrednoĠ": 5709,
      "Brit": 5710,
      "manjuĠ": 5711,
      "prodajeĠ": 5712,
      "potencija": 5713,
      "Â»Ġ": 5714,
      "uskla": 5715,
      "tokĠ": 5716,
      "kiselinaĠ": 5717,
      "amĠ": 5718,
      "licen": 5719,
      "kombin": 5720,
      "We": 5721,
      "skr": 5722,
      "identitetaĠ": 5723,
      "osiguranjaĠ": 5724,
      "isporu": 5725,
      "govoruĠ": 5726,
      "englĠ": 5727,
      "lostĠ": 5728,
      "zaustav": 5729,
      "1993Ġ": 5730,
      "naÅ¡ihĠ": 5731,
      "osnovaĠ": 5732,
      "poznatĠ": 5733,
      "rimĠ": 5734,
      "uver": 5735,
      "Sred": 5736,
      "koliÄįinaĠ": 5737,
      "°É¢Êģ": 5738,
      "rodaĠ": 5739,
      "zijiĠ": 5740,
      "bomĠ": 5741,
      "Maj": 5742,
      "procenatĠ": 5743,
      "Car": 5744,
      "visokoĠ": 5745,
      "prvojĠ": 5746,
      "kupanĠ": 5747,
      "á¼": 5748,
      "pogreÅ¡": 5749,
      "edu": 5750,
      "ÏĤĠ": 5751,
      "bitnoĠ": 5752,
      "ograniÄįenjaĠ": 5753,
      "ceoĠ": 5754,
      "hiru": 5755,
      "vojneĠ": 5756,
      "metri": 5757,
      "prilagoÄĳ": 5758,
      "Mon": 5759,
      "oloÅ¡kiĠ": 5760,
      "olak": 5761,
      "Komenta": 5762,
      "hte": 5763,
      "deÅ¡": 5764,
      "urban": 5765,
      "Sli": 5766,
      "Zapad": 5767,
      "novembraĠ": 5768,
      "putuĠ": 5769,
      "unijeĠ": 5770,
      "GrafikonĠ": 5771,
      "sliÄįnoĠ": 5772,
      "literaturiĠ": 5773,
      "rezu": 5774,
      "pravcuĠ": 5775,
      "pritiskaĠ": 5776,
      "ministar": 5777,
      "uÄįenjeĠ": 5778,
      "nastajeĠ": 5779,
      "naÄĩiĠ": 5780,
      "rokĠ": 5781,
      "serĠ": 5782,
      "upi": 5783,
      "Ïģ": 5784,
      "Ã«": 5785,
      "LJ": 5786,
      "dobilaĠ": 5787,
      "povla": 5788,
      "Alb": 5789,
      "onogĠ": 5790,
      "NikolaĠ": 5791,
      "velikojĠ": 5792,
      "delovanjaĠ": 5793,
      "linijaĠ": 5794,
      "Laza": 5795,
      "faktoriĠ": 5796,
      "akcijaĠ": 5797,
      "legi": 5798,
      "Direk": 5799,
      "strateÅ¡": 5800,
      "homo": 5801,
      "nijuĠ": 5802,
      "JoÅ¡Ġ": 5803,
      "okĠ": 5804,
      "vita": 5805,
      "Åłi": 5806,
      "policijeĠ": 5807,
      "buduÄĩnostiĠ": 5808,
      "teljimaĠ": 5809,
      "ÄįeviÄĩĠ": 5810,
      "kanĠ": 5811,
      "Aut": 5812,
      "loguĠ": 5813,
      "obole": 5814,
      "saradnjeĠ": 5815,
      "proizvodeĠ": 5816,
      "svestiĠ": 5817,
      "stogĠ": 5818,
      "kretanjeĠ": 5819,
      "ÄĩinaĠ": 5820,
      "smanjenjaĠ": 5821,
      "avgustaĠ": 5822,
      "veÄĩegĠ": 5823,
      "metaĠ": 5824,
      "diÄĩĠ": 5825,
      "SDĠ": 5826,
      "Utica": 5827,
      "dalaĠ": 5828,
      "zre": 5829,
      "RusijaĠ": 5830,
      "Kor": 5831,
      "pozicijaĠ": 5832,
      "Ñķ": 5833,
      "SAN": 5834,
      "Å¡eviÄĩĠ": 5835,
      "hori": 5836,
      "stero": 5837,
      "osnoviĠ": 5838,
      "efikasnostĠ": 5839,
      "PrvaĠ": 5840,
      "postalaĠ": 5841,
      "janjemĠ": 5842,
      "dobijeniĠ": 5843,
      "Sever": 5844,
      "vekĠ": 5845,
      "Ã¥Ġ": 5846,
      "zakoni": 5847,
      ".âĢĿĠ": 5848,
      "doprinosĠ": 5849,
      "stavoveĠ": 5850,
      "lusĠ": 5851,
      "ck": 5852,
      "inostran": 5853,
      "ldĠ": 5854,
      "mentimaĠ": 5855,
      "Å¾eleĠ": 5856,
      "ralnogĠ": 5857,
      "izola": 5858,
      "onimĠ": 5859,
      "nano": 5860,
      "dije": 5861,
      "dinĠ": 5862,
      "donĠ": 5863,
      "400Ġ": 5864,
      "utic": 5865,
      "standardaĠ": 5866,
      "real": 5867,
      "as": 5868,
      "ingaĠ": 5869,
      "likomĠ": 5870,
      "anomĠ": 5871,
      "vakc": 5872,
      "univer": 5873,
      "deÄĩiĠ": 5874,
      "utĠ": 5875,
      "Î¹": 5876,
      "trak": 5877,
      "koviÄĩaĠ": 5878,
      "letaĠ": 5879,
      "cionimĠ": 5880,
      "oÅ¡t": 5881,
      "kamp": 5882,
      "imovineĠ": 5883,
      "davnoĠ": 5884,
      "razlikujuĠ": 5885,
      "tehnikeĠ": 5886,
      "rasteĠ": 5887,
      "nasl": 5888,
      "poljuĠ": 5889,
      "odigra": 5890,
      "idaĠ": 5891,
      "disertacijeĠ": 5892,
      "SaduĠ": 5893,
      "oÄįekujeĠ": 5894,
      "odreÄĳivanjeĠ": 5895,
      "veniĠ": 5896,
      "teorijaĠ": 5897,
      "hin": 5898,
      "sekven": 5899,
      "nasiljaĠ": 5900,
      "kapacitetaĠ": 5901,
      "modeluĠ": 5902,
      "smeĠ": 5903,
      "podrÅ¡keĠ": 5904,
      "seluĠ": 5905,
      "enijaĠ": 5906,
      ".âĢĵĠ": 5907,
      "ure": 5908,
      "promo": 5909,
      "zahvaljujuÄĩiĠ": 5910,
      "Ist": 5911,
      "priprem": 5912,
      "SO": 5913,
      "150Ġ": 5914,
      "danaÅ¡": 5915,
      "usvo": 5916,
      "morĠ": 5917,
      "ÄįasovaĠ": 5918,
      "EÐİ": 5919,
      "potpi": 5920,
      "Para": 5921,
      "objaÅ¡njavaĠ": 5922,
      "ratuĠ": 5923,
      "obaveÅ¡t": 5924,
      "okolnostiĠ": 5925,
      "savet": 5926,
      "gradiĠ": 5927,
      "Slobod": 5928,
      "riÄĩĠ": 5929,
      "stvaraĠ": 5930,
      "asi": 5931,
      "poÄįetakĠ": 5932,
      "citaĠ": 5933,
      "jeraĠ": 5934,
      "pravneĠ": 5935,
      "usmer": 5936,
      "sja": 5937,
      "ospo": 5938,
      "sal": 5939,
      "upit": 5940,
      "vetaĠ": 5941,
      "korpu": 5942,
      "idĠ": 5943,
      "odreÄĳenaĠ": 5944,
      "stiteĠ": 5945,
      "trajanjaĠ": 5946,
      "kacijeĠ": 5947,
      "É¨É¦Ġ": 5948,
      "pub": 5949,
      "subĠ": 5950,
      "pripadajuĠ": 5951,
      "njenihĠ": 5952,
      "raditiĠ": 5953,
      "jesuĠ": 5954,
      "DPĠ": 5955,
      "zitiĠ": 5956,
      "glednoĠ": 5957,
      "uticajemĠ": 5958,
      "ulogeĠ": 5959,
      "Äįitav": 5960,
      "desĠ": 5961,
      "jednostavnoĠ": 5962,
      "pritisakĠ": 5963,
      "delujeĠ": 5964,
      "parale": 5965,
      "sekundar": 5966,
      "ispla": 5967,
      "otpo": 5968,
      "vostiĠ": 5969,
      "razumevanjeĠ": 5970,
      "zbir": 5971,
      "Bor": 5972,
      "meÄĳusobnoĠ": 5973,
      "nalĠ": 5974,
      "zakljuÄį": 5975,
      "Å¡koluĠ": 5976,
      "putovanjaĠ": 5977,
      "izanjeĠ": 5978,
      "socio": 5979,
      "fakultetaĠ": 5980,
      "zane": 5981,
      "IzvorĠ": 5982,
      "ÄįlanoviĠ": 5983,
      "ponekadĠ": 5984,
      "Ukup": 5985,
      "MaÄĳar": 5986,
      "klaseĠ": 5987,
      "ÄĳĠ": 5988,
      "itĠ": 5989,
      "timoĠ": 5990,
      "odreÄĳenimĠ": 5991,
      "Ter": 5992,
      "dimenzijaĠ": 5993,
      "staraĠ": 5994,
      "bojaĠ": 5995,
      "vodo": 5996,
      "titu": 5997,
      "arajuĠ": 5998,
      "postojanjaĠ": 5999,
      "bliziniĠ": 6000,
      "ustanov": 6001,
      "ctionĠ": 6002,
      "top": 6003,
      "robeĠ": 6004,
      "internetĠ": 6005,
      "predlogĠ": 6006,
      "poznatoĠ": 6007,
      "eventu": 6008,
      "tvrdiĠ": 6009,
      "sumnji": 6010,
      "ukljuÄįi": 6011,
      "tiÄįkogĠ": 6012,
      "terapijeĠ": 6013,
      "UticajĠ": 6014,
      "Vis": 6015,
      "konf": 6016,
      "zadrÅ¾": 6017,
      "tenden": 6018,
      "pake": 6019,
      "dif": 6020,
      "ÄįlĠ": 6021,
      "pome": 6022,
      "virusaĠ": 6023,
      "znajuĠ": 6024,
      "vaj": 6025,
      "stanovi": 6026,
      "deraĠ": 6027,
      "akcijeĠ": 6028,
      "istorijiĠ": 6029,
      "pokretaĠ": 6030,
      "kali": 6031,
      "filmaĠ": 6032,
      "organizacijiĠ": 6033,
      "Hr": 6034,
      "jednakoĠ": 6035,
      "Mis": 6036,
      "prosve": 6037,
      "stogaĠ": 6038,
      "STĠ": 6039,
      "regionuĠ": 6040,
      "najznaÄįaj": 6041,
      "posla": 6042,
      "fikacijuĠ": 6043,
      "siÄĩĠ": 6044,
      "iste": 6045,
      "zimoĠ": 6046,
      "motiva": 6047,
      "................................": 6048,
      "religi": 6049,
      "ljenimĠ": 6050,
      "govo": 6051,
      "Ap": 6052,
      "IZ": 6053,
      "rukeĠ": 6054,
      "Bla": 6055,
      "jkeĠ": 6056,
      "Ot": 6057,
      "napre": 6058,
      "povodomĠ": 6059,
      "SluÅ¾beniĠ": 6060,
      "povr": 6061,
      "ÄįinjeniceĠ": 6062,
      "Oli": 6063,
      "ato": 6064,
      "Äįeka": 6065,
      "brojemĠ": 6066,
      "saradnjuĠ": 6067,
      "direktorĠ": 6068,
      "Ïĥ": 6069,
      "ponav": 6070,
      "tretira": 6071,
      "Gu": 6072,
      "metodomĠ": 6073,
      "SL": 6074,
      "ÉŁÉ¤": 6075,
      "SRĠ": 6076,
      "zadĠ": 6077,
      "centruĠ": 6078,
      "visokeĠ": 6079,
      "politikuĠ": 6080,
      "É«ÉŁĠ": 6081,
      "lingvi": 6082,
      "ministarĠ": 6083,
      "Stef": 6084,
      "lizacijiĠ": 6085,
      "ljenogĠ": 6086,
      "svojomĠ": 6087,
      "porodiciĠ": 6088,
      "oslobo": 6089,
      "najpreĠ": 6090,
      "Crk": 6091,
      "poslednjeĠ": 6092,
      "VA": 6093,
      "dio": 6094,
      "stab": 6095,
      "turuĠ": 6096,
      "potencijalĠ": 6097,
      "Nov": 6098,
      "ÄĩomĠ": 6099,
      "Å¾iv": 6100,
      "BE": 6101,
      "Dobi": 6102,
      "zgradeĠ": 6103,
      "radio": 6104,
      "isla": 6105,
      "studijiĠ": 6106,
      "ÄĳenihĠ": 6107,
      "planaĠ": 6108,
      "odnosimaĠ": 6109,
      "Äīe": 6110,
      "vanoĠ": 6111,
      "albu": 6112,
      "mun": 6113,
      "karcin": 6114,
      "elementiĠ": 6115,
      "MilanĠ": 6116,
      "velikomĠ": 6117,
      "NoĠ": 6118,
      "masov": 6119,
      "usme": 6120,
      "Doda": 6121,
      "koristĠ": 6122,
      "prvenstvenoĠ": 6123,
      "É¢É¥": 6124,
      "starostiĠ": 6125,
      "ralnihĠ": 6126,
      "industri": 6127,
      "priori": 6128,
      "prihvatlji": 6129,
      "kategorijaĠ": 6130,
      "operacijeĠ": 6131,
      "temperaturaĠ": 6132,
      "bezbednostĠ": 6133,
      "imaloĠ": 6134,
      "studenataĠ": 6135,
      "Duna": 6136,
      "kinjaĠ": 6137,
      "Îº": 6138,
      "veÄįe": 6139,
      "mnogimĠ": 6140,
      "frekven": 6141,
      "voÄĳenjaĠ": 6142,
      "Kru": 6143,
      "takvaĠ": 6144,
      "chi": 6145,
      "oÅ¡teÄĩenjaĠ": 6146,
      "1989Ġ": 6147,
      "primi": 6148,
      "bilnostĠ": 6149,
      "cro": 6150,
      "moderni": 6151,
      "Î½Ġ": 6152,
      "kliĠ": 6153,
      "prodav": 6154,
      "aspektaĠ": 6155,
      "saopÅ¡ti": 6156,
      "papi": 6157,
      "izraz": 6158,
      "bisteĠ": 6159,
      "TuĠ": 6160,
      "visokĠ": 6161,
      "vojskeĠ": 6162,
      "videĠ": 6163,
      "racĠ": 6164,
      "finansijskihĠ": 6165,
      "uklo": 6166,
      "Åła": 6167,
      "niÄįkihĠ": 6168,
      "Is": 6169,
      "zg": 6170,
      "gleĠ": 6171,
      "BioĠ": 6172,
      "ranuĠ": 6173,
      "loÅ¡kaĠ": 6174,
      "preven": 6175,
      "nioĠ": 6176,
      "Fin": 6177,
      "ljiviĠ": 6178,
      "Å¡tam": 6179,
      "situacijiĠ": 6180,
      "formiranjeĠ": 6181,
      "pajuĠ": 6182,
      "filozofi": 6183,
      "Er": 6184,
      "CI": 6185,
      "ekstre": 6186,
      "uda": 6187,
      "ligen": 6188,
      "opremeĠ": 6189,
      "til": 6190,
      "NaravnoĠ": 6191,
      "Å¾emoĠ": 6192,
      "prikazanĠ": 6193,
      "depre": 6194,
      "dvoj": 6195,
      "napadaĠ": 6196,
      "ÄįesticaĠ": 6197,
      "Balkan": 6198,
      "zal": 6199,
      "tovaĠ": 6200,
      "ftĠ": 6201,
      "ologijeĠ": 6202,
      "svojstvaĠ": 6203,
      "oznaÄįavaĠ": 6204,
      "kol": 6205,
      "noÄĩiĠ": 6206,
      "eviden": 6207,
      "srediniĠ": 6208,
      "smanji": 6209,
      "rija": 6210,
      "sasto": 6211,
      "suge": 6212,
      "nismoĠ": 6213,
      "sciĠ": 6214,
      "PoÄįe": 6215,
      "zavrÅ¡e": 6216,
      "Ã¨Ġ": 6217,
      "Pret": 6218,
      "valĠ": 6219,
      "stvujuĠ": 6220,
      "feraĠ": 6221,
      "Ovak": 6222,
      "demĠ": 6223,
      "ol": 6224,
      "lakÅ¡eĠ": 6225,
      "uku": 6226,
      "ostalaĠ": 6227,
      "duÅ¾ineĠ": 6228,
      "rezul": 6229,
      "uniÅ¡t": 6230,
      "spira": 6231,
      "sje": 6232,
      "ÄįinaĠ": 6233,
      "signalaĠ": 6234,
      "primeraĠ": 6235,
      "analiziĠ": 6236,
      "poglavljuĠ": 6237,
      "konstru": 6238,
      "slaĠ": 6239,
      "krizeĠ": 6240,
      "vostĠ": 6241,
      "osobinaĠ": 6242,
      "taÄįkaĠ": 6243,
      "srednj": 6244,
      "vaÅ¾anĠ": 6245,
      "jenuĠ": 6246,
      "zvu": 6247,
      "prenosiĠ": 6248,
      "grupamaĠ": 6249,
      "dostig": 6250,
      "konaÄį": 6251,
      "iznena": 6252,
      "stopaĠ": 6253,
      "stiÄįkimĠ": 6254,
      "stavljaĠ": 6255,
      "duÅ¾eĠ": 6256,
      "formaĠ": 6257,
      "stvaranjaĠ": 6258,
      "DNKĠ": 6259,
      "pisanaĠ": 6260,
      "rajuÄĩiĠ": 6261,
      "onogaĠ": 6262,
      "ishra": 6263,
      "edĠ": 6264,
      "uga": 6265,
      "LAĠ": 6266,
      "beograd": 6267,
      "SEĠ": 6268,
      "pravomĠ": 6269,
      "konstrukcijeĠ": 6270,
      "nesre": 6271,
      "dugoro": 6272,
      "stvori": 6273,
      "jednimĠ": 6274,
      "ÄĳiĠ": 6275,
      "nazivomĠ": 6276,
      "laÅ¾": 6277,
      "oprede": 6278,
      "ÉŀÉļĠ": 6279,
      "pam": 6280,
      "upotrebiĠ": 6281,
      "apara": 6282,
      "kaÅ¾uĠ": 6283,
      "Com": 6284,
      "umi": 6285,
      "istakaoĠ": 6286,
      "masaĠ": 6287,
      "Äĩu": 6288,
      "vobi": 6289,
      "istimĠ": 6290,
      "matematiÄį": 6291,
      "rar": 6292,
      "mehaniz": 6293,
      "izni": 6294,
      "karakterĠ": 6295,
      "coĠ": 6296,
      "metalaĠ": 6297,
      "projekataĠ": 6298,
      "preciz": 6299,
      "proÅ¡lostiĠ": 6300,
      "niÅ¡tvaĠ": 6301,
      "vizuel": 6302,
      "div": 6303,
      "bezbedno": 6304,
      "Agen": 6305,
      "Pari": 6306,
      "greÅ¡keĠ": 6307,
      "sluÄįajaĠ": 6308,
      "starij": 6309,
      "percep": 6310,
      "manifesta": 6311,
      "problemiĠ": 6312,
      "aruĠ": 6313,
      "vuÄį": 6314,
      "kriterijumaĠ": 6315,
      "juÄĩihĠ": 6316,
      "interv": 6317,
      "atmosfer": 6318,
      "jamĠ": 6319,
      "zasnivaĠ": 6320,
      "JednaĠ": 6321,
      "Ustav": 6322,
      "poljeĠ": 6323,
      "tokaĠ": 6324,
      "posedujeĠ": 6325,
      "obradeĠ": 6326,
      "DoktorskaĠ": 6327,
      "VojvodineĠ": 6328,
      "publiÄį": 6329,
      "PE": 6330,
      "otacĠ": 6331,
      "vrh": 6332,
      "binaĠ": 6333,
      "Mode": 6334,
      "medic": 6335,
      "strategijaĠ": 6336,
      "konsta": 6337,
      "doprinosiĠ": 6338,
      "Mal": 6339,
      "VladaĠ": 6340,
      "emĠ": 6341,
      "drÅ¾aviĠ": 6342,
      "eteĠ": 6343,
      "ÉŁÉ¬": 6344,
      "ogledaĠ": 6345,
      "stikaĠ": 6346,
      "tetiĠ": 6347,
      "Å¡tenĠ": 6348,
      "soci": 6349,
      "ab": 6350,
      "znakĠ": 6351,
      "DSĠ": 6352,
      "nikadĠ": 6353,
      "utvrÄĳenoĠ": 6354,
      "lesĠ": 6355,
      "naÅ¡uĠ": 6356,
      "taj": 6357,
      "paro": 6358,
      "obolj": 6359,
      "povrÅ¡iniĠ": 6360,
      "É¢É±": 6361,
      "sper": 6362,
      "festi": 6363,
      "odrÅ¾avanjeĠ": 6364,
      "UNĠ": 6365,
      "potroÅ¡aÄįaĠ": 6366,
      "analizomĠ": 6367,
      "zapoÅ¡": 6368,
      "tabelaĠ": 6369,
      "jenomĠ": 6370,
      "odrÅ¾ivo": 6371,
      "odboraĠ": 6372,
      "dovestiĠ": 6373,
      "Kara": 6374,
      "korup": 6375,
      "predstavlj": 6376,
      "cre": 6377,
      "(''Ġ": 6378,
      "veÄĩemĠ": 6379,
      "doÅ¡aoĠ": 6380,
      "OvdeĠ": 6381,
      "Fili": 6382,
      "radneĠ": 6383,
      "trajeĠ": 6384,
      "sastavĠ": 6385,
      "kacijaĠ": 6386,
      "Å¡tvuĠ": 6387,
      "NOĠ": 6388,
      "BO": 6389,
      "regre": 6390,
      "istraÅ¾ivanjimaĠ": 6391,
      "primenjujeĠ": 6392,
      "mskomĠ": 6393,
      "Gla": 6394,
      "VasĠ": 6395,
      "istaknu": 6396,
      "stina": 6397,
      "hval": 6398,
      "majkaĠ": 6399,
      "Mitr": 6400,
      "Org": 6401,
      "jskojĠ": 6402,
      "snabde": 6403,
      "napisaoĠ": 6404,
      "smeÅ¡ta": 6405,
      "naf": 6406,
      "ÄĩojĠ": 6407,
      "naÅ¡imĠ": 6408,
      "pravnoĠ": 6409,
      "laborato": 6410,
      "pje": 6411,
      "kovanaĠ": 6412,
      "shodnoĠ": 6413,
      "patrijar": 6414,
      "nacionalnihĠ": 6415,
      "kompleksaĠ": 6416,
      "pokazaoĠ": 6417,
      "ostvarujeĠ": 6418,
      "É¨ÉĽ": 6419,
      "metarĠ": 6420,
      "CA": 6421,
      "lega": 6422,
      "obavljaĠ": 6423,
      "m2Ġ": 6424,
      "sy": 6425,
      "ovanimĠ": 6426,
      "vremenomĠ": 6427,
      "AleksandraĠ": 6428,
      "okruÅ¾enjuĠ": 6429,
      "uÅ¡": 6430,
      "zali": 6431,
      "gal": 6432,
      "komentari": 6433,
      "stajeĠ": 6434,
      "britan": 6435,
      "SF": 6436,
      "odgovarajuÄĩeĠ": 6437,
      "strukturiĠ": 6438,
      "mbo": 6439,
      "mozeĠ": 6440,
      "Ã§": 6441,
      "radomĠ": 6442,
      "pokraj": 6443,
      "Nji": 6444,
      "taoĠ": 6445,
      "danjeĠ": 6446,
      "ÄĳenjuĠ": 6447,
      "tehnikaĠ": 6448,
      "iziĠ": 6449,
      "ljubi": 6450,
      "kiÄĩĠ": 6451,
      "KosovoĠ": 6452,
      "otpor": 6453,
      "novomĠ": 6454,
      "izrazĠ": 6455,
      "stiÄĩĠ": 6456,
      "okvirĠ": 6457,
      "liÄįniĠ": 6458,
      "cionar": 6459,
      "kakveĠ": 6460,
      "steÄĩiĠ": 6461,
      "radiliĠ": 6462,
      "uzetiĠ": 6463,
      "PD": 6464,
      "larneĠ": 6465,
      "vinaĠ": 6466,
      "ranomĠ": 6467,
      "inskimĠ": 6468,
      "prirodiĠ": 6469,
      "lekse": 6470,
      "RT": 6471,
      "OVI": 6472,
      "otpadaĠ": 6473,
      "cilj": 6474,
      "temuĠ": 6475,
      "prednostiĠ": 6476,
      "pet": 6477,
      "turizmaĠ": 6478,
      "ralĠ": 6479,
      "ïģ": 6480,
      "suoÄį": 6481,
      "vebĠ": 6482,
      "deÅ¡avaĠ": 6483,
      "DrugogĠ": 6484,
      "kana": 6485,
      "optimi": 6486,
      "inaÄįeĠ": 6487,
      "kama": 6488,
      "osloba": 6489,
      "nogor": 6490,
      "dobreĠ": 6491,
      "Nova": 6492,
      "anakaĠ": 6493,
      "IstoĠ": 6494,
      "vri": 6495,
      "dnogĠ": 6496,
      "saradnjiĠ": 6497,
      "naÅ¡aĠ": 6498,
      "NekiĠ": 6499,
      "avacĠ": 6500,
      "norma": 6501,
      "byĠ": 6502,
      "drugaÄįijeĠ": 6503,
      "hijeĠ": 6504,
      "1941Ġ": 6505,
      "interne": 6506,
      "fron": 6507,
      "Éĭ": 6508,
      "varaĠ": 6509,
      "ela": 6510,
      "povezanostĠ": 6511,
      "DuÅ¡": 6512,
      "osnovnaĠ": 6513,
      "Tran": 6514,
      "ÄįenaĠ": 6515,
      "slikuĠ": 6516,
      "prikazanaĠ": 6517,
      "ovogaĠ": 6518,
      "120Ġ": 6519,
      "Å¡timaĠ": 6520,
      "hy": 6521,
      "ube": 6522,
      "Kragu": 6523,
      "moÅ£eĠ": 6524,
      "prilogĠ": 6525,
      "poni": 6526,
      "don": 6527,
      "paoĠ": 6528,
      "pomoÄĩ": 6529,
      "komentarĠ": 6530,
      "MEN": 6531,
      "ÄįnikĠ": 6532,
      "VladimirĠ": 6533,
      "makro": 6534,
      "soraĠ": 6535,
      "lsĠ": 6536,
      "odstup": 6537,
      "februaraĠ": 6538,
      "rastuĠ": 6539,
      "inÅ¾en": 6540,
      "invali": 6541,
      "PostojiĠ": 6542,
      "Ã¾": 6543,
      "É¢É¦Ġ": 6544,
      "reda": 6545,
      "pero": 6546,
      "uspehaĠ": 6547,
      "trÅ¾iÅ¡teĠ": 6548,
      "supĠ": 6549,
      "DA": 6550,
      "protek": 6551,
      "potroÅ¡": 6552,
      "kontrolaĠ": 6553,
      "ljubavĠ": 6554,
      "sajtuĠ": 6555,
      "rijskiĠ": 6556,
      "nastankaĠ": 6557,
      "korek": 6558,
      "sluÅ¾beĠ": 6559,
      "visineĠ": 6560,
      "poznataĠ": 6561,
      "veliÄįinaĠ": 6562,
      "Rob": 6563,
      "EÑķ": 6564,
      "odredbeĠ": 6565,
      "imaleĠ": 6566,
      "ljubaviĠ": 6567,
      "Mosk": 6568,
      "²É¬": 6569,
      "vek": 6570,
      "ciklusaĠ": 6571,
      "of": 6572,
      "graÄĳaniĠ": 6573,
      "pojmaĠ": 6574,
      "primeniĠ": 6575,
      "ukupneĠ": 6576,
      "Å¡tiniĠ": 6577,
      "naciona": 6578,
      "cenuĠ": 6579,
      "ÄįlanicaĠ": 6580,
      "Dimi": 6581,
      "Ujedin": 6582,
      "svimaĠ": 6583,
      "razlikujeĠ": 6584,
      "televizi": 6585,
      "delovimaĠ": 6586,
      "É§ÉļÉ": 6587,
      "sobomĠ": 6588,
      "predla": 6589,
      "situacijamaĠ": 6590,
      "promenuĠ": 6591,
      "kreÄĩeĠ": 6592,
      "tim": 6593,
      "gimĠ": 6594,
      "kapita": 6595,
      "CiljĠ": 6596,
      "izol": 6597,
      "srpskaĠ": 6598,
      "diskur": 6599,
      "Å¡teteĠ": 6600,
      "situacijuĠ": 6601,
      "ricaĠ": 6602,
      "kazneĠ": 6603,
      "VelikiĠ": 6604,
      "okre": 6605,
      "uÄįesnikaĠ": 6606,
      "penzi": 6607,
      "Ad": 6608,
      "potrebuĠ": 6609,
      "palaĠ": 6610,
      "sh": 6611,
      "stvarala": 6612,
      "Grad": 6613,
      "BAĠ": 6614,
      "frag": 6615,
      "ÄįujuĠ": 6616,
      "izgle": 6617,
      "borbiĠ": 6618,
      "poloÅ¾ajaĠ": 6619,
      "svemuĠ": 6620,
      "privla": 6621,
      "NIĠ": 6622,
      "horizon": 6623,
      "Gre": 6624,
      "prihodaĠ": 6625,
      "eraĠ": 6626,
      "moguÄĩiĠ": 6627,
      "PAĠ": 6628,
      "listĠ": 6629,
      "dobijajuĠ": 6630,
      "tetimaĠ": 6631,
      "predik": 6632,
      "slediĠ": 6633,
      "vijeĠ": 6634,
      "izgledĠ": 6635,
      "sujuĠ": 6636,
      "deter": 6637,
      "iznosĠ": 6638,
      "smer": 6639,
      "sredstvoĠ": 6640,
      "antropo": 6641,
      "niÄįkaĠ": 6642,
      "delimiÄįnoĠ": 6643,
      "rezi": 6644,
      "Pravil": 6645,
      "korpora": 6646,
      "snojĠ": 6647,
      "prirodnihĠ": 6648,
      "republi": 6649,
      "1988Ġ": 6650,
      "skupaĠ": 6651,
      "kovanjaĠ": 6652,
      "Mir": 6653,
      "Äīa": 6654,
      "generacijeĠ": 6655,
      "opÅ¡tinaĠ": 6656,
      "ologijaĠ": 6657,
      "slavaĠ": 6658,
      "veÄĩimĠ": 6659,
      "ografijaĠ": 6660,
      "nacijaĠ": 6661,
      "taÄį": 6662,
      "objekatĠ": 6663,
      "reakcijaĠ": 6664,
      "konkret": 6665,
      "uklan": 6666,
      "njeniĠ": 6667,
      "bilnostiĠ": 6668,
      "cusĠ": 6669,
      "ispitivanihĠ": 6670,
      "loÅ¡eĠ": 6671,
      "borbeĠ": 6672,
      "automob": 6673,
      "ljavanjeĠ": 6674,
      "ÉŁÉ¥": 6675,
      "UpravoĠ": 6676,
      "tivnojĠ": 6677,
      "valua": 6678,
      "ir": 6679,
      "gasaĠ": 6680,
      "âĢ¦âĢ¦": 6681,
      "osigura": 6682,
      "savre": 6683,
      "nijegĠ": 6684,
      "poslovnihĠ": 6685,
      "Ok": 6686,
      "umaĠ": 6687,
      "usvoj": 6688,
      "plaz": 6689,
      "ljakĠ": 6690,
      "mskimĠ": 6691,
      "upĠ": 6692,
      "druÅ¡tvenimĠ": 6693,
      "jelaĠ": 6694,
      "steri": 6695,
      "dolazeĠ": 6696,
      "stabi": 6697,
      "NovogĠ": 6698,
      "teljeĠ": 6699,
      "nat": 6700,
      "principaĠ": 6701,
      "plav": 6702,
      "terminĠ": 6703,
      "Subo": 6704,
      "povredeĠ": 6705,
      "PetroviÄĩĠ": 6706,
      "anke": 6707,
      "uman": 6708,
      "istorijuĠ": 6709,
      "pojedinimĠ": 6710,
      "httpsĠ": 6711,
      "1980Ġ": 6712,
      "stabilnostĠ": 6713,
      "tenĠ": 6714,
      "nuklear": 6715,
      "udÅ¾b": 6716,
      "Engle": 6717,
      "ÄįiceĠ": 6718,
      "pride": 6719,
      "prilikuĠ": 6720,
      "pravnihĠ": 6721,
      "prekr": 6722,
      "verti": 6723,
      "glasaĠ": 6724,
      "ekvi": 6725,
      "odreÄĳenĠ": 6726,
      "smrtĠ": 6727,
      "reflek": 6728,
      "uprkosĠ": 6729,
      "htĠ": 6730,
      "kovanjeĠ": 6731,
      "teritorijeĠ": 6732,
      "javniĠ": 6733,
      "josĠ": 6734,
      "profesorĠ": 6735,
      "srod": 6736,
      "ugl": 6737,
      "oblastimaĠ": 6738,
      "Odlu": 6739,
      "prednostĠ": 6740,
      "vaÅ¾iĠ": 6741,
      "svoje": 6742,
      "menteĠ": 6743,
      "MeÄĳuĠ": 6744,
      "troÅ¡koveĠ": 6745,
      "Â«Ġ": 6746,
      "zameni": 6747,
      "destina": 6748,
      "BezĠ": 6749,
      "uslovĠ": 6750,
      "SvetogĠ": 6751,
      "sistemiĠ": 6752,
      "poslovneĠ": 6753,
      "zaposleniĠ": 6754,
      "priliÄįnoĠ": 6755,
      "krimina": 6756,
      "JuÅ¾": 6757,
      "vecĠ": 6758,
      "bijeĠ": 6759,
      "muzikeĠ": 6760,
      "matraĠ": 6761,
      "ÄįnikaĠ": 6762,
      "frak": 6763,
      "tatiĠ": 6764,
      "izveÅ¡tajaĠ": 6765,
      "finansijskeĠ": 6766,
      "saradniciĠ": 6767,
      "nedelj": 6768,
      "inteligen": 6769,
      "daloĠ": 6770,
      "KosovuĠ": 6771,
      "metodĠ": 6772,
      "Indi": 6773,
      "drÅ¾avnihĠ": 6774,
      "Å¡ev": 6775,
      "ukra": 6776,
      "ken": 6777,
      "mestimaĠ": 6778,
      "sistemimaĠ": 6779,
      "use": 6780,
      "TadaĠ": 6781,
      "Kro": 6782,
      "druÅ¡tvenoĠ": 6783,
      "cir": 6784,
      "jugo": 6785,
      "tadaÅ¡": 6786,
      "mali": 6787,
      "prilikeĠ": 6788,
      "Poda": 6789,
      "odvijaĠ": 6790,
      "vladav": 6791,
      "modu": 6792,
      "wor": 6793,
      "Å¾elez": 6794,
      "saobraÄĩajaĠ": 6795,
      "aktiva": 6796,
      "racional": 6797,
      "gove": 6798,
      "ostaoĠ": 6799,
      "troÅ¡koviĠ": 6800,
      "Sin": 6801,
      "vaÅ¡eĠ": 6802,
      "Napo": 6803,
      "trenu": 6804,
      "ÄįiÅ¡Äĩ": 6805,
      "koÅ¾eĠ": 6806,
      "interakcijeĠ": 6807,
      "cha": 6808,
      "TrebaĠ": 6809,
      "merenjeĠ": 6810,
      "odreÄĳenogĠ": 6811,
      "Nave": 6812,
      "godiÅ¡njiĠ": 6813,
      "okruÅ¾enjaĠ": 6814,
      "CD": 6815,
      "PRI": 6816,
      "izvanĠ": 6817,
      "Î»": 6818,
      "obezbeÄĳujeĠ": 6819,
      "Åłp": 6820,
      "ocimaĠ": 6821,
      "mbruĠ": 6822,
      "alnuĠ": 6823,
      "brzinaĠ": 6824,
      "inoĠ": 6825,
      "TEĠ": 6826,
      "poro": 6827,
      "mem": 6828,
      "PredsednikĠ": 6829,
      "Sko": 6830,
      "FotoĠ": 6831,
      "SANUĠ": 6832,
      "ocuĠ": 6833,
      "zaÅ¡titaĠ": 6834,
      "otvori": 6835,
      "ViÅ¡eĠ": 6836,
      "denoĠ": 6837,
      "aktivnostimaĠ": 6838,
      "Å¾avaĠ": 6839,
      "urb": 6840,
      "njakaĠ": 6841,
      "izveÅ¡t": 6842,
      "bira": 6843,
      "potencij": 6844,
      "novr": 6845,
      "vakĠ": 6846,
      "loÅ¡kimĠ": 6847,
      "celeĠ": 6848,
      "podrÅ¾": 6849,
      "pijeĠ": 6850,
      "musli": 6851,
      "CAĠ": 6852,
      "âĢ¡Ġ": 6853,
      "koriÅ¡ÄĩenĠ": 6854,
      "PrilikomĠ": 6855,
      "lokalnihĠ": 6856,
      "inflama": 6857,
      "inspek": 6858,
      "cionoĠ": 6859,
      "KoĠ": 6860,
      "gradovaĠ": 6861,
      "raznihĠ": 6862,
      "Å¡ampi": 6863,
      "rukuĠ": 6864,
      "viceĠ": 6865,
      "glasĠ": 6866,
      "stopeĠ": 6867,
      "nedostatakĠ": 6868,
      "smo": 6869,
      "preuzi": 6870,
      "psihi": 6871,
      "neka": 6872,
      "knj": 6873,
      "zadatakaĠ": 6874,
      "tole": 6875,
      "razvoj": 6876,
      "bod": 6877,
      "tretmanĠ": 6878,
      "________________": 6879,
      "Ã¯": 6880,
      "PopoviÄĩĠ": 6881,
      "potrebamaĠ": 6882,
      "primenjujuĠ": 6883,
      "postĠ": 6884,
      "dosto": 6885,
      "nekadaĠ": 6886,
      "MarkoĠ": 6887,
      "daÅ¡nj": 6888,
      "mobi": 6889,
      "organĠ": 6890,
      "toromĠ": 6891,
      "dnihĠ": 6892,
      "kilo": 6893,
      "dago": 6894,
      "danoĠ": 6895,
      "visoko": 6896,
      "zabele": 6897,
      "ostaloĠ": 6898,
      "Bil": 6899,
      "kab": 6900,
      "ujednoĠ": 6901,
      "kraljaĠ": 6902,
      "JovanĠ": 6903,
      "osl": 6904,
      "bubre": 6905,
      "list": 6906,
      "menomĠ": 6907,
      "hibri": 6908,
      "ukraj": 6909,
      "deliĠ": 6910,
      "avan": 6911,
      "izvod": 6912,
      "sveÅ¡t": 6913,
      "etaĠ": 6914,
      "amba": 6915,
      "navedeneĠ": 6916,
      "privredeĠ": 6917,
      "mciĠ": 6918,
      "mone": 6919,
      "1986Ġ": 6920,
      "stranuĠ": 6921,
      "PrvoĠ": 6922,
      "jnimĠ": 6923,
      "uzorkuĠ": 6924,
      "majĠ": 6925,
      "sir": 6926,
      "Organiza": 6927,
      "obvez": 6928,
      "avalaĠ": 6929,
      "prole": 6930,
      "rast": 6931,
      "vrĠ": 6932,
      "romanaĠ": 6933,
      "uÄįestal": 6934,
      "uza": 6935,
      "svrheĠ": 6936,
      "njenomĠ": 6937,
      "VAĠ": 6938,
      "nasto": 6939,
      "inicijal": 6940,
      "doÅ¡liĠ": 6941,
      "FI": 6942,
      "predlo": 6943,
      "ZnaÄįa": 6944,
      "zilaĠ": 6945,
      "civil": 6946,
      "razliÄįitiĠ": 6947,
      "odluÄį": 6948,
      "pojm": 6949,
      "sukobaĠ": 6950,
      "dobijeneĠ": 6951,
      "inskomĠ": 6952,
      "komu": 6953,
      "mnogihĠ": 6954,
      "goviĠ": 6955,
      "genoti": 6956,
      "dodajeĠ": 6957,
      "reprezenta": 6958,
      "mumĠ": 6959,
      "ÄįiÄĩaĠ": 6960,
      "novinar": 6961,
      "maniĠ": 6962,
      "kerĠ": 6963,
      "korelacijeĠ": 6964,
      "deblj": 6965,
      "gore": 6966,
      "veru": 6967,
      "usav": 6968,
      "Å¾alostĠ": 6969,
      "stvenaĠ": 6970,
      "bleĠ": 6971,
      "okri": 6972,
      "najav": 6973,
      "Mora": 6974,
      "ÄįinjenicuĠ": 6975,
      "janoviÄĩĠ": 6976,
      "zgradaĠ": 6977,
      "Ã£": 6978,
      "konaÄįnoĠ": 6979,
      "poslednjiĠ": 6980,
      "ekonomskihĠ": 6981,
      "perso": 6982,
      "konven": 6983,
      "prostra": 6984,
      "1987Ġ": 6985,
      "dimoĠ": 6986,
      "njegovojĠ": 6987,
      "naju": 6988,
      "SvakiĠ": 6989,
      "Aust": 6990,
      "bit": 6991,
      "praÄĩenjeĠ": 6992,
      "elementeĠ": 6993,
      "danjaĠ": 6994,
      "TajĠ": 6995,
      "HrvatskeĠ": 6996,
      "praktiÄįnoĠ": 6997,
      "vicaĠ": 6998,
      "privre": 6999,
      "jaloĠ": 7000,
      "performansiĠ": 7001,
      "sprovoÄĳenjeĠ": 7002,
      "over": 7003,
      "Sle": 7004,
      "herĠ": 7005,
      "civi": 7006,
      "pobu": 7007,
      "demi": 7008,
      "dimenzi": 7009,
      "uÄįestvujuĠ": 7010,
      "GRA": 7011,
      "poznatiĠ": 7012,
      "akumu": 7013,
      "PU": 7014,
      "efekataĠ": 7015,
      "konuĠ": 7016,
      "javnomĠ": 7017,
      "Äīi": 7018,
      "prikazaneĠ": 7019,
      "prvobi": 7020,
      "svrhuĠ": 7021,
      "svojaĠ": 7022,
      "hiljadaĠ": 7023,
      "pozicijuĠ": 7024,
      "nacionalnogĠ": 7025,
      "SPĠ": 7026,
      "ÄįaraĠ": 7027,
      "bolestĠ": 7028,
      "hero": 7029,
      "kriviÄįnoĠ": 7030,
      "roditeljiĠ": 7031,
      "Prose": 7032,
      "jor": 7033,
      "radnihĠ": 7034,
      "lepoĠ": 7035,
      "zdravstveneĠ": 7036,
      "javaĠ": 7037,
      "uzmeĠ": 7038,
      "Sjedin": 7039,
      "wa": 7040,
      "opisujeĠ": 7041,
      "CE": 7042,
      "evropskihĠ": 7043,
      "transa": 7044,
      "programuĠ": 7045,
      "stvoraĠ": 7046,
      "promenamaĠ": 7047,
      "Gro": 7048,
      "razvijaĠ": 7049,
      "-,Ġ": 7050,
      "objavioĠ": 7051,
      "sektoruĠ": 7052,
      "tic": 7053,
      "Ã³Ġ": 7054,
      "naÄįinuĠ": 7055,
      "pos": 7056,
      "elementĠ": 7057,
      "pogledĠ": 7058,
      "Kom": 7059,
      "umuĠ": 7060,
      "ljegĠ": 7061,
      "Å½e": 7062,
      "tov": 7063,
      "kratkoĠ": 7064,
      "**": 7065,
      "podruÄįjeĠ": 7066,
      "odelj": 7067,
      "Ch": 7068,
      "posebanĠ": 7069,
      "ïĢ": 7070,
      "zakljuÄįakĠ": 7071,
      "stor": 7072,
      "ace": 7073,
      "ureÄĳajaĠ": 7074,
      "ponudeĠ": 7075,
      "poÅ¾": 7076,
      "industrijeĠ": 7077,
      "slobodnoĠ": 7078,
      "onomĠ": 7079,
      "konstrukcijaĠ": 7080,
      "rastvoraĠ": 7081,
      "vidimoĠ": 7082,
      "reÄįenoĠ": 7083,
      "raznovr": 7084,
      "ï¬": 7085,
      "rusĠ": 7086,
      "Lj": 7087,
      "odvo": 7088,
      "Jav": 7089,
      "glagolaĠ": 7090,
      "zemlj": 7091,
      "tam": 7092,
      "odrÅ¾avanjaĠ": 7093,
      "Dr": 7094,
      "1ÄĨĠ": 7095,
      "elaĠ": 7096,
      "naÄįineĠ": 7097,
      "fal": 7098,
      "ÄĮi": 7099,
      "miÅ¡ljenjuĠ": 7100,
      "kanalaĠ": 7101,
      "komponentiĠ": 7102,
      "Ig": 7103,
      "cipi": 7104,
      "postep": 7105,
      "serijeĠ": 7106,
      "izdvoj": 7107,
      "zmuĠ": 7108,
      "%).Ġ": 7109,
      "Ivan": 7110,
      "kinu": 7111,
      "dvostru": 7112,
      "weĠ": 7113,
      "IXĠ": 7114,
      "medijiĠ": 7115,
      "Pode": 7116,
      "ÏĢ": 7117,
      "sused": 7118,
      "nudiĠ": 7119,
      "pojedinaÄįnihĠ": 7120,
      "geni": 7121,
      "mrÅ¾": 7122,
      "jaÄįaĠ": 7123,
      "ticiĠ": 7124,
      "raspolo": 7125,
      "naveoĠ": 7126,
      "stiÄįeĠ": 7127,
      "uticatiĠ": 7128,
      "stemĠ": 7129,
      "TaĠ": 7130,
      "libe": 7131,
      "stimĠ": 7132,
      "ciljaĠ": 7133,
      "KOĠ": 7134,
      "postro": 7135,
      "muÅ¡karacaĠ": 7136,
      "uglj": 7137,
      "razneĠ": 7138,
      "porezaĠ": 7139,
      "SU": 7140,
      "formiranjaĠ": 7141,
      "NemaĠ": 7142,
      "sastavuĠ": 7143,
      "portalaĠ": 7144,
      "leg": 7145,
      "osva": 7146,
      "partijeĠ": 7147,
      "Fede": 7148,
      "wi": 7149,
      "autori": 7150,
      "kato": 7151,
      "mnoÅ¾": 7152,
      "Teh": 7153,
      "izrazi": 7154,
      "sluÅ¾biĠ": 7155,
      "listiĠ": 7156,
      "nasled": 7157,
      "sporazumaĠ": 7158,
      "imamĠ": 7159,
      "zaduÅ¾": 7160,
      "molekulaĠ": 7161,
      "Fakul": 7162,
      "alban": 7163,
      "bijaĠ": 7164,
      "sel": 7165,
      "super": 7166,
      "meÄĳunarodneĠ": 7167,
      "daraĠ": 7168,
      "celiniĠ": 7169,
      "arhitekton": 7170,
      "avionaĠ": 7171,
      "dejstvoĠ": 7172,
      "PostojeĠ": 7173,
      "moreĠ": 7174,
      "ILĠ": 7175,
      "Î²Ġ": 7176,
      "mesecĠ": 7177,
      "withĠ": 7178,
      "oceĠ": 7179,
      "tskoĠ": 7180,
      "stabilnostiĠ": 7181,
      "vorenĠ": 7182,
      "pismen": 7183,
      "aerod": 7184,
      "IvanĠ": 7185,
      "adĠ": 7186,
      "neo": 7187,
      "konzer": 7188,
      "udeoĠ": 7189,
      "paren": 7190,
      "veÄĩiniĠ": 7191,
      "pioĠ": 7192,
      "Met": 7193,
      "une": 7194,
      "knjiziĠ": 7195,
      "hidra": 7196,
      "hroniÄį": 7197,
      "statusaĠ": 7198,
      "pimaĠ": 7199,
      "insu": 7200,
      "episko": 7201,
      "Sch": 7202,
      "Å¡akaĠ": 7203,
      "gramaĠ": 7204,
      "Ex": 7205,
      "gim": 7206,
      "mbar": 7207,
      "pijaĠ": 7208,
      "pojaÄį": 7209,
      "pravdeĠ": 7210,
      "nataĠ": 7211,
      "vizijeĠ": 7212,
      "izgradnjeĠ": 7213,
      "Posled": 7214,
      "sled": 7215,
      "sprovodiĠ": 7216,
      "emocional": 7217,
      "canĠ": 7218,
      "zavrÅ¡ioĠ": 7219,
      "navedenoĠ": 7220,
      "DrugaĠ": 7221,
      "resĠ": 7222,
      "Ispi": 7223,
      "sticanjeĠ": 7224,
      "posebneĠ": 7225,
      "najbolj": 7226,
      "javnostĠ": 7227,
      "lepo": 7228,
      "BiloĠ": 7229,
      "Å¾nj": 7230,
      "zagre": 7231,
      "Am": 7232,
      "eksploa": 7233,
      "ispitaniciĠ": 7234,
      "kancela": 7235,
      "izgradnjuĠ": 7236,
      "poseti": 7237,
      "principĠ": 7238,
      "Dar": 7239,
      "ekvivalen": 7240,
      "bespla": 7241,
      "osvr": 7242,
      "reÅ¡avanjeĠ": 7243,
      "politiÄįkogĠ": 7244,
      "Gl": 7245,
      "hije": 7246,
      "ganjuĠ": 7247,
      "MoÅ¾eĠ": 7248,
      "stiÄįkomĠ": 7249,
      "Lin": 7250,
      "tskimĠ": 7251,
      "zolu": 7252,
      "izanjaĠ": 7253,
      "proÅ¡leĠ": 7254,
      "proÅ¡ir": 7255,
      "ekonomijeĠ": 7256,
      "sluÅ¾iĠ": 7257,
      "smatratiĠ": 7258,
      "jevĠ": 7259,
      "PR": 7260,
      "razliÄįitaĠ": 7261,
      "RusijiĠ": 7262,
      "serijaĠ": 7263,
      "glaveĠ": 7264,
      "oslobod": 7265,
      "cyĠ": 7266,
      "unapredĠ": 7267,
      "domini": 7268,
      "ImaĠ": 7269,
      "Proble": 7270,
      "sara": 7271,
      "zala": 7272,
      "skro": 7273,
      "uzorakĠ": 7274,
      "podstica": 7275,
      "zatvoraĠ": 7276,
      "deneĠ": 7277,
      "empi": 7278,
      "1985Ġ": 7279,
      "niÅ¾eĠ": 7280,
      "presto": 7281,
      "joĠ": 7282,
      "duÅ¾nostiĠ": 7283,
      "dimenzijeĠ": 7284,
      "dorĠ": 7285,
      "koeficijentĠ": 7286,
      "Tren": 7287,
      "malihĠ": 7288,
      "majkeĠ": 7289,
      "uvo": 7290,
      "dacijeĠ": 7291,
      "ÄĩenihĠ": 7292,
      "Nju": 7293,
      "Tan": 7294,
      "znaÄįajnuĠ": 7295,
      "feri": 7296,
      "hatĠ": 7297,
      "fiĠ": 7298,
      "njegoviĠ": 7299,
      "varijabliĠ": 7300,
      "Regi": 7301,
      "SrpskaĠ": 7302,
      "vataĠ": 7303,
      "SOĠ": 7304,
      "nadleÅ¾nostiĠ": 7305,
      "Bori": 7306,
      "tiviĠ": 7307,
      "medijimaĠ": 7308,
      "late": 7309,
      "Mogu": 7310,
      "cionomĠ": 7311,
      "terenuĠ": 7312,
      "ume": 7313,
      "evropskeĠ": 7314,
      "koÅ¡ar": 7315,
      "glavnihĠ": 7316,
      "BoÅ¾i": 7317,
      "steÄįa": 7318,
      "provod": 7319,
      "arhe": 7320,
      "Å¡ireĠ": 7321,
      "fokusi": 7322,
      "sredinuĠ": 7323,
      "kriviÄįnihĠ": 7324,
      "É§ÉŁĠ": 7325,
      "lacijuĠ": 7326,
      "Beograd": 7327,
      "dineĠ": 7328,
      "modeliĠ": 7329,
      "fotografijeĠ": 7330,
      "stvarnoĠ": 7331,
      "prvuĠ": 7332,
      "TU": 7333,
      "nastajuĠ": 7334,
      "parametriĠ": 7335,
      "ukljuÄįujuĠ": 7336,
      "BSĠ": 7337,
      "cÌģeĠ": 7338,
      "Budu": 7339,
      "postajuĠ": 7340,
      "upotrebomĠ": 7341,
      "vir": 7342,
      "seo": 7343,
      "izradeĠ": 7344,
      "njihoviĠ": 7345,
      "MU": 7346,
      "unutraÅ¡nj": 7347,
      "paraĠ": 7348,
      "SadrÅ¾": 7349,
      "imoĠ": 7350,
      "rami": 7351,
      "seloĠ": 7352,
      "Saraje": 7353,
      "evolu": 7354,
      "ziliĠ": 7355,
      "flo": 7356,
      "rovĠ": 7357,
      "VOĠ": 7358,
      "identitetĠ": 7359,
      "dÅ¾a": 7360,
      "BosneĠ": 7361,
      "takvihĠ": 7362,
      "cinĠ": 7363,
      "PodĠ": 7364,
      "kulturuĠ": 7365,
      "predstavnikaĠ": 7366,
      "enzimaĠ": 7367,
      "RAN": 7368,
      "KolikoĠ": 7369,
      "sar": 7370,
      "GoriĠ": 7371,
      "Izra": 7372,
      "sno": 7373,
      "nationalĠ": 7374,
      "konceptaĠ": 7375,
      "juÄĩaĠ": 7376,
      "atribu": 7377,
      "Å¾enjeĠ": 7378,
      "redovnoĠ": 7379,
      "kulturneĠ": 7380,
      "yo": 7381,
      "ljan": 7382,
      "pojedincaĠ": 7383,
      "teluĠ": 7384,
      "vremenskiĠ": 7385,
      "kalneĠ": 7386,
      "dor": 7387,
      "rilaĠ": 7388,
      "visokimĠ": 7389,
      "vidaĠ": 7390,
      "njenuĠ": 7391,
      "najveÄĩaĠ": 7392,
      "porukaĠ": 7393,
      "druÅ¡tvenogĠ": 7394,
      "konstitu": 7395,
      "rukovod": 7396,
      "hlo": 7397,
      "larniĠ": 7398,
      "drugimaĠ": 7399,
      "anacaĠ": 7400,
      "sus": 7401,
      "plasi": 7402,
      "sakup": 7403,
      "formuĠ": 7404,
      "zagaÄĳ": 7405,
      "biljkeĠ": 7406,
      "upored": 7407,
      "usavrÅ¡": 7408,
      "drÅ¾avamaĠ": 7409,
      "advo": 7410,
      "potrebneĠ": 7411,
      "On": 7412,
      "ÄįeniĠ": 7413,
      "ginu": 7414,
      "iduĠ": 7415,
      "Dani": 7416,
      "Men": 7417,
      "oloÅ¡keĠ": 7418,
      "temperaturiĠ": 7419,
      "varĠ": 7420,
      "udar": 7421,
      "ograni": 7422,
      "foli": 7423,
      "intra": 7424,
      "asocija": 7425,
      "pronala": 7426,
      "hetero": 7427,
      "obavezuĠ": 7428,
      "Konstan": 7429,
      "molĠ": 7430,
      "jkoviÄĩĠ": 7431,
      "karbo": 7432,
      "podatakĠ": 7433,
      "Afri": 7434,
      "gubitakĠ": 7435,
      "pitanjimaĠ": 7436,
      "odob": 7437,
      "unutraÅ¡njihĠ": 7438,
      "Put": 7439,
      "ansĠ": 7440,
      "meÄĳunarodnihĠ": 7441,
      "spoljaÅ¡": 7442,
      "1984Ġ": 7443,
      "crkvaĠ": 7444,
      "ustanovaĠ": 7445,
      "tumoraĠ": 7446,
      "verzijaĠ": 7447,
      "podrÅ¾av": 7448,
      "membra": 7449,
      "PodaciĠ": 7450,
      "ÉŁÉ¦": 7451,
      "Infor": 7452,
      "racijaĠ": 7453,
      "softver": 7454,
      "lit": 7455,
      "pojavuĠ": 7456,
      "razum": 7457,
      "boravi": 7458,
      "udruÅ¾enjaĠ": 7459,
      "leÄįenjaĠ": 7460,
      "NOV": 7461,
      "doprinoseĠ": 7462,
      "pokazaloĠ": 7463,
      "SC": 7464,
      "okupa": 7465,
      "pregle": 7466,
      "oseÄĩajĠ": 7467,
      "kiseo": 7468,
      "tipovaĠ": 7469,
      "seu": 7470,
      "NemaÄįkaĠ": 7471,
      "otĠ": 7472,
      "jaleĠ": 7473,
      "govorioĠ": 7474,
      "prikazujeĠ": 7475,
      "uzima": 7476,
      "Knji": 7477,
      "prezi": 7478,
      "indeksaĠ": 7479,
      "Komp": 7480,
      "1981Ġ": 7481,
      "Kre": 7482,
      "potencijalaĠ": 7483,
      "glo": 7484,
      "ralnaĠ": 7485,
      "primenji": 7486,
      "prihod": 7487,
      "É¨ÉĿĠ": 7488,
      "porukeĠ": 7489,
      "srcaĠ": 7490,
      "opisĠ": 7491,
      "prodajuĠ": 7492,
      "istiÄįuĠ": 7493,
      "praksaĠ": 7494,
      "ÄįeÅ¡": 7495,
      "evalua": 7496,
      "zadovoljstvoĠ": 7497,
      "aktivnoĠ": 7498,
      "mernoĠ": 7499,
      "klubĠ": 7500,
      "unapreÄĳenjeĠ": 7501,
      "intervju": 7502,
      "komunikacijaĠ": 7503,
      "pac": 7504,
      "Vre": 7505,
      "kulturiĠ": 7506,
      "zajedniciĠ": 7507,
      "É¨ÉĿ": 7508,
      "deniĠ": 7509,
      "jezg": 7510,
      "son": 7511,
      "pripi": 7512,
      "tijiĠ": 7513,
      "bankar": 7514,
      "kvar": 7515,
      "odreÄĳenoĠ": 7516,
      "ope": 7517,
      "prisutnaĠ": 7518,
      "progre": 7519,
      "RJĠ": 7520,
      "prepre": 7521,
      "avamoĠ": 7522,
      "blizuĠ": 7523,
      "zvuÄį": 7524,
      "suprotĠ": 7525,
      "dokumenta": 7526,
      "ero": 7527,
      "pozitivnoĠ": 7528,
      "É¢É«É¬": 7529,
      "filaĠ": 7530,
      "orijenti": 7531,
      "varijableĠ": 7532,
      "prethodneĠ": 7533,
      "ulaganjaĠ": 7534,
      "omla": 7535,
      "porastĠ": 7536,
      "podzem": 7537,
      "JugoslavijiĠ": 7538,
      "NiĠ": 7539,
      "dodaoĠ": 7540,
      "Sen": 7541,
      "kasni": 7542,
      "RAĠ": 7543,
      "Ã©Ġ": 7544,
      "ljavajuĠ": 7545,
      "resto": 7546,
      "visokogĠ": 7547,
      "ustanoveĠ": 7548,
      "policijaĠ": 7549,
      "humani": 7550,
      "farma": 7551,
      "disk": 7552,
      "fleksi": 7553,
      "odgovarajuĠ": 7554,
      "samoupraveĠ": 7555,
      "uto": 7556,
      "priÄį": 7557,
      "strana": 7558,
      "dig": 7559,
      "osiguranjeĠ": 7560,
      "proizvodnjaĠ": 7561,
      "teriĠ": 7562,
      "fol": 7563,
      "Razli": 7564,
      "nastalaĠ": 7565,
      "najveÄĩeĠ": 7566,
      "teritorij": 7567,
      "VeÄĩĠ": 7568,
      "suprot": 7569,
      "insi": 7570,
      "savez": 7571,
      "optereÄĩenjaĠ": 7572,
      "Ã¬": 7573,
      "Strate": 7574,
      "É¢É°": 7575,
      "usa": 7576,
      "efekteĠ": 7577,
      "inva": 7578,
      "izdava": 7579,
      "oloÅ¡kihĠ": 7580,
      "unĠ": 7581,
      "1970Ġ": 7582,
      "Ã¦": 7583,
      "motor": 7584,
      "dik": 7585,
      "NajveÄĩiĠ": 7586,
      "demon": 7587,
      "svakojĠ": 7588,
      "mineĠ": 7589,
      "vege": 7590,
      "igraÄįaĠ": 7591,
      "grafijaĠ": 7592,
      "detalj": 7593,
      "pravnaĠ": 7594,
      "sredi": 7595,
      "trgovineĠ": 7596,
      "orgĠ": 7597,
      "proizvodnjiĠ": 7598,
      "prima": 7599,
      "povezanaĠ": 7600,
      "Bli": 7601,
      "uspeoĠ": 7602,
      "partner": 7603,
      "uzrokĠ": 7604,
      "MoÅ¾daĠ": 7605,
      "viÅ¡estru": 7606,
      "postojeÄĩihĠ": 7607,
      "AnaĠ": 7608,
      "larnihĠ": 7609,
      "poÄįeliĠ": 7610,
      "podrÅ¡kaĠ": 7611,
      "histo": 7612,
      "akcen": 7613,
      "VeÄĩinaĠ": 7614,
      "smeÅ¡t": 7615,
      "oci": 7616,
      "poenaĠ": 7617,
      "primeruĠ": 7618,
      "osnoveĠ": 7619,
      "pojavljujeĠ": 7620,
      "priklju": 7621,
      "pedago": 7622,
      "liÄįnaĠ": 7623,
      "prouzro": 7624,
      "liÄįnihĠ": 7625,
      "janiĠ": 7626,
      "bankaĠ": 7627,
      ".:Ġ": 7628,
      "posebnimĠ": 7629,
      "IstorijaĠ": 7630,
      "arhitektureĠ": 7631,
      "meruĠ": 7632,
      "odreÄĳenomĠ": 7633,
      "dve": 7634,
      "zoveĠ": 7635,
      "marketin": 7636,
      "stihĠ": 7637,
      "karakteriÅ¡eĠ": 7638,
      "Pal": 7639,
      "savrÅ¡": 7640,
      "saznanjaĠ": 7641,
      "sudijaĠ": 7642,
      "KU": 7643,
      "APĠ": 7644,
      "komisijeĠ": 7645,
      "Demo": 7646,
      "mailĠ": 7647,
      "vajuÄĩiĠ": 7648,
      "vrednov": 7649,
      "fraz": 7650,
      "Å¡kojĠ": 7651,
      "poti": 7652,
      "Ir": 7653,
      "ljavanjaĠ": 7654,
      "ÉļÉ¦": 7655,
      "poremeÄĩajaĠ": 7656,
      "potiÄįeĠ": 7657,
      "okviraĠ": 7658,
      "pored": 7659,
      "hal": 7660,
      "mnaĠ": 7661,
      "CO": 7662,
      "miÄĩĠ": 7663,
      "queĠ": 7664,
      "enimaĠ": 7665,
      "MarkoviÄĩĠ": 7666,
      "meÄĳunarodnimĠ": 7667,
      "Kova": 7668,
      "stvarnostiĠ": 7669,
      "institucional": 7670,
      "dobruĠ": 7671,
      "gujeĠ": 7672,
      "inciden": 7673,
      "uput": 7674,
      "listeĠ": 7675,
      "dalj": 7676,
      "matskihĠ": 7677,
      "tembarĠ": 7678,
      "deloviĠ": 7679,
      "duÅ¾inaĠ": 7680,
      "irĠ": 7681,
      "reagov": 7682,
      "Å¡tetuĠ": 7683,
      "canjeĠ": 7684,
      "nasiljeĠ": 7685,
      "aeĠ": 7686,
      "realizacijeĠ": 7687,
      "niÄįkoĠ": 7688,
      "Mili": 7689,
      "toni": 7690,
      "govorimaĠ": 7691,
      "Sek": 7692,
      "ekonomskogĠ": 7693,
      "obnov": 7694,
      "savla": 7695,
      "NarodneĠ": 7696,
      "jkaĠ": 7697,
      "brinu": 7698,
      "lekovaĠ": 7699,
      "DraganĠ": 7700,
      "zrnaĠ": 7701,
      "stankuĠ": 7702,
      "otka": 7703,
      "efektiĠ": 7704,
      "fanta": 7705,
      "domenuĠ": 7706,
      "javnimĠ": 7707,
      "teteĠ": 7708,
      "eta": 7709,
      "deciĠ": 7710,
      "Mor": 7711,
      "teÅ¾iĠ": 7712,
      "devetĠ": 7713,
      "Slav": 7714,
      "Ran": 7715,
      "Kne": 7716,
      "Sme": 7717,
      "XXĠ": 7718,
      "talneĠ": 7719,
      "zarĠ": 7720,
      "magi": 7721,
      "prethodnihĠ": 7722,
      "biÄĩĠ": 7723,
      "hoĠ": 7724,
      "olĠ": 7725,
      "kostĠ": 7726,
      "razgovara": 7727,
      "Å¾eteĠ": 7728,
      "imuno": 7729,
      "vaspit": 7730,
      "izborimaĠ": 7731,
      "setĠ": 7732,
      "pozitivanĠ": 7733,
      "siliĠ": 7734,
      "Ekono": 7735,
      "Arhi": 7736,
      "fiziÄįkeĠ": 7737,
      "sijomĠ": 7738,
      "daljemĠ": 7739,
      "napomenu": 7740,
      "stanaĠ": 7741,
      "KEĠ": 7742,
      "svin": 7743,
      "jenostiĠ": 7744,
      "ramĠ": 7745,
      "ganaĠ": 7746,
      "direktoraĠ": 7747,
      "pozicijiĠ": 7748,
      "meÄĳunarodnogĠ": 7749,
      "sanjuĠ": 7750,
      "izveÅ¡tajĠ": 7751,
      "biÄĩaĠ": 7752,
      "bavi": 7753,
      "elektriÄįneĠ": 7754,
      "naponaĠ": 7755,
      "Ode": 7756,
      "anataĠ": 7757,
      "uglaĠ": 7758,
      "dobijeĠ": 7759,
      "iznosilaĠ": 7760,
      "ÊģĠ": 7761,
      "velikoĠ": 7762,
      "kuÄĩuĠ": 7763,
      "doÅ¾ivlj": 7764,
      "matskeĠ": 7765,
      "tikuĠ": 7766,
      "hop": 7767,
      "Stati": 7768,
      "á¿": 7769,
      "ÄĳeviÄĩĠ": 7770,
      "miniĠ": 7771,
      "novod": 7772,
      "VelikaĠ": 7773,
      "ÄįemĠ": 7774,
      "previÅ¡eĠ": 7775,
      "Spa": 7776,
      "bornikĠ": 7777,
      "mesaĠ": 7778,
      "dejstvaĠ": 7779,
      ".</Ġ": 7780,
      "jiteĠ": 7781,
      "telefonaĠ": 7782,
      "sovje": 7783,
      "Pozna": 7784,
      "îĢ": 7785,
      "talo": 7786,
      "Gri": 7787,
      "hovaĠ": 7788,
      "ďăĠ": 7789,
      "treÄĩeĠ": 7790,
      "Ele": 7791,
      "propisaĠ": 7792,
      "proceniĠ": 7793,
      "plaÄĩanjaĠ": 7794,
      "prateĠ": 7795,
      "dokazĠ": 7796,
      "ravniĠ": 7797,
      "vaÅ¾naĠ": 7798,
      "njenimĠ": 7799,
      "dodi": 7800,
      "jn": 7801,
      "mito": 7802,
      "Sim": 7803,
      "waĠ": 7804,
      "stareĠ": 7805,
      "komentareĠ": 7806,
      "mehanizamĠ": 7807,
      "delovanjeĠ": 7808,
      "azo": 7809,
      "ruskeĠ": 7810,
      "laziĠ": 7811,
      "kupu": 7812,
      "trudno": 7813,
      "odgovarajuÄĩiĠ": 7814,
      "demoĠ": 7815,
      "âĢķĠ": 7816,
      "karcinomaĠ": 7817,
      "CrnojĠ": 7818,
      "fakultetuĠ": 7819,
      "upravaĠ": 7820,
      "negdeĠ": 7821,
      "gluko": 7822,
      "unutraÅ¡njeĠ": 7823,
      "Fer": 7824,
      "ceniĠ": 7825,
      "Å¡koĠ": 7826,
      "sloboduĠ": 7827,
      "RepublikaĠ": 7828,
      "borbuĠ": 7829,
      "kovatiĠ": 7830,
      "pacijentaĠ": 7831,
      "ÄĩujuĠ": 7832,
      "promi": 7833,
      "pominjeĠ": 7834,
      "urnalĠ": 7835,
      "sugeri": 7836,
      "teni": 7837,
      "radilaĠ": 7838,
      "delatnostĠ": 7839,
      "cnoĠ": 7840,
      "caraĠ": 7841,
      "2ÄĨĠ": 7842,
      "OsnovniĠ": 7843,
      "vizijaĠ": 7844,
      "rev": 7845,
      "odobr": 7846,
      "mra": 7847,
      "ronĠ": 7848,
      "zase": 7849,
      "potvrÄĳujeĠ": 7850,
      "naÄįin": 7851,
      "brojnihĠ": 7852,
      "Jevre": 7853,
      "identifi": 7854,
      "balkan": 7855,
      "koriÅ¡ÄĩenaĠ": 7856,
      "nepokret": 7857,
      "É¢É¦ÉļĠ": 7858,
      "omoguÄĩavajuĠ": 7859,
      "ZatimĠ": 7860,
      "nacijeĠ": 7861,
      "zivĠ": 7862,
      "rekla": 7863,
      "llĠ": 7864,
      "sne": 7865,
      "intenzitetaĠ": 7866,
      "stiÄįkuĠ": 7867,
      "matikeĠ": 7868,
      "autoĠ": 7869,
      "ger": 7870,
      "potraÅ¾i": 7871,
      "obliciĠ": 7872,
      "postaneĠ": 7873,
      "rekor": 7874,
      "ÅĦ": 7875,
      "siromaÅ¡": 7876,
      "odreditiĠ": 7877,
      "amin": 7878,
      "sastavaĠ": 7879,
      "uvidĠ": 7880,
      "prijatelj": 7881,
      "HrvatskojĠ": 7882,
      "undĠ": 7883,
      "izvrÅ¡enaĠ": 7884,
      "statiĠ": 7885,
      "srednjaĠ": 7886,
      "tirajuĠ": 7887,
      "obezbediĠ": 7888,
      "literatureĠ": 7889,
      "prisutanĠ": 7890,
      "poboljÅ¡anjeĠ": 7891,
      "Å¡laĠ": 7892,
      "teorijiĠ": 7893,
      "izda": 7894,
      "starijiĠ": 7895,
      "Åłu": 7896,
      "izraduĠ": 7897,
      "nastavljaĠ": 7898,
      "stijuĠ": 7899,
      "oteÅ¾": 7900,
      "produÅ¾": 7901,
      "pti": 7902,
      "nastavkuĠ": 7903,
      "preduzeÄĩeĠ": 7904,
      "ÄĩelijamaĠ": 7905,
      "proizvoÄĳaÄįaĠ": 7906,
      "infekcijeĠ": 7907,
      "monĠ": 7908,
      "utvrÄĳivanjeĠ": 7909,
      "fede": 7910,
      "znamoĠ": 7911,
      "opo": 7912,
      "PetarĠ": 7913,
      "kulturnogĠ": 7914,
      "pojedineĠ": 7915,
      "suduĠ": 7916,
      "vaÅ¡Ġ": 7917,
      "uÄįestvujeĠ": 7918,
      "mitĠ": 7919,
      "mijuĠ": 7920,
      "aj": 7921,
      "trendĠ": 7922,
      "ostrvaĠ": 7923,
      "film": 7924,
      "detekt": 7925,
      "treÄĩiĠ": 7926,
      "âĢĴĠ": 7927,
      "letĠ": 7928,
      "Ben": 7929,
      "landĠ": 7930,
      "okolnostimaĠ": 7931,
      "mogĠ": 7932,
      "talniĠ": 7933,
      "dovodeĠ": 7934,
      "moramoĠ": 7935,
      "TiĠ": 7936,
      "ngĠ": 7937,
      "ise": 7938,
      "prover": 7939,
      "listuĠ": 7940,
      "mladiĠ": 7941,
      "niz": 7942,
      "meti": 7943,
      "Å¾rtveĠ": 7944,
      "pozitivneĠ": 7945,
      "procenaĠ": 7946,
      "Nastav": 7947,
      "gina": 7948,
      "Bogo": 7949,
      "malimĠ": 7950,
      "celu": 7951,
      "prisustvuĠ": 7952,
      "obaveznoĠ": 7953,
      "osvet": 7954,
      "tuÅ¾ila": 7955,
      "napadĠ": 7956,
      "DrĠ": 7957,
      "250Ġ": 7958,
      "sanogĠ": 7959,
      "polĠ": 7960,
      "rasto": 7961,
      "Austra": 7962,
      "koma": 7963,
      "biraĠ": 7964,
      "motivi": 7965,
      "É¨É¥": 7966,
      "ÄįlanuĠ": 7967,
      "ImajuÄĩiĠ": 7968,
      "utisakĠ": 7969,
      "inskoĠ": 7970,
      "grup": 7971,
      "sagled": 7972,
      "dimĠ": 7973,
      "ly": 7974,
      "procedureĠ": 7975,
      "prinosĠ": 7976,
      "Jedin": 7977,
      "njakĠ": 7978,
      "shĠ": 7979,
      "Bre": 7980,
      "celogĠ": 7981,
      "vrijed": 7982,
      "pono": 7983,
      "UkrajiniĠ": 7984,
      "pozivaĠ": 7985,
      "baz": 7986,
      "istuĠ": 7987,
      "novÄį": 7988,
      "MiloÅ¡Ġ": 7989,
      "izrazaĠ": 7990,
      "likov": 7991,
      "postupa": 7992,
      "kakvaĠ": 7993,
      "Å¡liĠ": 7994,
      "arteri": 7995,
      "TimeĠ": 7996,
      "kontinen": 7997,
      "glavneĠ": 7998,
      "svije": 7999,
      "reÅ¾imaĠ": 8000,
      "tleĠ": 8001,
      "smrt": 8002,
      "ninaĠ": 8003,
      "kuÄĩ": 8004,
      "svestĠ": 8005,
      "bazeĠ": 8006,
      "Elek": 8007,
      "Bur": 8008,
      "fre": 8009,
      "strategi": 8010,
      "klan": 8011,
      "famili": 8012,
      "proglaÅ¡": 8013,
      "leÄįenjeĠ": 8014,
      "juÄĩegĠ": 8015,
      "sigurnostiĠ": 8016,
      "JerĠ": 8017,
      "njihovojĠ": 8018,
      "zauze": 8019,
      "bizni": 8020,
      "11": 8021,
      "poveÄĩanjemĠ": 8022,
      "ameriÄįkiĠ": 8023,
      "Zahval": 8024,
      "MarijaĠ": 8025,
      "smet": 8026,
      "drÅ¾avniĠ": 8027,
      "vaÅ¾nostiĠ": 8028,
      "zonuĠ": 8029,
      "lenĠ": 8030,
      "ljudskaĠ": 8031,
      "skop": 8032,
      "moraoĠ": 8033,
      "promeniĠ": 8034,
      "pisaliĠ": 8035,
      "minacijeĠ": 8036,
      "izri": 8037,
      "traÅ¾eĠ": 8038,
      "trajanjuĠ": 8039,
      "avinaĠ": 8040,
      "pravimaĠ": 8041,
      "materijeĠ": 8042,
      "uzrastaĠ": 8043,
      "Å¡noĠ": 8044,
      "trpe": 8045,
      "mogleĠ": 8046,
      "predstavniciĠ": 8047,
      "materijaĠ": 8048,
      "Å¾enjaĠ": 8049,
      "macĠ": 8050,
      "nedavnoĠ": 8051,
      "NikoliÄĩĠ": 8052,
      "JelenaĠ": 8053,
      "potroÅ¡njeĠ": 8054,
      "tropoli": 8055,
      "1000Ġ": 8056,
      "Pit": 8057,
      "okon": 8058,
      "firmeĠ": 8059,
      "mojaĠ": 8060,
      "noviÄĩĠ": 8061,
      "Dimitri": 8062,
      "pisalaĠ": 8063,
      "radoviĠ": 8064,
      "uzimajuĠ": 8065,
      "Å¾iveoĠ": 8066,
      "gimnazi": 8067,
      "1983Ġ": 8068,
      "crkven": 8069,
      "utinĠ": 8070,
      "obil": 8071,
      "âī": 8072,
      "ardĠ": 8073,
      "glavnogĠ": 8074,
      "sliÄįneĠ": 8075,
      "icaĠ": 8076,
      "kuku": 8077,
      "statisti": 8078,
      "BA": 8079,
      "interesan": 8080,
      "polovineĠ": 8081,
      "socijali": 8082,
      "milijardiĠ": 8083,
      "Vil": 8084,
      "poÅ¡tovanjeĠ": 8085,
      "videliĠ": 8086,
      "gdjeĠ": 8087,
      "JovanaĠ": 8088,
      "Ñī": 8089,
      "seru": 8090,
      "naknadeĠ": 8091,
      "ZoranĠ": 8092,
      "sanimĠ": 8093,
      "valuĠ": 8094,
      "nekadaÅ¡": 8095,
      "Å¡akĠ": 8096,
      "kontaktĠ": 8097,
      "kraljev": 8098,
      "fiziÄįkiĠ": 8099,
      "versi": 8100,
      "vilaĠ": 8101,
      "rit": 8102,
      "ubr": 8103,
      "bolĠ": 8104,
      "celuĠ": 8105,
      "gorivaĠ": 8106,
      "masĠ": 8107,
      "OneĠ": 8108,
      "lnoĠ": 8109,
      "donoÅ¡enjaĠ": 8110,
      "tataĠ": 8111,
      "MislimĠ": 8112,
      "vratiĠ": 8113,
      "Å¾egĠ": 8114,
      "perspektiveĠ": 8115,
      "nastaoĠ": 8116,
      "demijeĠ": 8117,
      "pomaÅ¾eĠ": 8118,
      "donaÄįel": 8119,
      "oceneĠ": 8120,
      "zadrÅ¾av": 8121,
      "ljubav": 8122,
      "njamaĠ": 8123,
      "cor": 8124,
      "Gi": 8125,
      "rokaĠ": 8126,
      "Zak": 8127,
      "zajedniÄįkiĠ": 8128,
      "proceseĠ": 8129,
      "uzorcimaĠ": 8130,
      "ÉļÉŀ": 8131,
      "istraÅ£i": 8132,
      "opÅ¡tiĠ": 8133,
      "ss": 8134,
      "rado": 8135,
      "prisustvaĠ": 8136,
      "obrazovanjuĠ": 8137,
      "bineĠ": 8138,
      "izdvo": 8139,
      "nistaĠ": 8140,
      "âĢĻ.Ġ": 8141,
      "veÅ¡tineĠ": 8142,
      "algorit": 8143,
      "iÄĩĠ": 8144,
      "ZakonomĠ": 8145,
      "Plan": 8146,
      "operacijaĠ": 8147,
      "istraÅ¾": 8148,
      "svje": 8149,
      "hijerar": 8150,
      "TabeliĠ": 8151,
      "saglasnostĠ": 8152,
      "Vin": 8153,
      "bici": 8154,
      "iskoriÅ¡Äĩ": 8155,
      "recimoĠ": 8156,
      "sirov": 8157,
      "domenaĠ": 8158,
      "kulturnihĠ": 8159,
      "koriÅ¡ÄĩeniĠ": 8160,
      "sajtĠ": 8161,
      "vajcar": 8162,
      "pravilimaĠ": 8163,
      "opÅ¡": 8164,
      "posmatraĠ": 8165,
      "jivanjeĠ": 8166,
      "duÅ¾Ġ": 8167,
      "cijskiĠ": 8168,
      "uki": 8169,
      "buduÄĩnostĠ": 8170,
      "NemaÄįkeĠ": 8171,
      "istojĠ": 8172,
      "izvrÅ¡enjaĠ": 8173,
      "drÅ¾avuĠ": 8174,
      "poznateĠ": 8175,
      "privati": 8176,
      "poveri": 8177,
      "UdruÅ¾": 8178,
      "kav": 8179,
      "1982Ġ": 8180,
      "pamet": 8181,
      "studijamaĠ": 8182,
      "ovekov": 8183,
      "SavetaĠ": 8184,
      "sudovaĠ": 8185,
      "uko": 8186,
      "ore": 8187,
      "slojaĠ": 8188,
      "sliÄįanĠ": 8189,
      "grafĠ": 8190,
      "oÄįiglednoĠ": 8191,
      "kap": 8192,
      "ÄĮakĠ": 8193,
      "spadajuĠ": 8194,
      "Radi": 8195,
      "kvantita": 8196,
      "planiranjaĠ": 8197,
      "automobilaĠ": 8198,
      "hek": 8199,
      "zacijiĠ": 8200,
      "IV": 8201,
      "enceĠ": 8202,
      "paÅ¾njeĠ": 8203,
      "ÄįimĠ": 8204,
      "IHĠ": 8205,
      "samostalnoĠ": 8206,
      "cirku": 8207,
      "nai": 8208,
      "CR": 8209,
      "FAĠ": 8210,
      "ÑĭĠ": 8211,
      "formuli": 8212,
      "govoritiĠ": 8213,
      "progno": 8214,
      "logyĠ": 8215,
      "portĠ": 8216,
      "martĠ": 8217,
      "koristeÄĩiĠ": 8218,
      "prelaziĠ": 8219,
      "korelacijaĠ": 8220,
      "Kul": 8221,
      "PL": 8222,
      "ljudskogĠ": 8223,
      "ysĠ": 8224,
      "agencijaĠ": 8225,
      "saliĠ": 8226,
      "ciljeveĠ": 8227,
      "poginu": 8228,
      "sindi": 8229,
      "nutiĠ": 8230,
      "ïĥ": 8231,
      "decenijeĠ": 8232,
      "koris": 8233,
      "tekstovaĠ": 8234,
      "ModelĠ": 8235,
      "narodneĠ": 8236,
      "ukupanĠ": 8237,
      "Razvo": 8238,
      "Å¡iriĠ": 8239,
      "opasnostĠ": 8240,
      "kadr": 8241,
      "tkoĠ": 8242,
      "zahteveĠ": 8243,
      "sreÄĩ": 8244,
      "stanovniÅ¡tvoĠ": 8245,
      "priÄįuĠ": 8246,
      "junĠ": 8247,
      "prvenstvoĠ": 8248,
      "niliĠ": 8249,
      "fromĠ": 8250,
      "Éī": 8251,
      "formiraĠ": 8252,
      "sagovor": 8253,
      "obraza": 8254,
      "dam": 8255,
      "Dej": 8256,
      "aktivnihĠ": 8257,
      "stanoviÅ¡taĠ": 8258,
      "slobodaĠ": 8259,
      "takvimĠ": 8260,
      "Bru": 8261,
      "stavovaĠ": 8262,
      "novin": 8263,
      "Ara": 8264,
      "Sti": 8265,
      "politiÄįkaĠ": 8266,
      "stresaĠ": 8267,
      "dinaĠ": 8268,
      "dnevnoĠ": 8269,
      "nae": 8270,
      "izazivaĠ": 8271,
      "stere": 8272,
      "ZaÅ¡toĠ": 8273,
      "peÄįa": 8274,
      "ker": 8275,
      "nezavisnoĠ": 8276,
      "Lan": 8277,
      "mniĠ": 8278,
      "liliĠ": 8279,
      "600Ġ": 8280,
      "mlado": 8281,
      "InternationalĠ": 8282,
      "GA": 8283,
      "odrasli": 8284,
      "gospod": 8285,
      "1945Ġ": 8286,
      "cinaĠ": 8287,
      "Davi": 8288,
      "deloveĠ": 8289,
      "defici": 8290,
      "umetnostĠ": 8291,
      "vamoĠ": 8292,
      "SvakaĠ": 8293,
      "nastup": 8294,
      "analo": 8295,
      "bergĠ": 8296,
      "Kal": 8297,
      "Kur": 8298,
      "nastanakĠ": 8299,
      "osvojioĠ": 8300,
      "EvropskaĠ": 8301,
      "jevi": 8302,
      "Mihaj": 8303,
      "kupĠ": 8304,
      "kreditaĠ": 8305,
      "moguÄĩaĠ": 8306,
      "insisti": 8307,
      "bugar": 8308,
      "doÅ¾iv": 8309,
      "zeraĠ": 8310,
      "NemaÄįkojĠ": 8311,
      "pisacĠ": 8312,
      "ljtoĠ": 8313,
      "dijabe": 8314,
      "delimaĠ": 8315,
      "apo": 8316,
      "kaÅ¾emĠ": 8317,
      "ljanjemĠ": 8318,
      "matiz": 8319,
      "larnogĠ": 8320,
      "Å¡umaĠ": 8321,
      "fori": 8322,
      "sporazumĠ": 8323,
      "rasporeÄĳ": 8324,
      "salaĠ": 8325,
      "vidimĠ": 8326,
      "opasnostiĠ": 8327,
      "eu": 8328,
      "imenomĠ": 8329,
      "romanĠ": 8330,
      "niteĠ": 8331,
      "predstaveĠ": 8332,
      "konstat": 8333,
      "manuĠ": 8334,
      "napi": 8335,
      "potrebanĠ": 8336,
      "semĠ": 8337,
      "menadÅ¾mentaĠ": 8338,
      "zavisnostĠ": 8339,
      "dijalo": 8340,
      "glavnaĠ": 8341,
      "110Ġ": 8342,
      "nav": 8343,
      "dim": 8344,
      "zasluÅ¾": 8345,
      "pareĠ": 8346,
      "tskuĠ": 8347,
      "vanihĠ": 8348,
      "etno": 8349,
      "opseguĠ": 8350,
      "srpskojĠ": 8351,
      "ljudskeĠ": 8352,
      "veri": 8353,
      "É±": 8354,
      "navedenogĠ": 8355,
      "razumevanjaĠ": 8356,
      "É§É¨Ġ": 8357,
      "duÅ¾anĠ": 8358,
      "onakoĠ": 8359,
      "VrednostiĠ": 8360,
      "3ÄĨĠ": 8361,
      "ÄįenoĠ": 8362,
      "procesimaĠ": 8363,
      "propisimaĠ": 8364,
      "stigaoĠ": 8365,
      "zanema": 8366,
      "ÄĮu": 8367,
      "knjiguĠ": 8368,
      "manipu": 8369,
      "ï¬ģ": 8370,
      "kandidataĠ": 8371,
      "mesĠ": 8372,
      "PosebnoĠ": 8373,
      "svetlostiĠ": 8374,
      "SrpskiĠ": 8375,
      "zabav": 8376,
      "anacĠ": 8377,
      "uliciĠ": 8378,
      "klasaĠ": 8379,
      "IST": 8380,
      "izdanjaĠ": 8381,
      "utihĠ": 8382,
      "proÅ¡logĠ": 8383,
      "zraÄįenjaĠ": 8384,
      "NKĠ": 8385,
      "nacionalniĠ": 8386,
      "takmiÄįenjaĠ": 8387,
      "RezultatĠ": 8388,
      "temelj": 8389,
      "É¨É©": 8390,
      "topo": 8391,
      "savremeneĠ": 8392,
      "Zvez": 8393,
      "zidaĠ": 8394,
      "larĠ": 8395,
      "sopstveneĠ": 8396,
      "rasprostra": 8397,
      "dÅ¾Ġ": 8398,
      "jenjuĠ": 8399,
      "vojskaĠ": 8400,
      "ANJEĠ": 8401,
      "liÄĩaĠ": 8402,
      "zori": 8403,
      "MPĠ": 8404,
      "NovaĠ": 8405,
      "kalci": 8406,
      "jumuĠ": 8407,
      "niÅ¡tvoĠ": 8408,
      "É°": 8409,
      "problemimaĠ": 8410,
      "oÄįa": 8411,
      "drÅ¾iĠ": 8412,
      "profĠ": 8413,
      "epo": 8414,
      "UkrajineĠ": 8415,
      "Å¡kolskeĠ": 8416,
      "vezaneĠ": 8417,
      "strak": 8418,
      "povezaniĠ": 8419,
      "emisijeĠ": 8420,
      "naÅ¡iĠ": 8421,
      "namir": 8422,
      "sredstvimaĠ": 8423,
      "ruskiĠ": 8424,
      "opÅ¡tegĠ": 8425,
      "cipa": 8426,
      "automatskiĠ": 8427,
      "PRED": 8428,
      "voljeĠ": 8429,
      "Å¡kogĠ": 8430,
      "veÅ¡tinaĠ": 8431,
      "uÄįeÅ¡ÄĩaĠ": 8432,
      "ligeĠ": 8433,
      "zahtevajuĠ": 8434,
      "organizacijuĠ": 8435,
      "DrÅ¾av": 8436,
      "imi": 8437,
      "dobaraĠ": 8438,
      "'')Ġ": 8439,
      "É¨É¦": 8440,
      "agrega": 8441,
      "negativneĠ": 8442,
      "UniverzitetĠ": 8443,
      "gneĠ": 8444,
      "sumnjeĠ": 8445,
      "Potreb": 8446,
      "BosniĠ": 8447,
      "pozivĠ": 8448,
      "tekstu": 8449,
      "pitiĠ": 8450,
      "kukuru": 8451,
      "oÄįiĠ": 8452,
      "zadrÅ¾avaĠ": 8453,
      "pripremeĠ": 8454,
      "nagradeĠ": 8455,
      "poslovanjeĠ": 8456,
      "slojĠ": 8457,
      "NiÅ¡uĠ": 8458,
      "ocenaĠ": 8459,
      "Sun": 8460,
      "jum": 8461,
      "vole": 8462,
      "indeksĠ": 8463,
      "nisteĠ": 8464,
      "bin": 8465,
      "posluĠ": 8466,
      "energijaĠ": 8467,
      "desetakĠ": 8468,
      "GlavniĠ": 8469,
      "proizve": 8470,
      "jnomĠ": 8471,
      "TIĠ": 8472,
      "jedinaĠ": 8473,
      "stupaĠ": 8474,
      "goveĠ": 8475,
      "druÅ¡tveniĠ": 8476,
      "nmĠ": 8477,
      "ljeviÄĩĠ": 8478,
      "dogaÄĳajĠ": 8479,
      "micaĠ": 8480,
      "brÅ¾eĠ": 8481,
      "001Ġ": 8482,
      "sigurnostĠ": 8483,
      "pripremaĠ": 8484,
      "lanaĠ": 8485,
      "ovlaÅ¡ÄĩenjaĠ": 8486,
      "performanseĠ": 8487,
      "janeĠ": 8488,
      "pruÅ¾ajuĠ": 8489,
      "lekĠ": 8490,
      "can": 8491,
      "preteÅ¾": 8492,
      "suprotstav": 8493,
      "dokumentaĠ": 8494,
      "ofici": 8495,
      "padneĠ": 8496,
      "Jap": 8497,
      "fuĠ": 8498,
      "ljamoĠ": 8499,
      "realizacijuĠ": 8500,
      "politiÄįkimĠ": 8501,
      "lniĠ": 8502,
      "ÄĲur": 8503,
      "ovakveĠ": 8504,
      "kraljĠ": 8505,
      "pogotovoĠ": 8506,
      "É®": 8507,
      "korisniciĠ": 8508,
      "Vra": 8509,
      "poÅ¾elj": 8510,
      "starijihĠ": 8511,
      "nesĠ": 8512,
      "skladiÅ¡t": 8513,
      "inostranstvuĠ": 8514,
      "otkrivaĠ": 8515,
      "toleran": 8516,
      "istorijskiĠ": 8517,
      "gradnjeĠ": 8518,
      "domaÄĩeĠ": 8519,
      "okaĠ": 8520,
      "menadÅ¾e": 8521,
      "jnuĠ": 8522,
      "mpli": 8523,
      "1979Ġ": 8524,
      "Pot": 8525,
      "partneraĠ": 8526,
      "izvoÄĳa": 8527,
      "dokazaĠ": 8528,
      "ciljeviĠ": 8529,
      "nikakoĠ": 8530,
      "zapaÅ¾": 8531,
      "skupÅ¡tineĠ": 8532,
      "navedeniĠ": 8533,
      "plj": 8534,
      "stiÄįkoĠ": 8535,
      "imajuÄĩiĠ": 8536,
      "ovekĠ": 8537,
      "stali": 8538,
      "godiÅ¡njegĠ": 8539,
      "saÄįin": 8540,
      "poloÅ¾ajuĠ": 8541,
      "kompju": 8542,
      "vodioĠ": 8543,
      "obolelihĠ": 8544,
      "miri": 8545,
      "hle": 8546,
      "fiziÄįkogĠ": 8547,
      "JournalĠ": 8548,
      "VIIIĠ": 8549,
      "klubaĠ": 8550,
      "ekspresijeĠ": 8551,
      "praviluĠ": 8552,
      "saglasnostiĠ": 8553,
      "bogat": 8554,
      "zvaniÄįnoĠ": 8555,
      "dingĠ": 8556,
      "lekaraĠ": 8557,
      "namet": 8558,
      "stilĠ": 8559,
      "obila": 8560,
      "preÅ¾ivlj": 8561,
      "infrastruktureĠ": 8562,
      "nedeljaĠ": 8563,
      "istihĠ": 8564,
      "partijaĠ": 8565,
      "zakljuÄįujeĠ": 8566,
      "dekla": 8567,
      "konce": 8568,
      "formacijeĠ": 8569,
      "dokumenataĠ": 8570,
      "cho": 8571,
      "HercegovineĠ": 8572,
      "interesĠ": 8573,
      "Kana": 8574,
      "budÅ¾etaĠ": 8575,
      "saradnikaĠ": 8576,
      "Sal": 8577,
      "InstitutĠ": 8578,
      "VamĠ": 8579,
      "prilikaĠ": 8580,
      "EC": 8581,
      "Inte": 8582,
      "postojalaĠ": 8583,
      "Wor": 8584,
      "ÄįeneĠ": 8585,
      "implementa": 8586,
      "ogle": 8587,
      "uhap": 8588,
      "monetar": 8589,
      "propor": 8590,
      "postepenoĠ": 8591,
      "human": 8592,
      "Å¾ivotinjeĠ": 8593,
      "Ñĳ": 8594,
      "izmeneĠ": 8595,
      "uoÄįavaĠ": 8596,
      "gorĠ": 8597,
      "jonĠ": 8598,
      "nagradaĠ": 8599,
      "ovakavĠ": 8600,
      "karakteristikamaĠ": 8601,
      "pesamaĠ": 8602,
      "raznimĠ": 8603,
      "pribliÅ¾noĠ": 8604,
      "Rober": 8605,
      "crnogor": 8606,
      "pÅ¡": 8607,
      "srpskimĠ": 8608,
      "prilagod": 8609,
      "Î·": 8610,
      "znimĠ": 8611,
      "povrÅ¡inuĠ": 8612,
      "emoĠ": 8613,
      "Sla": 8614,
      "UkupnoĠ": 8615,
      "101Ġ": 8616,
      "Sy": 8617,
      "pravilnoĠ": 8618,
      "SIĠ": 8619,
      "konta": 8620,
      "csĠ": 8621,
      "oviÄĩe": 8622,
      "podnosi": 8623,
      "dovo": 8624,
      "KPĠ": 8625,
      "stvarajuĠ": 8626,
      "proceduraĠ": 8627,
      "SadrÅ¾ajĠ": 8628,
      "uÄįeĠ": 8629,
      "rijskeĠ": 8630,
      "peroksi": 8631,
      "odrÅ¾avaĠ": 8632,
      "raspodeleĠ": 8633,
      "specifiÄįneĠ": 8634,
      "pregledaĠ": 8635,
      "prinosaĠ": 8636,
      "prepara": 8637,
      "1971Ġ": 8638,
      "investicijaĠ": 8639,
      "brojnimĠ": 8640,
      "detaljnoĠ": 8641,
      "cy": 8642,
      "Mari": 8643,
      "VelikeĠ": 8644,
      "istinaĠ": 8645,
      "domaÄĩihĠ": 8646,
      "Å¡imĠ": 8647,
      "nekojĠ": 8648,
      "rekaĠ": 8649,
      "aniÄĩĠ": 8650,
      "800Ġ": 8651,
      "polo": 8652,
      "ostvaren": 8653,
      "pokazanoĠ": 8654,
      "teore": 8655,
      "acaĠ": 8656,
      "CIĠ": 8657,
      "krugĠ": 8658,
      "slovaĠ": 8659,
      "procesiĠ": 8660,
      "Sovje": 8661,
      "izvodiĠ": 8662,
      "vratioĠ": 8663,
      "suver": 8664,
      "maÄĳar": 8665,
      "portalĠ": 8666,
      "veÄĩineĠ": 8667,
      "posedujuĠ": 8668,
      "savetaĠ": 8669,
      "foraĠ": 8670,
      "preda": 8671,
      "stijeĠ": 8672,
      "interakcijaĠ": 8673,
      "hr": 8674,
      "Å¾iteĠ": 8675,
      "dobijanjeĠ": 8676,
      "braĠ": 8677,
      "oslobaÄĳ": 8678,
      "kardi": 8679,
      "moralaĠ": 8680,
      "Ispitiv": 8681,
      "LIĠ": 8682,
      "set": 8683,
      "1978Ġ": 8684,
      "dom": 8685,
      "idejuĠ": 8686,
      "Äįet": 8687,
      "Gar": 8688,
      "ljenomĠ": 8689,
      "mbri": 8690,
      "Miro": 8691,
      "numeri": 8692,
      "interven": 8693,
      "primeriĠ": 8694,
      "energijuĠ": 8695,
      "glasiĠ": 8696,
      "fis": 8697,
      "znomĠ": 8698,
      "ocenuĠ": 8699,
      "Vol": 8700,
      "upla": 8701,
      "odgovoriĠ": 8702,
      "verovatnijeĠ": 8703,
      "pripadnikaĠ": 8704,
      "Fun": 8705,
      "lnihĠ": 8706,
      "ostvarivanjeĠ": 8707,
      "prekrÅ¡a": 8708,
      "moÅ¾": 8709,
      "SD": 8710,
      "stala": 8711,
      "autobu": 8712,
      "okruÅ¾enjeĠ": 8713,
      "anoviÄĩĠ": 8714,
      "Zel": 8715,
      "nag": 8716,
      "nosa": 8717,
      "GradĠ": 8718,
      "dosle": 8719,
      "populacijaĠ": 8720,
      "vazduÅ¡": 8721,
      "thi": 8722,
      "Anti": 8723,
      "legen": 8724,
      "uspostavljanjeĠ": 8725,
      "Prika": 8726,
      "kapacitetĠ": 8727,
      "drÅ¾avnogĠ": 8728,
      "âĢĻ,Ġ": 8729,
      "konver": 8730,
      "raÄįunovod": 8731,
      "dol": 8732,
      "delujuĠ": 8733,
      "obeleÅ¾jaĠ": 8734,
      "zeÄĩiĠ": 8735,
      "ty": 8736,
      "izvoriĠ": 8737,
      "sistemeĠ": 8738,
      "votĠ": 8739,
      "sagle": 8740,
      "bacu": 8741,
      "koristiliĠ": 8742,
      "olaĠ": 8743,
      "ovanomĠ": 8744,
      "mladeĠ": 8745,
      "objavljenĠ": 8746,
      "Äįvor": 8747,
      "satĠ": 8748,
      "iznosuĠ": 8749,
      "tumor": 8750,
      "dole": 8751,
      "xi": 8752,
      "sredinaĠ": 8753,
      "kljuÄįnihĠ": 8754,
      "oktobarĠ": 8755,
      "KP": 8756,
      "cÌģiĠ": 8757,
      "aplikacijeĠ": 8758,
      "wsĠ": 8759,
      "zapi": 8760,
      "povezanĠ": 8761,
      "1974Ġ": 8762,
      "ovaloĠ": 8763,
      "ministraĠ": 8764,
      "obraÄįu": 8765,
      "prethodnomĠ": 8766,
      "streĠ": 8767,
      "oboljenjaĠ": 8768,
      "znaÄįajnihĠ": 8769,
      "roditelj": 8770,
      "ishod": 8771,
      "Klju": 8772,
      "treÄĩegĠ": 8773,
      "MnogiĠ": 8774,
      "nepri": 8775,
      "konflik": 8776,
      "kolaÄįiÄĩeĠ": 8777,
      "Å¾ivotnuĠ": 8778,
      "zapoÄįe": 8779,
      "verzijeĠ": 8780,
      "kulturnoĠ": 8781,
      "postojeÄĩeĠ": 8782,
      "Bibli": 8783,
      "drav": 8784,
      "mona": 8785,
      "hranuĠ": 8786,
      "dodatneĠ": 8787,
      "Éł": 8788,
      "ÄįlaniceĠ": 8789,
      "ukupnihĠ": 8790,
      "neophodnaĠ": 8791,
      "Vide": 8792,
      "doveĠ": 8793,
      "É¤É¨Êģ": 8794,
      "É¢Éª": 8795,
      "Ã¸": 8796,
      "KSĠ": 8797,
      "stariĠ": 8798,
      "hlad": 8799,
      "uÄįenicimaĠ": 8800,
      "nuÅ¾noĠ": 8801,
      "celaĠ": 8802,
      "uvoÄĳenjeĠ": 8803,
      "VremeĠ": 8804,
      "manastiraĠ": 8805,
      "leÅ¾iĠ": 8806,
      "egzisten": 8807,
      "naroduĠ": 8808,
      "Metohi": 8809,
      "canjaĠ": 8810,
      "ÄįeluĠ": 8811,
      "vul": 8812,
      "niÅ¾iĠ": 8813,
      "objektiĠ": 8814,
      "prosekuĠ": 8815,
      "rateĠ": 8816,
      "Å¾eliteĠ": 8817,
      "kingĠ": 8818,
      "fiziÄįkoĠ": 8819,
      "nestoĠ": 8820,
      "starihĠ": 8821,
      "znaÄīa": 8822,
      "carĠ": 8823,
      "prijeĠ": 8824,
      "nadzorĠ": 8825,
      "univerz": 8826,
      "Mek": 8827,
      "govoromĠ": 8828,
      "Don": 8829,
      "ralnimĠ": 8830,
      "studentiĠ": 8831,
      "fla": 8832,
      "traz": 8833,
      "Å¡kolamaĠ": 8834,
      "GAĠ": 8835,
      "bud": 8836,
      "lilaĠ": 8837,
      "koali": 8838,
      "tiloĠ": 8839,
      "susĠ": 8840,
      "ruskogĠ": 8841,
      "tudaĠ": 8842,
      "ks": 8843,
      "kneĠ": 8844,
      "tiÄįkimĠ": 8845,
      "planiranjeĠ": 8846,
      "radnoĠ": 8847,
      "vizan": 8848,
      "predviÄĳaĠ": 8849,
      "vrhun": 8850,
      "pridru": 8851,
      "podnoÅ¡": 8852,
      "30": 8853,
      "ViĠ": 8854,
      "6ÄĨĠ": 8855,
      "Bog": 8856,
      "subo": 8857,
      "poslodav": 8858,
      "objasnitiĠ": 8859,
      "hipotezaĠ": 8860,
      "ubla": 8861,
      "buduÄĩeĠ": 8862,
      "komunal": 8863,
      "lani": 8864,
      "PP": 8865,
      "elementaĠ": 8866,
      "aro": 8867,
      "?-Ġ": 8868,
      "ReÄįĠ": 8869,
      "zab": 8870,
      "licimaĠ": 8871,
      "nauÄįnihĠ": 8872,
      "RazvojĠ": 8873,
      "Ide": 8874,
      "sonaĠ": 8875,
      "vraÄĩaĠ": 8876,
      "obavljanjeĠ": 8877,
      "Wil": 8878,
      "distan": 8879,
      "socijalnogĠ": 8880,
      "preminu": 8881,
      "PolitikaĠ": 8882,
      "Stefan": 8883,
      "talnogĠ": 8884,
      "naÅ¡liĠ": 8885,
      "sadeĠ": 8886,
      "speri": 8887,
      "posebnaĠ": 8888,
      "basĠ": 8889,
      "septembarĠ": 8890,
      "upuÄĩujeĠ": 8891,
      "teÅ¡ko": 8892,
      "ubistvaĠ": 8893,
      "Zdrav": 8894,
      "umr": 8895,
      "energi": 8896,
      "zatva": 8897,
      "graÄĳanimaĠ": 8898,
      "prvo": 8899,
      "srednjegĠ": 8900,
      "cajuĠ": 8901,
      "visiniĠ": 8902,
      "liÄįnostĠ": 8903,
      "iko": 8904,
      "naglaÅ¡avaĠ": 8905,
      "putevaĠ": 8906,
      "ÄįijuĠ": 8907,
      "XX": 8908,
      "El": 8909,
      "PoÅ¡al": 8910,
      "ljajuÄĩiĠ": 8911,
      "putnikaĠ": 8912,
      "vaku": 8913,
      "UÄįe": 8914,
      "subjektaĠ": 8915,
      "up": 8916,
      "Å¡pan": 8917,
      "poljoprivredeĠ": 8918,
      "postiÅ¾eĠ": 8919,
      "zvezdeĠ": 8920,
      "generalnoĠ": 8921,
      "ryĠ": 8922,
      "Av": 8923,
      "ÉŁÉľ": 8924,
      "kontrolneĠ": 8925,
      "stamaĠ": 8926,
      "Å¡enaĠ": 8927,
      "kvalita": 8928,
      "DrÅ¾avaĠ": 8929,
      "taÄįakaĠ": 8930,
      "lokacijeĠ": 8931,
      "plastiÄį": 8932,
      "istorijaĠ": 8933,
      "----": 8934,
      "liÄįnogĠ": 8935,
      "oblikeĠ": 8936,
      "medĠ": 8937,
      "lokalitetaĠ": 8938,
      "AutorĠ": 8939,
      "praviloĠ": 8940,
      "jaÄįiĠ": 8941,
      "vojnikaĠ": 8942,
      "glaviĠ": 8943,
      "Aj": 8944,
      "principuĠ": 8945,
      "Å¾niĠ": 8946,
      "kazaoĠ": 8947,
      "1976Ġ": 8948,
      "gubitkaĠ": 8949,
      "Qu": 8950,
      "JUĠ": 8951,
      "meramaĠ": 8952,
      "trenutkaĠ": 8953,
      "oseÄĩanjaĠ": 8954,
      "inku": 8955,
      "alataĠ": 8956,
      "odbaci": 8957,
      "É«ÉŃĠ": 8958,
      "BogĠ": 8959,
      "naÄįelaĠ": 8960,
      "vrÅ¡eĠ": 8961,
      "Å¡komĠ": 8962,
      "osnovnogĠ": 8963,
      "integracijeĠ": 8964,
      "tnijeĠ": 8965,
      "Mana": 8966,
      "beleÅ¾": 8967,
      "jtĠ": 8968,
      "informacijamaĠ": 8969,
      "m3Ġ": 8970,
      "agencijeĠ": 8971,
      "konzerva": 8972,
      "odse": 8973,
      "visokaĠ": 8974,
      "ambijen": 8975,
      "utvrÄĳenaĠ": 8976,
      "1975Ġ": 8977,
      "MIĠ": 8978,
      "iskr": 8979,
      "bakterijaĠ": 8980,
      "ITĠ": 8981,
      "RepubliÄį": 8982,
      "nineĠ": 8983,
      "vrstiĠ": 8984,
      "Karak": 8985,
      "katastro": 8986,
      "IstovremenoĠ": 8987,
      "pomen": 8988,
      "vlasnikĠ": 8989,
      "implici": 8990,
      "engleskogĠ": 8991,
      "kuhin": 8992,
      "É«Éľ": 8993,
      "nepovolj": 8994,
      "É¢ÊģÉŁĠ": 8995,
      "FrancuskeĠ": 8996,
      "naoruÅ¾": 8997,
      "Holan": 8998,
      "standardĠ": 8999,
      "lajnĠ": 9000,
      "prijaveĠ": 9001,
      "svojevr": 9002,
      "jon": 9003,
      "ubrzoĠ": 9004,
      "NekaĠ": 9005,
      "strahĠ": 9006,
      "novÄįan": 9007,
      "nÑĭ": 9008,
      "ureÄĳa": 9009,
      "jestĠ": 9010,
      "pojedinacaĠ": 9011,
      "Obra": 9012,
      "filmuĠ": 9013,
      "HzĠ": 9014,
      "normalnoĠ": 9015,
      "juÄįeĠ": 9016,
      "nivoimaĠ": 9017,
      "neza": 9018,
      "turni": 9019,
      "SKAĠ": 9020,
      "odva": 9021,
      "donoÅ¡enjeĠ": 9022,
      "koeficijentaĠ": 9023,
      "tehniÄįkeĠ": 9024,
      "Pore": 9025,
      "oÄįekivanjaĠ": 9026,
      "kaznaĠ": 9027,
      "rijamaĠ": 9028,
      "DrugimĠ": 9029,
      "medal": 9030,
      "PRA": 9031,
      "suspen": 9032,
      "talen": 9033,
      "serti": 9034,
      "skĠ": 9035,
      "informacijuĠ": 9036,
      "1972Ġ": 9037,
      "naknad": 9038,
      "visinaĠ": 9039,
      "organizacijamaĠ": 9040,
      "povezaneĠ": 9041,
      "kruÅ¾": 9042,
      "pokuÅ¡ajĠ": 9043,
      "zate": 9044,
      "MOĠ": 9045,
      "ï¿½": 9046,
      "Kragujev": 9047,
      "ostajuĠ": 9048,
      "propagan": 9049,
      "kat": 9050,
      "veÄĩinuĠ": 9051,
      "FO": 9052,
      "ÄįilaĠ": 9053,
      "obraduĠ": 9054,
      "zahtevimaĠ": 9055,
      "nedovoljnoĠ": 9056,
      "tinj": 9057,
      "rukovodi": 9058,
      "VIIĠ": 9059,
      "negativnoĠ": 9060,
      "podsta": 9061,
      "prethodnogĠ": 9062,
      "pole": 9063,
      "razdva": 9064,
      "poglavljaĠ": 9065,
      "pokretĠ": 9066,
      "opu": 9067,
      "semenaĠ": 9068,
      "osci": 9069,
      "kompara": 9070,
      "izgradnjiĠ": 9071,
      "siroma": 9072,
      "hemo": 9073,
      "Fri": 9074,
      "UprkosĠ": 9075,
      "radniĠ": 9076,
      "1977Ġ": 9077,
      "105Ġ": 9078,
      "varijanseĠ": 9079,
      "efektaĠ": 9080,
      "postupakaĠ": 9081,
      "uoÄįitiĠ": 9082,
      "oÄįekivatiĠ": 9083,
      "koliÄįinuĠ": 9084,
      "napredakĠ": 9085,
      "vlada": 9086,
      "alnojĠ": 9087,
      "1973Ġ": 9088,
      "produkcijeĠ": 9089,
      "odgovo": 9090,
      "telesneĠ": 9091,
      "ckiĠ": 9092,
      "Åłved": 9093,
      "manjimĠ": 9094,
      "takvogĠ": 9095,
      "pak": 9096,
      "rezisten": 9097,
      "odamaĠ": 9098,
      "povu": 9099,
      "Å¾eniĠ": 9100,
      "uloziĠ": 9101,
      "najveÄĩihĠ": 9102,
      "Å¡eÄĩe": 9103,
      "IKĠ": 9104,
      "prenosĠ": 9105,
      "ekster": 9106,
      "habili": 9107,
      "rodĠ": 9108,
      "takoz": 9109,
      "gran": 9110,
      "7ÄĨĠ": 9111,
      "okrenu": 9112,
      "daniĠ": 9113,
      "RadiĠ": 9114,
      "Kvali": 9115,
      "timi": 9116,
      "finansiranjaĠ": 9117,
      "posmatratiĠ": 9118,
      "opĠ": 9119,
      "politiciĠ": 9120,
      "navedenimĠ": 9121,
      "miÅ¡iÄĩ": 9122,
      "rekliĠ": 9123,
      "Ã¿": 9124,
      "finansijskiĠ": 9125,
      "teli": 9126,
      "tiranjeĠ": 9127,
      "sektorĠ": 9128,
      "paÅ¾njaĠ": 9129,
      "lipi": 9130,
      "najnovi": 9131,
      "Rumuni": 9132,
      "pomenutiĠ": 9133,
      "elastiÄį": 9134,
      "gasĠ": 9135,
      "vizanti": 9136,
      "skov": 9137,
      "goja": 9138,
      "motoraĠ": 9139,
      "odraslihĠ": 9140,
      "ÄĲu": 9141,
      "ostaneĠ": 9142,
      "pisanjaĠ": 9143,
      "fosfa": 9144,
      "osnovnimĠ": 9145,
      "prirodnogĠ": 9146,
      "PDVĠ": 9147,
      "posebnuĠ": 9148,
      "prosti": 9149,
      "vladavineĠ": 9150,
      "sveobuhva": 9151,
      "klub": 9152,
      "upravlja": 9153,
      "gur": 9154,
      "zemljiÅ¡teĠ": 9155,
      "poviĠ": 9156,
      "É¨ÉŀĠ": 9157,
      "utvrditiĠ": 9158,
      "zar": 9159,
      "prirodneĠ": 9160,
      "OMĠ": 9161,
      "ramoĠ": 9162,
      "rezolu": 9163,
      "kontekstĠ": 9164,
      "9ÄĨĠ": 9165,
      "formirajuĠ": 9166,
      "GrupaĠ": 9167,
      "pori": 9168,
      "ostatiĠ": 9169,
      "anskiĠ": 9170,
      "osnovĠ": 9171,
      "tanaĠ": 9172,
      "Mod": 9173,
      "eksplici": 9174,
      "misaoĠ": 9175,
      "preduzi": 9176,
      "kapitalĠ": 9177,
      "komplika": 9178,
      "obras": 9179,
      "knjiÅ¾evnostĠ": 9180,
      "bivÅ¡iĠ": 9181,
      "zinaĠ": 9182,
      "glavuĠ": 9183,
      "Central": 9184,
      "kilometaraĠ": 9185,
      "SKIĠ": 9186,
      "Å¡temĠ": 9187,
      "pasiv": 9188,
      "dozvoleĠ": 9189,
      "É¢É«É": 9190,
      "nemoguÄĩeĠ": 9191,
      "nizaĠ": 9192,
      "bje": 9193,
      "tiÄįkoĠ": 9194,
      ".*Ġ": 9195,
      "saradnjaĠ": 9196,
      "Å¡ihĠ": 9197,
      "raleĠ": 9198,
      "Haj": 9199,
      "redomĠ": 9200,
      "zujuÄĩiĠ": 9201,
      "krup": 9202,
      "udru": 9203,
      "riceĠ": 9204,
      "mater": 9205,
      "zana": 9206,
      "menjajuĠ": 9207,
      "1968Ġ": 9208,
      "gelĠ": 9209,
      "aktivneĠ": 9210,
      "AmericiĠ": 9211,
      "prirodnoĠ": 9212,
      "veÄĩojĠ": 9213,
      "HrvatskaĠ": 9214,
      "zinĠ": 9215,
      "verujeĠ": 9216,
      "prvimĠ": 9217,
      "kodi": 9218,
      "viÅ¡imĠ": 9219,
      "kil": 9220,
      "obavljajuĠ": 9221,
      "izuÄį": 9222,
      "vrije": 9223,
      "denihĠ": 9224,
      "tiranjaĠ": 9225,
      "glasovaĠ": 9226,
      "identifiko": 9227,
      "odreÄĳenuĠ": 9228,
      "ljivimĠ": 9229,
      "pobed": 9230,
      "gvoÅ¾": 9231,
      "zadovoljstvaĠ": 9232,
      "Å¡atiĠ": 9233,
      "doktorskeĠ": 9234,
      "makarĠ": 9235,
      "Min": 9236,
      "ÄįekaĠ": 9237,
      "spoljnihĠ": 9238,
      "jivanjaĠ": 9239,
      "Gos": 9240,
      "doneoĠ": 9241,
      "poboljÅ¡anjaĠ": 9242,
      "spu": 9243,
      "usta": 9244,
      "Olimpi": 9245,
      "konvencional": 9246,
      "Spi": 9247,
      "uveÄĩ": 9248,
      "bombar": 9249,
      "poloviniĠ": 9250,
      "DEĠ": 9251,
      "primenitiĠ": 9252,
      "OdreÄĳ": 9253,
      "koncer": 9254,
      "ceviĠ": 9255,
      "ovicaĠ": 9256,
      "stoje": 9257,
      "povredaĠ": 9258,
      "uliceĠ": 9259,
      "ÄįevaĠ": 9260,
      "parametraĠ": 9261,
      "AlĠ": 9262,
      "Nu": 9263,
      "Njujor": 9264,
      "Var": 9265,
      "musĠ": 9266,
      "Han": 9267,
      "suzbi": 9268,
      "nez": 9269,
      "utakmiceĠ": 9270,
      "stepeniĠ": 9271,
      "ekspo": 9272,
      "stranogĠ": 9273,
      "cionuĠ": 9274,
      "nek": 9275,
      "aspektĠ": 9276,
      "LU": 9277,
      "porekloĠ": 9278,
      "definisanjeĠ": 9279,
      "navodnoĠ": 9280,
      "drvetaĠ": 9281,
      "banakaĠ": 9282,
      "1960Ġ": 9283,
      "koloni": 9284,
      "ÄįitavĠ": 9285,
      "ravnoprav": 9286,
      "socijalnihĠ": 9287,
      "konkur": 9288,
      "SaveĠ": 9289,
      "peÅ¡a": 9290,
      "rastu": 9291,
      "PoÅ¡aljiteĠ": 9292,
      "uÄįesni": 9293,
      "postatiĠ": 9294,
      "mLĠ": 9295,
      "Å¡naĠ": 9296,
      "metrijeĠ": 9297,
      "poseteĠ": 9298,
      "É¨É«É": 9299,
      "zemljiÅ¡tuĠ": 9300,
      "odluÄįivanjaĠ": 9301,
      "delega": 9302,
      "ÄĩaoĠ": 9303,
      "ÉļÉ°É¢Êģ": 9304,
      "tersĠ": 9305,
      "terminaĠ": 9306,
      "kriterijumĠ": 9307,
      "ÉŁÊĥ": 9308,
      "bliÅ¾eĠ": 9309,
      "objavljenaĠ": 9310,
      "kriminali": 9311,
      "cationĠ": 9312,
      "evropskimĠ": 9313,
      "gustineĠ": 9314,
      "hemijskihĠ": 9315,
      "iceĠ": 9316,
      "Andre": 9317,
      "stepenuĠ": 9318,
      "PrvogĠ": 9319,
      "em": 9320,
      "koronaĠ": 9321,
      "sadaÅ¡nj": 9322,
      "ese": 9323,
      "celineĠ": 9324,
      "socijalniĠ": 9325,
      "ANJAĠ": 9326,
      "iden": 9327,
      "daneĠ": 9328,
      "finansijskogĠ": 9329,
      "dosadaÅ¡": 9330,
      "zvezdaĠ": 9331,
      "sintak": 9332,
      "Hen": 9333,
      "supstanceĠ": 9334,
      "terapijaĠ": 9335,
      "epiz": 9336,
      "termo": 9337,
      "teruĠ": 9338,
      "ulaziĠ": 9339,
      "unapreÄĳenjaĠ": 9340,
      "grafijeĠ": 9341,
      "roÄĳenĠ": 9342,
      "henĠ": 9343,
      "adi": 9344,
      "prate": 9345,
      "mio": 9346,
      "povezanostiĠ": 9347,
      "zaneĠ": 9348,
      "radniciĠ": 9349,
      "zglob": 9350,
      "ÄįastĠ": 9351,
      "postavljenĠ": 9352,
      "korisnicimaĠ": 9353,
      "venoĠ": 9354,
      "Baj": 9355,
      "vezanaĠ": 9356,
      "lokacijaĠ": 9357,
      "riliĠ": 9358,
[...]
