{
  "version": "1.0",
  "truncation": null,
  "padding": null,
  "added_tokens": [
    {
      "id": 0,
      "content": "[PAD]",
      "single_word": false,
      "lstrip": false,
      "rstrip": false,
      "normalized": false,
      "special": true
    },
    {
      "id": 1,
      "content": "<|up|>",
      "single_word": false,
      "lstrip": false,
      "rstrip": false,
      "normalized": false,
      "special": true
    },
    {
      "id": 2,
      "content": "<|cap|>",
      "single_word": false,
      "lstrip": false,
      "rstrip": false,
      "normalized": false,
      "special": true
    },
    {
      "id": 3,
      "content": "<|cyr_end|>",
      "single_word": false,
      "lstrip": false,
      "rstrip": false,
      "normalized": false,
      "special": true
    },
    {
      "id": 4,
      "content": "<|cyr_start|>",
      "single_word": false,
      "lstrip": false,
      "rstrip": false,
      "normalized": false,
      "special": true
    }
  ],
  "normalizer": null,
  "pre_tokenizer": {
    "type": "ByteLevel",
    "add_prefix_space": true,
    "trim_offsets": true,
    "use_regex": true
  },
  "post_processor": null,
  "decoder": null,
  "model": {
    "type": "BPE",
    "dropout": null,
    "unk_token": null,
    "continuing_subword_prefix": null,
    "end_of_word_suffix": null,
    "fuse_unk": false,
    "byte_fallback": false,
    "ignore_merges": true,
    "vocab": {
      "[PAD]": 0,
      "<|up|>": 1,
      "<|cap|>": 2,
      "<|cyr_end|>": 3,
      "<|cyr_start|>": 4,
      "!": 5,
      "\"": 6,
      "#": 7,
      "$": 8,
      "%": 9,
      "&": 10,
      "'": 11,
      "(": 12,
      ")": 13,
      "*": 14,
      "+": 15,
      ",": 16,
      "-": 17,
      ".": 18,
      "/": 19,
      "0": 20,
      "1": 21,
      "2": 22,
      "3": 23,
      "4": 24,
      "5": 25,
      "6": 26,
      "7": 27,
      "8": 28,
      "9": 29,
      ":": 30,
      ";": 31,
      "<": 32,
      "=": 33,
      ">": 34,
      "?": 35,
      "@": 36,
      "A": 37,
      "B": 38,
      "C": 39,
      "D": 40,
      "E": 41,
      "F": 42,
      "G": 43,
      "H": 44,
      "I": 45,
      "J": 46,
      "K": 47,
      "L": 48,
      "M": 49,
      "N": 50,
      "O": 51,
      "P": 52,
      "Q": 53,
      "R": 54,
      "S": 55,
      "T": 56,
      "U": 57,
      "V": 58,
      "W": 59,
      "X": 60,
      "Y": 61,
      "Z": 62,
      "[": 63,
      "\\": 64,
      "]": 65,
      "^": 66,
      "_": 67,
      "`": 68,
      "a": 69,
      "b": 70,
      "c": 71,
      "d": 72,
      "e": 73,
      "f": 74,
      "g": 75,
      "h": 76,
      "i": 77,
      "j": 78,
      "k": 79,
      "l": 80,
      "m": 81,
      "n": 82,
      "o": 83,
      "p": 84,
      "q": 85,
      "r": 86,
      "s": 87,
      "t": 88,
      "u": 89,
      "v": 90,
      "w": 91,
      "x": 92,
      "y": 93,
      "z": 94,
      "{": 95,
      "|": 96,
      "}": 97,
      "~": 98,
      "¡": 99,
      "¢": 100,
      "£": 101,
      "¤": 102,
      "¥": 103,
      "¦": 104,
      "§": 105,
      "¨": 106,
      "©": 107,
      "ª": 108,
      "«": 109,
      "¬": 110,
      "®": 111,
      "¯": 112,
      "°": 113,
      "±": 114,
      "²": 115,
      "³": 116,
      "´": 117,
      "µ": 118,
      "¶": 119,
      "·": 120,
      "¸": 121,
      "¹": 122,
      "º": 123,
      "»": 124,
      "¼": 125,
      "½": 126,
      "¾": 127,
      "¿": 128,
      "Â": 129,
      "Ã": 130,
      "Ä": 131,
      "Å": 132,
      "Æ": 133,
      "Ç": 134,
      "È": 135,
      "É": 136,
      "Ê": 137,
      "Ë": 138,
      "Ì": 139,
      "Í": 140,
      "Î": 141,
      "Ï": 142,
      "Ð": 143,
      "Ñ": 144,
      "Ò": 145,
      "Ó": 146,
      "Ô": 147,
      "Õ": 148,
      "Ö": 149,
      "×": 150,
      "Ø": 151,
      "Ù": 152,
      "Ú": 153,
      "Û": 154,
      "Ü": 155,
      "Ý": 156,
      "Þ": 157,
      "ß": 158,
      "à": 159,
      "á": 160,
      "â": 161,
      "ã": 162,
      "ä": 163,
      "å": 164,
      "æ": 165,
      "ç": 166,
      "è": 167,
      "é": 168,
      "ê": 169,
      "ë": 170,
      "ì": 171,
      "í": 172,
      "î": 173,
      "ï": 174,
      "ð": 175,
      "ó": 176,
      "ô": 177,
      "Ā": 178,
      "ā": 179,
      "Ă": 180,
      "ă": 181,
      "Ą": 182,
      "ą": 183,
      "Ć": 184,
      "ć": 185,
      "Ĉ": 186,
      "Ċ": 187,
      "Ď": 188,
      "ď": 189,
      "Đ": 190,
      "đ": 191,
      "Ē": 192,
      "ē": 193,
      "Ĕ": 194,
      "ĕ": 195,
      "Ė": 196,
      "ė": 197,
      "Ę": 198,
      "ę": 199,
      "Ě": 200,
      "ě": 201,
      "Ġ": 202,
      "ġ": 203,
      "Ģ": 204,
      "ģ": 205,
      "Ĥ": 206,
      "ĥ": 207,
      "Ħ": 208,
      "ħ": 209,
      "Ĩ": 210,
      "ĩ": 211,
      "Ī": 212,
      "ī": 213,
      "Ĭ": 214,
      "ĭ": 215,
      "Į": 216,
      "į": 217,
      "İ": 218,
      "ı": 219,
      "Ĳ": 220,
      "ĳ": 221,
      "Ĵ": 222,
      "ĵ": 223,
      "Ķ": 224,
      "ķ": 225,
      "ĸ": 226,
      "Ĺ": 227,
      "ĺ": 228,
      "Ļ": 229,
      "ļ": 230,
      "Ľ": 231,
      "ľ": 232,
      "Ŀ": 233,
      "ŀ": 234,
      "Ł": 235,
      "ł": 236,
      "Ń": 237,
      "<|": 238,
      "|>": 239,
      "ca": 240,
      "cap": 241,
      "Ġs": 242,
      "Ġp": 243,
      "je": 244,
      "na": 245,
      "Ġi": 246,
      "ra": 247,
      "st": 248,
      "ko": 249,
      "ni": 250,
      "no": 251,
      "Ġd": 252,
      "Ġo": 253,
      "re": 254,
      "Ġu": 255,
      "ja": 256,
      "Äį": 257,
      "va": 258,
      "ne": 259,
      "li": 260,
      "ma": 261,
      "ri": 262,
      "ka": 263,
      "Å¡": 264,
      "ti": 265,
      "Ġpo": 266,
      "ta": 267,
      "la": 268,
      ".<|": 269,
      "ro": 270,
      "Ġna": 271,
      "Ġje": 272,
      "za": 273,
      "ve": 274,
      "te": 275,
      "vo": 276,
      "ci": 277,
      "me": 278,
      "vi": 279,
      "Ġko": 280,
      "Ġb": 281,
      "Äĩ": 282,
      "ju": 283,
      "Å¾": 284,
      "to": 285,
      "en": 286,
      "sta": 287,
      "ji": 288,
      "lo": 289,
      "Ġa": 290,
      "Ġza": 291,
      "Ġda": 292,
      "mo": 293,
      "di": 294,
      "up": 295,
      "Ġse": 296,
      "le": 297,
      "da": 298,
      "cy": 299,
      "cyr": 300,
      "Ġsa": 301,
      "Ġg": 302,
      "nje": 303,
      "Ġod": 304,
      "sti": 305,
      "ki": 306,
      "ru": 307,
      "mi": 308,
      "Ġne": 309,
      "Ġka": 310,
      "Ġdo": 311,
      "Ġra": 312,
      "Ġsu": 313,
      "Ġpre": 314,
      "de": 315,
      "Ġpro": 316,
      "zi": 317,
      "âĢ": 318,
      "Ġk": 319,
      "po": 320,
      "Ġiz": 321,
      "Äĳ": 322,
      "ke": 323,
      "rt": 324,
      "nja": 325,
      "Ġ(": 326,
      "Ġpri": 327,
      "Ġt": 328,
      "go": 329,
      "nu": 330,
      "Ġmo": 331,
      "end": 332,
      "si": 333,
      "Ġre": 334,
      "Ġbi": 335,
      "Ġ1": 336,
      "start": 337,
      "Äįi": 338,
      "sa": 339,
      "ga": 340,
      "Ġe": 341,
      "Ġf": 342,
      "bi": 343,
      "ku": 344,
      "ce": 345,
      "nih": 346,
      "tu": 347,
      ",<|": 348,
      "Ġz": 349,
      "lu": 350,
      "se": 351,
      "Ġve": 352,
      "nog": 353,
      "Ġde": 354,
      "Äįe": 355,
      "Äĩe": 356,
      "Ġme": 357,
      "Ġv": 358,
      "Ġ2": 359,
      "Å¾e": 360,
      "ba": 361,
      "ĠÅ¡": 362,
      "Ġte": 363,
      "Äįa": 364,
      "du": 365,
      "sto": 366,
      "Ġma": 367,
      "Ġto": 368,
      "Ġni": 369,
      "Å¾i": 370,
      "ski": 371,
      "lja": 372,
      "ĠâĢ": 373,
      "sko": 374,
      "Ġkoji": 375,
      "nom": 376,
      "lje": 377,
      "cija": 378,
      "pa": 379,
      "Ġin": 380,
      "Ġob": 381,
      "do": 382,
      "pi": 383,
      "cije": 384,
      "Ġgo": 385,
      "Ġh": 386,
      "nosti": 387,
      "Ġpa": 388,
      "tra": 389,
      "gu": 390,
      "or": 391,
      "pe": 392,
      "Ġta": 393,
      "Ġraz": 394,
      "mu": 395,
      "Äĩi": 396,
      "be": 397,
      "nim": 398,
      "Ġvi": 399,
      "gi": 400,
      "nji": 401,
      "Å¾a": 402,
      "gra": 403,
      "Ġkao": 404,
      "jo": 405,
      "Ġmi": 406,
      "red": 407,
      "bo": 408,
      "su": 409,
      "Ġsta": 410,
      "Å¡e": 411,
      "tiv": 412,
      "so": 413,
      "lju": 414,
      "|><|": 415,
      "00": 416,
      "Äĩa": 417,
      "Ġsi": 418,
      "fi": 419,
      "Ġli": 420,
      "ze": 421,
      "Ġpra": 422,
      "Ġ(<|": 423,
      "Ġ,": 424,
      "ste": 425,
      "nju": 426,
      "zu": 427,
      "nost": 428,
      "Ġdru": 429,
      "Ġdi": 430,
      "Ġsve": 431,
      "ho": 432,
      "vr": 433,
      "vu": 434,
      "Ġkon": 435,
      "Ġgodi": 436,
      "ske": 437,
      "Ġc": 438,
      "Ġno": 439,
      "Äĳe": 440,
      "pu": 441,
      "zo": 442,
      "vanje": 443,
      "Äĳu": 444,
      "sno": 445,
      "Ġva": 446,
      "''": 447,
      "Å¡a": 448,
      "Ġpred": 449,
      "Ġili": 450,
      "Ġbe": 451,
      "Ġsr": 452,
      "stav": 453,
      "Ġis": 454,
      "men": 455,
      "Ġpe": 456,
      "vanja": 457,
      "kom": 458,
      "Ġkoje": 459,
      "lj": 460,
      "Ġima": 461,
      "Ġm": 462,
      "Å¡i": 463,
      "Ġ19": 464,
      "..": 465,
      "ĠÅ¡to": 466,
      "pre": 467,
      "ge": 468,
      "Ġpos": 469,
      "Ġvo": 470,
      "Ġbo": 471,
      "Ġst": 472,
      "lji": 473,
      "Ġzna": 474,
      "ĠâĢŀ": 475,
      "nika": 476,
      "Ġus": 477,
      "Ġja": 478,
      "Ġba": 479,
      "Ġsvo": 480,
      "Ġpod": 481,
      "Ġnaj": 482,
      "cio": 483,
      "Äįki": 484,
      "ska": 485,
      "rÅ¾a": 486,
      "Ġgra": 487,
      ").<|": 488,
      "Ġ20": 489,
      "Ġodno": 490,
      "enje": 491,
      "ĠÄĩe": 492,
      "Ġtre": 493,
      "skog": 494,
      "rija": 495,
      "Äįu": 496,
      "Ġpi": 497,
      "Ġnje": 498,
      "Ġ3": 499,
      "âĢľ": 500,
      "pra": 501,
      "fe": 502,
      "Ġ.<|": 503,
      "Ġpu": 504,
      "Ġpot": 505,
      "Ġjed": 506,
      "Ġgodine": 507,
      "Ġfi": 508,
      "Ġti": 509,
      "viÄĩ": 510,
      "ran": 511,
      "zna": 512,
      "Ġkoja": 513,
      "nal": 514,
      "stra": 515,
      "Ġsamo": 516,
      "enja": 517,
      "dni": 518,
      "Ġnije": 519,
      "govo": 520,
      "Ġstra": 521,
      "ĠmoÅ¾e": 522,
      ":<|": 523,
      "reme": 524,
      "ha": 525,
      "''<|": 526,
      "Ġle": 527,
      "sni": 528,
      "noj": 529,
      "ĠÄįi": 530,
      "Ġbu": 531,
      "skih": 532,
      "Ġkori": 533,
      "Ġ-": 534,
      "Ġmogu": 535,
      "ĠâĢĵ": 536,
      "Å¡ta": 537,
      "ciju": 538,
      "Ġinte": 539,
      "liko": 540,
      "Ġpr": 541,
      "Ġali": 542,
      "kto": 543,
      "Äĳa": 544,
      "cu": 545,
      "Ġovo": 546,
      "ĠÄįe": 547,
      "iz": 548,
      "Ġsrbi": 549,
      "Ġdu": 550,
      "tro": 551,
      "Å¡ti": 552,
      "Ġro": 553,
      "stup": 554,
      "kon": 555,
      "Ġbro": 556,
      "Ġfa": 557,
      "Ġmu": 558,
      "Ġnji": 559,
      "lika": 560,
      "),": 561,
      "Ġku": 562,
      "bu": 563,
      "stva": 564,
      "ĠÅ¾i": 565,
      "on": 566,
      "Ġ4": 567,
      "Ġso": 568,
      "pri": 569,
      "Ġtu": 570,
      "stvo": 571,
      "bra": 572,
      "Ġan": 573,
      "Ġpla": 574,
      "tno": 575,
      "pro": 576,
      "vih": 577,
      "vima": 578,
      "Ġak": 579,
      "ĠÄį": 580,
      "Ġ201": 581,
      "gle": 582,
      "nije": 583,
      "Ġprime": 584,
      "Ġslu": 585,
      "Ġtako": 586,
      "Ġvr": 587,
      "Ġkom": 588,
      "Ġor": 589,
      "Ġlo": 590,
      "vlja": 591,
      "kup": 592,
      "Å¡t": 593,
      "he": 594,
      "Ġbio": 595,
      "Ġga": 596,
      "Ġkri": 597,
      "hi": 598,
      "Ġosno": 599,
      "Ġ200": 600,
      "Å¡te": 601,
      "Äįko": 602,
      "stavlja": 603,
      "lek": 604,
      "Ġjo": 605,
      "ÂŃ": 606,
      "Ġru": 607,
      "Ġci": 608,
      "ĠÉ": 609,
      "Ġze": 610,
      "Ġkra": 611,
      "Ġ5": 612,
      "Ġpoli": 613,
      "Äĩu": 614,
      "for": 615,
      "dno": 616,
      "Ġgr": 617,
      "vni": 618,
      "Ġspo": 619,
      "Ġkako": 620,
      "Ġop": 621,
      "rije": 622,
      "Ġvla": 623,
      "gla": 624,
      "Ġuz": 625,
      "Ġrazli": 626,
      "Ġla": 627,
      "nali": 628,
      "skom": 629,
      "meÄĳu": 630,
      "Ġlju": 631,
      "jom": 632,
      "Ġkod": 633,
      "Äįke": 634,
      "Ġau": 635,
      "Ġju": 636,
      "Ġsva": 637,
      "Ġot": 638,
      "nt": 639,
      "ĠviÅ¡e": 640,
      "Ġtra": 641,
      "Äįno": 642,
      "Ġ\"": 643,
      "Ġce": 644,
      "Ġvred": 645,
      "Ġproce": 646,
      "Ġisto": 647,
      "Ġorga": 648,
      "vim": 649,
      "vali": 650,
      "Äįaj": 651,
      "Ġposto": 652,
      "klju": 653,
      "ciji": 654,
      "vara": 655,
      "-<|": 656,
      "dan": 657,
      "Ġgla": 658,
      "menta": 659,
      "Ġpove": 660,
      "tni": 661,
      "tim": 662,
      "kla": 663,
      "hva": 664,
      "Éļ": 665,
      "Ġsiste": 666,
      "ĠâĢŀ<|": 667,
      "Ġ''<|": 668,
      "Ġkada": 669,
      ")<|": 670,
      "vaju": 671,
      "al": 672,
      "20": 673,
      "rak": 674,
      "Ġdana": 675,
      "nda": 676,
      "van": 677,
      "nk": 678,
      "ĠdrÅ¾a": 679,
      "Ġok": 680,
      "kaza": 681,
      "Ġsad": 682,
      "ven": 683,
      "Ġodre": 684,
      "sku": 685,
      "âĢĿ": 686,
      "Ġova": 687,
      "lta": 688,
      "rio": 689,
      "ĠÅ¾ivo": 690,
      "Ġge": 691,
      "rom": 692,
      "Ġgrup": 693,
      "Ġek": 694,
      "Ġvreme": 695,
      "skim": 696,
      "Ġbiti": 697,
      "loÅ¡": 698,
      "lazi": 699,
      "spo": 700,
      "ng": 701,
      "Ġ6": 702,
      "izvo": 703,
      "cima": 704,
      "Ġste": 705,
      "Ġdobi": 706,
      "vom": 707,
      "ogra": 708,
      "den": 709,
      "Ġal": 710,
      "Ġslo": 711,
      "Ġnjiho": 712,
      "tre": 713,
      "nica": 714,
      "lne": 715,
      "Ġbez": 716,
      "Ġposle": 717,
      "tri": 718,
      "lan": 719,
      "tak": 720,
      "vno": 721,
      "Ġoba": 722,
      "Ġtreba": 723,
      "kre": 724,
      "Ġdrugi": 725,
      "mena": 726,
      "Ġradi": 727,
      "ĠmeÄĳu": 728,
      "Ġveli": 729,
      "Ġistra": 730,
      "cen": 731,
      "Ġfu": 732,
      "Ġ.": 733,
      "dra": 734,
      "rod": 735,
      "Ġhi": 736,
      "ĠÅ¾e": 737,
      "Ġsam": 738,
      "Ġosta": 739,
      "ver": 740,
      "Ġobra": 741,
      "man": 742,
      "bog": 743,
      "matra": 744,
      "Ġuti": 745,
      "stu": 746,
      "teri": 747,
      "juÄĩi": 748,
      "Ġpose": 749,
      "Ġbilo": 750,
      "Ġprema": 751,
      "cional": 752,
      "bli": 753,
      "Ġjer": 754,
      "Ġproizvo": 755,
      "ksi": 756,
      "Ġbroj": 757,
      "tom": 758,
      "Ġnema": 759,
      "Ġdok": 760,
      "ĠnaÄįi": 761,
      "spe": 762,
      "Ġorgani": 763,
      "19": 764,
      "Ġzem": 765,
      "rti": 766,
      "ĠizmeÄĳu": 767,
      "Ġcr": 768,
      "Ġfor": 769,
      "zulta": 770,
      "Ġstru": 771,
      "Ġsrp": 772,
      "É¢": 773,
      "teta": 774,
      "Ġpita": 775,
      "vog": 776,
      "ĠveÄĩ": 777,
      "sle": 778,
      "vlje": 779,
      "Å¡to": 780,
      "lni": 781,
      "Ġpoliti": 782,
      "voj": 783,
      "Ġauto": 784,
      "Ġispi": 785,
      "ÉŁ": 786,
      "ĠuÄįe": 787,
      "Ġ0": 788,
      "njem": 789,
      "in": 790,
      "stru": 791,
      "Ġanali": 792,
      "Ġev": 793,
      "Ġpotre": 794,
      "Ġsto": 795,
      "slo": 796,
      "Ġtr": 797,
      "Ġri": 798,
      "Ġmode": 799,
      "lno": 800,
      "ble": 801,
      "Ġmora": 802,
      "É¨": 803,
      "Äįne": 804,
      "om": 805,
      "rni": 806,
      "Ġrad": 807,
      "Äī": 808,
      "Ġki": 809,
      "kra": 810,
      "Ġoko": 811,
      "jedi": 812,
      "Ġkre": 813,
      "ĠdruÅ¡t": 814,
      "sla": 815,
      "skoj": 816,
      "Äįka": 817,
      "koliko": 818,
      "ĠistraÅ¾i": 819,
      "Ġzbog": 820,
      "ktu": 821,
      "Ġupo": 822,
      "ĠznaÄįaj": 823,
      "rne": 824,
      "Ġgodina": 825,
      "Ġ7": 826,
      "vanju": 827,
      "Ġupra": 828,
      "Ġizra": 829,
      "joj": 830,
      "tet": 831,
      "ter": 832,
      "op": 833,
      "ren": 834,
      "vodi": 835,
      "Ġpoda": 836,
      "Ġhe": 837,
      "Ġpret": 838,
      "Ġrezulta": 839,
      "ĠrazliÄįi": 840,
      "vne": 841,
      "fa": 842,
      "pisa": 843,
      "Äįni": 844,
      "....": 845,
      "Ġ18": 846,
      "logi": 847,
      "Ġnasta": 848,
      "Ġbeogra": 849,
      "Ġpredstavlja": 850,
      "kti": 851,
      "Ġbila": 852,
      "Ġnjego": 853,
      "Ġstu": 854,
      "Ġtri": 855,
      "nima": 856,
      "Ġvrednosti": 857,
      "kri": 858,
      "Ġodnosno": 859,
      "Ġjedi": 860,
      "kao": 861,
      "forma": 862,
      ".,": 863,
      "ĠÄįa": 864,
      "Ġbr": 865,
      "Ġsrbije": 866,
      "vede": 867,
      "Ġon": 868,
      "Ġsred": 869,
      "nta": 870,
      "bno": 871,
      "Äĳi": 872,
      "ltu": 873,
      ";<|": 874,
      "tne": 875,
      "log": 876,
      "fika": 877,
      "Ġsre": 878,
      "Ġn": 879,
      "Ġuslo": 880,
      "Ġevro": 881,
      "Å¡ko": 882,
      "vati": 883,
      "nici": 884,
      "Ġjezi": 885,
      "bro": 886,
      "ĠU": 887,
      "Ġ8": 888,
      "ako": 889,
      "Äįkog": 890,
      "Ġposlo": 891,
      "Ġ10": 892,
      "niji": 893,
      "Ġobja": 894,
      "Ġha": 895,
      "Ġnakon": 896,
      "rta": 897,
      "ĠpoÄįe": 898,
      "Äįkih": 899,
      "Ġaktiv": 900,
      "ner": 901,
      "Ġnivo": 902,
      "jem": 903,
      "Ġim": 904,
      "tar": 905,
      "Ġfunk": 906,
      "Ġho": 907,
      "Ġstrane": 908,
      "nija": 909,
      "Ġfe": 910,
      "Ġsmo": 911,
      "Ġzaje": 912,
      "Ġ199": 913,
      "kazu": 914,
      "rs": 915,
      "Ġdva": 916,
      "ĠsluÄįa": 917,
      "Ġobe": 918,
      "stve": 919,
      "sli": 920,
      "Ġzako": 921,
      "Ġsli": 922,
      "ÄĨ": 923,
      "Ġar": 924,
      "Å¾u": 925,
      "Ġproble": 926,
      "Ġodlu": 927,
      "ali": 928,
      "pera": 929,
      "Ġnisu": 930,
      "vreme": 931,
      "ĠnaÄįin": 932,
      "Ġw": 933,
      "ona": 934,
      "ranje": 935,
      "ĠjoÅ¡": 936,
      "Ġako": 937,
      "Ġcen": 938,
      "nice": 939,
      "tvr": 940,
      "__": 941,
      "Ġmate": 942,
      "vrÅ¡i": 943,
      "Ġutica": 944,
      "Ġtoga": 945,
      "*<|": 946,
      "nova": 947,
      "dom": 948,
      "lija": 949,
      "Ġpoja": 950,
      "lom": 951,
      "Ġspe": 952,
      "vnog": 953,
      "Ġjedan": 954,
      "É¨É": 955,
      "tima": 956,
      "vao": 957,
      "Ġpozi": 958,
      "Ġvoj": 959,
      "Ġizvo": 960,
      "Ġ9": 961,
      "Ġmeto": 962,
      "Ġpomo": 963,
      "Ġfo": 964,
      "Å£": 965,
      "od": 966,
      "rodi": 967,
      "Ġodgovo": 968,
      "roz": 969,
      "Ġprosto": 970,
      "Ġove": 971,
      "Ġiza": 972,
      "ĠzaÅ¡ti": 973,
      "Ġperio": 974,
      "Ġnad": 975,
      "Ġpore": 976,
      "Ġknji": 977,
      "10": 978,
      "ĠÃ": 979,
      "rno": 980,
      "Ġposta": 981,
      "Åł": 982,
      "Ġtokom": 983,
      "lnih": 984,
      "Ġgde": 985,
      "Å¡Äĩe": 986,
      "fo": 987,
      "Ġkultu": 988,
      "Ġdrugo": 989,
      "Ġoso": 990,
      "rij": 991,
      "rima": 992,
      "Ġkarak": 993,
      "gre": 994,
      "nosi": 995,
      "vnih": 996,
      "Ġtek": 997,
      "Ġeko": 998,
      "Ġgovo": 999,
      "tih": 1000,
      "Ġosnovu": 1001,
      "Ġljudi": 1002,
      "Ġodnosu": 1003,
      "Ġteh": 1004,
      "Äĳen": 1005,
      "?<|": 1006,
      "Ġkojima": 1007,
      "an": 1008,
      "Ġsvet": 1009,
      "Ġsup": 1010,
      "Äįnih": 1011,
      "Ġimaju": 1012,
      "ÉļÉ": 1013,
      "Ġisti": 1014,
      "met": 1015,
      "rva": 1016,
      "ĠÄįla": 1017,
      "Ġmedi": 1018,
      "pada": 1019,
      "Ġovog": 1020,
      "Ġtran": 1021,
      "dne": 1022,
      "Ġsvoje": 1023,
      "Ġdela": 1024,
      "ova": 1025,
      "tera": 1026,
      "pla": 1027,
      "Ġorganiza": 1028,
      "É¢É": 1029,
      "kih": 1030,
      "Ġuve": 1031,
      "Ġnau": 1032,
      "ĠÅ¡i": 1033,
      "ĠÅ¡ta": 1034,
      "ktiv": 1035,
      "nik": 1036,
      "lnog": 1037,
      "Å¡u": 1038,
      "Ġnego": 1039,
      "novi": 1040,
      "Ġos": 1041,
      "stupa": 1042,
      "govara": 1043,
      "Ġca": 1044,
      "Ġ-<|": 1045,
      "ĠÅ¡ko": 1046,
      "kta": 1047,
      "Ġkoristi": 1048,
      "vani": 1049,
      "Ġ\"<|": 1050,
      "Ġdr": 1051,
      "tor": 1052,
      "Ġpara": 1053,
      "lna": 1054,
      "ten": 1055,
      "Ġtak": 1056,
      ").": 1057,
      "Ġide": 1058,
      "ranja": 1059,
      "Ġsti": 1060,
      "Ġand": 1061,
      "meri": 1062,
      "ĠâĢľ": 1063,
      "gleda": 1064,
      "volj": 1065,
      "Ġdruge": 1066,
      "Ġobave": 1067,
      "Ġsle": 1068,
      "nera": 1069,
      "kog": 1070,
      "ktor": 1071,
      "Ġsla": 1072,
      "vla": 1073,
      "Ġzah": 1074,
      "nan": 1075,
      "ĠodreÄĳe": 1076,
      "mogu": 1077,
      "fini": 1078,
      "Ġkroz": 1079,
      "nata": 1080,
      "Ġkvali": 1081,
      "rova": 1082,
      "Ġdoda": 1083,
      "Ġpojedi": 1084,
      "Ġsna": 1085,
      "Å¡nje": 1086,
      "Ġsme": 1087,
      "manje": 1088,
      "Äįna": 1089,
      "Ġzdra": 1090,
      "nski": 1091,
      "taka": 1092,
      "vnom": 1093,
      "Ġdeo": 1094,
      "Ġgu": 1095,
      "000": 1096,
      "mati": 1097,
      "Ġpravo": 1098,
      "âĢĵ": 1099,
      "Ġpravi": 1100,
      "Ġen": 1101,
      "ĠI": 1102,
      "Ġdelo": 1103,
      "ĠveÄĩi": 1104,
      "Ġkla": 1105,
      "Ġof": 1106,
      "Ġregi": 1107,
      "Ġkoju": 1108,
      "Ġzapo": 1109,
      "Äĳenje": 1110,
      "rna": 1111,
      "Ġloka": 1112,
      "kim": 1113,
      "stitu": 1114,
      "Ġobla": 1115,
      "ove": 1116,
      "Ġkontro": 1117,
      "ndar": 1118,
      "stvu": 1119,
      "Ġokvi": 1120,
      "Ġpopu": 1121,
      "Ġprome": 1122,
      "ÉŁÉ": 1123,
      "Ġprava": 1124,
      "Ġprotiv": 1125,
      "vre": 1126,
      "godi": 1127,
      "kova": 1128,
      "vio": 1129,
      "Ġpredu": 1130,
      "Ġjedna": 1131,
      "Ġ15": 1132,
      "Ġinforma": 1133,
      "kada": 1134,
      "Ġmaterija": 1135,
      "Ġstva": 1136,
      "Ġtome": 1137,
      "Ġzahte": 1138,
      "tka": 1139,
      "Ġih": 1140,
      "dru": 1141,
      "ĠpoveÄĩa": 1142,
      "Ġona": 1143,
      "Ġzajedni": 1144,
      "Ġuni": 1145,
      "Ġuspe": 1146,
      "gen": 1147,
      "stan": 1148,
      "Ġtaj": 1149,
      "Ġsistema": 1150,
      "slu": 1151,
      "cijama": 1152,
      "mina": 1153,
      "Äįenja": 1154,
      "Ġpreko": 1155,
      "Ġnovi": 1156,
      "liza": 1157,
      "Ġviso": 1158,
      "rma": 1159,
      "Ġovom": 1160,
      "Ġsmatra": 1161,
      "12": 1162,
      "Ġbra": 1163,
      "vna": 1164,
      "Ġbude": 1165,
      "Ġprogra": 1166,
      "ĠÅł": 1167,
      "klo": 1168,
      "¿½": 1169,
      "ï¿½": 1170,
      "pr": 1171,
      "Äįnog": 1172,
      "Ġrepu": 1173,
      "nske": 1174,
      "rek": 1175,
      "riji": 1176,
      "Ġproje": 1177,
      "Ġupotre": 1178,
      "Ġbudu": 1179,
      "Å¡Äĩ": 1180,
      "Ġsvoji": 1181,
      "Ġsave": 1182,
      "kle": 1183,
      "Ġbili": 1184,
      "Ġsvi": 1185,
      "dna": 1186,
      "Ġstudi": 1187,
      "Ġ12": 1188,
      "Ġtro": 1189,
      "Å¾en": 1190,
      "Ġdefini": 1191,
      "Ġnepo": 1192,
      "11": 1193,
      "ĠÅ¡e": 1194,
      "Ġmar": 1195,
      "Ġsara": 1196,
      "Ġkr": 1197,
      "Ġovaj": 1198,
      "vija": 1199,
      "Ġutvr": 1200,
      "ch": 1201,
      "loga": 1202,
      "ar": 1203,
      "Ġpostoji": 1204,
      "Ġkarakteri": 1205,
      "tna": 1206,
      "),<|": 1207,
      "dova": 1208,
      "cijom": 1209,
      "tio": 1210,
      "pred": 1211,
      "sije": 1212,
      "Ġdve": 1213,
      "Ġsada": 1214,
      "nogo": 1215,
      "Ġzavi": 1216,
      "Ġsrbiji": 1217,
      "sne": 1218,
      "bri": 1219,
      "denti": 1220,
      "cep": 1221,
      "Ġrazvo": 1222,
      "ĠâĢĵ<|": 1223,
      "Ġmini": 1224,
      "len": 1225,
      "Ġporodi": 1226,
      "san": 1227,
      "ĠsadrÅ¾a": 1228,
      "zira": 1229,
      "co": 1230,
      "Ġteo": 1231,
      "Äįenje": 1232,
      "kako": 1233,
      "noviÄĩ": 1234,
      "tiva": 1235,
      "zima": 1236,
      "sve": 1237,
      "Ġostva": 1238,
      "Ġpokaza": 1239,
      "ĠtakoÄĳe": 1240,
      "plo": 1241,
      "tako": 1242,
      "zova": 1243,
      "Ġkup": 1244,
      "Ġstruktu": 1245,
      "bor": 1246,
      "tion": 1247,
      "Ġuklju": 1248,
      "ĠmoguÄĩ": 1249,
      "dio": 1250,
      "stavlje": 1251,
      "Ġrada": 1252,
      "Ġper": 1253,
      "!<|": 1254,
      "Ġelek": 1255,
      "Ġinter": 1256,
      "zma": 1257,
      "Ġproizvod": 1258,
      "oma": 1259,
      "Ġmla": 1260,
      "razu": 1261,
      "Ġobje": 1262,
      "Ġad": 1263,
      "Ġslobo": 1264,
      "Ġpar": 1265,
      "Ġdece": 1266,
      "menu": 1267,
      "uze": 1268,
      "Ġprili": 1269,
      "Ġbole": 1270,
      "Ġele": 1271,
      "Ġevrop": 1272,
      "nansi": 1273,
      "Ġmeta": 1274,
      "ment": 1275,
      "Ġvu": 1276,
      "Ġnalazi": 1277,
      "Ġosi": 1278,
      "Ġprisu": 1279,
      "Ġispita": 1280,
      "Ġkli": 1281,
      "star": 1282,
      "Ġ<|": 1283,
      "Ġsmi": 1284,
      "vije": 1285,
      "dite": 1286,
      "Ġthe": 1287,
      "Ġnu": 1288,
      "Ġsvoj": 1289,
      "Ġnajve": 1290,
      "tem": 1291,
      "ĠdruÅ¡tve": 1292,
      "kro": 1293,
      "kcije": 1294,
      "viÅ¡e": 1295,
      "Ġoni": 1296,
      "Ġobli": 1297,
      "Ġdanas": 1298,
      "Ġobi": 1299,
      "mira": 1300,
      "stava": 1301,
      "vanjem": 1302,
      "nci": 1303,
      "kva": 1304,
      "koviÄĩ": 1305,
      "meta": 1306,
      "Ġlu": 1307,
      "tua": 1308,
      "Å¡enje": 1309,
      "kata": 1310,
      "15": 1311,
      "Ġukup": 1312,
      "Ġskla": 1313,
      "ĠA": 1314,
      "18": 1315,
      "zije": 1316,
      "ĠÄįu": 1317,
      "Ġpozna": 1318,
      "Ġpreduze": 1319,
      "Ġvra": 1320,
      "Ġrepubli": 1321,
      "mat": 1322,
      "Ġodgovara": 1323,
      "hvata": 1324,
      "ĠsluÄįaju": 1325,
      "bora": 1326,
      "ĠÂ": 1327,
      "Å¡ka": 1328,
      "13": 1329,
      "Ġzaklju": 1330,
      "Ġnaro": 1331,
      "Ġ13": 1332,
      "nd": 1333,
      "Ġener": 1334,
      "Ġsredi": 1335,
      "tira": 1336,
      "ĠistraÅ¾ivanja": 1337,
      "hu": 1338,
      "nama": 1339,
      "Ġ14": 1340,
      "Ġizve": 1341,
      "Ġono": 1342,
      "Ġjedno": 1343,
      "Äĳenja": 1344,
      "Ġnas": 1345,
      "âĢľ,": 1346,
      "Ġunu": 1347,
      "14": 1348,
      "Ġime": 1349,
      "pita": 1350,
      "Ġpretho": 1351,
      "Äįkom": 1352,
      "Ġ/": 1353,
      "Ġslede": 1354,
      "bar": 1355,
      "Ġtom": 1356,
      "Ġaktivnosti": 1357,
      "Å¾be": 1358,
      "Äįkim": 1359,
      "ĠM": 1360,
      "Ġfinansi": 1361,
      "Å¡nji": 1362,
      "Ġugovo": 1363,
      "Ġobu": 1364,
      "Ġkomp": 1365,
      "Ġinstitu": 1366,
      "Ġsvih": 1367,
      "Ġdija": 1368,
      "vred": 1369,
      "Ġmere": 1370,
      "zija": 1371,
      "Ġoblasti": 1372,
      "Ġdra": 1373,
      "Ġjugo": 1374,
      "vine": 1375,
      "Ġskup": 1376,
      "Ġgrupe": 1377,
      "Å¡enja": 1378,
      "Ġr": 1379,
      "Ġdobro": 1380,
      "Äįuna": 1381,
      "Ġap": 1382,
      "snosti": 1383,
      "Ġtim": 1384,
      "janje": 1385,
      "Ġveoma": 1386,
      "Ġet": 1387,
      "...": 1388,
      "nti": 1389,
      "prema": 1390,
      "laze": 1391,
      "Ġnacional": 1392,
      "ktora": 1393,
      "tnih": 1394,
      "Äįan": 1395,
      "mije": 1396,
      "Ġ198": 1397,
      "Ġpotpu": 1398,
      "mini": 1399,
      "sija": 1400,
      "Ġpostoje": 1401,
      "ljivo": 1402,
      "Ġose": 1403,
      "tisti": 1404,
      "Ġpolo": 1405,
      "Ãł": 1406,
      "kazuje": 1407,
      "Ġobrazo": 1408,
      "nskog": 1409,
      "tku": 1410,
      "Ġbeograd": 1411,
      "Ġkarakteristi": 1412,
      "tivno": 1413,
      "Å¾no": 1414,
      "Ġ17": 1415,
      "Ġmnogo": 1416,
      "Ġnekoliko": 1417,
      "Ġnjegovo": 1418,
      "rÅ¾i": 1419,
      "sio": 1420,
      "Ġrazvoj": 1421,
      "Ġbri": 1422,
      "Ġpona": 1423,
      "Ġigra": 1424,
      "âĢĻ": 1425,
      "Ġdalje": 1426,
      "Ġkojoj": 1427,
      "Ġkomu": 1428,
      "Ġkome": 1429,
      "vesti": 1430,
      "Ġpredse": 1431,
      "sna": 1432,
      "gao": 1433,
      "Ġprvi": 1434,
      "ĠB": 1435,
      "jan": 1436,
      "ĠpovrÅ¡i": 1437,
      "200": 1438,
      "Ġomogu": 1439,
      "Ġsitua": 1440,
      "Ġtele": 1441,
      "Ġraspo": 1442,
      "vore": 1443,
      "Ġusta": 1444,
      "vala": 1445,
      "Ã¨": 1446,
      "cioni": 1447,
      "Ġ16": 1448,
      "tora": 1449,
      "Ġstano": 1450,
      "nte": 1451,
      "lim": 1452,
      "lnim": 1453,
      "Ġneza": 1454,
      "Ġefe": 1455,
      "Ġpokre": 1456,
      "Ġsocija": 1457,
      "sao": 1458,
      ".,<|": 1459,
      "Ġmese": 1460,
      "Ġvode": 1461,
      "Ġprija": 1462,
      "zni": 1463,
      "Ã¥": 1464,
      "kat": 1465,
      "Ġfil": 1466,
      "Ġkrivi": 1467,
      "«É": 1468,
      "16": 1469,
      "Ġpodataka": 1470,
      "tnog": 1471,
      "Ġrea": 1472,
      "tivne": 1473,
      "dnik": 1474,
      "Ġokviru": 1475,
      "ĠgraÄĳa": 1476,
      "Ġspro": 1477,
      "Ġvide": 1478,
      "Ġgrad": 1479,
      "Ġ)": 1480,
      "zbe": 1481,
      "Ġintere": 1482,
      "22": 1483,
      "mom": 1484,
      "Ġume": 1485,
      "Ġidenti": 1486,
      "sob": 1487,
      "ĠodrÅ¾a": 1488,
      "Ġgrupa": 1489,
      "Ġindi": 1490,
      "uz": 1491,
      "Ġtrenu": 1492,
      "gije": 1493,
      "centra": 1494,
      "tek": 1495,
      "ĠS": 1496,
      "lih": 1497,
      "Ġkad": 1498,
      "Ġprikaza": 1499,
      "bela": 1500,
      "Ġdoma": 1501,
      "Ġdrugih": 1502,
      "ĠmeÄĳuna": 1503,
      "Ġstvara": 1504,
      "Ġzemlji": 1505,
      "vana": 1506,
      "kve": 1507,
      "Ġeu": 1508,
      "Ġulo": 1509,
      "Äĳuje": 1510,
      "........": 1511,
      "pli": 1512,
      "Ġsistem": 1513,
      "Ġprepo": 1514,
      "ĠÄįita": 1515,
      "nka": 1516,
      "Éª": 1517,
      "Ġpru": 1518,
      "Ġput": 1519,
      "Ġsko": 1520,
      "Ġameri": 1521,
      "snika": 1522,
      "Ġuo": 1523,
      "ĠkoriÅ¡Äĩ": 1524,
      "Ġdobije": 1525,
      "jske": 1526,
      "Äįku": 1527,
      "17": 1528,
      "risti": 1529,
      "janja": 1530,
      "naj": 1531,
      "Ġekonom": 1532,
      "Äįen": 1533,
      "pad": 1534,
      "Å¡tu": 1535,
      "Ġuvek": 1536,
      "tan": 1537,
      "lacije": 1538,
      "Ġpostup": 1539,
      "ume": 1540,
      "Ġnavede": 1541,
      "raz": 1542,
      "Ġeks": 1543,
      "ĠuÄįi": 1544,
      "Ġ,<|": 1545,
      "Ġtem": 1546,
      "Ġnam": 1547,
      "Ġfizi": 1548,
      "Ġnarod": 1549,
      "...<|": 1550,
      "ĠtrÅ¾i": 1551,
      "\"<|": 1552,
      "Ġ:": 1553,
      "Äįnim": 1554,
      "Ġizda": 1555,
      "jski": 1556,
      "er": 1557,
      "âĢŀ": 1558,
      "Ġvas": 1559,
      "Ġstatisti": 1560,
      "lnom": 1561,
      "diti": 1562,
      "ĠreÄįi": 1563,
      "Ġdvo": 1564,
      "com": 1565,
      "Ġvrednost": 1566,
      "Ġspre": 1567,
      "gli": 1568,
      "ĠkaÅ¾e": 1569,
      "Ġnazi": 1570,
      "Ġrizi": 1571,
      "Ġnove": 1572,
      "Ġkompa": 1573,
      "Äįnosti": 1574,
      "Ġveza": 1575,
      "Ġras": 1576,
      "Ġhra": 1577,
      "Ġdelu": 1578,
      "slika": 1579,
      "vnim": 1580,
      "ĠnaÅ¡e": 1581,
      "nskih": 1582,
      "Ġpacije": 1583,
      "Ġispo": 1584,
      "stri": 1585,
      "Ġx": 1586,
      "grani": 1587,
      "vod": 1588,
      "Ġneu": 1589,
      "kul": 1590,
      "ĠÎ": 1591,
      "Ġnedo": 1592,
      "Ġstandar": 1593,
      "Ġupravlja": 1594,
      "Ġname": 1595,
      "Ġnapo": 1596,
      "Ġnjih": 1597,
      "Ġvarija": 1598,
      "grafi": 1599,
      "Ġputa": 1600,
      "Ġone": 1601,
      "viti": 1602,
      "njima": 1603,
      "Ġposti": 1604,
      "Ġposebno": 1605,
      "lije": 1606,
      "Ġobzi": 1607,
      "Ġure": 1608,
      "laga": 1609,
      "grad": 1610,
      "Ġobezbe": 1611,
      "sam": 1612,
      "lnosti": 1613,
      "ĠneÅ¡to": 1614,
      "\",": 1615,
      "ĠÄįove": 1616,
      "kcija": 1617,
      "Ġsub": 1618,
      "pak": 1619,
      "lima": 1620,
      "ĠC": 1621,
      "ndi": 1622,
      "Ġplani": 1623,
      "Ġizvr": 1624,
      "Ġtrans": 1625,
      "Ġkomenta": 1626,
      "Å¡nja": 1627,
      "Ġkar": 1628,
      "Ġmalo": 1629,
      "rnog": 1630,
      "snije": 1631,
      "Ġvremena": 1632,
      "Ġsm": 1633,
      "Ġfran": 1634,
      "fu": 1635,
      "Ġskladu": 1636,
      "Ġpoveza": 1637,
      "rske": 1638,
      "sima": 1639,
      "stro": 1640,
      "Êģ": 1641,
      "Ġpotvr": 1642,
      "Ġsud": 1643,
      "Ġnastav": 1644,
      "nos": 1645,
      "Ġnajbo": 1646,
      "rnih": 1647,
      "Ġanti": 1648,
      "ii": 1649,
      "Ġuniver": 1650,
      "ss": 1651,
      "Ġelektro": 1652,
      "Ġ30": 1653,
      "kuje": 1654,
      "obra": 1655,
      "Ġovih": 1656,
      "____": 1657,
      "ĠâĢĶ": 1658,
      "ks": 1659,
      "ĠdrÅ¾ava": 1660,
      "Ġzi": 1661,
      "Ġgenera": 1662,
      "Ġdina": 1663,
      "Ġkore": 1664,
      "tke": 1665,
      "Ġposled": 1666,
      "nad": 1667,
      "Å¡ava": 1668,
      "Ġvezi": 1669,
      "Ġneko": 1670,
      "Ġonda": 1671,
      "Ġpodru": 1672,
      "Ġmili": 1673,
      "Ġmanje": 1674,
      "Ġdruga": 1675,
      "Ġslika": 1676,
      "ĠopÅ¡ti": 1677,
      "ĠÄįesto": 1678,
      "ÉŃ": 1679,
      "Ġpitanje": 1680,
      "tog": 1681,
      "Ġpristup": 1682,
      "Ġgre": 1683,
      "oj": 1684,
      "Å¡Äĩu": 1685,
      "tori": 1686,
      "Ġuslu": 1687,
      "raju": 1688,
      "snost": 1689,
      "Ġposledi": 1690,
      "Ġprimer": 1691,
      "ĠoÄįe": 1692,
      "Ġter": 1693,
      "Ġcentra": 1694,
      "opho": 1695,
      "Ġvlada": 1696,
      "Ġisku": 1697,
      "Ġparti": 1698,
      "Ġsar": 1699,
      "Äĳena": 1700,
      "jima": 1701,
      "Ġmre": 1702,
      "Ġveka": 1703,
      "Ġproda": 1704,
      "Ġmesto": 1705,
      "Äĩem": 1706,
      "som": 1707,
      "Ġ197": 1708,
      "peratu": 1709,
      "ĠÄįak": 1710,
      "Ġbli": 1711,
      "Ġkoncentra": 1712,
      "is": 1713,
      "vde": 1714,
      "Ġkompo": 1715,
      "Ġministar": 1716,
      "Ġmnog": 1717,
      "ĠÅ¾ivot": 1718,
      "kovi": 1719,
      "Å¡lje": 1720,
      "zam": 1721,
      "line": 1722,
      "ĠÅ¾ivota": 1723,
      "ĠÄįini": 1724,
      "Ġdopri": 1725,
      "21": 1726,
      "Äįkoj": 1727,
      "50": 1728,
      "Ġprote": 1729,
      "Å¡ke": 1730,
      "ĠÅ¡a": 1731,
      "gnu": 1732,
      "Ġperiodu": 1733,
      "ljo": 1734,
      "Ġsvim": 1735,
      "Ġrekao": 1736,
      "ĠÅ¾": 1737,
      "Äįnom": 1738,
      "Ġekspe": 1739,
      "glo": 1740,
      "Ġam": 1741,
      "Ġstr": 1742,
      "Ġjednom": 1743,
      "ĠdrÅ¾ave": 1744,
      "Ġbor": 1745,
      "zen": 1746,
      "Ġmaj": 1747,
      "Ġniko": 1748,
      "Ġkate": 1749,
      "tencija": 1750,
      "zvo": 1751,
      "ĠmeÄĳunarod": 1752,
      "Ġljud": 1753,
      "tin": 1754,
      "cifi": 1755,
      "Å¡ao": 1756,
      "oni": 1757,
      "Ġkoli": 1758,
      "Ġtehno": 1759,
      "Ġprofe": 1760,
      "Ġsvega": 1761,
      "Ġokru": 1762,
      "âĢ¦": 1763,
      "Ġpono": 1764,
      "Ġsim": 1765,
      "meÄĳutim": 1766,
      "Äĩeg": 1767,
      "Ġindu": 1768,
      "vac": 1769,
      "sor": 1770,
      "vra": 1771,
      "Ġlica": 1772,
      "kazuju": 1773,
      "Ġsvojim": 1774,
      "Ġtemperatu": 1775,
      "Ġpored": 1776,
      "drÅ¾a": 1777,
      "Ġbeogradu": 1778,
      "Ġvidi": 1779,
      "Ġograni": 1780,
      "Ġneki": 1781,
      "Ġpoku": 1782,
      "Ġprodu": 1783,
      "Ġgovori": 1784,
      "Ġuticaj": 1785,
      "Ġtvr": 1786,
      "âĢŀ<|": 1787,
      "Ġl": 1788,
      "kav": 1789,
      "ns": 1790,
      "Ġradu": 1791,
      "um": 1792,
      "Ġrazvoja": 1793,
      "Ġodgovor": 1794,
      "Å¡lo": 1795,
      "Ġneopho": 1796,
      "Ġ11": 1797,
      "sova": 1798,
      "Ġposmatra": 1799,
      "Ġzdrav": 1800,
      "Ġtada": 1801,
      "ĠponaÅ¡a": 1802,
      "Å¾enje": 1803,
      "zacije": 1804,
      "Ġkojih": 1805,
      "Ġ194": 1806,
      "Ġzemlje": 1807,
      "telj": 1808,
      "feren": 1809,
      "Ġsvoju": 1810,
      "pen": 1811,
      "Ġdoku": 1812,
      "Ġstrate": 1813,
      "dija": 1814,
      "jskih": 1815,
      "Ġuna": 1816,
      "Ġveliki": 1817,
      "Ġmuzi": 1818,
      "lago": 1819,
      "ĠÄįinje": 1820,
      "qu": 1821,
      "Ġpromene": 1822,
      "Ġkoriste": 1823,
      "bina": 1824,
      "Ġnivou": 1825,
      "menata": 1826,
      "Ġreali": 1827,
      "Ġspa": 1828,
      "Ñı": 1829,
      "Ġsmanje": 1830,
      "bru": 1831,
      "lac": 1832,
      "renja": 1833,
      "gled": 1834,
      "ĠpodruÄį": 1835,
      "Ġdrugim": 1836,
      "Ġzakona": 1837,
      "lnu": 1838,
      "Ġzaposle": 1839,
      "Ġzada": 1840,
      "Ġvre": 1841,
      "Ġizo": 1842,
      "Ġsvako": 1843,
      "ĠknjiÅ¾e": 1844,
      "laz": 1845,
      "ima": 1846,
      "kraji": 1847,
      "Ġprocesa": 1848,
      "pisu": 1849,
      "Äĩih": 1850,
      "zom": 1851,
      "ĠD": 1852,
      "pis": 1853,
      "titi": 1854,
      "Ġpodr": 1855,
      "Ġveliko": 1856,
      "Ġvlasti": 1857,
      "ĠP": 1858,
      "nska": 1859,
      "razume": 1860,
      "Ġdis": 1861,
      "gne": 1862,
      "liti": 1863,
      "Ġozna": 1864,
      "Ġsarad": 1865,
      "ĠrazliÄįitih": 1866,
      "rvat": 1867,
      "Å¡tva": 1868,
      "Ġopera": 1869,
      "Ġuzor": 1870,
      "Ġprilikom": 1871,
      "Ġefika": 1872,
      "smo": 1873,
      "nke": 1874,
      "Ġpriro": 1875,
      "Ġposeb": 1876,
      "Ġbroja": 1877,
      "Ġpode": 1878,
      "tivni": 1879,
      "Ġuspo": 1880,
      "ĠznaÄįa": 1881,
      "Ġzavr": 1882,
      "ĠmoguÄĩe": 1883,
      "tvo": 1884,
      "gaÄĳa": 1885,
      "Ġjeste": 1886,
      "Ġ&": 1887,
      "ĠneÄĩe": 1888,
      "Ġpitanja": 1889,
      "vina": 1890,
      "Ġproces": 1891,
      "ĠÄįlan": 1892,
      "Ġrela": 1893,
      "ksa": 1894,
      "Ġizme": 1895,
      "blje": 1896,
      "Ġrepublike": 1897,
      "Ġjednog": 1898,
      "30": 1899,
      "Å¾an": 1900,
      "Ġdirek": 1901,
      "snik": 1902,
      "hani": 1903,
      "Ġporu": 1904,
      "Ġpotencija": 1905,
      "Ġsmislu": 1906,
      "tiri": 1907,
      "ĠvaÅ¾": 1908,
      "Ġukoliko": 1909,
      "Ġvrsta": 1910,
      "Ġoda": 1911,
      "voje": 1912,
      "Ġdolazi": 1913,
      "Ġposla": 1914,
      "ĠznaÄįi": 1915,
      "Ġbezbe": 1916,
      "vlju": 1917,
      "ber": 1918,
      "tere": 1919,
      "Ġpredvi": 1920,
      "Ġobo": 1921,
      "sanje": 1922,
      "Ġjezika": 1923,
      "bije": 1924,
      "Ġiako": 1925,
      "kad": 1926,
      "us": 1927,
      "vnosti": 1928,
      "Ġepi": 1929,
      "jskog": 1930,
      "Å¡en": 1931,
      "leÅ¾": 1932,
      "Ġpotrebno": 1933,
      "Ġtrebalo": 1934,
      "Äĳeno": 1935,
      "Ġnega": 1936,
      "Ġ25": 1937,
      "ĠznaÄįajno": 1938,
      "Ġmodela": 1939,
      "mana": 1940,
      "Ġkoliko": 1941,
      "kama": 1942,
      "Ġug": 1943,
      "tetu": 1944,
      "logije": 1945,
      "Ġodnosi": 1946,
      "Ġvodi": 1947,
      "Ġtehni": 1948,
      "Ġ24": 1949,
      "Ġprose": 1950,
      "Ġugla": 1951,
      "Ġzado": 1952,
      "tt": 1953,
      "vremeno": 1954,
      "Ġkise": 1955,
      "Ġpet": 1956,
      "jeva": 1957,
      "Ġvam": 1958,
      "Ġcilje": 1959,
      "Ġmeri": 1960,
      "ww": 1961,
      "nzi": 1962,
      "Ġkriti": 1963,
      "Ġpsi": 1964,
      "25": 1965,
      "Ġco": 1966,
      "Ġtradi": 1967,
      "vje": 1968,
      "Ġuda": 1969,
      "Ġspecifi": 1970,
      "mer": 1971,
      "Ġdemo": 1972,
      "Ã®": 1973,
      "voji": 1974,
      "kli": 1975,
      "vode": 1976,
      "Ġfakul": 1977,
      "Ġregu": 1978,
      "Ġneke": 1979,
      "Ġkru": 1980,
      "Ġispiti": 1981,
      "Ġarhi": 1982,
      "Äįiti": 1983,
      "logija": 1984,
      "rd": 1985,
      "ple": 1986,
      "rana": 1987,
      "vca": 1988,
      "Äįnu": 1989,
      "Äįine": 1990,
      "isto": 1991,
      "Ġrazume": 1992,
      "Ġvrste": 1993,
      "Ġrado": 1994,
      "Ġkatego": 1995,
      "zuje": 1996,
      "nak": 1997,
      "takoÄĳe": 1998,
      "É§": 1999,
      "Ġmisli": 2000,
      "Ġmesta": 2001,
      "laza": 2002,
      "ll": 2003,
      "nio": 2004,
      "Ġteri": 2005,
      "sanja": 2006,
      "bre": 2007,
      "zdu": 2008,
      "Ġzakon": 2009,
      "Ġplo": 2010,
      "ÄįiÄĩ": 2011,
      "Ġeksperi": 2012,
      "Ġdugo": 2013,
      "tivnih": 2014,
      "Ġproblem": 2015,
      "dro": 2016,
      "ĠreÄį": 2017,
      "Ġdozvo": 2018,
      "Ġver": 2019,
      "Ġke": 2020,
      "Ġ196": 2021,
      "Ġopre": 2022,
      "Ġosigu": 2023,
      "bio": 2024,
      "ĠraÄįuna": 2025,
      "jte": 2026,
      "vila": 2027,
      "Ġcilj": 2028,
      "Ġpodrazume": 2029,
      "Ġdone": 2030,
      "Ġode": 2031,
      "/<|": 2032,
      "Ġalek": 2033,
      "sre": 2034,
      "ĠukljuÄįu": 2035,
      "Ġupu": 2036,
      "Ġpromena": 2037,
      "Ġpitanju": 2038,
      "tko": 2039,
      "voljno": 2040,
      "mera": 2041,
      "Äįina": 2042,
      "ĠpomoÄĩ": 2043,
      "Ġuslovima": 2044,
      "ĠÄįemu": 2045,
      "Ġura": 2046,
      "Ġtj": 2047,
      "metri": 2048,
      "Ġista": 2049,
      "Ġkoncep": 2050,
      "Ġsaj": 2051,
      "Ġvan": 2052,
      "Ġnase": 2053,
      "tnosti": 2054,
      "Ġpogo": 2055,
      "Äįava": 2056,
      "der": 2057,
      "ĠN": 2058,
      "Ġsrbija": 2059,
      "Ġrezultati": 2060,
      "para": 2061,
      "br": 2062,
      "ĠâĢľ<|": 2063,
      "Ġzapa": 2064,
      "ĠpoÅ¡to": 2065,
      "mima": 2066,
      "Ġfrancu": 2067,
      "Ġunutra": 2068,
      "Ġneo": 2069,
      "Ġpostupa": 2070,
      "niti": 2071,
      "Ġsigu": 2072,
      "rovatno": 2073,
      "Ġpojedina": 2074,
      "Ġkasnije": 2075,
      "Ġbile": 2076,
      "Ġsposob": 2077,
      "Ġbolesti": 2078,
      "dese": 2079,
      "Ġmodel": 2080,
      "Ġhrvat": 2081,
      "Ġizja": 2082,
      "Ġrazliku": 2083,
      "ĠdogaÄĳa": 2084,
      "Ġdete": 2085,
      "ĠoseÄĩa": 2086,
      "ime": 2087,
      "Ġj": 2088,
      "th": 2089,
      "Ġkojim": 2090,
      "jum": 2091,
      "Ġprima": 2092,
      "Ġfoto": 2093,
      "ĠizveÅ¡ta": 2094,
      "Ġizuze": 2095,
      "Ġprvo": 2096,
      "ðĿ": 2097,
      "Å¾da": 2098,
      "tnim": 2099,
      "Ġgrada": 2100,
      "Ġzatim": 2101,
      "lacija": 2102,
      "rani": 2103,
      "23": 2104,
      "Ġnede": 2105,
      "sr": 2106,
      "Ġisklju": 2107,
      "Ġkraju": 2108,
      "loÅ¡ki": 2109,
      "Ġkor": 2110,
      "Ġodnosa": 2111,
      "Ġmehani": 2112,
      "ĠT": 2113,
      "Ġnavodi": 2114,
      "Ġdan": 2115,
      "Ġiznosi": 2116,
      "Ġvrlo": 2117,
      "son": 2118,
      "kte": 2119,
      "tnom": 2120,
      "Ġmikro": 2121,
      "rtu": 2122,
      "Ġispitanika": 2123,
      "Å¡lja": 2124,
      "24": 2125,
      "mpa": 2126,
      "lina": 2127,
      "ban": 2128,
      "Ġstvari": 2129,
      "tivi": 2130,
      "tivna": 2131,
      "Ġpriti": 2132,
      "Ġ&<|": 2133,
      "Ġrazlika": 2134,
      "Ġgle": 2135,
      "lnost": 2136,
      "Ġsvr": 2137,
      "Ġsavreme": 2138,
      "Ġsami": 2139,
      "ĠÄįetiri": 2140,
      "im": 2141,
      "âĢĿ,": 2142,
      "per": 2143,
      "Ġ=": 2144,
      "Ġrata": 2145,
      "Ġklasi": 2146,
      "Ġsma": 2147,
      "Ġjedne": 2148,
      "cena": 2149,
      "ĠmiÅ¡lje": 2150,
      "njih": 2151,
      "mor": 2152,
      "Ġproizvoda": 2153,
      "Ġstanovni": 2154,
      "Ġhu": 2155,
      "bom": 2156,
      "Ġpobe": 2157,
      "ÃŃ": 2158,
      "ĠmoguÄĩnost": 2159,
      "Ġzdravstve": 2160,
      "Ġtrgo": 2161,
      "led": 2162,
      "Ġzo": 2163,
      "ÄįeÅ¡Äĩe": 2164,
      "Ġï": 2165,
      "Äĳivanje": 2166,
      "zora": 2167,
      "Ġimao": 2168,
      "Ġanaliza": 2169,
      "Ġopa": 2170,
      "Ġosoba": 2171,
      "ĠK": 2172,
      "ĠzaÅ¡tite": 2173,
      "ĠnaÅ¡": 2174,
      "Ġbrzi": 2175,
      "renje": 2176,
      "Ġ50": 2177,
      "rka": 2178,
      "Ġpotro": 2179,
      "Ġdobija": 2180,
      "Ġprona": 2181,
      "ina": 2182,
      "riju": 2183,
      "Ġnovo": 2184,
      "Ġsrpske": 2185,
      "Ġotkri": 2186,
      "ĠdruÅ¡tva": 2187,
      "dnosti": 2188,
      "Ġkomunika": 2189,
      "Ġtog": 2190,
      "Ġ<": 2191,
      "Ġuniverzi": 2192,
      "âĢľ.<|": 2193,
      "Ġponu": 2194,
      "gar": 2195,
      "tabela": 2196,
      "Ġstav": 2197,
      "Ġvazdu": 2198,
      "Ġovoj": 2199,
      "bija": 2200,
      "ty": 2201,
      "Ġputem": 2202,
      "vnu": 2203,
      "vez": 2204,
      "ovo": 2205,
      "Å¾enja": 2206,
      "dnih": 2207,
      "Ëĩ": 2208,
      "Ġzato": 2209,
      "gija": 2210,
      "ts": 2211,
      "Ġemi": 2212,
      "Ġkomi": 2213,
      "Ġnorma": 2214,
      "Ġobzirom": 2215,
      "Ġzlo": 2216,
      "opÅ¡te": 2217,
      "Ġovim": 2218,
      "Ġterito": 2219,
      "Ġpretpo": 2220,
      "Ġsveta": 2221,
      "Ġâ": 2222,
      "Ġsvom": 2223,
      "Ġzahteva": 2224,
      "ĠpaÅ¾": 2225,
      "ÄĬ": 2226,
      "Ġmaterijala": 2227,
      "kr": 2228,
      "loÅ¾e": 2229,
      "Ìģ": 2230,
      "Ġanalize": 2231,
      "Ġzemlja": 2232,
      "Ġdire": 2233,
      "viÄĩa": 2234,
      "bele": 2235,
      "tova": 2236,
      "kar": 2237,
      "il": 2238,
      "lisa": 2239,
      ".-<|": 2240,
      "Ġprinci": 2241,
      "Ġdrugog": 2242,
      "Ġsubje": 2243,
      "nce": 2244,
      "Ġnjima": 2245,
      "ĠE": 2246,
      "Ġformi": 2247,
      "rena": 2248,
      "Ġpriva": 2249,
      "Ġpora": 2250,
      "tnu": 2251,
      "ĠtroÅ¡ko": 2252,
      "Ġpola": 2253,
      "riti": 2254,
      "Ġuglavnom": 2255,
      "Ġinvesti": 2256,
      "Ġoslo": 2257,
      "Å¡Äĩa": 2258,
      "Ġkonku": 2259,
      "kaz": 2260,
      "Ġsvaki": 2261,
      "Ġindust": 2262,
      "Ġklju": 2263,
      "rvi": 2264,
      "nove": 2265,
      "Ġproblema": 2266,
      "tivnog": 2267,
      "Ã©": 2268,
      "cama": 2269,
      "vili": 2270,
      "Ġradio": 2271,
      "lova": 2272,
      "lka": 2273,
      "Ġgubi": 2274,
      "Ġispu": 2275,
      "tovo": 2276,
      "Ġpredstav": 2277,
      "Ġjugosla": 2278,
      "Ġodnos": 2279,
      "ĠistraÅ¾iva": 2280,
      "ĠmoguÄĩnosti": 2281,
      "movi": 2282,
      "ĠO": 2283,
      "Ġdise": 2284,
      "Ġy": 2285,
      "Ġkola": 2286,
      "pozi": 2287,
      "gledu": 2288,
      "dina": 2289,
      "rent": 2290,
      "Ġjavlja": 2291,
      "tkom": 2292,
      "Ġtera": 2293,
      "Ġrodite": 2294,
      "Ġupravo": 2295,
      "Ġsop": 2296,
      "ĠpreduzeÄĩa": 2297,
      "dnog": 2298,
      "Ġstatu": 2299,
      "prav": 2300,
      "es": 2301,
      "Ġbolje": 2302,
      "Ġmestu": 2303,
      "Ġit": 2304,
      "Ġ23": 2305,
      "Å¾io": 2306,
      "ĠpruÅ¾a": 2307,
      "kt": 2308,
      "Ġmaksi": 2309,
      "kvi": 2310,
      "Ġpisa": 2311,
      "Ġnezavi": 2312,
      "nar": 2313,
      "Äĳeni": 2314,
      "Ġsebe": 2315,
      "ili": 2316,
      "ĠpokuÅ¡a": 2317,
      "Ġglo": 2318,
      "Ġ100": 2319,
      "Ġkolo": 2320,
      "ur": 2321,
      "zbi": 2322,
      "Äįar": 2323,
      "ĠH": 2324,
      "Ġfilo": 2325,
      "Ġnapra": 2326,
      "snih": 2327,
      "Ġregio": 2328,
      "ĠpoloÅ¾a": 2329,
      "Ġaspe": 2330,
      "mija": 2331,
      "posle": 2332,
      "Ġnjega": 2333,
      "formi": 2334,
      "veli": 2335,
      "Äįito": 2336,
      "mir": 2337,
      "dam": 2338,
      "ĠsluÅ¾be": 2339,
      "Äĩenja": 2340,
      "Ġdeta": 2341,
      "kna": 2342,
      "ld": 2343,
      "Ġumet": 2344,
      "ĠÄĩelija": 2345,
      "Ġum": 2346,
      "Ġstre": 2347,
      "Ġkonstru": 2348,
      "dnici": 2349,
      "Ġkontek": 2350,
      "Ġpripada": 2351,
      "Ġsvetu": 2352,
      "Ġvidu": 2353,
      "Ġtoku": 2354,
      "njuje": 2355,
      "tacije": 2356,
      "Ġglu": 2357,
      "sred": 2358,
      "ĠsadrÅ¾i": 2359,
      "dima": 2360,
      "Ġstaro": 2361,
      "dje": 2362,
      "ĠvrÅ¡i": 2363,
      "ĠV": 2364,
      "Ġredo": 2365,
      "Ġrezultata": 2366,
      "âĢľ<|": 2367,
      "ft": 2368,
      "Ġprizna": 2369,
      "Ġovde": 2370,
      "Ġformira": 2371,
      "Äĳenju": 2372,
      "sme": 2373,
      "sten": 2374,
      "Ġodbra": 2375,
      "Ġotvore": 2376,
      "Ġpreda": 2377,
      "Ġjedin": 2378,
      "Ġ2011": 2379,
      "ĠL": 2380,
      "Äįnost": 2381,
      "risa": 2382,
      "Ġizd": 2383,
      "Ġprihva": 2384,
      "ĠrazliÄįite": 2385,
      "nicu": 2386,
      "tina": 2387,
      "zne": 2388,
      "Ġat": 2389,
      "Ġobavlja": 2390,
      "Ġpotpuno": 2391,
      "Ġmedici": 2392,
      "Ġverovatno": 2393,
      "ĠÅ¾ele": 2394,
      "ljopri": 2395,
      "Ġsvog": 2396,
      "Ġuzro": 2397,
      "Ġkompone": 2398,
      "Ã°": 2399,
      "jedna": 2400,
      "stoji": 2401,
      "Ġkreta": 2402,
      "bili": 2403,
      "Ġgrupi": 2404,
      "vaja": 2405,
      "Ġagen": 2406,
      "ĠR": 2407,
      "zacija": 2408,
      "Ġspecija": 2409,
      "tual": 2410,
      "Ġprirod": 2411,
      "Ġpredstavljaju": 2412,
      "Ġimati": 2413,
      "Ġsopstve": 2414,
      "Äĳuju": 2415,
      "Ġmetoda": 2416,
      "lar": 2417,
      "vlji": 2418,
      "ler": 2419,
      "zor": 2420,
      "Ġodred": 2421,
      "Ġvozi": 2422,
      "Ġ2012": 2423,
      "Ġjasno": 2424,
      "199": 2425,
      "Ġtur": 2426,
      "Ġrezultat": 2427,
      "mora": 2428,
      "Ġnasi": 2429,
      "ĠÄįlana": 2430,
      "Ġprove": 2431,
      "dili": 2432,
      "we": 2433,
      "vÅ¡i": 2434,
      "Ġpodrazumeva": 2435,
      "mbra": 2436,
      "ps": 2437,
      "upa": 2438,
      "ĠnajviÅ¡e": 2439,
      "Ġukraji": 2440,
      "ÑĮ": 2441,
      "Ġkvaliteta": 2442,
      "'',": 2443,
      "Ġrazlike": 2444,
      "Ġsig": 2445,
      "jska": 2446,
      "Ġulogu": 2447,
      "Ġdiserta": 2448,
      "ĠstatistiÄįki": 2449,
      "Ġ:<|": 2450,
      "nakon": 2451,
      "Ġ2010": 2452,
      "Ġnared": 2453,
      "Ġkraj": 2454,
      "Ġboga": 2455,
      "Ġprocen": 2456,
      "iako": 2457,
      "Ġforma": 2458,
      "Ġodnose": 2459,
      "Ġglago": 2460,
      "ĠsluÄįaj": 2461,
      "Ġ22": 2462,
      "bla": 2463,
      "rane": 2464,
      "Ġkomplek": 2465,
      "Ġsaobra": 2466,
      "Ġorganizacije": 2467,
      "Ġimali": 2468,
      "ĠomoguÄĩa": 2469,
      "Ġintenzi": 2470,
      "Ġpoljopri": 2471,
      "Äįio": 2472,
      "Ġ21": 2473,
      "Ġipak": 2474,
      "Äįak": 2475,
      "Ġpoput": 2476,
      ");": 2477,
      "Äĩim": 2478,
      "Ġpotrebe": 2479,
      "Ġpotreb": 2480,
      "Ġposve": 2481,
      "Ġnjihove": 2482,
      "Ġnjegov": 2483,
      "klu": 2484,
      "sloven": 2485,
      "pove": 2486,
      "dnika": 2487,
      "Ġcrkve": 2488,
      "dila": 2489,
      "Ġkojem": 2490,
      "Ġunapre": 2491,
      "ĠkoriÅ¡Äĩenje": 2492,
      "Ġzajedno": 2493,
      "menti": 2494,
      "dana": 2495,
      "dÅ¾e": 2496,
      "lnoj": 2497,
      "Å£i": 2498,
      "pored": 2499,
      "tski": 2500,
      "ĠnajÄįeÅ¡Äĩe": 2501,
      "ksu": 2502,
      "Ġzara": 2503,
      "Ġdefinisa": 2504,
      "ĠuspeÅ¡": 2505,
      "Ġpomenu": 2506,
      "ĠÅ¾a": 2507,
      "ĠÄįega": 2508,
      "Ġvisi": 2509,
      "Ġ2013": 2510,
      "Ġstudija": 2511,
      "ĠduÅ¾i": 2512,
      "Ġzema": 2513,
      "Ġnjegove": 2514,
      "Ġdaje": 2515,
      "Ġizbor": 2516,
      "Ġmanji": 2517,
      "pora": 2518,
      "Ġinf": 2519,
      "kazi": 2520,
      "Ġpsiho": 2521,
      "min": 2522,
      "ĠoÅ¡te": 2523,
      "ĠrazliÄįitim": 2524,
      "Äĩen": 2525,
      "Ġobjavlje": 2526,
      "ĠpoÄįi": 2527,
      "Ġkva": 2528,
      "Ġkriteri": 2529,
      "au": 2530,
      "ljenja": 2531,
      "Ġnedosta": 2532,
      "ĠteÅ¡ko": 2533,
      "ĠÅ¾ena": 2534,
      "Ġznanja": 2535,
      "Äĳene": 2536,
      "lin": 2537,
      "Ġmenja": 2538,
      "Ġusled": 2539,
      "Ġminu": 2540,
      "Î±": 2541,
      "Ġkvalitet": 2542,
      "neti": 2543,
      "Ġgro": 2544,
      "Ġ2014": 2545,
      "dba": 2546,
      "Ġljuba": 2547,
      "Ġsebi": 2548,
      "ovi": 2549,
      "Ġ''": 2550,
      "Ġproto": 2551,
      "Ġpobo": 2552,
      "Ġistorij": 2553,
      "ĠduÅ¾": 2554,
      "Ġvelike": 2555,
      "kse": 2556,
      "ĠmeÄĳutim": 2557,
      "loÅ¡ke": 2558,
      "Ġ26": 2559,
      "pravo": 2560,
      "Ġpoe": 2561,
      "grada": 2562,
      "Ġpart": 2563,
      "Ġreal": 2564,
      "ĠÉ©": 2565,
      "Ġsep": 2566,
      "Ġodgovaraju": 2567,
      "ĠmoÅ¾emo": 2568,
      "Ġovu": 2569,
      "Ġinstru": 2570,
      "pto": 2571,
      "Ġita": 2572,
      "Å¡ku": 2573,
      "ziju": 2574,
      "nin": 2575,
      "Ġanalizira": 2576,
      "sva": 2577,
      "Ġvremen": 2578,
      "Ġ28": 2579,
      "Ġjednu": 2580,
      "nose": 2581,
      "Å¡tvo": 2582,
      "laca": 2583,
      "Ġodra": 2584,
      "26": 2585,
      "Ġneka": 2586,
      "Ġprograma": 2587,
      "Ġpacijenata": 2588,
      "ĠpriÄįa": 2589,
      "Ġemo": 2590,
      "Ġuli": 2591,
      "Ġprven": 2592,
      "Ġlitera": 2593,
      "sak": 2594,
      "kade": 2595,
      "Ġmogao": 2596,
      "Ġkulture": 2597,
      "ara": 2598,
      "Ġ40": 2599,
      "Å£e": 2600,
      "ĠsaobraÄĩa": 2601,
      "Ġruko": 2602,
      "Ġdej": 2603,
      "Ġcilju": 2604,
      "vcu": 2605,
      "Ġosim": 2606,
      "Ġzame": 2607,
      "Ġuvo": 2608,
      "ris": 2609,
      "Ġtru": 2610,
      "Ġ2008": 2611,
      "ĠÄįiji": 2612,
      "Ġnagla": 2613,
      "Ġsezo": 2614,
      "sen": 2615,
      "Ġ2009": 2616,
      "Ġdostup": 2617,
      "Ġprofi": 2618,
      "nj": 2619,
      "ĠoÄįeki": 2620,
      "Äįeno": 2621,
      "Ġizgrad": 2622,
      "vid": 2623,
      "Ġ27": 2624,
      "Ġdeli": 2625,
      "ĠoÄįi": 2626,
      "Ġengle": 2627,
      "Ġeksperimenta": 2628,
      "lama": 2629,
      "ĠmoÅ¾da": 2630,
      "vrede": 2631,
      "ovaj": 2632,
      "Ġprogram": 2633,
      "nema": 2634,
      "Ġgleda": 2635,
      "nskom": 2636,
      "Ġprivred": 2637,
      "ĠnadleÅ¾": 2638,
      "Ġnivoa": 2639,
      "ĠÅ¡u": 2640,
      "27": 2641,
      "Ð¹": 2642,
      "ĠnaÅ¡i": 2643,
      "Ġstabi": 2644,
      "Ġgodinu": 2645,
      "28": 2646,
      "Ġnalaze": 2647,
      "Ġfon": 2648,
      "ðĿĳ": 2649,
      "Ġostvari": 2650,
      "Ġnovih": 2651,
      "ster": 2652,
      "cione": 2653,
      "kula": 2654,
      "Ġpodaci": 2655,
      "Ġpogledu": 2656,
      "Ġkapita": 2657,
      "tica": 2658,
      "Ġsredine": 2659,
      "ficije": 2660,
      "Ġrazloga": 2661,
      "bine": 2662,
      "upra": 2663,
      "rsa": 2664,
      "Ġpripre": 2665,
      "Ġcelo": 2666,
      "nike": 2667,
      "Ġher": 2668,
      "osta": 2669,
      "Ġ195": 2670,
      "Ġfaktora": 2671,
      "nicama": 2672,
      "Ġana": 2673,
      "Ġprepozna": 2674,
      "29": 2675,
      "Ġenergije": 2676,
      "sim": 2677,
      "nde": 2678,
      "listi": 2679,
      "Ġmera": 2680,
      "Ġpolu": 2681,
      "Ġsen": 2682,
      "Ġresu": 2683,
      "Ġteme": 2684,
      "Ġsupro": 2685,
      "tske": 2686,
      "Ġmiliona": 2687,
      "Ġpobolj": 2688,
      "ĠopÅ¡te": 2689,
      "Ġstvar": 2690,
      "metara": 2691,
      "Ġkonkre": 2692,
      "Ġzahva": 2693,
      "ljeni": 2694,
      "Ġizbo": 2695,
      "stvom": 2696,
      "Ġinformacija": 2697,
      "kuplja": 2698,
      "ĠG": 2699,
      "Ġstanje": 2700,
      "Ġkata": 2701,
      "Ġinterne": 2702,
      "Ġiste": 2703,
      "05": 2704,
      "Äĩenje": 2705,
      "Ġpredsednik": 2706,
      "Ġjezik": 2707,
      "Ġpoj": 2708,
      "Ġponovo": 2709,
      "dar": 2710,
      "Ñĭ": 2711,
      "Ġdrugom": 2712,
      "Ġblo": 2713,
      "ukoliko": 2714,
      "Ġtipa": 2715,
      "stica": 2716,
      "Ġ+": 2717,
      "Ġpreporu": 2718,
      "zio": 2719,
      "loÅ¡kih": 2720,
      "Ġav": 2721,
      "Ġmilo": 2722,
      "Ġnova": 2723,
      "stre": 2724,
      "pira": 2725,
      "Ġjoj": 2726,
      "Ġsazna": 2727,
      "el": 2728,
      "roma": 2729,
      "Å¡li": 2730,
      "Ġstanja": 2731,
      "Ġinformacije": 2732,
      "Ġpostavlja": 2733,
      "ĠÄĳ": 2734,
      "Ġdovoljno": 2735,
      "nicija": 2736,
      "ĠskupÅ¡ti": 2737,
      "Ġokto": 2738,
      "Ġjeziku": 2739,
      "Ġdosta": 2740,
      "Ġcon": 2741,
      "tru": 2742,
      "tive": 2743,
      "vane": 2744,
      "ry": 2745,
      "Ġ2015": 2746,
      "Ġpodi": 2747,
      "godine": 2748,
      "Ġii": 2749,
      "njen": 2750,
      "Ġzemalja": 2751,
      "Ġnara": 2752,
      "Ġusluga": 2753,
      "Ġturi": 2754,
      "Ġuticaja": 2755,
      "the": 2756,
      "ms": 2757,
      "Ã¡": 2758,
      "dovi": 2759,
      "ciona": 2760,
      "ĠreÅ¡enja": 2761,
      "Ġposledica": 2762,
      "Ġkona": 2763,
      "stima": 2764,
      "gom": 2765,
      "Ġpolitike": 2766,
      "Ġkoso": 2767,
      "Ġtret": 2768,
      "vnika": 2769,
      "Ġunutar": 2770,
      "Ġinterak": 2771,
      "ih": 2772,
      "ton": 2773,
      "ira": 2774,
      "Ġgor": 2775,
      "gori": 2776,
      "//": 2777,
      ".\"<|": 2778,
      "Ġstepe": 2779,
      "ĠbiÄĩe": 2780,
      "Ġformu": 2781,
      "ĠÅ¾eli": 2782,
      "dnom": 2783,
      "lti": 2784,
      "Ġukazuje": 2785,
      "veo": 2786,
      "Ã¢": 2787,
      "nosa": 2788,
      "Ġizne": 2789,
      "Ġmladi": 2790,
      "misli": 2791,
      "«É¬": 2792,
      "Ġranije": 2793,
      "ĠÏ": 2794,
      "Ġisko": 2795,
      "Äįena": 2796,
      "Ġperiod": 2797,
      "Ġniti": 2798,
      "</": 2799,
      "Ġrazvija": 2800,
      "tinu": 2801,
      "Ġhipo": 2802,
      "Ġimala": 2803,
      "jemo": 2804,
      "Ġbilj": 2805,
      "Ġrastvo": 2806,
      "Ġdoba": 2807,
      "Ġtime": 2808,
      "Ġpotom": 2809,
      "Ġredu": 2810,
      "Ġdne": 2811,
      "Ġkorisni": 2812,
      "Ġdese": 2813,
      "35": 2814,
      "jn": 2815,
      "Ġvladi": 2816,
      "Ġple": 2817,
      "Ġautor": 2818,
      "nala": 2819,
      "Ġnovog": 2820,
      "niju": 2821,
      "Ġprimene": 2822,
      "Ġprvog": 2823,
      "Ġcar": 2824,
      "mpi": 2825,
      "Ġkapa": 2826,
      "Ġsvojih": 2827,
      "Ġodma": 2828,
      "Ġizbe": 2829,
      "ĠuÄįenika": 2830,
      "Ġodli": 2831,
      "Ġpropisa": 2832,
      "Ġhemi": 2833,
      "ljena": 2834,
      "ĠdoÅ¾i": 2835,
      "Ġkralje": 2836,
      "ĠsadrÅ¾aj": 2837,
      "ĠÅ¾en": 2838,
      "vidu": 2839,
      "Ġosu": 2840,
      "jedinje": 2841,
      "zno": 2842,
      "boli": 2843,
      "Å¾ena": 2844,
      "Ġmali": 2845,
      "Ġmoraju": 2846,
      "Ġgloba": 2847,
      "Ġliteratu": 2848,
      "Ġstepen": 2849,
      "Ġoblika": 2850,
      "Ġ2007": 2851,
      "Ġprostora": 2852,
      "Ġzla": 2853,
      "nijih": 2854,
      "ĠniÅ¡ta": 2855,
      "Ġrazvije": 2856,
      "nca": 2857,
      "nskim": 2858,
      "Ġekstra": 2859,
      "Ġdimen": 2860,
      "Äīe": 2861,
      "gr": 2862,
      "://": 2863,
      "Ġgodini": 2864,
      "jedno": 2865,
      "Ġtih": 2866,
      "ĠnaroÄįito": 2867,
      "38": 2868,
      "wa": 2869,
      "upo": 2870,
      "ljno": 2871,
      "39": 2872,
      "Ġprakti": 2873,
      "Ġmana": 2874,
      "Ġudru": 2875,
      "stom": 2876,
      "telji": 2877,
      "telja": 2878,
      "Ġtuma": 2879,
      "Ġugovora": 2880,
      "ĠreÅ¾i": 2881,
      "Ġstrana": 2882,
      "ljen": 2883,
      "Ġbar": 2884,
      "ĠveÄĩa": 2885,
      "tine": 2886,
      "Ġrepre": 2887,
      "40": 2888,
      "Ġprostor": 2889,
      "Äįeni": 2890,
      "Ġska": 2891,
      "Ġakade": 2892,
      "Ġispitiva": 2893,
      "Ġodu": 2894,
      "vnoj": 2895,
      "Ġopisa": 2896,
      "bama": 2897,
      "jevima": 2898,
      "Ġstavo": 2899,
      "ĠmuÅ¡ka": 2900,
      "dera": 2901,
      "Ġnjegova": 2902,
      "Ġonih": 2903,
      "fiko": 2904,
      "por": 2905,
      "Ġzavisi": 2906,
      "cr": 2907,
      "Ġterapi": 2908,
      "Ġosobe": 2909,
      "Ġprva": 2910,
      "Ġsvojoj": 2911,
      "Ġhri": 2912,
      "Ġklu": 2913,
      "Ġitd": 2914,
      "Ġumetni": 2915,
      "volu": 2916,
      "Ġlice": 2917,
      "dekva": 2918,
      "Ġ29": 2919,
      "Ġzavisnosti": 2920,
      "beli": 2921,
      "Ġope": 2922,
      "Ġpokazuje": 2923,
      "dije": 2924,
      "Ġvlade": 2925,
      "kod": 2926,
      "Ġnosi": 2927,
      "zama": 2928,
      "Ġ2006": 2929,
      "Ġpristupa": 2930,
      "Ġmetode": 2931,
      "vajuÄĩi": 2932,
      "Ġsadr": 2933,
      "ĠsadrÅ¾aja": 2934,
      "ĠgraÄĳe": 2935,
      "................": 2936,
      "Ġtela": 2937,
      "volja": 2938,
      "Ġobuhvata": 2939,
      "Ġpreva": 2940,
      "Ġfilm": 2941,
      "nicima": 2942,
      "Ġmarke": 2943,
      "Ġrazmatra": 2944,
      "Ġdemokra": 2945,
      "Å¡ena": 2946,
      "Ġjuna": 2947,
      "ly": 2948,
      "Ġseptem": 2949,
      "Ġcrve": 2950,
      "Å¡iÄĩ": 2951,
      "Ġpostoja": 2952,
      "Ġodluka": 2953,
      ".âĢŀ<|": 2954,
      "pisi": 2955,
      "Ġnasle": 2956,
      "blja": 2957,
      "ĠÄįine": 2958,
      "ĠiskljuÄįi": 2959,
      "snog": 2960,
      "Ġbora": 2961,
      "Ġdopu": 2962,
      "Ġradova": 2963,
      "ĠF": 2964,
      "ck": 2965,
      "Ġsin": 2966,
      "Ġfilozo": 2967,
      "stribu": 2968,
      "Ġdoktor": 2969,
      "Ġvid": 2970,
      "Ġkoe": 2971,
      "aj": 2972,
      "snu": 2973,
      "ĠmoÅ¾ete": 2974,
      "Ġoce": 2975,
      "Ġmani": 2976,
      "govor": 2977,
      "Ġkapaci": 2978,
      "É¬": 2979,
      "nat": 2980,
      "Ġbalka": 2981,
      "dnost": 2982,
      "njo": 2983,
      "sional": 2984,
      "nov": 2985,
      "Ġpovra": 2986,
      "ĠÅ¾ene": 2987,
      "Ġnovom": 2988,
      "Äīi": 2989,
      "graf": 2990,
      "tlji": 2991,
      "lost": 2992,
      "Ġskoro": 2993,
      "Ġstudije": 2994,
      "Ã²": 2995,
      "zbog": 2996,
      "Ġprvom": 2997,
      "struktu": 2998,
      "Ġ2005": 2999,
      "Ġpoma": 3000,
      "ĠpoboljÅ¡a": 3001,
      "jskim": 3002,
      "Ġas": 3003,
      "Ġpogla": 3004,
      "ĠveÄĩe": 3005,
      "Ġsl": 3006,
      "Ġur": 3007,
      "Ġorganizacija": 3008,
      "Ġrade": 3009,
      "che": 3010,
      "ĠzaÅ¡titu": 3011,
      "Ġzabele": 3012,
      "Ġpravila": 3013,
      "Ġsuda": 3014,
      "Ġdisku": 3015,
      "Ġjednostav": 3016,
      "Ġproizvodnje": 3017,
      "ĠdomaÄĩi": 3018,
      "deo": 3019,
      "Ġoblik": 3020,
      "Ġlogi": 3021,
      "Ġfeno": 3022,
      "Ã±": 3023,
      "Ġwe": 3024,
      "miÅ¡lja": 3025,
      "36": 3026,
      "zuju": 3027,
      "Ġautora": 3028,
      "juma": 3029,
      "Ġvisoko": 3030,
      "Ġstruktura": 3031,
      "ĠreÅ¡enje": 3032,
      "ruje": 3033,
      "Ġkole": 3034,
      "Ġinicija": 3035,
      "Ġodluke": 3036,
      "Ġ%": 3037,
      "kci": 3038,
      "Ġpostavlje": 3039,
      "\".<|": 3040,
      "Ġsrpski": 3041,
      "Ġzasno": 3042,
      "Ġsrpskog": 3043,
      "Ġzau": 3044,
      "jni": 3045,
      "tr": 3046,
      "Ġsrednje": 3047,
      "Äįnoj": 3048,
      "Ġzabra": 3049,
      "Å¡ki": 3050,
      "Ġgore": 3051,
      "zori": 3052,
      "prija": 3053,
      "Ġpreci": 3054,
      "Ġprevo": 3055,
      "rina": 3056,
      "Ġslici": 3057,
      "Ġfunkcije": 3058,
      "ĠkoriÅ¡Äĩe": 3059,
      "Ġneposred": 3060,
      "Ġusme": 3061,
      "Ġsvedo": 3062,
      "Ġzvani": 3063,
      "Ġgotovo": 3064,
      "sada": 3065,
      "Î¿": 3066,
      "Ġdinara": 3067,
      "Ġnjegovog": 3068,
      "Ġkontak": 3069,
      "Ġvelika": 3070,
      "Ġmr": 3071,
      "vori": 3072,
      "lizacije": 3073,
      "Ġevropske": 3074,
      "Ġsum": 3075,
      "sis": 3076,
      "Ġsklo": 3077,
      "Ġekono": 3078,
      "lini": 3079,
      "Ġbibli": 3080,
      "Ġpokazuju": 3081,
      "Ġevra": 3082,
      "Ġindividu": 3083,
      "gri": 3084,
      "manti": 3085,
      "zaciju": 3086,
      "jih": 3087,
      "Ġkraja": 3088,
      "Ġturisti": 3089,
      "Ġnajbolje": 3090,
      "sma": 3091,
      "________": 3092,
      "Ġrizika": 3093,
      "stira": 3094,
      "Ġ2016": 3095,
      "Ġsredstava": 3096,
      "ĠâĢ¢": 3097,
      "Ġkarakteristike": 3098,
      "ista": 3099,
      "Î½": 3100,
      "ĠizvrÅ¡i": 3101,
      "34": 3102,
      "Ġprocesu": 3103,
      "ĠÅ¡kole": 3104,
      "Ġzastup": 3105,
      "mbe": 3106,
      "sci": 3107,
      "cionih": 3108,
      "Å¾ava": 3109,
      "37": 3110,
      "nisti": 3111,
      "Ġravno": 3112,
      "Ġrazvoju": 3113,
      "Ġnaroda": 3114,
      "Äĩena": 3115,
      "rezulta": 3116,
      "njenja": 3117,
      "Ġpen": 3118,
      "ĠteÅ¾i": 3119,
      "Ġsnage": 3120,
      "Ġ2000": 3121,
      "Ġnekim": 3122,
      "liÄĩ": 3123,
      "Ġfakto": 3124,
      "ĠÉ¢": 3125,
      "Ġmole": 3126,
      "kciju": 3127,
      "Ġtakmi": 3128,
      "ĠreÅ¡a": 3129,
      "Ġkoga": 3130,
      "tacija": 3131,
      "Å¾o": 3132,
      "Ġdovodi": 3133,
      "Ġnapu": 3134,
      "Ġnakna": 3135,
      "Ġpredmet": 3136,
      "jne": 3137,
      "ĠuÅ¾i": 3138,
      "Ġtoliko": 3139,
      "Ġmaksima": 3140,
      "nsko": 3141,
      "ĠJ": 3142,
      "mar": 3143,
      "Ġnjemu": 3144,
      "Ġozbi": 3145,
      "ĠÄĩemo": 3146,
      "Ġmogli": 3147,
      "Ġporodice": 3148,
      "Ġnjihovog": 3149,
      "eng": 3150,
      "Ã³": 3151,
      "Ġreda": 3152,
      "Ġubi": 3153,
      "Ġfudba": 3154,
      "Ġï¿½": 3155,
      "Ġpredsta": 3156,
      "Ġapri": 3157,
      "Äįenju": 3158,
      "njena": 3159,
      "Ġsporazu": 3160,
      "ĠÅ¡iro": 3161,
      "ĠÅ¾ivoti": 3162,
      "Ġgeo": 3163,
      "Ġreci": 3164,
      "blika": 3165,
      "Ġ60": 3166,
      "Ġsuko": 3167,
      "Äįara": 3168,
      "ĠuopÅ¡te": 3169,
      "Ġobrazovanja": 3170,
      "Ġprve": 3171,
      "Ġzvez": 3172,
      "naime": 3173,
      "Ġpostupak": 3174,
      "ĠdrugaÄįi": 3175,
      "grade": 3176,
      "Äįuje": 3177,
      "Ġposao": 3178,
      "Ġfunkcioni": 3179,
      "Ġsredstva": 3180,
      "njoj": 3181,
      "ĠraÄįu": 3182,
      "Ġodsto": 3183,
      "tili": 3184,
      "vet": 3185,
      "Ġperioda": 3186,
      "Ġprisustvo": 3187,
      "60": 3188,
      "Ġzajednice": 3189,
      "Ġaktivnost": 3190,
      "Ĥ·": 3191,
      "ĠvaÅ¡e": 3192,
      "Ġreprezen": 3193,
      "ĠutiÄįe": 3194,
      "Ġrs": 3195,
      "ĠodluÄįi": 3196,
      "Ġodmah": 3197,
      "gani": 3198,
      "Ġtradicional": 3199,
      "Ġseku": 3200,
      "Ġizgleda": 3201,
      "Ġpriho": 3202,
      "zem": 3203,
      "Ġkonsta": 3204,
      "ds": 3205,
      "Ġosni": 3206,
      "dnim": 3207,
      "mje": 3208,
      "Ġtamo": 3209,
      "ĠnajveÄĩi": 3210,
      "Ġgi": 3211,
      "Ġlako": 3212,
      "Ġsvakog": 3213,
      "tila": 3214,
      "din": 3215,
      "tivnim": 3216,
      "Ġgene": 3217,
      "Ġkoeficije": 3218,
      "Ġ2004": 3219,
      "Ġautori": 3220,
      "ĠproÅ¡i": 3221,
      "Ġmor": 3222,
      "Ġured": 3223,
      "vnost": 3224,
      "Ġtere": 3225,
      "Ġdokumenta": 3226,
      "ĠznaÄįaja": 3227,
      "Ġpone": 3228,
      "Ġkog": 3229,
      "Å¡njeg": 3230,
      "gro": 3231,
      "Ġvoda": 3232,
      "Ġpostupku": 3233,
      "ote": 3234,
      "ipak": 3235,
      "ljenje": 3236,
      "sp": 3237,
      "minal": 3238,
      "Ġgod": 3239,
      "Ġarhite": 3240,
      "Ġnajmanje": 3241,
      "loviÄĩ": 3242,
      "Å¾eni": 3243,
      "Å¾ila": 3244,
      "gita": 3245,
      "Ġjugosloven": 3246,
      "ĠÄĳu": 3247,
      "Ġfunkcija": 3248,
      "Ġnapre": 3249,
      "ĠzadrÅ¾a": 3250,
      "lio": 3251,
      "Ġzakonom": 3252,
      "ljene": 3253,
      "Ġbroju": 3254,
      "Ġgori": 3255,
      "slov": 3256,
      "ĠplaÄĩa": 3257,
      "Ġdistribu": 3258,
      "rea": 3259,
      "ĠdoÅ¡lo": 3260,
      "Ġkredi": 3261,
      "Ġtrenutku": 3262,
      "lazak": 3263,
      "ljeno": 3264,
      "ĠpomoÄĩu": 3265,
      "Äĩuje": 3266,
      "Ġstanju": 3267,
      "Ġstrukture": 3268,
      "Ġizvor": 3269,
      "Ġveze": 3270,
      "ĠzavrÅ¡i": 3271,
      "leko": 3272,
      "Ġsever": 3273,
      "rao": 3274,
      "ĠÄįime": 3275,
      "tivan": 3276,
      "(<|": 3277,
      "Äĳivanja": 3278,
      "Ġoru": 3279,
      "ĠodreÄĳene": 3280,
      "Ġdiplo": 3281,
      "Ġnapisa": 3282,
      "Ġ/<|": 3283,
      "Ġfra": 3284,
      "Ġpopula": 3285,
      "fikacije": 3286,
      "Ġknjiga": 3287,
      "jim": 3288,
      "chi": 3289,
      "vencije": 3290,
      "vini": 3291,
      "Ġprou": 3292,
      "Ġsasta": 3293,
      "Ġjanu": 3294,
      "Ġpost": 3295,
      "Ġizgu": 3296,
      "Ġglavni": 3297,
      "Ġmenad": 3298,
      "45": 3299,
      "ĠnaÄįe": 3300,
      "Ġuzima": 3301,
      "Ġnor": 3302,
      "Ġistovremeno": 3303,
      "Ġposlova": 3304,
      "Ġanga": 3305,
      "tskog": 3306,
      "Ġprocedu": 3307,
      "Ġsistemu": 3308,
      "Ġtabela": 3309,
      "Ġzemljama": 3310,
      "33": 3311,
      "Ġzapravo": 3312,
      "Ġtki": 3313,
      "Å¡la": 3314,
      "Ġcom": 3315,
      "ĠÄįovek": 3316,
      "Ġintegra": 3317,
      "nac": 3318,
      "Ġneophodno": 3319,
      "ĠpomoÄĩi": 3320,
      "kov": 3321,
      "Ġdiza": 3322,
      "Ġblago": 3323,
      "dr": 3324,
      "Ġumetnosti": 3325,
      "Ġgospo": 3326,
      "gh": 3327,
      "Ġpresu": 3328,
      "reni": 3329,
      "Ġnjihov": 3330,
      "Ġsvakom": 3331,
      "Ġovak": 3332,
      "Ġtabeli": 3333,
      "Ġpokreta": 3334,
      "gan": 3335,
      "Ġpredi": 3336,
      "Ġsmrti": 3337,
      "ĠmoÄĩi": 3338,
      "Ġhro": 3339,
      "takmi": 3340,
      "ĠÄįetvr": 3341,
      "ĠâĢĿ": 3342,
      "fikova": 3343,
      "Ġnajbolji": 3344,
      "nuo": 3345,
      "Ġdirektno": 3346,
      "Ġobliku": 3347,
      "Ġposlu": 3348,
      "Ġdola": 3349,
      "ĠomoguÄĩava": 3350,
      "ser": 3351,
      "Ġelemenata": 3352,
      "Ġfotografi": 3353,
      "Ġnov": 3354,
      "rin": 3355,
      "fici": 3356,
      "Ã«": 3357,
      "Ġsagla": 3358,
      "ĠÅ¡te": 3359,
      "Ġavgu": 3360,
      "Ġkoncentracije": 3361,
      "Ġzat": 3362,
      "Ġreze": 3363,
      "tije": 3364,
      "Ġmedija": 3365,
      "Ġbeograda": 3366,
      "vaÅ¾": 3367,
      "ĠÅ¡est": 3368,
      "ĠpovrÅ¡ine": 3369,
      "snim": 3370,
      "Ġuslova": 3371,
      "Ġputo": 3372,
      "ob": 3373,
      "terna": 3374,
      "Ġ2017": 3375,
      "njom": 3376,
      "Ġ2003": 3377,
      "Ġkojom": 3378,
      "Ġpodatke": 3379,
      "Ġwi": 3380,
      "Ġenerge": 3381,
      "sup": 3382,
      "mino": 3383,
      "siju": 3384,
      "rica": 3385,
      "Ġbes": 3386,
      "ĠnaÄįina": 3387,
      "Ġber": 3388,
      "Ġnika": 3389,
      "zmu": 3390,
      "Ġbanka": 3391,
      "Ġpostaje": 3392,
      "Ġpada": 3393,
      "Å¾iti": 3394,
      "Ġviru": 3395,
      "cionog": 3396,
      "laÅ¾e": 3397,
      "Ġelektri": 3398,
      "Ġtranspo": 3399,
      "ndo": 3400,
      "Ġvojvodi": 3401,
      "80": 3402,
      "Ġmeseci": 3403,
      "vite": 3404,
      "Ġprilago": 3405,
      "bila": 3406,
      "tnost": 3407,
      "ĠomoguÄĩi": 3408,
      "Ġpat": 3409,
      "dÅ¾": 3410,
      "Ġ2002": 3411,
      "Ġzatvo": 3412,
      "Ġopse": 3413,
      "Ġtekstu": 3414,
      "Å¡njih": 3415,
      "Ġplu": 3416,
      "Ġzaposlenih": 3417,
      "zv": 3418,
      "Ġmm": 3419,
      "âĢĿ.<|": 3420,
      "Ġsport": 3421,
      "Ġbrzo": 3422,
      "Ġhidro": 3423,
      "ĠgraÄĳana": 3424,
      "ĠsuÅ¡ti": 3425,
      "mbar": 3426,
      "kida": 3427,
      "Å¾ene": 3428,
      "Ġkorisnika": 3429,
      "Ġporeme": 3430,
      "Ġvelikog": 3431,
      "rona": 3432,
      "Ġprofesional": 3433,
      "Ġjavnog": 3434,
      "Ġfunkcional": 3435,
      "Ġdono": 3436,
      "Ġuze": 3437,
      "Ġupravljanja": 3438,
      "Ġinde": 3439,
      "Ġnikada": 3440,
      "Ġseg": 3441,
      "jskom": 3442,
      "Ġsposobnosti": 3443,
      "mentu": 3444,
      "Ġnekog": 3445,
      "Ġopti": 3446,
      "Ġadekva": 3447,
      "ĠukljuÄįujuÄĩi": 3448,
      "teo": 3449,
      "zan": 3450,
      "Ġbih": 3451,
      "nuti": 3452,
      "Ġsinte": 3453,
      "Ġispra": 3454,
      "Ġrezultate": 3455,
      "Ġregula": 3456,
      "dri": 3457,
      "ĠiskljuÄįivo": 3458,
      "Äįnja": 3459,
      "Ġcentar": 3460,
      "Ġrasta": 3461,
      "vano": 3462,
      "Ġnjihova": 3463,
      "ĠtrÅ¾iÅ¡tu": 3464,
      "Ġprimenom": 3465,
      "Ġmogla": 3466,
      "Ġobzira": 3467,
      "ĠobiÄįno": 3468,
      "Ġrekla": 3469,
      "É¥": 3470,
      "Ġhtt": 3471,
      "ziji": 3472,
      "mla": 3473,
      "ĠpodrÅ¾a": 3474,
      "Ġreli": 3475,
      "Ġmake": 3476,
      "Ġinteresa": 3477,
      "Ġispod": 3478,
      "ĠureÄĳa": 3479,
      "ĠzemljiÅ¡ta": 3480,
      "48": 3481,
      "ministra": 3482,
      "ĠbuduÄĩ": 3483,
      "ĠkuÄĩe": 3484,
      "Äĩemo": 3485,
      "ĠbudÅ¾e": 3486,
      "Ġkontekstu": 3487,
      "njuju": 3488,
      "rene": 3489,
      "rac": 3490,
      "ĠÅ¾ivotne": 3491,
      "Ġukupno": 3492,
      "slav": 3493,
      "Ġnesta": 3494,
      "Ġsprovo": 3495,
      "Ġ2018": 3496,
      "poli": 3497,
      "Ġnisam": 3498,
      "Ġstrani": 3499,
      "Ġoptere": 3500,
      "Ġrast": 3501,
      "gno": 3502,
      "Ġprojekta": 3503,
      "meni": 3504,
      "âĢĶ": 3505,
      "Ġparametara": 3506,
      "pisuje": 3507,
      "Ġzbi": 3508,
      "Ġotvara": 3509,
      "samo": 3510,
      "siji": 3511,
      "ut": 3512,
      "lata": 3513,
      "ĠistiÄįe": 3514,
      "Ġugro": 3515,
      "loÅ¡kog": 3516,
      "fera": 3517,
      "Ġleka": 3518,
      "tuje": 3519,
      "Ġfazi": 3520,
      "Ġvideo": 3521,
      "ljive": 3522,
      "Ġspolj": 3523,
      "Ġorgana": 3524,
      "cha": 3525,
      "Ġjako": 3526,
      "Ġdonosi": 3527,
      "forman": 3528,
      "mova": 3529,
      "mene": 3530,
      "Ġvodo": 3531,
      "Ġostalih": 3532,
      "Ġovla": 3533,
      "Ġklini": 3534,
      "Ġradni": 3535,
      "Ġ35": 3536,
      "Ġprese": 3537,
      "ĠznaÄįajna": 3538,
      "ĠÅ¾ive": 3539,
      "Ġkombina": 3540,
      "les": 3541,
      "Äİ": 3542,
      "lozi": 3543,
      "Ġvozila": 3544,
      "ĠstanovniÅ¡tva": 3545,
      "Ġsvakodne": 3546,
      "Ġporta": 3547,
      "Ġstuden": 3548,
      "rezultati": 3549,
      "Ġobzir": 3550,
      "nara": 3551,
      "ĠdruÅ¡tvo": 3552,
      "ĠliÄįnosti": 3553,
      "Ġpovre": 3554,
      "sandar": 3555,
      "solu": 3556,
      "Ġboje": 3557,
      "Ġevrope": 3558,
      "politi": 3559,
      "stina": 3560,
      "Ġnju": 3561,
      "kuju": 3562,
      "Ġ2020": 3563,
      "vica": 3564,
      "Ġpredstavlje": 3565,
      "Ġkolek": 3566,
      "Ġpomi": 3567,
      "jer": 3568,
      "laganja": 3569,
      "Ġminuta": 3570,
      "ĠsledeÄĩe": 3571,
      "Ġsedi": 3572,
      "ĠÄįoveka": 3573,
      "Ġpraksi": 3574,
      "Ġex": 3575,
      "rati": 3576,
      "naÄįe": 3577,
      "vena": 3578,
      "Ġteorij": 3579,
      "Ġshvata": 3580,
      "Ġmuze": 3581,
      "Ġuslovi": 3582,
      "anali": 3583,
      "hra": 3584,
      "Ġkompanije": 3585,
      "Ġbazi": 3586,
      "Ġsmrt": 3587,
      "Ġizbora": 3588,
      "Ġzu": 3589,
      "Ġpoljoprivred": 3590,
      "kove": 3591,
      "sk": 3592,
      ".)": 3593,
      "ĠpoÄįetka": 3594,
      "Ġekspre": 3595,
      "Ġcena": 3596,
      "Ġkarakteristika": 3597,
      "ĠponaÅ¡anja": 3598,
      "Ġimu": 3599,
      "Ġnaba": 3600,
      "znaÄįaj": 3601,
      "Ġcu": 3602,
      "ĠuÄįestvo": 3603,
      "Ġfaktor": 3604,
      "Ġdinami": 3605,
      "ĠodrÅ¾i": 3606,
      "Ġprethodno": 3607,
      "Ġjugoslavije": 3608,
      "Ġaku": 3609,
      "Ġeli": 3610,
      "É¤": 3611,
      "Ġupozna": 3612,
      "Å¾ba": 3613,
      "Î¹": 3614,
      "Ġ[": 3615,
      "Ġpoz": 3616,
      "Ġpolitika": 3617,
      "Ġovi": 3618,
      "Å¾ne": 3619,
      "70": 3620,
      "Ġzapad": 3621,
      "Ġtip": 3622,
      "Ġae": 3623,
      "Ġsrbiju": 3624,
      "Ġsnima": 3625,
      "Ġmati": 3626,
      "ndida": 3627,
      "Ġsnaga": 3628,
      "Ġutakmi": 3629,
      "vanoviÄĩ": 3630,
      "Ġorije": 3631,
      "ĠistraÅ¾ivanje": 3632,
      "stoje": 3633,
      "Ġpostupka": 3634,
      "'',<|": 3635,
      "valo": 3636,
      "Ġspek": 3637,
      "ĠbaÅ¡": 3638,
      "Äįene": 3639,
      "Ġsamosta": 3640,
      "Ġpredmeta": 3641,
      "Ġoptu": 3642,
      "Ã¤": 3643,
      "Ġokolnosti": 3644,
      "Ġ2001": 3645,
      "ĠmaÅ¡i": 3646,
      "Ġeg": 3647,
      "Ġusa": 3648,
      "âĢľ.": 3649,
      "Ġizaz": 3650,
      "ori": 3651,
      "Ġslike": 3652,
      "Ġispitivanja": 3653,
      "Ġnjihovo": 3654,
      "svim": 3655,
      "Ġuspostavlja": 3656,
      "Ġalba": 3657,
      "Ġpotra": 3658,
      "Ġregional": 3659,
      "Ġvideti": 3660,
      "Ġpetro": 3661,
      "lena": 3662,
      "Ġoksi": 3663,
      "Ġinfe": 3664,
      "Ġsedam": 3665,
      "ĠpoÄįetku": 3666,
      "Ġobele": 3667,
      "Ġmase": 3668,
      "leva": 3669,
      "pravda": 3670,
      "ot": 3671,
      "cionali": 3672,
      "Ġprostoru": 3673,
      "âĢĵ<|": 3674,
      "www": 3675,
      "Ġpredsednika": 3676,
      "Ġznatno": 3677,
      "Ġhla": 3678,
      "Ġperforman": 3679,
      "stoja": 3680,
      "Ġdosti": 3681,
      "ĠÅ¡kol": 3682,
      "rnu": 3683,
      "ĠpiÅ¡e": 3684,
      "str": 3685,
      "Ġkrea": 3686,
      "ĠreÄĩi": 3687,
      "sl": 3688,
      "Ġadministra": 3689,
      "rov": 3690,
      "Å¡eno": 3691,
      "logiju": 3692,
      "Ġdeca": 3693,
      "Ġnjihovih": 3694,
      "ĠÄįaso": 3695,
      "%,": 3696,
      "Ġzagre": 3697,
      "Ġprirode": 3698,
      "Ġsor": 3699,
      "zisten": 3700,
      "ĠmaÄĳa": 3701,
      "Ġpremije": 3702,
      "Ġnapa": 3703,
      "ktima": 3704,
      "ĠÅ¾ivi": 3705,
      "ĠvaÅ¾no": 3706,
      "Ġukazuju": 3707,
      "Ġbele": 3708,
      "Ġteksta": 3709,
      "Äįita": 3710,
      "Ġori": 3711,
      "jna": 3712,
      "ĠreÄįima": 3713,
      "stova": 3714,
      "ĠoÄįu": 3715,
      "kos": 3716,
      "noda": 3717,
      "ls": 3718,
      "Ġplan": 3719,
      "osim": 3720,
      "mani": 3721,
      "Ġtoplo": 3722,
      "dela": 3723,
      "Ġkarije": 3724,
      "sh": 3725,
      "Ġuloga": 3726,
      "Ġmakedo": 3727,
      "Ġmerenja": 3728,
      "Ġsrpskom": 3729,
      "rad": 3730,
      "Ġkompanija": 3731,
      "Ġusluge": 3732,
      "Ġubr": 3733,
      "Ġefekat": 3734,
      "Ġdomina": 3735,
      "Äĩeno": 3736,
      "Ġlepo": 3737,
      "ĠâĢĶ<|": 3738,
      "44": 3739,
      "fikacija": 3740,
      "Ġjavno": 3741,
      "ct": 3742,
      "Ġdobio": 3743,
      "Ġpoti": 3744,
      "*''<|": 3745,
      "ograf": 3746,
      "ĠdÅ¾e": 3747,
      "Ġdakle": 3748,
      "31": 3749,
      "Ġnaja": 3750,
      "Ġbezbednosti": 3751,
      "Ġnjen": 3752,
      "ting": 3753,
      "gde": 3754,
      "Ġostale": 3755,
      "Ġizabra": 3756,
      "Ġinost": 3757,
      "mente": 3758,
      "Ġfebru": 3759,
      "ĠproÅ¡lo": 3760,
      "pose": 3761,
      "ĠpoveÄĩanje": 3762,
      "Ġ;": 3763,
      "Ġ2019": 3764,
      "ron": 3765,
      "Ġbanke": 3766,
      "Ġaktu": 3767,
      "ĠpodrÅ¡ku": 3768,
      "%)": 3769,
      "ÉŁÉ§": 3770,
      "Ġnemaju": 3771,
      "198": 3772,
      "01": 3773,
      "Ġprimenu": 3774,
      "baci": 3775,
      "Ġideja": 3776,
      "Ġdevoj": 3777,
      "Ġbrita": 3778,
      "Ġtraja": 3779,
      "Ãª": 3780,
      "Ġugovor": 3781,
      "meti": 3782,
      "ger": 3783,
      "Ġstari": 3784,
      "Ġgradu": 3785,
      "Ġpretpostav": 3786,
      "ljiva": 3787,
      "Ġiskustva": 3788,
      "Ġgru": 3789,
      "Ġ'": 3790,
      "Ġhrane": 3791,
      "gram": 3792,
      "Ġdigita": 3793,
      "ĠÄĩelije": 3794,
      "Ġparla": 3795,
      "ĠÅ¾rt": 3796,
      "guje": 3797,
      "ĠproÅ¡": 3798,
      "Ġvest": 3799,
      "Ġmulti": 3800,
      "Ġpotpunosti": 3801,
      "deli": 3802,
      "rski": 3803,
      "Ġshva": 3804,
      "ĠpodruÄįja": 3805,
      "raka": 3806,
      "Ġimamo": 3807,
      "Ġsuper": 3808,
      "Ġrat": 3809,
      "ĠznaÄįenje": 3810,
      "Ġkm": 3811,
      "Ġizuzetno": 3812,
      "Ġposedu": 3813,
      "Äįavanje": 3814,
      "Ġeti": 3815,
      "Ġtala": 3816,
      "ljivost": 3817,
      "Ġoslobo": 3818,
      "Ġumesto": 3819,
      "Ġurba": 3820,
      "loÅ¡ka": 3821,
      "dakle": 3822,
      "Ġtest": 3823,
      "riÄĩ": 3824,
      "Ġizvora": 3825,
      "Ġosnovne": 3826,
      "Ġuslove": 3827,
      "Ġuniverziteta": 3828,
      "Ġanalizu": 3829,
      "ĠÅ¡kola": 3830,
      "Ġmeseca": 3831,
      "zato": 3832,
      "Ġzaista": 3833,
      "rali": 3834,
      "Ġimo": 3835,
      "Ġkne": 3836,
      "mp": 3837,
      "tite": 3838,
      "tivnom": 3839,
      "gova": 3840,
      "Ġjedinstve": 3841,
      "socija": 3842,
      "Äĳenih": 3843,
      "Å¾nje": 3844,
      "Ġdokaza": 3845,
      "Ġser": 3846,
      "ĠodgovarajuÄĩi": 3847,
      "wi": 3848,
      "math": 3849,
      "Ġbre": 3850,
      "Ġpozori": 3851,
      "rama": 3852,
      "Ġsvakako": 3853,
      "Ġniz": 3854,
      "tnik": 3855,
      "Ġkak": 3856,
      "Ġnaziva": 3857,
      "ture": 3858,
      "Ġsela": 3859,
      "Ġobrazovanje": 3860,
      "Ġocen": 3861,
      "Ġprihvata": 3862,
      "Ġ31": 3863,
      "Ġodvija": 3864,
      "lice": 3865,
      "32": 3866,
      "svi": 3867,
      "Ġmoglo": 3868,
      "75": 3869,
      "É¢Êģ": 3870,
      "ĠÄįvr": 3871,
      "ljenih": 3872,
      "Éľ": 3873,
      "Ġnekih": 3874,
      "osno": 3875,
      "mentima": 3876,
      "ĠznaÄįajan": 3877,
      "Ġkontinu": 3878,
      "uzda": 3879,
      "ksual": 3880,
      "Ġosam": 3881,
      "Ġupi": 3882,
      "Ġmatemati": 3883,
      "Ġun": 3884,
      "ĠpotroÅ¡a": 3885,
      "Ġzahtev": 3886,
      "klanja": 3887,
      "Ġzadovolj": 3888,
      "ljivosti": 3889,
      "Ġcm": 3890,
      "Ġobjekata": 3891,
      "Êĥ": 3892,
      "Ġpostignu": 3893,
      "ĠÄįlanova": 3894,
      "Ġsituacija": 3895,
      "Ġkontrole": 3896,
      "hemi": 3897,
      "Ġuzora": 3898,
      "ĠutiÄįu": 3899,
      "fer": 3900,
      "ĠporemeÄĩa": 3901,
      "stvima": 3902,
      "intere": 3903,
      "49": 3904,
      "Ġgrupu": 3905,
      "Ġnavode": 3906,
      "tel": 3907,
      "ljaka": 3908,
      "Ġknjige": 3909,
      "ĠveÅ¡ti": 3910,
      "Ġljudima": 3911,
      "Ġmodi": 3912,
      "veÄĩi": 3913,
      "Ġpotreba": 3914,
      "Ġten": 3915,
      "Ġbismo": 3916,
      "ĠveÄĩina": 3917,
      "ĠÄĩu": 3918,
      "Ġnaru": 3919,
      ".âĢľ": 3920,
      "Ġprera": 3921,
      "ĠmreÅ¾e": 3922,
      "Ġparame": 3923,
      "ĠzaÅ¡to": 3924,
      "Ġindividual": 3925,
      "ĠznaÄįajne": 3926,
      "ĠÉ¨": 3927,
      "Ġrevi": 3928,
      "Ġnaselja": 3929,
      "Ġsasvim": 3930,
      "Ġtzv": 3931,
      "tero": 3932,
      "Ġsmanji": 3933,
      "ĠuÄįestvu": 3934,
      "ĠÅ¾u": 3935,
      "Ġautomo": 3936,
      "drugi": 3937,
      "Ġtemperature": 3938,
      "tivnu": 3939,
      "nila": 3940,
      "Ġspolja": 3941,
      "Ġiznad": 3942,
      "Ġmiha": 3943,
      "Ġupotrebe": 3944,
      "Ġsastav": 3945,
      "ĠâĢĺ": 3946,
      "Ġqu": 3947,
      "treba": 3948,
      "Ġkomple": 3949,
      "Ġtema": 3950,
      "Ġisho": 3951,
      "Ġsvetskog": 3952,
      "Ġfaze": 3953,
      "Äĩeni": 3954,
      "Ġmje": 3955,
      "veta": 3956,
      "Ġagre": 3957,
      "Ġsprovede": 3958,
      "Ġsoft": 3959,
      "ok": 3960,
      "Ġobjasni": 3961,
      "Ġsigurno": 3962,
      "Ġoti": 3963,
      "Ġaf": 3964,
      "Ġjedinica": 3965,
      "Ġkoristiti": 3966,
      "Ġinova": 3967,
      "Ġvlasni": 3968,
      "pti": 3969,
      "veni": 3970,
      "Ġaleksandar": 3971,
      "ĠmreÅ¾a": 3972,
      "vale": 3973,
      "Ġpostao": 3974,
      "Ġsekre": 3975,
      "predse": 3976,
      "Ġustav": 3977,
      "Ġ45": 3978,
      "Ġdrugoj": 3979,
      "ĪĴ": 3980,
      "tum": 3981,
      "ĠÅ¾ivotu": 3982,
      "tokom": 3983,
      "Ġpravosla": 3984,
      "reno": 3985,
      "ĠtraÅ¾i": 3986,
      "Ġosigura": 3987,
      "Ġpubli": 3988,
      "ĠâĢĻ": 3989,
      "Ġneprija": 3990,
      "Ġuzorka": 3991,
      "Ġgrani": 3992,
      "Ġgrafi": 3993,
      "Ġfoku": 3994,
      "rnim": 3995,
      "Ġbibliote": 3996,
      "biÄįa": 3997,
      "kaÅ¾e": 3998,
      "Ġpodne": 3999,
      "ÉļÉ§": 4000,
      "Ġuzoraka": 4001,
      "Ġpribli": 4002,
      "stepe": 4003,
      "ĠsluÄįajevima": 4004,
      "Ġorganizo": 4005,
      "losti": 4006,
      "Ġvlast": 4007,
      "pozna": 4008,
      "Ġsvake": 4009,
      "Ġog": 4010,
      "Ġizgra": 4011,
      "Ġpojave": 4012,
      "Ġ1999": 4013,
      "Å¾ni": 4014,
      "Ġnekada": 4015,
      "Ġsastoji": 4016,
      "Ġjavnosti": 4017,
      "vencija": 4018,
      "tskih": 4019,
      "46": 4020,
      "ĠzavrÅ¡e": 4021,
      "Ġpredlo": 4022,
      "dnu": 4023,
      "jno": 4024,
      "Ġservi": 4025,
      "Ġpodacima": 4026,
      "Å¾nja": 4027,
      "nogra": 4028,
      "Ġsrba": 4029,
      "njeg": 4030,
      "Ġupotrebu": 4031,
      "ĠpaÅ¾nju": 4032,
      "nili": 4033,
      "Ġciklu": 4034,
      "vaÄį": 4035,
      "Ġhipote": 4036,
      "pp": 4037,
      "tara": 4038,
      "ĠsledeÄĩi": 4039,
      "Ġduho": 4040,
      "blji": 4041,
      "ĠÅ¡pa": 4042,
      "Ġfrek": 4043,
      "Ġsmatraju": 4044,
      "Ġevi": 4045,
      "Ġpolja": 4046,
      "ono": 4047,
      "ad": 4048,
      "Ġupravljanje": 4049,
      "lizova": 4050,
      "Ġindika": 4051,
      "Îµ": 4052,
      "Ġmono": 4053,
      "Ġneuro": 4054,
      "Ġaplika": 4055,
      "Ġfakultet": 4056,
      "ĠkoriÅ¡Äĩenja": 4057,
      "90": 4058,
      "Ġstanovnika": 4059,
      "Ġapo": 4060,
      "lak": 4061,
      "Ġpreuze": 4062,
      "Ġmaja": 4063,
      "ĠÉŃ": 4064,
      "Ġkandida": 4065,
      "ces": 4066,
      "Å£a": 4067,
      "Ġostali": 4068,
      "Ġzvu": 4069,
      "Ġinfra": 4070,
      "Ġmnogi": 4071,
      "Ġ...<|": 4072,
      "Ġobaveza": 4073,
      "ljujuÄĩi": 4074,
      "Å¾enju": 4075,
      "Ġpregled": 4076,
      "ginal": 4077,
      "ĠÄįinjenica": 4078,
      "Ġsmanjenje": 4079,
      "pod": 4080,
      "iH": 4081,
      "jedan": 4082,
      "ĠpolitiÄįke": 4083,
      "Ġbugar": 4084,
      "Ġmg": 4085,
      "ksida": 4086,
      "Äįini": 4087,
      "sama": 4088,
      "Ġokup": 4089,
      "Ġmitro": 4090,
      "Ġprije": 4091,
      "Ġosnova": 4092,
      "Ġministarstva": 4093,
      "Ġpojedinih": 4094,
      "Ġiskustvo": 4095,
      "mio": 4096,
      "Ġdati": 4097,
      "Ġperi": 4098,
      "Ġaktue": 4099,
      "Ġsusre": 4100,
      "55": 4101,
      "Ġvelikim": 4102,
      "Ġbavi": 4103,
      "gene": 4104,
      "jevi": 4105,
      "broj": 4106,
      "Ġteritoriji": 4107,
      "Ġzakonoda": 4108,
      "deset": 4109,
      "Ġalterna": 4110,
      "ĠnajvaÅ¾": 4111,
      "Ġkontra": 4112,
      "Ġflu": 4113,
      "Ġjedini": 4114,
      "eko": 4115,
      "rem": 4116,
      "Ġogleda": 4117,
      "Ġapsolu": 4118,
      "Å¾bi": 4119,
      "taciju": 4120,
      "ĠponaÅ¡anje": 4121,
      "Ġpostojanje": 4122,
      "at": 4123,
      "Ġnapada": 4124,
      "Ġkoor": 4125,
      "Å¾eno": 4126,
      "ferencija": 4127,
      "Ġpromen": 4128,
      "ĠÄįije": 4129,
      "É«É": 4130,
      "lica": 4131,
      "tes": 4132,
      "Ġevropi": 4133,
      "Ġzasni": 4134,
      "Ġherce": 4135,
      "Ġrecep": 4136,
      "ĠÄįija": 4137,
      "ÏĦ": 4138,
      "Ġstatus": 4139,
      "Ã¬": 4140,
      "ĠsluÄįajeva": 4141,
      "Ġsupstan": 4142,
      "ker": 4143,
      "Å¡avanja": 4144,
      "nga": 4145,
      "gnosti": 4146,
      "Ġhilja": 4147,
      "as": 4148,
      "vice": 4149,
      "Ġdelatnosti": 4150,
      "Ġprimena": 4151,
      "giju": 4152,
      "Ġ36": 4153,
      "smi": 4154,
      "78": 4155,
      "Ġzdravlje": 4156,
      "Ġalgori": 4157,
      "Ġprene": 4158,
      "Ġrelativno": 4159,
      "Ġcene": 4160,
      "Ġkompozi": 4161,
      "Ġ80": 4162,
      "Ġrizik": 4163,
      "pova": 4164,
      "Ġpuno": 4165,
      "Ġjednoj": 4166,
      "jana": 4167,
      "govora": 4168,
      "ev": 4169,
      "lov": 4170,
      "mula": 4171,
      "Ġitalija": 4172,
      "Ġsama": 4173,
      "Å¡ne": 4174,
      "Ġizlo": 4175,
      "Ġtoj": 4176,
      "ĠvuÄįiÄĩ": 4177,
      "organi": 4178,
      "Ġminima": 4179,
      "ĠÅ¡tampa": 4180,
      "rci": 4181,
      "Ġkoma": 4182,
      "Ġtelevi": 4183,
      "rska": 4184,
      "Ġud": 4185,
      "Ġdecu": 4186,
      "kiÄĩ": 4187,
      "Ġspi": 4188,
      "Ġnauka": 4189,
      "Ġpodu": 4190,
      "ana": 4191,
      "Ġosvoji": 4192,
      "Ġaleksan": 4193,
      "Ġkine": 4194,
      "Ġprati": 4195,
      "Ġgrado": 4196,
      "Ġmobi": 4197,
      "opÅ¡ti": 4198,
      "Å¡no": 4199,
      "ĠizloÅ¾e": 4200,
      "vaÄįa": 4201,
      "Ġsprem": 4202,
      "vaj": 4203,
      "tnika": 4204,
      "Ġmene": 4205,
      "lla": 4206,
      "Ġdje": 4207,
      "Ġideo": 4208,
      "istra": 4209,
      "Ġlak": 4210,
      "ĠobjaÅ¡nja": 4211,
      "tura": 4212,
      "teh": 4213,
      "dak": 4214,
      "vlada": 4215,
      "Ġjedino": 4216,
      "Ġsrpska": 4217,
      "Ġ90": 4218,
      "Ġvakci": 4219,
      "Ġ70": 4220,
      "Ġmatri": 4221,
      "Ġistom": 4222,
      "Ġopet": 4223,
      "âĢĿ<|": 4224,
      "Ġispla": 4225,
      "Ġ2021": 4226,
      "Ġorganizova": 4227,
      "Ġznam": 4228,
      "Ġopravda": 4229,
      "Ġpokazala": 4230,
      "Ġpopo": 4231,
      "Ġkupa": 4232,
      "Ġroku": 4233,
      "tiÄĩ": 4234,
      "Ġbiv": 4235,
      "Ġtekst": 4236,
      "vosti": 4237,
      "ĠreÄįe": 4238,
      "ĠvraÄĩa": 4239,
      "hy": 4240,
      "Ġobuhva": 4241,
      "ĠuÄįeÅ¡Äĩe": 4242,
      "Ġsvaka": 4243,
      "Ġsamog": 4244,
      "Ġmanife": 4245,
      "tija": 4246,
      "Ġobaveze": 4247,
      "Ġvazduha": 4248,
      "hibi": 4249,
      "Ġkomentara": 4250,
      "Ġsituacije": 4251,
      "ĠïĤ·": 4252,
      "Å¡an": 4253,
      "47": 4254,
      "ĠbuduÄĩi": 4255,
      "Ġljude": 4256,
      "Ġnjegovom": 4257,
      "Ġsagleda": 4258,
      "ĠÄĩeli": 4259,
      "ĠmoÄĩ": 4260,
      "konstru": 4261,
      "ĠviÅ¡i": 4262,
      "zanja": 4263,
      "Ġunije": 4264,
      "Ġmle": 4265,
      "Ġdes": 4266,
      "Ġimple": 4267,
      "nina": 4268,
      "Ġstri": 4269,
      "vnik": 4270,
      "ÑĬ": 4271,
      "Ġvremenu": 4272,
      "Ġtransforma": 4273,
      "Ġavi": 4274,
      "Ġdaju": 4275,
      "fija": 4276,
      "mos": 4277,
      "riÅ¡e": 4278,
      "rke": 4279,
      "tus": 4280,
      "Ġuprave": 4281,
      "Ġoktobra": 4282,
      "vera": 4283,
      "ĠpodruÄįju": 4284,
      "Ġsamim": 4285,
      "Ġnjene": 4286,
      "Ġpresta": 4287,
      "Äįavaju": 4288,
      "upi": 4289,
      "ĠÉ§": 4290,
      "Ġmir": 4291,
      "Ġpredsedni": 4292,
      "ĠÅ¡iri": 4293,
      "njeno": 4294,
      "Ġrazre": 4295,
      "Ġporuka": 4296,
      "Ġdodatno": 4297,
      "ĠuÄįenja": 4298,
      "á½": 4299,
      "ĠpredviÄĳa": 4300,
      "Ġdove": 4301,
      "ĠtrÅ¾iÅ¡ta": 4302,
      "voda": 4303,
      "Ġeksplo": 4304,
      "Ġtesti": 4305,
      "ted": 4306,
      "Ġplanira": 4307,
      "Ġvero": 4308,
      "Ġcivi": 4309,
      "Ġnekom": 4310,
      "Ġmale": 4311,
      "Ġnaziv": 4312,
      "Ġtero": 4313,
      "Ġ190": 4314,
      "Ġtelef": 4315,
      "par": 4316,
      "Ġlokalne": 4317,
      "Ġstepena": 4318,
      "Äĩoj": 4319,
      "Ġzra": 4320,
      "Ġdaleko": 4321,
      "njeni": 4322,
      "hodno": 4323,
      "dok": 4324,
      "ou": 4325,
      "Ġizazo": 4326,
      "Ġozbilj": 4327,
      "koj": 4328,
      "levant": 4329,
      "Ġpripa": 4330,
      "Ġtakav": 4331,
      "Ġkrvi": 4332,
      "loÅ¡kim": 4333,
      "Ġpojava": 4334,
      "mske": 4335,
      "seÄĩa": 4336,
      "Ġgranice": 4337,
      "Ġadre": 4338,
      "vljuje": 4339,
      "valu": 4340,
      "Ġpravu": 4341,
      "Ġgaran": 4342,
      "ide": 4343,
      "Ġada": 4344,
      "nsku": 4345,
      "Ġdisertacija": 4346,
      "Ġnepri": 4347,
      "Ġdesi": 4348,
      "Ġgodinama": 4349,
      "Ġvelikoj": 4350,
      "ĠproizvoÄĳa": 4351,
      "Ġglasa": 4352,
      "Ã£": 4353,
      "tela": 4354,
      "sorp": 4355,
      "Ġosnovnih": 4356,
      "zanje": 4357,
      "Ġnovca": 4358,
      "Ïģ": 4359,
      "Ġuzra": 4360,
      "Å¡taj": 4361,
      "Ġstefa": 4362,
      "elek": 4363,
      "ĠveliÄįine": 4364,
      "ĠdÅ¾": 4365,
      "Ġodbrane": 4366,
      "Äįaka": 4367,
      "lus": 4368,
      "Ġizrazi": 4369,
      "ĠistraÅ¾ivanju": 4370,
      "Ġupore": 4371,
      "ĠrazmiÅ¡lja": 4372,
      "Ġodgovora": 4373,
      "Ġkoncentracija": 4374,
      "Ġota": 4375,
      "Ġzaga": 4376,
      "ÏĤ": 4377,
      "Ġsupru": 4378,
      "Ġprikazani": 4379,
      "Ġkretanja": 4380,
      "Ġfir": 4381,
      "Ñĸ": 4382,
      "ĠpoÄįinje": 4383,
      "ĠkuÄĩa": 4384,
      "Ġodo": 4385,
      "65": 4386,
      "ĠnaÅ¡em": 4387,
      "ĠpoloÅ¾aj": 4388,
      "tska": 4389,
      "Ġzdravlja": 4390,
      "Ġkance": 4391,
      "pija": 4392,
      "ĠdruÅ¡tvene": 4393,
      "Ġeki": 4394,
      "Ġhor": 4395,
      "ĠznaÄįenja": 4396,
      "Ġvelikih": 4397,
      "ĠBiH": 4398,
      "pravi": 4399,
      "poÅ¡to": 4400,
      "plici": 4401,
      "knu": 4402,
      "npr": 4403,
      "Ġbolesnika": 4404,
      "Ġproteina": 4405,
      "ĠdogaÄĳaja": 4406,
      "tnoj": 4407,
      "ĠÅ¾ivotinja": 4408,
      "rdi": 4409,
      "É©": 4410,
      "Ñİ": 4411,
      "isti": 4412,
      "Ġcelokup": 4413,
      "sub": 4414,
      "Ġperspe": 4415,
      "Ġimovi": 4416,
      "Ġpokri": 4417,
      "Äīa": 4418,
      "znog": 4419,
      "Ġdeteta": 4420,
      "Ġseptembra": 4421,
      "ĠodreÄĳen": 4422,
      "Ġvizu": 4423,
      "ĠdruÅ¡tvu": 4424,
      "Å¡ni": 4425,
      "Ġodi": 4426,
      "Ġ189": 4427,
      "ĠtiÄįe": 4428,
      "prvi": 4429,
      "bur": 4430,
      "ĠmeÅ¡a": 4431,
      "Ġglasnik": 4432,
      "Äįnik": 4433,
      "jsko": 4434,
      "ĠobjaÅ¡nje": 4435,
      "Ġsati": 4436,
      "ĠkriviÄįnog": 4437,
      "orÄĳe": 4438,
      "vljena": 4439,
      "ljiv": 4440,
      "âĢ¦<|": 4441,
      "Ġinstitucija": 4442,
      "jsku": 4443,
      "Ġpromo": 4444,
      "ĠÉŀ": 4445,
      "Ġrevolu": 4446,
      "Äĩima": 4447,
      "Ġ2022": 4448,
      "ben": 4449,
      "Å¡kog": 4450,
      "viji": 4451,
      "vski": 4452,
      "ĠkolaÄįi": 4453,
      "Ġveliku": 4454,
      "tosti": 4455,
      "Ġprogla": 4456,
      "matski": 4457,
      "Ġprenosi": 4458,
      "Ġsv": 4459,
      "Ġmnoge": 4460,
      "ĠtroÅ¡kova": 4461,
      "lega": 4462,
      "ĠdoÅ¾ivlja": 4463,
      "ĠpoÄįetkom": 4464,
      "Ġodabra": 4465,
      "Ġdobar": 4466,
      "Ġizazi": 4467,
      "Ġedu": 4468,
      "Ġgovore": 4469,
      "Ġpogre": 4470,
      "stveno": 4471,
      "Ġcrne": 4472,
      "Ġvaspita": 4473,
      "noma": 4474,
      "Ġtretira": 4475,
      "Å¾avanje": 4476,
      "pije": 4477,
      "ĠnaÅ¡eg": 4478,
      "ĠopÅ¡tine": 4479,
      "Ġteorije": 4480,
      "biÄįaje": 4481,
      "gor": 4482,
      "Ġprikaz": 4483,
      "Ġinternet": 4484,
      "Ġmodu": 4485,
      "ĠveÄįe": 4486,
      "Ġobjekta": 4487,
      "Ġradika": 4488,
      "#<|": 4489,
      "Ġstava": 4490,
      "produ": 4491,
      "roviÄĩ": 4492,
      "Ġkategorija": 4493,
      "tika": 4494,
      "Ġprosve": 4495,
      "Éŀ": 4496,
      "Ġend": 4497,
      "njene": 4498,
      "ĠpriÄįe": 4499,
      "ĠÉ¤": 4500,
      "Ġneiz": 4501,
      "Ġtelo": 4502,
      "Ġkontroli": 4503,
      "Ġsimpto": 4504,
      "É¨Éľ": 4505,
      "stavi": 4506,
      "id": 4507,
      "Ġfakulteta": 4508,
      "Ġtrenutno": 4509,
      "Ġski": 4510,
      "Ġ?<|": 4511,
      "ĠhriÅ¡Äĩa": 4512,
      "Ġvita": 4513,
      "ĠmiÅ¡ljenje": 4514,
      "Ġjavnih": 4515,
      "É¢É§": 4516,
      "Ġinfrastruktu": 4517,
      "tional": 4518,
      "Ġsposobnost": 4519,
      "Ġistorija": 4520,
      "Ġoblast": 4521,
      "Äįari": 4522,
      "kola": 4523,
      "Ġrazno": 4524,
      "bran": 4525,
      "Ġiii": 4526,
      "Ġnjegovu": 4527,
      "ĠmiÅ¡ljenja": 4528,
      "Ġsocio": 4529,
      "Ġpokazali": 4530,
      "76": 4531,
      "Ġpol": 4532,
      "Ġogla": 4533,
      "lizacija": 4534,
      "njim": 4535,
      "Ġtesta": 4536,
      "Ġveru": 4537,
      "Ġimena": 4538,
      "Ġporodica": 4539,
      "ĠÅ¡an": 4540,
      "laska": 4541,
      "Ġbru": 4542,
      "Ġnacionalne": 4543,
      "Ġposlove": 4544,
      "Ġprezen": 4545,
      "Ġinterpre": 4546,
      "Ġdode": 4547,
      "Ġleksi": 4548,
      "Ġdetalj": 4549,
      "Ġfedera": 4550,
      "ljava": 4551,
      "Ġneku": 4552,
      "Ġnpr": 4553,
      "denata": 4554,
      "Ġpote": 4555,
      "lli": 4556,
      "valen": 4557,
      "Ġizvede": 4558,
      "ĠgraÄĳevi": 4559,
      "âĢľ,<|": 4560,
      "bera": 4561,
      "Ġboja": 4562,
      "Ġnama": 4563,
      "Ġjavne": 4564,
      "vka": 4565,
      "59": 4566,
      "Ġpogleda": 4567,
      "Ġinhibi": 4568,
      "ĠÄįeka": 4569,
      "Ġasi": 4570,
      "srp": 4571,
      "Å¾na": 4572,
      "vak": 4573,
      "Ġsubo": 4574,
      "tki": 4575,
      "Ġsan": 4576,
      "Ġzele": 4577,
      "res": 4578,
      "Ġrusije": 4579,
      "Ġradnika": 4580,
      "Ġkara": 4581,
      "Ġbogo": 4582,
      "Ġjedinjenja": 4583,
      "Ġkosti": 4584,
      "Ġaktivi": 4585,
      "Ġrelevant": 4586,
      "ĠizraÄįuna": 4587,
      "ĠdoÄĳe": 4588,
      "ae": 4589,
      "Ġstro": 4590,
      "Ġdisci": 4591,
      "Ġsank": 4592,
      "Ġosnovni": 4593,
      "ktivno": 4594,
      "Ġsamoupra": 4595,
      "Ġvezu": 4596,
      "Ġnastavi": 4597,
      "Ġjedinice": 4598,
      "Ġnemogu": 4599,
      "ĠodreÄĳeni": 4600,
      "Ġseksual": 4601,
      "vodom": 4602,
      "Ġnastave": 4603,
      "Ġstopa": 4604,
      "Ġdelimi": 4605,
      "ĠsadrÅ¾e": 4606,
      "Ġkontrolu": 4607,
      "41": 4608,
      "Ġzadatak": 4609,
      "ĠtreÄĩi": 4610,
      "Ġpojam": 4611,
      "Ġopo": 4612,
      "Äĩene": 4613,
      "Ġkojeg": 4614,
      "Ġbolni": 4615,
      "Ġdirektor": 4616,
      "Ġuskla": 4617,
      "ĠukljuÄįi": 4618,
      "ranih": 4619,
      "Ġrobe": 4620,
      "boj": 4621,
      "Ġnarodne": 4622,
      "ĠpovrÅ¡ina": 4623,
      "Ġkriteriju": 4624,
      "Äįica": 4625,
      "ed": 4626,
      "Ġstranke": 4627,
      "Ġul": 4628,
      "Ġdiscipli": 4629,
      "Ġkategorije": 4630,
      "Ġnjoj": 4631,
      "Ġbol": 4632,
      "Ġkonce": 4633,
      "Ġhercego": 4634,
      "snici": 4635,
      "Ġhttp": 4636,
      "oca": 4637,
      "Ġborbe": 4638,
      "58": 4639,
      "Ġrazlog": 4640,
      "ĠkuÄĩi": 4641,
      "forme": 4642,
      "gru": 4643,
      "koho": 4644,
      "Ġistorije": 4645,
      "cenje": 4646,
      "tnije": 4647,
      "Ġdobra": 4648,
      "siste": 4649,
      "sobno": 4650,
      "ida": 4651,
      "Ġobjavlji": 4652,
      "Ġnaslo": 4653,
      "Ġpreu": 4654,
      "Ġrepublici": 4655,
      "Ġlinija": 4656,
      "medi": 4657,
      "Ġ1998": 4658,
      "Ġprakse": 4659,
      "Ġostaje": 4660,
      "ĠzaÅ¡titi": 4661,
      "manu": 4662,
      "Ġposledice": 4663,
      "Ġspada": 4664,
      "sani": 4665,
      "Ġnado": 4666,
      "rop": 4667,
      "feri": 4668,
      "fije": 4669,
      "Ġposlednjih": 4670,
      "ĠknjiÅ¾evnosti": 4671,
      "Ġscena": 4672,
      "ction": 4673,
      "radi": 4674,
      "lovi": 4675,
      "mno": 4676,
      "logiji": 4677,
      "Ġnere": 4678,
      "ljima": 4679,
      "Ġkonstan": 4680,
      "Ġmetodo": 4681,
      "Nj": 4682,
      "ĠoÄįekuje": 4683,
      "Ġmanasti": 4684,
      "Ġ38": 4685,
      "vanti": 4686,
      "Äįima": 4687,
      "Ġindustrij": 4688,
      "cal": 4689,
      "nite": 4690,
      "rizo": 4691,
      "Ġispred": 4692,
      "Ġstoji": 4693,
      "Ġsemanti": 4694,
      "Ġfaza": 4695,
      "Å¾ivanja": 4696,
      "66": 4697,
      "gura": 4698,
      "ĠsaÄįu": 4699,
      "Ġkrajem": 4700,
      "Ġproizvodi": 4701,
      "vljen": 4702,
      "pom": 4703,
      "><|": 4704,
      "kultu": 4705,
      "Ġnovac": 4706,
      "Å¡enju": 4707,
      "Ġoptimi": 4708,
      "ssi": 4709,
      "Ġsiro": 4710,
      "Ġvrednostima": 4711,
      "Ġodluku": 4712,
      "Ġbira": 4713,
      "ĠuÄįesta": 4714,
      "Ġmigra": 4715,
      "Ġnjihovu": 4716,
      "rnom": 4717,
      "Ġer": 4718,
      "ĠpoveÄĩava": 4719,
      "Ġpredlog": 4720,
      "Ġnovim": 4721,
      "Ġmilija": 4722,
      "ĠdeÅ¡ava": 4723,
      "Ġpute": 4724,
      "42": 4725,
      "Ġala": 4726,
      "eu": 4727,
      "gradu": 4728,
      "Ġresursa": 4729,
      "am": 4730,
      "Ġvrhu": 4731,
      "Ġane": 4732,
      "43": 4733,
      "zaciji": 4734,
      "ĠÅ¡uma": 4735,
      "Ġdrugu": 4736,
      "Ġsuo": 4737,
      "ĠstruÄįnja": 4738,
      "Ġilu": 4739,
      "doc": 4740,
      "Ġputu": 4741,
      "Ġpropa": 4742,
      "Ġnjegovim": 4743,
      "ĠzapoÄįe": 4744,
      "Ġpodstica": 4745,
      "ĠdomaÄĩin": 4746,
      "tam": 4747,
      "Ġodsu": 4748,
      "Ġmarta": 4749,
      "Ġustanova": 4750,
      "nÄįe": 4751,
      "kona": 4752,
      "Ġnepre": 4753,
      "Ġnaz": 4754,
      "Ġkultura": 4755,
      "Ġaust": 4756,
      "!!": 4757,
      "Ġmotiva": 4758,
      "Ġcari": 4759,
      "Äįinu": 4760,
      "Ġanalizi": 4761,
      "ĠdruÅ¡tvenih": 4762,
      "É¨ÉĿ": 4763,
      "Ġmaterijal": 4764,
      "Ã¶": 4765,
      "govori": 4766,
      "Ġprikuplja": 4767,
      "Ġfunkciju": 4768,
      "Ġistog": 4769,
      "Ġujedinje": 4770,
      "Ġ37": 4771,
      "Ġref": 4772,
      "Ġline": 4773,
      "Ġdubo": 4774,
      "Ġsvaku": 4775,
      "Ġteorija": 4776,
      "Ġzatvore": 4777,
      "Ġpredme": 4778,
      "Ġpripad": 4779,
      "):": 4780,
      "Ġmoze": 4781,
      "**": 4782,
      "Ġ...": 4783,
      "Ġetni": 4784,
      "ine": 4785,
      "Ġflo": 4786,
      ".âĢľ<|": 4787,
      "Ġslobode": 4788,
      "Ġdobijenih": 4789,
      "Ġnato": 4790,
      "Ġmoj": 4791,
      "Äĳenjem": 4792,
      "Ġmila": 4793,
      "Ġproizvodnju": 4794,
      "sad": 4795,
      "Ġzadu": 4796,
      "Ġtehnologije": 4797,
      "Ġradnog": 4798,
      "ĠpreÅ¾i": 4799,
      "dor": 4800,
      "100": 4801,
      "Ġtehnologija": 4802,
      "Ġab": 4803,
      "Ġonaj": 4804,
      "Ġraste": 4805,
      "Ġprojekto": 4806,
      "Ġkilo": 4807,
      "Ġnjenog": 4808,
      "Ġnauke": 4809,
      "pusti": 4810,
      "Ġraspra": 4811,
      "Äįlan": 4812,
      "rijar": 4813,
      "Ġzemlju": 4814,
      "Ġdeset": 4815,
      "Ġstrategije": 4816,
      "Ġekonomski": 4817,
      "Ġsila": 4818,
      "ĠveÄĩu": 4819,
      "ie": 4820,
      "Ġpartner": 4821,
      "linu": 4822,
      "68": 4823,
      "Ġsaveta": 4824,
      "Ġlabora": 4825,
      "Ġstavlja": 4826,
      "Ġdalji": 4827,
      "Ġselek": 4828,
      "Ġtvrdi": 4829,
      "Ġukaza": 4830,
      "noviÄĩa": 4831,
      "Ġvojske": 4832,
      "Ġnada": 4833,
      "Ġvredno": 4834,
      "lnik": 4835,
      "Ġreakcije": 4836,
      "Å¡avanje": 4837,
      "snom": 4838,
      "Ġmala": 4839,
      "Ġpregleda": 4840,
      "Ġstan": 4841,
      "Ġekonomske": 4842,
      "cs": 4843,
      "âĢ¢": 4844,
      "Ġsnim": 4845,
      "toj": 4846,
      "Ġzadovolja": 4847,
      "Ġimate": 4848,
      "Ġideje": 4849,
      "Ġpartiza": 4850,
      "Ġdelom": 4851,
      "Ġbolji": 4852,
      "Ġkonkuren": 4853,
      "visti": 4854,
      "laganje": 4855,
      "Ġlokali": 4856,
      "ĠkoriÅ¡Äĩen": 4857,
      "Ġciljem": 4858,
      "Å¡tvu": 4859,
      "her": 4860,
      "Å¡njem": 4861,
      "Ġproiz": 4862,
      "Ġkapitala": 4863,
      "Ġnjegovih": 4864,
      "rodni": 4865,
      "Ġpriprema": 4866,
      "Ġsile": 4867,
      "Ġnaravno": 4868,
      "Ġoksida": 4869,
      "ĠdrÅ¾avne": 4870,
      "Ġciljeva": 4871,
      "Äįavanja": 4872,
      "rum": 4873,
      "Ġrezo": 4874,
      "69": 4875,
      "prili": 4876,
      "Ġveku": 4877,
      "67": 4878,
      "Ġkal": 4879,
      "logu": 4880,
      "Ġoptima": 4881,
      "zmi": 4882,
      "plan": 4883,
      "Ġpato": 4884,
      "Å¡kih": 4885,
      "Ġzapre": 4886,
      "naca": 4887,
      "ek": 4888,
      "É¢É¦": 4889,
      "Ġblizi": 4890,
      "Ġmodeli": 4891,
      "Ġkratko": 4892,
      "Ġvari": 4893,
      "Ġposlovanja": 4894,
      "Ġvesti": 4895,
      "Ġhomo": 4896,
      "Ġdobri": 4897,
      "ĠsaobraÄĩaj": 4898,
      "kciji": 4899,
      "vor": 4900,
      "Ġpotpisa": 4901,
      "Ġspome": 4902,
      "Ġprojekat": 4903,
      "dva": 4904,
      "Ġprvih": 4905,
      "Ġprave": 4906,
      "Ġ48": 4907,
      "hro": 4908,
      "Ġnikola": 4909,
      "lt": 4910,
      "psi": 4911,
      "Ġprav": 4912,
      "Ġdobiti": 4913,
      "terija": 4914,
      "Ġnavi": 4915,
      "it": 4916,
      "nskoj": 4917,
      "Ġfabri": 4918,
      "Ġkorak": 4919,
      "snoj": 4920,
      "hom": 4921,
      "Ġklije": 4922,
      "Ġmiro": 4923,
      "Ġ1996": 4924,
      "ĠkoliÄįine": 4925,
      "Ġbog": 4926,
      "53": 4927,
      "Ġodgovori": 4928,
      "Ġlj": 4929,
      "ĠodreÄĳenih": 4930,
      "ĠkoriÅ¡Äĩenjem": 4931,
      "ĠnaÅ¡oj": 4932,
      "skop": 4933,
      "Ġvrije": 4934,
      "Ġkoncept": 4935,
      "Äĩom": 4936,
      "kovima": 4937,
      "Ġ1997": 4938,
      "puÅ¡ta": 4939,
      "Ġpari": 4940,
      "Ġdao": 4941,
      "dju": 4942,
      "gena": 4943,
      "ĠÅ¡irom": 4944,
      "Ġupotreba": 4945,
      "pisima": 4946,
      "Ġpoklo": 4947,
      "Ġpolj": 4948,
      "Äįili": 4949,
      "mpe": 4950,
      "Ġparametri": 4951,
      "Ġosnovi": 4952,
      "É¨Êģ": 4953,
      "Ġdelova": 4954,
      "ĠâĢ¢<|": 4955,
      "Ġtv": 4956,
      "ukup": 4957,
      "Ġ1991": 4958,
      "Ġsamom": 4959,
      "Ġplanu": 4960,
      "Ġarhitektu": 4961,
      "Ġodbora": 4962,
      "zar": 4963,
      "ĠuspeÅ¡no": 4964,
      "É¨É¦": 4965,
      "Ġuloge": 4966,
      "predsednik": 4967,
      "Â°": 4968,
      "Ġrumu": 4969,
      "nijim": 4970,
      "Ġinterna": 4971,
      "ktivne": 4972,
      "Ġnjihovim": 4973,
      "Ġmorfo": 4974,
      "Ġsezone": 4975,
      "Ġsk": 4976,
      "Ġsocijalne": 4977,
      "Å¾avaju": 4978,
      "Ñī": 4979,
      "Ġprate": 4980,
      "Ġmada": 4981,
      "Ġprvoj": 4982,
      "cita": 4983,
      "rot": 4984,
      "tona": 4985,
      "Ġkoman": 4986,
      "Ġsadu": 4987,
      "Ġinsta": 4988,
      "Ġsoli": 4989,
      "Ġnukle": 4990,
      "Ġnedelje": 4991,
      "Ġkogni": 4992,
      "Ġmno": 4993,
      "77": 4994,
      "ved": 4995,
      "vju": 4996,
      "Ġdrago": 4997,
      "Ġsimboli": 4998,
      "mila": 4999,
      "Ġbiljaka": 5000,
      "Å¡kol": 5001,
      "Ġdijagnosti": 5002,
      "ĠoruÅ¾": 5003,
      "fil": 5004,
      "limo": 5005,
      "Ġopozi": 5006,
      "Ġnastavnika": 5007,
      "Ġstudenata": 5008,
      "mit": 5009,
      "ĠZ": 5010,
      "ĠuÄįenje": 5011,
      "Ġgranica": 5012,
      "Ġhar": 5013,
      "ĠâĢ¦": 5014,
      "miju": 5015,
      "krimina": 5016,
      "upe": 5017,
      "znih": 5018,
      "est": 5019,
      "Ġpreo": 5020,
      "dama": 5021,
      "dere": 5022,
      "Ġ1990": 5023,
      "Ġben": 5024,
      "Ġtakve": 5025,
      "ĠÉ©Éª": 5026,
      "ntu": 5027,
      "Ġzabora": 5028,
      "Å¾em": 5029,
      "Ġnavedenih": 5030,
      "raca": 5031,
      "ĠsliÄįno": 5032,
      "Ġmoje": 5033,
      "Ġbrzine": 5034,
      "Ġizjavio": 5035,
      "Ġodgovornost": 5036,
      "Ġtranzi": 5037,
      "Ġamba": 5038,
      "Ġsmanjuje": 5039,
      "ĠâĢĶ,": 5040,
      "Ġstani": 5041,
      "ĠskupÅ¡tine": 5042,
      "Ġponavlja": 5043,
      "Ġpouzda": 5044,
      "ÐĮ": 5045,
      "Ġpripove": 5046,
      "ĠzakljuÄįiti": 5047,
      "]<|": 5048,
      "Ġprobleme": 5049,
      "09": 5050,
      "Ġjavljaju": 5051,
      "Ġpolju": 5052,
      "ĠseÄĩa": 5053,
      "tost": 5054,
      "Ġsvetog": 5055,
      "Ġgradi": 5056,
      "bde": 5057,
      "Ġcha": 5058,
      "Ġigre": 5059,
      "Ġsame": 5060,
      "Ġdogodi": 5061,
      "Ġturizma": 5062,
      "ÄįeviÄĩ": 5063,
      "nus": 5064,
      "niku": 5065,
      "ĠloÅ¡e": 5066,
      "Ġnapred": 5067,
      "Ġaprila": 5068,
      "kori": 5069,
      "Ġcrkva": 5070,
      "Ġ1995": 5071,
      "stoga": 5072,
      "dÅ¾i": 5073,
      "nula": 5074,
      "Ġmoz": 5075,
      "Ġnajpre": 5076,
      "Ġmenta": 5077,
      "Ġministarstvo": 5078,
      "Ġalkoho": 5079,
      "tovi": 5080,
      "Ġinformi": 5081,
      "rur": 5082,
      "ĠÅ¡ire": 5083,
      "hija": 5084,
      "Å¾ili": 5085,
      "Ġfesti": 5086,
      "reo": 5087,
      "Ġpolici": 5088,
      "ĠporeÄĳenju": 5089,
      "rcija": 5090,
      "Ġpesme": 5091,
      "io": 5092,
      "Ġiznena": 5093,
      "Ġkazne": 5094,
      "rku": 5095,
      "Ġkomponente": 5096,
      "Ġodgovornosti": 5097,
      "79": 5098,
      "ĠpolitiÄįki": 5099,
      "Ġpravni": 5100,
      "Ġkombi": 5101,
      "ÄĬe": 5102,
      "Ġmakro": 5103,
      "Ġrezultatima": 5104,
      "vin": 5105,
      "Ġserija": 5106,
      "ĠpolitiÄįkih": 5107,
      "Ġplana": 5108,
      "Ġmasa": 5109,
      "Å¾nog": 5110,
      "Ġulja": 5111,
      "Ġvrata": 5112,
      "Ġispitivanje": 5113,
      "et": 5114,
      "Ġisporu": 5115,
      "Ġsprovodi": 5116,
      "Å¡tava": 5117,
      "cem": 5118,
      "mode": 5119,
      "moÅ¾e": 5120,
      "pan": 5121,
      "Ġkompe": 5122,
      "Ġmislim": 5123,
      "Ġposred": 5124,
      "Ġzajednica": 5125,
      "ferent": 5126,
      "vile": 5127,
      "Ġ39": 5128,
      "mon": 5129,
      "ĠuÄįenici": 5130,
      "Ġnovu": 5131,
      "Ġdimenzija": 5132,
      "ĠodreÄĳivanje": 5133,
      "ĠdefiniÅ¡e": 5134,
      "Ġporodici": 5135,
      "Ġpoza": 5136,
      "bs": 5137,
      "ĠtaÄįke": 5138,
      "val": 5139,
      "%.<|": 5140,
      "Ġdolara": 5141,
      "ĠÄįo": 5142,
      "Ġsata": 5143,
      "Ġnabav": 5144,
      "Ġsovje": 5145,
      "ĠsloÅ¾e": 5146,
      "Ġmal": 5147,
      "ÄĬu": 5148,
      "desetih": 5149,
      "Ġvelikom": 5150,
      "Ġlinije": 5151,
      "Ġkiseline": 5152,
      "Ġpritiska": 5153,
      "Ġdecembra": 5154,
      "Ġadvo": 5155,
      "Ġtehnika": 5156,
      "Ġrim": 5157,
      "Ġupotrebi": 5158,
      "Ġprocene": 5159,
      "Ġcentru": 5160,
      "Ġovako": 5161,
      "Ġsce": 5162,
      "loge": 5163,
      "Å¡ten": 5164,
      "Ġoriginal": 5165,
      "ĠÅ¡o": 5166,
      "ĠkriviÄįno": 5167,
      "Ġnjihovom": 5168,
      "stanka": 5169,
      "Ġ188": 5170,
      "É¨Éª": 5171,
      "Ġkaraktera": 5172,
      "Ġpatrijar": 5173,
      "Ġkomercija": 5174,
      "rovi": 5175,
      "Ġstoga": 5176,
      "bez": 5177,
      "ir": 5178,
      "Ġkvanti": 5179,
      "ĠnovÄįa": 5180,
      "Ġarti": 5181,
      "let": 5182,
      "Ġred": 5183,
      "Ġkupo": 5184,
      "Ġteritorija": 5185,
      "Ġpokraji": 5186,
      "Ġnajvi": 5187,
      "Ġljudskih": 5188,
      "kne": 5189,
      "ml": 5190,
      "Ġprista": 5191,
      "liji": 5192,
      "Ġmladih": 5193,
      "Ġtkiva": 5194,
      "Ġkora": 5195,
      "ĠvaÅ¡": 5196,
      "Ġstrategija": 5197,
      "Ġpis": 5198,
      "Ġostalim": 5199,
      "Ġanaliti": 5200,
      "Ġzaintere": 5201,
      "Ġatmos": 5202,
      "Ġlaborato": 5203,
      "mato": 5204,
      "dine": 5205,
      "ĠzahvaljujuÄĩi": 5206,
      "Ġargu": 5207,
      "ljivi": 5208,
      "Ġkomentar": 5209,
      "Ġneposredno": 5210,
      "ĠpoÄįetak": 5211,
      "Ġupr": 5212,
      "Ġsek": 5213,
      "Ġdepre": 5214,
      "Ġstanovi": 5215,
      "Ġjula": 5216,
      "Ġprofesor": 5217,
      "Ġkomunikacije": 5218,
      "ĠdoÄĩi": 5219,
      "Ġopis": 5220,
      "ĠtaÄįno": 5221,
      "Ġpoto": 5222,
      "ĠodreÄĳuje": 5223,
      "Ġpav": 5224,
      "Ġzanim": 5225,
      "Ġraspore": 5226,
      "Ġkali": 5227,
      "Ġkame": 5228,
      "Ġneda": 5229,
      "ĠoÅ¡teÄĩenja": 5230,
      "Ġstalno": 5231,
      "ĠÉ«": 5232,
      "Ġodigra": 5233,
      "ĠÄįlanovi": 5234,
      "Ġish": 5235,
      "tur": 5236,
      "genera": 5237,
      "Ġkomisije": 5238,
      "ĠX": 5239,
      "znu": 5240,
      "Ġalbu": 5241,
      "Å¡kom": 5242,
      "Ġsajta": 5243,
      "Ġsnagu": 5244,
      "ĠÄĩete": 5245,
      "novima": 5246,
      "Ġpopulacije": 5247,
      "56": 5248,
      "Ġpovodom": 5249,
      "Ġdro": 5250,
      "Ġkosova": 5251,
      "Ġznanje": 5252,
      "Ġprevazi": 5253,
      "Ġtvrd": 5254,
      "Äįnika": 5255,
      "Ġinstitucije": 5256,
      "Ġpotrebna": 5257,
      "zad": 5258,
      "Ġnovina": 5259,
      "Ġdobili": 5260,
      "vost": 5261,
      "Ġporekla": 5262,
      "ĠuobiÄįaje": 5263,
      "Ġstariji": 5264,
      "Ġvoza": 5265,
      "ĠdrÅ¾avama": 5266,
      "koviÄĩa": 5267,
      "Ġkonkurent": 5268,
      "Ġosobine": 5269,
      "Ġtretmana": 5270,
      "Ġsuse": 5271,
      "Ġpovla": 5272,
      "cki": 5273,
      "Ġgovor": 5274,
      "Ġbrojne": 5275,
      "Ġpripadaju": 5276,
      "Ġdoprinos": 5277,
      "kor": 5278,
      "Ġfaktori": 5279,
      "Ġregiona": 5280,
      "Ġbla": 5281,
      "Ġresur": 5282,
      "É¦": 5283,
      "Ġfunkciji": 5284,
      "naka": 5285,
      "leksi": 5286,
      "ĠograniÄįenja": 5287,
      "Ġroditelja": 5288,
      "ngi": 5289,
      "Ðİ": 5290,
      "Ġinostran": 5291,
      "nale": 5292,
      "krip": 5293,
      "Ġzad": 5294,
      "Ġotvo": 5295,
      "Ġprete": 5296,
      "smatra": 5297,
      "Ġvizue": 5298,
      "Ġcito": 5299,
      "57": 5300,
      "ĠÄįasova": 5301,
      "ĠukljuÄįuje": 5302,
      "Ġ32": 5303,
      "Ġkrei": 5304,
      "Ġgri": 5305,
      "Ġkiselina": 5306,
      "Ġkorist": 5307,
      "Ġprocenat": 5308,
      "Ġotpor": 5309,
      "Ġsimbo": 5310,
      "Ġidentiteta": 5311,
      "Å¾avanja": 5312,
      "Ġac": 5313,
      "tions": 5314,
      "Ġsrpskih": 5315,
      "Ġodstupa": 5316,
      "Å¡eviÄĩ": 5317,
      "Ġmagne": 5318,
      "É¨Éŀ": 5319,
      "Ġmeni": 5320,
      "Ġadap": 5321,
      "vanih": 5322,
      "Å½": 5323,
      "land": 5324,
      "ĠnaÅ¡ih": 5325,
      "ĠmenadÅ¾": 5326,
      "Ġkarci": 5327,
      "lf": 5328,
      "Ġraspolo": 5329,
      "Ġstvaranje": 5330,
      "un": 5331,
      "Ġplat": 5332,
      "Ġtemperatura": 5333,
      "Ġsed": 5334,
      "Ġlista": 5335,
      "Ġnepozna": 5336,
      "Ġskladi": 5337,
      "vama": 5338,
      "Ġpreki": 5339,
      "Ġusvoje": 5340,
      "Ġvec": 5341,
      "Ġsekto": 5342,
      "Ġlicen": 5343,
      "Ġsp": 5344,
      "Ġpravcu": 5345,
      "ĠnaÄĩi": 5346,
      "Ġote": 5347,
      "lit": 5348,
      "Ġminera": 5349,
      "Ġizvan": 5350,
      "Ġnastaje": 5351,
      "Ġgena": 5352,
      "ljenosti": 5353,
      "Å¡na": 5354,
      "ĠpoÄįeo": 5355,
      "Ġuniverzitet": 5356,
      "Ġrepublika": 5357,
      "Ġeste": 5358,
      "Ġnasilja": 5359,
      "Ġposloda": 5360,
      "Ġdoprine": 5361,
      "ĠÅ¡koli": 5362,
      "Ġnes": 5363,
      "Ġvrstu": 5364,
      "cka": 5365,
      "Ġmemo": 5366,
      "stog": 5367,
      "Ġlan": 5368,
      "Ġkoordina": 5369,
      "Ġreligi": 5370,
      "ĠkoliÄįina": 5371,
      "Ġuza": 5372,
      "mr": 5373,
      "Ġperspekti": 5374,
      "Ġsimu": 5375,
      "Ġeven": 5376,
      "Ġkonzu": 5377,
      "Ġsektora": 5378,
      "Ġsina": 5379,
      "Ġnjena": 5380,
      "doda": 5381,
      "Ġproizvode": 5382,
      "Ġokre": 5383,
      "Ġvise": 5384,
      "vske": 5385,
      "niÄĩ": 5386,
      "vljeno": 5387,
      "ĠtaÄįka": 5388,
      "Ġostalog": 5389,
      "Ġliteraturi": 5390,
      "Ġpolitiku": 5391,
      "Ġdobila": 5392,
      "tropo": 5393,
      "keta": 5394,
      "Ġdobijeni": 5395,
      "Ġjanuara": 5396,
      "Ġ@": 5397,
      "Ġrazlikuju": 5398,
      "jeviÄĩ": 5399,
      "ĠudruÅ¾enja": 5400,
      "spi": 5401,
      "Ġparlamenta": 5402,
      "Ġklase": 5403,
      "ĠÅ¡kolu": 5404,
      "Ġrekonstru": 5405,
      "ĠbuduÄĩnosti": 5406,
      "Ġukupnog": 5407,
      "Ġorijenta": 5408,
      "Ġintelek": 5409,
      "ĠpoveÄĩanja": 5410,
      "cho": 5411,
      "put": 5412,
      "Ġnai": 5413,
      "Ġfilozof": 5414,
      "klapa": 5415,
      "Ġavgusta": 5416,
      "Ġuzo": 5417,
      "Ġhrvatske": 5418,
      "Ġolak": 5419,
      "99": 5420,
      "siÄĩ": 5421,
      "ntne": 5422,
      "hije": 5423,
      "Ġsavez": 5424,
      "Ġkaza": 5425,
      "lis": 5426,
      "ĠvaÅ¡i": 5427,
      "Ġmodelu": 5428,
      "Ġ!<|": 5429,
      "ĠÉ«É": 5430,
      "Ġprocenu": 5431,
      "Ñķ": 5432,
      "strova": 5433,
      "Ġnano": 5434,
      "Ġdata": 5435,
      "tip": 5436,
      "Ġveb": 5437,
      "Ġkorona": 5438,
      "Ġseve": 5439,
      "Ġglagola": 5440,
      "sira": 5441,
      "Ġtraje": 5442,
      "Ġrezu": 5443,
      "Ġ?": 5444,
      "Å¾nih": 5445,
      "Ġsvojom": 5446,
      "Ġnavo": 5447,
      "Ġstadi": 5448,
      "Äįin": 5449,
      "Ġeviden": 5450,
      "poÄįe": 5451,
      "jiÄĩ": 5452,
      "dimo": 5453,
      "Ġceo": 5454,
      "Ġjednostavno": 5455,
      "Ġosiguranja": 5456,
      "Ġstvarala": 5457,
      "ĠreÅ¡i": 5458,
      "Ġefikasnosti": 5459,
      "leo": 5460,
      "Ġnastavlja": 5461,
      "Ġposlednje": 5462,
      "ĠveÅ¡ta": 5463,
      "Ġnacionalnog": 5464,
      "bilnost": 5465,
      "Ġistoriji": 5466,
      "Ġimovine": 5467,
      "Ġubije": 5468,
      "danas": 5469,
      "stovi": 5470,
      "Ġvojvodine": 5471,
      "ĠpoÅ¾a": 5472,
      "Ġosla": 5473,
      "zme": 5474,
      "dove": 5475,
      "jskoj": 5476,
      "Ġtima": 5477,
      "Ġuprkos": 5478,
      "Ġstare": 5479,
      "Ġari": 5480,
      "Ġponekad": 5481,
      "xi": 5482,
      "Ġara": 5483,
      "Ġintereso": 5484,
      "ĠÄįesti": 5485,
      "Ġpostala": 5486,
      "stoj": 5487,
      "Ġske": 5488,
      "Ġsajtu": 5489,
      "Ġsrednjo": 5490,
      "Ġdije": 5491,
      "Ġpome": 5492,
      "Ġdelovanja": 5493,
      "ĠjaÄįa": 5494,
      "Ġune": 5495,
      "Ġglagol": 5496,
      "Ġforme": 5497,
      "Ġkorpu": 5498,
      "taj": 5499,
      "ac": 5500,
      "Ġsigur": 5501,
      "Ġsmanjenja": 5502,
      "64": 5503,
      "ĠpH": 5504,
      "Ġopada": 5505,
      "Ġpritisak": 5506,
      "Ġeta": 5507,
      "tada": 5508,
      "Ġcelu": 5509,
      "Ġkarakter": 5510,
      "beogra": 5511,
      "ĠÃ±": 5512,
      "ĠsaopÅ¡ti": 5513,
      "Ġpride": 5514,
      "sana": 5515,
      "52": 5516,
      "04": 5517,
      "Ġbitno": 5518,
      "Å¡njim": 5519,
      "canje": 5520,
      "Ġintervju": 5521,
      "ras": 5522,
      "ĠnemaÄįke": 5523,
      "Ġstavove": 5524,
      "Ġzanima": 5525,
      "Ġmetara": 5526,
      "Ġjeze": 5527,
      "ljivih": 5528,
      "Ġtehnike": 5529,
      "proda": 5530,
      "Ġtipi": 5531,
      "ĠnajznaÄįaj": 5532,
      "Ġ1992": 5533,
      "Ġrok": 5534,
      "Å¡eni": 5535,
      "Ġdoprinosi": 5536,
      "ila": 5537,
      "zin": 5538,
      "ĠpodrÅ¡ke": 5539,
      "timo": 5540,
      "Ġparale": 5541,
      "Ġodg": 5542,
      "gledno": 5543,
      "Ġakcije": 5544,
      "Ġinstituta": 5545,
      "Ġbezbednost": 5546,
      "Ġprijatelj": 5547,
      "Ġzaslu": 5548,
      "ĠdrÅ¾avi": 5549,
      "Ġprilog": 5550,
      "Ġdeluje": 5551,
      "03": 5552,
      "Ã§": 5553,
      "Ġstimu": 5554,
      "teti": 5555,
      "Ġbrojem": 5556,
      "Ġravnote": 5557,
      "Ġmusli": 5558,
      "ÊĦ": 5559,
      "Ġmin": 5560,
      "Ġderi": 5561,
      "ĠobjaÅ¡njava": 5562,
      "Ġfili": 5563,
      "Ġvisoke": 5564,
      "Ġbori": 5565,
      "blo": 5566,
      "Ġprednosti": 5567,
      "Ġpovr": 5568,
      "Ġnovembra": 5569,
      "Äįila": 5570,
      "ĠnaÅ¡a": 5571,
      "Ġupisa": 5572,
      "Ġnismo": 5573,
      "verzi": 5574,
      "Ġslova": 5575,
      "sigu": 5576,
      "Ġprimera": 5577,
      "Ġpp": 5578,
      "ĠÊģ": 5579,
      "Ġkriminal": 5580,
      "Ġ33": 5581,
      "âĢ¦âĢ¦": 5582,
      "Ġrastu": 5583,
      "ĠkoÅ¡ta": 5584,
      "Ġsredini": 5585,
      "Ġreke": 5586,
      "uÄįe": 5587,
      "lep": 5588,
      "08": 5589,
      "Ġmolekula": 5590,
      "Ġnao": 5591,
      "Ġsaradnju": 5592,
      ");<|": 5593,
      "63": 5594,
      "Ġjednako": 5595,
      "Ġradnje": 5596,
      "Ġinvali": 5597,
      "odre": 5598,
      "Ïĥ": 5599,
      "Ġosnovna": 5600,
      "ĠoznaÄįava": 5601,
      "Ġuklanja": 5602,
      "Ġformiranje": 5603,
      "Ġratu": 5604,
      "Ġbakte": 5605,
      "Ġstudiji": 5606,
      "ning": 5607,
      "Ġsaradnje": 5608,
      "Ġkvadra": 5609,
      "Ã¼": 5610,
      "Ġstrukturi": 5611,
      "Ġeventual": 5612,
      "Ġcilja": 5613,
      "Ġep": 5614,
      "Ġpriori": 5615,
      "Ġblizini": 5616,
      "sje": 5617,
      "Ġmaso": 5618,
      "Ġtakva": 5619,
      "Ġpak": 5620,
      "lle": 5621,
      "Å¡avaju": 5622,
      "Ġukra": 5623,
      "Ġobole": 5624,
      "aktiv": 5625,
      "gore": 5626,
      "nau": 5627,
      "foto": 5628,
      "Ġkancela": 5629,
      "Ġanalizom": 5630,
      "Ġotac": 5631,
      "ĠmeÄĳusobno": 5632,
      "fikaciju": 5633,
      "Ġsvojstva": 5634,
      "Ġfonda": 5635,
      "Ġjevre": 5636,
      "Ġromana": 5637,
      "Ġzanema": 5638,
      "Ġakcija": 5639,
      "ĠlakÅ¡e": 5640,
      "rskog": 5641,
      "Äįla": 5642,
      "Ġmnogim": 5643,
      "Ġtermi": 5644,
      "Ġtitu": 5645,
      "funk": 5646,
      "ĠdrÅ¾avlja": 5647,
      "ĠÄįinjenice": 5648,
      "Ġ1994": 5649,
      "Ġzaba": 5650,
      "Ġulaz": 5651,
      "Ġdisertacije": 5652,
      "Ġvisok": 5653,
      "Ġopreme": 5654,
      "Ġkapaciteta": 5655,
      "Ġrazumevanje": 5656,
      "vinu": 5657,
      "Ġdeter": 5658,
      "Ġuspeh": 5659,
      "grafija": 5660,
      "rijski": 5661,
      "Ġbiste": 5662,
      "Ġputovanja": 5663,
      "ĠovlaÅ¡Äĩ": 5664,
      "Ġsituaciji": 5665,
      "Ġogrom": 5666,
      "Å¡o": 5667,
      "ĠniÅ¾i": 5668,
      "Ġfudbal": 5669,
      "54": 5670,
      "rus": 5671,
      "Ġdiskrimina": 5672,
      "Â»": 5673,
      "con": 5674,
      "ĠÃ¯": 5675,
      "Ġbaj": 5676,
      "Ġpolicije": 5677,
      "71": 5678,
      "Ġ\\": 5679,
      "Ġepizo": 5680,
      "Ġov": 5681,
      "72": 5682,
      "Ġprikazan": 5683,
      "Ġhorizo": 5684,
      "Ġkg": 5685,
      "Ġuvi": 5686,
      "Ġfer": 5687,
      "ĠkoÅ¡a": 5688,
      "lizam": 5689,
      "Ġbaze": 5690,
      "Ġmanja": 5691,
      "sora": 5692,
      "Ġpostojanja": 5693,
      "Ġliga": 5694,
      "oba": 5695,
      "Ġobraz": 5696,
      "Ġsignala": 5697,
      "ĠodreÄĳenim": 5698,
      "Ġregionu": 5699,
      "02": 5700,
      "Ġimi": 5701,
      "zanti": 5702,
      "ĠodreÄĳena": 5703,
      "Ġkrize": 5704,
      "ĠdrugaÄįije": 5705,
      "Ġizdvaja": 5706,
      "ÄĮ": 5707,
      "Ġvanred": 5708,
      "Ġuklo": 5709,
      "Ġmeda": 5710,
      "Ġefikasnost": 5711,
      "Ġupa": 5712,
      "Ġport": 5713,
      "nis": 5714,
      "Ġkomo": 5715,
      "Ġsveti": 5716,
      "''.<|": 5717,
      "Ġonoga": 5718,
      "Ġpotencijal": 5719,
      "ĠpoÄįela": 5720,
      "Ġinterva": 5721,
      "Ġslabo": 5722,
      "jeve": 5723,
      "vela": 5724,
      "Ġskra": 5725,
      "Ġmlade": 5726,
      "miÅ¡lje": 5727,
      "ĠduÅ¾e": 5728,
      "Ġproblemi": 5729,
      "73": 5730,
      "Ġbave": 5731,
      "Ġispunja": 5732,
      "ÉļÉľ": 5733,
      "Ġiskoristi": 5734,
      "Ġbran": 5735,
      "Ġsiroma": 5736,
      "Ġrije": 5737,
      "Ġtrajanja": 5738,
      "cionim": 5739,
      "Ġtenden": 5740,
      "Ġruke": 5741,
      ".).<|": 5742,
      "Ġimplementa": 5743,
      "ĠjovanoviÄĩ": 5744,
      "Ġprodaje": 5745,
      "Ġposeduje": 5746,
      "inte": 5747,
      "06": 5748,
      "ÉŁÉª": 5749,
      "nosu": 5750,
      "Ġsja": 5751,
      "Ġstranih": 5752,
      "Ġstambe": 5753,
      "Ġnikad": 5754,
      "koji": 5755,
      "stio": 5756,
      "Ġstandarda": 5757,
      "Ġlegi": 5758,
      "Ġiv": 5759,
      "ĠproÅ¡losti": 5760,
      "Ġsuge": 5761,
      "Ġlim": 5762,
      "iti": 5763,
      "Ġgeograf": 5764,
      "51": 5765,
      "Ġelementi": 5766,
      "tama": 5767,
      "beograd": 5768,
      "Ġprivre": 5769,
      "Ġeuro": 5770,
      "ÉŁÉŀ": 5771,
      "ĠÃ¨": 5772,
      "ĠÂµ": 5773,
      "Ġniza": 5774,
      "2011": 5775,
      "ljenost": 5776,
      "bilnosti": 5777,
      "Ġoprede": 5778,
      "Ġrazgovara": 5779,
      "Ġzvezda": 5780,
      "Ġljubav": 5781,
      "obi": 5782,
      "Ġsrpskoj": 5783,
      "ekonom": 5784,
      "Ġkorup": 5785,
      "ĠgodiÅ¡nje": 5786,
      "vljeni": 5787,
      "Ġzakonu": 5788,
      "Ġruske": 5789,
      "Ġrazlikuje": 5790,
      "Ġuma": 5791,
      "Ġprimeni": 5792,
      "ria": 5793,
      "Ġbuga": 5794,
      "Ġspra": 5795,
      "Ġnastup": 5796,
      "Ġnepro": 5797,
      "Ġpreduzetni": 5798,
      "Ġelementa": 5799,
      "ĠÄįl": 5800,
      "Ġgrupama": 5801,
      "Ġlondo": 5802,
      "Ġmetod": 5803,
      "Ġproi": 5804,
      "Ġkro": 5805,
      "ĠmeÄĳunarodne": 5806,
      "Ġljubavi": 5807,
      "kvu": 5808,
      "Ġjavni": 5809,
      "ÉļÉ¬": 5810,
      "Å¡nog": 5811,
      "Ġmesec": 5812,
      "jenja": 5813,
      "Ġzase": 5814,
      "Ġhirur": 5815,
      "Ġraspode": 5816,
      "leta": 5817,
      "glu": 5818,
      "jam": 5819,
      "Ġpolje": 5820,
      "tivnost": 5821,
      "Ġprimenjuje": 5822,
      "Ġkomentari": 5823,
      "Ġpromeni": 5824,
      "Ġnazivom": 5825,
      "Ġsvesti": 5826,
      "Ġjednim": 5827,
      "Ġorganizaciji": 5828,
      "ĠkaÅ¾u": 5829,
      "Ġfri": 5830,
      "Äĩuju": 5831,
      "toli": 5832,
      "Ġostvaruje": 5833,
      "skula": 5834,
      "vek": 5835,
      "njenje": 5836,
      "ĠÄĳa": 5837,
      "Ġizraz": 5838,
      "ĠÅ¡tete": 5839,
      "Ġistori": 5840,
      "Ġosloba": 5841,
      "Ð®": 5842,
      "Ġdobre": 5843,
      "Ġoperacije": 5844,
      "Ġnapla": 5845,
      "%),": 5846,
      "Å¾uje": 5847,
      "Ġpobu": 5848,
      "Ġrezer": 5849,
      "Ġfarma": 5850,
      "Ġapara": 5851,
      "ĠÉ¬": 5852,
      "kin": 5853,
      "lnika": 5854,
      "Ġupla": 5855,
      "Ġzali": 5856,
      "ĠodrÅ¾avanje": 5857,
      "Ġmetala": 5858,
      "ĠÂ«": 5859,
      "Ġodnosima": 5860,
      "Ġeduka": 5861,
      "Ġkampa": 5862,
      "Ġobrade": 5863,
      "mili": 5864,
      "Ġprvenstveno": 5865,
      "ntna": 5866,
      "Ġkakav": 5867,
      "Ġporeza": 5868,
      "Ġkana": 5869,
      "ĠmoÅ£e": 5870,
      "Ġbazira": 5871,
      "Ġaspekta": 5872,
      "Ġistim": 5873,
      "tv": 5874,
      "lon": 5875,
      "Ġkonferen": 5876,
      "ĠutvrÄĳeno": 5877,
      "Ġ)<|": 5878,
      "Ġ500": 5879,
      "ĠdoÅ¡ao": 5880,
      "Ġmilan": 5881,
      "Ġtor": 5882,
      "Ġbezbedno": 5883,
      "valua": 5884,
      "Ġodredbe": 5885,
      "ĠizveÅ¡taj": 5886,
      "Ġinterakcije": 5887,
      "Ġlet": 5888,
      "Ġprihoda": 5889,
      "Ġostavlja": 5890,
      "Ġinspe": 5891,
      "cke": 5892,
      "Ġznaju": 5893,
      "Ġsnabde": 5894,
      "dilo": 5895,
      "Ġproblemati": 5896,
      "Ġuticajem": 5897,
      "rala": 5898,
      "Ġokvir": 5899,
      "oci": 5900,
      "ĠvaÅ¾an": 5901,
      "tivnosti": 5902,
      "Ġprora": 5903,
      "Ġsni": 5904,
      "Ġreguli": 5905,
      "Ġjovan": 5906,
      "Ġuse": 5907,
      "Ġaj": 5908,
      "Ġgeno": 5909,
      "Å¡nju": 5910,
      "Ġospo": 5911,
      "--": 5912,
      "ĠsluÄįaja": 5913,
      "vljuju": 5914,
      "74": 5915,
      "deÄĩi": 5916,
      "Ġtemu": 5917,
      "des": 5918,
      "Ġdokaz": 5919,
      "Ġkralja": 5920,
      "Ġpovezanost": 5921,
      "Ġgovora": 5922,
      "ĠzapoÅ¡lja": 5923,
      "Å¾enih": 5924,
      "poru": 5925,
      "Ġpokret": 5926,
      "Ġdugoro": 5927,
      "Ġder": 5928,
      "ĠpredloÅ¾e": 5929,
      "gov": 5930,
      "ktori": 5931,
      "zavi": 5932,
      "Ġistakao": 5933,
      "Ġhiper": 5934,
      "Ġljubi": 5935,
      "Ġrazliko": 5936,
      "Ġ34": 5937,
      "Ġpoglavlju": 5938,
      "ligen": 5939,
      "Äįenih": 5940,
      "Ġvrho": 5941,
      "Å¡ene": 5942,
      "ĠtrÅ¾iÅ¡te": 5943,
      "ap": 5944,
      "Ġpoznat": 5945,
      "Ġfinansijskih": 5946,
      "ĠzaÅ¡tita": 5947,
      "Ġsaradnji": 5948,
      "rtika": 5949,
      "sati": 5950,
      "istraÅ¾i": 5951,
      "Ġnastanka": 5952,
      "2012": 5953,
      "Ġzasniva": 5954,
      "Î»": 5955,
      "ĠveliÄįina": 5956,
      "ĠÎ¼": 5957,
      "ĠinaÄįe": 5958,
      "Ġfla": 5959,
      "Ġfre": 5960,
      "jera": 5961,
      "Ġpesni": 5962,
      "one": 5963,
      "em": 5964,
      "Ġimalo": 5965,
      "Ġpm": 5966,
      "Ġkrista": 5967,
      "Ġdepo": 5968,
      "Ġpokazao": 5969,
      "Ġsrpsko": 5970,
      "tike": 5971,
      "Ġsporazuma": 5972,
      "Ġdovesti": 5973,
      "tivu": 5974,
      "ĠudÅ¾be": 5975,
      "Ġtransport": 5976,
      "Ġjesu": 5977,
      "king": 5978,
      "Ġmajka": 5979,
      "89": 5980,
      "ĠzakljuÄįak": 5981,
      "Ġslove": 5982,
      "Ġpremi": 5983,
      "Ġsveto": 5984,
      "Ġdoktorska": 5985,
      "ff": 5986,
      "Ġprimje": 5987,
      "Ġmetodom": 5988,
      "ĠÄįlanica": 5989,
      "zimanje": 5990,
      "zer": 5991,
      "ĠmiÅ¡i": 5992,
      "Ġborbi": 5993,
      "renih": 5994,
      "ĠpraÄĩenje": 5995,
      "centri": 5996,
      "62": 5997,
      "Ġobjekat": 5998,
      "ĠpovrÅ¡ini": 5999,
      "61": 6000,
      "É«É¤": 6001,
      "Ġpreven": 6002,
      "Ġekvi": 6003,
      "Ġstrukturu": 6004,
      "âĢķ": 6005,
      "ngvisti": 6006,
      "Ġkriterijuma": 6007,
      "ĠuÄįesnika": 6008,
      "mum": 6009,
      "Ġvol": 6010,
      "loÅ¡kom": 6011,
      "Ġradne": 6012,
      "Ġnog": 6013,
      "Ġsobom": 6014,
      "nto": 6015,
      "joÅ¡": 6016,
      "ĠnaÅ¡im": 6017,
      "Äĩenih": 6018,
      "Ġby": 6019,
      "ruju": 6020,
      "Ġolim": 6021,
      "Ġneutra": 6022,
      "ĠdelimiÄįno": 6023,
      "gama": 6024,
      "slobo": 6025,
      "ispi": 6026,
      "zovani": 6027,
      "Ġprirodi": 6028,
      "Ġzakoni": 6029,
      "Ġiskaza": 6030,
      "Ġokri": 6031,
      "ĠsluÅ¡a": 6032,
      "Ġsaradnici": 6033,
      "dago": 6034,
      "mski": 6035,
      "Ġela": 6036,
      "Ġekstre": 6037,
      "Ġmoderni": 6038,
      "Ġnajma": 6039,
      "ĠgraÄĳani": 6040,
      "Ġmerenje": 6041,
      "2013": 6042,
      "uzro": 6043,
      "Ġzbor": 6044,
      "2014": 6045,
      "Ġduna": 6046,
      "ĠÄĩi": 6047,
      "Ġnadzor": 6048,
      "Ġiznos": 6049,
      "Ġuku": 6050,
      "ĠnaÅ¡u": 6051,
      "Ġizbega": 6052,
      "Ġselu": 6053,
      "ĠobeleÅ¾": 6054,
      "Ġale": 6055,
      "Ġnaf": 6056,
      "meto": 6057,
      "Ġnapisao": 6058,
      "spa": 6059,
      "Ġprikazana": 6060,
      "Ġprirodnih": 6061,
      "Äĳenog": 6062,
      "ĠproÄįita": 6063,
      "Ġpau": 6064,
      "ĠduÅ¾ine": 6065,
      "narod": 6066,
      "Â´": 6067,
      "nse": 6068,
      "Ġ*": 6069,
      "Ġustano": 6070,
      "ĠvaÅ¾i": 6071,
      "É¡": 6072,
      "Ġzdravstvene": 6073,
      "minali": 6074,
      "tle": 6075,
      "Ġdelovima": 6076,
      "Ġzadovo": 6077,
      "Ġdolaze": 6078,
      "Ġbrani": 6079,
      "Å¡nih": 6080,
      "deti": 6081,
      "Ġpridru": 6082,
      "moÄĩ": 6083,
      "Ġkonver": 6084,
      "Ġsuve": 6085,
      "tho": 6086,
      "Ġnapona": 6087,
      "Ġstruje": 6088,
      "Ġtop": 6089,
      "Ġkarti": 6090,
      "Ġstara": 6091,
      "Ġsliku": 6092,
      "É¢É¯": 6093,
      "Ġpresto": 6094,
      "vajanje": 6095,
      "Ġbrzina": 6096,
      "Ġprelazi": 6097,
      "07": 6098,
      "Ġgusti": 6099,
      "Ġsvima": 6100,
      "ĠodgovarajuÄĩe": 6101,
      "bilo": 6102,
      "ĠangaÅ¾o": 6103,
      "Ġdeve": 6104,
      "Ġpoznato": 6105,
      "Ġusko": 6106,
      "Ġzgrade": 6107,
      "dbe": 6108,
      "Ġemocional": 6109,
      "reti": 6110,
      "Ġvisine": 6111,
      "Ġprof": 6112,
      "ĠpoloÅ¾aja": 6113,
      "naravno": 6114,
      "Ġtermin": 6115,
      "Ġistoriju": 6116,
      "dp": 6117,
      "Ġxi": 6118,
      "Ġantio": 6119,
      "Ġsituaciju": 6120,
      "Ġnacionalnih": 6121,
      "................................": 6122,
      "Ġuro": 6123,
      "Ġkraguje": 6124,
      "Ġnastupa": 6125,
      "2010": 6126,
      "ĠpoÅ¾e": 6127,
      "Ġsvemu": 6128,
      "Ġmanifesta": 6129,
      "Ġosobina": 6130,
      "znosti": 6131,
      "ĠÅ¾an": 6132,
      "Ġpretra": 6133,
      "Ġaktivno": 6134,
      "ÉļÉª": 6135,
      "ĠbivÅ¡i": 6136,
      "Ġlist": 6137,
      "Ġfakultetu": 6138,
      "Ġrazum": 6139,
      "mnog": 6140,
      "Ġustanove": 6141,
      "jednako": 6142,
      "Ġroman": 6143,
      "Ġtok": 6144,
      "Ġpromenu": 6145,
      "Ġ300": 6146,
      "Ġora": 6147,
      "Ġpovezi": 6148,
      "ljka": 6149,
      "Ġaleksandra": 6150,
      "var": 6151,
      "Ġizu": 6152,
      "Ġznak": 6153,
      "Ã¦": 6154,
      "Ġube": 6155,
      "Ġnesre": 6156,
      "Ġregre": 6157,
      "ljem": 6158,
      "ĠistraÅ¾ivanjima": 6159,
      "hen": 6160,
      "92": 6161,
      "druga": 6162,
      "Äįuju": 6163,
      "Ġfro": 6164,
      "ĠkreÄĩe": 6165,
      "stiÄįke": 6166,
      "Ġprojekata": 6167,
      "Ġ1993": 6168,
      "Ġradnih": 6169,
      "poda": 6170,
      "lizaciju": 6171,
      "sin": 6172,
      "Ġzauzima": 6173,
      "tetom": 6174,
      "ĠnauÄįni": 6175,
      "hat": 6176,
      "Ġreprezenta": 6177,
      "ljak": 6178,
      "Ġkontrola": 6179,
      "ak": 6180,
      "Ġvojne": 6181,
      ".)<|": 6182,
      "Ġpodnosi": 6183,
      "ÄĲ": 6184,
      "Ġzone": 6185,
      "redi": 6186,
      "vci": 6187,
      "biti": 6188,
      "Ġbriga": 6189,
      "tskom": 6190,
      "Ġinstitut": 6191,
      "Ġfilma": 6192,
      "Ġkolu": 6193,
      "Ġsaraje": 6194,
      "odno": 6195,
      "vene": 6196,
      "Ġseo": 6197,
      "Ġgradova": 6198,
      "neu": 6199,
      "Ġkorela": 6200,
      "Ġbel": 6201,
      "Ġreferen": 6202,
      "sum": 6203,
      "vskog": 6204,
      "Ġsy": 6205,
      "ĠprilagoÄĳa": 6206,
      "ĠkonaÄįno": 6207,
      "Ġpravnog": 6208,
      "Ġgramati": 6209,
      "Ġvje": 6210,
      "Å¡tima": 6211,
      "dovima": 6212,
      "geni": 6213,
      "Ġmanda": 6214,
      "jor": 6215,
      "Ġnjeno": 6216,
      "pati": 6217,
      "ĠopÅ¡tina": 6218,
      "Ġpovu": 6219,
      "zdra": 6220,
      "ticaj": 6221,
      "ĠÄįeÅ¡Äĩe": 6222,
      "Ġsledi": 6223,
      "Ġovoga": 6224,
      "rove": 6225,
      "sluÅ¾be": 6226,
      "ĠveÄĩim": 6227,
      "Ġgim": 6228,
      "Ġpriliku": 6229,
      "98": 6230,
      "ĠsluÅ¾i": 6231,
      "Ġradom": 6232,
      "ĠmeÄĳusob": 6233,
      "ĠdruÅ¡tveno": 6234,
      "Ġidentitet": 6235,
      "ĠgreÅ¡ke": 6236,
      "Ġuniverza": 6237,
      "Ġiskori": 6238,
      "Ġpojma": 6239,
      "Ġispitivanih": 6240,
      "Ġmalih": 6241,
      "Ġposlovne": 6242,
      "Ġluka": 6243,
      "Ġpovrede": 6244,
      "rnice": 6245,
      "dÅ¾a": 6246,
      "Ġstil": 6247,
      "Ġnosio": 6248,
      "miÄĩ": 6249,
      "siti": 6250,
      "Ġrezi": 6251,
      "Ġprednost": 6252,
      "dnica": 6253,
      "ĠokruÅ¾enju": 6254,
      "Ġreakcija": 6255,
      "np": 6256,
      "Ġostala": 6257,
      "Ġdobijaju": 6258,
      "Ġretko": 6259,
      "ĠoslobaÄĳa": 6260,
      "Ġinteligen": 6261,
      "rano": 6262,
      "ĠÈ": 6263,
      "Äįnije": 6264,
      "loÅ¡ko": 6265,
      "Ġkonven": 6266,
      "Ġpd": 6267,
      "leti": 6268,
      "2015": 6269,
      "sane": 6270,
      "Ġpapi": 6271,
      "Ġjos": 6272,
      "Ġel": 6273,
      "mota": 6274,
      "Ġgale": 6275,
      "Ġreferent": 6276,
      "Ġpojedinim": 6277,
      "novo": 6278,
      "ĠsaopÅ¡te": 6279,
      "Ġimale": 6280,
      "Ġdeci": 6281,
      "cus": 6282,
      "Ġxx": 6283,
      "ĠtroÅ¡kove": 6284,
      "ĠÏĦ": 6285,
      "Ġfos": 6286,
      "cro": 6287,
      "ĠtroÅ¡kovi": 6288,
      "ĠÉ¡": 6289,
      "Ġklub": 6290,
      "Ġbizni": 6291,
      "Äĳivanju": 6292,
      "moni": 6293,
      "Lj": 6294,
      "ĠdruÅ¡tvenim": 6295,
      "Ġvremenom": 6296,
      "engl": 6297,
      "Ġintelektual": 6298,
      "Ġpravno": 6299,
      "Ġmio": 6300,
      "Ġmari": 6301,
      "Ġstvaranja": 6302,
      "Ġstandardi": 6303,
      "Ġnjim": 6304,
      "Ġdug": 6305,
      "Ġagencije": 6306,
      "Ġsistemi": 6307,
      "mb": 6308,
      "Ġskri": 6309,
      "Ġindustrije": 6310,
      "Ġuput": 6311,
      "Ġsoftver": 6312,
      "Ġner": 6313,
      "Ġzgrada": 6314,
      "ĠnadleÅ¾nosti": 6315,
      "ĠneÄįi": 6316,
      "Ġstarosti": 6317,
      "tpu": 6318,
      "________________": 6319,
      "Ġpogi": 6320,
      "Ġazo": 6321,
      "Ġpotrebu": 6322,
      "ĠraÄįun": 6323,
      "ĠuveÄĩa": 6324,
      "Ġrura": 6325,
      "obu": 6326,
      "Ġsudija": 6327,
      "Ġhroni": 6328,
      "âĪĴ": 6329,
      "Ġpartije": 6330,
      "Ġnera": 6331,
      "govi": 6332,
      "Ġdobijene": 6333,
      "Ġimam": 6334,
      "Ġizvodi": 6335,
      "Ġkur": 6336,
      "zda": 6337,
      "Ġil": 6338,
      "fr": 6339,
      "ï¿½ï¿½": 6340,
      "Ġroda": 6341,
      "Ġmuzike": 6342,
      "cilj": 6343,
      "Ġ1941": 6344,
      "Ġvirusa": 6345,
      "os": 6346,
      "tuju": 6347,
      "Ġmestima": 6348,
      "ĠobezbeÄĳuje": 6349,
      "Ġdodi": 6350,
      "Ġpozicije": 6351,
      "Ġfebruara": 6352,
      "Ġempi": 6353,
      "Ġjapa": 6354,
      "Ġpraksa": 6355,
      "Ġkonf": 6356,
      "bje": 6357,
      "Ġavio": 6358,
      "han": 6359,
      "2009": 6360,
      "ĠÂ°": 6361,
      "Ġideal": 6362,
      "ĠkoÅ¾e": 6363,
      "âĢĿ.": 6364,
      "Ġnjegovoj": 6365,
      "Ġregistrova": 6366,
      "Ġomla": 6367,
      "ĠinÅ¾enje": 6368,
      "rts": 6369,
      "Ġizvori": 6370,
      "Ġoli": 6371,
      "Ġbolest": 6372,
      "Ġkreira": 6373,
      "Ġprivrede": 6374,
      "Ġsredstvo": 6375,
      "ljan": 6376,
      "Ġkosovu": 6377,
      "ĠuÄįini": 6378,
      "Ġhiljada": 6379,
      "Ġispitanici": 6380,
      "Ġkupu": 6381,
      "Ġpublika": 6382,
      "Ġprole": 6383,
      "ĠboÅ¾i": 6384,
      "rskoj": 6385,
      "Ġgimna": 6386,
      "ĠÅ¡ampi": 6387,
      "Ġkapi": 6388,
      "ÉļÊĥ": 6389,
      "ameri": 6390,
      "Ġpad": 6391,
      "Ġprvobi": 6392,
      "nuli": 6393,
      "Ġpogled": 6394,
      "ĠnaÄįinu": 6395,
      "ilo": 6396,
      "rili": 6397,
      "Ġoblastima": 6398,
      "Ġsvoja": 6399,
      "Ġanto": 6400,
      "Ġsituacijama": 6401,
      "Ġidu": 6402,
      "Ġprvu": 6403,
      "ĠW": 6404,
      "Äįinje": 6405,
      "Ġsvu": 6406,
      "Ġravni": 6407,
      "lop": 6408,
      "Äįice": 6409,
      "Ġprivla": 6410,
      "Ġwith": 6411,
      "Ġautomobi": 6412,
      "Ġposeban": 6413,
      "noÅ¡enje": 6414,
      "ÉļÉ¥": 6415,
      "Ġpercep": 6416,
      "slava": 6417,
      "ya": 6418,
      "Ġnew": 6419,
      "ĠoptereÄĩenja": 6420,
      "ktom": 6421,
      "ĠureÄĳaja": 6422,
      "cc": 6423,
      "Ġstvarno": 6424,
      "Â£": 6425,
      "Ġnavedeno": 6426,
      "ljuje": 6427,
      "):<|": 6428,
      "kinja": 6429,
      "Ġnedostatak": 6430,
      "teli": 6431,
      "nes": 6432,
      "ĠpojaÄįa": 6433,
      "ĠÎ±": 6434,
      "500": 6435,
      "Ġnapad": 6436,
      "Ġintra": 6437,
      "Ġzona": 6438,
      "ĠpraktiÄįno": 6439,
      "wo": 6440,
      "Ġreprodu": 6441,
      "evrop": 6442,
      "Ġodvoje": 6443,
      "Ġnepokre": 6444,
      "Ġposebne": 6445,
      "Ġmetafo": 6446,
      "Ġprivreme": 6447,
      "Ġterapije": 6448,
      "Ġafri": 6449,
      "cno": 6450,
      "Ġunapred": 6451,
      "rila": 6452,
      "spira": 6453,
      "Ġsvrhu": 6454,
      "á¼": 6455,
      "cin": 6456,
      "Ġmnogih": 6457,
      "Ġzaposleni": 6458,
      "Ġosobi": 6459,
      "analiza": 6460,
      "Ġdirektora": 6461,
      "Ġukupne": 6462,
      "ĠrazliÄįiti": 6463,
      "prvo": 6464,
      "Ġopisuje": 6465,
      "Ġkama": 6466,
      "Âł": 6467,
      "Ġula": 6468,
      "Ġagencija": 6469,
      "Ġelement": 6470,
      "juje": 6471,
      "ĠÄĳorÄĳe": 6472,
      "Ġisla": 6473,
      "tskim": 6474,
      "dim": 6475,
      "ĠÄĩ": 6476,
      "tivnoj": 6477,
      "Ġ42": 6478,
      "Ġkomisija": 6479,
      "Ġpedago": 6480,
      "Ġciklusa": 6481,
      "Ġnaju": 6482,
      "ĠsprovoÄĳenje": 6483,
      "vanog": 6484,
      "ĠroÄĳen": 6485,
      "nÄįa": 6486,
      "Ġsino": 6487,
      "Ġuslov": 6488,
      "neta": 6489,
      "Ġodbor": 6490,
      "Ġsekven": 6491,
      "Ġdvostru": 6492,
      "88": 6493,
      "Ġrusija": 6494,
      "pore": 6495,
      "veko": 6496,
      "rskih": 6497,
      "komu": 6498,
      "mail": 6499,
      "Ġdodaje": 6500,
      "Ġprekr": 6501,
      "Ġuto": 6502,
      "Ġulazi": 6503,
      "ĠpodruÄįje": 6504,
      "mona": 6505,
      "Ġujedno": 6506,
      "Ġnagrada": 6507,
      "nku": 6508,
      "Ġuzorak": 6509,
      "Ġintegri": 6510,
      "Ġpam": 6511,
      "âĢĻ<|": 6512,
      "Ġdat": 6513,
      "Ġmetaboli": 6514,
      "ĠduÅ¾nosti": 6515,
      "fra": 6516,
      "js": 6517,
      "Ġprikup": 6518,
      "ĠtuÅ¾ila": 6519,
      "Å¡tena": 6520,
      "ĠukljuÄįuju": 6521,
      "Ġfrak": 6522,
      "lovanje": 6523,
      "Ġduga": 6524,
      "Ġponude": 6525,
      "viÄĩe": 6526,
      "Ġprincipa": 6527,
      "Ġsjedinje": 6528,
      "tore": 6529,
      "Ġroditelji": 6530,
      "Ġekvivalen": 6531,
      "Ġobjavio": 6532,
      "Ġleto": 6533,
      "Ġwa": 6534,
      "Ġnago": 6535,
      "Å¾nim": 6536,
      "Ġfinansijske": 6537,
      "%<|": 6538,
      "Â²": 6539,
      "pela": 6540,
      "Ġcre": 6541,
      "Ġprikazane": 6542,
      "Ġnapomenu": 6543,
      "znost": 6544,
      "Ġefekata": 6545,
      "É¢É¬": 6546,
      "Ġpravne": 6547,
      "Ġcentri": 6548,
      "ĠÅ¡eÄĩe": 6549,
      "Ġproizvodnja": 6550,
      "Ġsloven": 6551,
      "Ġmotivi": 6552,
      "Ġosiguranje": 6553,
      "Ġbaza": 6554,
      "Ġaktivnostima": 6555,
      "Ġprilika": 6556,
      "Ġlicu": 6557,
      "Ġnjegovi": 6558,
      "prva": 6559,
      "Ġoca": 6560,
      "ĠniÅ¾e": 6561,
      "Ġoka": 6562,
      "ovde": 6563,
      "Ġtrudno": 6564,
      "Ġupotreblja": 6565,
      "Ġknjizi": 6566,
      "Ġantropo": 6567,
      "Ġefekti": 6568,
      "Ġcenu": 6569,
      "ĠreÅ¡avanje": 6570,
      "Ġ1989": 6571,
      "Ġsvrhe": 6572,
      "Ġslobodno": 6573,
      "Ġdosada": 6574,
      "Ġbespla": 6575,
      "Ġpotrebama": 6576,
      "Ġtrgovine": 6577,
      "Ġprijem": 6578,
      "Ġkosovo": 6579,
      "ĠïĤ·<|": 6580,
      "ĠmeÄĳunarodnog": 6581,
      "mica": 6582,
      "Ġtretman": 6583,
      "fizi": 6584,
      "Ġsrca": 6585,
      "Ġnavedene": 6586,
      "ght": 6587,
      "Ġ65": 6588,
      "Ġq": 6589,
      "Ġruku": 6590,
      "Ġponi": 6591,
      "Ġneve": 6592,
      "ĠÄįestica": 6593,
      "Ġvama": 6594,
      "upotre": 6595,
      "Ġpoznati": 6596,
      "Ġbelo": 6597,
      "Ġ49": 6598,
      "Ġ75": 6599,
      "Ġostalo": 6600,
      "ranju": 6601,
      "ktivnih": 6602,
      "Ġkriminali": 6603,
      "ĠodreÄĳenog": 6604,
      "oko": 6605,
      "ĠnajveÄĩa": 6606,
      "Ġteritorije": 6607,
      "tetima": 6608,
      "Ġpodsti": 6609,
      "Ġpolicija": 6610,
      "Ġcve": 6611,
      "Ġinsi": 6612,
      "Ġsredinu": 6613,
      "Ġpreosta": 6614,
      "kp": 6615,
      "Ġvidimo": 6616,
      "Ġprisustvu": 6617,
      "Ġostao": 6618,
      "ĠzavrÅ¡io": 6619,
      "Ġpala": 6620,
      "stiti": 6621,
      "Ġkompleksa": 6622,
      "Ġmediji": 6623,
      "ÊĤ": 6624,
      "Ġtipo": 6625,
      "nen": 6626,
      "Ġmen": 6627,
      "dre": 6628,
      "Ġute": 6629,
      "Ġstudijama": 6630,
      "Ġserije": 6631,
      "Ġfrancuske": 6632,
      "Ġhr": 6633,
      "Ġbiljke": 6634,
      "Ġpreuzima": 6635,
      "lik": 6636,
      "Ġbubre": 6637,
      "Ġvladimir": 6638,
      "Ġelemente": 6639,
      "neki": 6640,
      "Ġselo": 6641,
      "loka": 6642,
      "Ġaktiva": 6643,
      "Ġobavezu": 6644,
      "Ġsaveza": 6645,
      "Ġvina": 6646,
      "Ġevalua": 6647,
      "Ġrastvora": 6648,
      "Ġprimeru": 6649,
      "ÄįiÄĩa": 6650,
      "Ġgol": 6651,
      "razli": 6652,
      "Äĳenim": 6653,
      "ktivni": 6654,
      "ĠokruÅ¾enja": 6655,
      "Ġmlado": 6656,
      "Ġprijatelji": 6657,
      "É¢É¤": 6658,
      "ĠtreÄĩe": 6659,
      "grafikon": 6660,
      "grama": 6661,
      "Ġzave": 6662,
      "Ġsrednja": 6663,
      "Ġglas": 6664,
      "ĠuÄįestvuju": 6665,
      "Ġizre": 6666,
      "Ġubrza": 6667,
      "Ġasocija": 6668,
      "Ġstrada": 6669,
      "zim": 6670,
      "Ġsukoba": 6671,
      "ÉŃÉ": 6672,
      "napo": 6673,
      "Ġambasa": 6674,
      "Ġ150": 6675,
      "Ġsektoru": 6676,
      "nijeg": 6677,
      "Ġdnk": 6678,
      "miji": 6679,
      "ĠobeÄĩa": 6680,
      "Ġpretpostavlja": 6681,
      "Ġprincip": 6682,
      "Ġjan": 6683,
      "Ġdetekto": 6684,
      "stovima": 6685,
      "Ġdovolj": 6686,
      "Ġmom": 6687,
      "toksi": 6688,
      "fere": 6689,
      "Ġstope": 6690,
      "Ġpostepe": 6691,
      "nalne": 6692,
      "Ġjez": 6693,
      "Ġotpada": 6694,
      "ĠizveÅ¡taja": 6695,
      "Ġprimenjuju": 6696,
      "Ġraznovr": 6697,
      "âĢĿ,<|": 6698,
      "Ġustanovi": 6699,
      "kg": 6700,
      "dnoj": 6701,
      "Ġman": 6702,
      "Ġmol": 6703,
      "Ġpostane": 6704,
      "staviti": 6705,
      "gradi": 6706,
      "Ġproceni": 6707,
      "Ġvodu": 6708,
      "cina": 6709,
      "Ġjavnom": 6710,
      "Ġbren": 6711,
      "Ġdeblji": 6712,
      "ĠoseÄĩaj": 6713,
      "Ġpredstavnika": 6714,
      "ĠÅ¾al": 6715,
      "canja": 6716,
      "Ġtopo": 6717,
      "ĠÅ¾elje": 6718,
      "govore": 6719,
      "Ġfrag": 6720,
      "Ġnovinar": 6721,
      "Ġvisokog": 6722,
      "ciden": 6723,
      "Ġplasti": 6724,
      "ciono": 6725,
      "bne": 6726,
      "Ġzrna": 6727,
      "Ġuspeha": 6728,
      "Ġdiferencija": 6729,
      "Ġdrugima": 6730,
      "Ġdre": 6731,
      "Ġorgan": 6732,
      "Ġvali": 6733,
      "ĠunapreÄĳenje": 6734,
      "Ġrase": 6735,
      "sm": 6736,
      "rakteri": 6737,
      "ĠnemaÄįka": 6738,
      "Ġkp": 6739,
      "Ġanke": 6740,
      "Ġpesma": 6741,
      "Ġsvetske": 6742,
      "Ġdejstvo": 6743,
      "Ġidentifiko": 6744,
      "Ġkretanje": 6745,
      "Ġrukovodi": 6746,
      "ĠproÅ¡le": 6747,
      "mne": 6748,
      "ksima": 6749,
      "Ġevropskog": 6750,
      "Ġnudi": 6751,
      "Ġdar": 6752,
      "ĠpotroÅ¡aÄįa": 6753,
      "seu": 6754,
      "Ġkomentare": 6755,
      "ĠmeÄĳunarodnih": 6756,
      "Ġhrvatskoj": 6757,
      "ĠveÄĩini": 6758,
      "tenti": 6759,
      "ĠdoÅ¡li": 6760,
      "pisuju": 6761,
      "Ġepide": 6762,
      "ĠpodrÅ¡ka": 6763,
      "Ġpravom": 6764,
      "Ġoktobar": 6765,
      "Ġuzorku": 6766,
      "Ġdani": 6767,
      "Ġredovno": 6768,
      "voljan": 6769,
      "Ġportala": 6770,
      "Ġdimenzije": 6771,
      "nc": 6772,
      "Ġtemperaturi": 6773,
      "Ġnastaju": 6774,
      "mm": 6775,
      "Ġpande": 6776,
      "Ġpredra": 6777,
      "Ġoslanja": 6778,
      "zakon": 6779,
      "Ġlokalnih": 6780,
      "ĠmuÅ¡kar": 6781,
      "Ġvizanti": 6782,
      "ĠpriÅ¡ti": 6783,
      "Ġjavnost": 6784,
      "Ġweb": 6785,
      "Ġ44": 6786,
      "Ġveri": 6787,
      "Ġstoja": 6788,
      "Ġsmatrati": 6789,
      "ĠdrÅ¾avnih": 6790,
      "Ġsistemima": 6791,
      "Ġato": 6792,
      "Ġdovode": 6793,
      "Ġdecenija": 6794,
      "ĠveÄĩeg": 6795,
      "ĠunutraÅ¡njih": 6796,
      "Î·": 6797,
      "Ġvertika": 6798,
      "Ġpromenama": 6799,
      "Ġ55": 6800,
      "Ġformiranja": 6801,
      "Ġzasta": 6802,
      "Ġcelini": 6803,
      "ĠreÄįeno": 6804,
      "Ġkorelacije": 6805,
      "Ð¬": 6806,
      "ĠmuÅ¡karaca": 6807,
      "Ġodrasli": 6808,
      "gara": 6809,
      "Ġpotreban": 6810,
      "Ġlisti": 6811,
      "Ġtoksi": 6812,
      "int": 6813,
      "Ġnjihovi": 6814,
      "Ġodusta": 6815,
      "cionalni": 6816,
      "Ġfotografije": 6817,
      "godiÅ¡nji": 6818,
      "Ġzadataka": 6819,
      "ĠrazliÄįita": 6820,
      "Ġpeva": 6821,
      "Ġvrati": 6822,
      "ĠmiÅ¡ljenju": 6823,
      "Ġizrade": 6824,
      "Å¡kim": 6825,
      "upravo": 6826,
      "Ġnaveo": 6827,
      "Ġkul": 6828,
      "Ġ(âĢŀ<|": 6829,
      "ĠÄįinjenicu": 6830,
      "tana": 6831,
      "ken": 6832,
      "Ġaerod": 6833,
      "Ġsne": 6834,
      "Ġnacionalni": 6835,
      "lovanja": 6836,
      "Ġprogramu": 6837,
      "Ġtermo": 6838,
      "Ġrusiji": 6839,
      "Ġ43": 6840,
      "tent": 6841,
      "Ġglave": 6842,
      "ĠangaÅ¾": 6843,
      "Ġstvori": 6844,
      "Ġdoprinose": 6845,
      "tali": 6846,
      "Ġmito": 6847,
      "Ġlaza": 6848,
      "Ġopi": 6849,
      "budu": 6850,
      "Ġdestina": 6851,
      "Ġuticati": 6852,
      "ĠmenadÅ¾e": 6853,
      "Ġtumora": 6854,
      "Ġdobru": 6855,
      "Ġzida": 6856,
      "prostra": 6857,
      "Å¡tenje": 6858,
      "srbija": 6859,
      "Äīaj": 6860,
      "Ġfizio": 6861,
      "Ġposlovnih": 6862,
      "Ġpokazalo": 6863,
      "Ġglavnog": 6864,
      "ĠistiÄįu": 6865,
      "ĠpojedinaÄįnih": 6866,
      "Ġbogat": 6867,
      "Ġmos": 6868,
      "Ġado": 6869,
      "Ġteku": 6870,
      "ĠnaÄįine": 6871,
      "Ġspor": 6872,
      "ĠdrÅ¾i": 6873,
      "Ġaustra": 6874,
      "Ġaviona": 6875,
      "kvali": 6876,
      "ĠistraÅ£i": 6877,
      "tnici": 6878,
      "Ġalgorit": 6879,
      "Ġposlednji": 6880,
      "opera": 6881,
      "Ġvida": 6882,
      "Ġizgradnju": 6883,
      "Ġgeneracije": 6884,
      "Ġzatvora": 6885,
      "Å¡njo": 6886,
      "Ġdio": 6887,
      "Ġjona": 6888,
      "Ġzajednici": 6889,
      "turi": 6890,
      "Ġsavet": 6891,
      "2016": 6892,
      "Ġprezi": 6893,
      "ĠleÄįenje": 6894,
      "rami": 6895,
      "âĢĺ": 6896,
      "Ġpojedinca": 6897,
      "Å¡tenja": 6898,
      "Ġkoncepta": 6899,
      "part": 6900,
      "ding": 6901,
      "juÄĩih": 6902,
      "Ġpriklju": 6903,
      "Ġmedijima": 6904,
      "Ġmona": 6905,
      "Ġnagrade": 6906,
      "Ġnjenom": 6907,
      "Å¡aka": 6908,
      "ĠpoÅ¡tu": 6909,
      "vamo": 6910,
      "Ġenzima": 6911,
      "vaca": 6912,
      "ruÅ¾a": 6913,
      "jke": 6914,
      "ĠbuduÄĩnost": 6915,
      "Ġkoeficijent": 6916,
      "Ġsloboda": 6917,
      "ĠbivÅ¡e": 6918,
      "Ġdali": 6919,
      "ĠdruÅ¡tvenog": 6920,
      "Ġdele": 6921,
      "kana": 6922,
      "Ġintenziteta": 6923,
      "vajanja": 6924,
      "Ġhisto": 6925,
      "Ġlibera": 6926,
      "Ġstranu": 6927,
      "Ġudeo": 6928,
      "ĠmeÄĳunarodnim": 6929,
      "mac": 6930,
      "Ġprocedure": 6931,
      "Ġgen": 6932,
      "Ġglavnih": 6933,
      "Ġsastavu": 6934,
      "95": 6935,
      "Ġvisokim": 6936,
      "ĠnajveÄĩe": 6937,
      "Ġradovi": 6938,
      "tribu": 6939,
      "ĠdonoÅ¡enje": 6940,
      "Ġistu": 6941,
      "Ġdate": 6942,
      "Ġmrt": 6943,
      "Ġhibri": 6944,
      "Ïħ": 6945,
      "dini": 6946,
      "Ġobezbedi": 6947,
      "Å¾nom": 6948,
      "jnih": 6949,
      "Ġterenu": 6950,
      "Ġizdvoji": 6951,
      "ht": 6952,
      "jka": 6953,
      "njiho": 6954,
      "Ġpoznata": 6955,
      "Ġjugoslaviji": 6956,
      "pul": 6957,
      "Ġgubitak": 6958,
      "ĠobraÄĩa": 6959,
      "Ġobraza": 6960,
      "Ġwor": 6961,
      "Ġpitanjima": 6962,
      "Ġperformansi": 6963,
      "ĠuÄįestvuje": 6964,
      "Ġden": 6965,
      "Ġprocena": 6966,
      "Ġmart": 6967,
      "Ġnjenih": 6968,
      "Ġ41": 6969,
      "Ġonima": 6970,
      "mak": 6971,
      "Ġkraljev": 6972,
      "Ġnaknade": 6973,
      "ĠnoÄĩi": 6974,
      "Ġ64": 6975,
      "org": 6976,
      "Ġnaslov": 6977,
      "ĠzraÄįenja": 6978,
      "ktivnosti": 6979,
      "Ġprepre": 6980,
      "Ġobvez": 6981,
      "Ġzove": 6982,
      "stavljanje": 6983,
      "Ġizmena": 6984,
      "Ġmagi": 6985,
      "Ġpisme": 6986,
      "Ġsaznanja": 6987,
      "Ġdivi": 6988,
      "Ġonim": 6989,
      "Ġendo": 6990,
      "Ġdelovi": 6991,
      "demo": 6992,
      "Ġmehanizam": 6993,
      "njenih": 6994,
      "Ġspisa": 6995,
      "Ġpostaju": 6996,
      "Ġprikazi": 6997,
      "ljom": 6998,
      "biÄĩ": 6999,
      "Ġlep": 7000,
      "stero": 7001,
      "ĠodrÅ¾avanja": 7002,
      "ĠpotvrÄĳuje": 7003,
      "dovolj": 7004,
      "2022": 7005,
      "prose": 7006,
      "ia": 7007,
      "bin": 7008,
      "Ġenergija": 7009,
      "love": 7010,
      "Ġ(''<|": 7011,
      "lori": 7012,
      "âĢ¡": 7013,
      "Ġsocijalisti": 7014,
      "Ġzakonodav": 7015,
      "Ġlige": 7016,
      "Ġnasilje": 7017,
      "ĠsaobraÄĩaja": 7018,
      "Îº": 7019,
      "Ġpartne": 7020,
      "Ġsporazum": 7021,
      "gina": 7022,
      "Ġuspeo": 7023,
      "Ġtrgovi": 7024,
      "ĠÅ¾rtve": 7025,
      "Ġobno": 7026,
      "hidro": 7027,
      "komenta": 7028,
      "vljene": 7029,
      "Ġopora": 7030,
      "ĠznaÄįajnu": 7031,
      "Ġnacija": 7032,
      "Ġvarijabli": 7033,
      "inter": 7034,
      "Ġalu": 7035,
      "Ġ400": 7036,
      "Ġgl": 7037,
      "ena": 7038,
      "tici": 7039,
      "Ġprikazuje": 7040,
      "Ġleta": 7041,
      "Ġhetero": 7042,
      "Ġliterature": 7043,
      "ÉļÊģ": 7044,
      "postoje": 7045,
      "Ġsamouprave": 7046,
      "ĠÉª": 7047,
      "sanih": 7048,
      "pula": 7049,
      "ĠpriliÄįno": 7050,
      "ol": 7051,
      "Ġmoja": 7052,
      "Ġvege": 7053,
      "jama": 7054,
      "Ġupotrebom": 7055,
      "Ġobliko": 7056,
      "Ġset": 7057,
      "ĠvaÅ¾e": 7058,
      "ĠniÅ¡u": 7059,
      "Ġizgled": 7060,
      "Ġml": 7061,
      "Ġnose": 7062,
      "vilo": 7063,
      "Ġonog": 7064,
      "kretni": 7065,
      "ĠÉ¦": 7066,
      "Ġetno": 7067,
      "ĠdrÅ¾avni": 7068,
      "Ġglavne": 7069,
      "Ġpredstavnici": 7070,
      "ĠnemaÄįkoj": 7071,
      "Ġkulturu": 7072,
      "Ġsinteti": 7073,
      "diÄĩ": 7074,
      "Ġkupovi": 7075,
      "move": 7076,
      "Ġgasa": 7077,
      "Ġprocedura": 7078,
      "koni": 7079,
      "Ġmalim": 7080,
      "Ġkralj": 7081,
      "Ġdatum": 7082,
      "Ġtelefon": 7083,
      "Ġresto": 7084,
      "Ġsvakoj": 7085,
      "Î¼": 7086,
      "Äįun": 7087,
      "Ġevolu": 7088,
      "Ġtakvih": 7089,
      "Ġpojavljuje": 7090,
      "Ġosnove": 7091,
      "Ġsuprot": 7092,
      "Ġprekida": 7093,
      "Ġkomunisti": 7094,
      "ĠtraÅ¾e": 7095,
      "âĢ¢<|": 7096,
      "Ġdodao": 7097,
      "Ġnajpo": 7098,
      "Ġprim": 7099,
      "can": 7100,
      "Ġsavr": 7101,
      "sila": 7102,
      "stavljena": 7103,
      "ĠviÅ¡estru": 7104,
      "Ġbudi": 7105,
      "zmom": 7106,
      "Ġostvare": 7107,
      "ĠâĪĴ": 7108,
      "Ġkulturi": 7109,
      "Ġposebnim": 7110,
      "Ġprocesi": 7111,
      "kl": 7112,
      "Ġpacijenta": 7113,
      "Ġkongre": 7114,
      "Ġgvo": 7115,
      "Ġnastala": 7116,
      "stara": 7117,
      "Ġusvoji": 7118,
      "ĠnauÄįno": 7119,
      "pl": 7120,
      "2008": 7121,
      "Ġ120": 7122,
      "logy": 7123,
      "Ġuva": 7124,
      "ĠpolitiÄįkog": 7125,
      "Ġoblici": 7126,
      "Ġzauze": 7127,
      "Ġuha": 7128,
      "Ġpovolj": 7129,
      "Ġuvod": 7130,
      "Ġolimpi": 7131,
      "ĠunutraÅ¡nje": 7132,
      "Ġevropskih": 7133,
      "Ġprouzro": 7134,
      "Ġprethodne": 7135,
      "Ġsignal": 7136,
      "Ã¯": 7137,
      "Ġobjekti": 7138,
      "postoji": 7139,
      "epi": 7140,
      "Ġvije": 7141,
      "Ġpozitivno": 7142,
      "Ġdelatnost": 7143,
      "Ġslobodu": 7144,
      "skup": 7145,
      "ntan": 7146,
      "priÄįa": 7147,
      "Ġobavezno": 7148,
      "Ġprincipi": 7149,
      "Ġproizvodnji": 7150,
      "cionalne": 7151,
      "ĠliÄįno": 7152,
      "Ġopsta": 7153,
      "Ġkasni": 7154,
      "Ġinva": 7155,
      "Ġcrnogo": 7156,
      "Ġprodavni": 7157,
      "Ġpostro": 7158,
      "Ġprolazi": 7159,
      "Ġplate": 7160,
      "Ġpojavu": 7161,
      "Ġusavr": 7162,
      "Ġarhe": 7163,
      "Ġekonomije": 7164,
      "Ġmer": 7165,
      "Ġbanja": 7166,
      "ĠleÄįenja": 7167,
      "Ġsvetskom": 7168,
      "Å¡Äĩenje": 7169,
      "Ġvole": 7170,
      "Ġpare": 7171,
      "Ġkoro": 7172,
      "Ġuzrok": 7173,
      "Ġzoni": 7174,
      "Ġstatusa": 7175,
      "Ġizgradnje": 7176,
      "cira": 7177,
      "Ġsudova": 7178,
      "ĠstanovniÅ¡tvo": 7179,
      "mine": 7180,
      "sus": 7181,
      "elektri": 7182,
      "Ġskupa": 7183,
      "que": 7184,
      "ĠsluÅ¾bi": 7185,
      "Ġotvori": 7186,
      "cm": 7187,
      "Å¡Äĩi": 7188,
      "Ġterori": 7189,
      "ĠpopoviÄĩ": 7190,
      "Ġpodatak": 7191,
      "Ġemisije": 7192,
      "Äįem": 7193,
      "Ġrezul": 7194,
      "Ġzvezde": 7195,
      "dora": 7196,
      "Ġuzeti": 7197,
      "ĠproizvoÄĳaÄįa": 7198,
      "Ġjavnim": 7199,
      "tala": 7200,
      "Ġkonstrukcije": 7201,
      "Ġodobre": 7202,
      "Ġprogre": 7203,
      "Ġtrajanju": 7204,
      "vrednosti": 7205,
      "tanje": 7206,
      "cionom": 7207,
      "Ġprisutna": 7208,
      "Ġ1988": 7209,
      "Ġdevet": 7210,
      "Ġjun": 7211,
      "Ġprinu": 7212,
      "Ġkomponenti": 7213,
      "ktivnog": 7214,
      "Ġdomini": 7215,
      "Ġsvetski": 7216,
      "Ġekonomskog": 7217,
      "jezi": 7218,
      "Ġpli": 7219,
      "¬ģ": 7220,
      "Ġkulturnog": 7221,
      "Ġroma": 7222,
      "Ġkulturne": 7223,
      "ĠÅ¡ved": 7224,
      "Ġostr": 7225,
      "nulo": 7226,
      "Ġruski": 7227,
      "stiÄįki": 7228,
      "ÉļÉŀ": 7229,
      "ĠduÅ¾ina": 7230,
      "Ġpripoveda": 7231,
      "Ġuvid": 7232,
      "Ġrazne": 7233,
      "Å¡teni": 7234,
      "Ġblizu": 7235,
      "Ġmotor": 7236,
      "tis": 7237,
      "Ġprvenstvo": 7238,
      "Ġvalu": 7239,
      "Ġmesa": 7240,
      "Ġpostav": 7241,
      "Ġvremenski": 7242,
      "tove": 7243,
      "Ġpovezana": 7244,
      "Ġkonstitu": 7245,
      "Ġinsu": 7246,
      "Ġizraza": 7247,
      "grisa": 7248,
      "Ġsamostalno": 7249,
      "Ġkontinui": 7250,
      "Ġobim": 7251,
      "bova": 7252,
      "Ġvojska": 7253,
      "Ġporast": 7254,
      "kcijom": 7255,
      "Ġukrajine": 7256,
      "Ġsektor": 7257,
      "Ġnez": 7258,
      "'<|": 7259,
      "Ġsmedere": 7260,
      "Ġinfekcije": 7261,
      "berg": 7262,
      "Ġmoda": 7263,
      ".âĢĵ<|": 7264,
      "É¢Éľ": 7265,
      "Ġultra": 7266,
      "zovane": 7267,
      "ĠÄĳo": 7268,
      "ĠpetroviÄĩ": 7269,
      "Ġraznih": 7270,
      "time": 7271,
      "Ġizborima": 7272,
      "svaki": 7273,
      "zovana": 7274,
      "Ġpriprem": 7275,
      "Ġosnovnog": 7276,
      "izo": 7277,
      "Ġrastva": 7278,
      "ring": 7279,
      "Ġprimenji": 7280,
      "sijom": 7281,
      "bac": 7282,
      "Ġmoramo": 7283,
      "ĠkriviÄįnih": 7284,
      "Ġbosne": 7285,
      "ĠloÅ¡i": 7286,
      "ĠdonoÅ¡enja": 7287,
      "Ġizradu": 7288,
      ".),": 7289,
      "Ġodse": 7290,
      "cipa": 7291,
      "Ġmira": 7292,
      "Ġprefi": 7293,
      "Ġpasi": 7294,
      "85": 7295,
      "njama": 7296,
      "moviÄĩ": 7297,
      "Ġmajke": 7298,
      "lera": 7299,
      "Ġgora": 7300,
      "Ġukrajini": 7301,
      "ĠutvrÄĳivanje": 7302,
      "dy": 7303,
      "Ġsajt": 7304,
      "Ġokon": 7305,
      "Å¾bu": 7306,
      "ĠpreviÅ¡e": 7307,
      "sc": 7308,
      "Ġlekse": 7309,
      "moÅ¾da": 7310,
      "nut": 7311,
      "Ġteoriji": 7312,
      "Ġ-,": 7313,
      "ĠodreÄĳenom": 7314,
      "phi": 7315,
      "Ġefekte": 7316,
      "qa": 7317,
      "Ġkrimina": 7318,
      "vajca": 7319,
      "Ġvarijable": 7320,
      "Ġnacionali": 7321,
      "Ġnosa": 7322,
      "Ġlinea": 7323,
      "sov": 7324,
      "Ġdijagno": 7325,
      "ĠpodseÄĩa": 7326,
      "tari": 7327,
      "Ġdom": 7328,
      "Ġborbu": 7329,
      "toviÄĩ": 7330,
      "Ġautobu": 7331,
      "Ġpotrebne": 7332,
      "Ġkanala": 7333,
      "Ġ46": 7334,
      "Ġprenos": 7335,
      "Ġlop": 7336,
      "Ġnare": 7337,
      "Ġpravima": 7338,
      "tete": 7339,
      "ĠporemeÄĩaja": 7340,
      "Ġpoziva": 7341,
      "Ġstabilnost": 7342,
      "znom": 7343,
      "Ġmarko": 7344,
      "trans": 7345,
      "Ġvoka": 7346,
      "Ġeksploa": 7347,
      "Ġprethodnih": 7348,
      "Ġpoziciju": 7349,
      "Ġsindi": 7350,
      "Ġsutra": 7351,
      "Ġkiseo": 7352,
      "Ġhero": 7353,
      "Ġtrend": 7354,
      "Ġglavna": 7355,
      "Ġslobodan": 7356,
      "Ġlogo": 7357,
      "Ġliko": 7358,
      "ĠbiÄĩa": 7359,
      "Ġrezolu": 7360,
      "Ġzao": 7361,
      "Ġtole": 7362,
      "Ġsci": 7363,
      "rava": 7364,
      "Ġkova": 7365,
      "Ġregistra": 7366,
      "ĠuoÄįava": 7367,
      "Ġprodaju": 7368,
      "ĠÊģÉŁ": 7369,
      "Ã±Ã²": 7370,
      "Ġocene": 7371,
      "Ġtelefona": 7372,
      "jt": 7373,
      "ĠtuÅ¾i": 7374,
      "noÅ¡Äĩu": 7375,
      "Ġnajsta": 7376,
      "Ġpozicija": 7377,
      "Ġokvira": 7378,
      "Ġstvore": 7379,
      "Ġhemo": 7380,
      "Ġporuke": 7381,
      "ÉĽ": 7382,
      "pola": 7383,
      "Ġosetlji": 7384,
      "strva": 7385,
      "Ġmateri": 7386,
      "Ġindeksa": 7387,
      "zapa": 7388,
      "Ġkonsu": 7389,
      "Ġulici": 7390,
      "malo": 7391,
      "Ġinteresu": 7392,
      "ĠpokuÅ¡ava": 7393,
      "Ġmarija": 7394,
      "lia": 7395,
      "net": 7396,
      "ĠuÄīe": 7397,
      "sion": 7398,
      "zovan": 7399,
      "Ġsra": 7400,
      "jaÄįa": 7401,
      "Ġhorizonta": 7402,
      "Ġosman": 7403,
      "Ġkontakt": 7404,
      "Ġnedelja": 7405,
      "Ġ>": 7406,
      "Ġodrediti": 7407,
      "Ġdejstva": 7408,
      "ĠÄįlanu": 7409,
      "ntima": 7410,
      "ĠameriÄįki": 7411,
      "Ġpravnih": 7412,
      "Ġzatvara": 7413,
      "Ġmilijardi": 7414,
      "ec": 7415,
      "lizma": 7416,
      "juÄĩe": 7417,
      "Ġocena": 7418,
      "Ġokolnostima": 7419,
      "ĠzajedniÄįki": 7420,
      "ov": 7421,
      "Ġ95": 7422,
      "ÉŁÉ¬": 7423,
      "tini": 7424,
      "rnik": 7425,
      "Ġorijenti": 7426,
      "2017": 7427,
      "Ġnac": 7428,
      "Äĩenog": 7429,
      "Ġkredita": 7430,
      "jeg": 7431,
      "ini": 7432,
      "uticaj": 7433,
      "Ġdokazi": 7434,
      "Ġizlaz": 7435,
      "Ġznamo": 7436,
      "Ġugo": 7437,
      "rn": 7438,
      "Ġprepara": 7439,
      "ĠtuÅ¾io": 7440,
      "Ġutisak": 7441,
      "ÉŁÉ¦": 7442,
      "seudo": 7443,
      "Ġlekova": 7444,
      "Ġvalja": 7445,
      "ĠvaÅ¾na": 7446,
      "Ġulaganja": 7447,
      "Ġokupa": 7448,
      "Ġobrazovanju": 7449,
      "mus": 7450,
      "Ġizbegli": 7451,
      "Ġreflek": 7452,
      "ĠpoveÄĩanjem": 7453,
      "Ġkomuni": 7454,
      "ĠomoguÄĩavaju": 7455,
      "stove": 7456,
      "Ġsaglasnost": 7457,
      "aru": 7458,
      "ïĤ·": 7459,
      "ĠnoÄĩ": 7460,
      "Ġprimi": 7461,
      "Ġljudska": 7462,
      "ĠÄįvo": 7463,
      "Ġprocesima": 7464,
      "ĠduÅ¡a": 7465,
      "Ġïģ": 7466,
      "ĠpotiÄįe": 7467,
      "Å¡njoj": 7468,
      "Ġvar": 7469,
      "2007": 7470,
      "ĠkarakteriÅ¡e": 7471,
      "ĠpoÅ¡a": 7472,
      "Ġbrat": 7473,
      "Ġistaknu": 7474,
      "Ġstresa": 7475,
      "lira": 7476,
      "Ġkorek": 7477,
      "dara": 7478,
      "ph": 7479,
      "gana": 7480,
      "telje": 7481,
      "Ġfinal": 7482,
      "87": 7483,
      "Ġubrzo": 7484,
      "stih": 7485,
      "ĠÄĩelijama": 7486,
      "ĠleÅ¾i": 7487,
      "prote": 7488,
      "Ġpominje": 7489,
      "ĠelektriÄįne": 7490,
      "shodno": 7491,
      "Ġkorelacija": 7492,
      "Ġperspektive": 7493,
      ".-": 7494,
      "Ġ.-<|": 7495,
      "Ġpoena": 7496,
      "Ġnemo": 7497,
      "ĠpostojeÄĩih": 7498,
      "Ġodeljenja": 7499,
      "Ġ1980": 7500,
      "Ġcrnoj": 7501,
      "Ġprevodi": 7502,
      "sled": 7503,
      "Ġobavesti": 7504,
      "Ġstvarnosti": 7505,
      "mislim": 7506,
      "Ġgeneral": 7507,
      "ĠðĿĳ": 7508,
      "Ġrastvor": 7509,
      "Äĩete": 7510,
      "Ġzaro": 7511,
      "Ġpolovine": 7512,
      "jnog": 7513,
      "torima": 7514,
      "Ġuvede": 7515,
      "Ġsudu": 7516,
      "ĠdrÅ¾avu": 7517,
      "ĠkoriÅ¡Äĩena": 7518,
      "ĠokruÅ¾enje": 7519,
      "Ġcentralne": 7520,
      "Ġdose": 7521,
      "Ġvoli": 7522,
      "ĠpomaÅ¾e": 7523,
      "Ġpozitivne": 7524,
      "pd": 7525,
      "prilikom": 7526,
      "Ġhaj": 7527,
      "Ġroditelj": 7528,
      "Ġivan": 7529,
      "govoru": 7530,
      "ele": 7531,
      "Ġstranka": 7532,
      "Ġrealizacije": 7533,
      "Ġmanastira": 7534,
      "duje": 7535,
      "Ġprisutan": 7536,
      "Ġdekla": 7537,
      "Ġpravde": 7538,
      "sanju": 7539,
      "Ġpomogne": 7540,
      "una": 7541,
      "Ġiskre": 7542,
      "terije": 7543,
      "Î²": 7544,
      "Ġpartnera": 7545,
      "Ġhijera": 7546,
      "Ġizdvoje": 7547,
      "Ġapril": 7548,
      "Ġkorpora": 7549,
      "har": 7550,
      "ĠbudÅ¾eta": 7551,
      "Ġ72": 7552,
      "ĠoÄįigledno": 7553,
      "tal": 7554,
      "Ġnastanak": 7555,
      "posebno": 7556,
      "Ġdomenu": 7557,
      "Ġpozitivan": 7558,
      "Ġdelovanje": 7559,
      "Ġuzbu": 7560,
      "Ġprisustva": 7561,
      "tehni": 7562,
      "Ġneuspe": 7563,
      "Ġindustrija": 7564,
      "Ġkakve": 7565,
      "Ġpake": 7566,
      "Ġsaglasnosti": 7567,
      "Ġlingvisti": 7568,
      "2018": 7569,
      "Ġpravosu": 7570,
      "fal": 7571,
      "Ġnm": 7572,
      "Ġizaziva": 7573,
      "bna": 7574,
      "site": 7575,
      "001": 7576,
      "Ġknjigu": 7577,
      "Ġradno": 7578,
      "Ġlekara": 7579,
      "ĠÅ¡tet": 7580,
      "ĠimajuÄĩi": 7581,
      "sluÅ¾beni": 7582,
      "zde": 7583,
      "Å¾ivo": 7584,
      "loÅ¡ku": 7585,
      "tuma": 7586,
      "Ġpotencijala": 7587,
      "96": 7588,
      "matskih": 7589,
      "jm": 7590,
      "Ġtakoz": 7591,
      "zina": 7592,
      "veÄĩ": 7593,
      "Ġistoj": 7594,
      "ktivna": 7595,
      "Ġ47": 7596,
      "Ġdaljem": 7597,
      "Ġnegativne": 7598,
      "Ġmore": 7599,
      "Ġvolje": 7600,
      "Ġ1986": 7601,
      "Ġdevi": 7602,
      "Ġderiva": 7603,
      "Ġsemena": 7604,
      "Ġbrojnih": 7605,
      "Ġfol": 7606,
      "nÑĭ": 7607,
      "prime": 7608,
      "ĠjuÄįe": 7609,
      "Ġnjenu": 7610,
      "stavljen": 7611,
      "ĠreÅ¾ima": 7612,
      "Ġpropisima": 7613,
      "vent": 7614,
      "Ġdijabe": 7615,
      "Ġinostranstvu": 7616,
      "Ġjedni": 7617,
      "Ġnastavku": 7618,
      "ÃŃÃ®": 7619,
      "knji": 7620,
      "ÏĢ": 7621,
      "dovanje": 7622,
      "jev": 7623,
      "zerva": 7624,
      "kontro": 7625,
      "proble": 7626,
      "novod": 7627,
      "vljenje": 7628,
      "Ġnena": 7629,
      "tter": 7630,
      "Ġpojedine": 7631,
      "blu": 7632,
      "ĠmeÄĳunarodni": 7633,
      "Ġprimeri": 7634,
      "kru": 7635,
      "Ġostane": 7636,
      "Ġovakav": 7637,
      "86": 7638,
      "dobije": 7639,
      "Ġizmene": 7640,
      "ny": 7641,
      "Ġnajo": 7642,
      "Ġindirek": 7643,
      "ĠanÄĳe": 7644,
      "Ġekonomskih": 7645,
      "Ġopasnosti": 7646,
      "Ġmorao": 7647,
      "Ġopasnost": 7648,
      "É¨É§": 7649,
      "Ġama": 7650,
      "Ð¯": 7651,
      "ĠtreÄĩeg": 7652,
      "niko": 7653,
      "Ġizlazi": 7654,
      "ktivnost": 7655,
      "Ġnespo": 7656,
      "Ġbur": 7657,
      "Ġplaniranja": 7658,
      "Ġpija": 7659,
      "Ġcara": 7660,
      "Ġpacijent": 7661,
      "Ġlistu": 7662,
      "Ġ*<|": 7663,
      "Ġjef": 7664,
      "ew": 7665,
      "gel": 7666,
      "Ġnastao": 7667,
      "doviÄĩ": 7668,
      "Ġinvesticija": 7669,
      "naslov": 7670,
      "ĠsliÄįne": 7671,
      "Ġnat": 7672,
      "Ġsele": 7673,
      "Ġiznosila": 7674,
      "Ġjul": 7675,
      "Ġmaterije": 7676,
      "sona": 7677,
      "veden": 7678,
      "Ġukupan": 7679,
      "autor": 7680,
      "Ġstudenti": 7681,
      "Ġhijerar": 7682,
      "Ġnesto": 7683,
      "Ġnedavno": 7684,
      "83": 7685,
      "Ġpodzem": 7686,
      "ĠstanoviÅ¡ta": 7687,
      "Å¾enog": 7688,
      "vremenu": 7689,
      "Ġprocese": 7690,
      "Ġmembra": 7691,
      "Ġsrod": 7692,
      "Ġbici": 7693,
      "Ġlega": 7694,
      "Ġprosla": 7695,
      "Ġprotein": 7696,
      "vari": 7697,
      "Ġvek": 7698,
      "Ġ1987": 7699,
      "Ġvodom": 7700,
      "ĠizvoÄĳenje": 7701,
      "Ġkapacitet": 7702,
      "tovanje": 7703,
      "Ġkandidata": 7704,
      "ĠizvrÅ¡ena": 7705,
      "Ġfrom": 7706,
      "Ġbosni": 7707,
      "Ġnjihovoj": 7708,
      "Ġcelog": 7709,
      "Ġ.\"<|": 7710,
      "Ġdominant": 7711,
      "laganju": 7712,
      "Ġseptembar": 7713,
      "ziti": 7714,
      "Ġbanaka": 7715,
      "Ġevo": 7716,
      "ĠpoboljÅ¡anje": 7717,
      "Ġamerika": 7718,
      "Ġotk": 7719,
      "Ġuzrasta": 7720,
      "Ġnumeri": 7721,
      "Ġmogle": 7722,
      "uni": 7723,
      "Ġosve": 7724,
      "Ġpremijer": 7725,
      "Ġstar": 7726,
      "É¨É¥": 7727,
      "htt": 7728,
      "Ġuzme": 7729,
      "Ġran": 7730,
      "dnice": 7731,
      "ĠigraÄįa": 7732,
      "Ġkluba": 7733,
      "Å¡koj": 7734,
      "Ġplaniranje": 7735,
      "Ġ,,": 7736,
      "Ġspadaju": 7737,
      "93": 7738,
      "ĠameriÄįke": 7739,
      "Ġvasi": 7740,
      "ljana": 7741,
      "Ġautonom": 7742,
      "Ġsind": 7743,
      "Ġinstrumenta": 7744,
      "mbo": 7745,
      "ĠÂ±": 7746,
      "pret": 7747,
      "**<|": 7748,
      "Â±": 7749,
      "Ġreko": 7750,
      "rijske": 7751,
      "ispiti": 7752,
      "Ġhuma": 7753,
      "Ġprofila": 7754,
      "Ġano": 7755,
      "ĠÅ£i": 7756,
      "Ġprirodno": 7757,
      "Ġgeneralno": 7758,
      "Ġese": 7759,
      "Ġdemon": 7760,
      "zvu": 7761,
      "Ġumetnost": 7762,
      "Ġavan": 7763,
      "Ġnezavisno": 7764,
      "igra": 7765,
      "lajn": 7766,
      "Ġosvojio": 7767,
      "Ġveruje": 7768,
      "peri": 7769,
      "Ġfru": 7770,
      "Ġsvest": 7771,
      "Ġreago": 7772,
      "Ġispolja": 7773,
      "znim": 7774,
      "ĠsliÄįan": 7775,
      "Ġoboljenja": 7776,
      "Ġautomobila": 7777,
      "Ġslovena": 7778,
      "Ġcrte": 7779,
      "ĠtumaÄįenje": 7780,
      "ĠÑ": 7781,
      "É¨É«É¬": 7782,
      "tice": 7783,
      "urnal": 7784,
      "riÅ¡u": 7785,
      "Ġpartija": 7786,
      "Ġsrednjih": 7787,
      "Ġdrza": 7788,
      "dovanja": 7789,
      "Ġsastava": 7790,
      "Ġkvantita": 7791,
      "Ġkrup": 7792,
      "Ġistorijski": 7793,
      "Ġvidim": 7794,
      "Ġprojektu": 7795,
      "ĠdrÅ¾avnog": 7796,
      "Ġintegrisa": 7797,
      "Ġotkriva": 7798,
      "Ġmarketin": 7799,
      "Ġcele": 7800,
      "Ġoperacija": 7801,
      "Ġlikvi": 7802,
      "ĠkoriÅ¡Äĩeni": 7803,
      "Ġpravilima": 7804,
      "Ġpretvara": 7805,
      "ĠteÅ¾e": 7806,
      "dnja": 7807,
      "Ġrecimo": 7808,
      "2020": 7809,
      "Ġsmisao": 7810,
      "Ġkompara": 7811,
      "ĠÉľ": 7812,
      "tsko": 7813,
      "Ġpodsta": 7814,
      "Ġevropska": 7815,
      "tele": 7816,
      "ĠovlaÅ¡Äĩenja": 7817,
      "prosto": 7818,
      "2005": 7819,
      "Ġiko": 7820,
      "Ġup": 7821,
      "Ġdelove": 7822,
      "2006": 7823,
      "ĠkaÅ¾em": 7824,
      "Ġsrednjeg": 7825,
      "Ġstavova": 7826,
      "Ġfirme": 7827,
      "ÉļÉ¡": 7828,
      "Ġsaradnja": 7829,
      "Ġmarti": 7830,
      "Ġjovana": 7831,
      "ĠodrÅ¾ava": 7832,
      "laÅ¾u": 7833,
      "ĠdruÅ¡tveni": 7834,
      "Ġtermina": 7835,
      "ĠdÅ¾a": 7836,
      "Ġpostojala": 7837,
      "Ġljudskog": 7838,
      "Ġotpad": 7839,
      "stojanje": 7840,
      "ĠfiziÄįke": 7841,
      "Ġjanuar": 7842,
      "Ġapstra": 7843,
      "Ġjugoisto": 7844,
      "nomi": 7845,
      "Ġlin": 7846,
      "stera": 7847,
      "Ġpovezani": 7848,
      "matske": 7849,
      "Ġverzija": 7850,
      "toni": 7851,
      "rela": 7852,
      "Ġsem": 7853,
      "ĠpriÄįu": 7854,
      "rine": 7855,
      "Ġá¼": 7856,
      "Ġkontrolisa": 7857,
      "Ġgli": 7858,
      "ziva": 7859,
      "Ġtekstova": 7860,
      "Ġzavod": 7861,
      "Å¡ak": 7862,
      "Ġkulturno": 7863,
      "Ġinterakcija": 7864,
      "Ġciljevi": 7865,
      "Ġsavremene": 7866,
      "ziv": 7867,
      "ĠÅ¡vajca": 7868,
      "ĠduÅ¡e": 7869,
      "Ġsopstvene": 7870,
      "Äįenog": 7871,
      "ĠplaÄĩanja": 7872,
      "Ġstrategi": 7873,
      "ĠpolitiÄįka": 7874,
      "Ġpravilu": 7875,
      "Â¼": 7876,
      "Ġugra": 7877,
      "ĠÅ¾elezni": 7878,
      "ĠveÅ¾ba": 7879,
      "Ġkakva": 7880,
      "Ġpole": 7881,
      "ĠdogaÄĳaj": 7882,
      "Ġcrkvi": 7883,
      "Ġthi": 7884,
      "Ġmarketing": 7885,
      "ĠsaÄįi": 7886,
      "ĠliÄįne": 7887,
      "ĠpreduzeÄĩe": 7888,
      "jali": 7889,
      "stojan": 7890,
      "Ġpredstava": 7891,
      "ela": 7892,
      "Ġrasprostra": 7893,
      "ÅĦ": 7894,
      "Ġfami": 7895,
      "ĠodreÄĳeno": 7896,
      "Ġodabi": 7897,
      "ĠznaÄīaj": 7898,
      "hoplo": 7899,
      "Ġnaselje": 7900,
      "Ġtakvim": 7901,
      "Ġdecenije": 7902,
      "Ġlekar": 7903,
      "Ġindeks": 7904,
      "Ġparo": 7905,
      "Ġrezervi": 7906,
      "Ġarhitekto": 7907,
      "Ġimuno": 7908,
      "ranjem": 7909,
      "Ġdoka": 7910,
      "Ġklasa": 7911,
      "dnicima": 7912,
      "Ġnegde": 7913,
      "Ġnajni": 7914,
      "Ġposetio": 7915,
      "lili": 7916,
      "Ġnezaposle": 7917,
      "Ġkomunikacija": 7918,
      "proce": 7919,
      "ĠknjiÅ¾evnost": 7920,
      "Ġovakve": 7921,
      "ĠÅ¡tetu": 7922,
      "vanu": 7923,
      "movima": 7924,
      "lor": 7925,
      "Ġkarcinoma": 7926,
      "84": 7927,
      "Ġzuba": 7928,
      "Ġnarodnog": 7929,
      "ĠvaÅ¾nosti": 7930,
      "Ġvakcina": 7931,
      "Ġinteres": 7932,
      "Ġprogrami": 7933,
      "ĠzemljiÅ¡te": 7934,
      "Ġdokumenata": 7935,
      "jica": 7936,
      "ĠpaÅ¾nje": 7937,
      "Ġsch": 7938,
      "mskih": 7939,
      "Ġfleksi": 7940,
      "Ġciljeve": 7941,
      "Ġkorisnici": 7942,
      "Ġvideli": 7943,
      "Ġgoriva": 7944,
      "Ġfebruar": 7945,
      "Ġukr": 7946,
      "Ġosnov": 7947,
      "ĠuvoÄĳenje": 7948,
      "Ġjedina": 7949,
      "Ġpredstave": 7950,
      "Ġvezane": 7951,
      "Ġsocijalno": 7952,
      "Ġimplici": 7953,
      "ministar": 7954,
      "don": 7955,
      "Ġdnevno": 7956,
      "jk": 7957,
      "rde": 7958,
      "82": 7959,
      "ĠmiloÅ¡": 7960,
      "Ġonline": 7961,
      "ĠÎ²": 7962,
      "reda": 7963,
      "ĠnaÄįela": 7964,
      "krea": 7965,
      "Ġpisac": 7966,
      "Ġstarije": 7967,
      "ĠfiziÄįko": 7968,
      "tanja": 7969,
      "Ġsavlada": 7970,
      "Ġpripreme": 7971,
      "kasnije": 7972,
      "Ġ51": 7973,
      "ĠpovrÅ¡inu": 7974,
      "Ġpodse": 7975,
      "plika": 7976,
      "ĠkuÄĩu": 7977,
      "ĠduÅ¾an": 7978,
      "izvor": 7979,
      "Ġtoka": 7980,
      "ĠfiziÄįki": 7981,
      "Ġsredstvima": 7982,
      "Ġkazna": 7983,
      "ĠÅ¾ivotinje": 7984,
      "Ġlekovi": 7985,
      "rite": 7986,
      "Ġkrsta": 7987,
      "ence": 7988,
      "Ġocenu": 7989,
      "sed": 7990,
      "Ġekspresije": 7991,
      "ĠproÅ¡log": 7992,
      "milo": 7993,
      "ĠpotroÅ¡nje": 7994,
      "Ġporo": 7995,
      "Ġnezna": 7996,
      "Ġglasi": 7997,
      "kol": 7998,
      "Ġegzisten": 7999,
      "Ġkarakteristikama": 8000,
      "Ġzate": 8001,
      "Ġteren": 8002,
      "rijama": 8003,
      "ĠmlaÄĳi": 8004,
      "Ġnikako": 8005,
      "ĠmarkoviÄĩ": 8006,
      "Ġzahteve": 8007,
      "Äįavanju": 8008,
      "Ġenergiju": 8009,
      "Ġnajnovi": 8010,
      "Ġfrekven": 8011,
      "Ġmile": 8012,
      "Ġsloja": 8013,
      "Ġokuplja": 8014,
      "Ġpor": 8015,
      "Ġnavedeni": 8016,
      "tipa": 8017,
      "Ġcrvene": 8018,
      "Ġdal": 8019,
      "vaÄįke": 8020,
      "Ġpero": 8021,
      "ĠkoristeÄĩi": 8022,
      "Ġocenji": 8023,
      "tov": 8024,
      "ĠopÅ¡teg": 8025,
      "hiji": 8026,
      "Ġ54": 8027,
      "Ġrukovod": 8028,
      "Ġinformacijama": 8029,
      "Ġgrana": 8030,
      "94": 8031,
      "gni": 8032,
      "Ġuspostavljanje": 8033,
      "Ġsumnje": 8034,
      "hri": 8035,
      "%).<|": 8036,
      "Ġlik": 8037,
      "Ġpovezane": 8038,
      "Ġnagradu": 8039,
      "Ġusmera": 8040,
      "Ġorganizuje": 8041,
      "Ġstupa": 8042,
      "vici": 8043,
      "podaci": 8044,
      "Ġkriterijum": 8045,
      "Ġistina": 8046,
      "81": 8047,
      "bni": 8048,
      "tuda": 8049,
      "Ġnjenim": 8050,
      "Ġfar": 8051,
      "Ġef": 8052,
      "Ġmra": 8053,
      "Ġotpa": 8054,
      "ĠliÄįni": 8055,
      "Ġutvrdi": 8056,
      "Ê¼": 8057,
      "Ġskre": 8058,
      "ĠÂ»": 8059,
      "Ġvojni": 8060,
      "ĠveÅ¡tine": 8061,
      "ĠveÅ¡tina": 8062,
      "rodno": 8063,
      "Ġobras": 8064,
      "cionalno": 8065,
      "ys": 8066,
      "Ġ53": 8067,
      "pone": 8068,
      "Ġsvrsta": 8069,
      "Ġliste": 8070,
      "Ġsporti": 8071,
      "Ġtestira": 8072,
      "Ġig": 8073,
      "Äįani": 8074,
      "ĠuÄįinio": 8075,
      "ene": 8076,
      "caj": 8077,
      "ĠÃ®": 8078,
      "Ġzainteresova": 8079,
      "ĠÅ¾elja": 8080,
      "veliki": 8081,
      "Ġobjavljen": 8082,
      "port": 8083,
      "Ġhttps": 8084,
      "Ġgeneti": 8085,
      "ĠizvoÄĳenja": 8086,
      "dvo": 8087,
      "ĠzadrÅ¾ava": 8088,
      "veno": 8089,
      "iii": 8090,
      "ĠÅ¾elite": 8091,
      "Ġdetaljno": 8092,
      "ĠoseÄĩanja": 8093,
      "Ġzastupa": 8094,
      "ĠÄįlanice": 8095,
      "ÉļÉ¤": 8096,
      "91": 8097,
      "deri": 8098,
      "Ġposebna": 8099,
      "Ġcrno": 8100,
      "dis": 8101,
      "Ġpes": 8102,
      "nuta": 8103,
      "Ġ52": 8104,
      "ĠkoÅ¡arka": 8105,
      "rstvo": 8106,
      "binu": 8107,
      "ĠjuÅ¾no": 8108,
      "Ġpoziv": 8109,
      "Ġstandard": 8110,
      "zahva": 8111,
      "Ġengleskom": 8112,
      "Ġsvje": 8113,
      "ĠnuÅ¾no": 8114,
      "zacijom": 8115,
      "Ġdovede": 8116,
      "Ġispa": 8117,
      "ljenog": 8118,
      "Ġideju": 8119,
      "sel": 8120,
      "Ġreka": 8121,
      "Ġ1985": 8122,
      "ener": 8123,
      "ĠvrÅ¡e": 8124,
      "Å¡tanja": 8125,
      "Ġnavija": 8126,
      "Ġstvo": 8127,
      "stavljanja": 8128,
      "Ġproblemima": 8129,
      "Ġpesama": 8130,
      "Ġosvr": 8131,
      "ovek": 8132,
      "Ġpostepeno": 8133,
      "ĠsveÅ¡te": 8134,
      "klom": 8135,
      "97": 8136,
      "stiÄĩ": 8137,
      "hla": 8138,
      "Ġspeci": 8139,
      "ĠtakmiÄįenja": 8140,
      "Å¾uju": 8141,
      "ĠizvrÅ¡enja": 8142,
      "Ġraditi": 8143,
      "ĠÄįvrsto": 8144,
      "Ġkonvencije": 8145,
      "Ġkulturnih": 8146,
      "ĠdomaÄĩe": 8147,
      "Ġaplikacije": 8148,
      "Ġsun": 8149,
      "ĠkuÄĩ": 8150,
      "Ġanal": 8151,
      "ĠgradonaÄįe": 8152,
      "Ġarheo": 8153,
      "Ġusvaja": 8154,
      "Ġbrojnim": 8155,
      "Ġpriba": 8156,
      "ĠnaglaÅ¡ava": 8157,
      "ubi": 8158,
      "Å¡nim": 8159,
      "ĠpreÅ¾ivlja": 8160,
      "Ġeksplici": 8161,
      "rovatnije": 8162,
      "novog": 8163,
      "Ġizgradnji": 8164,
      "ĠodluÄįivanja": 8165,
      "Ġpolaz": 8166,
      "Ġnarodu": 8167,
      "Ġprisutni": 8168,
      "Ġsupe": 8169,
      "Ġosvaja": 8170,
      "feru": 8171,
      "Ġnekoj": 8172,
      "Ġkomore": 8173,
      "Ġnea": 8174,
      "Ġministra": 8175,
      "Ġzahtevaju": 8176,
      "dn": 8177,
      "Ġstrah": 8178,
      "ĠÃ³": 8179,
      "ĠpostiÅ¾e": 8180,
      "Ġdragan": 8181,
      "2019": 8182,
      "Ġautomatski": 8183,
      "Ġdozvole": 8184,
      "Ġdobijanje": 8185,
      "najveÄĩi": 8186,
      "Å¾alost": 8187,
      "Ġsvetlosti": 8188,
      "Ġjest": 8189,
      "Ġinfor": 8190,
      "Ġdup": 8191,
      "Ġodr": 8192,
      "Ġkl": 8193,
      "mol": 8194,
      "Ġzglo": 8195,
      "Ġdodatne": 8196,
      "Ġvisoka": 8197,
      "Ġaran": 8198,
      "Ġistih": 8199,
      "Ġtoma": 8200,
      "Ġulice": 8201,
      "ĠpruÅ¾aju": 8202,
      "Ġhumani": 8203,
      "Ġvazduhoplo": 8204,
      "Ġrazd": 8205,
      "til": 8206,
      "ĠuÄįesni": 8207,
      "Ġpravna": 8208,
      "Ġvene": 8209,
      "Ġkrat": 8210,
      "Äįeka": 8211,
      "Ġ56": 8212,
      "Ġnavedenog": 8213,
      "Ġpoziciji": 8214,
      "mis": 8215,
      "É«É¬": 8216,
      "nor": 8217,
      "Ġuzorcima": 8218,
      "Ġmodula": 8219,
      "ĠuÄįeÅ¡Äĩa": 8220,
      "Ġ.</": 8221,
      "Î³": 8222,
      "ĠveÄĩine": 8223,
      "vimo": 8224,
      "cia": 8225,
      "ĠÉĽ": 8226,
      "Ġglasova": 8227,
      "Ġrezultira": 8228,
      "ĠpoloÅ¾aju": 8229,
      "Ġmedicine": 8230,
      "ĠnajviÅ¡i": 8231,
      "Ġljudske": 8232,
      "Ġ1981": 8233,
      "rusa": 8234,
      "Ġusle": 8235,
      "Ġpolitici": 8236,
      "rice": 8237,
      "ljenim": 8238,
      "Ġpoljoprivre": 8239,
      "Ġutvrditi": 8240,
      "Ġtam": 8241,
      "°É¢Êģ": 8242,
      "Ġsrpskim": 8243,
      "Ġdospe": 8244,
      "Ġmaga": 8245,
      "Ġosnovnim": 8246,
      "Ġkontekst": 8247,
      "Ġturni": 8248,
      "Ġpogotovo": 8249,
      "Ġkvalita": 8250,
      "Ġkoeficijenta": 8251,
      "Ġrealizaciju": 8252,
      "Ġdel": 8253,
      "Ġkoristili": 8254,
      "Ġatra": 8255,
      "Ġ!": 8256,
      "Ġvisini": 8257,
      "ljite": 8258,
      "nijom": 8259,
      "Ġdeluju": 8260,
      "Ġizola": 8261,
      "Ġfrancuskoj": 8262,
      "Ġtrenutka": 8263,
      "Ġmotora": 8264,
      "Ġatribu": 8265,
      "mskog": 8266,
      "Ġbloka": 8267,
      "Ġdrve": 8268,
      "ĠfiziÄįkog": 8269,
      "ĠniÅ¡": 8270,
      "Ġedi": 8271,
      "gy": 8272,
      "Ġprinos": 8273,
      "Ġsat": 8274,
      "ĠbrÅ¾e": 8275,
      "Ġimeno": 8276,
      "Ġinternational": 8277,
      "Ġeri": 8278,
      "Ġuprava": 8279,
      "Ġperso": 8280,
      "Å¾nju": 8281,
      "Ġsur": 8282,
      "Ġkv": 8283,
      "Ġkomponenta": 8284,
      "Ġostvarivanje": 8285,
      "Ġgovorio": 8286,
      "potre": 8287,
      "Ġkorisnik": 8288,
      "Ġxvi": 8289,
      "Ġjelena": 8290,
      "tiÄįki": 8291,
      "taciji": 8292,
      "ĠmiÅ¡iÄĩ": 8293,
      "Ġiznosu": 8294,
      "Ġmuzeja": 8295,
      "Ġvisina": 8296,
      "Ġimenom": 8297,
      "Ġporeklo": 8298,
      "Ġprijave": 8299,
      "nae": 8300,
      "mere": 8301,
      "Ġprethodnom": 8302,
      "rezi": 8303,
      "Ġdelega": 8304,
      "zovanih": 8305,
      "Ġsaradnika": 8306,
      "ÃŃÃ¨": 8307,
      "Ġsvojevr": 8308,
      "Ġupotreblje": 8309,
      "Ġneophodna": 8310,
      "Ġregistro": 8311,
      "ĠpribliÅ¾no": 8312,
      "ĠÄįuva": 8313,
      "Ġ1970": 8314,
      "uma": 8315,
      "Ġodredi": 8316,
      "cova": 8317,
      "Ġopu": 8318,
      "Ġnarodna": 8319,
      "Ïī": 8320,
      "stim": 8321,
      "Ġpripadnika": 8322,
      "Ġkuhi": 8323,
      "Ã·": 8324,
      "aa": 8325,
      "ĠÃŃ": 8326,
      "ĠdomaÄĩih": 8327,
      "Ġskop": 8328,
      "ĠÄįetvo": 8329,
      "Ġnapredak": 8330,
      "Ġ@<|": 8331,
      "Ġosvet": 8332,
      "metra": 8333,
      "Ġsubjekta": 8334,
      "Ġavgust": 8335,
      "Ġposeduju": 8336,
      "Ġraspodele": 8337,
      "Ġhidra": 8338,
      "tovao": 8339,
      "zatim": 8340,
      "protiv": 8341,
      "Ġdubro": 8342,
      "Äįvr": 8343,
      "Ġobjasniti": 8344,
      "ĠpoÄįeli": 8345,
      "Ġregulisa": 8346,
      "Ġoset": 8347,
      "ĠsediÅ¡te": 8348,
      "Ġuga": 8349,
      "Ġukida": 8350,
      "ul": 8351,
      "Ġdala": 8352,
      "Ġpropu": 8353,
      "Ġpovezan": 8354,
      "2000": 8355,
      "izra": 8356,
      "ïĢ": 8357,
      "Ġautenti": 8358,
      "Ġkontine": 8359,
      "Ġbombar": 8360,
      "habili": 8361,
      "vska": 8362,
      "Ġbeli": 8363,
      "Ġsvije": 8364,
      "Ġzabri": 8365,
      "Äĩeva": 8366,
      "ĠhoÄĩe": 8367,
      "Ġneod": 8368,
      "Ġprvim": 8369,
      "Ġautono": 8370,
      "ĠpeÅ¡a": 8371,
      "Ġero": 8372,
      "Ġekspo": 8373,
      "Ġpredloga": 8374,
      "Ġcor": 8375,
      "ĠprekrÅ¡a": 8376,
      "rko": 8377,
      "Ġmorala": 8378,
      "2004": 8379,
      "bacu": 8380,
      "Ġstvaraju": 8381,
      "hr": 8382,
      "Ġleve": 8383,
      "Ġise": 8384,
      "Ġgrob": 8385,
      "ĠraspoloÅ¾i": 8386,
      "Ġmilu": 8387,
      "Ġmetodi": 8388,
      "dia": 8389,
      "Ġdomena": 8390,
      "Ġprogno": 8391,
      "ranu": 8392,
      "Ġtan": 8393,
      "Ġsupstra": 8394,
      "ĠÅ¾ivotnu": 8395,
      "fre": 8396,
      "Ġkop": 8397,
      "Ġadvokat": 8398,
      "Ġ1984": 8399,
      "Ġeurope": 8400,
      "Ġotpo": 8401,
      "Ġsupstance": 8402,
      "Ġpismo": 8403,
      "Ġhrani": 8404,
      "Äİu": 8405,
      "Ġantioksida": 8406,
      "Ġpolovini": 8407,
      "Ġstana": 8408,
      "Ġsrednjoveko": 8409,
      "Ġusagla": 8410,
      "Ġproba": 8411,
      "Ġtraga": 8412,
      "ditelj": 8413,
      "Ġkonstrui": 8414,
      "Ġare": 8415,
      "neo": 8416,
      "Ġfinansijski": 8417,
      "gio": 8418,
      "Ġyou": 8419,
      ".âĢĿ": 8420,
      "vljanje": 8421,
      "Ġstabilnosti": 8422,
      "âĢĴ": 8423,
      "Ġpopulacija": 8424,
      "ljenju": 8425,
      "Ġvirtu": 8426,
      "Ġvojnika": 8427,
      "Ġpostupaka": 8428,
      "Ġprincipu": 8429,
      "Ġnivoima": 8430,
      "Ġniste": 8431,
      "Ġoblike": 8432,
      "iza": 8433,
      "Ġposlovanje": 8434,
      "Ġteni": 8435,
      "Ġutakmice": 8436,
      "Ġperformanse": 8437,
      "Å¾nosti": 8438,
      "Ġcrna": 8439,
      "Ĥ¬": 8440,
      "Ġfanta": 8441,
      "Ġdecembar": 8442,
      "Ġpacijenti": 8443,
      "ĠuÄįenicima": 8444,
      "Ġofici": 8445,
      "Ġceni": 8446,
      "Ġsloj": 8447,
      "Ġtransa": 8448,
      "Ġulozi": 8449,
      "Ġumi": 8450,
      "Ġcarstva": 8451,
      "Ġuki": 8452,
      "ĠÅ¡ampiona": 8453,
      "Ġepo": 8454,
      "ĠmoguÄĩa": 8455,
      "Ġkuku": 8456,
      "Ġdif": 8457,
      "Ġdob": 8458,
      "Ġmalole": 8459,
      "ksio": 8460,
      "sity": 8461,
      "Ġampli": 8462,
      "Ġposre": 8463,
      "Ġnegativno": 8464,
      "Ġuvodi": 8465,
      "ĠobeleÅ¾ja": 8466,
      "Ġistini": 8467,
      "2021": 8468,
      "ura": 8469,
      "Ġnaji": 8470,
      "cor": 8471,
      "Ġopsegu": 8472,
      "Äįeki": 8473,
      "Ġzavisnost": 8474,
      "Ġkompju": 8475,
      "gl": 8476,
      "Ġnedovoljno": 8477,
      "Ġproseku": 8478,
      "Ġpovreda": 8479,
      "Ġzahtevima": 8480,
      "Ġinformaciju": 8481,
      "fran": 8482,
      "ĠkljuÄįnih": 8483,
      "minje": 8484,
      "ĠtaÄįaka": 8485,
      "dalje": 8486,
      "Ġhipoteza": 8487,
      "minan": 8488,
      "ĠnajveÄĩih": 8489,
      "Ġorganizacijama": 8490,
      "ĠzapaÅ¾a": 8491,
      "ĠveÄĩinu": 8492,
      "kina": 8493,
      "zil": 8494,
      "É¢É±": 8495,
      "Ġraznim": 8496,
      "ĠupuÄĩuje": 8497,
      "Ġkatastro": 8498,
      "kan": 8499,
      "Ġmoni": 8500,
      "Ġrazumevanja": 8501,
      "Ġgluko": 8502,
      "ĠpoÅ¡tovanje": 8503,
      "Ġklo": 8504,
      "Ġonemogu": 8505,
      "Ġkorupcije": 8506,
      "Ġposlovni": 8507,
      "á¿": 8508,
      "Ġparametra": 8509,
      "Ġkriza": 8510,
      "Ġchi": 8511,
      "jko": 8512,
      "Ġdevija": 8513,
      "Ġafi": 8514,
      "Ġvratio": 8515,
      "ĠreÅ¡e": 8516,
      "Ġmil": 8517,
      "Ġsastoja": 8518,
      "Ġagresi": 8519,
      "Ġkanali": 8520,
      "Ġrasi": 8521,
      "Ġrod": 8522,
      "Ġmon": 8523,
      "rskom": 8524,
      "ĠÄįitao": 8525,
      "ĠgraÄĳanima": 8526,
      "Ġambi": 8527,
      "Ġglavi": 8528,
      "Ġpeto": 8529,
      "njaka": 8530,
      "Ġinciden": 8531,
      "Ġneobi": 8532,
      "Ġfiska": 8533,
      "ĠkoliÄįinu": 8534,
      "ĠpokuÅ¡aj": 8535,
      "Ġmenjaju": 8536,
      "Ġharti": 8537,
      "Ġspektra": 8538,
      "stije": 8539,
      "Ġformiraju": 8540,
      "Ġneizve": 8541,
      "Ġkontinuira": 8542,
      "Ġvese": 8543,
      "Ġposeti": 8544,
      "Ëĩc": 8545,
      "Î¯": 8546,
      "Ġtipova": 8547,
      "Ġefikasno": 8548,
      "ĠspecifiÄįne": 8549,
      "Ġorganizaciju": 8550,
      "Ġtrom": 8551,
      "imajuÄĩi": 8552,
      "Ġinterneta": 8553,
      "Ġmasti": 8554,
      "Å¡io": 8555,
      "Ġamerici": 8556,
      "fri": 8557,
      "ovim": 8558,
      "+<|": 8559,
      "Ġbugarske": 8560,
      "tovati": 8561,
      "Ġsmet": 8562,
      "merno": 8563,
      "Ġrazgovora": 8564,
      "Ġprethodnog": 8565,
      "ĠunapreÄĳenja": 8566,
      "Ġpoglavlja": 8567,
      "Ġpredo": 8568,
      "zak": 8569,
      "gula": 8570,
      "sem": 8571,
      "Ġnapi": 8572,
      "ĠÅ¾iv": 8573,
      "ĠnauÄįnih": 8574,
      "ljuju": 8575,
      "Ġgubitka": 8576,
      "Ġodje": 8577,
      "ĠskupÅ¡tina": 8578,
      "Ġspoljnih": 8579,
      "caju": 8580,
      "Ġdeforma": 8581,
      "Ġnavodno": 8582,
      "Ġobavljanje": 8583,
      "Ġzloupotre": 8584,
      "Ġdonose": 8585,
      "Ġsho": 8586,
      "Ġsvetlo": 8587,
      "Ġban": 8588,
      "Ġsisteme": 8589,
      "Ġkonstrukcija": 8590,
      "ĠÄīe": 8591,
      "veÄĩina": 8592,
      "Ġpriroda": 8593,
      "ĠroÄĳenja": 8594,
      "Ġnovembar": 8595,
      "Ġputnika": 8596,
      "Ġegi": 8597,
      "bc": 8598,
      "Ġhen": 8599,
      "Ġizolova": 8600,
      "ĠsmeÅ¡ta": 8601,
      "ĠuoÄįiti": 8602,
      "mbru": 8603,
      "ĠznaÄįajnih": 8604,
      "Ġvladavine": 8605,
      "Ġrekli": 8606,
      "Ġturske": 8607,
      "ĠzavrÅ¡ava": 8608,
      "Ġprilike": 8609,
      "Ġkomplika": 8610,
      "nia": 8611,
      "Ġanksio": 8612,
      "ĠnemoguÄĩe": 8613,
      "jaka": 8614,
      "mikro": 8615,
      "Ġnastavak": 8616,
      "nicom": 8617,
      "ram": 8618,
      "Ġsporta": 8619,
      "Ġlegen": 8620,
      "ĠizvrÅ¡enje": 8621,
      "Ġcita": 8622,
      "ĠÄįitav": 8623,
      "Ġserti": 8624,
      "Ġpozdra": 8625,
      "ĠÄįelu": 8626,
      "qe": 8627,
      "ĠnaÄĳe": 8628,
      "Ġruskog": 8629,
      "ao": 8630,
      "Ġhercegovine": 8631,
      "Ġpodvr": 8632,
      "ĠkolaÄįiÄĩe": 8633,
      "Ġvaspitanja": 8634,
      "ĠzakljuÄįuje": 8635,
      "ĠpostojeÄĩe": 8636,
      "Ġdefinisanje": 8637,
      "Ġpseudo": 8638,
      "reÄį": 8639,
      "defini": 8640,
      "\".": 8641,
      "ters": 8642,
      "Ġaspekt": 8643,
      "Ġdistan": 8644,
      "Ġengleskog": 8645,
      "zovano": 8646,
      "zijom": 8647,
      "Ġtakvog": 8648,
      "Ġpokazano": 8649,
      "cionalna": 8650,
      "Ġzbornik": 8651,
      "metar": 8652,
      "Ġom": 8653,
      "toriju": 8654,
      "Ġobolelih": 8655,
      "sadrÅ¾a": 8656,
      "pato": 8657,
      "Ġvlasnik": 8658,
      "ĠnemaÄįki": 8659,
      "Ġ1945": 8660,
      "Ġmomenta": 8661,
      "tiji": 8662,
      "Ġgdje": 8663,
      "Ġvarijanse": 8664,
      "ĠtreÄĩem": 8665,
      "ĠÅ¡iroko": 8666,
      "Ġvisokom": 8667,
      "Ġobrazlo": 8668,
      "Ġalata": 8669,
      "Ġpojedinaca": 8670,
      "Å¡teno": 8671,
      "Ġnjujor": 8672,
      "drugim": 8673,
      "Ġkina": 8674,
      "Ġodlazi": 8675,
      "sniji": 8676,
      "hn": 8677,
      "lita": 8678,
      "Ġprimeniti": 8679,
      "set": 8680,
      "Ġ1982": 8681,
      "Ġkontrolne": 8682,
      "Ġgradovima": 8683,
      "Ġpisao": 8684,
      "ĠoÄįekivati": 8685,
      "fikuje": 8686,
      "ĠÅ¡kolama": 8687,
      "Ġdimit": 8688,
      "tovima": 8689,
      "Ġfilmu": 8690,
      "sy": 8691,
      "ĠpaÅ¾nja": 8692,
      "Ġstarih": 8693,
      "svaka": 8694,
      "tinj": 8695,
      "Ġradili": 8696,
      "stano": 8697,
      "lfa": 8698,
      "Ã°Ã¥": 8699,
      "Âº": 8700,
      "ses": 8701,
      "ĠizraÅ¾e": 8702,
      "Ġfond": 8703,
      "Ġcveta": 8704,
      "Ġdoktorske": 8705,
      "tipi": 8706,
      "Ġpromovi": 8707,
      "Ġnepravi": 8708,
      "Ġkilometara": 8709,
      "ĠdeÄį": 8710,
      "Ġhranu": 8711,
      "ĠutvrÄĳena": 8712,
      "Ñĳ": 8713,
      "ĠproseÄįna": 8714,
      "Ġjabu": 8715,
      "Ġkoali": 8716,
      "ard": 8717,
      "Ġsje": 8718,
      "Ġfinansiranja": 8719,
      "Ġpje": 8720,
      "Ġobradu": 8721,
      "nstvo": 8722,
      "Ġes": 8723,
      "Ġokolini": 8724,
      "Ġbilan": 8725,
      "Ġukupnih": 8726,
      "lista": 8727,
      "Ġrehabili": 8728,
      "..<|": 8729,
      "Ġpravilno": 8730,
      "Ġtradicije": 8731,
      "Ġparce": 8732,
      "ĠpolitiÄįkim": 8733,
      "Ġposu": 8734,
      "Ġefekta": 8735,
      "Ġkonfi": 8736,
      "Ġotpora": 8737,
      "Ġevropski": 8738,
      "hvala": 8739,
      "ĠkriviÄįnom": 8740,
      "Ġnaime": 8741,
      "Ġvezuje": 8742,
      "Ġsastan": 8743,
      "Ġkritike": 8744,
      "Ġ85": 8745,
      "Ġengleski": 8746,
      "Ġmed": 8747,
      "Ġgeometri": 8748,
      "ĠliÄįnost": 8749,
      "vljenog": 8750,
      "Ġ57": 8751,
      "Ġhrvatska": 8752,
      "ĠÅ¡ar": 8753,
      "Ġkiseonika": 8754,
      "gmati": 8755,
      "ĠodreÄĳenu": 8756,
      "Ġgovoriti": 8757,
      "Ġizboru": 8758,
      "Å¡le": 8759,
      "Ġodraslih": 8760,
      "viju": 8761,
      "Ġdvori": 8762,
      "doktor": 8763,
      "Ġuteme": 8764,
      "Ġnem": 8765,
      "Ġforu": 8766,
      "ent": 8767,
      "Ġposete": 8768,
      "Ġposebnu": 8769,
      "Ġotvoreno": 8770,
      "ĠÉĭ": 8771,
      "ĠureÄĳuje": 8772,
      "Ġpropor": 8773,
      "Ġromanti": 8774,
      "ws": 8775,
      "Ġed": 8776,
      "Ġsrbima": 8777,
      "Ġika": 8778,
      "Ġprovo": 8779,
      "Ġevropskom": 8780,
      "sara": 8781,
      "Å¾iÄĩ": 8782,
      "sper": 8783,
      "Ġubla": 8784,
      "ĠniÅ¡a": 8785,
      "Ġmozga": 8786,
      "ispo": 8787,
      "Ġnacionalnom": 8788,
      "Ġlicima": 8789,
      "rtava": 8790,
      "Ġsumnja": 8791,
      "Ġzapadne": 8792,
      "Ġdoneo": 8793,
      "liju": 8794,
      "Ġubistva": 8795,
      "toru": 8796,
      "vidi": 8797,
      "Ġuskoro": 8798,
      "navede": 8799,
      "Ġinfrastrukture": 8800,
      "Ġnormalno": 8801,
      "Ġnajpozna": 8802,
      "Ġimpe": 8803,
      "Ġtoplote": 8804,
      "Ġneprijatelj": 8805,
      "Ġzoran": 8806,
      "Ġdato": 8807,
      "Ġizla": 8808,
      "ĠpodrÅ¾ava": 8809,
      "njavanje": 8810,
      "Ġindikatora": 8811,
      "Ġpojavljuju": 8812,
      "Ġkatoli": 8813,
      "Ġsevero": 8814,
      "vic": 8815,
      "osnovni": 8816,
      "âĢĻ,": 8817,
      "gn": 8818,
      "Ġgaz": 8819,
      "Ġpetar": 8820,
      "gove": 8821,
      "Ġdecom": 8822,
      "Ġgaje": 8823,
      "Ġtakvo": 8824,
      "Ã°Ãł": 8825,
      "ĠnajÄįe": 8826,
      "Ġpodeli": 8827,
      "tsku": 8828,
      "ï¬ģ": 8829,
      "Å¡nom": 8830,
      "Ġ<<|": 8831,
      "ĠÄīi": 8832,
      "Ġvolu": 8833,
      "ĠÄįlanom": 8834,
      "Ġdvadeset": 8835,
      "Ġsekundar": 8836,
      "Ġpoljoprivrede": 8837,
      "Ġparametar": 8838,
      "Ġinvesticije": 8839,
      "Ġsredina": 8840,
      "Ġproizvede": 8841,
      "proje": 8842,
      "ĠÄįisto": 8843,
      "ĠdÅ¾o": 8844,
      "liÅ¡e": 8845,
      "ĠzakljuÄįi": 8846,
      "Ġpraz": 8847,
      "Ġpolazi": 8848,
      "Ġzapisa": 8849,
      "Ġadsorp": 8850,
      "Ġodsustvo": 8851,
      "Ġrazgovor": 8852,
      "Ġonlajn": 8853,
      "Ġ63": 8854,
      "Ġ</": 8855,
      "Ġsfr": 8856,
      "ĠÉ¨Éŀ": 8857,
      ".(": 8858,
      "Ġsanu": 8859,
      "sing": 8860,
      "Ġstereo": 8861,
      "mpu": 8862,
      "Ġprocenje": 8863,
      "finansi": 8864,
      "Ġakt": 8865,
      "ĠveÄĩoj": 8866,
      "ĠkneÅ¾e": 8867,
      "ANj": 8868,
      "Ġstepenu": 8869,
      "ĠzvaniÄįno": 8870,
      "Ġpravilo": 8871,
      "cida": 8872,
      "Ġnekretni": 8873,
      "Ġmotori": 8874,
      "Ġtabele": 8875,
      "ĠpreteÅ¾no": 8876,
      "Ġfinansija": 8877,
      "piju": 8878,
      "ÉŁÉ¤": 8879,
      "ĠobiÄįa": 8880,
      "okru": 8881,
      "viso": 8882,
      "fiji": 8883,
      "Ġportal": 8884,
      "Ġodgovore": 8885,
      "Ġtrenutak": 8886,
      "Ġobjavljena": 8887,
      "ĠmiÅ¡iÄĩa": 8888,
      "Ġnastoja": 8889,
      "Ġnavedenim": 8890,
      "Ġnazna": 8891,
      "Ġ1944": 8892,
      "tehno": 8893,
      "ĠsluÅ¾e": 8894,
      "ĠskupÅ¡tini": 8895,
      "ĠokonÄįa": 8896,
      "ĠzajedniÄįke": 8897,
      "Ġkrive": 8898,
      "Ġrazreda": 8899,
      "ford": 8900,
      "dja": 8901,
      "ĠgodiÅ¡nji": 8902,
      "Ġprijatelja": 8903,
      "ĠmuÅ¡karci": 8904,
      "phy": 8905,
      "mice": 8906,
      "Ġlati": 8907,
      "Ġmisao": 8908,
      "Ġimenu": 8909,
      "ĠmaÅ¡ine": 8910,
      "Ġautomati": 8911,
      "Ġishod": 8912,
      "ĠpeÄĩi": 8913,
      "Ġoc": 8914,
      "ĠÅ¡ti": 8915,
      "rstva": 8916,
      "Ġsekunda": 8917,
      "ă<|": 8918,
      "Ġslabi": 8919,
      "ĠmeÄĳunarodnom": 8920,
      "pravni": 8921,
      "Ġposmatrati": 8922,
      "zaÅ¡to": 8923,
      "speri": 8924,
      "Ġprevoz": 8925,
      "Ġpregle": 8926,
      "Ġmoleku": 8927,
      "Ġfunkcionisanje": 8928,
      "nete": 8929,
      "Ġpoha": 8930,
      "ĠreÅ¾im": 8931,
      "grafije": 8932,
      "ĠoruÅ¾a": 8933,
      "saj": 8934,
      "Ġsmr": 8935,
      "Ġsistemom": 8936,
      "ea": 8937,
      "Ġastro": 8938,
      "zioni": 8939,
      "Ġvezanih": 8940,
      "Ġnazivaju": 8941,
      "Äįite": 8942,
      "ĠsprovoÄĳenja": 8943,
      "Ġevropskoj": 8944,
      "Ġsns": 8945,
      "noÅ¡enja": 8946,
      "proizvo": 8947,
      "gare": 8948,
      "ĠÄī": 8949,
      "rnici": 8950,
      "ĠraÄįunovod": 8951,
      "Ġperife": 8952,
      "ĠÃª": 8953,
      "ĠnaoruÅ¾a": 8954,
      "kal": 8955,
      "Ġdefici": 8956,
      "Ġrukama": 8957,
      "fon": 8958,
      "Ġintervencije": 8959,
      "Ġpane": 8960,
      "Ġpojedini": 8961,
      "Ġizdanja": 8962,
      "Ġmuzej": 8963,
      "Ġporasta": 8964,
      "Ġpomenuti": 8965,
      "ĠvaÅ¡a": 8966,
      "cionu": 8967,
      "Ġostrva": 8968,
      "mska": 8969,
      "Ġdragi": 8970,
      "ĠgreÅ¡ka": 8971,
      "Ġorganima": 8972,
      "ĠpronaÄĩi": 8973,
      "savlje": 8974,
      "Ġbron": 8975,
      "Ġutakmica": 8976,
      "nalni": 8977,
      "ĠmiÅ¡e": 8978,
      "Ġzatra": 8979,
      "Ġmanastir": 8980,
      "Ġobrnu": 8981,
      "ĠdrugaÄįiji": 8982,
      "obuhva": 8983,
      "Ġani": 8984,
      "bl": 8985,
      "Ġsorte": 8986,
      "Å¾om": 8987,
      "Ġpodela": 8988,
      "Ġprelaz": 8989,
      "Ġfrancuska": 8990,
      "Ġkonzerva": 8991,
      "Ġpovezuje": 8992,
      "Ġpotrebi": 8993,
      "Ġporez": 8994,
      "ĠgrÄįke": 8995,
      "Ġace": 8996,
      "Ġbiblioteka": 8997,
      "Ġson": 8998,
      "ĠangaÅ¾ova": 8999,
      "Ġ58": 9000,
      "Ġodredbama": 9001,
      "Ġpripadnici": 9002,
      "Ġkap": 9003,
      "Ġbiznis": 9004,
      "ÄĳorÄĳe": 9005,
      "Ġzdravstvenih": 9006,
      "nasta": 9007,
      "Ġcla": 9008,
      "uza": 9009,
      "Cl": 9010,
      "cijski": 9011,
      "ĠÅ¡um": 9012,
      "ĠodluÄįio": 9013,
      "Ġcere": 9014,
      "goni": 9015,
      "Ġdeklara": 9016,
      "Ġobavljaju": 9017,
      "Ġmakar": 9018,
      "Ġrasho": 9019,
      "Ġpregovara": 9020,
      "nemo": 9021,
      "Ġlesko": 9022,
      "Ġ1971": 9023,
      "ĠspecifiÄįnosti": 9024,
      "novac": 9025,
      "ĠdÅ¾on": 9026,
      "ĠodgovarajuÄĩih": 9027,
      "Ġradnici": 9028,
      "Ġvezana": 9029,
      "Ġambije": 9030,
      "Ġtrenin": 9031,
      "Ġformula": 9032,
      "ncima": 9033,
      "menzio": 9034,
      "dl": 9035,
      "jl": 9036,
      "Ġpodignu": 9037,
      "Ġprirodu": 9038,
      "Äīki": 9039,
      "Ġsvakodnevno": 9040,
      "pet": 9041,
      "Ġ000": 9042,
      "Ġlete": 9043,
      "Ġizosta": 9044,
      "Ġposlednja": 9045,
      "ĠoÄįekivanja": 9046,
      "2003": 9047,
      "Äįenjima": 9048,
      "Ġdobijena": 9049,
      "ĠodrÅ¾ivog": 9050,
      "Ġ1983": 9051,
      "Ġfraze": 9052,
      "Ġizabran": 9053,
      "Ġpostavljen": 9054,
      "Ġposlovnog": 9055,
      "Me": 9056,
      "Ġceline": 9057,
      "Ġbalkanu": 9058,
      "Ġ89": 9059,
      "Ġzadovoljstvo": 9060,
      "Ġsal": 9061,
      "wn": 9062,
      "Ġpilo": 9063,
      "kteri": 9064,
      "izu": 9065,
      "Ġsocijalni": 9066,
      "Ġekipa": 9067,
      "Ġodbaci": 9068,
      "tovanja": 9069,
      "Ġlogisti": 9070,
      "ĠodreÄĳenoj": 9071,
      "wor": 9072,
      "Ġnapusti": 9073,
      "Ġdokument": 9074,
      "najve": 9075,
      "Ġprirodnog": 9076,
      "ĠizvrÅ¡iti": 9077,
      "skopa": 9078,
      "vaÄįi": 9079,
      "ĠutvrÄĳuje": 9080,
      "Ġsola": 9081,
      "Ġodakle": 9082,
      "Ġtermino": 9083,
      "Ġodbranu": 9084,
      "Ġfigu": 9085,
      "Ġapsor": 9086,
      "Ġprecizno": 9087,
      "Ġimovinu": 9088,
      "timi": 9089,
      "ala": 9090,
      "zila": 9091,
      "Ġ68": 9092,
      "Ġkrug": 9093,
      "Ġgustine": 9094,
      "Ġobuke": 9095,
      "Ġsezoni": 9096,
      "Ġzasnovan": 9097,
      "lum": 9098,
      "Ġtable": 9099,
      "Ġuradi": 9100,
      "Äĳenom": 9101,
      "cionar": 9102,
      "Ġmitropoli": 9103,
      "ðĿĲ": 9104,
      "Ġadresa": 9105,
      "ĠÃ¤": 9106,
      "Ġprinosa": 9107,
      "Ġthat": 9108,
      "Ġ110": 9109,
      "graÄĳa": 9110,
      "hranje": 9111,
      "lp": 9112,
      "Ġlider": 9113,
      "Ġpretpostavke": 9114,
      "ĠsledeÄĩim": 9115,
      "ĠmenadÅ¾menta": 9116,
      "Ġglavu": 9117,
      "ĠÎº": 9118,
      "Å¾noj": 9119,
      "ĠÏĢ": 9120,
      "Ġprvenstvu": 9121,
      "bula": 9122,
      "njava": 9123,
      "ĠreÄįni": 9124,
      "Ġpostati": 9125,
      "Ġumr": 9126,
      "Ġlokacija": 9127,
      "uo": 9128,
      "ges": 9129,
      "ace": 9130,
      "Ġrake": 9131,
      "luka": 9132,
      "Ġrudar": 9133,
      "deta": 9134,
      "ĠsveÄįa": 9135,
      "Ġsha": 9136,
      "Ġvojvodini": 9137,
      "trom": 9138,
      "Ġputeva": 9139,
      "ĠmreÅ¾ama": 9140,
      "Å¾nu": 9141,
      "Ġnjom": 9142,
      "Ġprivile": 9143,
      "komunika": 9144,
      "Ġstati": 9145,
      "Ġart": 9146,
      "Ġpiro": 9147,
      "Ġpoverenja": 9148,
      "ĠreÅ¡avanja": 9149,
      "Ġnepokretnosti": 9150,
      "Ġvrsti": 9151,
      "Ġvlasnika": 9152,
      "Ġvuka": 9153,
      "Ġonto": 9154,
      "nr": 9155,
      "Ġenti": 9156,
      "svet": 9157,
      "tiraju": 9158,
      "ita": 9159,
      "Ġtvo": 9160,
      "Ġostati": 9161,
      "Ġtoleran": 9162,
      "Ġnadokna": 9163,
      "Ġinteresovanja": 9164,
      "sud": 9165,
      "ndu": 9166,
      "ĠneÅ¾e": 9167,
      "Ġprirodne": 9168,
      "nem": 9169,
      "media": 9170,
      "emo": 9171,
      "Ġlek": 9172,
      "Ġwww": 9173,
      "Ġfrancuski": 9174,
      "Ġimuni": 9175,
      "ÉŁÉ¥": 9176,
      "Ġkonkurencije": 9177,
      "leme": 9178,
      "Ġpsihi": 9179,
      "ĠporeÄĳenje": 9180,
      "Å¾Äĳa": 9181,
      "joviÄĩ": 9182,
      "Ġevropskim": 9183,
      "Ġparadi": 9184,
      "Ġpamet": 9185,
      "ĠsluÅ¾beni": 9186,
      "Ġdovelo": 9187,
      "Ġopcija": 9188,
      "Ġ250": 9189,
      "Ġdostignu": 9190,
      "Ġtona": 9191,
      "Ġdugotra": 9192,
      "Ġintenzitet": 9193,
      "Ġdona": 9194,
      "Ġkorisnicima": 9195,
      "grupa": 9196,
      "Ġkape": 9197,
      "Ġupravnog": 9198,
      "Ġelimini": 9199,
      "Ġstrogo": 9200,
      "Ġposlovima": 9201,
      "cionalnih": 9202,
      "Ġborba": 9203,
      "Ġemocije": 9204,
      "stven": 9205,
      "Ġprela": 9206,
      "Ġholan": 9207,
      "Ġrobo": 9208,
      "Ġ09": 9209,
      "Ġpromet": 9210,
      "Ġarhitekture": 9211,
      "Ġradnom": 9212,
      "Ġemisija": 9213,
      "ĠÅ¡ef": 9214,
      "pol": 9215,
      "Ġuniverzitetu": 9216,
      "ĠsledeÄĩih": 9217,
      "Ġnaknadu": 9218,
      "Ġdvadese": 9219,
      "Ġuspeli": 9220,
      "shi": 9221,
      "ÃŃÃł": 9222,
      "Ġmasi": 9223,
      "Ġkombinova": 9224,
      "Ġsklopu": 9225,
      "Ġupozo": 9226,
      "ĠsreÄĩu": 9227,
      "drugo": 9228,
      "ĠznaÄįenju": 9229,
[...]
