{
  "version": "1.0",
  "truncation": null,
  "padding": null,
  "added_tokens": [
    {
      "id": 0,
      "content": "[PAD]",
      "single_word": true,
      "lstrip": false,
      "rstrip": false,
      "normalized": false,
      "special": true
    },
    {
      "id": 1,
      "content": "<uppe>",
      "single_word": true,
      "lstrip": false,
      "rstrip": false,
      "normalized": false,
      "special": true
    },
    {
      "id": 2,
      "content": "<capi>",
      "single_word": true,
      "lstrip": false,
      "rstrip": false,
      "normalized": false,
      "special": true
    },
    {
      "id": 3,
      "content": "<cend>",
      "single_word": true,
      "lstrip": false,
      "rstrip": false,
      "normalized": false,
      "special": true
    },
    {
      "id": 4,
      "content": "<csta>",
      "single_word": true,
      "lstrip": false,
      "rstrip": false,
      "normalized": false,
      "special": true
    }
  ],
  "normalizer": null,
  "pre_tokenizer": {
    "type": "ByteLevel",
    "add_prefix_space": false,
    "trim_offsets": true,
    "use_regex": true
  },
  "post_processor": null,
  "decoder": null,
  "model": {
    "type": "BPE",
    "dropout": null,
    "unk_token": null,
    "continuing_subword_prefix": null,
    "end_of_word_suffix": null,
    "fuse_unk": false,
    "byte_fallback": false,
    "ignore_merges": true,
    "vocab": {
      "[PAD]": 0,
      "<uppe>": 1,
      "<capi>": 2,
      "<cend>": 3,
      "<csta>": 4,
      "!": 5,
      "\"": 6,
      "#": 7,
      "$": 8,
      "%": 9,
      "&": 10,
      "'": 11,
      "(": 12,
      ")": 13,
      "*": 14,
      "+": 15,
      ",": 16,
      "-": 17,
      ".": 18,
      "/": 19,
      "0": 20,
      "1": 21,
      "2": 22,
      "3": 23,
      "4": 24,
      "5": 25,
      "6": 26,
      "7": 27,
      "8": 28,
      "9": 29,
      ":": 30,
      ";": 31,
      "<": 32,
      "=": 33,
      ">": 34,
      "?": 35,
      "@": 36,
      "A": 37,
      "B": 38,
      "C": 39,
      "D": 40,
      "E": 41,
      "F": 42,
      "G": 43,
      "H": 44,
      "I": 45,
      "J": 46,
      "K": 47,
      "L": 48,
      "M": 49,
      "N": 50,
      "O": 51,
      "P": 52,
      "Q": 53,
      "R": 54,
      "S": 55,
      "T": 56,
      "U": 57,
      "V": 58,
      "W": 59,
      "X": 60,
      "Y": 61,
      "Z": 62,
      "[": 63,
      "\\": 64,
      "]": 65,
      "^": 66,
      "_": 67,
      "`": 68,
      "a": 69,
      "b": 70,
      "c": 71,
      "d": 72,
      "e": 73,
      "f": 74,
      "g": 75,
      "h": 76,
      "i": 77,
      "j": 78,
      "k": 79,
      "l": 80,
      "m": 81,
      "n": 82,
      "o": 83,
      "p": 84,
      "q": 85,
      "r": 86,
      "s": 87,
      "t": 88,
      "u": 89,
      "v": 90,
      "w": 91,
      "x": 92,
      "y": 93,
      "z": 94,
      "{": 95,
      "|": 96,
      "}": 97,
      "~": 98,
      "¡": 99,
      "¢": 100,
      "£": 101,
      "¤": 102,
      "¥": 103,
      "¦": 104,
      "§": 105,
      "¨": 106,
      "©": 107,
      "ª": 108,
      "«": 109,
      "¬": 110,
      "®": 111,
      "¯": 112,
      "°": 113,
      "±": 114,
      "²": 115,
      "³": 116,
      "´": 117,
      "µ": 118,
      "¶": 119,
      "·": 120,
      "¸": 121,
      "¹": 122,
      "º": 123,
      "»": 124,
      "¼": 125,
      "½": 126,
      "¾": 127,
      "¿": 128,
      "À": 129,
      "Á": 130,
      "Â": 131,
      "Ã": 132,
      "Ä": 133,
      "Å": 134,
      "Æ": 135,
      "Ç": 136,
      "È": 137,
      "É": 138,
      "Ê": 139,
      "Ë": 140,
      "Ì": 141,
      "Í": 142,
      "Î": 143,
      "Ï": 144,
      "Ð": 145,
      "Ñ": 146,
      "Ò": 147,
      "Ó": 148,
      "Ô": 149,
      "Õ": 150,
      "Ö": 151,
      "×": 152,
      "Ø": 153,
      "Ù": 154,
      "Ú": 155,
      "Û": 156,
      "Ü": 157,
      "Ý": 158,
      "Þ": 159,
      "ß": 160,
      "à": 161,
      "á": 162,
      "â": 163,
      "ã": 164,
      "ä": 165,
      "å": 166,
      "æ": 167,
      "ç": 168,
      "è": 169,
      "é": 170,
      "ê": 171,
      "ë": 172,
      "ì": 173,
      "í": 174,
      "î": 175,
      "ï": 176,
      "ð": 177,
      "ñ": 178,
      "ò": 179,
      "ó": 180,
      "ô": 181,
      "õ": 182,
      "ö": 183,
      "÷": 184,
      "ø": 185,
      "ù": 186,
      "ú": 187,
      "û": 188,
      "ü": 189,
      "ý": 190,
      "þ": 191,
      "ÿ": 192,
      "Ā": 193,
      "ā": 194,
      "Ă": 195,
      "ă": 196,
      "Ą": 197,
      "ą": 198,
      "Ć": 199,
      "ć": 200,
      "Ĉ": 201,
      "ĉ": 202,
      "Ċ": 203,
      "ċ": 204,
      "Č": 205,
      "č": 206,
      "Ď": 207,
      "ď": 208,
      "Đ": 209,
      "đ": 210,
      "Ē": 211,
      "ē": 212,
      "Ĕ": 213,
      "ĕ": 214,
      "Ė": 215,
      "ė": 216,
      "Ę": 217,
      "ę": 218,
      "Ě": 219,
      "ě": 220,
      "Ĝ": 221,
      "ĝ": 222,
      "Ğ": 223,
      "ğ": 224,
      "Ġ": 225,
      "ġ": 226,
      "Ģ": 227,
      "ģ": 228,
      "Ĥ": 229,
      "ĥ": 230,
      "Ħ": 231,
      "ħ": 232,
      "Ĩ": 233,
      "ĩ": 234,
      "Ī": 235,
      "ī": 236,
      "Ĭ": 237,
      "ĭ": 238,
      "Į": 239,
      "į": 240,
      "İ": 241,
      "ı": 242,
      "Ĳ": 243,
      "ĳ": 244,
      "Ĵ": 245,
      "ĵ": 246,
      "Ķ": 247,
      "ķ": 248,
      "ĸ": 249,
      "Ĺ": 250,
      "ĺ": 251,
      "Ļ": 252,
      "ļ": 253,
      "Ľ": 254,
      "ľ": 255,
      "Ŀ": 256,
      "ŀ": 257,
      "Ł": 258,
      "ł": 259,
      "Ń": 260,
      "Ġs": 261,
      "Ġp": 262,
      "je": 263,
      "na": 264,
      "Ġi": 265,
      "ra": 266,
      "ko": 267,
      "ni": 268,
      "no": 269,
      "st": 270,
      "Ġd": 271,
      "Ġo": 272,
      "re": 273,
      "Ġu": 274,
      "ja": 275,
      "va": 276,
      "Äį": 277,
      "ne": 278,
      "li": 279,
      "ma": 280,
      "ri": 281,
      "ka": 282,
      "Å¡": 283,
      "ti": 284,
      "Ġpo": 285,
      "ta": 286,
      "la": 287,
      "ro": 288,
      "Ġna": 289,
      "Ġje": 290,
      "za": 291,
      "ve": 292,
      "te": 293,
      "vo": 294,
      "ci": 295,
      "me": 296,
      "vi": 297,
      "Ġko": 298,
      "Ġb": 299,
      "Äĩ": 300,
      "ju": 301,
      "Å¾": 302,
      "to": 303,
      "ji": 304,
      "lo": 305,
      "Ġa": 306,
      "Ġza": 307,
      "Ġda": 308,
      "mo": 309,
      "di": 310,
      "Ġse": 311,
      "le": 312,
      "da": 313,
      "nje": 314,
      "Ġsa": 315,
      "Ġg": 316,
      "Ġod": 317,
      "ru": 318,
      "sti": 319,
      "ki": 320,
      "mi": 321,
      "Ġne": 322,
      "de": 323,
      "Ġka": 324,
      "nja": 325,
      "Ġdo": 326,
      "Ġsu": 327,
      "Ġra": 328,
      "sta": 329,
      "ku": 330,
      "Ġpre": 331,
      "po": 332,
      "Ġpro": 333,
      "zi": 334,
      "ke": 335,
      "âĢ": 336,
      "Ġiz": 337,
      "Äĳ": 338,
      "Ġ(": 339,
      "ce": 340,
      "Ġpri": 341,
      "Ġt": 342,
      "nu": 343,
      "go": 344,
      "Ġe": 345,
      "Ġmo": 346,
      "Ġre": 347,
      "si": 348,
      "Ġbi": 349,
      "Ġ1": 350,
      "Äįi": 351,
      "sa": 352,
      "Ġk": 353,
      "ga": 354,
      "Ġf": 355,
      "Äįe": 356,
      "bi": 357,
      "tu": 358,
      "nih": 359,
      "Äĩe": 360,
      "se": 361,
      "Ġz": 362,
      "lu": 363,
      "Å¾e": 364,
      "ca": 365,
      "Ġve": 366,
      "nog": 367,
      "Ġde": 368,
      "pa": 369,
      "Ġme": 370,
      "Ġv": 371,
      "Ġ2": 372,
      "ba": 373,
      "ĠÅ¡": 374,
      "Ġte": 375,
      "Äįa": 376,
      "du": 377,
      "sto": 378,
      "Ġma": 379,
      "Ġto": 380,
      "Ġni": 381,
      "Å¾i": 382,
      "pi": 383,
      "ski": 384,
      "lja": 385,
      "ĠâĢ": 386,
      "sko": 387,
      "Ġkoji": 388,
      "pe": 389,
      "nom": 390,
      "lje": 391,
      "cija": 392,
      "Ġin": 393,
      "do": 394,
      "Ġob": 395,
      "cije": 396,
      "Ġgo": 397,
      "Ġh": 398,
      "Å¡e": 399,
      "nosti": 400,
      "Ġpa": 401,
      "tra": 402,
      "gu": 403,
      "or": 404,
      "be": 405,
      "Äĳe": 406,
      "Ġta": 407,
      "Ġraz": 408,
      "mu": 409,
      "Äĩi": 410,
      "nim": 411,
      "nji": 412,
      "Ġvi": 413,
      "gi": 414,
      "su": 415,
      "Å¾a": 416,
      "gra": 417,
      "Ġkao": 418,
      "jo": 419,
      "red": 420,
      "Ġmi": 421,
      "bo": 422,
      "Ġsta": 423,
      "nju": 424,
      "tiv": 425,
      "lju": 426,
      "so": 427,
      "Äĩa": 428,
      "00": 429,
      "Ġsi": 430,
      "ze": 431,
      "Ġ,": 432,
      "fi": 433,
      "ste": 434,
      "Ġli": 435,
      "Ġpra": 436,
      "zu": 437,
      "nost": 438,
      "Ġdru": 439,
      "Ġdi": 440,
      "Ġsve": 441,
      "pu": 442,
      "ho": 443,
      "vr": 444,
      "vu": 445,
      "Ġkon": 446,
      "Ġgodi": 447,
      "ske": 448,
      "ge": 449,
      "Ġ.": 450,
      "Ġno": 451,
      "zo": 452,
      "vanje": 453,
      "Ġbe": 454,
      "Äĳu": 455,
      "sno": 456,
      "Ġva": 457,
      "''": 458,
      "Å¡a": 459,
      "Ġpred": 460,
      "Ġili": 461,
      "Ġpe": 462,
      "stav": 463,
      "Ġsr": 464,
      "Ġis": 465,
      "..": 466,
      "men": 467,
      "vanja": 468,
      "Ġkoje": 469,
      "kom": 470,
      "Ġima": 471,
      "pre": 472,
      ").": 473,
      "lj": 474,
      "Å¡i": 475,
      "Ġ19": 476,
      "ĠÅ¡to": 477,
      "Ġm": 478,
      "Ġpos": 479,
      "Ġvo": 480,
      "Ġbo": 481,
      "lji": 482,
      "Ġzna": 483,
      "ĠâĢŀ": 484,
      "stu": 485,
      "Ġst": 486,
      "nika": 487,
      "Ġc": 488,
      "Ġus": 489,
      "Ġja": 490,
      "Ġba": 491,
      "Ġsvo": 492,
      "Ġpod": 493,
      "Ġnaj": 494,
      "cio": 495,
      "Äįki": 496,
      "ska": 497,
      "rÅ¾a": 498,
      "Ġgra": 499,
      "Ġodno": 500,
      "Ġ20": 501,
      "pra": 502,
      "ĠÄĩe": 503,
      "Ġtre": 504,
      "skog": 505,
      "nt": 506,
      "rija": 507,
      "Äįu": 508,
      "Ġnje": 509,
      "Ġpi": 510,
      "fe": 511,
      "Ġ3": 512,
      "âĢľ": 513,
      "Ġpu": 514,
      "),": 515,
      "Ġpot": 516,
      "Ġjed": 517,
      "Ġku": 518,
      "Ġgodine": 519,
      "Ġti": 520,
      "Ġfi": 521,
      "viÄĩ": 522,
      "stra": 523,
      "zna": 524,
      "Ġkoja": 525,
      "nal": 526,
      "Ġsamo": 527,
      "nti": 528,
      "dni": 529,
      "Ġnije": 530,
      "govo": 531,
      "Ġstra": 532,
      "ran": 533,
      "ĠmoÅ¾e": 534,
      "Ġce": 535,
      "Ġle": 536,
      "reme": 537,
      "ha": 538,
      "sni": 539,
      "noj": 540,
      "ĠÄįi": 541,
      "Ġbu": 542,
      "skih": 543,
      "Ġkori": 544,
      "Ġ-": 545,
      "Ġmogu": 546,
      "ĠâĢĵ": 547,
      "Å¡ta": 548,
      "ciju": 549,
      "Ġinte": 550,
      "liko": 551,
      "pro": 552,
      "Ġali": 553,
      "kto": 554,
      "Äĳa": 555,
      "Ġpr": 556,
      "cu": 557,
      "Ġovo": 558,
      "Ġdu": 559,
      "ĠÄįe": 560,
      "iz": 561,
      "Ġsrbi": 562,
      "Ġro": 563,
      "Å¡ti": 564,
      "Ġmu": 565,
      "Ġbro": 566,
      "Ġfa": 567,
      "Ġnji": 568,
      "lika": 569,
      "bu": 570,
      "stva": 571,
      "ĠÅ¾i": 572,
      "Ġso": 573,
      "kon": 574,
      "Ġ4": 575,
      "pri": 576,
      "Ġtu": 577,
      "stvo": 578,
      "bra": 579,
      "Ġpla": 580,
      "tro": 581,
      "on": 582,
      "he": 583,
      "vih": 584,
      "vima": 585,
      "Ġak": 586,
      "gle": 587,
      "nije": 588,
      "Ġ201": 589,
      "Ġprime": 590,
      "ĠÄį": 591,
      "Ġslu": 592,
      "Ġtako": 593,
      "Ġvr": 594,
      "Ġkom": 595,
      "Ġor": 596,
      "vlja": 597,
      "Ġlo": 598,
      "Ġga": 599,
      "Ġbio": 600,
      "Ġproce": 601,
      "Ġru": 602,
      "Å¡t": 603,
      "Ġkri": 604,
      "hi": 605,
      "Ġosno": 606,
      "Ġ200": 607,
      "Å¡te": 608,
      "Äįko": 609,
      "stavlja": 610,
      "tno": 611,
      "lek": 612,
      "Ġjo": 613,
      "ÂŃ": 614,
      "nta": 615,
      "Ġci": 616,
      "Ġze": 617,
      "ĠÉ": 618,
      "nd": 619,
      "Äĩu": 620,
      "Ġkra": 621,
      "Ġ5": 622,
      "Ġpoli": 623,
      "for": 624,
      "dno": 625,
      "vni": 626,
      "Ġspo": 627,
      "Ġkako": 628,
      "gla": 629,
      "Ġvla": 630,
      "rije": 631,
      "Ġop": 632,
      "Ġuz": 633,
      "Ġrazli": 634,
      "Ġla": 635,
      "nali": 636,
      "skom": 637,
      "meÄĳu": 638,
      "Ġlju": 639,
      "jom": 640,
      "Ġ''": 641,
      "Ġkod": 642,
      "rt": 643,
      "nda": 644,
      "Äįke": 645,
      "Ġau": 646,
      "Ġsva": 647,
      "Ġju": 648,
      "Ġot": 649,
      "ĠviÅ¡e": 650,
      "Ġtra": 651,
      "Äįno": 652,
      "Ġvred": 653,
      "Ġ\"": 654,
      "njem": 655,
      "Ġisto": 656,
      "Ġorga": 657,
      "ng": 658,
      "vim": 659,
      "vali": 660,
      "Äįaj": 661,
      "Ġposto": 662,
      "klju": 663,
      "ciji": 664,
      "vara": 665,
      "Ġgla": 666,
      "Ġgru": 667,
      "menta": 668,
      "nk": 669,
      "Ġpove": 670,
      "tim": 671,
      "kla": 672,
      "hva": 673,
      "Ġsiste": 674,
      "ĠÅ¾e": 675,
      "Éļ": 676,
      "sku": 677,
      "dan": 678,
      "Ġkada": 679,
      "vaju": 680,
      "tni": 681,
      "20": 682,
      "rak": 683,
      "lne": 684,
      "Ġdana": 685,
      "ĠdrÅ¾a": 686,
      "Ġge": 687,
      "Ġok": 688,
      "kaza": 689,
      "Ġsad": 690,
      ".,": 691,
      "Ġodre": 692,
      "Ġova": 693,
      "lta": 694,
      "âĢĿ": 695,
      "Å¡Äĩe": 696,
      "rio": 697,
      "rom": 698,
      "ĠÅ¾ivo": 699,
      "ĠuÄįe": 700,
      "Ġek": 701,
      "Ġvreme": 702,
      "skim": 703,
      "Ġbiti": 704,
      "lazi": 705,
      "loÅ¡": 706,
      "ven": 707,
      "spo": 708,
      "izvo": 709,
      "Ġ6": 710,
      "cima": 711,
      "Ġste": 712,
      "Ġdobi": 713,
      "vom": 714,
      "ogra": 715,
      "Ġslo": 716,
      "Ġal": 717,
      "Ġnjiho": 718,
      "kup": 719,
      "nica": 720,
      "van": 721,
      "Ġbez": 722,
      "Ġposle": 723,
      "al": 724,
      "ĠmeÄĳu": 725,
      "Ġoba": 726,
      "vno": 727,
      "Ġtreba": 728,
      "kre": 729,
      "tre": 730,
      "mena": 731,
      "Ġradi": 732,
      "Ġdrugi": 733,
      "Ġistra": 734,
      "Ġveli": 735,
      "Ġfu": 736,
      "rod": 737,
      "ver": 738,
      "Ġhi": 739,
      "Ġosta": 740,
      "Ġsam": 741,
      "Ġobra": 742,
      "bog": 743,
      "matra": 744,
      "tak": 745,
      "spe": 746,
      "Ġuti": 747,
      "juÄĩi": 748,
      "Ġpose": 749,
      "Ġbilo": 750,
      "teri": 751,
      "cional": 752,
      "Ġprema": 753,
      "bli": 754,
      "Ġjer": 755,
      "Ġproizvo": 756,
      "Ġbroj": 757,
      "Ġnema": 758,
      "sle": 759,
      "Ġdok": 760,
      "tom": 761,
      "ĠnaÄįi": 762,
      "Ġorgani": 763,
      "Ġfor": 764,
      "ksi": 765,
      "Ġzem": 766,
      "Ġcr": 767,
      "19": 768,
      "ĠizmeÄĳu": 769,
      "rti": 770,
      "zulta": 771,
      "teta": 772,
      "Ġstru": 773,
      "Ġsrp": 774,
      "Ġpita": 775,
      "É¢": 776,
      "vog": 777,
      "ĠveÄĩ": 778,
      "vlje": 779,
      "Å¡to": 780,
      "dra": 781,
      "Ġpoliti": 782,
      "voj": 783,
      "lni": 784,
      "tri": 785,
      "Ġide": 786,
      "Ġauto": 787,
      "Ġispi": 788,
      "ÉŁ": 789,
      "Ġ0": 790,
      "stru": 791,
      "Ġanali": 792,
      "Ġpotre": 793,
      "Ġev": 794,
      "stup": 795,
      "Ġsto": 796,
      "slo": 797,
      "lan": 798,
      "ble": 799,
      "Ġmode": 800,
      "in": 801,
      "Ġri": 802,
      "lno": 803,
      "Ġmora": 804,
      "forma": 805,
      "Äįne": 806,
      "É¨": 807,
      "Ġrad": 808,
      "rni": 809,
      "Ġstu": 810,
      "Äī": 811,
      "Ġki": 812,
      "kra": 813,
      "jedi": 814,
      "Ġoko": 815,
      "Ġkre": 816,
      "sla": 817,
      "ĠdruÅ¡t": 818,
      "skoj": 819,
      "Ġhe": 820,
      "Äįka": 821,
      "ĠistraÅ¾i": 822,
      "koliko": 823,
      "co": 824,
      "Ġzbog": 825,
      "ĠznaÄįaj": 826,
      "ktu": 827,
      "Ġupo": 828,
      "rne": 829,
      "vede": 830,
      "Ġtr": 831,
      "pisa": 832,
      "Ġgodina": 833,
      "Ġ7": 834,
      "vanju": 835,
      "Ġupra": 836,
      "Ġizra": 837,
      "joj": 838,
      "tet": 839,
      "ter": 840,
      "vodi": 841,
      "Ġpoda": 842,
      "Ġpret": 843,
      "ĠrazliÄįi": 844,
      "Ġrezulta": 845,
      "fa": 846,
      "vne": 847,
      "op": 848,
      "Äįni": 849,
      "logi": 850,
      "Ġnasta": 851,
      "Ġ18": 852,
      "Ġpredstavlja": 853,
      "kti": 854,
      "Ġbeogra": 855,
      "Ġbila": 856,
      "nima": 857,
      "Ġnjego": 858,
      "Ġvrednosti": 859,
      "Ġtri": 860,
      "Ġodnosno": 861,
      "....": 862,
      "kri": 863,
      "Ġjedi": 864,
      "kao": 865,
      "ĠÄįa": 866,
      "Ġsrbije": 867,
      "Ġsred": 868,
      "bno": 869,
      "Äĳi": 870,
      "Ġbr": 871,
      "Ġon": 872,
      "ltu": 873,
      "ren": 874,
      "log": 875,
      "fika": 876,
      "Ġsre": 877,
      "Ġuslo": 878,
      "Ġevro": 879,
      "Å¡ko": 880,
      "vati": 881,
      "Ġjezi": 882,
      "nici": 883,
      "bro": 884,
      "ako": 885,
      "Ġ8": 886,
      "Å¾u": 887,
      "Äįkog": 888,
      "niji": 889,
      "Ġposlo": 890,
      "ĠU": 891,
      "Ġ10": 892,
      "Ġobja": 893,
      "Ġha": 894,
      "tne": 895,
      "Ġnakon": 896,
      "rta": 897,
      "Ġaktiv": 898,
      "ĠpoÄįe": 899,
      "Äįkih": 900,
      "Ġfe": 901,
      "ner": 902,
      "Ġnivo": 903,
      "jem": 904,
      "Ġho": 905,
      "nija": 906,
      "Ġfunk": 907,
      "Ġstrane": 908,
      "Ġzaje": 909,
      "Ġsmo": 910,
      "Ġar": 911,
      "Ġim": 912,
      "kazu": 913,
      "Ġ199": 914,
      "tvr": 915,
      "Ġdva": 916,
      "stve": 917,
      "Ġobe": 918,
      "ĠsluÄįa": 919,
      "sli": 920,
      "Ġzako": 921,
      "man": 922,
      "Ġsli": 923,
      "fo": 924,
      "ÄĨ": 925,
      "pera": 926,
      "Ġodlu": 927,
      "Ġproble": 928,
      "ĠnaÄįin": 929,
      "vreme": 930,
      "Ġnisu": 931,
      "Ġw": 932,
      "nice": 933,
      "ranje": 934,
      "ĠjoÅ¡": 935,
      "Ġako": 936,
      "rs": 937,
      "ali": 938,
      "Ġmate": 939,
      "__": 940,
      "Ġutica": 941,
      "dom": 942,
      "Ġtoga": 943,
      "vrÅ¡i": 944,
      "nova": 945,
      "ntra": 946,
      "Ġspe": 947,
      "lija": 948,
      "ĠodreÄĳe": 949,
      "Ġpoja": 950,
      "lom": 951,
      "vnog": 952,
      "Ġjedan": 953,
      "É¨É": 954,
      "vao": 955,
      "Ġpozi": 956,
      "Ġizvo": 957,
      "pla": 958,
      "Ġvoj": 959,
      "Ġmeto": 960,
      "Ġ9": 961,
      "Ġpomo": 962,
      "Ġfo": 963,
      "Å£": 964,
      "rodi": 965,
      "Ġodgovo": 966,
      "Ġove": 967,
      "nsi": 968,
      "nzi": 969,
      "od": 970,
      "rima": 971,
      "Ġprosto": 972,
      "rno": 973,
      "Ġiza": 974,
      "roz": 975,
      "ĠzaÅ¡ti": 976,
      "Ġpore": 977,
      "Ġperio": 978,
      "Ġnad": 979,
      "Ġknji": 980,
      "10": 981,
      "Ġkonce": 982,
      "ĠÃ": 983,
      "Ġposta": 984,
      "Åł": 985,
      "Ġtokom": 986,
      "Ġgde": 987,
      "lnih": 988,
      "Ġdrugo": 989,
      "Ġoso": 990,
      "ona": 991,
      "Ġkultu": 992,
      "rij": 993,
      "Ġkarak": 994,
      "gre": 995,
      "nosi": 996,
      "Ġn": 997,
      "Ġgovo": 998,
      "Ġeko": 999,
      "Ġtek": 1000,
      "vnih": 1001,
      "Ġosnovu": 1002,
      "stupa": 1003,
      "tih": 1004,
      "Ġljudi": 1005,
      "Ġodnosu": 1006,
      "Ġteh": 1007,
      "Ġkojima": 1008,
      "kta": 1009,
      "Ġimaju": 1010,
      "Ġsvet": 1011,
      "Ġca": 1012,
      "Äįnih": 1013,
      "ÉļÉ": 1014,
      "ĠÄįla": 1015,
      "rva": 1016,
      "met": 1017,
      "Ġisti": 1018,
      "Ġmedi": 1019,
      "pada": 1020,
      "Ġtran": 1021,
      "Ġovog": 1022,
      "Ġdela": 1023,
      "Ġsvoje": 1024,
      "tera": 1025,
      "dne": 1026,
      "Ġorganiza": 1027,
      "nski": 1028,
      "É¢É": 1029,
      "kih": 1030,
      "Ġnau": 1031,
      "ĠÅ¡i": 1032,
      "ĠÅ¡ta": 1033,
      "vani": 1034,
      "Å¡u": 1035,
      "lnog": 1036,
      "ktiv": 1037,
      "Ġnego": 1038,
      "govara": 1039,
      "novi": 1040,
      "nik": 1041,
      "rna": 1042,
      "ĠÅ¡ko": 1043,
      "Ġos": 1044,
      "Ġuve": 1045,
      "Ġkoristi": 1046,
      "Ġpara": 1047,
      "lna": 1048,
      "Ġtak": 1049,
      "Ġand": 1050,
      "Ġdr": 1051,
      "nci": 1052,
      "ranja": 1053,
      "Ġsti": 1054,
      "meri": 1055,
      "volj": 1056,
      "ĠâĢľ": 1057,
      "gleda": 1058,
      "Ġsle": 1059,
      "Ġobave": 1060,
      "Ġdruge": 1061,
      "...": 1062,
      "tor": 1063,
      "nera": 1064,
      "tima": 1065,
      "hte": 1066,
      "Ġsla": 1067,
      "vla": 1068,
      "kog": 1069,
      "ktor": 1070,
      "mogu": 1071,
      "rova": 1072,
      "fini": 1073,
      "Ġkvali": 1074,
      "Ġsna": 1075,
      "Ġpojedi": 1076,
      "Ġkroz": 1077,
      "Ġdoda": 1078,
      "ndar": 1079,
      "Å¡nje": 1080,
      "Ġsme": 1081,
      "manje": 1082,
      "Ġzdra": 1083,
      "nata": 1084,
      "Ġgu": 1085,
      "Äįna": 1086,
      "Ġdeo": 1087,
      "taka": 1088,
      "vnom": 1089,
      "000": 1090,
      "mati": 1091,
      "Ġpravo": 1092,
      "Ġpravi": 1093,
      "mina": 1094,
      "âĢĵ": 1095,
      "nske": 1096,
      "Ġdelo": 1097,
      "Ġkla": 1098,
      "ĠveÄĩi": 1099,
      "ĠI": 1100,
      "Ġregi": 1101,
      "Ġof": 1102,
      "Ġkoju": 1103,
      "Ġzapo": 1104,
      "Ġloka": 1105,
      "Ġobla": 1106,
      "kim": 1107,
      "stitu": 1108,
      "Ġkontro": 1109,
      "ncija": 1110,
      "tar": 1111,
      "Ġokvi": 1112,
      "Ġprome": 1113,
      "nte": 1114,
      "stvu": 1115,
      "Ġpopu": 1116,
      "Ġprava": 1117,
      "Ġpredu": 1118,
      "ÉŁÉ": 1119,
      "vre": 1120,
      "Ġprotiv": 1121,
      "tka": 1122,
      "Ġjedna": 1123,
      "godi": 1124,
      "kova": 1125,
      "Ġ:": 1126,
      "vio": 1127,
      "Ġmaterija": 1128,
      "pr": 1129,
      "Ġinforma": 1130,
      "Ġ15": 1131,
      "Ġstva": 1132,
      "Ġzahte": 1133,
      "ove": 1134,
      "Ġtome": 1135,
      "Ġona": 1136,
      "ĠpoveÄĩa": 1137,
      "ova": 1138,
      "kada": 1139,
      "Ġuspe": 1140,
      "Ġih": 1141,
      "Ġzajedni": 1142,
      "Ġuni": 1143,
      "Ġtaj": 1144,
      "Ġsistema": 1145,
      "slu": 1146,
      "Ġpreko": 1147,
      "rma": 1148,
      "Ġbra": 1149,
      "liza": 1150,
      "Ġnovi": 1151,
      "Ġviso": 1152,
      "Ġsmatra": 1153,
      "Ġovom": 1154,
      "vna": 1155,
      "dru": 1156,
      "12": 1157,
      "Ġbude": 1158,
      "Ġprogra": 1159,
      "ĠÅł": 1160,
      "klo": 1161,
      "Ġmar": 1162,
      "¿½": 1163,
      "ï¿½": 1164,
      "Äįnog": 1165,
      "Ġrepu": 1166,
      "rek": 1167,
      "Ġproje": 1168,
      "Ġupotre": 1169,
      "riji": 1170,
      "Ġbudu": 1171,
      "ĠÅ¡e": 1172,
      "cijama": 1173,
      "Ġsvoji": 1174,
      "dova": 1175,
      "kle": 1176,
      "Ġsave": 1177,
      "Ġsvi": 1178,
      "Ġbili": 1179,
      "Ġfina": 1180,
      "âĢľ,": 1181,
      "Ġstudi": 1182,
      "Ġ12": 1183,
      "Ġtro": 1184,
      "dna": 1185,
      "Ġdefini": 1186,
      "ĠkoriÅ¡Äĩe": 1187,
      "Ġnepo": 1188,
      "Ġsara": 1189,
      "vija": 1190,
      "Ġovaj": 1191,
      "11": 1192,
      "loga": 1193,
      "Ġutvr": 1194,
      "Ġkarakteri": 1195,
      "Ġpostoji": 1196,
      "ar": 1197,
      "pred": 1198,
      "Ġdve": 1199,
      "plo": 1200,
      "Ġsada": 1201,
      "Ġan": 1202,
      "nogo": 1203,
      "Ġzavi": 1204,
      "Ġsrbiji": 1205,
      "sne": 1206,
      "bri": 1207,
      "Ġrazvo": 1208,
      "om": 1209,
      "Ġmini": 1210,
      "Ġporodi": 1211,
      "ĠsadrÅ¾a": 1212,
      "Ġteo": 1213,
      "zira": 1214,
      "kako": 1215,
      "tna": 1216,
      "bor": 1217,
      "noviÄĩ": 1218,
      "Ġostva": 1219,
      "nka": 1220,
      "sije": 1221,
      "Ġpokaza": 1222,
      "sve": 1223,
      "cijom": 1224,
      "ĠtakoÄĳe": 1225,
      "Ġdece": 1226,
      "zova": 1227,
      "tako": 1228,
      "Ġstruktu": 1229,
      "tiva": 1230,
      "Ġper": 1231,
      "tua": 1232,
      "Ġuklju": 1233,
      "ĠmoguÄĩ": 1234,
      "stavlje": 1235,
      "dio": 1236,
      "Äĳenje": 1237,
      "Ġrada": 1238,
      "Ġelek": 1239,
      "hu": 1240,
      "nskog": 1241,
      "Ġinter": 1242,
      "zma": 1243,
      "Ġproizvod": 1244,
      "oma": 1245,
      "razu": 1246,
      "Ġmla": 1247,
      "uze": 1248,
      "Ġobje": 1249,
      "Ġslobo": 1250,
      "Ġpar": 1251,
      "Ġad": 1252,
      "tion": 1253,
      "viÅ¡e": 1254,
      "Ġele": 1255,
      "menu": 1256,
      "Ġprili": 1257,
      "Ġbole": 1258,
      "Ġevrop": 1259,
      "vrÅ¡e": 1260,
      "Ġmeta": 1261,
      "Ġlu": 1262,
      "ment": 1263,
      "Ġkr": 1264,
      "Ġvu": 1265,
      "Ġispita": 1266,
      "Ġnalazi": 1267,
      "Ġosi": 1268,
      "Ġprisu": 1269,
      "star": 1270,
      "kva": 1271,
      "Ġkli": 1272,
      "Ġthe": 1273,
      "vije": 1274,
      "nce": 1275,
      "Ġsmi": 1276,
      "dite": 1277,
      "Ġnu": 1278,
      "Ġsvoj": 1279,
      "Ġnajve": 1280,
      "kcije": 1281,
      "ĠdruÅ¡tve": 1282,
      "Ġoni": 1283,
      "tem": 1284,
      "kro": 1285,
      "ĠÄįu": 1286,
      "Ġobli": 1287,
      "Ġdanas": 1288,
      "Ġobi": 1289,
      "mira": 1290,
      "stava": 1291,
      "vanjem": 1292,
      "meta": 1293,
      "koviÄĩ": 1294,
      "Äįenja": 1295,
      "Ġ)": 1296,
      "Ġskla": 1297,
      "pita": 1298,
      "kata": 1299,
      "15": 1300,
      "Ġpozna": 1301,
      "18": 1302,
      "Ġfinansi": 1303,
      "mat": 1304,
      "ĠA": 1305,
      "Ġpreduze": 1306,
      "Ġvra": 1307,
      "ĠsluÄįaju": 1308,
      "Ġodgovara": 1309,
      "hvata": 1310,
      "Ġrepubli": 1311,
      "bora": 1312,
      "Ġzaklju": 1313,
      "Å¡ka": 1314,
      "ĠÂ": 1315,
      "tio": 1316,
      "Ġnaro": 1317,
      "ch": 1318,
      "13": 1319,
      "Ġener": 1320,
      "sio": 1321,
      "ĠistraÅ¾ivanja": 1322,
      "Ġ13": 1323,
      "Ġsredi": 1324,
      "nama": 1325,
      "Ġjedno": 1326,
      "Ġono": 1327,
      "Ġ14": 1328,
      "vesti": 1329,
      "Ġunu": 1330,
      "Å¾be": 1331,
      "zima": 1332,
      "14": 1333,
      "Ġime": 1334,
      "Ġpretho": 1335,
      "njima": 1336,
      "Ġslede": 1337,
      "Äįkom": 1338,
      "bar": 1339,
      "Ġaktivnosti": 1340,
      "Ġ/": 1341,
      "Ġugovo": 1342,
      "Ġtom": 1343,
      "Ġobu": 1344,
      "Äįkim": 1345,
      "Å¡nji": 1346,
      "ĠM": 1347,
      "Ġdija": 1348,
      "Äĳenja": 1349,
      "Ġinstitu": 1350,
      "Ġoblasti": 1351,
      "vred": 1352,
      "Ġmere": 1353,
      "Ġsvih": 1354,
      "Ġdra": 1355,
      "vine": 1356,
      "Ġjugo": 1357,
      "Ġgrupe": 1358,
      "Ġdobro": 1359,
      "Äįuna": 1360,
      "janje": 1361,
      "snosti": 1362,
      "Ġet": 1363,
      "laze": 1364,
      "prema": 1365,
      "Ġnacional": 1366,
      "ndi": 1367,
      "Ġveoma": 1368,
      "ktora": 1369,
      "Ġtim": 1370,
      "Ġap": 1371,
      "mije": 1372,
      "Ġusta": 1373,
      "Ġpotpu": 1374,
      "Ġ198": 1375,
      "Ġose": 1376,
      "Ġpostoje": 1377,
      "mini": 1378,
      "ljivo": 1379,
      "Ġpolo": 1380,
      "sija": 1381,
      "kazuje": 1382,
      "Ġobrazo": 1383,
      "Ãł": 1384,
      "tisti": 1385,
      "tku": 1386,
      "Äįan": 1387,
      "nde": 1388,
      "Ġbeograd": 1389,
      "Ġkarakteristi": 1390,
      "Ġnas": 1391,
      "tivno": 1392,
      "Å¾no": 1393,
      "Ġmnogo": 1394,
      "Ġrazvoj": 1395,
      "Ġpona": 1396,
      "Ġnekoliko": 1397,
      "Ġnjegovo": 1398,
      "Ġ17": 1399,
      "tira": 1400,
      "Ġigra": 1401,
      "rÅ¾i": 1402,
      "Ġbri": 1403,
      "Ġdalje": 1404,
      "Ġrea": 1405,
      "âĢĻ": 1406,
      "Ġkojoj": 1407,
      "Ġkomp": 1408,
      "Ġkomu": 1409,
      "Ġkome": 1410,
      "sna": 1411,
      "Ġukup": 1412,
      "Ġpredse": 1413,
      "gao": 1414,
      "Ġprvi": 1415,
      "ĠreÅ¡e": 1416,
      "ĠB": 1417,
      "Ġomogu": 1418,
      "Ġtele": 1419,
      "ĠpovrÅ¡i": 1420,
      "200": 1421,
      "Ġsitua": 1422,
      "Ġanti": 1423,
      "vala": 1424,
      "Ġraspo": 1425,
      "ĠÅ¡a": 1426,
      "vore": 1427,
      "cioni": 1428,
      "Ã¨": 1429,
      "tnih": 1430,
      "Ġ16": 1431,
      "Ġefe": 1432,
      "tora": 1433,
      "Ġstano": 1434,
      "Ġvode": 1435,
      "Ġen": 1436,
      "Ġneza": 1437,
      "Ġpokre": 1438,
      "Ġsocija": 1439,
      "lnim": 1440,
      "Ġmese": 1441,
      "lim": 1442,
      "nskih": 1443,
      "sao": 1444,
      "Ġizve": 1445,
      "Ġprija": 1446,
      "kat": 1447,
      "Ġpodataka": 1448,
      "Ã¥": 1449,
      "Ġkrivi": 1450,
      "zni": 1451,
      "Ġfil": 1452,
      "tivne": 1453,
      "16": 1454,
      "«É": 1455,
      "Ġspro": 1456,
      "Ġokviru": 1457,
      "jan": 1458,
      "ĠgraÄĳa": 1459,
      "Ġvide": 1460,
      "dnik": 1461,
      "pli": 1462,
      "Ġgrad": 1463,
      "zbe": 1464,
      "Ġintere": 1465,
      "zije": 1466,
      "Ġidenti": 1467,
      "mom": 1468,
      "Ġume": 1469,
      "22": 1470,
      "gije": 1471,
      "sob": 1472,
      "ĠodrÅ¾a": 1473,
      "Ġgrupa": 1474,
      "ns": 1475,
      "Ġindi": 1476,
      "Ġpote": 1477,
      "Ġtrenu": 1478,
      "Ġnavede": 1479,
      "Ġeu": 1480,
      "bela": 1481,
      "kve": 1482,
      "Ġprikaza": 1483,
      "Ġkad": 1484,
      "ĠS": 1485,
      "Ġdoma": 1486,
      "Ġneu": 1487,
      "ĠmeÄĳuna": 1488,
      "Ġzemlji": 1489,
      "Ġstvara": 1490,
      "tek": 1491,
      "Ġdrugih": 1492,
      "vana": 1493,
      "Äĳuje": 1494,
      "Ġulo": 1495,
      "uz": 1496,
      "lih": 1497,
      "Ġprepo": 1498,
      "Ġsistem": 1499,
      "tnog": 1500,
      "ĠÄįita": 1501,
      "zija": 1502,
      "Éª": 1503,
      "Ġpru": 1504,
      "Ġsko": 1505,
      "Ġdobije": 1506,
      "janja": 1507,
      "Ġameri": 1508,
      "Ġput": 1509,
      "snika": 1510,
      "pad": 1511,
      "jske": 1512,
      "Ġuo": 1513,
      "Ġekonom": 1514,
      "naj": 1515,
      "17": 1516,
      "Äįku": 1517,
      "lacije": 1518,
      "\",": 1519,
      "risti": 1520,
      "Å¡tu": 1521,
      "........": 1522,
      "Ġuvek": 1523,
      "Ġeks": 1524,
      "raz": 1525,
      "ĠuÄįi": 1526,
      "Äįenje": 1527,
      "Ġtem": 1528,
      "âĢŀ": 1529,
      "Ġnam": 1530,
      "Ġnarod": 1531,
      "Ġfizi": 1532,
      "per": 1533,
      "jski": 1534,
      "ĠtrÅ¾i": 1535,
      "Äįnim": 1536,
      "Ġizda": 1537,
      "ĠreÄįi": 1538,
      "Ġstatisti": 1539,
      "lnom": 1540,
      "Ġvas": 1541,
      "Ġdvo": 1542,
      "Ġvrednost": 1543,
      "com": 1544,
      "Ġspre": 1545,
      "ume": 1546,
      "diti": 1547,
      "ĠkaÅ¾e": 1548,
      "Ġkompa": 1549,
      "Ġnazi": 1550,
      "Ġrizi": 1551,
      "Ġnove": 1552,
      "Ġveza": 1553,
      "Äįnosti": 1554,
      "Ġras": 1555,
      "Ġhra": 1556,
      "ĠnaÅ¡e": 1557,
      "Ġdelu": 1558,
      "Ġpostup": 1559,
      "slika": 1560,
      "Ġpacije": 1561,
      "vnim": 1562,
      "Ġispo": 1563,
      "Ġupravlja": 1564,
      "stri": 1565,
      "Ġkar": 1566,
      "Ġx": 1567,
      "ĠÎ": 1568,
      "grani": 1569,
      "Ġnedo": 1570,
      "âĢľ.": 1571,
      "Ġstandar": 1572,
      "Ġputa": 1573,
      "vod": 1574,
      "Ġname": 1575,
      "kul": 1576,
      "lije": 1577,
      "Ġnapo": 1578,
      "Ġone": 1579,
      "Ġvarija": 1580,
      "grafi": 1581,
      "Ġposti": 1582,
      "Ġposebno": 1583,
      "viti": 1584,
      "gli": 1585,
      "Ġure": 1586,
      "Ġobzi": 1587,
      "laga": 1588,
      "Ġnjih": 1589,
      "Ġobezbe": 1590,
      "grad": 1591,
      "Ġr": 1592,
      "sam": 1593,
      "lnosti": 1594,
      "ĠneÅ¡to": 1595,
      "pak": 1596,
      "ĠÄįove": 1597,
      "kcija": 1598,
      "lima": 1599,
      "Ġsub": 1600,
      "Ġplani": 1601,
      "ĠC": 1602,
      "Å¡nja": 1603,
      "Ġtrans": 1604,
      "Ġmalo": 1605,
      "Ġkomenta": 1606,
      "snije": 1607,
      "Ġneko": 1608,
      "Ġvremena": 1609,
      "Ġpoveza": 1610,
      "Ġskladu": 1611,
      "fu": 1612,
      "rnog": 1613,
      "stro": 1614,
      "nska": 1615,
      "Ġfran": 1616,
      "Ġpotvr": 1617,
      "Ġnastav": 1618,
      "Êģ": 1619,
      "Ġnajbo": 1620,
      "Ġsm": 1621,
      "Ġsud": 1622,
      "Ġuniver": 1623,
      "kuje": 1624,
      "rske": 1625,
      "Ġelektro": 1626,
      "sima": 1627,
      "obra": 1628,
      "rnih": 1629,
      "ii": 1630,
      "Ġ30": 1631,
      "ĠdrÅ¾ava": 1632,
      "Ġovih": 1633,
      "____": 1634,
      "tke": 1635,
      "ĠâĢĶ": 1636,
      "Ġdina": 1637,
      "Ġkore": 1638,
      "Ġgenera": 1639,
      "Ġzi": 1640,
      "Ġstepe": 1641,
      "nad": 1642,
      "Ġposled": 1643,
      "Ġvezi": 1644,
      "Å¡ava": 1645,
      "Ġgre": 1646,
      "Ġoce": 1647,
      "Ġonda": 1648,
      "nke": 1649,
      "Ġpodru": 1650,
      "nos": 1651,
      "Ġdruga": 1652,
      "Ġmanje": 1653,
      "Ġslika": 1654,
      "raju": 1655,
      "Ġmili": 1656,
      "ĠopÅ¡ti": 1657,
      "ĠÄįesto": 1658,
      "Ġpitanje": 1659,
      "tog": 1660,
      "ÉŃ": 1661,
      "loÅ¾e": 1662,
      "snost": 1663,
      "Å¡Äĩu": 1664,
      "tori": 1665,
      "Ġuslu": 1666,
      "ĠoÄįe": 1667,
      "Ġter": 1668,
      "Ġposledi": 1669,
      "ks": 1670,
      "Ġprimer": 1671,
      "Ġcentra": 1672,
      "Ġisku": 1673,
      "Ġsar": 1674,
      "opho": 1675,
      "Ġvlada": 1676,
      "Ġparti": 1677,
      "Äĳena": 1678,
      "vde": 1679,
      "Ġproda": 1680,
      "Ġmre": 1681,
      "Ġveka": 1682,
      "Ġmesto": 1683,
      "Äĩem": 1684,
      "som": 1685,
      "peratu": 1686,
      "ĠÄįak": 1687,
      "Ġkoncentra": 1688,
      "Ġ197": 1689,
      "is": 1690,
      "Ġbli": 1691,
      "san": 1692,
      "Äĳen": 1693,
      "Ġkompo": 1694,
      "Ġmnog": 1695,
      "Ġministar": 1696,
      "kovi": 1697,
      "ĠÅ¾ivot": 1698,
      "Å¡lje": 1699,
      "zam": 1700,
      "ĠÅ¾ivota": 1701,
      "Ġzaposle": 1702,
      "Ġdopri": 1703,
      "ĠÄįini": 1704,
      "21": 1705,
      "Å¡ke": 1706,
      "line": 1707,
      "Ġprote": 1708,
      "ljo": 1709,
      "Äįkoj": 1710,
      "50": 1711,
      "Ġperiodu": 1712,
      "gnu": 1713,
      "sor": 1714,
      "Ġgr": 1715,
      "Ġsvim": 1716,
      "Äįnom": 1717,
      "Ġrekao": 1718,
      "Ġniko": 1719,
      "ĠdrÅ¾ave": 1720,
      "Ġekspe": 1721,
      "Ġbor": 1722,
      "Ġjednom": 1723,
      "Ġam": 1724,
      "Ġmaj": 1725,
      "'',": 1726,
      "ĠmeÄĳunarod": 1727,
      "Ġkate": 1728,
      "zvo": 1729,
      "Ġkoli": 1730,
      "Ġljud": 1731,
      "Ġpoku": 1732,
      "Å¡ao": 1733,
      "cifi": 1734,
      "Ġtehno": 1735,
      "Ġkru": 1736,
      "Ġokru": 1737,
      "vac": 1738,
      "Ġprofe": 1739,
      "oni": 1740,
      "Ġsvega": 1741,
      "meÄĳutim": 1742,
      "Ġpono": 1743,
      "Äĩeg": 1744,
      "âĢ¦": 1745,
      "Ġsim": 1746,
      "tan": 1747,
      "Ġindu": 1748,
      "kazuju": 1749,
      "vra": 1750,
      "Ġstr": 1751,
      "Ġlica": 1752,
      "Ġtvr": 1753,
      "Ġsvojim": 1754,
      "Ġtemperatu": 1755,
      "an": 1756,
      "drÅ¾a": 1757,
      "Ġvidi": 1758,
      "Ġpored": 1759,
      "Ġprodu": 1760,
      "Ġbeogradu": 1761,
      "Ġneki": 1762,
      "Ġuticaj": 1763,
      "Ġgovori": 1764,
      "Ġograni": 1765,
      "Ġrazvoja": 1766,
      "kav": 1767,
      "oj": 1768,
      "Ġradu": 1769,
      "Ġodgovor": 1770,
      "Å¡lo": 1771,
      "Ġneopho": 1772,
      "Ġposmatra": 1773,
      "sova": 1774,
      "Ġsup": 1775,
      "Ġzdrav": 1776,
      "ĠponaÅ¡a": 1777,
      "Ġ11": 1778,
      "ss": 1779,
      "zacije": 1780,
      "glo": 1781,
      "Ġtada": 1782,
      "Ġkojih": 1783,
      "Ġzemlje": 1784,
      "Ġ194": 1785,
      "telj": 1786,
      "Ġsvoju": 1787,
      "Ġstrate": 1788,
      "Ġdoku": 1789,
      "jskih": 1790,
      "leksa": 1791,
      "Ġuna": 1792,
      "ĠknjiÅ¾e": 1793,
      "Ġveliki": 1794,
      "bina": 1795,
      "Ġpromene": 1796,
      "lago": 1797,
      "Ġkoriste": 1798,
      "ĠÄįinje": 1799,
      "Ġmuzi": 1800,
      "qu": 1801,
      "Ġnivou": 1802,
      "menata": 1803,
      "Ġsmanje": 1804,
      "Ġspa": 1805,
      "Ġreali": 1806,
      "bru": 1807,
      "Ñı": 1808,
      "lac": 1809,
      "renja": 1810,
      "ĠpodruÄį": 1811,
      "gled": 1812,
      "Ġzakona": 1813,
      "Ġdrugim": 1814,
      "Ġsvako": 1815,
      "dija": 1816,
      "lnu": 1817,
      "Ġzada": 1818,
      "Ġizo": 1819,
      "Ġvre": 1820,
      "Ġco": 1821,
      "Ġprocesa": 1822,
      "pis": 1823,
      "um": 1824,
      "kraji": 1825,
      "pisu": 1826,
      "zom": 1827,
      "feren": 1828,
      "Äĩih": 1829,
      "âĢĿ,": 1830,
      "laz": 1831,
      "ĠD": 1832,
      "Ġveliko": 1833,
      "Ġvlasti": 1834,
      "Ġpodr": 1835,
      "ksa": 1836,
      "titi": 1837,
      "razume": 1838,
      "ĠP": 1839,
      "Ġsarad": 1840,
      "gne": 1841,
      "Ġskup": 1842,
      "Ġozna": 1843,
      "ĠrazliÄįitih": 1844,
      "Ġke": 1845,
      "rvat": 1846,
      "Å¡tva": 1847,
      "Ġopera": 1848,
      "Ġdis": 1849,
      "Ġefika": 1850,
      "Ġpriro": 1851,
      "Ġprilikom": 1852,
      "Ġuzor": 1853,
      "Ġbroja": 1854,
      "liti": 1855,
      "smo": 1856,
      "risa": 1857,
      "Ġuspo": 1858,
      "Ġposeb": 1859,
      "Ġpode": 1860,
      "ĠmoguÄĩe": 1861,
      "tivni": 1862,
      "tvo": 1863,
      "ĠznaÄįa": 1864,
      "Ġjeste": 1865,
      "gaÄĳa": 1866,
      "Ġpitanja": 1867,
      "ĠneÄĩe": 1868,
      "vina": 1869,
      "Ġ&": 1870,
      "Ġproces": 1871,
      "ĠÄįlan": 1872,
      "Ġrela": 1873,
      "blje": 1874,
      "Ġizme": 1875,
      "Ġjednog": 1876,
      "Ġrepublike": 1877,
      "30": 1878,
      "ima": 1879,
      "Ġdirek": 1880,
      "Å¾an": 1881,
      "hani": 1882,
      "ple": 1883,
      "ber": 1884,
      "voje": 1885,
      "Ġpotencija": 1886,
      "snik": 1887,
      "Ġvrsta": 1888,
      "Ġporu": 1889,
      "tin": 1890,
      "Ġukoliko": 1891,
      "Ġoda": 1892,
      "tiri": 1893,
      "Ġdolazi": 1894,
      "Ġsmislu": 1895,
      "Ġjezika": 1896,
      "ĠznaÄįi": 1897,
      "Ġbezbe": 1898,
      "Ġpredvi": 1899,
      "en": 1900,
      "Ġposla": 1901,
      "vlju": 1902,
      "Ġl": 1903,
      "Ġobo": 1904,
      "bije": 1905,
      "tere": 1906,
      "Ġiako": 1907,
      "vnosti": 1908,
      "kad": 1909,
      "Ġepi": 1910,
      "jskog": 1911,
      "ĠznaÄįajno": 1912,
      "Ġpotrebno": 1913,
      "Ġtrebalo": 1914,
      "Ġnega": 1915,
      "Äĳeno": 1916,
      "Ġmodela": 1917,
      "mana": 1918,
      "logije": 1919,
      "Ġodnosi": 1920,
      "Ġ25": 1921,
      "Ġkoliko": 1922,
      "tetu": 1923,
      "leÅ¾": 1924,
      "Ġvodi": 1925,
      "Ġprose": 1926,
      "Ġtehni": 1927,
      "Ġugla": 1928,
      "Ġzado": 1929,
      "Ġ24": 1930,
      "lisa": 1931,
      "jeva": 1932,
      "tt": 1933,
      "Ġpisa": 1934,
      "vremeno": 1935,
      "kama": 1936,
      "Ġcilje": 1937,
      "vode": 1938,
      "Ġkise": 1939,
      "Ġpet": 1940,
      "Ġista": 1941,
      "Ġug": 1942,
      "Ġmeri": 1943,
      "Ġvam": 1944,
      "vje": 1945,
      "ww": 1946,
      "Ġkva": 1947,
      "Ġtradi": 1948,
      "Ġkriti": 1949,
      "Ġpsi": 1950,
      "Ġuda": 1951,
      "25": 1952,
      "voji": 1953,
      "ĠvaÅ¾": 1954,
      "Ġspecifi": 1955,
      "kli": 1956,
      "Ġregu": 1957,
      "mer": 1958,
      ".-": 1959,
      "Ġdemo": 1960,
      "Ã®": 1961,
      "Ġfakul": 1962,
      "Ġneke": 1963,
      "Ġispiti": 1964,
      "Ġarhi": 1965,
      "rana": 1966,
      "logija": 1967,
      "Äįiti": 1968,
      "gen": 1969,
      "vca": 1970,
      "Äįine": 1971,
      "Ġrazume": 1972,
      "Äįnu": 1973,
      "Ġvrste": 1974,
      "isto": 1975,
      "rd": 1976,
      "Ġkatego": 1977,
      "Ġrado": 1978,
      ");": 1979,
      "zuje": 1980,
      "nak": 1981,
      "takoÄĳe": 1982,
      "bre": 1983,
      "ĠÅ¾": 1984,
      "É§": 1985,
      "Ġmesta": 1986,
      "Ġmisli": 1987,
      "laza": 1988,
      "njuje": 1989,
      "nio": 1990,
      "Ġteri": 1991,
      "ll": 1992,
      "zdu": 1993,
      "Ġzakon": 1994,
      "Ġplo": 1995,
      "Ġdugo": 1996,
      "Ġeksperi": 1997,
      "ÄįiÄĩ": 1998,
      "tivnih": 1999,
      "ĠreÄį": 2000,
      "Ġver": 2001,
      "Ġproblem": 2002,
      "Ġdozvo": 2003,
      "Ġode": 2004,
      "Ġopre": 2005,
      "bio": 2006,
      "tko": 2007,
      "vila": 2008,
      "Ġdone": 2009,
      "Ġosigu": 2010,
      "jte": 2011,
      "ĠraÄįuna": 2012,
      "Ġ196": 2013,
      "sre": 2014,
      "Ġpodrazume": 2015,
      "mera": 2016,
      "Ġpromena": 2017,
      "Ġcilj": 2018,
      "Ġpitanju": 2019,
      "Ġupu": 2020,
      "ĠukljuÄįu": 2021,
      "voljno": 2022,
      "Ġtj": 2023,
      "Äįina": 2024,
      "Ġuslovima": 2025,
      "ĠpomoÄĩ": 2026,
      "Ġura": 2027,
      "Ġkoncep": 2028,
      "ĠÄįemu": 2029,
      "cep": 2030,
      "metri": 2031,
      "Ġnase": 2032,
      "Ġsaj": 2033,
      "Ġpogo": 2034,
      "Ġsrbija": 2035,
      "Äįava": 2036,
      "para": 2037,
      "Ġrezultati": 2038,
      "ĠN": 2039,
      "Ġstude": 2040,
      "Ġpostupa": 2041,
      "Ġzapa": 2042,
      "ĠpoÅ¡to": 2043,
      "Ġdefinisa": 2044,
      "mima": 2045,
      "Ġunutra": 2046,
      "Ġneo": 2047,
      "Ġfrancu": 2048,
      "Ġpojedina": 2049,
      "Ġvan": 2050,
      "Ġbile": 2051,
      "rovatno": 2052,
      "niti": 2053,
      "Ġsigu": 2054,
      "Ġkasnije": 2055,
      "dese": 2056,
      "Ġsposob": 2057,
      "Ġdete": 2058,
      "Ġbolesti": 2059,
      "Ġhrvat": 2060,
      "Ġizja": 2061,
      "Ġmodel": 2062,
      "Ġrazliku": 2063,
      "ĠdogaÄĳa": 2064,
      "ĠoseÄĩa": 2065,
      "rani": 2066,
      "ime": 2067,
      "jum": 2068,
      "Ġprima": 2069,
      "Ġkojim": 2070,
      "ĠizveÅ¡ta": 2071,
      "Ġfoto": 2072,
      "Ġizuze": 2073,
      "Ġprvo": 2074,
      "br": 2075,
      "dro": 2076,
      "ðĿ": 2077,
      "Å¾da": 2078,
      "lacija": 2079,
      "Ġzatim": 2080,
      "Ġnede": 2081,
      "Ġgrada": 2082,
      "23": 2083,
      "Ġkraju": 2084,
      "Ġisklju": 2085,
      "th": 2086,
      "us": 2087,
      "kte": 2088,
      "Ġispitanika": 2089,
      "Ġodnosa": 2090,
      "loÅ¡ki": 2091,
      "Ġmehani": 2092,
      "Ġiznosi": 2093,
      "Ġnavodi": 2094,
      "Ġvrlo": 2095,
      "sr": 2096,
      "ĠT": 2097,
      "Ġmikro": 2098,
      "Ġgle": 2099,
      "Å¡lja": 2100,
      "Ġglu": 2101,
      "son": 2102,
      "mpa": 2103,
      "24": 2104,
      "Å¾enje": 2105,
      "Ġstvari": 2106,
      "lina": 2107,
      "tivna": 2108,
      "Ġrazlika": 2109,
      "Ġdan": 2110,
      "Ġpriti": 2111,
      "lnost": 2112,
      "we": 2113,
      "Ġsavreme": 2114,
      "Ġsami": 2115,
      "ĠÄįetiri": 2116,
      "Ġhu": 2117,
      "jima": 2118,
      "Ġklasi": 2119,
      "Ġzdravstve": 2120,
      "pravo": 2121,
      "njih": 2122,
      "Ġjedne": 2123,
      "Ġsma": 2124,
      "Ġproizvoda": 2125,
      "Ġrata": 2126,
      "Ġ=": 2127,
      "ĠmiÅ¡lje": 2128,
      "tivi": 2129,
      "Ġtrgo": 2130,
      "mor": 2131,
      "tnosti": 2132,
      "Ġstanovni": 2133,
      "bom": 2134,
      "Ġpobe": 2135,
      "ĠmoguÄĩnost": 2136,
      "ÃŃ": 2137,
      "rka": 2138,
      "Äĳivanje": 2139,
      "ÄįeÅ¡Äĩe": 2140,
      "Ġzo": 2141,
      "zora": 2142,
      "Ġanaliza": 2143,
      "Ġimao": 2144,
      "Ġï": 2145,
      "ĠzaÅ¡tite": 2146,
      "Ġopa": 2147,
      "Ġosoba": 2148,
      "led": 2149,
      "noÅ¡e": 2150,
      "ĠnaÅ¡": 2151,
      "ĠK": 2152,
      "Ġtru": 2153,
      "nca": 2154,
      "Ġbrzi": 2155,
      "renje": 2156,
      "Ġdobija": 2157,
      "Ġlice": 2158,
      "Ġpotro": 2159,
      "Ġ50": 2160,
      "Ġprona": 2161,
      "ĠdruÅ¡tva": 2162,
      "Ġsrpske": 2163,
      "Ġnovo": 2164,
      "Ġotkri": 2165,
      "riju": 2166,
      "gar": 2167,
      "Ġovoj": 2168,
      "Ġkomunika": 2169,
      "dnosti": 2170,
      "tabela": 2171,
      "tnom": 2172,
      "Ġtog": 2173,
      "Ġuniverzi": 2174,
      "Ġ<": 2175,
      "tnim": 2176,
      "Ġponu": 2177,
      "bija": 2178,
      "Ġstav": 2179,
      "Ġvazdu": 2180,
      "vale": 2181,
      "gija": 2182,
      "Ġputem": 2183,
      "vez": 2184,
      "vnu": 2185,
      "ovo": 2186,
      "ty": 2187,
      "Ġzato": 2188,
      "Ëĩ": 2189,
      "Ġmaterijala": 2190,
      "Ġsvr": 2191,
      "Ġnorma": 2192,
      "Ġkomi": 2193,
      "Ġemi": 2194,
      "Ġobzirom": 2195,
      "Ġterito": 2196,
      "Ġpretpo": 2197,
      "Ġovim": 2198,
      "opÅ¡te": 2199,
      "Ġzlo": 2200,
      "Ġsveta": 2201,
      "dnih": 2202,
      "Ġsvom": 2203,
      "Ġit": 2204,
      "Ġâ": 2205,
      "ĠpaÅ¾": 2206,
      "Ġzemlja": 2207,
      "ÄĬ": 2208,
      "rent": 2209,
      "Ġanalize": 2210,
      "bele": 2211,
      "Ìģ": 2212,
      "Ġdire": 2213,
      "Ġzahteva": 2214,
      "viÄĩa": 2215,
      "kar": 2216,
      "ina": 2217,
      "ban": 2218,
      "Ġkonsta": 2219,
      "Ġprinci": 2220,
      "Ġdrugog": 2221,
      "rvi": 2222,
      "Ġsubje": 2223,
      "rena": 2224,
      "Ġnjima": 2225,
      "Ġformi": 2226,
      "Ġpola": 2227,
      "Ġpora": 2228,
      "ĠE": 2229,
      "im": 2230,
      "Ġispu": 2231,
      "ĠtroÅ¡ko": 2232,
      "il": 2233,
      "tova": 2234,
      "Ġinvesti": 2235,
      "Ġpriva": 2236,
      "Ġuglavnom": 2237,
      "riti": 2238,
      "Ġsvaki": 2239,
      "Å¡Äĩa": 2240,
      "Ġoslo": 2241,
      "dina": 2242,
      "Ġkonku": 2243,
      "Ġindust": 2244,
      "pozi": 2245,
      "kaz": 2246,
      "Ġklju": 2247,
      "Ġproblema": 2248,
      "nove": 2249,
      "tivnog": 2250,
      "Ã©": 2251,
      "Ġradio": 2252,
      "vili": 2253,
      "lka": 2254,
      "Ġgubi": 2255,
      "Ġpristup": 2256,
      "tkom": 2257,
      "tovo": 2258,
      "Ġjugosla": 2259,
      "ĠmoguÄĩnosti": 2260,
      "Ġkola": 2261,
      "ĠistraÅ¾iva": 2262,
      "movi": 2263,
      "Ġdise": 2264,
      "gledu": 2265,
      "kr": 2266,
      "Ġjavlja": 2267,
      "Ġodnos": 2268,
      "lova": 2269,
      "Ġtera": 2270,
      "Ġy": 2271,
      "Ġrodite": 2272,
      "Ġupravo": 2273,
      "Ġsop": 2274,
      "ĠO": 2275,
      "ĠpreduzeÄĩa": 2276,
      "prav": 2277,
      "Ġpredstav": 2278,
      "Ġstatu": 2279,
      "Ġbolje": 2280,
      "tnu": 2281,
      "Ġmestu": 2282,
      "Å¾io": 2283,
      "dnog": 2284,
      "Ġmaksi": 2285,
      "ĠpruÅ¾a": 2286,
      "nar": 2287,
      "Ġ23": 2288,
      "Ġnezavi": 2289,
      "Äĳeni": 2290,
      "Ġsebe": 2291,
      "Ġglo": 2292,
      "ĠpokuÅ¡a": 2293,
      "ĠsluÅ¾be": 2294,
      "posle": 2295,
      "vide": 2296,
      "Å¾enja": 2297,
      "Ġnapra": 2298,
      "Ġkolo": 2299,
      "Ġ100": 2300,
      "kvi": 2301,
      "Äįar": 2302,
      "Ġaspe": 2303,
      "zbi": 2304,
      "ĠpoloÅ¾a": 2305,
      "Ġfilo": 2306,
      "mija": 2307,
      "Ġregio": 2308,
      "Ġnjega": 2309,
      "ĠH": 2310,
      "formi": 2311,
      "Äįito": 2312,
      "Äĩenja": 2313,
      "kna": 2314,
      "ur": 2315,
      "veli": 2316,
      "dam": 2317,
      "Ġdeta": 2318,
      "snih": 2319,
      "ĠizvrÅ¡e": 2320,
      "es": 2321,
      "ĠÄĩelija": 2322,
      "Å£e": 2323,
      "Ġumet": 2324,
      "mir": 2325,
      "Ġstre": 2326,
      "Ġkontek": 2327,
      "Ġkonstru": 2328,
      "Ġpripada": 2329,
      "Ġsvetu": 2330,
      "Ġaleksa": 2331,
      "ld": 2332,
      "dnici": 2333,
      "Ġum": 2334,
      "Ġtoku": 2335,
      "sred": 2336,
      "Ġvidu": 2337,
      "cama": 2338,
      "ft": 2339,
      "Ġstaro": 2340,
      "ĠsadrÅ¾i": 2341,
      "Ġovde": 2342,
      "dima": 2343,
      "Ġrezultata": 2344,
      "ĠvrÅ¡i": 2345,
      "Ġredo": 2346,
      "kt": 2347,
      "Ġprizna": 2348,
      "ĠV": 2349,
      "Ġat": 2350,
      "dje": 2351,
      "Ġformira": 2352,
      "sme": 2353,
      "Ġotvore": 2354,
      "Ġodbra": 2355,
      "Ġpreda": 2356,
      "Äįnost": 2357,
      "Ġprihva": 2358,
      "zne": 2359,
      "Ġ2011": 2360,
      "Ġjedin": 2361,
      "ĠrazliÄįite": 2362,
      "ĠL": 2363,
      "nicu": 2364,
      "ljopri": 2365,
      "Ġizd": 2366,
      "Ġobavlja": 2367,
      "Ġverovatno": 2368,
      "Ġmedici": 2369,
      "ĠÅ¾ele": 2370,
      "Ġpotpuno": 2371,
      "nat": 2372,
      "jedna": 2373,
      "Ġkompone": 2374,
      "stoji": 2375,
      "vaja": 2376,
      "Ġuzro": 2377,
      "Ġsvog": 2378,
      "Ġkreta": 2379,
      "Ġj": 2380,
      "Äĳenju": 2381,
      "Ã°": 2382,
      "Ġpredstavljaju": 2383,
      "ĠÅ¡u": 2384,
      "pove": 2385,
      "zacija": 2386,
      "Ġspecija": 2387,
      "Ġimati": 2388,
      "bili": 2389,
      "Äĳuju": 2390,
      "Ġsopstve": 2391,
      "ĠR": 2392,
      "Ġmetoda": 2393,
      "zor": 2394,
      "Ġpolu": 2395,
      "Ġprirod": 2396,
      "ler": 2397,
      "vlji": 2398,
      "ps": 2399,
      "Ġjasno": 2400,
      "Ġvozi": 2401,
      "kula": 2402,
      "Ġforma": 2403,
      "Ġ2012": 2404,
      "Ġodred": 2405,
      "mora": 2406,
      "Ġrezultat": 2407,
      "Ġkvaliteta": 2408,
      "199": 2409,
      "nskom": 2410,
      "Ġtur": 2411,
      "pored": 2412,
      "ĠÄįlana": 2413,
      "Ġnasi": 2414,
      "mbra": 2415,
      "Ġrazlike": 2416,
      "ĠnajviÅ¡e": 2417,
      "vÅ¡i": 2418,
      "dili": 2419,
      "\".": 2420,
      "jska": 2421,
      "Ġukraji": 2422,
      "rane": 2423,
      "ÑĮ": 2424,
      "ĠstatistiÄįki": 2425,
      "Ġprove": 2426,
      "Ġulogu": 2427,
      "Ġdiserta": 2428,
      "Ġsig": 2429,
      "bla": 2430,
      "nakon": 2431,
      "Ġpodrazumeva": 2432,
      "Ġ2010": 2433,
      "Ġboga": 2434,
      "Ġnared": 2435,
      "Ġkraj": 2436,
      "dÅ¾e": 2437,
      "Ġodnose": 2438,
      "ĠsluÄįaj": 2439,
      "iako": 2440,
      "Ġpoljopri": 2441,
      "Ġglago": 2442,
      "Ġpoe": 2443,
      "klu": 2444,
      "Ġ22": 2445,
      "Ġorganizacije": 2446,
      "ĠomoguÄĩa": 2447,
      "Ġintenzi": 2448,
      "Ġimali": 2449,
      "Ġsaobra": 2450,
      "Äįio": 2451,
      "Ġipak": 2452,
      "Äįak": 2453,
      "Ġ21": 2454,
      "Ġpoput": 2455,
      "Ġpotrebe": 2456,
      "sloven": 2457,
      "Ġnjihove": 2458,
      "Å£i": 2459,
      "Ġposve": 2460,
      "Ġpotreb": 2461,
      "kse": 2462,
      "Ġunapre": 2463,
      "Ġnjegov": 2464,
      "dnika": 2465,
      "Äĩim": 2466,
      "dila": 2467,
      "Ġkojem": 2468,
      "menti": 2469,
      "Ġcrkve": 2470,
      "ksu": 2471,
      "Ġzajedno": 2472,
      "lnoj": 2473,
      "ĠnajÄįeÅ¡Äĩe": 2474,
      "Ġzara": 2475,
      "Äīe": 2476,
      "ĠuspeÅ¡": 2477,
      "Ġpomenu": 2478,
      "ĠÅ¾a": 2479,
      "Ġklu": 2480,
      "Ġzema": 2481,
      "Ġdaje": 2482,
      "Ġstudija": 2483,
      "ĠÄįega": 2484,
      "Ġnjegove": 2485,
      "pora": 2486,
      "Ġvisi": 2487,
      "Ġ2013": 2488,
      "Ġmanji": 2489,
      "ĠduÅ¾i": 2490,
      "Ġizbor": 2491,
      "kazi": 2492,
      "Ġpsiho": 2493,
      "ĠrazliÄįitim": 2494,
      "ĠoÅ¡te": 2495,
      "pira": 2496,
      "Ġobjavlje": 2497,
      "ljenja": 2498,
      "ĠpoÄįi": 2499,
      "Ġkriteri": 2500,
      "ĠÅ¾ena": 2501,
      "Ġnedosta": 2502,
      "au": 2503,
      "ts": 2504,
      "dana": 2505,
      "Ġznanja": 2506,
      "ĠteÅ¡ko": 2507,
      "Äĳene": 2508,
      "neti": 2509,
      "Ġmenja": 2510,
      "kupa": 2511,
      "Ġusled": 2512,
      "Ġinf": 2513,
      "Ġkvalitet": 2514,
      "Ġgro": 2515,
      "Ġminu": 2516,
      "Î±": 2517,
      "zenta": 2518,
      "Ġ2014": 2519,
      "dba": 2520,
      "Ġljuba": 2521,
      "Ġproto": 2522,
      "âĢĿ.": 2523,
      "Ġsebi": 2524,
      "Ġsce": 2525,
      "Ġistorij": 2526,
      "nose": 2527,
      "kade": 2528,
      "Ġpobo": 2529,
      "Ġsasta": 2530,
      "pto": 2531,
      "er": 2532,
      "Ġvelike": 2533,
      "Ġodgovaraju": 2534,
      "loÅ¡ke": 2535,
      "ĠmeÄĳutim": 2536,
      "ĠduÅ¾": 2537,
      "grada": 2538,
      "Ġ...": 2539,
      "Ġ26": 2540,
      "Ġpart": 2541,
      "Ġovu": 2542,
      "ĠÉ©": 2543,
      "ĠmoÅ¾emo": 2544,
      "Ġsep": 2545,
      "min": 2546,
      "Ġinstru": 2547,
      "Ġita": 2548,
      "Ġanalizira": 2549,
      ".\"": 2550,
      "sva": 2551,
      "Ġjednu": 2552,
      "laca": 2553,
      "Å¡ku": 2554,
      "Ġpacijenata": 2555,
      "pote": 2556,
      "Ġodra": 2557,
      "Ġvremen": 2558,
      "Å¡tvo": 2559,
      "njen": 2560,
      "Ġ28": 2561,
      "der": 2562,
      "Ġneka": 2563,
      "Ġprograma": 2564,
      "26": 2565,
      ".âĢľ": 2566,
      "ĠpriÄįa": 2567,
      "ara": 2568,
      "Ġdej": 2569,
      "sak": 2570,
      "Ġlitera": 2571,
      "che": 2572,
      "Ġemo": 2573,
      "Ġuli": 2574,
      "Ġprven": 2575,
      "Ġmogao": 2576,
      "Ġruko": 2577,
      "Ġkulture": 2578,
      "Ġ40": 2579,
      "ĠsaobraÄĩa": 2580,
      "Ġzame": 2581,
      "Ġcilju": 2582,
      "nskim": 2583,
      "Ġuvo": 2584,
      "Ġosim": 2585,
      "ĠÄįiji": 2586,
      "vcu": 2587,
      "Ġnagla": 2588,
      "Ġ2008": 2589,
      "Ġprofi": 2590,
      "Ġsezo": 2591,
      "Ġdeli": 2592,
      "Ġ2009": 2593,
      "ĠoÄįeki": 2594,
      "Äįeno": 2595,
      "Ġengle": 2596,
      "ili": 2597,
      "Ġizgrad": 2598,
      "ris": 2599,
      "ĠoÄįi": 2600,
      "Ġeksperimenta": 2601,
      "Ġ27": 2602,
      "vrede": 2603,
      "ĠmoÅ¾da": 2604,
      "ovaj": 2605,
      "nema": 2606,
      "Ġprogram": 2607,
      "ĠnadleÅ¾": 2608,
      "Ġgleda": 2609,
      "lar": 2610,
      "Ġnivoa": 2611,
      "ĠnaÅ¡i": 2612,
      "Ġprivred": 2613,
      "rsa": 2614,
      "lama": 2615,
      "Ġstabi": 2616,
      "Ġgodinu": 2617,
      "ficije": 2618,
      "Ġnalaze": 2619,
      "27": 2620,
      "Ġostvari": 2621,
      "Ð¹": 2622,
      "nin": 2623,
      "vid": 2624,
      "tina": 2625,
      "Ġkapita": 2626,
      "Ġnovih": 2627,
      "cione": 2628,
      "28": 2629,
      "ðĿĳ": 2630,
      "Ġpogledu": 2631,
      "Ġple": 2632,
      "tski": 2633,
      "Ġsredine": 2634,
      "Ġpodaci": 2635,
      "por": 2636,
      "Ġrazloga": 2637,
      "bine": 2638,
      "tica": 2639,
      "ster": 2640,
      "Ġcelo": 2641,
      "Ġenergije": 2642,
      "nike": 2643,
      "Ġpripre": 2644,
      "roma": 2645,
      "Ġfaktora": 2646,
      "nicama": 2647,
      "Ġana": 2648,
      "Ġfon": 2649,
      "osta": 2650,
      "Ġ195": 2651,
      "listi": 2652,
      "Ġher": 2653,
      "Ġprepozna": 2654,
      "Ġmera": 2655,
      "nse": 2656,
      "Ġresu": 2657,
      "29": 2658,
      "Ġkor": 2659,
      "Ġpobolj": 2660,
      "Ġmiliona": 2661,
      ".)": 2662,
      "Ġteme": 2663,
      "Ġsupro": 2664,
      "ĠopÅ¡te": 2665,
      "metara": 2666,
      "cr": 2667,
      "Ġstvar": 2668,
      "Ġinformacija": 2669,
      "ljeni": 2670,
      "Ġkonkre": 2671,
      "Ġzahva": 2672,
      "stvom": 2673,
      "sim": 2674,
      "Ġizbo": 2675,
      "Ġiste": 2676,
      "Ġkata": 2677,
      "Ġstanje": 2678,
      "Ġgrupi": 2679,
      "ntu": 2680,
      "Ġinterne": 2681,
      "ĠG": 2682,
      "Ġjezik": 2683,
      "05": 2684,
      "Ġponovo": 2685,
      "Ġpredsednik": 2686,
      "stica": 2687,
      "Ġpoj": 2688,
      "Ġtipa": 2689,
      "Ġdrugom": 2690,
      "ukoliko": 2691,
      "Ġblo": 2692,
      "Ñĭ": 2693,
      "Äįen": 2694,
      "Ġpreporu": 2695,
      "loÅ¡kih": 2696,
      "stre": 2697,
      "Ġ+": 2698,
      "Å¡li": 2699,
      "Ġav": 2700,
      "Ġmilo": 2701,
      "Ġnova": 2702,
      "Ġjoj": 2703,
      "Ġsazna": 2704,
      "Ġstanja": 2705,
      "kuplja": 2706,
      "Ġinformacije": 2707,
      "juma": 2708,
      "Ġpostavlja": 2709,
      "nicija": 2710,
      "Ġdovoljno": 2711,
      "Ġreal": 2712,
      "Ġjeziku": 2713,
      "Ġzemalja": 2714,
      "Ġdosta": 2715,
      "Ġokto": 2716,
      "dovi": 2717,
      "Ġuticaja": 2718,
      "ĠskupÅ¡ti": 2719,
      "stima": 2720,
      "Ġope": 2721,
      "Ġpodi": 2722,
      "Ġturi": 2723,
      "godine": 2724,
      "Ġusluga": 2725,
      "Ġ2015": 2726,
      "vane": 2727,
      "Ġnara": 2728,
      "Ġii": 2729,
      "el": 2730,
      "ĠÄĳ": 2731,
      "//": 2732,
      "ciona": 2733,
      "Ġkona": 2734,
      "Ġposledica": 2735,
      "gom": 2736,
      "the": 2737,
      "ĠreÅ¡enja": 2738,
      "Ã¡": 2739,
      "Ġpolitike": 2740,
      "Ġodu": 2741,
      "lin": 2742,
      "Ġinterak": 2743,
      "tive": 2744,
      "Ġtret": 2745,
      "Ġkoso": 2746,
      "ms": 2747,
      "vnika": 2748,
      "</": 2749,
      "gori": 2750,
      "Ġukazuje": 2751,
      "ĠbiÄĩe": 2752,
      "Ġgor": 2753,
      "Ġformu": 2754,
      "Ġunutar": 2755,
      "paci": 2756,
      "ĠÅ¾eli": 2757,
      "nosa": 2758,
      "veo": 2759,
      "Ġisko": 2760,
      "Ġizne": 2761,
      "Ġrazvija": 2762,
      "lti": 2763,
      "Ġperiod": 2764,
      "Ġimala": 2765,
      "Ġranije": 2766,
      "Ġmladi": 2767,
      "Äįena": 2768,
      "Ġredu": 2769,
      "Ã¢": 2770,
      "misli": 2771,
      "«É¬": 2772,
      "ĠÏ": 2773,
      "Ġniti": 2774,
      "Ġbilj": 2775,
      "Å¾en": 2776,
      "Ġdese": 2777,
      "dnom": 2778,
      "Ġrastvo": 2779,
      "Ġdoba": 2780,
      "ruje": 2781,
      "Ġtime": 2782,
      "Ġpotom": 2783,
      "Ġdne": 2784,
      "Ġprimene": 2785,
      "Ġcar": 2786,
      "Ġkorisni": 2787,
      "35": 2788,
      "Ġvladi": 2789,
      "Ġprvog": 2790,
      "Ġautor": 2791,
      "Ġnovog": 2792,
      "Ġsvojih": 2793,
      "njena": 2794,
      "Ġodma": 2795,
      "Ġizbe": 2796,
      "ĠuÄįenika": 2797,
      "ton": 2798,
      "Ġpropisa": 2799,
      "mpi": 2800,
      "Ġodli": 2801,
      "ljena": 2802,
      "wa": 2803,
      "Ġhemi": 2804,
      "jn": 2805,
      "Ġosu": 2806,
      "ĠdoÅ¾i": 2807,
      "Ġkralje": 2808,
      "ĠsadrÅ¾aj": 2809,
      "Å¾ena": 2810,
      "Ġmoraju": 2811,
      "Ġgloba": 2812,
      "vidu": 2813,
      "Ġrazvije": 2814,
      "nijih": 2815,
      "Ġmali": 2816,
      "zno": 2817,
      "ĠniÅ¡ta": 2818,
      "Ġliteratu": 2819,
      "Ġzla": 2820,
      "Ġosobe": 2821,
      "Ġoblika": 2822,
      "Ġprostora": 2823,
      "Ġ2007": 2824,
      "boli": 2825,
      "Ġekstra": 2826,
      "Ġgodini": 2827,
      "Ġdimen": 2828,
      "jedno": 2829,
      "://": 2830,
      "Ġtuma": 2831,
      "ĠnaroÄįito": 2832,
      "Ġbar": 2833,
      "ljno": 2834,
      "Ġugovora": 2835,
      "telji": 2836,
      "Ġtih": 2837,
      "38": 2838,
      "ljen": 2839,
      "Ġmana": 2840,
      "Ġprakti": 2841,
      "ry": 2842,
      "stom": 2843,
      "telja": 2844,
      "39": 2845,
      "Ġudru": 2846,
      "ĠreÅ¾i": 2847,
      "Ġstrana": 2848,
      "Äįeni": 2849,
      "ĠveÄĩa": 2850,
      "tske": 2851,
      "Ġispitiva": 2852,
      "Ġrepre": 2853,
      "Ġakade": 2854,
      "40": 2855,
      "Ġska": 2856,
      "Ġprostor": 2857,
      "jevima": 2858,
      "Ġstavo": 2859,
      "Ġopisa": 2860,
      "bama": 2861,
      "ih": 2862,
      "vnoj": 2863,
      "ĠmuÅ¡ka": 2864,
      "Ġnjegova": 2865,
      "Ġterapi": 2866,
      "Ġonih": 2867,
      "Ġzavisi": 2868,
      "fiko": 2869,
      "Ġprva": 2870,
      "Ġsvojoj": 2871,
      "jedinje": 2872,
      "volu": 2873,
      "dekva": 2874,
      "Ġhri": 2875,
      "Ġpokazuje": 2876,
      "beli": 2877,
      "Ġumetni": 2878,
      "Ġitd": 2879,
      "Ġpristupa": 2880,
      "Ġzavisnosti": 2881,
      "Ġnosi": 2882,
      "Ġ29": 2883,
      "Ġvlade": 2884,
      "zama": 2885,
      "dera": 2886,
      "ĠgraÄĳe": 2887,
      "kod": 2888,
      "Ġmetode": 2889,
      "njo": 2890,
      "vajuÄĩi": 2891,
      "Ġ2006": 2892,
      "Ġsadr": 2893,
      ".âĢŀ": 2894,
      "ĠsadrÅ¾aja": 2895,
      "Ġtela": 2896,
      "volja": 2897,
      "Ġobuhvata": 2898,
      "Ġmarke": 2899,
      "Ġjuna": 2900,
      "nicima": 2901,
      "Ġrazmatra": 2902,
      "Ġdemokra": 2903,
      "ly": 2904,
      "Ġfilm": 2905,
      "Ġrade": 2906,
      "Ġkoe": 2907,
      "Ġodluka": 2908,
      "ĠÄįetvr": 2909,
      "Ġpostoja": 2910,
      "sanja": 2911,
      "Ġcrve": 2912,
      "Ġseptem": 2913,
      "pisi": 2914,
      "nsko": 2915,
      "blja": 2916,
      "Å¡iÄĩ": 2917,
      "ĠÄįine": 2918,
      "Ġnasle": 2919,
      "Ġsuda": 2920,
      "ĠiskljuÄįi": 2921,
      "Äįuje": 2922,
      "Ġcenta": 2923,
      "Ġbora": 2924,
      "jskim": 2925,
      "Ġ?": 2926,
      "Ġdopu": 2927,
      "Ġradova": 2928,
      "Ġdoktor": 2929,
      "Ġfilozo": 2930,
      "ĠF": 2931,
      "Ġdostup": 2932,
      "stribu": 2933,
      "................": 2934,
      "Ġmani": 2935,
      "snog": 2936,
      "govor": 2937,
      "Ġkapaci": 2938,
      "ĠmoÅ¾ete": 2939,
      "tacije": 2940,
      "ĠÅ¾ene": 2941,
      "snu": 2942,
      "ndo": 2943,
      "É¬": 2944,
      "tlji": 2945,
      "vini": 2946,
      "Ġbalka": 2947,
      "Ġkole": 2948,
      "dnost": 2949,
      "Ġpovra": 2950,
      "dije": 2951,
      "sional": 2952,
      "gru": 2953,
      "Ġvid": 2954,
      "Å¾o": 2955,
      "rao": 2956,
      "Äīi": 2957,
      "ĠpoboljÅ¡a": 2958,
      "Ġnovom": 2959,
      "jni": 2960,
      "Ġskoro": 2961,
      "Ġstudije": 2962,
      "lost": 2963,
      "zbog": 2964,
      "Ġpoma": 2965,
      "Ã²": 2966,
      "ntro": 2967,
      "nov": 2968,
      "Ġprvom": 2969,
      "Ġwe": 2970,
      "Ġpogla": 2971,
      "struktu": 2972,
      "Ġ2005": 2973,
      "ĠveÄĩe": 2974,
      "Ġorganizacija": 2975,
      "vrÅ¡": 2976,
      "ziju": 2977,
      "ĠzaÅ¡titu": 2978,
      "Ġpravila": 2979,
      "Ġzabele": 2980,
      "mbe": 2981,
      "prija": 2982,
      "Ġproizvodnje": 2983,
      "Ġas": 2984,
      "Ġjednostav": 2985,
      "ĠÅ¾u": 2986,
      "graf": 2987,
      "ĠdomaÄĩi": 2988,
      "jne": 2989,
      "Ġdisku": 2990,
      "Ġoblik": 2991,
      "Ġur": 2992,
      "Ġlogi": 2993,
      "Ġfeno": 2994,
      "zuju": 2995,
      "miÅ¡lja": 2996,
      "Ġodluke": 2997,
      "tual": 2998,
      "Ġinicija": 2999,
      "Ġvisoko": 3000,
      "Ã±": 3001,
      "Ġautora": 3002,
      "Ġstruktura": 3003,
      "36": 3004,
      "ck": 3005,
      "Ġpostavlje": 3006,
      "Ġ%": 3007,
      "ncije": 3008,
      "tinu": 3009,
      "Ġzasno": 3010,
      "Ġsrpski": 3011,
      "Ġsrpskog": 3012,
      "Ġzau": 3013,
      "Ġgore": 3014,
      "niju": 3015,
      "Äįnoj": 3016,
      "Ġzabra": 3017,
      "dar": 3018,
      "Ġsrednje": 3019,
      "rina": 3020,
      "Ġfunkcije": 3021,
      "Ġpreci": 3022,
      "Ġneposred": 3023,
      "Ġprevo": 3024,
      "Ġusme": 3025,
      "Ġgotovo": 3026,
      "Å¡ki": 3027,
      "Ġsvedo": 3028,
      "Ġslici": 3029,
      "sada": 3030,
      "Ġzvani": 3031,
      "zori": 3032,
      "Ġdinara": 3033,
      "lizacije": 3034,
      "Î¿": 3035,
      "Ġnjegovog": 3036,
      "vori": 3037,
      "Ġvelika": 3038,
      "Ġkontak": 3039,
      "Ġpokazuju": 3040,
      "Ġrizika": 3041,
      "Ġekono": 3042,
      "nala": 3043,
      "Ġevropske": 3044,
      "Ġsklo": 3045,
      "lini": 3046,
      "zaciju": 3047,
      "Ġmr": 3048,
      "Ġsum": 3049,
      "Ġbibli": 3050,
      "ista": 3051,
      "Ġevra": 3052,
      "Ġindividu": 3053,
      "Ġnajbolje": 3054,
      "Ġkraja": 3055,
      "Ġcent": 3056,
      "Ġkarakteristike": 3057,
      "sma": 3058,
      "Ġturisti": 3059,
      "Ġsredstava": 3060,
      "Ġsl": 3061,
      "________": 3062,
      "ĠzavrÅ¡e": 3063,
      "njuju": 3064,
      "Ġ2016": 3065,
      "Ġcon": 3066,
      "Ġprocesu": 3067,
      "ira": 3068,
      "ĠâĢ¢": 3069,
      "Î½": 3070,
      "ĠÅ¡kole": 3071,
      "cionih": 3072,
      "ĠizvrÅ¡i": 3073,
      "Ġrazvoju": 3074,
      "34": 3075,
      "Ġravno": 3076,
      "njenja": 3077,
      "37": 3078,
      "sci": 3079,
      "sanje": 3080,
      "jih": 3081,
      "zio": 3082,
      "Ġsnage": 3083,
      "Ġnaroda": 3084,
      "rezulta": 3085,
      "ĠteÅ¾i": 3086,
      "Ġfakto": 3087,
      "pom": 3088,
      "Äĩena": 3089,
      "Ġ;": 3090,
      "Ġnekim": 3091,
      "Ġmole": 3092,
      "Ġ2000": 3093,
      "Ġkoga": 3094,
      "kciju": 3095,
      "stan": 3096,
      "ĠreÅ¡a": 3097,
      "ĠÉ¢": 3098,
      "Ġtakmi": 3099,
      "liÄĩ": 3100,
      "laÅ¾e": 3101,
      "Ġdovodi": 3102,
      "Ġnapu": 3103,
      "Ġnakna": 3104,
      "Ġpredmet": 3105,
      "Ġzastup": 3106,
      "Äĩuje": 3107,
      "Ġmaksima": 3108,
      "kci": 3109,
      "Å¾ava": 3110,
      "mar": 3111,
      "Ġtoliko": 3112,
      "ĠuÅ¾i": 3113,
      "Ġnjemu": 3114,
      "Äĩenje": 3115,
      "Ġozbi": 3116,
      "tine": 3117,
      "ĠJ": 3118,
      "ĠÄĩemo": 3119,
      "Ġmogli": 3120,
      "Ġporodice": 3121,
      "Ġnjihovog": 3122,
      "Äīa": 3123,
      "Ġreda": 3124,
      "Ã³": 3125,
      "Ġkomplek": 3126,
      "Ġfudba": 3127,
      "gri": 3128,
      "Ġubi": 3129,
      "Ġapri": 3130,
      "Ġpredsta": 3131,
      "Ġï¿½": 3132,
      "ĠÅ¡iro": 3133,
      "Ġsporazu": 3134,
      "ĠÅ¾ivoti": 3135,
      "manti": 3136,
      "blika": 3137,
      "Ġprve": 3138,
      "Ġsuko": 3139,
      "Ġobrazovanja": 3140,
      "Ġgeo": 3141,
      "Ġreci": 3142,
      "ĠuopÅ¡te": 3143,
      "Ġ60": 3144,
      "Ġpostupak": 3145,
      "njoj": 3146,
      "vet": 3147,
      "grade": 3148,
      "Ġzvez": 3149,
      "ĠdrugaÄįi": 3150,
      "Ġfunkcioni": 3151,
      "naime": 3152,
      "den": 3153,
      "Ġposao": 3154,
      "Ġsredstva": 3155,
      "nisti": 3156,
      "Ġodsto": 3157,
      "ĠraÄįu": 3158,
      "Ġzajednice": 3159,
      "ĠvaÅ¡e": 3160,
      "Ġperioda": 3161,
      "Ġaktivnost": 3162,
      "Ġprisustvo": 3163,
      "ĠutiÄįe": 3164,
      "60": 3165,
      "Ĥ·": 3166,
      "Ġtamo": 3167,
      "gani": 3168,
      "ĠodluÄįi": 3169,
      "Ġpriho": 3170,
      "Ġtradicional": 3171,
      "Äįara": 3172,
      "Ġodmah": 3173,
      "Ġrs": 3174,
      "tili": 3175,
      "Ġizgleda": 3176,
      "zem": 3177,
      "Äĩen": 3178,
      "Ġosni": 3179,
      "Ġkoeficije": 3180,
      "ĠnajveÄĩi": 3181,
      "Ġgi": 3182,
      "mje": 3183,
      "Ġsvakog": 3184,
      "Ġlako": 3185,
      "stira": 3186,
      "**": 3187,
      "Ġgene": 3188,
      "tivnim": 3189,
      "dnim": 3190,
      "ntno": 3191,
      "Ġseku": 3192,
      "ĠproÅ¡i": 3193,
      "Ġautori": 3194,
      "rea": 3195,
      "Ġzat": 3196,
      "Ġinteresa": 3197,
      "Ġ2004": 3198,
      "gita": 3199,
      "Ġvoda": 3200,
      "vnost": 3201,
      "ĠznaÄįaja": 3202,
      "Ġdokumenta": 3203,
      "Ġmor": 3204,
      "Ġtere": 3205,
      "Ġpostupku": 3206,
      "Å¡njeg": 3207,
      "Ġured": 3208,
      "Ġpone": 3209,
      "ljenje": 3210,
      "Ġkog": 3211,
      "Ġarhite": 3212,
      "gro": 3213,
      "tuje": 3214,
      "ipak": 3215,
      "minal": 3216,
      "Ġnajmanje": 3217,
      "Ġjugosloven": 3218,
      "Ġfunkcija": 3219,
      "Ġgod": 3220,
      "Ġnapre": 3221,
      "Å¾ila": 3222,
      "lio": 3223,
      "loviÄĩ": 3224,
      "):": 3225,
      "ĠÄĳu": 3226,
      "ljene": 3227,
      "Ġpreva": 3228,
      "ĠzadrÅ¾a": 3229,
      "Ġbroju": 3230,
      "Ġzakonom": 3231,
      "tila": 3232,
      "tue": 3233,
      "ĠreÅ¡enje": 3234,
      "rnu": 3235,
      "Ġgori": 3236,
      "ĠdoÅ¡lo": 3237,
      "ĠplaÄĩa": 3238,
      "Ġveze": 3239,
      "Ġkredi": 3240,
      "Ġstrukture": 3241,
      "slov": 3242,
      "ĠpomoÄĩu": 3243,
      "ljeno": 3244,
      "Ġtrenutku": 3245,
      "Ġdistribu": 3246,
      "lazak": 3247,
      "Ġstanju": 3248,
      "leko": 3249,
      "sen": 3250,
      "ĠzavrÅ¡i": 3251,
      "Å¾eni": 3252,
      "vite": 3253,
      "Ġenerge": 3254,
      "Ġpresu": 3255,
      "Ġfra": 3256,
      "Ġsever": 3257,
      "Äĳivanja": 3258,
      "ĠÄįime": 3259,
      "ĠodreÄĳene": 3260,
      "vencije": 3261,
      "Ġoru": 3262,
      "tivan": 3263,
      "fikacije": 3264,
      "eng": 3265,
      "Ġdiplo": 3266,
      "Ġnapisa": 3267,
      "sce": 3268,
      "nga": 3269,
      "Ġpopula": 3270,
      "ĠnaÄįe": 3271,
      "Ġknjiga": 3272,
      "Ġizvor": 3273,
      "Ġprou": 3274,
      "Ġdomina": 3275,
      "chi": 3276,
      "Ġzu": 3277,
      "Ġjanu": 3278,
      "Ġglavni": 3279,
      "Ġmenad": 3280,
      "Ġzemljama": 3281,
      "Ġizgu": 3282,
      "Ġuzima": 3283,
      "Ġtabela": 3284,
      "Ġprocedu": 3285,
      "Ġnor": 3286,
      "45": 3287,
      "Ġistovremeno": 3288,
      "Ġsistemu": 3289,
      "Ġanga": 3290,
      "nac": 3291,
      "Å¡la": 3292,
      "Ġintegra": 3293,
      "Ġzapravo": 3294,
      "ĠÄįovek": 3295,
      "33": 3296,
      "Ġposlova": 3297,
      "Ġneophodno": 3298,
      "Ġtki": 3299,
      "ĠpomoÄĩi": 3300,
      "jim": 3301,
      "Ġcom": 3302,
      "Ġpredi": 3303,
      "Ġdiza": 3304,
      "njom": 3305,
      "nto": 3306,
      "Ġblago": 3307,
      "Ġtabeli": 3308,
      "reni": 3309,
      "Ġprese": 3310,
      "kov": 3311,
      "Ġumetnosti": 3312,
      "Ġpokreta": 3313,
      "Ġgospo": 3314,
      "Ġsvakom": 3315,
      "Ġovak": 3316,
      "Ġnjihov": 3317,
      "Ġpost": 3318,
      "Ġhro": 3319,
      "ĠmoÄĩi": 3320,
      "Ġsmrti": 3321,
      "Ġnajbolji": 3322,
      "fikova": 3323,
      "ds": 3324,
      "ĠÅ¡te": 3325,
      "Ġposlu": 3326,
      "takmi": 3327,
      "Ġdirektno": 3328,
      "Ġelemenata": 3329,
      "Ġobliku": 3330,
      "ĠâĢĿ": 3331,
      "Ġdola": 3332,
      "Ġfotografi": 3333,
      "Ġnov": 3334,
      "Ġsagla": 3335,
      "Ġpostaje": 3336,
      "Ġavgu": 3337,
      "Ġkoncentracije": 3338,
      "Ã«": 3339,
      "Ġreze": 3340,
      "ĠomoguÄĩava": 3341,
      "Ġmedija": 3342,
      "vaÅ¾": 3343,
      "Å¡enje": 3344,
      "ĠpovrÅ¡ine": 3345,
      "Ġputo": 3346,
      "ĠÅ¡est": 3347,
      "Ġuslova": 3348,
      "Ġbeograda": 3349,
      "jskom": 3350,
      "Ġwi": 3351,
      "tr": 3352,
      "terna": 3353,
      "Ġnesta": 3354,
      "Å¾iti": 3355,
      "leva": 3356,
      "Ġkojom": 3357,
      "Ġ2017": 3358,
      "Ġstepen": 3359,
      "Ġinde": 3360,
      "nuo": 3361,
      "snim": 3362,
      "Ġpodatke": 3363,
      "fici": 3364,
      "Ġnika": 3365,
      "Ġ2003": 3366,
      "rica": 3367,
      "Ġkupo": 3368,
      "ĠnaÄįina": 3369,
      "Ġber": 3370,
      "Ġbanka": 3371,
      "Å¡enja": 3372,
      "Ġpada": 3373,
      "mino": 3374,
      "gh": 3375,
      "Ġtranspo": 3376,
      "Ġelektri": 3377,
      "cionog": 3378,
      "zmu": 3379,
      "Ġbes": 3380,
      "Ġpat": 3381,
      "Ġviru": 3382,
      "siju": 3383,
      "potre": 3384,
      "Ġvojvodi": 3385,
      "ob": 3386,
      "Ġmeseci": 3387,
      "ĠomoguÄĩi": 3388,
      "Ġprilago": 3389,
      "Ġopse": 3390,
      "Ġupravljanja": 3391,
      "80": 3392,
      "Ġuze": 3393,
      "Ġrasta": 3394,
      "Ġzatvo": 3395,
      "bila": 3396,
      "Ġreprezenta": 3397,
      "Ġbre": 3398,
      "Ġ2002": 3399,
      "Ġtekstu": 3400,
      "Ġage": 3401,
      "Ġplu": 3402,
      "Ġzaposlenih": 3403,
      "Ġcu": 3404,
      "Å¡njih": 3405,
      "rac": 3406,
      "Ġfunkcional": 3407,
      "rona": 3408,
      "Ġbrzo": 3409,
      "Ġhidro": 3410,
      "kida": 3411,
      "Å¾ene": 3412,
      "lata": 3413,
      "Ġmm": 3414,
      "ĠgraÄĳana": 3415,
      "Ġsport": 3416,
      "mbar": 3417,
      "Ġjavnog": 3418,
      "ĠsuÅ¡ti": 3419,
      "Ġkorisnika": 3420,
      "Ġbrita": 3421,
      "Ġvelikog": 3422,
      "Ġporeme": 3423,
      "ide": 3424,
      "Ġprofesional": 3425,
      "pisuje": 3426,
      "Ġseg": 3427,
      "Ġnikada": 3428,
      "Ġopti": 3429,
      "ĠukljuÄįujuÄĩi": 3430,
      "ser": 3431,
      "Ġsposobnosti": 3432,
      "Ġadekva": 3433,
      "Ġnekog": 3434,
      "dÅ¾": 3435,
      "Ġsinte": 3436,
      "Ġispra": 3437,
      "Ġmake": 3438,
      "Ġrezultate": 3439,
      "Ġbih": 3440,
      "Ġregula": 3441,
      "ĠiskljuÄįivo": 3442,
      "Ġprimenom": 3443,
      "Äįnja": 3444,
      "Ġcentar": 3445,
      "tskog": 3446,
      "Ġnjihova": 3447,
      "vano": 3448,
      "din": 3449,
      "Ġmogla": 3450,
      "poli": 3451,
      "Ġobzira": 3452,
      "ĠobiÄįno": 3453,
      "ĠtrÅ¾iÅ¡tu": 3454,
      "Ġrekla": 3455,
      "ĠzemljiÅ¡ta": 3456,
      "ĠpodrÅ¾a": 3457,
      "mla": 3458,
      "Ġkoma": 3459,
      "É¥": 3460,
      "Ġhtt": 3461,
      "ministra": 3462,
      "Ġmati": 3463,
      "Ġreli": 3464,
      "Ġispod": 3465,
      "ĠkuÄĩe": 3466,
      "ĠureÄĳa": 3467,
      "nj": 3468,
      "zv": 3469,
      "Ġoptere": 3470,
      "48": 3471,
      "ĠÅ¾ivotne": 3472,
      "Ġkontekstu": 3473,
      "ĠbudÅ¾e": 3474,
      "Äĩemo": 3475,
      "ĠbuduÄĩ": 3476,
      "jna": 3477,
      "Ġsprovo": 3478,
      "Ġukupno": 3479,
      "Ġparametara": 3480,
      "Ġdijag": 3481,
      "Ġstrani": 3482,
      "meni": 3483,
      "rati": 3484,
      "slav": 3485,
      "Ġ2018": 3486,
      "Ġprojekta": 3487,
      "Ġnisam": 3488,
      "nuti": 3489,
      "Ġugro": 3490,
      "stupi": 3491,
      "Ġotvara": 3492,
      "âĢĶ": 3493,
      "loÅ¡kog": 3494,
      "ljive": 3495,
      "Ġzbi": 3496,
      "samo": 3497,
      "ĠistiÄįe": 3498,
      "rene": 3499,
      "mentu": 3500,
      "Ġleka": 3501,
      "Ġspolj": 3502,
      "Ġorgana": 3503,
      "Ġfazi": 3504,
      "Ġdonosi": 3505,
      "mene": 3506,
      "Ġvideo": 3507,
      "Ġjako": 3508,
      "%,": 3509,
      "Ġovla": 3510,
      "siji": 3511,
      "cha": 3512,
      "ĠznaÄįajna": 3513,
      "Ġvodo": 3514,
      "Ġostalih": 3515,
      "mova": 3516,
      "upra": 3517,
      "Ġkombina": 3518,
      "ĠÅ¾ive": 3519,
      "Ġradni": 3520,
      "fera": 3521,
      "Ġklini": 3522,
      "lozi": 3523,
      "Ġ35": 3524,
      "jer": 3525,
      "Ġsvakodne": 3526,
      "teo": 3527,
      "ĠstanovniÅ¡tva": 3528,
      "Äİ": 3529,
      "Ġzele": 3530,
      "Ġvozila": 3531,
      "Ġnju": 3532,
      "Ġporta": 3533,
      "Ġobzir": 3534,
      "solu": 3535,
      "rezultati": 3536,
      "ĠdruÅ¡tvo": 3537,
      "Ġpovre": 3538,
      "%)": 3539,
      "Ġrast": 3540,
      "ĠliÄįnosti": 3541,
      "nara": 3542,
      "zan": 3543,
      "politi": 3544,
      "vica": 3545,
      "Ġpredstavlje": 3546,
      "kuju": 3547,
      "Ġevrope": 3548,
      "Ġboje": 3549,
      "ote": 3550,
      "stina": 3551,
      "Ġkolek": 3552,
      "laganja": 3553,
      "Ġalba": 3554,
      "Ġ2020": 3555,
      "Ġpomi": 3556,
      "Ġsedi": 3557,
      "Ġteorij": 3558,
      "Ġperforma": 3559,
      "Ġkompanije": 3560,
      "hra": 3561,
      "ĠÄįoveka": 3562,
      "Ġex": 3563,
      "ĠsledeÄĩe": 3564,
      "Ġpraksi": 3565,
      "Ġminuta": 3566,
      "ntne": 3567,
      "vena": 3568,
      "Ġaku": 3569,
      "Ġpoljoprivred": 3570,
      "naÄįe": 3571,
      "Ġsnima": 3572,
      "Ġcena": 3573,
      "Ġshvata": 3574,
      "Ġbazi": 3575,
      "Ġuslovi": 3576,
      "Ġmuze": 3577,
      "anali": 3578,
      "rin": 3579,
      "Ġizbora": 3580,
      "kove": 3581,
      "ĠponaÅ¡anja": 3582,
      "stepe": 3583,
      "Ġsor": 3584,
      "Ġkarakteristika": 3585,
      "Ġekspre": 3586,
      "ĠpoÄįetka": 3587,
      "znaÄįaj": 3588,
      "Ġnaba": 3589,
      "Ġ!": 3590,
      "Ġimu": 3591,
      "Ġdinami": 3592,
      "riÄĩ": 3593,
      "Ġsin": 3594,
      "Ġfaktor": 3595,
      "Ġprethodno": 3596,
      "len": 3597,
      "ĠuÄįestvo": 3598,
      "ĠodrÅ¾i": 3599,
      "Ġeg": 3600,
      "Ġkara": 3601,
      "Ġjugoslavije": 3602,
      "Ġpolitika": 3603,
      "Ġeli": 3604,
      "Å¾ba": 3605,
      "Ġupozna": 3606,
      "jno": 3607,
      "É¤": 3608,
      "ndida": 3609,
      "Ġovi": 3610,
      "Å¾ne": 3611,
      "Î¹": 3612,
      "Å£a": 3613,
      "Ġ[": 3614,
      "valo": 3615,
      "Ġzapad": 3616,
      "70": 3617,
      "Ġae": 3618,
      "Ġpoz": 3619,
      "Ġsnaga": 3620,
      "Ġorije": 3621,
      "ĠistraÅ¾ivanje": 3622,
      "Ġpostupka": 3623,
      "Ġsrbiju": 3624,
      "stoje": 3625,
      "ls": 3626,
      "Ġbele": 3627,
      "vanoviÄĩ": 3628,
      "Ġutakmi": 3629,
      "Ġsamosta": 3630,
      "Äįene": 3631,
      "ĠbaÅ¡": 3632,
      "Ġpredmeta": 3633,
      "Ġtip": 3634,
      "Ġusa": 3635,
      "ziste": 3636,
      "ĠmaÅ¡i": 3637,
      "Ġoptu": 3638,
      "Ġuspostavlja": 3639,
      "Äįenju": 3640,
      "Ġokolnosti": 3641,
      "Ã¤": 3642,
      "Ġ2001": 3643,
      "Ġispitivanja": 3644,
      "Ġizaz": 3645,
      "Ġnjihovo": 3646,
      "Ġdeca": 3647,
      "Ġslike": 3648,
      "Ġregional": 3649,
      "Ġpotra": 3650,
      "Ġmase": 3651,
      "svim": 3652,
      "Ġinfe": 3653,
      "guje": 3654,
      "Ġvideti": 3655,
      "rov": 3656,
      "Ġsedam": 3657,
      "Ġpetro": 3658,
      "Ġoksi": 3659,
      "Ġsmrt": 3660,
      "Ġobele": 3661,
      "ĠpoÄįetku": 3662,
      "pravda": 3663,
      "cionali": 3664,
      "sp": 3665,
      "stoja": 3666,
      "Ġznatno": 3667,
      "ĠdÅ¾e": 3668,
      "gan": 3669,
      "Ġprostoru": 3670,
      "Ġpredsednika": 3671,
      "siste": 3672,
      "www": 3673,
      "Ġprirode": 3674,
      "Ġdosti": 3675,
      "Ġhla": 3676,
      "Ġadministra": 3677,
      "dr": 3678,
      "ĠreÄĩi": 3679,
      "Ġkrea": 3680,
      "ĠÄĩu": 3681,
      "ĠpiÅ¡e": 3682,
      "*''": 3683,
      "logiju": 3684,
      "ot": 3685,
      "Ġnjihovih": 3686,
      "ĠÄįaso": 3687,
      "ĠreÄįima": 3688,
      "ĠÅ¡kol": 3689,
      "Ġukazuju": 3690,
      "Ġnapa": 3691,
      "Ġzagre": 3692,
      "ct": 3693,
      "ktima": 3694,
      "ĠmaÄĳa": 3695,
      "Ġpremije": 3696,
      "pova": 3697,
      "ĠÅ¾ivi": 3698,
      "ĠvaÅ¾no": 3699,
      "noda": 3700,
      "ĠoÄįu": 3701,
      "ĠkoriÅ¡Äĩenje": 3702,
      "Ġteksta": 3703,
      "Äįita": 3704,
      "kos": 3705,
      "duje": 3706,
      "Ġkompanija": 3707,
      "Ġtoplo": 3708,
      "Ġkarije": 3709,
      "Ġuloga": 3710,
      "Ġori": 3711,
      "Ġmerenja": 3712,
      "osim": 3713,
      "Ġmakedo": 3714,
      "ziji": 3715,
      "Ġplan": 3716,
      "Ġefekat": 3717,
      "Ġsrpskom": 3718,
      "Ġusluge": 3719,
      "fikacija": 3720,
      "proce": 3721,
      "Äĩeno": 3722,
      "Ġubr": 3723,
      "Ġjavno": 3724,
      "ĠdonoÅ¡e": 3725,
      "stova": 3726,
      "Ġpoti": 3727,
      "44": 3728,
      "Ġbezbednosti": 3729,
      "Ġsprovede": 3730,
      "Ġdobio": 3731,
      "Ġdakle": 3732,
      "tije": 3733,
      "vljuje": 3734,
      "mente": 3735,
      "ori": 3736,
      "pose": 3737,
      "Ġostale": 3738,
      "Ġnaja": 3739,
      "31": 3740,
      "gde": 3741,
      "Ġdevoj": 3742,
      "deo": 3743,
      "ĠpoveÄĩanje": 3744,
      "Ġizabra": 3745,
      "Ġnjen": 3746,
      "Ġinost": 3747,
      "mani": 3748,
      "ĠproÅ¡lo": 3749,
      "rnim": 3750,
      "ograf": 3751,
      "Ġbanke": 3752,
      "Ġprimenu": 3753,
      "Ġfebru": 3754,
      "lice": 3755,
      "ĠpodrÅ¡ku": 3756,
      "Ġ2019": 3757,
      "Ġnemaju": 3758,
      "Ġtraja": 3759,
      "Ġideja": 3760,
      "baci": 3761,
      "ÉŁÉ§": 3762,
      "198": 3763,
      "01": 3764,
      "Ġstari": 3765,
      "Ġhrane": 3766,
      "meti": 3767,
      "ĠÄĩelije": 3768,
      "gram": 3769,
      "Ãª": 3770,
      "Ġpretpostav": 3771,
      "Ġgradu": 3772,
      "rski": 3773,
      "Ġiskustva": 3774,
      "Ġdigita": 3775,
      "Ġparla": 3776,
      "dela": 3777,
      "Ġpotpunosti": 3778,
      "tnost": 3779,
      "Ġ'": 3780,
      "ĠproÅ¡": 3781,
      "ture": 3782,
      "Ġtala": 3783,
      "ĠpodruÄįja": 3784,
      "ger": 3785,
      "Ġimamo": 3786,
      "Äįavanje": 3787,
      "Ġshva": 3788,
      "Ġmulti": 3789,
      "Ġizuzetno": 3790,
      "sh": 3791,
      "ljivost": 3792,
      "ĠÅ¾rt": 3793,
      "Ġkm": 3794,
      "ljiva": 3795,
      "Ġeti": 3796,
      "Ġrat": 3797,
      "ovi": 3798,
      "loÅ¡ka": 3799,
      "tura": 3800,
      "Ġoslobo": 3801,
      "Ġumesto": 3802,
      "Ġurba": 3803,
      "Ġanalizu": 3804,
      "ĠÅ¡kola": 3805,
      "Ġvest": 3806,
      "Ġizvora": 3807,
      "Ġosnovne": 3808,
      "dakle": 3809,
      "Ġuniverziteta": 3810,
      "Ġuslove": 3811,
      "Ġtest": 3812,
      "zato": 3813,
      "Ġugovor": 3814,
      "Ġmeseca": 3815,
      "Ġimo": 3816,
      "Ġzaista": 3817,
      "Ġjedinstve": 3818,
      "tivnom": 3819,
      "Ġsku": 3820,
      "Ġser": 3821,
      "Ġdokaza": 3822,
      "Ġkne": 3823,
      "ĠodgovarajuÄĩi": 3824,
      "Äĳenih": 3825,
      "socija": 3826,
      "Å¾nje": 3827,
      "Ġpresta": 3828,
      "math": 3829,
      "Ġpozori": 3830,
      "raka": 3831,
      "Ġsvakako": 3832,
      "Ġsela": 3833,
      "pozna": 3834,
      "nogra": 3835,
      "Ġodvija": 3836,
      "Ġniz": 3837,
      "Ġprihvata": 3838,
      "Ġobrazovanje": 3839,
      "ĠizloÅ¾e": 3840,
      "ljenih": 3841,
      "tnik": 3842,
      "Ġ31": 3843,
      "gova": 3844,
      "Ġmoglo": 3845,
      "Ġnaziva": 3846,
      "32": 3847,
      "75": 3848,
      "ĠznaÄįajan": 3849,
      "dri": 3850,
      "É¢Êģ": 3851,
      "mentima": 3852,
      "Ġnekih": 3853,
      "Éľ": 3854,
      "str": 3855,
      "Ġkontinu": 3856,
      "uzda": 3857,
      "Ġkak": 3858,
      "ĠpotroÅ¡a": 3859,
      "pti": 3860,
      "Ġosam": 3861,
      "svi": 3862,
      "Ġosigura": 3863,
      "osno": 3864,
      "Ġmatemati": 3865,
      "ut": 3866,
      "ljivosti": 3867,
      "Ġzadovolj": 3868,
      "Ġcm": 3869,
      "Ġupi": 3870,
      "Ġzahtev": 3871,
      "klanja": 3872,
      "tel": 3873,
      "Ġobjekata": 3874,
      "Ġpostignu": 3875,
      "Ġkontrole": 3876,
      "Ġsituacija": 3877,
      "ljaka": 3878,
      "Ġprati": 3879,
      "ĠÄįlanova": 3880,
      "Ġog": 3881,
      "Êĥ": 3882,
      "hemi": 3883,
      "Ġuzora": 3884,
      "stvima": 3885,
      "intere": 3886,
      "ĠporemeÄĩa": 3887,
      "ĠutiÄįu": 3888,
      "Ġnavode": 3889,
      "Ġprera": 3890,
      "49": 3891,
      "Ġljudima": 3892,
      "Ġpotreba": 3893,
      "ĠveÅ¡ti": 3894,
      "Ġknjige": 3895,
      "Ġgrupu": 3896,
      "Ġmodi": 3897,
      "ĠÄįvr": 3898,
      "veÄĩi": 3899,
      "ĠveÄĩina": 3900,
      "Ġbismo": 3901,
      "njeno": 3902,
      "Ġnaru": 3903,
      "Ġparame": 3904,
      "ĠmreÅ¾e": 3905,
      "ĠznaÄįajne": 3906,
      "wi": 3907,
      "ĠzaÅ¡to": 3908,
      "ĠÉ¨": 3909,
      "Ġsasvim": 3910,
      "Ġrevi": 3911,
      "Ġsmanji": 3912,
      "Ġnaselja": 3913,
      "Ġtzv": 3914,
      "ĠuÄįestvu": 3915,
      "Ġtemperature": 3916,
      "Ġspolja": 3917,
      "Ġautomo": 3918,
      "Ġoti": 3919,
      "drugi": 3920,
      "nila": 3921,
      "Ġiznad": 3922,
      "tivnu": 3923,
      "Ġupotrebe": 3924,
      "Ġsastav": 3925,
      "Ġkomple": 3926,
      "veta": 3927,
      "Ġmiha": 3928,
      "Ġhipote": 3929,
      "Ġsuper": 3930,
      "Ġtema": 3931,
      "Ġqu": 3932,
      "Ġfaze": 3933,
      "ĠâĢĺ": 3934,
      "njeni": 3935,
      "Ġisho": 3936,
      "Ġinova": 3937,
      "Ġsvetskog": 3938,
      "pp": 3939,
      "Ġmje": 3940,
      "Ġobjasni": 3941,
      "Ġsoft": 3942,
      "Ġagre": 3943,
      "deli": 3944,
      "pore": 3945,
      "Ġneuro": 3946,
      "njeg": 3947,
      "Ġsigurno": 3948,
      "Äĩeni": 3949,
      "Ġvlasni": 3950,
      "Ġjedinica": 3951,
      "Ġkoristiti": 3952,
      "Ġaf": 3953,
      "predse": 3954,
      "ĠmreÅ¾a": 3955,
      "ok": 3956,
      "Ġustav": 3957,
      "Ġaleksandar": 3958,
      "Ġdrugoj": 3959,
      "ĠtraÅ¾i": 3960,
      "Ġpenzi": 3961,
      "Ġpostao": 3962,
      "tokom": 3963,
      "Ġsekre": 3964,
      "ksida": 3965,
      "veni": 3966,
      "ĠÅ¾ivotu": 3967,
      "Ġpravosla": 3968,
      "Ġ45": 3969,
      "ĪĴ": 3970,
      "Ġgrafi": 3971,
      "ĠâĢĻ": 3972,
      "Ġuzorka": 3973,
      "reno": 3974,
      "Ġneprija": 3975,
      "Ġpubli": 3976,
      "Ġfoku": 3977,
      "biÄįa": 3978,
      "Ġgrani": 3979,
      "ĠsluÄįajevima": 3980,
      "lizova": 3981,
      "kaÅ¾e": 3982,
      "Ġbibliote": 3983,
      "lena": 3984,
      "Ġpodne": 3985,
      "Ġpojave": 3986,
      "Ġuzoraka": 3987,
      "Ġsvake": 3988,
      "vencija": 3989,
      "ntima": 3990,
      "Ġsastoji": 3991,
      "ÉļÉ§": 3992,
      "at": 3993,
      "Ġkup": 3994,
      "Ġorganizo": 3995,
      "losti": 3996,
      "mp": 3997,
      "Ġpribli": 3998,
      "sk": 3999,
      "Ġvlast": 4000,
      "Ġpodu": 4001,
      "Ġizgra": 4002,
      "Ġjavnosti": 4003,
      "Ġ1999": 4004,
      "ÄĬe": 4005,
      "Ġnekada": 4006,
      "tum": 4007,
      "Ġpodacima": 4008,
      "Å¾nja": 4009,
      "46": 4010,
      "Ġservi": 4011,
      "ting": 4012,
      "Ġmono": 4013,
      "nsku": 4014,
      "Ġupotrebu": 4015,
      "ĠpaÅ¾nju": 4016,
      "Ġsrba": 4017,
      "fer": 4018,
      "Ġpolja": 4019,
      "bera": 4020,
      "Å¾ni": 4021,
      "Ġupravljanje": 4022,
      "ono": 4023,
      "Ġciklu": 4024,
      "nili": 4025,
      "ĠsledeÄĩi": 4026,
      "blji": 4027,
      "Ġsmatraju": 4028,
      "vaÄį": 4029,
      "Ġfrek": 4030,
      "ĠÅ¡pa": 4031,
      "dnu": 4032,
      "Ġduho": 4033,
      "Ġindika": 4034,
      "Ġaplika": 4035,
      "ĠkoriÅ¡Äĩenja": 4036,
      "Ġfakultet": 4037,
      "Ġmaja": 4038,
      "pod": 4039,
      "Îµ": 4040,
      "Ġizvede": 4041,
      "Ġstanovnika": 4042,
      "90": 4043,
      "Ġpreuze": 4044,
      "ad": 4045,
      "Ġobaveza": 4046,
      "Ġkandida": 4047,
      "njene": 4048,
      "Ġostali": 4049,
      "ĠÉŃ": 4050,
      "lak": 4051,
      "ljujuÄĩi": 4052,
      "Ġinfra": 4053,
      "Ġsmanjenje": 4054,
      "Ġzvu": 4055,
      "Ġpregled": 4056,
      "Ġmnogi": 4057,
      "ĠÄįinjenica": 4058,
      "ginal": 4059,
      "jedan": 4060,
      "Ġtoj": 4061,
      "sama": 4062,
      "Ġpojedinih": 4063,
      "ĠpolitiÄįke": 4064,
      "Ġmg": 4065,
      "iH": 4066,
      "Ġbugar": 4067,
      "Ġosnova": 4068,
      "Ġperi": 4069,
      "jevi": 4070,
      "Ġdati": 4071,
      "Ġprije": 4072,
      "Ġministarstva": 4073,
      "lla": 4074,
      "mio": 4075,
      "Ġmitro": 4076,
      "Äįini": 4077,
      "Ġiskustvo": 4078,
      "Ġzakonoda": 4079,
      "Ġaktue": 4080,
      "Ġbavi": 4081,
      "Ġsusre": 4082,
      "Ġvelikim": 4083,
      "!!": 4084,
      "sis": 4085,
      "Ġteritoriji": 4086,
      "55": 4087,
      "deset": 4088,
      "Ġalterna": 4089,
      "rama": 4090,
      "ĠnajvaÅ¾": 4091,
      "Ġkontra": 4092,
      "eko": 4093,
      "Ġjedini": 4094,
      "ĠponaÅ¡anje": 4095,
      "Ġogleda": 4096,
      "Ġpostojanje": 4097,
      "ĠÄįije": 4098,
      "lica": 4099,
      "Ġflu": 4100,
      "Ġapsolu": 4101,
      "gene": 4102,
      "broj": 4103,
      "ferencija": 4104,
      "rem": 4105,
      "Ġkoor": 4106,
      "Å¾bi": 4107,
      "rke": 4108,
      "Å¾eno": 4109,
      "Ġnapada": 4110,
      "Ġ*": 4111,
      "Ġzasni": 4112,
      "ĠÄįija": 4113,
      "Ġpromen": 4114,
      "É«É": 4115,
      "vice": 4116,
      "Ġherce": 4117,
      "Ġevropi": 4118,
      "ĠsluÄįajeva": 4119,
      "Ġstatus": 4120,
      "Ġzdravlje": 4121,
      "Ġsama": 4122,
      "Ġrecep": 4123,
      "Ġkupa": 4124,
      "Ġinsta": 4125,
      "ÏĦ": 4126,
      "Ã¬": 4127,
      "Ġprimena": 4128,
      "giju": 4129,
      "Å¡avanja": 4130,
      "Ġcene": 4131,
      "Ġkine": 4132,
      "govora": 4133,
      "Ġhilja": 4134,
      "Ġdelatnosti": 4135,
      "Ġkompe": 4136,
      "tus": 4137,
      "Ġrelativno": 4138,
      "riÅ¡e": 4139,
      "Ġalgori": 4140,
      "Ġprene": 4141,
      "Ġjednoj": 4142,
      "jana": 4143,
      "Ġ36": 4144,
      "rska": 4145,
      "Ġkompozi": 4146,
      "78": 4147,
      "Ġpuno": 4148,
      "Ġreleva": 4149,
      "Ġ80": 4150,
      "mula": 4151,
      "Ġitalija": 4152,
      "smi": 4153,
      "Ġagen": 4154,
      "rci": 4155,
      "Ġminima": 4156,
      "Ġmene": 4157,
      "organi": 4158,
      "lov": 4159,
      "ĠvuÄįiÄĩ": 4160,
      "Ġplanira": 4161,
      "ĠÅ¡tampa": 4162,
      "Ġevide": 4163,
      "Ġdecu": 4164,
      "Ġmobi": 4165,
      "Ġtelevi": 4166,
      "Ġnauka": 4167,
      "Ġspi": 4168,
      "kiÄĩ": 4169,
      "Ġdje": 4170,
      "ev": 4171,
      "Ġosvoji": 4172,
      "Ġenzi": 4173,
      "tnika": 4174,
      "Ġsprem": 4175,
      "Ġgrado": 4176,
      "prkos": 4177,
      "vaÄįa": 4178,
      "Ġvakci": 4179,
      "opÅ¡ti": 4180,
      "vinu": 4181,
      "vaj": 4182,
      "Ġideo": 4183,
      "ana": 4184,
      "ĠobjaÅ¡nja": 4185,
      "istra": 4186,
      "teh": 4187,
      "as": 4188,
      "vlada": 4189,
      "Ġjedino": 4190,
      "par": 4191,
      "Ġsrpska": 4192,
      "dak": 4193,
      "Ġlak": 4194,
      "Ġmatri": 4195,
      "Ġrizik": 4196,
      "Ġud": 4197,
      "Ġznam": 4198,
      "Ġorganizova": 4199,
      "Ġistom": 4200,
      "Ġ90": 4201,
      "Ġispla": 4202,
      "Ġ70": 4203,
      "Ġopet": 4204,
      "Ġunije": 4205,
      "ĠreÄįe": 4206,
      "Ġopravda": 4207,
      "Ġpokazala": 4208,
      "Ġstri": 4209,
      "Ġsvaka": 4210,
      "Ġ2021": 4211,
      "Ġroku": 4212,
      "Ġobuhva": 4213,
      "tskih": 4214,
      "ĠvraÄĩa": 4215,
      "dÅ¾i": 4216,
      "Ġtekst": 4217,
      "Ġbiv": 4218,
      "Ġlepo": 4219,
      "Ġsituacije": 4220,
      "ĠuÄįeÅ¡Äĩe": 4221,
      "Ġobaveze": 4222,
      "nina": 4223,
      "Ġsamog": 4224,
      "tacija": 4225,
      "Ġvazduha": 4226,
      "Ġmanife": 4227,
      "Ġsagleda": 4228,
      "ĠovlaÅ¡Äĩe": 4229,
      "vosti": 4230,
      "tela": 4231,
      "Ġljude": 4232,
      "Ġpopo": 4233,
      "zanja": 4234,
      "Ġpredlo": 4235,
      "Ġimple": 4236,
      "Ġkomentara": 4237,
      "hibi": 4238,
      "Ġnjegovom": 4239,
      "47": 4240,
      "ĠmoÄĩ": 4241,
      "ĠïĤ·": 4242,
      "ĠbuduÄĩi": 4243,
      "vera": 4244,
      "konstru": 4245,
      "hy": 4246,
      "Ġmle": 4247,
      "ĠviÅ¡i": 4248,
      "Ġdaju": 4249,
      "Ġtransforma": 4250,
      "Ġvremenu": 4251,
      "mos": 4252,
      "Ġtesti": 4253,
      "ÑĬ": 4254,
      "fija": 4255,
      "ĠÄĩeli": 4256,
      "Ġoktobra": 4257,
      "Ġsamim": 4258,
      "Ġuprave": 4259,
      "ĠpodruÄįju": 4260,
      "Äįavaju": 4261,
      "Ġmale": 4262,
      "ker": 4263,
      "vnik": 4264,
      "Ġnjene": 4265,
      "ĠtrÅ¾iÅ¡ta": 4266,
      "Ġavi": 4267,
      "ĠuÄįenja": 4268,
      "ĠpredviÄĳa": 4269,
      "Å¡an": 4270,
      "Ġpredsedni": 4271,
      "Äĩoj": 4272,
      "Ġrazre": 4273,
      "Ġdodatno": 4274,
      "ĠÅ¡iri": 4275,
      "ĠÉ§": 4276,
      "Ġporuka": 4277,
      "Ġzra": 4278,
      "leksi": 4279,
      "tes": 4280,
      "Ġmir": 4281,
      "á½": 4282,
      "Ġvero": 4283,
      "Ġeksplo": 4284,
      "Ġtero": 4285,
      "voda": 4286,
      "ntna": 4287,
      "ĠvrÅ¡e": 4288,
      "ou": 4289,
      "Ġnekom": 4290,
      "Ġcivi": 4291,
      "Ġstepena": 4292,
      "Ġnaziv": 4293,
      "Ġ190": 4294,
      "Ġdes": 4295,
      "pija": 4296,
      "Ġlokalne": 4297,
      "Ġdaleko": 4298,
      "hodno": 4299,
      "Ġizazo": 4300,
      "Ġpojava": 4301,
      "Ġozbilj": 4302,
      "Ġota": 4303,
      "loÅ¡kim": 4304,
      "Ġtakav": 4305,
      "dok": 4306,
      "Ġsupsta": 4307,
      "Ġpripa": 4308,
      "Ġgranice": 4309,
      "mske": 4310,
      "Ġkrvi": 4311,
      "valu": 4312,
      "Ġada": 4313,
      "Ġpravu": 4314,
      "Ġaleksand": 4315,
      "seÄĩa": 4316,
      "ĠznaÄįenje": 4317,
      "Ġadre": 4318,
      "vela": 4319,
      "ĠproizvoÄĳa": 4320,
      "Ġvelikoj": 4321,
      "Ġnepri": 4322,
      "Ġdisertacija": 4323,
      "Ġgodinama": 4324,
      "zanje": 4325,
      "Ġdesi": 4326,
      "Ġosnovnih": 4327,
      "Ġglasa": 4328,
      "pije": 4329,
      "sorp": 4330,
      "ten": 4331,
      "Ġnovca": 4332,
      "Ġuzra": 4333,
      "Ã£": 4334,
      "Ġodgovora": 4335,
      "Å¡taj": 4336,
      "Ġsen": 4337,
      "Ïģ": 4338,
      "Ġzdravlja": 4339,
      "ĠveliÄįine": 4340,
      "Ġupore": 4341,
      "Äįaka": 4342,
      "elek": 4343,
      "ĠistraÅ¾ivanju": 4344,
      "Ġstefa": 4345,
      "Ġizrazi": 4346,
      "koj": 4347,
      "Ġkoncentracija": 4348,
      "Ġodbrane": 4349,
      "ĠrazmiÅ¡lja": 4350,
      "lus": 4351,
      "Ġkretanja": 4352,
      "Ġzaga": 4353,
      "Ġprikazani": 4354,
      "ĠkuÄĩa": 4355,
      "ĠpoloÅ¾aj": 4356,
      "tiÄĩ": 4357,
      "Ġodo": 4358,
      "ÏĤ": 4359,
      "Ġsupru": 4360,
      "tija": 4361,
      "ĠdÅ¾": 4362,
      "ĠnaÅ¡em": 4363,
      "Ñĸ": 4364,
      "Ġhor": 4365,
      "Ġfir": 4366,
      "ĠdruÅ¡tvene": 4367,
      "plici": 4368,
      "Ġkance": 4369,
      "65": 4370,
      "Ġvelikih": 4371,
      "Ġeki": 4372,
      "pravi": 4373,
      "ĠznaÄįenja": 4374,
      "poÅ¡to": 4375,
      "ĠdogaÄĳaja": 4376,
      "Ġproteina": 4377,
      "Ġbolesnika": 4378,
      "ĠBiH": 4379,
      "npr": 4380,
      "ĠkriviÄįnog": 4381,
      "ie": 4382,
      "ĠÅ¾ivotinja": 4383,
      "ĠobjaÅ¡nje": 4384,
      "Ġun": 4385,
      "É©": 4386,
      "Ñİ": 4387,
      "tero": 4388,
      "Ġimovi": 4389,
      "Å¡no": 4390,
      "%.": 4391,
      "Ġdeteta": 4392,
      "Ġperspe": 4393,
      "Ġpokri": 4394,
      "znog": 4395,
      "isti": 4396,
      "Ġseptembra": 4397,
      "sub": 4398,
      "Ġodi": 4399,
      "ĠmeÅ¡a": 4400,
      "Ġvizu": 4401,
      "ĠtiÄįe": 4402,
      "jsko": 4403,
      "ĠdruÅ¡tvu": 4404,
      "Ġglasnik": 4405,
      "Ġ189": 4406,
      "prvi": 4407,
      "Ġsati": 4408,
      "vljena": 4409,
      "orÄĳe": 4410,
      "bur": 4411,
      "Ġinstitucija": 4412,
      "rup": 4413,
      "Äįnik": 4414,
      "knu": 4415,
      "ĠpoÄįinje": 4416,
      "viji": 4417,
      "Ġrevolu": 4418,
      "Ġpromo": 4419,
      "Äĩima": 4420,
      "gor": 4421,
      "Å¡kog": 4422,
      "jsku": 4423,
      "matski": 4424,
      "ĠÉŀ": 4425,
      "Ġ2022": 4426,
      "ksual": 4427,
      "Ġveliku": 4428,
      "lega": 4429,
      "ĠkolaÄįi": 4430,
      "tosti": 4431,
      "Ġprogla": 4432,
      "ĠtroÅ¡kova": 4433,
      "ĠdoÅ¾ivlja": 4434,
      "Ġprenosi": 4435,
      "Ġmnoge": 4436,
      "vski": 4437,
      "ĠpoÄįetkom": 4438,
      "Ġodabra": 4439,
      "nÄįe": 4440,
      "Ġizazi": 4441,
      "Ġdobar": 4442,
      "Ġteorije": 4443,
      "sl": 4444,
      "Ġbira": 4445,
      "ljiv": 4446,
      "noma": 4447,
      "biÄįaje": 4448,
      "stveno": 4449,
      "Ġpogre": 4450,
      "Ġgovore": 4451,
      "roviÄĩ": 4452,
      "Ġedu": 4453,
      "Å¾avanje": 4454,
      "Ġtretira": 4455,
      "Ġspek": 4456,
      "Ġcrne": 4457,
      "Ġvaspita": 4458,
      "ĠnaÅ¡eg": 4459,
      "Ġradika": 4460,
      "ted": 4461,
      "ĠveÄįe": 4462,
      "Ġprikaz": 4463,
      "ĠopÅ¡tine": 4464,
      "Ġinternet": 4465,
      "Ġstro": 4466,
      "Ġmodu": 4467,
      "Ġobjekta": 4468,
      "produ": 4469,
      "ssi": 4470,
      "Ġstava": 4471,
      "Ġkategorija": 4472,
      "Å¡en": 4473,
      "Ġprosve": 4474,
      "Ġsimpto": 4475,
      "Ġtelo": 4476,
      "Éŀ": 4477,
      "Ġneiz": 4478,
      "ĠpriÄįe": 4479,
      "Ġski": 4480,
      "Ġfakulteta": 4481,
      "ĠÉ¤": 4482,
      "tnoj": 4483,
      "Ġtrenutno": 4484,
      "stavi": 4485,
      "É¨Éľ": 4486,
      "Ġvita": 4487,
      "Ġsposobnost": 4488,
      "Ġoblast": 4489,
      "rnom": 4490,
      "ĠhriÅ¡Äĩa": 4491,
      "ĠmiÅ¡ljenje": 4492,
      "Ġjavnih": 4493,
      "Ġistorija": 4494,
      "Ġindividual": 4495,
      "Ġtesta": 4496,
      "Ġinfrastruktu": 4497,
      "kola": 4498,
      "É¢É§": 4499,
      "lizacija": 4500,
      "Äįari": 4501,
      "Ġnjegovu": 4502,
      "ĠmiÅ¡ljenja": 4503,
      "Ġsocio": 4504,
      "Ġpokazali": 4505,
      "njim": 4506,
      "Ġiii": 4507,
      "Ġnacionalne": 4508,
      "ranih": 4509,
      "Ġogla": 4510,
      "76": 4511,
      "Ġporodica": 4512,
      "laska": 4513,
      "''.": 4514,
      "Ġimena": 4515,
      "Ġposlove": 4516,
      "Ġdode": 4517,
      "Ġfedera": 4518,
      "ljava": 4519,
      "lli": 4520,
      "Ġinterpre": 4521,
      "Ġbru": 4522,
      "piti": 4523,
      "Ġrazno": 4524,
      "tska": 4525,
      "Ġneku": 4526,
      "Ġdetalj": 4527,
      "id": 4528,
      "Ġleksi": 4529,
      "Ġboja": 4530,
      "Ġnpr": 4531,
      "Ġnama": 4532,
      "vka": 4533,
      "ĠdoÄĳe": 4534,
      "Ġjavne": 4535,
      "Ġpogleda": 4536,
      "tite": 4537,
      "nskoj": 4538,
      "ĠÄįeka": 4539,
      "59": 4540,
      "Ġborbe": 4541,
      "tional": 4542,
      "Ġinhibi": 4543,
      "rdi": 4544,
      "Ġsank": 4545,
      "bran": 4546,
      "srp": 4547,
      "Å¾na": 4548,
      "Ġnjoj": 4549,
      "vak": 4550,
      "Ġizlo": 4551,
      "Ġjedinjenja": 4552,
      "Ġsubo": 4553,
      "ae": 4554,
      "ĠizraÄįuna": 4555,
      "Ġradnika": 4556,
      "Ġrusije": 4557,
      "rop": 4558,
      "Ġaktivi": 4559,
      "Ġosnovni": 4560,
      "Ġkosti": 4561,
      "ktivno": 4562,
      "Ġjedinice": 4563,
      "Ġbogo": 4564,
      "Ġnastavi": 4565,
      "ĠodreÄĳeni": 4566,
      "Ġvezu": 4567,
      "Ġnastave": 4568,
      "Ġnemogu": 4569,
      "Ġdisci": 4570,
      "Ġostaje": 4571,
      "Ġstopa": 4572,
      "Ġpojam": 4573,
      "Ġdelimi": 4574,
      "Ġuskla": 4575,
      "ĠsadrÅ¾e": 4576,
      "Ġkontrolu": 4577,
      "vodom": 4578,
      "ĠtreÄĩi": 4579,
      "Ġzadatak": 4580,
      "Ġsamoupra": 4581,
      "tika": 4582,
      "Ġkojeg": 4583,
      "41": 4584,
      "Äĩene": 4585,
      "Ġbolni": 4586,
      "Ġkriteriju": 4587,
      "Ġdirektor": 4588,
      "ĠukljuÄįi": 4589,
      "ĠpovrÅ¡ina": 4590,
      "Äįica": 4591,
      "boj": 4592,
      "Ġnarodne": 4593,
      "cy": 4594,
      "radi": 4595,
      "Ġkategorije": 4596,
      "ntnih": 4597,
      "Ġstranke": 4598,
      "Ġrobe": 4599,
      "liÅ¡e": 4600,
      "forme": 4601,
      "oca": 4602,
      "Ġdiscipli": 4603,
      "Ġhercego": 4604,
      "Ġrazlog": 4605,
      "ĠgraÄĳevi": 4606,
      "Ġlinija": 4607,
      "Ġhttp": 4608,
      "ĠkuÄĩi": 4609,
      "nite": 4610,
      "58": 4611,
      "Ġistorije": 4612,
      "snici": 4613,
      "Ġdobra": 4614,
      "Ġzavr": 4615,
      "sobno": 4616,
      "koho": 4617,
      "Ġpreu": 4618,
      "Ġobjavlji": 4619,
      "medi": 4620,
      "rtu": 4621,
      "Ġprakse": 4622,
      "gura": 4623,
      "Ġnaslo": 4624,
      "ĠzaÅ¡titi": 4625,
      "ida": 4626,
      "ĠknjiÅ¾evnosti": 4627,
      "Ġposledice": 4628,
      "Ġbol": 4629,
      "Ġapo": 4630,
      "manu": 4631,
      "Ġrepublici": 4632,
      "Ġspada": 4633,
      "Ġnado": 4634,
      "ntni": 4635,
      "Ġ1998": 4636,
      "rad": 4637,
      "fije": 4638,
      "Ġposlednjih": 4639,
      "Ġala": 4640,
      "logiji": 4641,
      "doc": 4642,
      "ljima": 4643,
      "Ġscena": 4644,
      "eu": 4645,
      "ction": 4646,
      "Ġmetodo": 4647,
      "ĠoÄįekuje": 4648,
      "Ġvrednostima": 4649,
      "Ġmanasti": 4650,
      "Ġraste": 4651,
      "Ġnere": 4652,
      "mno": 4653,
      "Ġindustrij": 4654,
      "velo": 4655,
      "fon": 4656,
      "Ġ38": 4657,
      "Äįima": 4658,
      "Ġfaza": 4659,
      "Å¾ivanja": 4660,
      "Nj": 4661,
      "rizo": 4662,
      "Ġstoji": 4663,
      "Ġsemanti": 4664,
      "Ġkrajem": 4665,
      "rum": 4666,
      "Ġsiro": 4667,
      "Ġoptimi": 4668,
      "Ġispred": 4669,
      "Ġproizvodi": 4670,
      "ĠsaÄįu": 4671,
      "feri": 4672,
      "66": 4673,
      "cal": 4674,
      "Ġodluku": 4675,
      "ron": 4676,
      "lovi": 4677,
      "ĠuÄįesta": 4678,
      "vljen": 4679,
      "Ġnovac": 4680,
      "Ġmigra": 4681,
      "Ġnjihovu": 4682,
      "ĠpoveÄĩava": 4683,
      "kultu": 4684,
      "Ġnovim": 4685,
      "tnije": 4686,
      "Ġpredlog": 4687,
      "Ġresursa": 4688,
      "Ġmilija": 4689,
      "ruju": 4690,
      "zaciji": 4691,
      "Ġpute": 4692,
      "ĠdeÅ¡ava": 4693,
      "am": 4694,
      "42": 4695,
      "Ġdrugu": 4696,
      "Ġodsu": 4697,
      "Ġane": 4698,
      "ĠÅ¡uma": 4699,
      "Ġvrhu": 4700,
      "Ġsuo": 4701,
      "ĠstruÄįnja": 4702,
      "Ġpropa": 4703,
      "kona": 4704,
      "gradu": 4705,
      "43": 4706,
      "Ġpodstica": 4707,
      "Ġustanova": 4708,
      "Ġnjegovim": 4709,
      "ĠzapoÄįe": 4710,
      "Ġilu": 4711,
      "Ġmarta": 4712,
      "Ġpredme": 4713,
      "ĠdomaÄĩin": 4714,
      "Ġteorija": 4715,
      "Ġkultura": 4716,
      "les": 4717,
      "Ġnepre": 4718,
      "Ġnaz": 4719,
      "Ġmotiva": 4720,
      "Ġmaterijal": 4721,
      "Ġprikuplja": 4722,
      "Ġaust": 4723,
      "Ġanalizi": 4724,
      "govori": 4725,
      "Ġfunkciju": 4726,
      "Ġistog": 4727,
      "ĠdruÅ¡tvenih": 4728,
      "Ġcari": 4729,
      "Ġsvaku": 4730,
      "Ġline": 4731,
      "tru": 4732,
      "Ġdobijenih": 4733,
      "Ġzatvore": 4734,
      "Ġdubo": 4735,
      "É¨ÉĿ": 4736,
      "Ã¶": 4737,
      "Äįinu": 4738,
      "Ġ37": 4739,
      "tam": 4740,
      "Ġpripad": 4741,
      "Ġslobode": 4742,
      "ed": 4743,
      "Ġul": 4744,
      "Ġmoj": 4745,
      "Ġonaj": 4746,
      "Ġref": 4747,
      "Ġgaran": 4748,
      "Ġmila": 4749,
      "Ġetni": 4750,
      "Ġtehnologija": 4751,
      "Ġmoze": 4752,
      "Ġtehnologije": 4753,
      "Ġproizvodnju": 4754,
      "Ġflo": 4755,
      "dor": 4756,
      "ĠÅ¡o": 4757,
      "Ġputu": 4758,
      "Ġprojekto": 4759,
      "Ġzadu": 4760,
      "Ġnato": 4761,
      "Ġsile": 4762,
      "pusti": 4763,
      "Ġradnog": 4764,
      "Ġcelokup": 4765,
      "ĠpreÅ¾i": 4766,
      "100": 4767,
      "Ġstrategije": 4768,
      "Ġnauke": 4769,
      "Ġdeset": 4770,
      "Ġlabora": 4771,
      "Ġnjenog": 4772,
      "Ġsila": 4773,
      "Ġraspra": 4774,
      "Ġzemlju": 4775,
      "Ġekonomski": 4776,
      "sad": 4777,
      "Ġkilo": 4778,
      "hro": 4779,
      "Äįlan": 4780,
      "rijar": 4781,
      "Ġpartner": 4782,
      "Ġstavlja": 4783,
      "ĠveÄĩu": 4784,
      "Ġab": 4785,
      "Ġdalji": 4786,
      "Ġreakcije": 4787,
      "Ġsaveta": 4788,
      "Ġukaza": 4789,
      "linu": 4790,
      "Ġselek": 4791,
      "68": 4792,
      "Ġprete": 4793,
      "noviÄĩa": 4794,
      "Å¡avanje": 4795,
      "Ġvredno": 4796,
      "Ġzadovolja": 4797,
      "Ġekonomske": 4798,
      "Ġtvrdi": 4799,
      "Ġmala": 4800,
      "Ġbolji": 4801,
      "Ġvojske": 4802,
      "Ġpregleda": 4803,
      "Ġnada": 4804,
      "Ġkapitala": 4805,
      "lnik": 4806,
      "Ġideje": 4807,
      "Ġpartiza": 4808,
      "âĢ¢": 4809,
      "Ġdelom": 4810,
      ".).": 4811,
      "Ġimate": 4812,
      "cs": 4813,
      "Ġoksida": 4814,
      "snom": 4815,
      "toj": 4816,
      "laganje": 4817,
      "Ġciljem": 4818,
      "kciji": 4819,
      "Ġsnim": 4820,
      "Ġprate": 4821,
      "visti": 4822,
      "Ġproiz": 4823,
      "tur": 4824,
      "Ġlokali": 4825,
      "nku": 4826,
      "Å¡njem": 4827,
      "Ġciljeva": 4828,
      "Ġujedinje": 4829,
      "Å¡tvu": 4830,
      "fina": 4831,
      "Ġnjegovih": 4832,
      "Ġpato": 4833,
      "rodni": 4834,
      "Ġpriprema": 4835,
      "Äįavanja": 4836,
      "psi": 4837,
      "ĠdrÅ¾avne": 4838,
      "prili": 4839,
      "her": 4840,
      "Ġnaravno": 4841,
      "Ġoptima": 4842,
      "Å¾enju": 4843,
      "logu": 4844,
      "Ġrezo": 4845,
      "Ġveku": 4846,
      "69": 4847,
      "67": 4848,
      "jemo": 4849,
      "zmi": 4850,
      "Ġzapre": 4851,
      "Ġposlovanja": 4852,
      "naca": 4853,
      "Ġkratko": 4854,
      "Ġstan": 4855,
      "É¢É¦": 4856,
      "Ġdobri": 4857,
      "Ġhomo": 4858,
      "Ġblizi": 4859,
      "Äĳenjem": 4860,
      "Ġpotpisa": 4861,
      "Ġvari": 4862,
      "Ġvesti": 4863,
      "Ġmodeli": 4864,
      "ĠsaobraÄĩaj": 4865,
      "Ġprave": 4866,
      "Ġspome": 4867,
      "Ġprojekat": 4868,
      "vor": 4869,
      "Äĩom": 4870,
      "dva": 4871,
      "Ġprvih": 4872,
      "ntan": 4873,
      "Å¡kih": 4874,
      "Ġnikola": 4875,
      "Ġdobiti": 4876,
      "Ġnavi": 4877,
      "Ġ48": 4878,
      "Å¡ne": 4879,
      "ĠâĢĶ,": 4880,
      "mpe": 4881,
      "Ġkorak": 4882,
      "snoj": 4883,
      "Ġfabri": 4884,
      "Ġmiro": 4885,
      "hom": 4886,
      "Ġklije": 4887,
      "Ġprav": 4888,
      "Ġodgovori": 4889,
      "ĠodreÄĳenih": 4890,
      "ĠkoliÄįine": 4891,
      "terija": 4892,
      "Ġ1996": 4893,
      "ĠkoriÅ¡Äĩenjem": 4894,
      "ĠnaÅ¡oj": 4895,
      "Ġbaze": 4896,
      "nus": 4897,
      "53": 4898,
      "Ġkoncept": 4899,
      "skop": 4900,
      "puÅ¡ta": 4901,
      "Ġvrije": 4902,
      "Ġbog": 4903,
      "kovima": 4904,
      "Ġprista": 4905,
      "ĠsloÅ¾e": 4906,
      "inte": 4907,
      "Ġdao": 4908,
      "Ġpari": 4909,
      "cita": 4910,
      "Ġ1997": 4911,
      "dju": 4912,
      "Ġparametri": 4913,
      "Ġupotreba": 4914,
      "pisima": 4915,
      "ĠÅ¡irom": 4916,
      "Ġosnovi": 4917,
      "Ġdelova": 4918,
      "Ġpoklo": 4919,
      "nijim": 4920,
      "Ġinterna": 4921,
      "Äįili": 4922,
      "Ġarhitektu": 4923,
      "Ġ(âĢŀ": 4924,
      "ek": 4925,
      "Ġsamom": 4926,
      "Ġpolj": 4927,
      "É¨Êģ": 4928,
      "ĠuspeÅ¡no": 4929,
      "it": 4930,
      "Ġodbora": 4931,
      "Ġ1991": 4932,
      "gno": 4933,
      "Ġbiljaka": 4934,
      "Ġuloge": 4935,
      "Ġtelefo": 4936,
      "ktivne": 4937,
      "Å¾avaju": 4938,
      "Ġplanu": 4939,
      "zar": 4940,
      "predsednik": 4941,
      "É¨É¦": 4942,
      "Ġmoje": 4943,
      "Ġnjihovim": 4944,
      "Ġmorfo": 4945,
      "Â°": 4946,
      "Ġprvoj": 4947,
      "Ġsocijalne": 4948,
      "Ġrumu": 4949,
      "Ġsezone": 4950,
      "Ġmada": 4951,
      "Ñī": 4952,
      "Ġnukle": 4953,
      "Ġsoli": 4954,
      "Ġstudenata": 4955,
      "Ġnedelje": 4956,
      "Ġsadu": 4957,
      "Ġkogni": 4958,
      "Ġdijagnosti": 4959,
      "Ġmno": 4960,
      "mila": 4961,
      "Ġdrago": 4962,
      "77": 4963,
      "vju": 4964,
      "Ġpreo": 4965,
      "bde": 4966,
      "sani": 4967,
      "Ġsimboli": 4968,
      "Ġtakve": 4969,
      "Ġopozi": 4970,
      "limo": 4971,
      "Ġer": 4972,
      "lt": 4973,
      "Å¡kol": 4974,
      "Ġnastavnika": 4975,
      "Ġgranica": 4976,
      "krimina": 4977,
      "miju": 4978,
      "ĠoruÅ¾": 4979,
      "Ġlj": 4980,
      "raca": 4981,
      "ĠZ": 4982,
      "Ġhar": 4983,
      "ĠâĢ¦": 4984,
      "Ġnavedenih": 4985,
      "rali": 4986,
      "est": 4987,
      "fil": 4988,
      "Ġzabora": 4989,
      "gr": 4990,
      "Ġ1990": 4991,
      "zda": 4992,
      "ĠÉ©Éª": 4993,
      "Ġsmanjuje": 4994,
      "znih": 4995,
      "ĠsliÄįno": 4996,
      "Ġbrzine": 4997,
      "Ġjavljaju": 4998,
      "mit": 4999,
      "Ġodgovornost": 5000,
      "ĠzakljuÄįiti": 5001,
      "Å¾em": 5002,
      "Ġamba": 5003,
      "Ġpouzda": 5004,
      "Ġtranzi": 5005,
      "Ġponavlja": 5006,
      "Ġizjavio": 5007,
      "Ġstani": 5008,
      "ferent": 5009,
      "Ġkazne": 5010,
      "ĠskupÅ¡tine": 5011,
      "niku": 5012,
      "Ġpolju": 5013,
      "Ġpripove": 5014,
      "Ġprobleme": 5015,
      "ÐĮ": 5016,
      "dere": 5017,
      "Ġsame": 5018,
      "09": 5019,
      "ĠseÄĩa": 5020,
      "Ġgradi": 5021,
      "Ġtende": 5022,
      "Ġsvetog": 5023,
      "Ġdogodi": 5024,
      "tost": 5025,
      "Ġigre": 5026,
      "Ġcha": 5027,
      "Ġturizma": 5028,
      "Ġaprila": 5029,
      "put": 5030,
      "ĠloÅ¡e": 5031,
      "Ġnajpre": 5032,
      "Ġnapred": 5033,
      "upotre": 5034,
      "rcija": 5035,
      "stoga": 5036,
      "nula": 5037,
      "Ġcrkva": 5038,
      "ÄįeviÄĩ": 5039,
      "Ġkrei": 5040,
      "Ġmenta": 5041,
      "Ġalkoho": 5042,
      "Ġ1995": 5043,
      "Ġ,,": 5044,
      "Ġministarstvo": 5045,
      "ĠÅ¡ire": 5046,
      "ĠporeÄĳenju": 5047,
      "Ġinformi": 5048,
      "Ġulja": 5049,
      "rovi": 5050,
      "hija": 5051,
      "rur": 5052,
      "Ġpolici": 5053,
      "Ġpravni": 5054,
      "ved": 5055,
      "Ġkomponente": 5056,
      "Ġvrata": 5057,
      "Å¾ili": 5058,
      "Ġiznena": 5059,
      "kori": 5060,
      "Ġpesme": 5061,
      "Ġfesti": 5062,
      "Ġrezultatima": 5063,
      "Ġmakro": 5064,
      "Ġodgovornosti": 5065,
      "ĠpolitiÄįki": 5066,
      "loge": 5067,
      "Ġkombi": 5068,
      "ine": 5069,
      "ngi": 5070,
      "Ġmasa": 5071,
      "ĠpolitiÄįkih": 5072,
      "Å¾nog": 5073,
      "Ġserija": 5074,
      "sup": 5075,
      "79": 5076,
      "Ġispitivanje": 5077,
      "vile": 5078,
      "Ġplana": 5079,
      "Ġsprovodi": 5080,
      "reo": 5081,
      "Ġkvanti": 5082,
      "Ġisporu": 5083,
      "Ġposred": 5084,
      "mode": 5085,
      "Å¡tava": 5086,
      "lle": 5087,
      "Ġzajednica": 5088,
      "moÅ¾e": 5089,
      "Å¡o": 5090,
      "Ġdimenzija": 5091,
      "ĠdefiniÅ¡e": 5092,
      "Ġmislim": 5093,
      "ĠodreÄĳivanje": 5094,
      "Ġnovu": 5095,
      "ĠtaÄįke": 5096,
      "Ġpoza": 5097,
      "ÄĬu": 5098,
      "ĠkriviÄįno": 5099,
      "Ġ39": 5100,
      "Ġlinije": 5101,
      "Ġsata": 5102,
      "ĠuÄįenici": 5103,
      "Ġporodici": 5104,
      "Ġdolara": 5105,
      "Ġsovje": 5106,
      "bs": 5107,
      "desetih": 5108,
      "Ġnabav": 5109,
      "Ġvelikom": 5110,
      "Ġdecembra": 5111,
      "mato": 5112,
      "Ġovako": 5113,
      "Ġpritiska": 5114,
      "Ġtehnika": 5115,
      "Ġkiseline": 5116,
      "Ġprocene": 5117,
      "one": 5118,
      "Ġupotrebi": 5119,
      "Ġadvo": 5120,
      "Ġrim": 5121,
      "jeviÄĩ": 5122,
      "Ġoriginal": 5123,
      "ĠÄįo": 5124,
      "Ġkomercija": 5125,
      "Ġarti": 5126,
      "Å¡ten": 5127,
      "Ġnjihovom": 5128,
      "Ġkaraktera": 5129,
      "ĠnovÄįa": 5130,
      "Ġcentru": 5131,
      "Ġstoga": 5132,
      "Ġ188": 5133,
      "Ġpatrijar": 5134,
      "É¨Éª": 5135,
      "Ġstrategija": 5136,
      "val": 5137,
      "Ġpokraji": 5138,
      "Ġlaborato": 5139,
      "Ġmal": 5140,
      "bez": 5141,
      "kne": 5142,
      "Ġnajvi": 5143,
      "Ġteritorija": 5144,
      "liji": 5145,
      "et": 5146,
      "Ġtkiva": 5147,
      "Ġmolekula": 5148,
      "Ġkora": 5149,
      "Ġkonkurent": 5150,
      "Ġmladih": 5151,
      "Ġatmos": 5152,
      "Ġljudskih": 5153,
      "ĠzahvaljujuÄĩi": 5154,
      "Ġneposredno": 5155,
      "ĠvaÅ¡": 5156,
      "Ġzaintere": 5157,
      "genera": 5158,
      "Ġostalim": 5159,
      "Ġanaliti": 5160,
      "ĠodreÄĳuje": 5161,
      "Ġargu": 5162,
      "Ġstanovi": 5163,
      "Ġjula": 5164,
      "Ġkame": 5165,
      "ĠpoÄįetak": 5166,
      "Ġdepre": 5167,
      "Ġkomunikacije": 5168,
      "ĠtaÄįno": 5169,
      "Ġkomentar": 5170,
      "ljivi": 5171,
      "Ġpoto": 5172,
      "Ġpopulacije": 5173,
      "ĠdoÄĩi": 5174,
      "Ġprofesor": 5175,
      "ĠoÅ¡teÄĩenja": 5176,
      "Ġkonkuren": 5177,
      "Ġraspore": 5178,
      "Ġstalno": 5179,
      "Ġsnagu": 5180,
      "Ġopis": 5181,
      "Ġneda": 5182,
      "Ġkomisije": 5183,
      "Ġpav": 5184,
      "ĠÄįlanovi": 5185,
      "Ġodigra": 5186,
      "Ġzanim": 5187,
      "Ġsek": 5188,
      "Ġgovor": 5189,
      "ĠÉ«": 5190,
      "Ġfaktori": 5191,
      "Å¡kom": 5192,
      "ĠdrÅ¾avama": 5193,
      "Ġdro": 5194,
      "Ġalbu": 5195,
      "novima": 5196,
      "Ġkali": 5197,
      "Ġznanje": 5198,
      "Ġsajta": 5199,
      "znu": 5200,
      "tki": 5201,
      "ĠX": 5202,
      "Ġprevazi": 5203,
      "Ġpovodom": 5204,
      "Ġtv": 5205,
      "ĠÄĩete": 5206,
      "Ġinstitucije": 5207,
      "zad": 5208,
      "56": 5209,
      "ir": 5210,
      "ĠuobiÄįaje": 5211,
      "Ġkosova": 5212,
      "Ġpotrebna": 5213,
      "Äįnika": 5214,
      "dine": 5215,
      "Ġporekla": 5216,
      "Ġnovina": 5217,
      "Ġdobili": 5218,
      "Ġfunkciji": 5219,
      "koviÄĩa": 5220,
      "Ġsuse": 5221,
      "Ġred": 5222,
      "Ġish": 5223,
      "Ġstariji": 5224,
      "Ġpripadaju": 5225,
      "cki": 5226,
      "Ġosobine": 5227,
      "rku": 5228,
      "Ġtretmana": 5229,
      "ml": 5230,
      "Ġvoza": 5231,
      "Ġbrojne": 5232,
      "Ġizvr": 5233,
      "Ġpovla": 5234,
      "Ġtvrd": 5235,
      "naka": 5236,
      "Ġresur": 5237,
      "Ġregiona": 5238,
      "ĠograniÄįenja": 5239,
      "Ġdoprinos": 5240,
      "Ġroditelja": 5241,
      "vost": 5242,
      "É¦": 5243,
      "Ġodstupa": 5244,
      "ĠukljuÄįuje": 5245,
      "Ġzad": 5246,
      "Ðİ": 5247,
      "smatra": 5248,
      "Ġotvo": 5249,
      "Ġske": 5250,
      "Ġinostran": 5251,
      "Ġvizue": 5252,
      "Ġprocenat": 5253,
      "mr": 5254,
      "dama": 5255,
      "Ġcito": 5256,
      "Ġsina": 5257,
      "Ġidentiteta": 5258,
      "gena": 5259,
      "Ġusvoje": 5260,
      "Ġkiselina": 5261,
      "57": 5262,
      "Ġgri": 5263,
      "ĠÄįasova": 5264,
      "Å¾avanja": 5265,
      "Ġ32": 5266,
      "Ġplat": 5267,
      "lis": 5268,
      "Ġotpor": 5269,
      "Ġtemperatura": 5270,
      "Ġsimbo": 5271,
      "teti": 5272,
      "Ġbla": 5273,
      "Ġuza": 5274,
      "treba": 5275,
      "Ġkorist": 5276,
      "Ġsrpskih": 5277,
      "Ġseksual": 5278,
      "Ġmagne": 5279,
      "Ġstvaranje": 5280,
      "tovi": 5281,
      "Ġmeni": 5282,
      "ĠnaÅ¡ih": 5283,
      "tona": 5284,
      "ĠmenadÅ¾": 5285,
      "É¨Éŀ": 5286,
      "Ġskladi": 5287,
      "Ġadap": 5288,
      "Ġsk": 5289,
      "Ġac": 5290,
      "Å½": 5291,
      "Ġkarci": 5292,
      "Ġnastaje": 5293,
      "taciju": 5294,
      "vama": 5295,
      "Ġgena": 5296,
      "Ġminera": 5297,
      "Ġlista": 5298,
      "Ġpreki": 5299,
      "Ġsekto": 5300,
      "Ġnepozna": 5301,
      "Ġpravcu": 5302,
      "ĠnaÄĩi": 5303,
      "Ġkal": 5304,
      "ljenosti": 5305,
      "Ġvec": 5306,
      "krip": 5307,
      "vanih": 5308,
      "Ġrepublika": 5309,
      "Ġizvan": 5310,
      "Ġfro": 5311,
      "ĠpoÄįeo": 5312,
      "Ġnasilja": 5313,
      "Ġeste": 5314,
      "Ġjapa": 5315,
      "Ġdoprine": 5316,
      "Å¡eviÄĩ": 5317,
      "Ġuniverzitet": 5318,
      "cka": 5319,
      "Ġmemo": 5320,
      "Ġposloda": 5321,
      "ĠkoliÄįina": 5322,
      "Ġkoordina": 5323,
      "Ġvise": 5324,
      "ĠÅ¡koli": 5325,
      "stog": 5326,
      "Ġvrstu": 5327,
      "Ġnes": 5328,
      "Ġsektora": 5329,
      "Ġreligi": 5330,
      "Ġkana": 5331,
      "Ġperspekti": 5332,
      "mon": 5333,
      "Ġproizvode": 5334,
      "Ġsimu": 5335,
      "Ġokre": 5336,
      "Ġkonzu": 5337,
      "ĠuÄįenje": 5338,
      "Ġnjena": 5339,
      "cem": 5340,
      "doda": 5341,
      "let": 5342,
      "vljeno": 5343,
      "vske": 5344,
      "tions": 5345,
      "ĠtaÄįka": 5346,
      "Ġdobijeni": 5347,
      "niÄĩ": 5348,
      "Ġliteraturi": 5349,
      "Ġrazlikuju": 5350,
      "nosu": 5351,
      "ĠÅ¡kolu": 5352,
      "Ġpolitiku": 5353,
      "Ġeven": 5354,
      "Ġostalog": 5355,
      "Ġobole": 5356,
      "Ġjanuara": 5357,
      "Ġdobila": 5358,
      "Ġklase": 5359,
      "ĠpoveÄĩanja": 5360,
      "Ġorijenta": 5361,
      "Ġote": 5362,
      "ĠudruÅ¾enja": 5363,
      "Ġparlamenta": 5364,
      "Ġnai": 5365,
      "Ġukupnog": 5366,
      "ĠbuduÄĩnosti": 5367,
      "Ġ@": 5368,
      "Ġintelek": 5369,
      "klapa": 5370,
      "Ġsv": 5371,
      "Ġrekonstru": 5372,
      "Ġuzo": 5373,
      "Ġavgusta": 5374,
      "Ġseve": 5375,
      "Ġolak": 5376,
      "Ġhrvatske": 5377,
      "cho": 5378,
      "Ġkaza": 5379,
      "99": 5380,
      "xi": 5381,
      "ĠvaÅ¡i": 5382,
      "Ġprocenu": 5383,
      "spi": 5384,
      "hije": 5385,
      "rala": 5386,
      "Ġmodelu": 5387,
      "lit": 5388,
      "strova": 5389,
      "Ġsavez": 5390,
      "Ġendo": 5391,
      "Ġdata": 5392,
      "ĠÉ«É": 5393,
      "Ġtraje": 5394,
      "Ġfilozof": 5395,
      "Ñķ": 5396,
      "Ġkorona": 5397,
      "Ġsvojom": 5398,
      "Ġstadi": 5399,
      "Ġglagola": 5400,
      "Ġnacionalnog": 5401,
      "ĠveÅ¡ta": 5402,
      "Ġefikasnosti": 5403,
      "Ġveb": 5404,
      "Ġjednostavno": 5405,
      "poÄįe": 5406,
      "Ġstare": 5407,
      "Å¾nih": 5408,
      "Ġnavo": 5409,
      "Ġosiguranja": 5410,
      "Ġvole": 5411,
      "Ġnastavlja": 5412,
      "tip": 5413,
      "tama": 5414,
      "Ġrezu": 5415,
      "Ġceo": 5416,
      "jiÄĩ": 5417,
      "ĠreÅ¡i": 5418,
      "Ġstvarala": 5419,
      "Ġposlednje": 5420,
      "Ġimovine": 5421,
      "bilnost": 5422,
      "land": 5423,
      "Ġistoriji": 5424,
      "%),": 5425,
      "Ġosla": 5426,
      "Ġara": 5427,
      "Ġpake": 5428,
      "Ġubije": 5429,
      "jskoj": 5430,
      "stovi": 5431,
      "danas": 5432,
      "dimo": 5433,
      "ĠpredloÅ¾e": 5434,
      "Ġvojvodine": 5435,
      "Ġtima": 5436,
      "ĠjaÄįa": 5437,
      "ĠpoÅ¾a": 5438,
      "Ġuprkos": 5439,
      "Ġsrednjo": 5440,
      "Ġari": 5441,
      "zme": 5442,
      "Ġponekad": 5443,
      "Ġune": 5444,
      "Ġpostala": 5445,
      "Ġintereso": 5446,
      "Ġvol": 5447,
      "Ġeta": 5448,
      "Ġdelovanja": 5449,
      "Ġpome": 5450,
      "ĠÄįesti": 5451,
      "Ġpis": 5452,
      "Ġdije": 5453,
      "Ġsmanjenja": 5454,
      "Ġsajtu": 5455,
      "Ġpritisak": 5456,
      "Ġkorpu": 5457,
      "ras": 5458,
      "Ġforme": 5459,
      "stoj": 5460,
      "Ġopada": 5461,
      "pio": 5462,
      "dove": 5463,
      "Ġglagol": 5464,
      "Ġreke": 5465,
      "Ġcelu": 5466,
      "glu": 5467,
      "Ġkarakter": 5468,
      "64": 5469,
      "ĠpH": 5470,
      "beogra": 5471,
      "Ġsigur": 5472,
      "tada": 5473,
      "kupan": 5474,
      "âĢ¦âĢ¦": 5475,
      "Ġpride": 5476,
      "ĠÃ±": 5477,
      "ĠsaopÅ¡ti": 5478,
      "Ġbitno": 5479,
      "ĠnajznaÄįaj": 5480,
      "Ġstavove": 5481,
      "04": 5482,
      "ljivih": 5483,
      "canje": 5484,
      "52": 5485,
      ".),": 5486,
      "taj": 5487,
      "ĠnemaÄįke": 5488,
      "Å¡njim": 5489,
      "Ġmetara": 5490,
      "Ġtehnike": 5491,
      "proda": 5492,
      "Ġzanima": 5493,
      "Ġintervju": 5494,
      "Ġjeze": 5495,
      "Ġakcije": 5496,
      "Ġtipi": 5497,
      "cke": 5498,
      "Ġdoprinosi": 5499,
      "Ġ1992": 5500,
      "Ġbrojem": 5501,
      "ĠpodrÅ¡ke": 5502,
      "Ġparale": 5503,
      "Ġprijatelj": 5504,
      "gledno": 5505,
      "Ġbezbednost": 5506,
      "Ġinstituta": 5507,
      "Ġdeluje": 5508,
      "Ġkvadra": 5509,
      "Ġprilog": 5510,
      "Ġravnote": 5511,
      "Ġzaslu": 5512,
      "ĠnaÅ¡a": 5513,
      "Ġderi": 5514,
      "ĠangaÅ¾o": 5515,
      "03": 5516,
      "Ġvisoke": 5517,
      "ĠobjaÅ¡njava": 5518,
      "kor": 5519,
      "Ã§": 5520,
      "timo": 5521,
      "Ġbori": 5522,
      "Ġprednosti": 5523,
      "Ġmusli": 5524,
      "Ġstimu": 5525,
      "ÊĦ": 5526,
      "blo": 5527,
      "Äįila": 5528,
      "Ġnovembra": 5529,
      "Ġjednako": 5530,
      "Ġupisa": 5531,
      "Ġmlade": 5532,
      "Ġfili": 5533,
      "Ġrastu": 5534,
      "Ġslova": 5535,
      "Ġsan": 5536,
      "uÄįe": 5537,
      "Ġnismo": 5538,
      "lep": 5539,
      "Ġkriminal": 5540,
      "Ġprimera": 5541,
      "verzi": 5542,
      "Ġpp": 5543,
      "ria": 5544,
      "Ġsaradnju": 5545,
      "Ġsredini": 5546,
      "ĠÊģ": 5547,
      "ĠkoÅ¡ta": 5548,
      "Ġsaradnje": 5549,
      "Ġ33": 5550,
      "Ġodg": 5551,
      "08": 5552,
      "Ġnao": 5553,
      "odre": 5554,
      "Ġosnovna": 5555,
      "Ġkg": 5556,
      "sigu": 5557,
      "Ġbakte": 5558,
      "Ġradnje": 5559,
      "Ġep": 5560,
      "Ġcilja": 5561,
      "ĠoznaÄįava": 5562,
      "63": 5563,
      "Ġsp": 5564,
      "Ġuklanja": 5565,
      "Ġformiranje": 5566,
      "gore": 5567,
      "Ġinvali": 5568,
      "Ġhiper": 5569,
      "Ġstudiji": 5570,
      "Ġtakva": 5571,
      "Ïĥ": 5572,
      "Ġpriori": 5573,
      "Ġstambe": 5574,
      "Ã¼": 5575,
      "Å¡avaju": 5576,
      "Ġanalizom": 5577,
      "Ġmaso": 5578,
      "ĠdrÅ¾avi": 5579,
      "aktiv": 5580,
      "Ġukra": 5581,
      "Ġsvojstva": 5582,
      "Ġblizini": 5583,
      "rskog": 5584,
      "sje": 5585,
      "Äįin": 5586,
      "nau": 5587,
      "Ġakcija": 5588,
      "fikaciju": 5589,
      "Ġtermi": 5590,
      "Ġratu": 5591,
      "Ġposeduje": 5592,
      "Ġkancela": 5593,
      "Ġmin": 5594,
      "ĠmeÄĳusobno": 5595,
      "Ġotac": 5596,
      "rus": 5597,
      "Ġpak": 5598,
      "Ġzanema": 5599,
      "tara": 5600,
      "ĠdrÅ¾avlja": 5601,
      "Äįla": 5602,
      "foto": 5603,
      "Ġfonda": 5604,
      "Ġromana": 5605,
      "Ġmnogim": 5606,
      "Ġdisertacije": 5607,
      "ĠlakÅ¡e": 5608,
      "Ġjevre": 5609,
      "ĠÄįinjenice": 5610,
      "Ġopreme": 5611,
      "Ġtitu": 5612,
      "Ġdeter": 5613,
      "Ġulaz": 5614,
      "Ġvisok": 5615,
      "funk": 5616,
      "Ġzaba": 5617,
      "Ġ1994": 5618,
      "Ġrazumevanje": 5619,
      ".âĢĿ": 5620,
      "grafija": 5621,
      "Ġkapaciteta": 5622,
      "Ġsituaciji": 5623,
      "nÄįa": 5624,
      "Ġuspeh": 5625,
      "rijski": 5626,
      "Ġogrom": 5627,
      "cide": 5628,
      "Ġputovanja": 5629,
      "Ġbiste": 5630,
      "Ġdiskrimina": 5631,
      "ning": 5632,
      "Ġtor": 5633,
      "Ġstrukturi": 5634,
      "Ġfudbal": 5635,
      "ĠniÅ¾i": 5636,
      "ukup": 5637,
      "54": 5638,
      "oba": 5639,
      "Ġpolicije": 5640,
      "Ġbaj": 5641,
      "Â»": 5642,
      "Ġhorizo": 5643,
      "ĠÃ¯": 5644,
      "71": 5645,
      "Ġ\\": 5646,
      "Ġepizo": 5647,
      "Ġprikazan": 5648,
      "Ġpostojanja": 5649,
      "72": 5650,
      "Ġkrize": 5651,
      "lizam": 5652,
      "Ġmanja": 5653,
      "zanti": 5654,
      "ĠkoÅ¡a": 5655,
      "ĠodreÄĳenim": 5656,
      "sora": 5657,
      "ncu": 5658,
      "vek": 5659,
      "Ġobraz": 5660,
      "Ġliga": 5661,
      "Ġtrajanja": 5662,
      "jeve": 5663,
      "ĠodreÄĳena": 5664,
      "Ġregionu": 5665,
      "Ġimi": 5666,
      "Ġefikasnost": 5667,
      "ĠdrugaÄįije": 5668,
      "Ġsignala": 5669,
      "Ġinterva": 5670,
      "02": 5671,
      "Ġizdvaja": 5672,
      "Ġonoga": 5673,
      "Ġupa": 5674,
      "ny": 5675,
      "Ġslabo": 5676,
      "Ġpotencijal": 5677,
      "Ġuklo": 5678,
      "Ġsveti": 5679,
      "ÄĮ": 5680,
      "Ġkomo": 5681,
      "Ġvanred": 5682,
      "ĠpoÄįela": 5683,
      "Ġmeda": 5684,
      "Ġruke": 5685,
      "miÅ¡lje": 5686,
      "ĠduÅ¾e": 5687,
      "Ġskra": 5688,
      "Ġbave": 5689,
      "Ġsed": 5690,
      "Ġproblemi": 5691,
      "Ġprodaje": 5692,
      "Ġispunja": 5693,
      "Ġzase": 5694,
      "73": 5695,
      "Ġimplementa": 5696,
      "cionim": 5697,
      "Ġsiroma": 5698,
      "Ġiskoristi": 5699,
      "ÉļÉľ": 5700,
      "Ġrije": 5701,
      "Ġkonver": 5702,
      "ĠjovanoviÄĩ": 5703,
      "Ġstranih": 5704,
      "Ġstandarda": 5705,
      "koji": 5706,
      "obi": 5707,
      "06": 5708,
      "Ġlegi": 5709,
      "ÉŁÉª": 5710,
      "Ġsja": 5711,
      "nder": 5712,
      "Ġnikad": 5713,
      "Ġostvaruje": 5714,
      "Ġelementi": 5715,
      "ĠproÅ¡losti": 5716,
      "Ġgeograf": 5717,
      "Ġsuge": 5718,
      "nis": 5719,
      "Ġprivre": 5720,
      "Ġlim": 5721,
      "51": 5722,
      "ljenost": 5723,
      "Ġeuro": 5724,
      "beograd": 5725,
      "Ġniza": 5726,
      "Ġport": 5727,
      "ekonom": 5728,
      "Ġoprede": 5729,
      "ÉŁÉŀ": 5730,
      "bilnosti": 5731,
      "kinja": 5732,
      "ĠÃ¨": 5733,
      "Ġrazlikuje": 5734,
      "Ġiv": 5735,
      "ĠÂµ": 5736,
      "2011": 5737,
      "Ġrazgovara": 5738,
      "Ġsrpskoj": 5739,
      "Ġelementa": 5740,
      "Ġrok": 5741,
      "Ġkorup": 5742,
      "Ġljubav": 5743,
      "Ġprimeni": 5744,
      "Ġkro": 5745,
      "ĠgodiÅ¡nje": 5746,
      "Ġzvezda": 5747,
      "sana": 5748,
      "alne": 5749,
      "vljeni": 5750,
      "Ġuma": 5751,
      "ĠmeÄĳunarodne": 5752,
      "Ġspra": 5753,
      "Ġzakonu": 5754,
      "Ġruske": 5755,
      "Ġbuga": 5756,
      "Ġbran": 5757,
      "Ġproi": 5758,
      "leta": 5759,
      "jam": 5760,
      "Ġprimenjuje": 5761,
      "Ġgrupama": 5762,
      "ht": 5763,
      "nge": 5764,
      "Ġpreduzetni": 5765,
      "jenja": 5766,
      "Ġljubavi": 5767,
      "Ġlondo": 5768,
      "Ġjavni": 5769,
      "Ġpolje": 5770,
      "Ġraspode": 5771,
      "Ġorganizaciji": 5772,
      "njenje": 5773,
      "Ġmesec": 5774,
      "duju": 5775,
      "Ġjednim": 5776,
      "kvu": 5777,
      "ÉļÉ¬": 5778,
      "Ġsvesti": 5779,
      "Ġmetod": 5780,
      "tivnost": 5781,
      "Ġnazivom": 5782,
      "Ġhirur": 5783,
      "Ġpromeni": 5784,
      "skula": 5785,
      "lnika": 5786,
      "ĠkaÅ¾u": 5787,
      "Ġaj": 5788,
      "Ġfer": 5789,
      "Äĩuju": 5790,
      "Ġfri": 5791,
      "ĠÄĳa": 5792,
      "--": 5793,
      "Ġosloba": 5794,
      "Ġdobre": 5795,
      "Ġoperacije": 5796,
      "Ġizraz": 5797,
      "Ġnapla": 5798,
      "ĠÅ¡tete": 5799,
      "Ġrezer": 5800,
      "Å¾uje": 5801,
      "Ġmetala": 5802,
      "Ġupla": 5803,
      "Ð®": 5804,
      "toli": 5805,
      "Ġporeza": 5806,
      "ĠodrÅ¾avanje": 5807,
      "Ġapara": 5808,
      "Ġfarma": 5809,
      "Ġpobu": 5810,
      "Ġzali": 5811,
      "ĠÉ¬": 5812,
      "Ġospo": 5813,
      "Ġodnosima": 5814,
      "Ġobrade": 5815,
      "Ġaspekta": 5816,
      "Ġodredbe": 5817,
      "jera": 5818,
      "Ġbazira": 5819,
      "Ġeduka": 5820,
      "Ġkampa": 5821,
      "Ġkakav": 5822,
      "ĠÂ«": 5823,
      "Ġprvenstveno": 5824,
      "ĠmoÅ£e": 5825,
      "Ġistori": 5826,
      "res": 5827,
      "mili": 5828,
      "Ġinterakcije": 5829,
      "valua": 5830,
      "ntropo": 5831,
      "ĠutvrÄĳeno": 5832,
      "ntri": 5833,
      "Ġistim": 5834,
      "Ġkonferen": 5835,
      "ĠdoÅ¡ao": 5836,
      "Ġstudent": 5837,
      "Ġsnabde": 5838,
      "ĠizveÅ¡taj": 5839,
      "Ġostavlja": 5840,
      "Ġbezbedno": 5841,
      "Ġ500": 5842,
      "Ġprihoda": 5843,
      "Ġmilan": 5844,
      "peri": 5845,
      "dilo": 5846,
      "Ġlet": 5847,
      "Ġuticajem": 5848,
      "Ġznaju": 5849,
      "poru": 5850,
      "Ġkupu": 5851,
      "Ġproblemati": 5852,
      "Ġinspe": 5853,
      "povi": 5854,
      "Ġprora": 5855,
      "ĠvaÅ¾an": 5856,
      "un": 5857,
      "Ġuse": 5858,
      "ĠsluÄįaja": 5859,
      "Ġokvir": 5860,
      "tivnosti": 5861,
      "oci": 5862,
      "Ġjovan": 5863,
      "vljuju": 5864,
      "Ġgeno": 5865,
      "loÅ¾i": 5866,
      "pati": 5867,
      "ĠizvrÅ¡": 5868,
      "lera": 5869,
      "stiÄįke": 5870,
      "Å¡nju": 5871,
      "rano": 5872,
      "Ġimalo": 5873,
      "Ġpovezanost": 5874,
      "Ġtemu": 5875,
      "74": 5876,
      "Ġgovora": 5877,
      "Ġdugoro": 5878,
      "ĠzapoÅ¡lja": 5879,
      "Ġdokaz": 5880,
      "ĠÄįlanica": 5881,
      "Ġkralja": 5882,
      "Å¾enih": 5883,
      "Ġpokret": 5884,
      "Ġfinansijskih": 5885,
      "ĠtrÅ¾iÅ¡te": 5886,
      "Ġanke": 5887,
      "Ġpoglavlju": 5888,
      "Ġhipo": 5889,
      "Ġder": 5890,
      "Ġistakao": 5891,
      "Ġrazliko": 5892,
      "deÄĩi": 5893,
      "zavi": 5894,
      "ĠzaÅ¡tita": 5895,
      "Ġljubi": 5896,
      "Äįenih": 5897,
      "Ġfre": 5898,
      "Ġsaradnji": 5899,
      "Ġvrho": 5900,
      "Ġ34": 5901,
      "rtika": 5902,
      "Ġnastupa": 5903,
      "istraÅ¾i": 5904,
      "ĠveliÄįina": 5905,
      "Ġzasniva": 5906,
      "Ġmajka": 5907,
      "Ġnastanka": 5908,
      "Ġpoznat": 5909,
      "ĠinaÄįe": 5910,
      "Ġfla": 5911,
      "tike": 5912,
      "Ġsrpsko": 5913,
      "2012": 5914,
      "Î»": 5915,
      "noge": 5916,
      "ĠÎ¼": 5917,
      "Ġpm": 5918,
      "Ġpesni": 5919,
      "Ġdovesti": 5920,
      "Ġkrista": 5921,
      "ĠzakljuÄįak": 5922,
      "Ġpokazao": 5923,
      "Ġale": 5924,
      "Ġsporazuma": 5925,
      "Ġjesu": 5926,
      "ĠudÅ¾be": 5927,
      "ktori": 5928,
      "zimanje": 5929,
      "Ġslove": 5930,
      "tivu": 5931,
      "renih": 5932,
      "Ġmetodom": 5933,
      "Ġsveto": 5934,
      "gov": 5935,
      "Ġborbi": 5936,
      "89": 5937,
      "Ġprimje": 5938,
      "Ġkriterijuma": 5939,
      "ĠmiÅ¡i": 5940,
      "zer": 5941,
      "Ġpremi": 5942,
      "Ġdoktorska": 5943,
      "joÅ¡": 5944,
      "king": 5945,
      "Ġobjekat": 5946,
      "ĠpovrÅ¡ini": 5947,
      "Ġekvi": 5948,
      "loÅ¡kom": 5949,
      "siÄĩ": 5950,
      "Ġpau": 5951,
      "62": 5952,
      "61": 5953,
      "Ġradne": 5954,
      "É«É¤": 5955,
      "neta": 5956,
      "Ġstrukturu": 5957,
      "Ġpol": 5958,
      "Ġdepo": 5959,
      "ĠuÄįesnika": 5960,
      "âĢķ": 5961,
      "ngvisti": 5962,
      "Ġlibera": 5963,
      "Ġsobom": 5964,
      "ap": 5965,
      "Ġby": 5966,
      "ĠdelimiÄįno": 5967,
      "Ġneutra": 5968,
      "ĠnaÅ¡im": 5969,
      "mum": 5970,
      "Ġzakoni": 5971,
      "Ġnajma": 5972,
      "oksida": 5973,
      "slobo": 5974,
      "gama": 5975,
      "Ġtransport": 5976,
      "Ġokri": 5977,
      "Ġprirodi": 5978,
      "Ġolim": 5979,
      "zovani": 5980,
      "Ġekstre": 5981,
      "ĠsluÅ¡a": 5982,
      "Ġduna": 5983,
      "ĠobeleÅ¾": 5984,
      "Äĩenih": 5985,
      "Ġsaradnici": 5986,
      "dago": 5987,
      "Ġiskaza": 5988,
      "Ġela": 5989,
      "poda": 5990,
      "Ġmerenje": 5991,
      "Å¡ena": 5992,
      "Ġmoderni": 5993,
      "Ġuku": 5994,
      "Ġora": 5995,
      "ĠgraÄĳani": 5996,
      "fere": 5997,
      "mski": 5998,
      "ĠnaÅ¡u": 5999,
      "uzro": 6000,
      "Ġnadzor": 6001,
      "ĠÄĩi": 6002,
      "Ġzbor": 6003,
      "2013": 6004,
      "Ġizbega": 6005,
      "Ġnaf": 6006,
      "meto": 6007,
      "Ġprikazana": 6008,
      "2014": 6009,
      "Ġselu": 6010,
      "Ġzdravstvene": 6011,
      "Å¡na": 6012,
      "ĠduÅ¾ine": 6013,
      "Ġustano": 6014,
      "Ġprirodnih": 6015,
      "Äĳenog": 6016,
      "Ġkompete": 6017,
      "Ġnapisao": 6018,
      "Ġsuve": 6019,
      "Ġiznos": 6020,
      "ĠproÄįita": 6021,
      "dbe": 6022,
      "Ġese": 6023,
      "supro": 6024,
      "Ġbrzina": 6025,
      "Ġdolaze": 6026,
      "tho": 6027,
      "minali": 6028,
      "ĠvaÅ¾i": 6029,
      "novo": 6030,
      "Ġama": 6031,
      "Â´": 6032,
      "Ġdelovima": 6033,
      "spa": 6034,
      "ĠodgovarajuÄĩe": 6035,
      "vajanje": 6036,
      "É¡": 6037,
      "em": 6038,
      "Ġnapusti": 6039,
      "ĠÄįl": 6040,
      "Ġsni": 6041,
      "Ġbrani": 6042,
      "Ġstara": 6043,
      "narod": 6044,
      "bilo": 6045,
      "Ġnapona": 6046,
      "con": 6047,
      "Ġagencija": 6048,
      "tetom": 6049,
      "Ġstruje": 6050,
      "moÄĩ": 6051,
      "Ġpridru": 6052,
      "Ġprelazi": 6053,
      "Ġkarti": 6054,
      "Ġsliku": 6055,
      "Ġzadovo": 6056,
      "É¢É¯": 6057,
      "ĠpoloÅ¾aja": 6058,
      "07": 6059,
      "Ġpresto": 6060,
      "Ġsvima": 6061,
      "Ġnacionalnih": 6062,
      "Ġvisine": 6063,
      "Ġov": 6064,
      "Ġ(''": 6065,
      "Ġgusti": 6066,
      "Ġpoznato": 6067,
      "Ġusko": 6068,
      "neu": 6069,
      "Ġemocional": 6070,
      "Ġzgrade": 6071,
      "Ġistoriju": 6072,
      "Ġosobina": 6073,
      "Ġsituaciju": 6074,
      "naravno": 6075,
      "Ġxi": 6076,
      "Ġuro": 6077,
      "Ġkraguje": 6078,
      "ĠpoÅ¾e": 6079,
      "jednako": 6080,
      "Å¡ni": 6081,
      "Ġaktivno": 6082,
      "Ġmanifesta": 6083,
      "nciju": 6084,
      "Ġsvemu": 6085,
      "2010": 6086,
      "znosti": 6087,
      "Ġtermin": 6088,
      "Ġfakultetu": 6089,
      "Ġpretra": 6090,
      "Ġustanove": 6091,
      "Ġgale": 6092,
      "ÉļÉª": 6093,
      "Ġrazum": 6094,
      "ĠÅ¾an": 6095,
      "ĠbivÅ¡i": 6096,
      "Ġpromenu": 6097,
      "aj": 6098,
      "Ġinteli": 6099,
      "var": 6100,
      "ff": 6101,
      "Ġoku": 6102,
      "nc": 6103,
      "Ġpovezi": 6104,
      "ĠistraÅ¾ivanjima": 6105,
      "ljka": 6106,
      "Ġregre": 6107,
      "dp": 6108,
      "Ġznak": 6109,
      "Ġaleksandra": 6110,
      "Ġasi": 6111,
      "Ġizu": 6112,
      "Ġnesre": 6113,
      "Ġ300": 6114,
      "Ġprof": 6115,
      "Ġroman": 6116,
      "Ġube": 6117,
      "ĠkreÄĩe": 6118,
      "lizaciju": 6119,
      "Ã¦": 6120,
      "ljem": 6121,
      "Äįuju": 6122,
      "druga": 6123,
      "Ġlist": 6124,
      "Ġprojekata": 6125,
      "Ġnepro": 6126,
      "92": 6127,
      "lon": 6128,
      "Ġradnih": 6129,
      "Ġzauzima": 6130,
      "Ġsy": 6131,
      "Ġkontrola": 6132,
      "Ġ1993": 6133,
      "ĠnauÄįni": 6134,
      "rove": 6135,
      "hat": 6136,
      "ljak": 6137,
      "ac": 6138,
      "Ġvojne": 6139,
      "Ġpodnosi": 6140,
      "Ġzone": 6141,
      "Ġkorela": 6142,
      "Ġbriga": 6143,
      "np": 6144,
      "ÄĲ": 6145,
      "vene": 6146,
      "sluÅ¾be": 6147,
      "vci": 6148,
      "ol": 6149,
      "Ġfilma": 6150,
      "fra": 6151,
      "biti": 6152,
      "Ġkolu": 6153,
      "odno": 6154,
      "rnice": 6155,
      "Ġsaraje": 6156,
      "dovima": 6157,
      "up": 6158,
      "Ġpravnog": 6159,
      "Ġinstitut": 6160,
      "ĠprilagoÄĳa": 6161,
      "Ġseo": 6162,
      "Ġgradova": 6163,
      "Ġsinta": 6164,
      "Ġgramati": 6165,
      "Å¡tima": 6166,
      "................................": 6167,
      "vskog": 6168,
      "Ġmanda": 6169,
      "ĠkonaÄįno": 6170,
      "zdra": 6171,
      "Ġovoga": 6172,
      "kin": 6173,
      "Ġreferent": 6174,
      "Ġvje": 6175,
      "Ġnjeno": 6176,
      "jor": 6177,
      "sum": 6178,
      "geni": 6179,
      "ĠÄįeÅ¡Äĩe": 6180,
      "Ġpovu": 6181,
      "ĠopÅ¡tina": 6182,
      "Ġbel": 6183,
      "Ġispitivanih": 6184,
      "Ġsledi": 6185,
      "ĠmeÄĳusob": 6186,
      "ĠveÄĩim": 6187,
      "ticaj": 6188,
      "Ġiskori": 6189,
      "Ġposlovne": 6190,
      "Ġuniverza": 6191,
      "ĠdruÅ¡tveno": 6192,
      "Ġpojma": 6193,
      "Ġtok": 6194,
      "Ġgim": 6195,
      "ĠgreÅ¡ke": 6196,
      "Ġradom": 6197,
      "Ġpriliku": 6198,
      "Ġpovrede": 6199,
      "98": 6200,
      "sati": 6201,
      "ĠsluÅ¾i": 6202,
      "Ġmoz": 6203,
      "Ġmalih": 6204,
      "reti": 6205,
      "Ġluka": 6206,
      "ĠzavrÅ¡": 6207,
      "Ġrezi": 6208,
      "Ġidentitet": 6209,
      "Ġdobijaju": 6210,
      "Ġreakcija": 6211,
      "Ġel": 6212,
      "ranju": 6213,
      "ĠokruÅ¾enju": 6214,
      "des": 6215,
      "Ġnosio": 6216,
      "dnica": 6217,
      "Ġprednost": 6218,
      "Ġostala": 6219,
      "ĠoslobaÄĳa": 6220,
      "miÄĩ": 6221,
      "Ġstil": 6222,
      "Ġretko": 6223,
      "Äİe": 6224,
      "Ġekvivale": 6225,
      "Äįnije": 6226,
      "Ġtop": 6227,
      "Ġpristu": 6228,
      "loÅ¡ko": 6229,
      "Ġimale": 6230,
      "ĠÈ": 6231,
      "moni": 6232,
      "Ġkontroli": 6233,
      "Ġpd": 6234,
      "Ġobavesti": 6235,
      "mota": 6236,
      "Ġpapi": 6237,
      "ak": 6238,
      "Ġpojedinim": 6239,
      "2015": 6240,
      "Ġjos": 6241,
      "ĠtroÅ¡kove": 6242,
      "Ġfos": 6243,
      "zin": 6244,
      "ĠsaopÅ¡te": 6245,
      "ĠtroÅ¡kovi": 6246,
      "Lj": 6247,
      "Äĳivanju": 6248,
      "Ġxx": 6249,
      "Ġkonven": 6250,
      "ĠÏĦ": 6251,
      "cro": 6252,
      "ĠÉ¡": 6253,
      "ĠnadleÅ¾nosti": 6254,
      "Ġuvede": 6255,
      "ĠdruÅ¡tvenim": 6256,
      "Ġstvaranja": 6257,
      ".âĢĵ": 6258,
      "Ġpravno": 6259,
      "Ġklub": 6260,
      "Ġbizni": 6261,
      "Ġvremenom": 6262,
      "Ġcre": 6263,
      "Ġstandardi": 6264,
      "Ġsistemi": 6265,
      "engl": 6266,
      "Ġimam": 6267,
      "Ġmari": 6268,
      "Ġmio": 6269,
      "Ġdobijene": 6270,
      "Ġindustrije": 6271,
      "Ġstarosti": 6272,
      "Ġagencije": 6273,
      "Ġpogi": 6274,
      "Ġskri": 6275,
      "Ġazo": 6276,
      "Ġsoftver": 6277,
      "Ġuput": 6278,
      "ĠuveÄĩa": 6279,
      "Ġpotrebu": 6280,
      "ĠneÄįi": 6281,
      "govi": 6282,
      "dÅ¾a": 6283,
      "obu": 6284,
      "Ġzgrada": 6285,
      "Ġvirusa": 6286,
      "Ġnjim": 6287,
      "Ġpartije": 6288,
      "Ġnera": 6289,
      "Ġroda": 6290,
      "Ġhroni": 6291,
      "ĠraÄįun": 6292,
      "Ġsudija": 6293,
      "________________": 6294,
      "Ġrura": 6295,
      "Ġizvodi": 6296,
      "Ġpozicije": 6297,
      "âĪĴ": 6298,
      "cilj": 6299,
      "Ġkur": 6300,
      "ĠobezbeÄĳuje": 6301,
      "Ġfebruara": 6302,
      "Ġil": 6303,
      "Ġmuzike": 6304,
      "Ġmestima": 6305,
      "Ġopsta": 6306,
      "ï¿½ï¿½": 6307,
      "Ġdeci": 6308,
      "Ġpraksa": 6309,
      "Ġmihai": 6310,
      "Ġ1941": 6311,
      "njenih": 6312,
      "Ġempi": 6313,
      "Ġdodi": 6314,
      "bje": 6315,
      "fr": 6316,
      "rskoj": 6317,
      "Ġner": 6318,
      "Ġkonf": 6319,
      "Ġavio": 6320,
      "tpu": 6321,
      "Ġispitanici": 6322,
      "Ġpercep": 6323,
      "ght": 6324,
      "2009": 6325,
      "Ġpovr": 6326,
      "Ġregistrova": 6327,
      "Ġprole": 6328,
      "Ġopisuje": 6329,
      "ĠkoÅ¾e": 6330,
      "Ġnjegovoj": 6331,
      "ĠinÅ¾enje": 6332,
      "ĠÂ°": 6333,
      "Ġprivrede": 6334,
      "Ġizvori": 6335,
      "Ġpad": 6336,
      "Ġbolest": 6337,
      "Ġomla": 6338,
      "Ġdug": 6339,
      "Ġsredstvo": 6340,
      "Ġhiljada": 6341,
      "ameri": 6342,
      "cus": 6343,
      "Ġkosovu": 6344,
      "Ġpublika": 6345,
      "Ġgimna": 6346,
      "ya": 6347,
      "Ġoli": 6348,
      "ĠboÅ¾i": 6349,
      "ĠuÄįini": 6350,
      "Ġoblastima": 6351,
      "que": 6352,
      "Ġkapi": 6353,
      "ĠÅ¡ampi": 6354,
      "ĠnaÄįinu": 6355,
      "ÉļÊĥ": 6356,
      "Ġsituacijama": 6357,
      "Ġprvobi": 6358,
      "Ġsvoja": 6359,
      "Ġwa": 6360,
      "Ġsvu": 6361,
      "Ġanto": 6362,
      "Ġidu": 6363,
      "Äįice": 6364,
      "ĠoptereÄĩenja": 6365,
      "Ġpreven": 6366,
      "tskom": 6367,
      "Ġposeban": 6368,
      "Ġprivla": 6369,
      "Ġravni": 6370,
      "Ġpogled": 6371,
      "mb": 6372,
      "Ġprvu": 6373,
      "Ġveru": 6374,
      "tetima": 6375,
      "Ġterapije": 6376,
      "Ġautomobi": 6377,
      "slava": 6378,
      "ĠW": 6379,
      "nuli": 6380,
      "Ġwith": 6381,
      "Ġnedostatak": 6382,
      "ĠureÄĳaja": 6383,
      "siti": 6384,
      "ljuje": 6385,
      "ÉļÉ¥": 6386,
      "Ġnavedeno": 6387,
      "Ġstvarno": 6388,
      "ktom": 6389,
      "Ġnew": 6390,
      "os": 6391,
      "ĠpojaÄįa": 6392,
      "Ġodvoje": 6393,
      "Â£": 6394,
      "Ġ>": 6395,
      "spira": 6396,
      "Ġintra": 6397,
      "500": 6398,
      "ĠÎ±": 6399,
      "ĠpraktiÄįno": 6400,
      "Ġnapad": 6401,
      "Ġzona": 6402,
      "Ġposebne": 6403,
      "Ġreprodu": 6404,
      "evrop": 6405,
      "Ġnepokre": 6406,
      "Ġprivreme": 6407,
      "Ġukupne": 6408,
      "pela": 6409,
      "ljan": 6410,
      "Ġmetafo": 6411,
      "prvo": 6412,
      "Ġmnogih": 6413,
      "cno": 6414,
      "Ġafri": 6415,
      "Ġzaposleni": 6416,
      "analiza": 6417,
      "ĠkoriÅ¡Äĩen": 6418,
      "Ġkama": 6419,
      "Ġdirektora": 6420,
      "ĠrazliÄįiti": 6421,
      "Ġsvrhu": 6422,
      "á¼": 6423,
      "Ġregulisa": 6424,
      "Ġosobi": 6425,
      "ĠsprovoÄĳenje": 6426,
      "rila": 6427,
      "Ġpedago": 6428,
      "Ġkomisija": 6429,
      "Ġelement": 6430,
      "Ġnaju": 6431,
      "Ġisla": 6432,
      "tivnoj": 6433,
      "rskih": 6434,
      "Ġciklusa": 6435,
      "rts": 6436,
      "Ġunapred": 6437,
      "ĠÄĳorÄĳe": 6438,
      "Ġdvostru": 6439,
      "Ġsino": 6440,
      "Ġula": 6441,
      "Ġodbor": 6442,
      "Ġ42": 6443,
      "Ġpostepe": 6444,
      "Ġrusija": 6445,
      "veko": 6446,
      "Ġdodaje": 6447,
      "ĠpodruÄįje": 6448,
      "88": 6449,
      "Ġulazi": 6450,
      "mona": 6451,
      "Ġuslov": 6452,
      "Ġujedno": 6453,
      "Ġsekven": 6454,
      "Ġuto": 6455,
      "ĠuÄīe": 6456,
      "mail": 6457,
      "Ġuzorak": 6458,
      "Ġnagrada": 6459,
      "Ġpam": 6460,
      "ĠpraÄĩenje": 6461,
      "Ġdat": 6462,
      "ĠukljuÄįuju": 6463,
      "Ġduga": 6464,
      "ĠodreÄĳen": 6465,
      "ĠduÅ¾nosti": 6466,
      "Ġeventual": 6467,
      "ĠtuÅ¾ila": 6468,
      "komu": 6469,
      "Å¡tena": 6470,
      "Ġfinansijske": 6471,
      "Ġfrak": 6472,
      "Ġponude": 6473,
      ".(": 6474,
      "Âł": 6475,
      "Ġprincipa": 6476,
      "tore": 6477,
      "Ġmetaboli": 6478,
      "Ġleto": 6479,
      "teli": 6480,
      "DÐĮ": 6481,
      "Ġnago": 6482,
      "Ġroditelji": 6483,
      "vanog": 6484,
      "Ġobjavio": 6485,
      "rili": 6486,
      "Ġprikazane": 6487,
      "lizma": 6488,
      "Ġpravne": 6489,
      "Ġprekr": 6490,
      "Ġproizvodnja": 6491,
      "jama": 6492,
      "dim": 6493,
      "Ġefekata": 6494,
      "Å¾nim": 6495,
      "lovanje": 6496,
      "js": 6497,
      "Â²": 6498,
      "znost": 6499,
      "leti": 6500,
      "Ġnapomenu": 6501,
      "Ġgol": 6502,
      "Ġnjegovi": 6503,
      "ĠÅ¡eÄĩe": 6504,
      "Ġreferen": 6505,
      "Ġsjedinje": 6506,
      "Ġbaza": 6507,
      "Ġmotivi": 6508,
      "ĠniÅ¾e": 6509,
      "É¢É¬": 6510,
      "Ġaktivnostima": 6511,
      "Äįinje": 6512,
      "Ġsloven": 6513,
      "prva": 6514,
      "Ġosiguranje": 6515,
      "Ġprilika": 6516,
      "Ġupotreblja": 6517,
      "Ġoka": 6518,
      "Ġoca": 6519,
      "Ġpristupi": 6520,
      "Ġlicu": 6521,
      "Ġcenu": 6522,
      "ovde": 6523,
      "ĠreÅ¡avanje": 6524,
      "Ġantropo": 6525,
      "Ġtrgovine": 6526,
      "Ġsrca": 6527,
      "Ġefekti": 6528,
      "Ġtrudno": 6529,
      "Ġsvrhe": 6530,
      "Ġknjizi": 6531,
      "Ġdosada": 6532,
      "ĠmeÄĳunarodnog": 6533,
      "Ġslobodno": 6534,
      "Ġpotrebama": 6535,
      "pola": 6536,
      "Ġ1989": 6537,
      "Ġnano": 6538,
      "Ġbespla": 6539,
      "Ġprijem": 6540,
      "Ġnavedene": 6541,
      "Ġruku": 6542,
      "mica": 6543,
      "Ġtretman": 6544,
      "ĠÄįestica": 6545,
      "Ġkosovo": 6546,
      "Ġponi": 6547,
      "Ġselo": 6548,
      "fizi": 6549,
      "Ġvama": 6550,
      "Ġbelo": 6551,
      "Ġ65": 6552,
      "cin": 6553,
      "Ġneve": 6554,
      "Ġpoznati": 6555,
      "oko": 6556,
      "Ġostalo": 6557,
      "ĠodreÄĳenog": 6558,
      "Ġq": 6559,
      "ĠnajveÄĩa": 6560,
      "Ġkriminali": 6561,
      "kp": 6562,
      "Ġute": 6563,
      "Ġ49": 6564,
      "Ġ75": 6565,
      "Ġteritorije": 6566,
      "Ġsredinu": 6567,
      "Ġcve": 6568,
      "viÄĩe": 6569,
      "Ġbiljke": 6570,
      "Ġpolicija": 6571,
      "Ġpodsti": 6572,
      "Ġpreosta": 6573,
      "mne": 6574,
      "cc": 6575,
      "Ġvidimo": 6576,
      "Ġpala": 6577,
      "Ġinsi": 6578,
      "Ġkompleksa": 6579,
      "ktivnih": 6580,
      "ĠzavrÅ¡io": 6581,
      "Ġostao": 6582,
      "Ġelemente": 6583,
      "Ġstudijama": 6584,
      "grafikon": 6585,
      "loka": 6586,
      "Ġprisustvu": 6587,
      "Ġevalua": 6588,
      "Ġpreuzima": 6589,
      "Ġmediji": 6590,
      "Ġobavezu": 6591,
      "Ġserije": 6592,
      "ÊĤ": 6593,
      "Ġfrancuske": 6594,
      "ĠokruÅ¾enja": 6595,
      "Ġaktiva": 6596,
      "Ġbubre": 6597,
      "Ġvina": 6598,
      "grama": 6599,
      "mine": 6600,
      "Äįenjem": 6601,
      "Ġvladimir": 6602,
      "neki": 6603,
      "Ġrastvora": 6604,
      "ces": 6605,
      "Ġsaveza": 6606,
      "Äĳenim": 6607,
      "Ġprimeru": 6608,
      "Ġmlado": 6609,
      "Ġprijatelji": 6610,
      "ÄįiÄĩa": 6611,
      "Ġvodu": 6612,
      "razli": 6613,
      "nijeg": 6614,
      "Ġizre": 6615,
      "Ġsrednja": 6616,
      "ĠtreÄĩe": 6617,
      "Ġubrza": 6618,
      "ĠuÄįestvuju": 6619,
      "Ġsukoba": 6620,
      "miji": 6621,
      "Ġglas": 6622,
      "É¢É¤": 6623,
      "tskim": 6624,
      "Ġprimenjuju": 6625,
      "Ġpretpostavlja": 6626,
      "Ġasocija": 6627,
      "ktivni": 6628,
      "Ġambasa": 6629,
      "Ġstrada": 6630,
      "Ġstope": 6631,
      "Ġsektoru": 6632,
      "stovima": 6633,
      "Ġdovolj": 6634,
      "ÉŃÉ": 6635,
      "Ġ150": 6636,
      "Ġmom": 6637,
      "ĠobeÄĩa": 6638,
      "nalne": 6639,
      "Ġkreira": 6640,
      "Ġdetekto": 6641,
      "Ġveruje": 6642,
      "Ġdejstvo": 6643,
      "Ġdnk": 6644,
      "ĠizveÅ¡taja": 6645,
      "Ġjez": 6646,
      "Ġpostane": 6647,
      "Ġraznovr": 6648,
      "Ġotpada": 6649,
      "Ġustanovi": 6650,
      "Ġosvr": 6651,
      "staviti": 6652,
      "toksi": 6653,
      "Ġproceni": 6654,
      "gradi": 6655,
      "Ġdeblji": 6656,
      "ĠoseÄĩaj": 6657,
      "Ġprezi": 6658,
      "Ġjavnom": 6659,
      "Ġpredstavnika": 6660,
      "cina": 6661,
      "ĠÅ¾elje": 6662,
      "Ġprincip": 6663,
      "grisa": 6664,
      "Ġdiferencija": 6665,
      "canja": 6666,
      "Ġvisokog": 6667,
      "Ġdre": 6668,
      "ĠÅ¾al": 6669,
      "bne": 6670,
      "govore": 6671,
      "Ġfrag": 6672,
      "Ġstoja": 6673,
      "Ġplasti": 6674,
      "ciono": 6675,
      "napo": 6676,
      "Ġuspeha": 6677,
      "Ġevropskog": 6678,
      "Ġnovinar": 6679,
      "ĠunapreÄĳenje": 6680,
      "Ġmol": 6681,
      "Ġzrna": 6682,
      "Ġvali": 6683,
      "ĠpotroÅ¡aÄįa": 6684,
      "Ġrase": 6685,
      "Ġdrugima": 6686,
      "gara": 6687,
      "Ġidentifiko": 6688,
      "rakteri": 6689,
      "Ġkp": 6690,
      "ksima": 6691,
      "Ġkretanje": 6692,
      "Ġorgan": 6693,
      "Ġsvetske": 6694,
      "ia": 6695,
      "ĠmeÄĳunarodnih": 6696,
      "Ġodusta": 6697,
      "Ġrukovodi": 6698,
      "sane": 6699,
      "Ġpravom": 6700,
      "ĠdoÅ¡li": 6701,
      "ĠnemaÄįka": 6702,
      "Ġpesma": 6703,
      "ĠproÅ¡le": 6704,
      "pisuju": 6705,
      "ĠveÄĩini": 6706,
      "voljan": 6707,
      "Ġnudi": 6708,
      "Ġhrvatskoj": 6709,
      "seu": 6710,
      "Ġkomentare": 6711,
      "Ġepide": 6712,
      "tuju": 6713,
      "Ġnastaju": 6714,
      "Ġistu": 6715,
      "Ġkoman": 6716,
      "ĠpodrÅ¡ka": 6717,
      "mm": 6718,
      "Ġsistemima": 6719,
      "jnih": 6720,
      "Ġdimenzije": 6721,
      "Ġredovno": 6722,
      "Ġdar": 6723,
      "Ġdovode": 6724,
      "dnoj": 6725,
      "Ġtemperaturi": 6726,
      "Ġoktobar": 6727,
      "kg": 6728,
      "Å¡nih": 6729,
      "Ġoslanja": 6730,
      "Ġuzorku": 6731,
      "Ġdani": 6732,
      "Ġato": 6733,
      "Ġvizanti": 6734,
      "Ġportala": 6735,
      "Ġdecenija": 6736,
      "Ġweb": 6737,
      "Ġpredra": 6738,
      "Ġsmatrati": 6739,
      "Ġpande": 6740,
      "Ġlokalnih": 6741,
      "ĠmuÅ¡kar": 6742,
      "Ġveri": 6743,
      "Ġ.-": 6744,
      "Ġpromenama": 6745,
      "Ġnare": 6746,
      "Ġkorelacije": 6747,
      "Ġjavnost": 6748,
      "ranjem": 6749,
      "ĠdrÅ¾avnih": 6750,
      "zakon": 6751,
      "ĠpriÅ¡ti": 6752,
      "ĠunutraÅ¡njih": 6753,
      "ĠveÄĩeg": 6754,
      "Ġ.\"": 6755,
      "Ġvertika": 6756,
      "Ġzasta": 6757,
      "Ġ44": 6758,
      "Ġformiranja": 6759,
      "Ġcelini": 6760,
      "tenti": 6761,
      "ĠtraÅ¾e": 6762,
      "Ġzave": 6763,
      "Ġodrasli": 6764,
      "pne": 6765,
      "Î·": 6766,
      "ĠmuÅ¡karaca": 6767,
      "ĠrazliÄįita": 6768,
      "Ġvrati": 6769,
      "ĠreÄįeno": 6770,
      "cionalni": 6771,
      "Ġnacionalni": 6772,
      "Ġ55": 6773,
      "opera": 6774,
      "Ġrake": 6775,
      "Ġpotreban": 6776,
      "Ġnjihovi": 6777,
      "Ġhr": 6778,
      "Ġzadataka": 6779,
      "godiÅ¡nji": 6780,
      "Ġtoksi": 6781,
      "Ð¬": 6782,
      "Ġlisti": 6783,
      "Ġfotografije": 6784,
      "Ġado": 6785,
      "Ġtermo": 6786,
      "prostra": 6787,
      "Ġpeva": 6788,
      "EÐİ": 6789,
      "ĠmiÅ¡ljenju": 6790,
      "Ġizrade": 6791,
      "Ġnaveo": 6792,
      "ĠÄįinjenicu": 6793,
      "upravo": 6794,
      "Ġuticati": 6795,
      "srbija": 6796,
      "Ġideal": 6797,
      "Ġsne": 6798,
      "Ġglave": 6799,
      "Ġlaza": 6800,
      "Ġaerod": 6801,
      "Ġkul": 6802,
      "Ġprogramu": 6803,
      "Ġrusiji": 6804,
      "ĠmenadÅ¾e": 6805,
      "tle": 6806,
      "Ġtumora": 6807,
      "ĠpojedinaÄįnih": 6808,
      "ntnog": 6809,
      "Ġstvori": 6810,
      "love": 6811,
      "Ġdoprinose": 6812,
      "noÅ¡enje": 6813,
      "Ġzida": 6814,
      "Ġmito": 6815,
      "Å¡kim": 6816,
      "Ġopo": 6817,
      "Ġ43": 6818,
      "Ġdobru": 6819,
      "budu": 6820,
      "Ġposlovnih": 6821,
      "ntnim": 6822,
      "Ġwor": 6823,
      "Å¡tenje": 6824,
      "Ġprocesi": 6825,
      "ĠznaÄīa": 6826,
      "Ġjona": 6827,
      "Ġpokazalo": 6828,
      "Ġdestina": 6829,
      "Ġteku": 6830,
      "han": 6831,
      "ĠistraÅ£i": 6832,
      "Ġfizio": 6833,
      "Ġuvi": 6834,
      "Ġbogat": 6835,
      "ĠnaÄįine": 6836,
      "Ġmos": 6837,
      "Ġglavnog": 6838,
      "lia": 6839,
      "ĠistiÄįu": 6840,
      "kvali": 6841,
      "Ġalgorit": 6842,
      "ĠdrÅ¾i": 6843,
      "Ġaustra": 6844,
      "Ġspor": 6845,
      "Ġgeneracije": 6846,
      "Ġkoeficijent": 6847,
      "Ġjan": 6848,
      "Ġzatvora": 6849,
      "Ġaviona": 6850,
      "Ġposlednji": 6851,
      "lovanja": 6852,
      "Ġpojedinca": 6853,
      "Ġizgradnju": 6854,
      "Ġkale": 6855,
      "Ġzajednici": 6856,
      "Ġvida": 6857,
      "kana": 6858,
      "Å¡njo": 6859,
      "tnici": 6860,
      "Å¡tenja": 6861,
      "Ġdele": 6862,
      "Ġkoncepta": 6863,
      "Ġkupi": 6864,
      "ĠpoÅ¡tu": 6865,
      "Ġsavet": 6866,
      "âĢĺ": 6867,
      "rami": 6868,
      "juÄĩih": 6869,
      "vajanja": 6870,
      "2016": 6871,
      "Ġnjenom": 6872,
      "vamo": 6873,
      "Ġintenziteta": 6874,
      "Å¡aka": 6875,
      "Ġmedijima": 6876,
      "part": 6877,
      "Ġnagrade": 6878,
      "ruÅ¾a": 6879,
      "Ġpriklju": 6880,
      "vaca": 6881,
      "mac": 6882,
      "jke": 6883,
      "Ġstranu": 6884,
      "Ġsloboda": 6885,
      "gina": 6886,
      "Ġperformansi": 6887,
      "ĠmeÄĳunarodnim": 6888,
      "Ġdali": 6889,
      "ĠbuduÄĩnost": 6890,
      "ĠbivÅ¡e": 6891,
      "Ġmona": 6892,
      "Ġprocedure": 6893,
      "Ġhisto": 6894,
      "Ġdate": 6895,
      "ĠnajveÄĩe": 6896,
      "Ġintegri": 6897,
      "Ġakce": 6898,
      "Ġudeo": 6899,
      "ĠdruÅ¡tvenog": 6900,
      "ĠÄĳo": 6901,
      "Ġglavnih": 6902,
      "pula": 6903,
      "Ġvisokim": 6904,
      "Ġobezbedi": 6905,
      "Ġsastavu": 6906,
      "Ġradovi": 6907,
      "95": 6908,
      "Ġobvez": 6909,
      "Ġkomentari": 6910,
      "Ġfokusi": 6911,
      "Ġsporazum": 6912,
      "Ġmrt": 6913,
      "Å¾nom": 6914,
      "Ġvoka": 6915,
      "Ġhibri": 6916,
      "Ġprepre": 6917,
      "Ġizdvoji": 6918,
      "Ïħ": 6919,
      "njiho": 6920,
      "Ġpoznata": 6921,
      "Ġpare": 6922,
      "Ġgubitak": 6923,
      "Ġterenu": 6924,
      "Ġpitanjima": 6925,
      "Ġobraza": 6926,
      "ĠuÄįestvuje": 6927,
      "Ġjugoslaviji": 6928,
      "stavljanje": 6929,
      "Ġprocena": 6930,
      "ĠobraÄĩa": 6931,
      "Ġonima": 6932,
      "Ġnjenih": 6933,
      "ĠzraÄįenja": 6934,
      "Ġmen": 6935,
      "prose": 6936,
      "Ġkraljev": 6937,
      "Ġzove": 6938,
      "Ġnaknade": 6939,
      "Ġleta": 6940,
      "Ġenzima": 6941,
      "sm": 6942,
      "ĠnoÄĩi": 6943,
      "Ġenergija": 6944,
      "Ġsaznanja": 6945,
      "Ġ41": 6946,
      "Ġizmena": 6947,
      "Ġnaslov": 6948,
      "nts": 6949,
      "Ġmehanizam": 6950,
      "Ġ64": 6951,
      "suprot": 6952,
      "Ġzakonodav": 6953,
      "Ġmart": 6954,
      "Ġonim": 6955,
      "Ġpisme": 6956,
      "oce": 6957,
      "Ġdelovi": 6958,
      "mak": 6959,
      "Å¡eni": 6960,
      "Ġpostaju": 6961,
      "ljom": 6962,
      "org": 6963,
      "turi": 6964,
      "Ġspisa": 6965,
      "stero": 6966,
      "Ġprikazi": 6967,
      "Ġzloupotre": 6968,
      "cie": 6969,
      "Ġtrgovi": 6970,
      "Ġopora": 6971,
      "ĠodrÅ¾avanja": 6972,
      "Ġmagi": 6973,
      "ĠpotvrÄĳuje": 6974,
      "Ġsocijalisti": 6975,
      "ktivnosti": 6976,
      "Ġlep": 6977,
      "ĠÅ¾rtve": 6978,
      "dovolj": 6979,
      "tana": 6980,
      "Ġnasilje": 6981,
      "Ġnose": 6982,
      "2022": 6983,
      "biÄĩ": 6984,
      "Ġnacija": 6985,
      "ĠznaÄįajnu": 6986,
      "Ġmoja": 6987,
      "Ġobno": 6988,
      "vljene": 6989,
      "âĢ¡": 6990,
      "Ġlige": 6991,
      "Ġalu": 6992,
      "ĠsaobraÄĩaja": 6993,
      "Ġpartne": 6994,
      "ĠvaÅ¾e": 6995,
      "inter": 6996,
      "hidro": 6997,
      "Ġuspeo": 6998,
      "Îº": 6999,
      "Ġvarijabli": 7000,
      "Ġprikazuje": 7001,
      "komenta": 7002,
      "Ġhetero": 7003,
      "tete": 7004,
      "Ġliterature": 7005,
      "Ġvege": 7006,
      "koni": 7007,
      "pul": 7008,
      "demo": 7009,
      "Ġ400": 7010,
      "Ġsvakoj": 7011,
      "ĠpriliÄįno": 7012,
      "postoje": 7013,
      "Ġsamouprave": 7014,
      "ÉļÊģ": 7015,
      "lori": 7016,
      "Ġobliko": 7017,
      "Ġupotrebom": 7018,
      "ĠÉª": 7019,
      "vilo": 7020,
      "Ġprocedura": 7021,
      "kretni": 7022,
      "Ġsinteti": 7023,
      "Ġglavne": 7024,
      "Ġpredstavnici": 7025,
      "Ġprovi": 7026,
      "Ġizgled": 7027,
      "ĠniÅ¡u": 7028,
      "jka": 7029,
      "Ġpojavljuje": 7030,
      "Ġonog": 7031,
      "Ġevolu": 7032,
      "Ġtota": 7033,
      "ĠdrÅ¾avni": 7034,
      "Ġetno": 7035,
      "Ġgasa": 7036,
      "ĠÉ¦": 7037,
      "move": 7038,
      "Ġkomanda": 7039,
      "ĠnemaÄįkoj": 7040,
      "Ġkulturu": 7041,
      "Ġmalim": 7042,
      "Ġpriprem": 7043,
      "Ġ-,": 7044,
      "Ġpacijenta": 7045,
      "Ġdatum": 7046,
      "Ġtelefon": 7047,
      "Ġosnove": 7048,
      "Ġkomunisti": 7049,
      "Ġresto": 7050,
      "Ġtakvih": 7051,
      "Ġprekida": 7052,
      "Ġkralj": 7053,
      "Ġsuprot": 7054,
      "Î¼": 7055,
      "Ġbudi": 7056,
      "Ġusvoji": 7057,
      "%).": 7058,
      "centra": 7059,
      "stavljena": 7060,
      "ncima": 7061,
      "Ġopi": 7062,
      "sila": 7063,
      "Ġostvare": 7064,
      "ĠviÅ¡estru": 7065,
      "Ġdodao": 7066,
      "zmom": 7067,
      "Ġgvo": 7068,
      "Ġposebnim": 7069,
      "Ġkongre": 7070,
      "dini": 7071,
      "Ġnastala": 7072,
      "stara": 7073,
      "ĠnauÄįno": 7074,
      "ĠâĪĴ": 7075,
      "Ġkulturi": 7076,
      "ĠunutraÅ¡nje": 7077,
      "Ġset": 7078,
      "Ġobim": 7079,
      "Ġuva": 7080,
      "Ġpovolj": 7081,
      "Ġevropskih": 7082,
      "Ġzauze": 7083,
      "2008": 7084,
      "and": 7085,
      "Ġprethodne": 7086,
      "logy": 7087,
      "ĠpolitiÄįkog": 7088,
      "Ġoblici": 7089,
      "Ġ120": 7090,
      "priÄįa": 7091,
      "Ġprouzro": 7092,
      "Ġvije": 7093,
      "Ġuha": 7094,
      "cionalne": 7095,
      "Ġsignal": 7096,
      "Ġpostro": 7097,
      "Ġobjekti": 7098,
      "Ġplate": 7099,
      "Ġpozitivno": 7100,
      "Ġproizvodnji": 7101,
      "Ġdelatnost": 7102,
      "postoji": 7103,
      "Ġolimpi": 7104,
      "Ġobavezno": 7105,
      "Ã¯": 7106,
      "Ġslobodu": 7107,
      "Ġekonomije": 7108,
      "Ġskupa": 7109,
      "phi": 7110,
      "Ġmer": 7111,
      "Ġvalu": 7112,
      "ĠliÄįno": 7113,
      "Ġpojavu": 7114,
      "Ġprolazi": 7115,
      "ĠleÄįenja": 7116,
      "tanje": 7117,
      "Ġstatusa": 7118,
      "Ġkoro": 7119,
      "Ġinva": 7120,
      "Ġarhe": 7121,
      "Ġcrnogo": 7122,
      "Ġprodavni": 7123,
      "epi": 7124,
      "Ġprincipi": 7125,
      "Ġbanja": 7126,
      "Ġsudova": 7127,
      "Ġsvetskom": 7128,
      "Ġzoni": 7129,
      "Ġizgradnje": 7130,
      "nsis": 7131,
      "vrednosti": 7132,
      "Ġkasni": 7133,
      "Ġotvori": 7134,
      "Ġuzrok": 7135,
      "ĠstanovniÅ¡tvo": 7136,
      "elektri": 7137,
      "Ġrezul": 7138,
      "tici": 7139,
      "lik": 7140,
      "stiÄįki": 7141,
      "Ġdista": 7142,
      "ĠsluÅ¾bi": 7143,
      "Äįun": 7144,
      "Ġtrajanju": 7145,
      "Ġemisije": 7146,
      "Ġprisutna": 7147,
      "Ġpodatak": 7148,
      "Ġprogre": 7149,
      "Ġuzeti": 7150,
      "cm": 7151,
      "tala": 7152,
      "ĠproizvoÄĳaÄįa": 7153,
      "cionom": 7154,
      "Ġkonstrukcije": 7155,
      "ĠpopoviÄĩ": 7156,
      "Äįem": 7157,
      "Ġkomponenti": 7158,
      "jezi": 7159,
      "Ġterori": 7160,
      "Ġjavnim": 7161,
      "Ġuvod": 7162,
      "Ġodobre": 7163,
      "Ġzvezde": 7164,
      "Ġdevet": 7165,
      "Ġekonomskog": 7166,
      "nÑĭ": 7167,
      "Ġkulturnog": 7168,
      "ĠduÅ¾ina": 7169,
      "ktivnog": 7170,
      "can": 7171,
      "Ġ1988": 7172,
      "Ġdomini": 7173,
      "qa": 7174,
      "Ġprinu": 7175,
      "Ġsvetski": 7176,
      "Ġkulturne": 7177,
      "Ġroma": 7178,
      "Ġmesa": 7179,
      "ĠÅ¡ved": 7180,
      "¬ģ": 7181,
      "Ġpasi": 7182,
      "leo": 7183,
      "ngu": 7184,
      "Ġpovezana": 7185,
      "nulo": 7186,
      "Ġrazne": 7187,
      "dora": 7188,
      "Ġpripoveda": 7189,
      "Ġostr": 7190,
      "Ġvremenski": 7191,
      "Å¡teni": 7192,
      "Ġruski": 7193,
      "diÄĩ": 7194,
      "Ġblizu": 7195,
      "ÉļÉŀ": 7196,
      "Ġkonstitu": 7197,
      "Ġporast": 7198,
      "Ġprvenstvo": 7199,
      "sona": 7200,
      "ndu": 7201,
      "Ġkontinui": 7202,
      "Ġsamostalno": 7203,
      "Ġuvid": 7204,
      "Ġizraza": 7205,
      "Ġinfekcije": 7206,
      "kcijom": 7207,
      "nes": 7208,
      "Ġinsu": 7209,
      "bova": 7210,
      "Ġvojska": 7211,
      "Ġukrajine": 7212,
      "cipa": 7213,
      "Ġultra": 7214,
      "Ġprimenji": 7215,
      "Ġmoda": 7216,
      "Ġraznih": 7217,
      "Ġsmedere": 7218,
      "svaki": 7219,
      "Ġml": 7220,
      "Ġorijenti": 7221,
      "Ġvir": 7222,
      "Ġintegrisa": 7223,
      "berg": 7224,
      "Ġosnovnog": 7225,
      "Ġkontrolisa": 7226,
      "É¢Éľ": 7227,
      "Ġizborima": 7228,
      "Ġnez": 7229,
      "Ġsektor": 7230,
      "ĠpetroviÄĩ": 7231,
      "izo": 7232,
      "zovane": 7233,
      "Ġrastva": 7234,
      "Ġprezenta": 7235,
      "ĠloÅ¡i": 7236,
      "Ġmoramo": 7237,
      "Ġpostav": 7238,
      "ĠdonoÅ¡enja": 7239,
      "Ġjun": 7240,
      "Ġmira": 7241,
      "sijom": 7242,
      "ĠutvrÄĳivanje": 7243,
      "Ġmajke": 7244,
      "bin": 7245,
      "Ġbosne": 7246,
      "ĠkriviÄįnih": 7247,
      "Ġlekse": 7248,
      "Ġodse": 7249,
      "Ġizradu": 7250,
      "Ġteoriji": 7251,
      "Ġprefi": 7252,
      "nzije": 7253,
      "ĠleÄįenje": 7254,
      "85": 7255,
      "moviÄĩ": 7256,
      "tribu": 7257,
      "Ġgora": 7258,
      "Ġukrajini": 7259,
      "ĠpreviÅ¡e": 7260,
      "ĠodreÄĳenom": 7261,
      "Ġokon": 7262,
      "ĠbiÄĩa": 7263,
      "bac": 7264,
      "Ġkrimina": 7265,
      "zovana": 7266,
      "moÅ¾da": 7267,
      "Ġsajt": 7268,
      "Å¾bu": 7269,
      "Ġpravima": 7270,
      "tove": 7271,
      "wo": 7272,
      "Ġvarijable": 7273,
      "Ġnacionali": 7274,
      "Ġlinea": 7275,
      "Ġefekte": 7276,
      "trans": 7277,
      "Ġborbu": 7278,
      "Ġdijagno": 7279,
      "Ġkanala": 7280,
      "vajca": 7281,
      "Ġnosa": 7282,
      "Ġpotrebne": 7283,
      "Ġpli": 7284,
      "ĠpodseÄĩa": 7285,
      "Ġautobu": 7286,
      "Ġeksploa": 7287,
      ".:": 7288,
      "Ġstabilnost": 7289,
      "dy": 7290,
      "sov": 7291,
      "njama": 7292,
      "ĠporemeÄĩaja": 7293,
      "Ġdom": 7294,
      "Ġ46": 7295,
      "znom": 7296,
      "nut": 7297,
      "Ġpoziciju": 7298,
      "Ġpoziva": 7299,
      "Ġprethodnih": 7300,
      "rice": 7301,
      "Ġsutra": 7302,
      "Ġglavna": 7303,
      "Ġlop": 7304,
      "Ġmarko": 7305,
      "ĠizraÅ¾e": 7306,
      "ring": 7307,
      "Ġkova": 7308,
      "Ġprenos": 7309,
      "Ġkiseo": 7310,
      "noÅ¡Äĩu": 7311,
      "Ġlogo": 7312,
      "Ġtrend": 7313,
      "Ġsindi": 7314,
      "Ġliko": 7315,
      "Ġhero": 7316,
      "Ġslobodan": 7317,
      "Ġindeksa": 7318,
      "lita": 7319,
      "Ġrezolu": 7320,
      "ĠuoÄįava": 7321,
      "Ġocene": 7322,
      "Ġprodaju": 7323,
      "Ġregistra": 7324,
      "toviÄĩ": 7325,
      "Ġpozicija": 7326,
      "Ġosetlji": 7327,
      "rava": 7328,
      "mus": 7329,
      "Ġekste": 7330,
      "Ġnajsta": 7331,
      "Ġokvira": 7332,
      "Ġzao": 7333,
      "Ġstvore": 7334,
      "ph": 7335,
      "ĠÊģÉŁ": 7336,
      "ĠÄįlanu": 7337,
      "Ã±Ã²": 7338,
      "Ġtelefona": 7339,
      "tis": 7340,
      "kru": 7341,
      "sus": 7342,
      "Ġhemo": 7343,
      "ntom": 7344,
      "Ġporuke": 7345,
      "zapa": 7346,
      "Ġinteresu": 7347,
      "Ġkonsu": 7348,
      "jnog": 7349,
      "ÉĽ": 7350,
      "strva": 7351,
      "ĠpokuÅ¡ava": 7352,
      "Ġulici": 7353,
      "Ġdio": 7354,
      "Ġmarija": 7355,
      "Ġdejstva": 7356,
      "Ġhorizonta": 7357,
      "Ġusavr": 7358,
      "jt": 7359,
      "zde": 7360,
      "jaÄįa": 7361,
      "Ġpravnih": 7362,
      "Ġkontakt": 7363,
      "Ġsra": 7364,
      "Ġokupa": 7365,
      "Ġodrediti": 7366,
      "sin": 7367,
      "Ġzatvara": 7368,
      "Ġocena": 7369,
      "Ġmilijardi": 7370,
      "malo": 7371,
      "zovan": 7372,
      "ĠameriÄįki": 7373,
      "Ġosman": 7374,
      "ĠzajedniÄįki": 7375,
      "Ġnedelja": 7376,
      "ec": 7377,
      "ĠtuÅ¾io": 7378,
      "ĠtuÅ¾i": 7379,
      "Ġokolnostima": 7380,
      "jeg": 7381,
      "Ġkomuni": 7382,
      "net": 7383,
      "Ġpravde": 7384,
      "Ġljudska": 7385,
      "uticaj": 7386,
      "Ġprepara": 7387,
      "Ġkredita": 7388,
      "Ġdokazi": 7389,
      "Äĩenog": 7390,
      "Ġvalja": 7391,
      "Ġbrat": 7392,
      "Ġ95": 7393,
      "ÉŁÉ¬": 7394,
      "Ġutisak": 7395,
      "Ġugo": 7396,
      "Ġznamo": 7397,
      "2017": 7398,
      "ĠomoguÄĩavaju": 7399,
      "Ġulaganja": 7400,
      "seudo": 7401,
      "Ġnemo": 7402,
      "Ġizlaz": 7403,
      "Ġlekova": 7404,
      "ĠvaÅ¾na": 7405,
      "pd": 7406,
      "ĠpoveÄĩanjem": 7407,
      "ÉŁÉ¦": 7408,
      "Ġobrazovanju": 7409,
      "ĠnoÄĩ": 7410,
      "Ġizbegli": 7411,
      "ĠÄįvo": 7412,
      "Ġtopo": 7413,
      "Ġsaglasnost": 7414,
      "Ġprocesima": 7415,
      "stove": 7416,
      "ĠduÅ¡a": 7417,
      "plika": 7418,
      "ïĤ·": 7419,
      "Ġdovede": 7420,
      "aru": 7421,
      "Ġprimi": 7422,
      "Å¡njoj": 7423,
      "ĠkarakteriÅ¡e": 7424,
      "Ġstupa": 7425,
      "int": 7426,
      "ĠpotiÄįe": 7427,
      "juÄĩe": 7428,
      "Ġïģ": 7429,
      "Ġkorelacija": 7430,
      "Ġstresa": 7431,
      "ĠsavrÅ¡e": 7432,
      "ĠpoÅ¡a": 7433,
      "Ġvar": 7434,
      "2007": 7435,
      "ĠelektriÄįne": 7436,
      "prote": 7437,
      "govorni": 7438,
      "telje": 7439,
      "ĠpostojeÄĩih": 7440,
      "Ġkorek": 7441,
      "ĠÄĩelijama": 7442,
      "gana": 7443,
      "sanih": 7444,
      "Ġmile": 7445,
      "Ġfinal": 7446,
      "Ġubrzo": 7447,
      "ĠleÅ¾i": 7448,
      "87": 7449,
      "Ġperspektive": 7450,
      "Ġpominje": 7451,
      "shodno": 7452,
      "Ġpoena": 7453,
      "stih": 7454,
      "Ġodeljenja": 7455,
      "Ġlati": 7456,
      "planta": 7457,
      "Ġprevodi": 7458,
      "Ġkakve": 7459,
      "sled": 7460,
      "govoru": 7461,
      "Ġpolovine": 7462,
      "Ġcrnoj": 7463,
      "Ġ1980": 7464,
      "Ġstvarnosti": 7465,
      "Ġistaknu": 7466,
      "ĠkoriÅ¡Äĩena": 7467,
      "ding": 7468,
      "Ġhijera": 7469,
      "Ġpravosu": 7470,
      "sel": 7471,
      "Ġvoli": 7472,
      "Ġcentralne": 7473,
      "Ġgeneral": 7474,
      "torima": 7475,
      "mislim": 7476,
      "zen": 7477,
      "ĠpomaÅ¾e": 7478,
      "ĠdrÅ¾avu": 7479,
      "Ġzaro": 7480,
      "prilikom": 7481,
      "ĠðĿĳ": 7482,
      "Äĩete": 7483,
      "prosto": 7484,
      "Ġrastvor": 7485,
      "Ġpomogne": 7486,
      "Ġpozitivne": 7487,
      "Ġdose": 7488,
      "Ġhaj": 7489,
      "Ġroditelj": 7490,
      "Ġrealizacije": 7491,
      "Ġsudu": 7492,
      "Ġmanastira": 7493,
      "Ġstar": 7494,
      "Ġstranka": 7495,
      "Ġprisutan": 7496,
      "Ġdekla": 7497,
      "njaka": 7498,
      "Ġnajpo": 7499,
      "time": 7500,
      "Ġspekta": 7501,
      "Ġpartnera": 7502,
      "Ġizdvoje": 7503,
      "Ġkorpora": 7504,
      "ele": 7505,
      "Ġenti": 7506,
      "Ġiskre": 7507,
      "Î²": 7508,
      "Ġivan": 7509,
      "ĠoÄįigledno": 7510,
      "ĠbudÅ¾eta": 7511,
      "jk": 7512,
      "Ġpozitivan": 7513,
      "Ġprisustva": 7514,
      "Ġdelovanje": 7515,
      "Ġnastanak": 7516,
      "har": 7517,
      "matskih": 7518,
      "Ġindustrija": 7519,
      "Ġdomenu": 7520,
      "Ġapril": 7521,
      "Ġneuspe": 7522,
      "Ġsaglasnosti": 7523,
      "tehni": 7524,
      "posebno": 7525,
      "Ġ72": 7526,
      "Ġizaziva": 7527,
      "Ġuzbu": 7528,
      "tuma": 7529,
      "ĠÅ¡tet": 7530,
      "ini": 7531,
      "Ġbur": 7532,
      "bna": 7533,
      "una": 7534,
      "Ġreago": 7535,
      "ĠimajuÄĩi": 7536,
      "Ġlingvisti": 7537,
      "Ġlekara": 7538,
      "ktivna": 7539,
      "Ġjedni": 7540,
      "2018": 7541,
      "Ġpotencijala": 7542,
      "site": 7543,
      "Ġistoj": 7544,
      "sluÅ¾beni": 7545,
      "loÅ¡ku": 7546,
      "Ġnm": 7547,
      "Ġradno": 7548,
      "Ġknjigu": 7549,
      "Ġdaljem": 7550,
      "001": 7551,
      "Ġmore": 7552,
      "Ġderiva": 7553,
      "Ġvolje": 7554,
      "Ġnegativne": 7555,
      "Ġtakoz": 7556,
      "jm": 7557,
      "96": 7558,
      "Ġrece": 7559,
      "prime": 7560,
      "tter": 7561,
      "ĠjuÄįe": 7562,
      "Ġbrojnih": 7563,
      "Ġpropisima": 7564,
      "Ġ47": 7565,
      "Ġsemena": 7566,
      "ĠreÅ¾ima": 7567,
      "stavljen": 7568,
      "Ġ1986": 7569,
      "Ġnjenu": 7570,
      "Ġintelektual": 7571,
      "zerva": 7572,
      "ĠtreÄĩeg": 7573,
      "jev": 7574,
      "Ġdijabe": 7575,
      "Ġfol": 7576,
      "Ġinostranstvu": 7577,
      "Ġsele": 7578,
      "veÄĩ": 7579,
      "Ġnastavku": 7580,
      "Ġpija": 7581,
      "Ġostane": 7582,
      "Ġpojedine": 7583,
      "ÃŃÃ®": 7584,
      "proble": 7585,
      "dovanje": 7586,
      "ĠmeÄĳunarodni": 7587,
      "blu": 7588,
      "ÏĢ": 7589,
      "vljenje": 7590,
      "sanju": 7591,
      "Ġdevi": 7592,
      "mskih": 7593,
      "Ġnena": 7594,
      "novod": 7595,
      "Ġopasnosti": 7596,
      "dobije": 7597,
      "Ġizmene": 7598,
      "Ġpiro": 7599,
      "Ġovakav": 7600,
      "Ġnajo": 7601,
      "Ġekonomskih": 7602,
      "rela": 7603,
      "Ġhijerar": 7604,
      "Ġindirek": 7605,
      "86": 7606,
      "knji": 7607,
      "Ġopasnost": 7608,
      "mnog": 7609,
      "Ġmateri": 7610,
      "ĠanÄĳe": 7611,
      "ov": 7612,
      "Ġmorao": 7613,
      "ĠpoviÅ¡e": 7614,
      "Ġizlazi": 7615,
      "Ġplaniranja": 7616,
      "Ġjef": 7617,
      "É¨É§": 7618,
      "Ð¯": 7619,
      "niko": 7620,
      "Ġnespo": 7621,
      "ĠsliÄįne": 7622,
      "Ġinvesticija": 7623,
      "Ġnastao": 7624,
      "nor": 7625,
      "Ġprocese": 7626,
      "Ġcara": 7627,
      "Ġstudenti": 7628,
      "Ġlistu": 7629,
      "Ġmaterije": 7630,
      "dnice": 7631,
      "Ġukupan": 7632,
      "ktivnost": 7633,
      "doviÄĩ": 7634,
      "Ġprimeri": 7635,
      "ĠpoboljÅ¡anje": 7636,
      "Ġpodzem": 7637,
      "Ġiznosila": 7638,
      "Ġprim": 7639,
      "Ġreflek": 7640,
      "Ġmotor": 7641,
      "ĠstanoviÅ¡ta": 7642,
      "naslov": 7643,
      "Ġlega": 7644,
      "autor": 7645,
      "Ġmembra": 7646,
      "vremenu": 7647,
      "Ġnedavno": 7648,
      "83": 7649,
      "Ġbici": 7650,
      "Ġnesto": 7651,
      "Ġmogle": 7652,
      "Ġsrod": 7653,
      "Ġvasi": 7654,
      "Ġjul": 7655,
      "Ġbanaka": 7656,
      "ĠizvoÄĳenje": 7657,
      "Ġnat": 7658,
      "ĠizvrÅ¡ena": 7659,
      "Ġkapacitet": 7660,
      "Ġpacijent": 7661,
      "Ġnjihovoj": 7662,
      "Ġprosla": 7663,
      "Ġkandidata": 7664,
      "nsa": 7665,
      "Ġuzrasta": 7666,
      "Ġvodom": 7667,
      "Ġreko": 7668,
      "Ġ1987": 7669,
      "laganju": 7670,
      "mbo": 7671,
      "Ġprotein": 7672,
      "Ġosve": 7673,
      "Ġcelog": 7674,
      "Ġnumeri": 7675,
      "Ġuzme": 7676,
      "Ġseptembar": 7677,
      "Ġfrom": 7678,
      "Ġbosni": 7679,
      "Ġotk": 7680,
      "Ġspadaju": 7681,
      "Ġevo": 7682,
      "Ġplaniranje": 7683,
      "Ġamerika": 7684,
      "Ġautonom": 7685,
      "Ġpremijer": 7686,
      "ispiti": 7687,
      "Å¡koj": 7688,
      "É¨É¥": 7689,
      "ljana": 7690,
      "Ġvek": 7691,
      "ĠameriÄįke": 7692,
      "vot": 7693,
      "pret": 7694,
      "ĠigraÄįa": 7695,
      "Ġinstrumenta": 7696,
      "Ġkluba": 7697,
      "htt": 7698,
      "93": 7699,
      "Ġprofila": 7700,
      "Ġsind": 7701,
      "uni": 7702,
      "ĠograniÄįe": 7703,
      "Ġhuma": 7704,
      "Ġoboljenja": 7705,
      "Ġispolja": 7706,
      "Ġpole": 7707,
      "ĠÂ±": 7708,
      "Ġnezavisno": 7709,
      "ĠÅ£i": 7710,
      "Â±": 7711,
      "tice": 7712,
      "Ġgeneralno": 7713,
      "rine": 7714,
      "rijske": 7715,
      "Ġprirodno": 7716,
      "Ġprste": 7717,
      "Ġumetnost": 7718,
      "Ġpartija": 7719,
      "igra": 7720,
      "Ġkvantita": 7721,
      "Ġfru": 7722,
      "ĠsliÄįan": 7723,
      "Ġosvojio": 7724,
      "ĠangaÅ¾": 7725,
      "Ġautomobila": 7726,
      "Ġavan": 7727,
      "njivanje": 7728,
      "Ġslovena": 7729,
      "Ġcrte": 7730,
      "zvu": 7731,
      "ĠÑ": 7732,
      "É¨É«É¬": 7733,
      "Ġrese": 7734,
      "Ġsrednjih": 7735,
      "Ġstavova": 7736,
      "Ġsastava": 7737,
      "urnal": 7738,
      "dovanja": 7739,
      "Ġnezaposle": 7740,
      "crta": 7741,
      "'')": 7742,
      "riÅ¡u": 7743,
      "Ġistorijski": 7744,
      "znim": 7745,
      "Ġvidim": 7746,
      "Ġdrza": 7747,
      "Ġoperacija": 7748,
      "stojanje": 7749,
      "ĠovlaÅ¡Äĩenja": 7750,
      "Ġano": 7751,
      "ĠsaÄįi": 7752,
      "Ġcele": 7753,
      "ĠdrÅ¾avnog": 7754,
      "Ġprojektu": 7755,
      "pl": 7756,
      "Ġpretvara": 7757,
      "Ġmarketin": 7758,
      "Ġzastupa": 7759,
      "Ġpravilima": 7760,
      "ĠkoriÅ¡Äĩeni": 7761,
      "ĠteÅ¾e": 7762,
      "qe": 7763,
      "ĠkaÅ¾em": 7764,
      "lira": 7765,
      "Ġotkriva": 7766,
      "ĠdÅ¾a": 7767,
      "matske": 7768,
      "Ġig": 7769,
      "Ġevropska": 7770,
      "Ġsmisao": 7771,
      "Ġsaradnja": 7772,
      "Ġkompara": 7773,
      "lor": 7774,
      "Ġlikvi": 7775,
      "Ġpodsta": 7776,
      "hri": 7777,
      "tele": 7778,
      "Ġes": 7779,
      "ĠzakljuÄįuje": 7780,
      "Ġrecimo": 7781,
      "2020": 7782,
      "Ġiko": 7783,
      "Ġdelove": 7784,
      "ĠÉľ": 7785,
      "laÅ¾u": 7786,
      "Ġljudskog": 7787,
      "Ġsrednjeg": 7788,
      "Ġpostojala": 7789,
      "Ġfirme": 7790,
      "Ġjovana": 7791,
      "2005": 7792,
      "ĠdruÅ¡tveni": 7793,
      "ĠodrÅ¾ava": 7794,
      "Ġtermina": 7795,
      "lajn": 7796,
      "2006": 7797,
      "Ġotpad": 7798,
      "Ġapstra": 7799,
      "??": 7800,
      "Ġmarti": 7801,
      "ÉļÉ¡": 7802,
      "rde": 7803,
      "Ġpovezani": 7804,
      "Ġsvest": 7805,
      "Ġjanuar": 7806,
      "ĠfiziÄįke": 7807,
      "Ġjugoisto": 7808,
      "Ġciljevi": 7809,
      "stera": 7810,
      "Ġverzija": 7811,
      "vari": 7812,
      "Ġsem": 7813,
      "Ġinterakcija": 7814,
      "Å¡ak": 7815,
      "Ġtekstova": 7816,
      "Ġsavremene": 7817,
      "ĠpriÄįu": 7818,
      "Ġzuba": 7819,
      "Ġklo": 7820,
      "ĠduÅ¡e": 7821,
      "Ġarhitekto": 7822,
      "Ġkulturno": 7823,
      "Ġá¼": 7824,
      "nomi": 7825,
      "Ġkakva": 7826,
      "Ġugra": 7827,
      "ĠplaÄĩanja": 7828,
      "ĠÅ¡vajca": 7829,
      "Ġzavod": 7830,
      "Ġsopstvene": 7831,
      "Ġlege": 7832,
      "Ġpravilu": 7833,
      "Ġpusti": 7834,
      "Ġfami": 7835,
      "ĠpolitiÄįka": 7836,
      "Ġrasprostra": 7837,
      "ĠkuÄĩu": 7838,
      "ĠÅ¾elezni": 7839,
      "ĠveÅ¾ba": 7840,
      "Â¼": 7841,
      "ĠdogaÄĳaj": 7842,
      "Ġmarketing": 7843,
      "pone": 7844,
      "Ġcrkvi": 7845,
      "Ġparo": 7846,
      "hla": 7847,
      "Ġposre": 7848,
      "ĠpreduzeÄĩe": 7849,
      "ĠliÄįne": 7850,
      "Ġpredstava": 7851,
      "Ġindeks": 7852,
      "ĠodreÄĳeno": 7853,
      "Ġodabi": 7854,
      "Ġthi": 7855,
      "ziti": 7856,
      "jali": 7857,
      "Ġdoka": 7858,
      "Ġimuno": 7859,
      "Ġobjavljuje": 7860,
      "Ġdecenije": 7861,
      "Ġnajni": 7862,
      "Ġnegde": 7863,
      "Å¡eno": 7864,
      "Ġtakvim": 7865,
      "Ġklasa": 7866,
      "Ġovakve": 7867,
      "Ġrezervi": 7868,
      "tsko": 7869,
      "nia": 7870,
      "Ġgli": 7871,
      "Ġnaselje": 7872,
      "ÅĦ": 7873,
      "Ġvakcina": 7874,
      "jica": 7875,
      "Ġposetio": 7876,
      "Ġpor": 7877,
      "hoplo": 7878,
      "Ġlekar": 7879,
      "Ġgenerisa": 7880,
      "ĠdonoÅ¡enje": 7881,
      "lili": 7882,
      "nstvo": 7883,
      "Ġstrategi": 7884,
      "ĠnaÄįela": 7885,
      "Ġkomunikacija": 7886,
      "dnicima": 7887,
      "ĠknjiÅ¾evnost": 7888,
      "ĠÅ¡tetu": 7889,
      "stojan": 7890,
      "Ġkarcinoma": 7891,
      "Ġgoriva": 7892,
      "ĠvaÅ¾nosti": 7893,
      "movima": 7894,
      "vanu": 7895,
      "Ġprogrami": 7896,
      "ĠzemljiÅ¡te": 7897,
      "Ġciljeve": 7898,
      "Ġdokumenata": 7899,
      "ziva": 7900,
      "Ġfleksi": 7901,
      "Ġnarodnog": 7902,
      "84": 7903,
      "Ġsloja": 7904,
      "ĠpaÅ¾nje": 7905,
      "Ġinteres": 7906,
      "Ġdemon": 7907,
      "Ġvideli": 7908,
      "Ġproizvede": 7909,
      "ĠuvoÄĳenje": 7910,
      "Ġkorisnici": 7911,
      "Ġjedina": 7912,
      "Ġegziste": 7913,
      "Ġvezane": 7914,
      "Ġsocijalno": 7915,
      "ĠÄĩ": 7916,
      "tanja": 7917,
      "Ġdnevno": 7918,
      "Ġpredstave": 7919,
      "ministar": 7920,
      "Ġsavlada": 7921,
      "fre": 7922,
      "Ġimplici": 7923,
      "Ġkazna": 7924,
      "Ġtoka": 7925,
      "Ġonline": 7926,
      "Ġrukovod": 7927,
      "krea": 7928,
      "ĠfiziÄįko": 7929,
      "Ġstarije": 7930,
      "Ġfebruar": 7931,
      "Ġpripreme": 7932,
      "ĠmiloÅ¡": 7933,
      "82": 7934,
      "Ġpisac": 7935,
      "Ġporo": 7936,
      "Ġekspresije": 7937,
      "Ġglasi": 7938,
      "Ġsredstvima": 7939,
      "kasnije": 7940,
      "ĠpovrÅ¡inu": 7941,
      "plje": 7942,
      "ĠÎ²": 7943,
      "Ġpaco": 7944,
      "Ġlekovi": 7945,
      "Ġkonstanti": 7946,
      "Ġocenu": 7947,
      "Ġpodse": 7948,
      "Ġnezna": 7949,
      "Ġosnov": 7950,
      "Ġ51": 7951,
      "ĠduÅ¾an": 7952,
      "izvor": 7953,
      "ĠÅ¾ivotinje": 7954,
      "ĠpotroÅ¡nje": 7955,
      "Ġnikako": 7956,
      "Ġkrsta": 7957,
      "rite": 7958,
      "milo": 7959,
      "Ġkarakteristikama": 7960,
      "ĠfiziÄįki": 7961,
      "Ġzate": 7962,
      "ĠproÅ¡log": 7963,
      "rijama": 7964,
      "Ġenergiju": 7965,
      "ys": 7966,
      "Ġpero": 7967,
      "Ġzahteve": 7968,
      "Ġuspostavljanje": 7969,
      "Äįavanju": 7970,
      "dre": 7971,
      "ĠmlaÄĳi": 7972,
      "Ġnavedeni": 7973,
      "ĠÄįlanice": 7974,
      "Ġnajnovi": 7975,
      "noÅ¡enja": 7976,
      "ĠopÅ¡teg": 7977,
      "ĠmarkoviÄĩ": 7978,
      "Ġfar": 7979,
      "tipa": 7980,
      "Ġgrana": 7981,
      "Ġokuplja": 7982,
      "bula": 7983,
      "Ġincide": 7984,
      "ĠkoristeÄĩi": 7985,
      "vaÄįke": 7986,
      "Ġcrvene": 7987,
      "Ġpovezane": 7988,
      "Ġteren": 7989,
      "Ġinformacijama": 7990,
      "plji": 7991,
      "hiji": 7992,
      "tuda": 7993,
      "tovanje": 7994,
      "ela": 7995,
      "Ġ54": 7996,
      "Ġliste": 7997,
      "94": 7998,
      "Ġkriterijum": 7999,
      "Ġusmera": 8000,
      "Ġsumnje": 8001,
      "Ġup": 8002,
      "Ġorganizuje": 8003,
      "dara": 8004,
      "posled": 8005,
      "Ġnagradu": 8006,
      "Ġnjenim": 8007,
      "podaci": 8008,
      "Ġnea": 8009,
      "Ġistina": 8010,
      "81": 8011,
      "gel": 8012,
      "rodno": 8013,
      "ĠveÅ¡tina": 8014,
      "cionalno": 8015,
      "vici": 8016,
      "Ġsvrsta": 8017,
      "Ġvojni": 8018,
      "ĠveÅ¡tine": 8019,
      "Ġlik": 8020,
      "Ġskre": 8021,
      "sed": 8022,
      "Ê¼": 8023,
      "ĠliÄįni": 8024,
      "kl": 8025,
      "ĠÂ»": 8026,
      "ĠuÄįinio": 8027,
      "mskog": 8028,
      "bni": 8029,
      "Ġzainteresova": 8030,
      "Ġ53": 8031,
      "Ġsporti": 8032,
      "Ġutvrdi": 8033,
      "Ġmra": 8034,
      "ĠÅ¾elja": 8035,
      "Ġantioksida": 8036,
      "Ġdetaljno": 8037,
      "Ġero": 8038,
      "ĠÃ®": 8039,
      "ranu": 8040,
      "Ġobjavljen": 8041,
      "Ġdal": 8042,
      "veliki": 8043,
      "veno": 8044,
      "ĠizvoÄĳenja": 8045,
      "Ġgeneti": 8046,
      "dis": 8047,
      "EÑķ": 8048,
      "ĠoseÄĩanja": 8049,
      "gna": 8050,
      "Ġben": 8051,
      "dvo": 8052,
      "Ġhttps": 8053,
      "nuta": 8054,
      "ĠzadrÅ¾ava": 8055,
      "Ġdivi": 8056,
      "Ġposebna": 8057,
      "ĠÅ¾elite": 8058,
      "91": 8059,
      "Ġreka": 8060,
      "caj": 8061,
      "iii": 8062,
      "ÉļÉ¤": 8063,
      "Ġcrno": 8064,
      "ntnom": 8065,
      "Ġengleskom": 8066,
      "zacijom": 8067,
      "ĠkoÅ¡arka": 8068,
      "Ġ52": 8069,
      "Ġispa": 8070,
      "ĠnuÅ¾no": 8071,
      "Ġsvje": 8072,
      "ĠjuÅ¾no": 8073,
      "Ġpes": 8074,
      "Ġpoziv": 8075,
      "wor": 8076,
      "binu": 8077,
      "Ġideju": 8078,
      "Ġstandard": 8079,
      "gni": 8080,
      "zahva": 8081,
      "rstvo": 8082,
      "Ġnekoj": 8083,
      "Ġman": 8084,
      "zina": 8085,
      "Å¡nog": 8086,
      "port": 8087,
      "stavljanja": 8088,
      "Ġkonvencije": 8089,
      "Å¡tanja": 8090,
      "ĠizvrÅ¡enja": 8091,
      "ener": 8092,
      "klom": 8093,
      "Ġusvaja": 8094,
      "Ġproblemima": 8095,
      "Ġ1985": 8096,
      "Ġpostepeno": 8097,
      "ĠdomaÄĩe": 8098,
      "Ġaplikacije": 8099,
      "Å¾uju": 8100,
      "Ġnavija": 8101,
      "Ġstvo": 8102,
      "Ġpesama": 8103,
      "ĠsveÅ¡te": 8104,
      "97": 8105,
      "Ġraditi": 8106,
      "ĠtakmiÄįenja": 8107,
      "Ġanal": 8108,
      "stiÄĩ": 8109,
      "Ġpriba": 8110,
      "ĠÄįvrsto": 8111,
      "Ġkulturnih": 8112,
      "Ġbrojnim": 8113,
      "ubi": 8114,
      "ĠnaglaÅ¡ava": 8115,
      "metra": 8116,
      "ĠpreÅ¾ivlja": 8117,
      "Ġarheo": 8118,
      "ĠgradonaÄįe": 8119,
      "Ġeksplici": 8120,
      "novog": 8121,
      "rovatnije": 8122,
      "ĠodluÄįivanja": 8123,
      "Ġzahtevaju": 8124,
      "Ġizgradnji": 8125,
      "Ġministra": 8126,
      "feru": 8127,
      "âĢĻ,": 8128,
      "anti": 8129,
      "Äįani": 8130,
      "Ġdobijanje": 8131,
      "ĠpostiÅ¾e": 8132,
      "Ġpolaz": 8133,
      "Å¾enog": 8134,
      "Ġnarodu": 8135,
      "Ġosvaja": 8136,
      "vska": 8137,
      "Ġprisutni": 8138,
      "Ġkomore": 8139,
      "Ġrazd": 8140,
      "Ġvisoka": 8141,
      "Ġdozvole": 8142,
      "Ġautomatski": 8143,
      "najveÄĩi": 8144,
      "Ġstrah": 8145,
      "Ġdragan": 8146,
      "ĠÃ³": 8147,
      "Ġjest": 8148,
      "ĠkuÄĩ": 8149,
      "2019": 8150,
      "Ġsvetlosti": 8151,
      "Ġtam": 8152,
      "Ġdodatne": 8153,
      "Å¾alost": 8154,
      "Ġzglo": 8155,
      "ĠpruÅ¾aju": 8156,
      "mere": 8157,
      "Ġpravna": 8158,
      "mol": 8159,
      "Ġtoma": 8160,
      "deri": 8161,
      "Ġtestira": 8162,
      "Ġpoziciji": 8163,
      "Å¡Äĩi": 8164,
      "Ġkoeficijenta": 8165,
      "Ġspeci": 8166,
      "Ġnavedenog": 8167,
      "Ġkrat": 8168,
      "Ġistih": 8169,
      "Ġaran": 8170,
      "Ġpoljoprivre": 8171,
      "ĠpoloÅ¾aju": 8172,
      "Ġulice": 8173,
      "Äįeka": 8174,
      "Ġotpa": 8175,
      "Ġhumani": 8176,
      "Ġvene": 8177,
      "Ġvazduhoplo": 8178,
      "Ġglasova": 8179,
      "ĠuÄįesni": 8180,
      "Ġuzorcima": 8181,
      "Ġrezultira": 8182,
      "ĠveÄĩine": 8183,
      "Ġmodula": 8184,
      "ĠnajviÅ¡i": 8185,
      "Ġmasti": 8186,
      "ĠuÄįeÅ¡Äĩa": 8187,
      "Ġljudske": 8188,
      "Ġ56": 8189,
      "É«É¬": 8190,
      "Ġkvalita": 8191,
      "Î³": 8192,
      "Ġ.</": 8193,
      "Ġpolitici": 8194,
      "Ġmedicine": 8195,
      "ĠraspoloÅ¾i": 8196,
      "vimo": 8197,
      "ĠÉĽ": 8198,
      "Ġukr": 8199,
      "nijom": 8200,
      "liÅ¡u": 8201,
      "Ġmaga": 8202,
      "Ġusle": 8203,
      "rusa": 8204,
      "Ġdospe": 8205,
      "Ġosnovnim": 8206,
      "Ġ1981": 8207,
      "nae": 8208,
      "hen": 8209,
      "Ġrealizaciju": 8210,
      "Ġpogotovo": 8211,
      "Ġdeluju": 8212,
      "Ġef": 8213,
      "Ġutvrditi": 8214,
      "Ġhidra": 8215,
      "°É¢Êģ": 8216,
      "kol": 8217,
      "Ġsrpskim": 8218,
      "Ġkoristili": 8219,
      "Ġatra": 8220,
      "Ġmotora": 8221,
      "Ġturni": 8222,
      "reda": 8223,
      "Ġodr": 8224,
      "Ġatribu": 8225,
      "Ġfrancuskoj": 8226,
      "Ġkontekst": 8227,
      "Ġfrekven": 8228,
      "Ġtrenutka": 8229,
      "Ġizola": 8230,
      "Ġvisini": 8231,
      "ljite": 8232,
      "Ġedi": 8233,
      "ws": 8234,
      "ĠniÅ¡": 8235,
      "Ġdrve": 8236,
      "Ġostvarivanje": 8237,
      "Ġbloka": 8238,
      "ĠfiziÄįkog": 8239,
      "Ġizosta": 8240,
      "ĠbrÅ¾e": 8241,
      "Ġsat": 8242,
      "Ġkomponenta": 8243,
      "cena": 8244,
      "Ġinfor": 8245,
      "Ġimeno": 8246,
      "Ġuprava": 8247,
      "Ġsur": 8248,
      "Ġeri": 8249,
      "Ġprinos": 8250,
      "Ġautenti": 8251,
      "Ġvisina": 8252,
      "Ġjelena": 8253,
      "ĠupuÄĩuje": 8254,
      "Ġperso": 8255,
      "Ġgovorio": 8256,
      "Ġprethodnom": 8257,
      "Ġxvi": 8258,
      "Ġiznosu": 8259,
      "Ġkorisnik": 8260,
      "Ġprijave": 8261,
      "Ġporeklo": 8262,
      "nstva": 8263,
      "Ġinternational": 8264,
      "Ġmuzeja": 8265,
      "Ġimenom": 8266,
      "Ġsaradnika": 8267,
      "Ġdelega": 8268,
      "gy": 8269,
      "Å¾nju": 8270,
      "ĠÄįuva": 8271,
      "Ġneophodna": 8272,
      "Ġupotreblje": 8273,
      "fal": 8274,
      "ĠmiÅ¡iÄĩ": 8275,
      "Ġsvojevr": 8276,
      "ore": 8277,
      "ÃŃÃ¨": 8278,
      "ĠpribliÅ¾no": 8279,
      "Ġodredi": 8280,
      "cor": 8281,
      "Ġregistro": 8282,
      "zovanih": 8283,
      "Ġopu": 8284,
      "Ġsul": 8285,
      "Ġdala": 8286,
      "ĠÄįetvo": 8287,
      "Ġposeduju": 8288,
      "Ġcor": 8289,
      "Ġobjasniti": 8290,
      "ĠdomaÄĩih": 8291,
      "Ġ1970": 8292,
      "Ġpripadnika": 8293,
      "Ġsmr": 8294,
      "Ġnapredak": 8295,
      "Ġraspodele": 8296,
      "Ġnarodna": 8297,
      "Ïī": 8298,
      "mska": 8299,
      "Äĩeva": 8300,
      "Ġkuhi": 8301,
      "Ã·": 8302,
      "proizvo": 8303,
      "Ġosvet": 8304,
      "Ġuga": 8305,
      "Ġsloj": 8306,
      "ĠÃŃ": 8307,
      "Ġsubjekta": 8308,
      "rko": 8309,
      "protiv": 8310,
      "Me": 8311,
      "Ġukida": 8312,
      "Ġavgust": 8313,
      "ĠpoÄįeli": 8314,
      "Ġare": 8315,
      "zatim": 8316,
      "Ġdubro": 8317,
      "ĠsediÅ¡te": 8318,
      "Ġpropu": 8319,
      "cia": 8320,
      "aa": 8321,
      "izra": 8322,
      "Ġpovezan": 8323,
      "Ġkontine": 8324,
      "nksio": 8325,
      "Ġoset": 8326,
      "Ġleve": 8327,
      "2000": 8328,
      "Ġzabri": 8329,
      "Ġbombar": 8330,
      "ïĢ": 8331,
      "habili": 8332,
      "ntnosti": 8333,
      "Ġpredloga": 8334,
      "Ġise": 8335,
      "vin": 8336,
      "Ġdel": 8337,
      "Ġautono": 8338,
      "Ġsvije": 8339,
      "Ġneod": 8340,
      "ĠhoÄĩe": 8341,
      "Ġstvaraju": 8342,
      "nza": 8343,
      "Ġstati": 8344,
      "Ġekspo": 8345,
      "bacu": 8346,
      "ĠpeÅ¡a": 8347,
      "Ġgrob": 8348,
      "Ġprvim": 8349,
      "ĠprekrÅ¡a": 8350,
      "Ġusagla": 8351,
      "Ġmorala": 8352,
      "Ġfinansijski": 8353,
      "ĠtumaÄįenje": 8354,
      "Ġmilu": 8355,
      "Ġsrednjoveko": 8356,
      "ovek": 8357,
      "Ġperformanse": 8358,
      "Ġdomena": 8359,
      "nicom": 8360,
      "Ġmetodi": 8361,
      "Ġsupstra": 8362,
      "2004": 8363,
      "Ġtole": 8364,
      "ĠÅ¾ivotnu": 8365,
      "Ġeurope": 8366,
      "Ġprogno": 8367,
      "Ġproba": 8368,
      "Äİu": 8369,
      "Ġotpo": 8370,
      "Ġbeli": 8371,
      "Ġsupstance": 8372,
      "hr": 8373,
      "Ġhrani": 8374,
      "Ġpolovini": 8375,
      "Ġkonstrui": 8376,
      "Ġposlovanje": 8377,
      "njak": 8378,
      "vljanje": 8379,
      "Ġadvokat": 8380,
      "Ġpismo": 8381,
      "Ġ1984": 8382,
      "Ġstana": 8383,
      "Ġdonose": 8384,
      "ranog": 8385,
      "Ġtraga": 8386,
      "Ġpopulacija": 8387,
      "Ġnivoima": 8388,
      "Ġstabilnosti": 8389,
      "Ġumi": 8390,
      "ditelj": 8391,
      "ĠuÄįenicima": 8392,
      "ĠobeleÅ¾ja": 8393,
      "Ġtransa": 8394,
      "ura": 8395,
      "Ġpacijenti": 8396,
      "Ġpostupaka": 8397,
      "fri": 8398,
      "Ġoblike": 8399,
      "Ġperife": 8400,
      "neo": 8401,
      "Ġyou": 8402,
      "Ġceni": 8403,
      "âĢĴ": 8404,
      "Ġvojnika": 8405,
      "Å¾nosti": 8406,
      "ziv": 8407,
      "sc": 8408,
      "iza": 8409,
      "Ġprincipu": 8410,
      "Ġdecembar": 8411,
      "Ġulozi": 8412,
      "Ġcrna": 8413,
      "Ġniste": 8414,
      "Ġampli": 8415,
      "ĠmoguÄĩa": 8416,
      "Ġfanta": 8417,
      "Ġutakmice": 8418,
      "Ġ//": 8419,
      "Ġteni": 8420,
      "Ĥ¬": 8421,
      "Ġnegativno": 8422,
      "Ġnedovoljno": 8423,
      "Ġofici": 8424,
      "Ġcarstva": 8425,
      "ĠÅ¡ampiona": 8426,
      "Ġkuku": 8427,
      "Ġmalole": 8428,
      "Ġkompju": 8429,
      "Ġnaji": 8430,
      "Ġuki": 8431,
      "Ġuvodi": 8432,
      "Ġhipoteza": 8433,
      "ĠsadrÅ£a": 8434,
      "Ġzahtevima": 8435,
      "Ġzavisnost": 8436,
      "kina": 8437,
      "Äįeki": 8438,
      "Ġpovreda": 8439,
      "Ġproseku": 8440,
      "Ġopsegu": 8441,
      "dalje": 8442,
      "Ġharti": 8443,
      "Ġorganizacijama": 8444,
      "ĠtaÄįaka": 8445,
      "2021": 8446,
      "Ġposeti": 8447,
      "Ġistini": 8448,
      "ĠnajveÄĩih": 8449,
      "Ġinformaciju": 8450,
      "Ġparametra": 8451,
      "Ġkorupcije": 8452,
      "ĠveÄĩinu": 8453,
      "ĠpoÅ¡tovanje": 8454,
      "Ġrazumevanja": 8455,
      "minje": 8456,
      "ĠkljuÄįnih": 8457,
      "ĠzapaÅ¾a": 8458,
      "Ġraznim": 8459,
      "metar": 8460,
      "Ġdob": 8461,
      "Ġdevija": 8462,
      "Ġkriza": 8463,
      "Ġkatastro": 8464,
      "Ġonemogu": 8465,
      "Ġepo": 8466,
      "É¢É±": 8467,
      "Ġmoni": 8468,
      "Ġpje": 8469,
      "Ġgluko": 8470,
      "rskom": 8471,
      "Ġposlovni": 8472,
      "Ġsastoja": 8473,
      "pan": 8474,
      "Ġrasi": 8475,
      "Ġpeto": 8476,
      "á¿": 8477,
      "Ġchi": 8478,
      "Ġkanali": 8479,
      "Ġrazu": 8480,
      "ĠÄīe": 8481,
      "Ġafi": 8482,
      "tov": 8483,
      "Ġdif": 8484,
      "Ġformiraju": 8485,
      "Ġmenjaju": 8486,
      "Ġvratio": 8487,
      "jko": 8488,
      "Ġvese": 8489,
      "Ġglavi": 8490,
      "Ġagresi": 8491,
      "Ġfiska": 8492,
      "ĠpokuÅ¡aj": 8493,
      "Ġkontinuira": 8494,
      "Ġneizve": 8495,
      "imajuÄĩi": 8496,
      "ĠgraÄĳanima": 8497,
      "Ġspektra": 8498,
      "ĠkoliÄįinu": 8499,
      "Ġtipova": 8500,
      "Ġnastupi": 8501,
      "Ġneobi": 8502,
      "Ġorganizaciju": 8503,
      "Ġambi": 8504,
      "Ġprethodnog": 8505,
      "Ġefikasno": 8506,
      "vrsta": 8507,
      "ĠspecifiÄįne": 8508,
      "tovao": 8509,
      "Ġpoglavlja": 8510,
      "Ġdeforma": 8511,
      "stije": 8512,
      "Ġinterneta": 8513,
      "ĠunapreÄĳenja": 8514,
      "merno": 8515,
      "Î¯": 8516,
      "Ġtrom": 8517,
      "Ġrazgovora": 8518,
      "fran": 8519,
      "Ġrod": 8520,
      "Ġbugarske": 8521,
      "Ġamerici": 8522,
      "Ġspoljnih": 8523,
      "ljuju": 8524,
      "ovim": 8525,
      "Ġsmet": 8526,
      "Ġgubitka": 8527,
      "ĠnauÄįnih": 8528,
      "Ġpredo": 8529,
      "ĠskupÅ¡tina": 8530,
      "gencije": 8531,
      "zak": 8532,
      "ena": 8533,
      "Ġsisteme": 8534,
      "don": 8535,
      "Ġobavljanje": 8536,
      "ĠnaÄĳe": 8537,
      "Ġodje": 8538,
      "Ġkonstrukcija": 8539,
      "ljenim": 8540,
      "ĠznaÄįajnih": 8541,
      "mbru": 8542,
      "Ġcita": 8543,
      "Ġsvetlo": 8544,
      "Ġpriroda": 8545,
      "Ġnavodno": 8546,
      "caju": 8547,
      "liju": 8548,
      "Ġengleskog": 8549,
      "ĠuoÄįiti": 8550,
      "ĠroÄĳenja": 8551,
      "ljenog": 8552,
      "ĠsmeÅ¡ta": 8553,
      "veÄĩina": 8554,
      "Ġegi": 8555,
      "njavanje": 8556,
      "Ġnovembar": 8557,
      "Ġputnika": 8558,
      "mis": 8559,
      "pato": 8560,
      "lici": 8561,
      "ĠokruÅ¾enje": 8562,
      "sem": 8563,
      "Ġvladavine": 8564,
      "ĠzavrÅ¡ava": 8565,
      "lesce": 8566,
      "Ġkomplika": 8567,
      "Ġturske": 8568,
      "Ġrekli": 8569,
      "Ġprilike": 8570,
      "lista": 8571,
      "Å¡io": 8572,
      "jaka": 8573,
      "mikro": 8574,
      "ĠnemoguÄĩe": 8575,
      "til": 8576,
      "Ġizolova": 8577,
      "xa": 8578,
      "Ġanksio": 8579,
      "Ġdefinisanje": 8580,
      "vidi": 8581,
      "Ġkina": 8582,
      "Ġnastavak": 8583,
      "ĠÄįelu": 8584,
      "ĠroÄĳen": 8585,
      "Ġsporta": 8586,
      "ĠpostojeÄĩe": 8587,
      "Ġcentri": 8588,
      "ĠÄįitav": 8589,
      "bc": 8590,
      "Ġpozdra": 8591,
      "Ġobrnu": 8592,
      "Ġruskog": 8593,
      "Ġserti": 8594,
      ")-": 8595,
      "Ġaspekt": 8596,
      "finansi": 8597,
      "defini": 8598,
      "Ġsuspe": 8599,
      "Ġhercegovine": 8600,
      "cionalna": 8601,
      "Ġpseudo": 8602,
      "Ġvaspitanja": 8603,
      "ĠkolaÄįiÄĩe": 8604,
      "Ġkontrolne": 8605,
      "Ġpojedinaca": 8606,
      "Ġobolelih": 8607,
      "Ġzbornik": 8608,
      "Ġpokazano": 8609,
      "reÄį": 8610,
      "ntnost": 8611,
      "Ġtakvog": 8612,
      "toriju": 8613,
      "Ġmomenta": 8614,
      "Ġvisokom": 8615,
      "ĠtreÄĩem": 8616,
      "ĠÅ¡iroko": 8617,
      "sion": 8618,
      "Ġvarijanse": 8619,
      "ters": 8620,
      "ĠÅ¡kolama": 8621,
      "Ġalata": 8622,
      "Å¡Äĩenje": 8623,
      "Ġkv": 8624,
      "Ġprimeniti": 8625,
      "Ġgdje": 8626,
      "ĠnemaÄįki": 8627,
      "fikuje": 8628,
      "sadrÅ¾a": 8629,
      "sniji": 8630,
      "Å¡teno": 8631,
      "Ġvlasnik": 8632,
      "svaka": 8633,
      "Ġ1945": 8634,
      "navede": 8635,
      "Ġnjujor": 8636,
      "Ġodlazi": 8637,
      "nzija": 8638,
      "drugim": 8639,
      "ĠkriviÄįnom": 8640,
      "Ġpisao": 8641,
      "phy": 8642,
      "tiji": 8643,
      "ĠpaÅ¾nja": 8644,
      "ĠoÄįekivati": 8645,
      "Ġ1982": 8646,
      "Ġgradovima": 8647,
      "Ġdimit": 8648,
      "Ġradili": 8649,
      "Ġstarih": 8650,
      "Ġfilmu": 8651,
      "zovano": 8652,
      "Ġmil": 8653,
      "ĠutvrÄĳena": 8654,
      "ĠproseÄįna": 8655,
      "Ġdoktorske": 8656,
      "Ġfond": 8657,
      "Ġsje": 8658,
      "Ġjabu": 8659,
      "Ġplasi": 8660,
      "Ġcveta": 8661,
      "Ġpromovi": 8662,
      "Ġnepravi": 8663,
      "Ã°Ã¥": 8664,
      "Âº": 8665,
      "Ġhranu": 8666,
      "Ġevropski": 8667,
      "Ġfinansiranja": 8668,
      "Ġkilometara": 8669,
      "Ġnapi": 8670,
      "toni": 8671,
      "Ġefekta": 8672,
      "Ġgaz": 8673,
      "Ġtradicije": 8674,
      "ĠdeÄį": 8675,
      "Ġpreze": 8676,
      "Äįenog": 8677,
      "sper": 8678,
      "ard": 8679,
      "Ġmoto": 8680,
      "Ñĳ": 8681,
      "Ġkoali": 8682,
      "Ġokolini": 8683,
      "ĠpolitiÄįkim": 8684,
      "ranim": 8685,
      "Ġpravilno": 8686,
      "Ġparce": 8687,
      "Ġengleski": 8688,
      "Ġposu": 8689,
      "Ġrehabili": 8690,
      "Ġtabele": 8691,
      "Ġotpora": 8692,
      "tinj": 8693,
      "gula": 8694,
      "Ġprikup": 8695,
      "Ġvezuje": 8696,
      "Ġukupnih": 8697,
      "Ġdato": 8698,
      "Ġkritike": 8699,
      "Ġimpe": 8700,
      "viju": 8701,
      "hvala": 8702,
      "Ġnaime": 8703,
      "vljenog": 8704,
      "Å¡le": 8705,
      "gove": 8706,
      "Ġkiseonika": 8707,
      "tipi": 8708,
      "Ġposete": 8709,
      "ĠodreÄĳenu": 8710,
      "Ġbilan": 8711,
      "gmati": 8712,
      "Ġkonfi": 8713,
      "Ġdvori": 8714,
      "Ġ85": 8715,
      "Ġodraslih": 8716,
      "Ġizboru": 8717,
      "las": 8718,
      "Ġgovoriti": 8719,
      "Ġhrvatska": 8720,
      "Ġevropskom": 8721,
      "ĠliÄįnost": 8722,
      "Ġpropor": 8723,
      "Ġika": 8724,
      "Ġromanti": 8725,
      "Ġ57": 8726,
      "ĠureÄĳuje": 8727,
      "dve": 8728,
      "Ġnacionalnom": 8729,
      "ĠniÅ¡a": 8730,
      "Ġposebnu": 8731,
      "doktor": 8732,
      "sy": 8733,
      "Ġuteme": 8734,
      "stano": 8735,
      "Ġotvoreno": 8736,
      "Ġsrbima": 8737,
      "Ġubla": 8738,
      "Ġforu": 8739,
      "Ġtakvo": 8740,
      "ĠÄįlanom": 8741,
      "ispo": 8742,
      "njivanja": 8743,
      "ĠÉĭ": 8744,
      "Ġmozga": 8745,
      "Ġed": 8746,
      "Ġprovo": 8747,
      "Ġpojavljuju": 8748,
      "Ġdoneo": 8749,
      "Ġlicima": 8750,
      "Ġzapadne": 8751,
      "ram": 8752,
      "Ġsumnja": 8753,
      "Ġinfrastrukture": 8754,
      "sara": 8755,
      "Ġgeometri": 8756,
      "Ġtoplote": 8757,
      "Ġneprijatelj": 8758,
      "Ġindikatora": 8759,
      "Ġubistva": 8760,
      "Ġnormalno": 8761,
      "Ġnajpozna": 8762,
      "ĠnajÄįe": 8763,
      "Ġpoljoprivrede": 8764,
      "ĠpodrÅ¾ava": 8765,
      "Ġuskoro": 8766,
      "ben": 8767,
      "Ġsevero": 8768,
      "Ġgaje": 8769,
      "Ġvolu": 8770,
      "Ġkatoli": 8771,
      "Ġsredina": 8772,
      "Ġzoran": 8773,
      "proje": 8774,
      "Ġobradu": 8775,
      "ĠÄīi": 8776,
      "osnovni": 8777,
      "lf": 8778,
      "Ġpetar": 8779,
      "Ġsekundar": 8780,
      "mci": 8781,
      "Ġdecom": 8782,
      "piju": 8783,
      "Ġdvadeset": 8784,
      "ĠdÅ¾o": 8785,
      "Ġparametar": 8786,
      "Ġpodeli": 8787,
      "Ã°Ãł": 8788,
      "Ġadsorp": 8789,
      "Ġinvesticije": 8790,
      "ï¬ģ": 8791,
      "ĠsluÅ¾e": 8792,
      "ĠzakljuÄįi": 8793,
      "Ġpolazi": 8794,
      "Ġsc": 8795,
      "ĠpeÄĩi": 8796,
      "Ġvuka": 8797,
      "ĠÄįisto": 8798,
      "ses": 8799,
      "Ġzapisa": 8800,
      "dia": 8801,
      "pravni": 8802,
      "Ġpraz": 8803,
      "Ġodsustvo": 8804,
      "nr": 8805,
      "Ġ</": 8806,
      "ĠÅ¡ar": 8807,
      "stici": 8808,
      "ĠveÄĩoj": 8809,
      "Ġrazgovor": 8810,
      "Ġonlajn": 8811,
      "Ġstepenu": 8812,
      "Ġ63": 8813,
      "Ġsfr": 8814,
      "Ġodgovore": 8815,
      "Ġobjavljena": 8816,
      "ĠÉ¨Éŀ": 8817,
      "Ġstereo": 8818,
      "Ġnekretni": 8819,
      "tehno": 8820,
      "Ġpravilo": 8821,
      "Ġsanu": 8822,
      "ĠzajedniÄįke": 8823,
      "Ġmotori": 8824,
      "okru": 8825,
      "ANj": 8826,
      "ĠkneÅ¾e": 8827,
      "ĠpreteÅ¾no": 8828,
      "mpu": 8829,
      "Ġnastoja": 8830,
      "Ġsekunda": 8831,
      "regi": 8832,
      "Ġfinansija": 8833,
      "ĠmiÅ¡iÄĩa": 8834,
      "fiji": 8835,
      "Ġtrenutak": 8836,
      "Ġnavedenim": 8837,
      "ĠobiÄįa": 8838,
      "ĠzvaniÄįno": 8839,
      "ew": 8840,
      "Ġom": 8841,
      "viso": 8842,
      "ĠmaÅ¡ine": 8843,
      "Ġnazna": 8844,
      "Ġakt": 8845,
      "ÉŁÉ¤": 8846,
      "Ġkrive": 8847,
      "ĠmeÄĳunarodnom": 8848,
      "Ġdefici": 8849,
      "Ġprijatelja": 8850,
      "Ġportal": 8851,
      "ĠokonÄįa": 8852,
      "Ġrazreda": 8853,
      "mice": 8854,
      "ĠmuÅ¡karci": 8855,
      "Ġishod": 8856,
      "ĠgodiÅ¡nji": 8857,
      "Ġ1944": 8858,
      "Ġautomati": 8859,
      "ĠskupÅ¡tini": 8860,
      "Ġimenu": 8861,
      "Ġposmatrati": 8862,
      "Ġfunkcionisanje": 8863,
      "Ġmisao": 8864,
      "lga": 8865,
      "Ġpregle": 8866,
      "ford": 8867,
      "grafije": 8868,
      "dja": 8869,
      "stim": 8870,
      "Ġslabi": 8871,
      "Ġazi": 8872,
      "ĠÅ¡ti": 8873,
      "tovima": 8874,
      "Ġpoha": 8875,
      "Ġnazivaju": 8876,
      "Ġarte": 8877,
      "zaÅ¡to": 8878,
      "Ġsistemom": 8879,
      "ĠoruÅ¾a": 8880,
      "ĠsprovoÄĳenja": 8881,
      "Ġprevoz": 8882,
      "Ġvezanih": 8883,
      "Ġzdravstvenih": 8884,
      "speri": 8885,
      "Ġintervencije": 8886,
      "rstva": 8887,
      "Ġevropskoj": 8888,
      "ĠnaoruÅ¾a": 8889,
      "ĠvaÅ¡a": 8890,
      "hn": 8891,
      "Ġsns": 8892,
      "Ġace": 8893,
      "nalni": 8894,
      "Ġpojedini": 8895,
      "ĠraÄįunovod": 8896,
      "Ġpane": 8897,
      "Ġporasta": 8898,
      "Ġorganima": 8899,
      "cionu": 8900,
      "Ġastro": 8901,
      "Ġrukama": 8902,
      "ĠÃª": 8903,
      "Ġpodela": 8904,
      "ĠÅ¾iv": 8905,
      "Ëĩc": 8906,
      "Ġmakar": 8907,
      "savlje": 8908,
      "ĠreÅ¾im": 8909,
      "Ġdragi": 8910,
      "Ġpomenuti": 8911,
      "nasta": 8912,
      "ĠdrugaÄįiji": 8913,
      "nko": 8914,
      "Ġizdanja": 8915,
      "ĠgreÅ¡ka": 8916,
      "Å¾om": 8917,
      "Äįite": 8918,
      "ĠpronaÄĩi": 8919,
      "Ġostrva": 8920,
      "saj": 8921,
      "Ġsorte": 8922,
      "Ġdeklara": 8923,
      "Ġporez": 8924,
      "Ġmuzej": 8925,
      "obuhva": 8926,
      "stiti": 8927,
      "ĠmiÅ¡e": 8928,
      "Ġizla": 8929,
      "Ġkonzerva": 8930,
      "Ġmanastir": 8931,
      "Ġpotrebi": 8932,
      "Ġutakmica": 8933,
      "Ġpovezuje": 8934,
      "Ġzatra": 8935,
      "Ġodredbama": 8936,
      "ĠodgovarajuÄĩih": 8937,
      "Ġobavljaju": 8938,
      "ĠgrÄįke": 8939,
      "Ġfrancuska": 8940,
      "lp": 8941,
      "Ġbiblioteka": 8942,
      "Ġprelaz": 8943,
      "Ġrasho": 8944,
      "nete": 8945,
      "Ġkau": 8946,
      "Ġdobijena": 8947,
      "ĠodluÄįio": 8948,
      "Ġpripadnici": 8949,
      "hvali": 8950,
      "Ġlete": 8951,
      "Ġani": 8952,
      "menzio": 8953,
      "skopa": 8954,
      "ÄĳorÄĳe": 8955,
      "povima": 8956,
      "Ġ58": 8957,
      "Ġambije": 8958,
      "Ġcere": 8959,
      "goni": 8960,
      "Ġvezana": 8961,
      "Ġpregovara": 8962,
      "Ġbiznis": 8963,
      "ĠspecifiÄįnosti": 8964,
      "pet": 8965,
      "ace": 8966,
      "Ġradnici": 8967,
      "Ġlesko": 8968,
      "ĠdÅ¾on": 8969,
      "novac": 8970,
      "Cl": 8971,
      "Ġ1971": 8972,
      "Ġpodignu": 8973,
      "Ġprirodu": 8974,
      "redi": 8975,
      "Ġsvakodnevno": 8976,
      "Ġformula": 8977,
      "ĠoÄįekivanja": 8978,
      "ljenju": 8979,
      "set": 8980,
      "tovati": 8981,
      "Äīki": 8982,
      "Ġpostavljen": 8983,
      "Ġposlednja": 8984,
      "jl": 8985,
      "Ġ000": 8986,
      "ĠodrÅ¾ivog": 8987,
      "Ġposlovnog": 8988,
      "2003": 8989,
      "nemo": 8990,
      "Ġfraze": 8991,
      "Ġzadovoljstvo": 8992,
      "Ġizabran": 8993,
      "Ġ1983": 8994,
      "ĠÅ¡um": 8995,
      "Ġceline": 8996,
      "Ġsocijalni": 8997,
      "Ġodbaci": 8998,
      "Ġpilo": 8999,
      "mba": 9000,
      "Ġbalkanu": 9001,
      "njava": 9002,
      "ĠodreÄĳenoj": 9003,
      "najve": 9004,
      "Ġgosti": 9005,
      "ĠutvrÄĳuje": 9006,
      "Ġ89": 9007,
      "Ġekipa": 9008,
      "tsku": 9009,
      "cionar": 9010,
      "vic": 9011,
      "izu": 9012,
      "nter": 9013,
      "Ġodakle": 9014,
      "tiÄįki": 9015,
      "Ġprinosa": 9016,
      "Ġapsor": 9017,
      "Ġglavu": 9018,
      "Ġdokument": 9019,
      "tualne": 9020,
      "Ġodbranu": 9021,
      "ĠizvrÅ¡iti": 9022,
      "Ġimovinu": 9023,
      "Ġzasnovan": 9024,
      "Ġprecizno": 9025,
      "Ġtermino": 9026,
      "vaÄįi": 9027,
      "Ġmasi": 9028,
      "Ġprirodnog": 9029,
      "Ġobuke": 9030,
      "ĠmenadÅ¾menta": 9031,
      "Ġgustine": 9032,
      "Ġuradi": 9033,
      "Ġadresa": 9034,
      "tari": 9035,
      "Ġ68": 9036,
      "Ġsezoni": 9037,
      "Ġpretpostavke": 9038,
      "Ġtable": 9039,
      "hranje": 9040,
      "ĠsledeÄĩim": 9041,
      "Ġbren": 9042,
      "graÄĳa": 9043,
      "Å¾noj": 9044,
      "fro": 9045,
      "Ġfigu": 9046,
      "Ġmitropoli": 9047,
      "Ġsola": 9048,
      "Ġkrug": 9049,
      "ðĿĲ": 9050,
      "ĠÃ¤": 9051,
      "wn": 9052,
      "Ġthat": 9053,
      "Ġ110": 9054,
      "luka": 9055,
      "gn": 9056,
      "Äĳenom": 9057,
      "ĠÎº": 9058,
      "kteri": 9059,
      "Ġtvo": 9060,
      "Ġsal": 9061,
      "ĠreÄįni": 9062,
      "ĠÏĢ": 9063,
      "Ġrudar": 9064,
      "Ġprvenstvu": 9065,
      "Ġpostati": 9066,
      "timi": 9067,
      "Ġlokacija": 9068,
      "rnoj": 9069,
      "Ġsha": 9070,
      "Ġpoverenja": 9071,
      "jnu": 9072,
      "Ġputeva": 9073,
      "deta": 9074,
      "ĠreÅ¡avanja": 9075,
      "ĠmreÅ¾ama": 9076,
      "Ġvojvodini": 9077,
      "Ġnjom": 9078,
      "komunika": 9079,
      "Ġprivile": 9080,
      "stike": 9081,
      "ĠsveÄįa": 9082,
      "Ġprirodne": 9083,
      "Å¾Äĳa": 9084,
      "Ġvlasnika": 9085,
      "Ġnepokretnosti": 9086,
      "hor": 9087,
      "Ġonto": 9088,
      "Ġvrsti": 9089,
      "svet": 9090,
      "Å¾nu": 9091,
      "Ġostati": 9092,
      "Ġinteresovanja": 9093,
      "ul": 9094,
      "Ġlider": 9095,
      "Ġnece": 9096,
      "Ġparadi": 9097,
      "Ġtona": 9098,
      "Ġnadokna": 9099,
      "ĠneÅ¾e": 9100,
      "ĠporeÄĳenje": 9101,
      "Ġpamet": 9102,
      "Ġevropskim": 9103,
      "Ġkonkurencije": 9104,
      "media": 9105,
      "Ġdovelo": 9106,
      "Ġfrancuski": 9107,
      "vita": 9108,
      "Ġintenzitet": 9109,
      "Ġopcija": 9110,
      "ÉŁÉ¥": 9111,
      "Ġwww": 9112,
      "Ġimuni": 9113,
      "Ġkape": 9114,
      "Ġdona": 9115,
      "ĠsluÅ¾beni": 9116,
      "Ġdostignu": 9117,
      "Ġpsihi": 9118,
      "Ġdugotra": 9119,
      "cionalnih": 9120,
      "grupa": 9121,
      "joviÄĩ": 9122,
      "Ġkombinova": 9123,
      "Ġ250": 9124,
      "Ġkorisnicima": 9125,
      "Ġarhitekture": 9126,
      "Ġelimini": 9127,
      "Ġborba": 9128,
      "Ġposlovima": 9129,
      "Ġupravnog": 9130,
      "Ġemisija": 9131,
      "Ġstrogo": 9132,
      "Ġumr": 9133,
      "Ġlek": 9134,
      "Ġpromet": 9135,
      "ĠsledeÄĩih": 9136,
      "sca": 9137,
      "Å¾ak": 9138,
      "Ġcla": 9139,
      "Ġemocije": 9140,
      "gare": 9141,
      "Ġradnom": 9142,
      "Ġrobo": 9143,
      "Ġdvadese": 9144,
      "Ġkriminala": 9145,
      "parti": 9146,
      "Ġtalasa": 9147,
      "Ġholan": 9148,
      "Ġ09": 9149,
      "Ġuniverzitetu": 9150,
      "ĠpraÄĩenja": 9151,
      "Ġnaknadu": 9152,
      "sity": 9153,
      "Ġadolesce": 9154,
      "Ġuspeli": 9155,
      "Ġfinansijskog": 9156,
      "Ġpreduzima": 9157,
      "ĠÄī": 9158,
      "pho": 9159,
      "Ġsklopu": 9160,
      "drugo": 9161,
      "Ġdizajni": 9162,
      "Ġnabavke": 9163,
      "Ġdeve": 9164,
      "ĠkreÄĩu": 9165,
      "ÃŃÃł": 9166,
      "ĠsreÄĩu": 9167,
      "Ġsastavni": 9168,
      "Ġupozo": 9169,
      "ĠzemljiÅ¡tu": 9170,
      "stven": 9171,
      "ĠizraÅ¾a": 9172,
      "neko": 9173,
      "Ġbije": 9174,
      "ĠznaÄįenju": 9175,
      "kal": 9176,
      "Ġsredinom": 9177,
      "Ġgrup": 9178,
      "Ġtvrde": 9179,
      "emo": 9180,
      "Ġizdanje": 9181,
      "Ġsmatrao": 9182,
      "Ġprihvatlji": 9183,
      "Ġraski": 9184,
      "ĠdefiniÅ¡u": 9185,
      "cje": 9186,
      "Ġ1000": 9187,
      "Ġpoznate": 9188,
      "Ġperiodi": 9189,
      "Ġpopulaciji": 9190,
      "sud": 9191,
      "Ġindustriji": 9192,
      "Ġsrpsku": 9193,
      "liteta": 9194,
      "Å¡nim": 9195,
      "Ġkomunici": 9196,
      "Ġsrce": 9197,
      "ĠameriÄįkih": 9198,
      "Ġnastale": 9199,
      "Ġpoglavlje": 9200,
      "Ġbiblioteke": 9201,
      "Ġstoje": 9202,
      "Ġigrao": 9203,
      "Ġtrener": 9204,
      "ĠsrÄįa": 9205,
      "Ġodstupanja": 9206,
      "Ġprenosa": 9207,
      "Ġ01": 9208,
      "ĠpruÅ¾i": 9209,
      "bini": 9210,
      "Ġsho": 9211,
      "ĠzloÄįina": 9212,
      "ĠpoboljÅ¡anja": 9213,
      "Ġsekretar": 9214,
      "Ġmihaj": 9215,
      "soli": 9216,
      "Ġnezadovolj": 9217,
      "Ġdonese": 9218,
      "Ġfazu": 9219,
      "Ġtemelj": 9220,
      "zra": 9221,
      "peti": 9222,
      "Ġ62": 9223,
      "Ġvremenskom": 9224,
[...]
